Weights from input to hidden layer.
0.05132774;0.033159874;0.49450698;0.105604015;0.023754481;-0.17820987;-0.05834574;0.013148219;1.1159106;0.8894947;-0.015012097;0.18939511;0.18094708;0.53692836;0.55004543;-0.008359238;-0.77056473;0.8664391;-0.032162108;0.13700144;-0.091311045;-0.05828097;0.43544343;-0.44571868;-0.10207608;0.061935976;0.27324116;0.2916433;0.008327613;0.2464998;-0.25762218;-0.5402971;0.13581862;-0.014201312;-0.0061265593;0.063754275;-0.76945776;0.28074864;-0.21429114;0.5145395;0.037669294;0.6388225;-0.28190455;0.9333801;0.06528679;0.0794794;0.3822314;-0.067596234;0.16653268;0.033332843;-0.3890604;0.11833262;0.12773255;0.3016619;-0.56924206;0.034822866;0.056471147;0.23704009;-0.18361615;-0.46480814;0.1165993;0.86393875;0.31741032;0.2706172;-0.00233223;0.10821955;-0.644332;-0.41149682;-0.698469;-0.0010040791;0.04245924;0.34847453;-0.4479089;0.73111075;-0.032476887;-0.020627722;0.004720802;0.30985177;0.4014615;0.066575356;0.1938614;0.26639733;-0.12761651;-0.08696966;-0.7263794;0.49627826;0.6296675;0.036847506;0.26534596;-0.8132841;-0.07630837;-0.14668345;-0.5870703;-0.5014769;0.65379;0.15115248;0.06880223;0.44768327;-0.02784638;-0.11792252;-0.4896159;-0.28975862;0.31131867;0.03285643;-0.12885518;0.08524958;0.009580878;-0.06680702;0.042999692;-0.19668755;0.17455834;0.3327895;0.12709573;0.3469195;-0.007766021;0.4548038;-0.04619374;0.20834786;-0.023962371;-0.04942368;-0.19846205;0.14567804;0.060457073;0.5563843;-1.0935564;-0.03914415;0.010685373;-0.2244351;-1.0361309;-0.038666204;0.5668205;-0.15413246;0.2609507;-0.027570669;-0.746857;0.056323614;0.58982575;-0.05186394;-0.11083514;0.027378447;-0.54938674;-0.14710331;-0.03641635;-0.3530025;-0.2500267;0.3173476;0.04728207;-0.03395502;0.008785662;0.08090166;0.0923612;-0.12243436;-0.07519013;-0.12335728;-0.10136851;0.683931;0.02729369;0.063507155;-0.17141071;0.059097175;-0.1929692;0.05970692;0.013865679;-0.009497633;-0.4143084;-0.8318547;0.23328942;0.5500246;0.35038716;0.6586378;0.73554784;0.38342068;-0.20391017;0.6464844;0.12135857;0.001281702;-1.127356;-0.0677146;-0.3842937;-0.22704676;-0.030799482;0.8165636;-0.4604081;-0.18446;0.037859634;0.05224468;0.005492016;-0.79896206;-0.8011538;-0.02524998;0.868648;0.34070605;-0.042921234;0.021609759;-0.56535;0.005601252;-0.6329665;0.0140742455;-0.13878448;0.7574821;-0.73790574;0.34006605;-0.8559728;-0.42371535;-0.04558391;0.71886635;-0.014206999;-0.46739337;0.31156564;0.011975085;0.019509282;0.0016396404;-0.2133846;-0.00367387;0.0022651262;-0.025115056;0.5878816;-0.06389634;0.36801475;1.1670367;0.47379035;-0.42607293;0.7450909;0.39236185;0.046771847;0.3415228;0.054927394;0.49465844;0.059238974;-0.14723697;0.01642731;0.09815046;0.19701734;0.54552937;0.41415128;0.5443988;0.51595056;0.56713605;0.020799093;0.64876324;0.6325619;-0.21207555;0.01643444;0.9105722;0.06095674;-0.024093674;1.0878862;-0.29336303;0.08026022;0.03258231;-0.0754735;-0.39339027;0.1894611;-0.061084583;0.7076816;0.15481393;0.16914053;-0.64570385;-1.0148852;0.50876427;-0.09177525;0.011358876;0.30397204;-0.07708948;0.33732268;0.012446063;0.4173523;0.01930642;-0.13093644;0.45864242;-0.82795763;0.58926266;-0.015108352;0.73084605;0.039408766;-0.16842054;0.199688;0.06095956;-0.700369;-0.25077754;-0.5992332;0.09635416;0.055912398;-0.12528768;0.64948434;-0.27730095;0.55597645;0.63869417;0.8973786;0.9168737;-0.9236419;0.21083477;0.04082538;-0.67217803;0.9411362;0.08594464;-0.09157802;0.078774415;-0.010439708;0.02486881;-0.22754945;-0.556948;0.061159275;-0.30734372;-0.025277967;0.565156;0.054394692;-0.818171;0.12019934;-0.3941956;0.40865502;0.15813617;0.11887056;0.69493616;-0.84229827;-0.06593181;0.18263331;-0.013846272;-0.47625935;1.0353148;-0.025383137;0.1060435;-0.2364346;0.018344648;0.47095862;-0.083436705;0.0328917;-0.17939706;-0.26656696;-0.0024513605;-0.11124234;0.03638181;0.51605576;0.09638838;0.43158993;0.3199682;0.614899;-0.12611939;-0.08764272;-0.11783012;0.032363176;-0.06610846;-0.31911588;-0.6153666;0.083985195;0.15180826;-0.40028772;0.26431057;0.4556486;0.10944927;-0.10331869;-0.70611054;-0.044615507;-0.40402195;0.2067519;-0.69265044;0.027031662;-0.52662194;0.67168194;0.5849696;0.8522907;0.12248261;0.05601306;-0.646039;-0.061236117;0.015270934;-0.003714433;0.58293134;-0.76292497;0.8328534;0.31316406;-0.33334145;-0.35516664;-0.0961599;-0.32262924;-0.5233918;0.07342843;-0.1188583;-0.37723592;-0.01698294;0.32897708;0.078345224;-0.19184604;0.3199418;-0.30312818;-0.035617452;-0.0496096;-0.4035607;-0.03152906;-0.0934761;-0.061846282;-0.44346663;0.020158026;0.2773968;0.10262031;0.92717886;0.64221007;0.04976835;0.007373615;0.02266779;-0.18853855;0.88569474;-0.27743244;0.8427835;-0.3735462;0.38787696;0.6503671;0.068913825;0.04912755;-0.26402348;-0.75129;0.30059358;0.009630482;0.41516137;0.21816754;-0.1234928;-0.8647867;-0.28296685;0.25773355;-0.42081648;-0.06533339;0.013781945;-0.017603587;0.7942661;-0.36013475;-0.08500744;0.56472033;-0.5184503;0.37580457;0.005438932;0.2315716;-0.16062796;-0.18251334;0.018280555;-0.039479356;-0.030808467;0.41381156;-0.44561738;-0.03479741;-0.0154321715;0.80152243;0.11173689;0.060813494;0.6280681;-0.010309799;0.095759556;0.048942402;-0.05873362;0.9918076;0.020247163;-0.019388312;-0.6531966;-0.038335755;-0.4282785;0.08078465;0.60840565;-0.7564964;0.29964393;-0.013393814;0.01386466;0.29040232;-0.5580165;0.14649427;0.46347108;-0.24064574;-0.020109335;0.09830256;0.51012903;0.4617812;-0.05905118;-0.4407151;0.06708075;0.33692816;-0.80587304;0.66102266;-0.10425531;-0.09767785;0.0042919335;-1.0399132;0.14749785;0.39358252;0.008669253;-0.02380238;-0.057298694;0.44380596;-0.24893782;-0.08221535;0.05600264;-0.10061275;-0.08175091;-0.22348583;0.59078795;0.7149866;0.047739517;0.012949798;-0.35097578;0.34969458;-0.6549199;0.087752335;0.023196006;-0.27925587;-0.06644359;0.54197115;-0.10050963;0.0033103884;0.6795465;0.1732029;-0.019755518;-0.007031122;0.068236;0.25025052;-0.19161029;-0.56359714;-0.3914294;0.029151449;0.5277099;0.023287062;0.22332804;0.08875965;0.35011384;0.19103464;-0.030087292;0.17844498;-0.47386134;0.023120008;-0.019971933;0.035218216;-0.21457583;0.15806828;-0.026916103;0.6179765;-0.08172516;0.010534458;-0.16369241;0.023791306;-0.66652304;0.0038380444;1.0741838;-0.61895525;-0.07722741;0.03632338;-0.023885394;0.024094868;-0.06765997;-0.20606522;0.42712733;0.86146754;0.075206555;-0.012893458;0.8005128;0.2706515;0.4522676;0.024422796;0.072140925;-0.1783431;-0.5254888;0.8780796;0.056751363;-0.014898803;-0.0035603791;-0.84478116;0.21061787;-0.27941638;-0.01650741;0.3044348;0.13510163;-0.33178797;0.033056512;-0.5150796;0.22873369;-0.33108658;-0.23898348;-0.36600044;0.0060091373;-0.05802349;0.82244563
-0.028907554;0.24380773;0.28739962;0.032053825;-0.097308986;-0.14245939;0.0026556142;0.039126333;0.88894296;0.5178259;0.022567907;0.16574201;0.11545297;0.30764538;0.37069774;0.00176794;-0.7507348;0.56697035;0.034717977;-0.037600175;-0.18736193;-0.028817246;0.427208;-0.37348908;-0.116356514;0.08331059;0.12955482;0.103399836;-0.058161456;0.1023581;-0.09080711;-0.55414754;0.0075653335;-0.14661218;0.030509736;0.04450584;-0.57338184;0.055800308;-0.09516271;0.36416185;-0.07957163;0.39829457;-0.27499405;0.62840384;-0.009783836;0.14075659;0.0614618;-0.065200925;0.38258255;-0.040356025;-0.4642271;-0.04992581;0.22507782;0.17769141;-0.6012874;-0.11957007;0.0875744;0.31744012;-0.16174358;-0.2980556;0.24822624;0.56661105;0.22951591;0.08593642;0.031624313;-0.013629409;-0.26511586;-0.2597659;-0.67823756;0.064709544;0.018904498;0.6485215;-0.26780176;0.49331015;-0.033730626;0.06663821;0.061197836;0.17248185;0.22414991;0.2651368;-0.027473258;-0.0111598065;0.03571966;0.04015805;-0.65738976;0.21840581;0.47800002;-0.024749184;-0.031721108;-0.65484565;-0.16151513;-0.16775645;-0.30824742;-0.5514339;0.37525976;0.004325217;-0.049939763;0.35127383;0.002566945;0.03744322;-0.37002176;-0.035694413;0.22632226;-0.0032213703;0.07874811;0.0019637614;0.08246558;-0.08417522;-0.041016307;-0.36173442;0.070787326;0.20123509;-0.13051203;0.2659916;-0.01461864;0.19917019;0.04495759;0.035085898;-0.06751258;-0.2093389;-0.26772568;0.24698481;-0.08977596;0.29039997;-0.9752412;0.007064092;-0.02216389;-0.28173995;-0.9095464;0.03472255;0.3278611;0.13351244;0.07769414;0.07467127;-0.5691077;-0.011727667;0.39816773;0.03292527;-0.008203375;-0.04294449;-0.3589848;-0.008905149;-0.024480725;-0.296185;0.10377112;0.38910803;0.1152134;-0.2923539;0.0009161618;0.34773728;-0.031948026;-0.23886897;-0.082568884;0.04795453;0.017073112;0.65025437;0.24394782;-0.05097075;-0.11407963;-0.069125615;0.064072214;-0.07485122;-0.040674813;-0.033161957;-0.5986051;-0.60957;-0.10331958;0.4470475;0.53357464;0.37992474;0.56119406;0.38755703;0.014462793;0.39237207;0.06369589;-0.028629143;-1.0905164;0.03833347;-0.27165076;0.0056628105;0.10341462;0.41451862;-0.47018126;0.076233126;-0.049553562;0.03101762;-0.0043528667;-0.73710716;-0.84723747;0.055720873;0.49503848;0.05909972;0.072246335;0.042270955;-0.4824348;0.09111809;-0.65319127;-0.047559317;-0.03648846;0.4861621;-0.6950664;0.026572546;-0.78927076;-0.25035092;-0.20349614;0.347518;0.06750113;-0.4390757;0.4046595;-0.04913589;-0.04645144;0.00010517982;-0.18563795;0.064194426;0.053054143;0.068020314;0.41395906;-0.017243423;0.10519769;0.98208314;0.30562076;-0.21837653;0.47372252;0.29695144;-0.01592864;0.18553862;0.010209489;0.29124784;0.02277891;0.016880231;0.044142928;-0.07356616;0.078401454;0.35859895;0.12222358;0.47958785;0.29221013;0.63236374;-0.014887004;0.37721643;0.4073605;-0.20017226;0.027004492;0.62652135;0.1104759;-0.17496724;0.6770761;-0.12177782;0.03754908;-0.03789365;-0.08021935;-0.32222497;0.02303955;0.15246509;0.5229406;0.361744;0.036685146;-0.63590527;-0.9692263;0.34994847;-0.0018268086;-0.078489736;0.029074943;0.039665006;0.13914782;-0.020845694;0.2577682;0.0037266337;-0.10350548;0.25412628;-0.7328907;0.2929664;0.055847418;0.51510525;-0.0046705357;-0.18856232;-0.03995746;0.0029549126;-0.37340763;-0.2679905;-0.5637682;0.31537348;0.05988326;-0.28979897;0.4453536;-0.11996614;0.45119324;0.4533164;0.6600059;0.7911105;-0.7383253;0.050534293;0.036640495;-0.26840702;0.6258035;-0.01892813;0.0028014844;-0.017836709;-0.012535537;0.039348204;-0.050882336;-0.29557106;-0.010064338;-0.32044044;-0.0031310525;0.4481044;-0.02354696;-0.7976477;-0.20026624;-0.2779897;0.22432524;-0.103247166;0.15361355;0.46540174;-0.7113064;0.19307736;-0.010750698;-0.039890412;-0.3503147;0.8298414;0.001595267;-0.0005817008;-0.092095345;0.0990385;0.40831596;0.048027784;0.039076004;-0.11835685;-0.21361333;-0.003966055;0.052800227;-0.045753088;0.36598226;-0.011412991;0.30815032;0.22153433;0.8117012;0.0623001;0.016060637;-0.056286976;-0.020199345;-0.08743621;-0.16896874;-0.40475956;0.14117847;0.36411902;-0.2729967;0.2923873;0.49276486;0.0326116;-0.022757905;-0.40099505;0.0989368;-0.3243136;0.09727085;-0.79972863;-0.032681633;-0.40761518;0.37925455;0.494522;0.42952624;0.23749153;0.032096315;-0.46266866;0.06365649;0.053724602;0.016709194;0.4049423;-0.6639281;0.5588626;0.08754853;-0.20658614;0.008416046;-0.13103865;-0.42943352;-0.49428025;0.0746669;0.07519007;-0.37605938;0.043428864;0.13639523;-0.050326142;-0.07353192;0.19214843;-0.11648081;0.0009803957;-0.1039702;-0.41007775;0.03463744;0.035042886;0.22891915;-0.09175132;-0.034249134;0.4096934;0.057990327;0.67552215;0.37029347;0.27599978;-0.02106181;-0.012973252;-0.21337202;0.5330461;-0.41521844;0.5933603;-0.14719118;0.23662382;0.5333205;-0.101620026;0.085207105;-0.13796279;-0.7160552;0.21364646;-0.054628577;0.24326354;0.14252768;0.0042527006;-0.9083465;-0.19663514;-0.015789488;-0.2343441;0.03677883;0.05368542;-0.034448277;0.58324474;-0.12859987;0.047924727;0.37672603;-0.23083472;0.27968806;0.069992125;-0.06682843;-0.09286387;0.04918598;0.050190702;-0.043846127;-0.02702799;0.29192278;-0.23113541;0.05479879;-0.11442211;0.6598032;0.032038596;-0.11037715;0.59496933;0.036067087;0.33244535;0.07654771;0.009956669;0.67613846;0.18537731;0.058437306;-0.26497278;-0.25023273;-0.34782174;0.281269;0.373327;-0.68166965;0.5794763;-0.060398385;-0.037833508;0.04349981;-0.27964163;0.08201308;0.2525588;-0.044401933;-0.010910789;-0.023722585;0.3125432;0.20534235;0.087766804;-0.61830395;0.011525415;0.21561536;-0.57364345;0.55805194;-0.07415708;-0.26106527;-0.014524046;-0.69779104;0.08330883;0.20215316;0.18299358;0.04226994;-0.0752878;0.34293035;-0.051804043;0.04527986;-0.045910645;-0.07285671;0.10511982;-0.34950098;0.4346569;0.46393323;0.0138387;-0.032383677;-0.22771873;0.25336057;-0.6916384;0.064263806;0.09081582;-0.32800803;-0.074907765;0.3168619;0.015503266;0.027710674;0.50798774;-0.008712405;0.043105297;0.055156473;0.07529539;0.04129188;-0.004721711;-0.60864186;-0.18381321;0.017459603;0.46332976;0.102794856;0.37972707;-0.066859916;0.38221997;0.068799816;0.13884506;-0.09133184;-0.25912786;0.046162773;0.047031984;-0.093293056;-0.025768934;0.2291508;0.16292685;0.46618724;-0.28168938;-6.163311e-05;-0.06837792;0.0949555;-0.6603661;-0.12664893;0.99743223;-0.57618517;0.14634404;0.024498519;0.037393488;0.09618933;0.023696087;0.007755917;0.45908713;0.5880743;-0.079122685;0.03601323;0.6356587;0.32473984;0.16565101;0.24166657;-0.051128313;0.03156544;-0.47530237;0.7137232;-0.075759456;0.027045615;0.04557835;-0.89941925;0.051792417;-0.23003125;-0.012180763;0.17550384;0.103929214;-0.1607206;-0.088979796;-0.60226697;0.2966655;-0.23227945;-0.061044727;-0.22084825;0.018039051;-0.04520003;0.52862966
-0.022673372;0.25800854;0.15517026;-0.00793209;0.019013153;-0.21817893;0.095004536;0.002613576;0.7393585;0.46530616;-0.031058522;-0.23330347;0.24413486;0.20009856;0.34833077;0.00516201;-0.5893918;0.4678387;0.032282226;-0.039475713;-0.13640875;0.0477299;0.48019177;-0.40061355;-0.04482601;0.18091758;0.09984762;-0.04050585;-0.07803283;-0.06382393;-0.15846184;-0.4197711;0.08209218;-0.15758914;0.006570846;0.019644458;-0.49158207;0.08643016;0.031039098;0.20965706;-0.002827742;0.32022235;-0.17344642;0.42820427;0.018731397;0.32842588;0.12992522;0.059154868;0.44386777;0.026925331;-0.26770216;0.028921973;0.21816404;0.13201609;-0.3232153;0.041068938;0.2222779;0.14244322;-0.11412406;-0.24971099;0.37989786;0.44648108;0.039491873;0.043407515;0.047255635;0.032598127;-0.1897014;-0.36317074;-0.3707693;-0.049814176;-0.044048;0.68488616;-0.14006178;0.29018465;0.11979135;0.018590948;-0.045898452;0.15599696;0.38210654;0.33947715;-0.16792545;0.012673446;0.08464611;-0.026958363;-0.3418905;0.09304472;0.44670162;0.061987475;-0.038327705;-0.5172763;-0.14548415;-0.19981907;-0.35791963;-0.33588704;0.29778138;0.052726667;0.0119161615;0.111438684;0.00771214;0.03622454;-0.31039795;0.092697226;0.07675656;-0.013082938;0.10127503;-0.003368552;-0.004713707;-0.010586745;-0.06085354;-0.32978386;-0.053946212;0.00568724;-0.062067814;0.3368079;0.028177688;0.2000076;0.06928884;0.10756265;-0.09184208;-0.12196464;-0.2322097;0.036126975;-0.0177231;0.29521012;-0.71572036;-0.047002576;-0.050726023;-0.1755916;-0.8438711;0.048419937;0.22304656;0.35441208;0.08694176;-0.02814658;-0.7175809;-0.020472698;0.2558436;0.030575564;-0.0017324812;-0.011842102;-0.4206017;-0.03651063;-0.01904868;-0.3137487;-0.0015938246;0.46261898;0.03769213;-0.23206589;-0.013037524;0.27071095;0.07175604;-0.25750187;0.015949758;0.054166924;0.053992942;0.58043814;0.32905084;0.090541765;0.035416447;-0.03864813;0.124381706;-0.0077837957;-0.057537556;0.040148694;-0.592722;-0.6160674;-0.18195273;0.41560248;0.43551165;0.2764471;0.44649503;0.36038736;0.12057137;0.39516225;-0.06009643;-0.06510785;-0.8149947;0.062707245;-0.073649034;0.18092465;0.00083750405;0.19088145;-0.33874682;0.07253214;-0.0191746;-0.02603165;-0.013824917;-0.5782921;-0.58979774;0.036599685;0.42633712;0.06648479;0.0032266772;-0.07039821;-0.4360815;0.034373555;-0.5393532;-0.07059101;0.112624794;0.35821813;-0.59492546;-0.07210379;-0.59362406;-0.14904219;-0.07687646;0.30803013;-0.040218953;-0.27349818;0.29303274;-0.01237431;-0.009227511;-0.028094903;-0.08787513;-0.0362435;0.020213755;0.04798684;0.2849521;0.014873131;-0.06345635;0.76746273;0.20985277;-0.19557145;0.46693555;0.22222272;0.017418558;0.008589016;0.002569354;0.07973216;-0.024038749;0.12862432;0.0020456312;-0.21371937;0.035684835;0.35372877;0.103087984;0.15095754;0.226254;0.58947587;-0.04094375;0.3132216;0.1945514;-0.23074229;-0.024932178;0.49360067;-0.052221794;0.0063213045;0.62199193;-0.025440302;0.094827436;-0.08517209;0.013108396;-0.17085576;-0.060093433;0.2261968;0.5030216;0.16970015;-0.042264573;-0.55174327;-0.64378536;0.32655072;0.05185361;-0.20712543;0.10163609;-0.04305625;0.14886299;-0.052532203;0.016954066;-0.002569317;-0.0884148;0.14547195;-0.5497738;0.3353899;-0.02968614;0.41345757;-0.018063307;0.026188308;0.07938127;-0.085859634;-0.29719344;-0.2145768;-0.511073;0.22558102;-0.0105127795;-0.14337651;0.34659007;-0.046335984;0.54889506;0.34887576;0.53738815;0.6308399;-0.67410755;0.02871888;0.0069830143;-0.16135524;0.5217365;-0.04525067;-0.018239778;-0.12698351;-0.029084971;-0.025207708;0.14249766;-0.33161107;-0.011541168;-0.29822737;0.0017060357;0.16428657;-0.13609624;-0.49129137;-0.16432582;-0.28143358;0.22677574;0.023580432;0.08344594;0.37109682;-0.48512626;0.37671053;-0.056317188;0.018724712;-0.37894797;0.7254859;-0.031409666;-0.03737527;0.024973707;-0.048789125;0.45033234;-0.06959809;-0.028798554;-0.018558232;-0.19657345;-0.0005772304;0.044901785;0.078688905;0.31047022;-0.05415695;0.29843494;0.08696149;0.75496274;0.122137286;0.051532194;-0.16436176;-0.01374683;-0.026424155;-0.22416823;-0.35211807;0.19530077;0.4461668;-0.20758553;0.32587856;0.53775483;0.044965662;0.045668934;-0.38008934;0.07881506;-0.21389785;-0.040050786;-0.76309025;-0.040575832;-0.30770457;0.41145664;0.31635362;0.32639593;0.202178;-0.04205645;-0.4283846;0.04247412;-0.045768753;-0.047987048;0.37221506;-0.42340887;0.43226394;0.027939674;-0.043680128;0.20969048;0.055757187;-0.26811862;-0.29182056;-0.08592755;0.0253121;-0.34282508;-0.043474637;0.20280938;-0.087170735;-0.01263219;0.21951805;-0.076874815;0.045487784;0.012705876;-0.32127285;0.08646012;0.056173153;0.19820324;0.10675309;-0.00703807;0.35666823;-0.056340873;0.6026767;0.32488376;0.1369448;-0.056482647;-0.05552386;-0.16612223;0.36697304;-0.3319773;0.6041274;-0.11856304;0.115922846;0.3974114;-0.14926875;0.001473098;0.06708156;-0.689218;0.16924806;0.05106743;0.21814778;0.1031236;-0.09532646;-0.6789977;-0.16191152;0.11004366;-0.1239751;0.005655509;-0.07050884;0.055118583;0.5475198;-0.046734978;-0.06233127;0.23341684;-0.15354511;0.3417464;-0.012633909;0.06460527;0.03173921;0.19456501;0.0083706835;0.043651782;0.055371445;0.21440306;-0.13466418;0.06624208;-0.0025935855;0.58647555;-0.050163556;-0.004334593;0.53345144;0.055593777;0.306712;0.26082006;-0.05758969;0.60048544;0.3175034;-0.0659316;-0.12205439;-0.2129552;-0.25432628;0.10404261;0.30939844;-0.44764087;0.52104676;0.005324085;0.03457377;-0.123300575;-0.32541212;0.05323696;0.17611687;-0.042739686;-0.0036575329;-0.041705444;0.21628337;0.1580882;0.041332584;-0.49182767;-0.03995468;0.096643426;-0.37312078;0.39548257;-0.042324167;-0.1509916;0.009946135;-0.62900877;-0.08738531;0.13295902;0.13160475;0.052762136;0.07599449;0.15293546;-0.13580748;-0.033348493;0.031527612;-0.016158648;0.32244098;-0.27665895;0.18033847;0.39630744;-0.08470962;0.00855425;-0.12766913;0.23005979;-0.7048199;0.007001133;-0.042167827;-0.20199922;0.058757342;0.28399602;-0.0534677;-0.066661276;0.43216994;0.13358;-0.05422142;0.06324483;0.062509306;-0.102266245;0.056189176;-0.47911048;-0.1886849;0.036504;0.40146002;0.009850541;0.13426474;0.0047608293;0.41730317;0.12304585;0.057689715;0.04133722;-0.21356598;0.035072543;-0.103592604;0.04932205;0.11810556;0.15526706;0.1366469;0.29897204;-0.26395983;0.055615574;0.060571346;0.08970347;-0.47441334;-0.16974705;0.9159249;-0.6143018;0.2831265;-0.011244701;-0.024840388;-0.018268405;-0.02423996;0.067565896;0.36521715;0.53964555;-0.002160443;-0.03887468;0.66582453;0.39119723;0.0879087;0.29527712;-0.04097523;0.16880988;-0.4001997;0.5174236;-0.069574825;-0.013169885;0.18096153;-0.57306635;0.019525554;-0.24953909;-0.054921158;0.1129652;0.21738912;-0.0101553425;-0.04718431;-0.3255255;0.41363883;-0.2044219;-0.035172325;-0.16250324;0.06450132;-0.018515173;0.42603076
0.0054608122;0.19597998;0.12764327;0.011708068;0.02150027;-0.07278207;-0.05781536;-0.014662241;0.641793;0.35101643;0.06479018;-0.41119093;0.13636476;0.20371072;0.19685574;-0.011791306;-0.5877582;0.4147428;0.056273196;-0.08808273;-0.18495072;0.060442116;0.38057056;-0.44447562;-0.1688245;0.114544146;0.1257508;-0.10422499;-0.033181623;-0.014052571;0.05791671;-0.41471714;0.011961228;-0.21690609;0.04191541;-0.048544254;-0.37015113;0.078710385;-0.054300196;0.2366285;-0.0761343;0.30730227;-0.101230554;0.47332337;-0.038145967;0.34552893;0.016617782;-0.002096257;0.41031003;-0.07307248;-0.2569517;0.05083711;0.37122232;0.22484627;-0.2152729;-0.026289465;0.25849485;0.07283742;-0.16924413;-0.05976088;0.37558845;0.3453423;-0.03178681;0.044190105;-0.010502436;-0.016619926;-0.15084906;-0.31992364;-0.3519756;0.014147169;-0.010081355;0.6886081;-0.21264797;0.22678551;-0.0278253;-0.052348457;0.030856436;0.0036544078;0.21726575;0.40446073;-0.18214595;0.07671952;0.115309805;0.044560567;-0.33385384;0.015833396;0.29061964;-0.058066938;-0.016660154;-0.5117818;-0.18307613;-0.29624915;-0.28070095;-0.2749965;0.26788703;0.06485376;0.027495468;0.058968164;0.017603863;0.0011476199;-0.31290928;0.12140814;0.10151179;-0.021350972;0.2312836;-0.06120952;-0.015440962;0.008052024;0.045609795;-0.1630677;0.069669366;0.034269705;-0.090001985;0.32522827;0.029344533;0.20493568;-0.0633789;0.13697283;0.04421013;-0.07514078;-0.12653118;-0.030090176;0.01707335;0.30092555;-0.49459958;0.051582176;-0.05104718;-0.12671237;-0.6873494;-0.029062977;0.10079683;0.45288652;0.06393905;0.012276119;-0.6163674;-0.02684756;0.24058978;0.0042587696;0.014322875;0.015771022;-0.42311952;0.09793561;0.07998256;-0.21572891;0.1374641;0.3908189;-0.020142792;-0.3558322;0.008882031;0.32674378;-0.019622045;-0.23091592;-0.035636652;0.11241025;0.028424386;0.4889506;0.21960421;-0.05196137;0.057109278;0.07208197;0.27687043;-0.021931019;0.045849305;-0.04269872;-0.6583833;-0.51253855;-0.06050424;0.3003932;0.44879776;0.3099006;0.4091423;0.29943776;0.12140241;0.31570518;-0.037648726;0.0531719;-0.7248967;0.022186289;-0.06475619;0.27234006;-0.030972391;0.21377078;-0.2625015;0.16284963;-0.01099758;0.01586308;-0.08023046;-0.42403096;-0.49116272;0.16944522;0.3283563;-0.01592133;0.023836756;-0.04631566;-0.45774388;0.05949691;-0.54971385;-0.061885815;0.099353276;0.34148654;-0.6213721;0.081185244;-0.38359332;-0.2692629;-0.007888642;0.18295923;-0.017868299;-0.11573926;0.2733585;-0.06411497;0.0646011;-0.05397456;-0.03367495;0.014556625;-0.0240258;-0.032369822;0.29995295;0.04318261;0.089923516;0.4804956;0.30473486;-0.20883279;0.34849957;0.2352257;0.025740255;-0.03159304;-0.025248311;0.061074797;0.030696064;0.12816046;0.03344728;-0.07925016;0.034537192;0.27056164;0.039747912;0.07432056;0.022642465;0.5065701;0.0071843383;0.32994857;0.28810486;-0.13573472;0.023100376;0.34921786;-0.04436493;-0.042170934;0.51234436;0.04321143;0.0055988966;0.041566696;-0.038071137;-0.25397342;-0.08447431;0.20897798;0.468764;0.08771335;-0.045430508;-0.54947525;-0.58848554;0.14599717;0.018904824;-0.16353828;0.0028536061;0.0688294;0.034550853;0.05706042;0.0078075463;0.0083533805;-0.0091775935;0.08212176;-0.27457342;0.21159795;0.027648246;0.1976054;-0.050906077;-0.052201305;0.07363618;0.04884467;-0.24312103;-0.14116634;-0.47651526;0.24926138;-0.10217782;0.0003862142;0.34929088;0.054999698;0.5184197;0.25822204;0.34632027;0.58951634;-0.5366464;-0.06499037;-0.055642944;-0.21345906;0.47545612;-0.03743236;0.009191138;-0.10171579;0.034080677;0.07432626;0.027987072;-0.21652094;0.007037589;-0.3442254;0.031214617;0.08180596;-0.2923835;-0.3499412;-0.30099347;-0.17115328;0.14464943;0.01629047;0.041274372;0.41992983;-0.4483503;0.43666855;-0.081455804;0.035581723;-0.2074587;0.6815379;0.08479791;0.01619413;0.027171506;-0.049905904;0.4268492;0.048332807;0.009420696;-0.035878975;-0.17264676;-0.052254573;0.07546704;0.018942183;0.28874877;-0.07813392;0.24947411;0.111399144;0.7955266;0.13339694;0.038729366;-0.02108644;0.087716244;-0.07790105;-0.25670242;-0.36385196;0.22320233;0.4348845;-0.16996087;0.4173195;0.37026495;-0.018851921;0.012371278;-0.22286485;-0.0056220754;-0.04384717;-0.03311012;-0.59801245;0.019263238;-0.27657154;0.22867231;0.26168662;0.30169237;0.07100481;-0.028525718;-0.37974235;-0.048135757;-0.022759464;0.019965356;0.16528364;-0.4603556;0.37681738;0.114433005;0.107876666;0.35308987;0.07967513;-0.33110574;-0.2756567;-0.023685317;0.024771787;-0.24932355;-0.031207656;-0.0024210864;0.005230115;0.011762945;0.040163048;-0.021677513;0.0754033;0.010322246;-0.24458823;0.044140995;-0.060207527;0.34172508;0.19464628;0.05443437;0.42895263;-0.0051973322;0.60063934;0.2566076;0.079798;0.050585307;-0.0003789574;-0.089858696;0.27122366;-0.33110595;0.57285374;-0.06274657;0.26450592;0.35470805;-0.071647376;-0.08288214;0.03305236;-0.66903436;0.10594687;0.051076267;0.1003662;0.24333848;-0.033050556;-0.50535333;-0.1044657;0.07721143;-0.013751054;-0.0037602864;0.013872534;-0.051967256;0.3909053;0.11299978;0.058474787;0.28931218;0.07694163;0.35094082;0.0384182;-0.08054242;-0.07997509;0.23741277;-0.058193427;0.034442928;-0.06327435;0.3249522;-0.049574394;-0.021526372;-0.012025322;0.3868482;0.014859912;0.013455832;0.43294993;-0.002945903;0.3545239;0.16027668;0.043402735;0.35567096;0.4452797;0.046896134;0.087631226;-0.15846883;-0.107775256;0.14209564;0.3067755;-0.38717517;0.56637716;0.055225883;-0.06951443;-0.22914664;-0.24660902;-0.085888095;0.11504404;-0.00881627;0.06871676;-0.0038705256;0.15514155;0.055500027;-0.04794667;-0.3132117;0.057342608;0.04480943;-0.43888897;0.37078324;0.042652693;-0.026060317;0.0057683475;-0.44921485;-0.08483055;0.13109636;0.24567585;0.0188978;-0.073892884;0.15078096;0.0121816965;0.04648789;0.018026229;0.05788361;0.25275657;-0.3565602;0.15110855;0.35010612;-0.031958763;-0.022234945;-0.05611549;0.22032338;-0.58087933;-0.08658837;-0.015987007;-0.19007099;0.018754201;0.22119004;-0.012149638;-0.014735923;0.3864808;0.10811075;0.0696301;-0.07119191;-0.099025324;-0.10651203;0.06250724;-0.47268498;-0.17523865;-0.078055546;0.32157904;-0.015110069;0.31958202;-0.03457834;0.52164227;0.1364097;0.17031415;0.008013058;-0.18608657;0.04878582;-0.11096365;-0.05219098;0.11279976;-0.10588191;0.19100729;0.3331446;-0.2714095;0.0064533614;0.015285539;-0.08193459;-0.36369982;-0.028992718;0.80778337;-0.5787679;0.33567128;0.03701415;0.03262969;-0.03556654;-0.0060575986;-0.068474784;0.36264282;0.44228634;-0.016899478;0.05446836;0.5976688;0.34643006;0.018794622;0.3186917;0.050161146;0.14581425;-0.37004596;0.52425474;-0.034587577;-0.053382576;0.26541796;-0.55767834;-0.033868678;-0.2802322;-0.07100854;0.083566755;0.0695455;0.09388436;0.013358516;-0.41478863;0.3906068;-0.19434835;0.002516241;-0.13843624;-0.06392504;0.036054406;0.4261176
-0.073821805;0.021492964;-0.0062593236;-0.043213584;0.0143077085;-0.23288122;0.08985345;0.020095803;0.42557678;0.20303681;-0.030879216;-0.5408699;0.12265585;0.21360026;0.20629762;0.07453844;-0.46135098;0.3582657;-0.060611248;-0.048784472;-0.049460553;-0.03746795;0.295296;-0.38587004;-0.23505606;0.056345034;0.20221803;0.003447712;0.072537124;-0.087198704;0.059413113;-0.28236237;0.019663412;-0.2459404;0.030886102;-0.019882355;-0.28045094;0.090573;0.08111733;0.18173869;0.049472824;0.3515461;0.0012029944;0.39439988;-0.037756756;0.28001592;-0.0895027;0.1633667;0.40650624;0.011935764;-0.20909452;-0.077674896;0.28982276;0.27270988;-0.07906546;-0.008147336;0.30355397;-0.01684448;-0.09901028;-0.04248289;0.48489997;0.25894368;-0.040857587;-0.04700974;-0.067016244;-0.074129514;-0.17872813;-0.3332694;-0.28054392;-0.045581654;-0.03621985;0.71090955;-0.11686765;0.13946116;-0.032061294;0.05936634;-0.041187685;0.014494276;0.19676308;0.3258684;-0.25777093;0.056798607;0.047938716;0.005276923;-0.14487956;0.016092205;0.284584;0.023503993;-0.0519476;-0.38377768;-0.17313959;-0.32408184;-0.32958013;-0.1886206;0.39128202;0.10785089;-0.015902683;-0.12071633;0.01843463;0.05517335;-0.14785416;0.16034552;0.028218497;-0.023485275;0.2823561;-0.028865546;-0.06495356;-0.019152177;0.04216945;0.012607211;0.059585586;0.043400284;-0.2412189;0.14183566;-0.06588477;0.20531425;-0.032166928;0.06981347;0.01172926;-0.10651174;-0.1538943;-0.03593251;0.06500209;0.18496306;-0.39186972;0.044847686;0.055489726;0.0047868234;-0.5102907;0.0078073246;0.12183764;0.38451153;-0.095925234;-0.02898092;-0.7302068;-0.052945137;0.1326819;-0.03350735;0.047723178;0.0032265803;-0.43132958;-0.017474478;0.09105947;-0.28628266;0.1507226;0.42265;0.11215304;-0.33076525;-0.0023769997;0.19974683;0.08255332;-0.11410907;0.07355447;0.16932549;-0.04738401;0.5707361;0.29221672;-0.068272345;0.11808923;-0.015774447;0.311003;-0.058188222;-0.05126766;-0.04727832;-0.57049173;-0.50363797;-0.07601358;0.28364456;0.40296543;0.33498436;0.34489807;0.27565634;0.034399703;0.33447;0.023471588;0.025136733;-0.41723144;-0.07868607;-0.16788355;0.4098273;-0.056846198;0.08127413;-0.1658267;0.1467513;0.033531494;-0.068746395;0.015503412;-0.23956631;-0.5430915;0.14187156;0.18049088;-0.17001022;-0.05584676;0.0039264387;-0.3416116;0.014378509;-0.42159227;-0.14484599;0.06454612;0.28258905;-0.40539798;0.0008306881;-0.38444662;-0.18540694;-0.078569956;-0.0043675336;-0.008690977;-0.13428088;0.23817524;0.031123718;-0.0021547868;-0.052556552;-0.099987805;0.008472915;-0.03797244;-0.07808178;0.20674911;-0.012134086;-0.0027456635;0.47061676;0.29824713;-0.27447823;0.42199284;0.14786513;-0.037893582;0.03933481;-0.049865946;0.16090764;-0.03419535;0.13294242;-0.09351094;-0.0528154;-0.02141673;0.3643614;0.07175353;0.09180261;0.027967429;0.53192776;0.0825123;0.2638028;0.18255793;0.043442547;-0.010724679;0.3548451;0.007921539;0.029737763;0.4148511;0.02865528;0.0104781585;-0.0062754336;0.060946546;-0.099830724;-0.07948654;0.106762566;0.3847564;0.09567521;-0.028793616;-0.38118637;-0.5112504;0.17381798;0.012009914;-0.10458241;-0.15847325;0.059929125;0.037967496;0.026829693;0.00798406;-0.014056036;-0.152623;0.09686115;-0.2955863;0.30633855;-0.066746466;0.2123714;-0.021872219;-0.045492552;0.0496598;0.033572964;-0.22594358;-0.203947;-0.46060044;0.28589278;-0.015357754;0.06790226;0.32451347;0.0046937736;0.4422551;0.1434516;0.37858784;0.4916029;-0.5033234;-0.13204995;0.005063904;-0.1704687;0.35242972;0.0073827896;0.077692755;-0.13110398;-0.024050271;-0.08675051;0.08400437;-0.1493404;-0.06256406;-0.30724502;-0.034486875;-0.0049953726;-0.4207224;-0.3115486;-0.16327564;-0.09869314;0.15715855;0.037283227;-0.19045186;0.43875265;-0.3267926;0.5352331;-0.08153146;0.030960528;-0.25650448;0.64189976;0.008810227;0.07581734;0.01510935;-0.07569726;0.32838205;0.067264;-0.06413587;-0.0063509303;-0.14843808;-0.03834911;0.05132476;-0.026072955;0.2851023;0.037429012;0.26722887;0.08853036;0.6527508;0.16560127;-0.059164193;0.067181386;-0.06896769;0.05290556;-0.105531484;-0.3045059;0.2942303;0.46407303;-0.07832949;0.42022187;0.48877406;-0.10487902;-0.0014767088;-0.12244684;-0.070619434;-0.017740976;0.022940015;-0.4087191;0.014888292;-0.23301622;0.27570823;0.22029415;0.30376852;0.14619595;-0.038300887;-0.27750129;-0.01910688;0.020569658;0.027407188;0.26460874;-0.32553503;0.35236445;0.13156061;0.029184487;0.32140884;-0.006038068;-0.252353;-0.1255215;0.011112916;0.10313273;-0.156994;0.025907628;0.060963687;-0.055626802;-0.014193431;-0.00086992525;0.08130938;-0.057895176;0.038545925;-0.2454429;-0.112582885;-0.0013698546;0.32260048;0.21318541;-0.05762639;0.3040819;-0.0007367603;0.49881345;0.2256012;0.18151383;0.07037051;0.07087763;-0.072531134;0.22019058;-0.33801985;0.4917929;-0.15365997;0.19343196;0.22855052;-0.1484546;-0.06462162;-0.05354026;-0.59603685;0.092829116;-0.06038099;-0.0027571148;0.16997455;-0.15024629;-0.3051774;-0.044076614;-0.046487987;-0.14407106;-0.05085727;-0.04127411;-0.048055843;0.45227656;0.18913522;0.052489556;0.37906885;0.06196795;0.30954507;-0.021871885;0.016616864;-0.104834676;0.25800627;-0.0025734769;-0.04923074;0.02277925;0.118149266;0.059244305;-0.05451437;0.008514708;0.31492335;-0.0007662895;0.057439283;0.38235095;-0.046079904;0.436693;0.17838863;0.01925348;0.32594195;0.42225048;-0.045383204;0.17229538;-0.26992428;-0.050150894;0.215342;0.08489528;-0.1839952;0.52175814;0.0066386084;0.052356385;-0.40770262;-0.21193157;-0.061491184;-0.010220523;-0.118872486;-0.027781641;-0.11492889;0.16328819;0.09714279;0.014443858;-0.18298788;-0.04137767;0.10214656;-0.25256735;0.3847205;0.076116815;-0.021907307;-0.030550675;-0.41648048;-0.025823675;0.18844146;0.21830702;-0.043138158;0.06937507;0.031191539;-0.026433876;-0.01048243;0.025963755;0.011122034;0.31048554;-0.2560346;0.18140382;0.31076416;0.050567143;0.08239123;-0.10798673;0.18895912;-0.4727616;-0.07217822;-0.015152858;-0.227068;0.0783466;0.1756283;0.021610454;0.053907823;0.29085636;0.06293661;-0.0064596604;-0.028811999;-0.028857654;-0.12763909;-0.018092645;-0.34529853;-0.19188759;-0.047896575;0.263953;-0.04580172;0.13805819;0.029552907;0.47273272;0.042272657;0.15708824;0.033431463;-0.19473182;-0.064335614;-0.1630717;-0.011899728;0.14929046;-0.26540458;0.16061103;0.16793545;-0.16427216;-0.0030046771;0.11883244;-0.08374615;-0.3102557;-0.08744588;0.6321249;-0.66960883;0.41016966;-0.04484198;-0.044781476;-0.056618832;0.019127354;0.06120661;0.25403017;0.25642088;0.04643852;0.00907897;0.6730912;0.36684394;0.104545124;0.37720403;-0.03243704;0.20472375;-0.24873932;0.4592871;0.055991262;0.071389824;0.07255564;-0.5102923;0.046294052;-0.2681398;0.067098774;0.03696562;0.18008931;0.105880916;0.039486483;-0.36728078;0.41702345;-0.28103685;-0.032374192;-0.04600456;0.037373174;0.03230431;0.3850223
0.010335355;0.016119488;-0.031813387;-0.078203164;0.0077240327;-0.1151961;-0.04688255;-0.03147373;0.37377894;0.12641901;-0.021024618;-0.61352813;0.16144;0.14052382;0.17627351;-0.023359692;-0.28924346;0.33330354;0.053815175;0.0033302095;-0.074393526;-0.023930661;0.23902409;-0.27061024;-0.11464624;0.07110034;0.15366274;-0.05622202;0.008740018;-0.10597957;-0.0012110935;-0.1461831;-0.039664757;-0.3152496;-0.0558369;0.05771655;-0.14297831;0.19417623;-0.070216216;-0.057331353;0.02571421;0.33615616;0.12401918;0.26637328;-0.035194222;0.3105987;-0.036450054;0.218263;0.340472;0.031727493;-0.08280063;-0.032816608;0.23575182;0.25338337;-0.04294182;-0.09420531;0.41649732;-0.19225892;-0.11985071;0.076239415;0.39601615;0.2765567;-0.096296325;-0.0955309;-0.005509358;0.03192537;-0.11179464;-0.33057332;-0.07690006;-0.03437033;-0.05397281;0.6181776;-0.012736208;0.07786304;-0.030289458;-0.02359493;0.017025871;0.049658984;0.13267304;0.31485894;-0.1691719;-0.020834377;0.18085787;0.009997504;-0.12800458;-0.060612407;0.2784819;0.023540074;0.03819007;-0.3303321;0.024061844;-0.49217516;-0.23086467;-0.08311139;0.38599813;-0.08001851;-0.042648055;0.020776434;-0.025684355;-0.12243715;-0.18811384;0.30634132;-0.020494133;0.00757208;0.39066523;-0.03278872;-0.081378244;0.09529891;0.0075713624;-0.09510448;0.021212736;-0.086642005;-0.13900185;0.16591743;0.065988;0.22969805;0.05594966;0.07538436;0.07896702;-0.101995826;-0.15183659;-0.053850986;-0.030896893;0.24067375;-0.16857843;-0.03273254;0.019294128;0.052877862;-0.4391052;0.0075169173;0.0030701582;0.53724366;-0.03763185;0.047902063;-0.63555187;0.04163125;0.16099887;0.030602619;0.030571206;-0.009679451;-0.3418298;-0.014965169;-0.05991103;-0.21344723;0.08019811;0.386716;0.102586016;-0.3446173;0.0103893755;0.105181;-0.08982441;-0.09908492;-0.026381804;0.20895252;-0.020132314;0.42700005;0.34314847;-0.013928805;-0.018866593;-0.039804056;0.42274356;-0.091049485;0.05284694;0.07401109;-0.57942605;-0.29837665;-0.09188767;0.28999567;0.49219763;0.23459676;0.19239779;0.18143457;0.09800193;0.3232908;-0.08300815;-0.028774248;-0.37891874;-0.0056957863;-0.08873985;0.3630466;-0.018846342;0.03530407;-0.2313647;0.225705;0.075555526;-0.033278205;0.018455079;0.05662966;-0.3101473;0.02954648;0.31730738;-0.0943314;-0.022629334;0.055847563;-0.25981277;0.06619532;-0.24474698;-0.17831197;0.04898629;0.16899665;-0.36885095;0.012453608;-0.23770985;-0.19995368;0.06676206;0.068074636;0.07213098;0.012784902;0.16123952;0.10287749;-0.039142963;0.06576339;0.016030388;-0.063072555;-0.017705552;0.012482539;0.08884508;0.018497508;-0.017516086;0.37016618;0.29607624;-0.28277275;0.46071404;0.15665504;-0.016014665;-0.0032087867;0.017164798;0.036069013;-0.092360325;0.12797303;0.016646422;-0.07330065;-0.10781028;0.40251178;0.10338098;-0.02290858;-0.022441538;0.42202923;-0.01196995;0.22549929;0.14885336;0.1098438;-0.011995803;0.14135125;-0.0717862;0.09303644;0.2744534;0.020203557;-0.06627781;0.02421952;0.013204396;-0.11790504;0.08804548;0.17880732;0.47676548;-0.049518045;0.03609517;-0.4626829;-0.44626114;-0.022325007;0.0872664;-0.108777136;-0.055782627;0.021725593;0.12475002;-0.0280031;-0.10693234;-0.055164985;-0.051062167;-0.0038991119;-0.1519259;0.18292606;-0.034636997;0.26286882;0.05228625;0.09637475;0.28990826;-0.064486355;-0.15663868;-0.05374774;-0.26985583;0.18609135;0.010732808;0.11250079;0.26423186;0.061701097;0.39286235;0.2255247;0.35461536;0.43504757;-0.3357684;-0.07280081;-0.019266933;-0.05715318;0.20604862;-0.00021176167;0.13705991;-0.05323819;0.03111226;-0.06258809;0.008231382;-0.06280607;-0.06278355;-0.27754787;0.034883853;-0.17087522;-0.3339919;-0.13309471;-0.19006675;0.006675261;0.03519489;0.016023172;-0.30927682;0.322119;-0.24156235;0.5018516;-0.12150145;0.04570783;-0.17556913;0.6386734;-0.04351409;0.032199215;-0.02172725;0.01623577;0.272518;0.05773344;-0.040119976;0.05121929;-0.13941105;0.05143947;0.14051774;-0.0006133972;0.2523719;0.022112014;0.22545908;-0.0073593245;0.65222347;-0.00968782;0.035241697;-0.017672027;-0.0065508867;0.014882829;-0.07299634;-0.29331583;0.25592688;0.39673382;-0.040056225;0.45332718;0.27004474;-0.091405906;0.04708485;-0.04428077;-0.06600588;0.020527087;-0.04842913;-0.33389175;0.03168098;-0.30228075;0.24372517;0.16634461;0.14096774;0.086632;0.06662376;-0.30850205;0.010390608;-0.07038023;0.040188804;0.19680928;-0.2570313;0.20809737;0.1701815;0.15153794;0.4394136;0.09800757;-0.12717962;0.09874542;-0.052637227;0.1240656;0.050970312;-0.012060391;0.12438299;0.000758779;0.13696066;0.10020305;0.009152584;0.048944887;-0.020341754;-0.16598247;-0.028931819;0.08308824;0.28109258;0.3474031;0.018795392;0.31336284;-0.047401406;0.36274788;0.18924998;0.11000182;-0.011474895;-0.07321696;-0.115175515;0.14262101;-0.31395116;0.39180535;-0.08142134;0.081024736;0.36597115;-0.07914851;-0.030233108;-0.013575378;-0.5900388;0.081062414;-0.023325028;0.03779655;0.16659106;-0.0695757;-0.22975256;-0.11237766;0.038794387;-0.013069931;0.016954405;0.01057772;-0.013884045;0.40421212;0.1997311;0.036861777;0.31299847;0.18951163;0.23628142;-0.026127188;-0.06269519;-0.18005742;0.3007095;0.024271581;-0.009014093;-0.025019664;0.22155614;0.021968422;-0.06319034;0.035303578;0.3827051;0.00514692;0.1637502;0.33722004;-0.06426019;0.344491;0.19685176;0.017090429;0.16034274;0.50960106;-0.015398147;0.22804041;-0.3003884;-0.025630882;0.22512323;-0.054720093;-0.069063574;0.5597594;-0.0026106124;-0.075619176;-0.4494189;-0.20882559;9.554391e-05;0.039863467;-0.032458812;0.023954585;0.0050179833;0.019032242;0.12794924;-0.06398258;-0.091532506;-0.066454604;0.027794268;-0.27793542;0.34045297;0.10958621;0.11578448;-0.056105588;-0.3857311;-0.053416353;0.047197137;0.18496506;0.015749875;0.02828423;-0.11473432;0.04147741;0.06905246;-0.099730134;0.0033915965;0.33334377;-0.1635116;0.08943752;0.24193108;0.05777526;-0.027350515;0.015480377;0.13519678;-0.4055571;-0.0036806099;0.026051749;-0.04929406;-0.059770536;0.04041999;0.06567625;0.06743972;0.31301188;0.17529143;-0.06843801;0.009488819;-0.04923361;-0.009729094;0.03808511;-0.31019375;-0.11601321;-0.030840825;0.16382268;-0.00900618;0.21895075;-0.054846007;0.29314157;0.015879711;-0.034327123;0.06593141;-0.15543833;-0.040118158;-0.13407569;-0.04239695;0.12090447;-0.24669652;0.29176277;0.093433;-0.15662244;-0.06549901;0.11381041;-0.080058135;-0.1884873;-0.092266954;0.54077286;-0.5146936;0.30858573;-0.087113746;0.08405107;-0.06529672;0.024287717;0.11063661;0.16281314;0.24161097;-0.03224012;0.031306576;0.64815336;0.2406487;0.07666614;0.40851423;-0.028416172;0.28488815;-0.1296647;0.43633077;0.0887118;-0.025285872;0.18595561;-0.27479753;-0.023793025;-0.15106767;-0.0378682;0.13575488;0.16974285;0.015311716;0.01168303;-0.2175217;0.4878089;-0.34585863;0.06826741;-0.062563345;-0.06267645;0.020603232;0.36302623
0.061472226;0.06854034;0.079340614;-0.041520644;0.011136751;-0.14522512;-0.0024423453;0.0055643357;0.4241358;0.050413366;-0.0031640213;-0.77551335;0.0615035;0.119437344;0.23874617;0.0026880126;-0.27855393;0.21619521;-0.011397492;0.031113273;-0.066938646;0.0295956;0.21441625;-0.2969275;-0.04550943;0.10841026;0.051502235;-0.036309414;0.0029106068;-0.14712335;-0.0010997737;-0.22183701;-0.07930153;-0.2323046;-0.12141799;-0.062400315;-0.18815318;0.23203604;0.039476257;-0.009660664;0.020940367;0.4369028;0.13093661;0.27558875;-0.042987812;0.22656006;-0.06669458;0.058945123;0.2291062;0.058407154;0.022372032;-0.058381423;0.16352017;0.3498398;-0.021776307;-0.11109633;0.41666755;-0.22402903;-0.091907404;0.051543567;0.24415609;0.14686611;0.013118033;-0.12572372;-0.044932302;-0.04414862;-0.028132822;-0.30361426;-0.045348153;0.07509701;0.036096334;0.48419857;-0.13768433;0.13743356;0.017242683;-0.012494492;-0.035509873;0.069795124;0.30393124;0.35304177;-0.08704248;-0.021275368;0.08355866;-0.00094112364;-0.07983002;-0.1580372;0.17335291;-0.053218078;-0.02564031;-0.2789693;-0.02870051;-0.5336819;-0.33531824;-0.13389902;0.32316923;0.083647884;0.10445552;-0.11128992;0.016242215;-0.06403317;-0.07347033;0.3310538;-0.01802549;0.04931422;0.36255044;-0.062121402;0.056500643;0.07458177;-0.022710392;0.01000941;0.15593909;0.007769395;-0.15669541;0.13280725;-0.02050572;0.29108632;0.017814497;0.10051197;0.03219062;-0.16344091;-0.040403433;-0.12534519;-0.058397174;0.19354746;-0.104603596;-0.006639449;-0.024817128;0.025601493;-0.28458935;-0.009928227;0.025957335;0.5111825;-0.048931424;-0.040943142;-0.5151178;0.04418715;0.14837173;0.061832175;0.036752693;-0.033100978;-0.3534897;0.074257694;-0.049672592;-0.24005878;0.09651643;0.35295025;0.14447592;-0.25295752;-0.009291106;0.122539476;0.007987267;-0.10712868;-0.03501749;0.18410182;0.06877279;0.49879372;0.2469674;0.025083164;0.12799865;0.06085972;0.37534583;0.05379743;0.04708322;0.05738903;-0.4077846;-0.2891466;-0.017679876;0.28461578;0.34119552;0.2330489;0.268474;0.22291277;0.13391246;0.15512647;-0.0718947;0.036925703;-0.20120357;0.032669704;-0.15042427;0.46209803;0.054462112;0.010576314;-0.22471847;0.08902046;-0.03809082;0.0075350474;-0.0252005;0.05025646;-0.1959167;-0.006566503;0.21185572;-0.09469379;0.010010599;-0.045267645;-0.23155603;0.0646907;-0.10364777;-0.1587652;0.10111164;0.20493671;-0.23082685;-0.10471815;-0.10544482;-0.16256383;0.07602637;-0.038619645;-0.068448946;-0.0009795859;0.052887697;-0.037246667;0.048510578;0.074865066;0.0440348;0.06646315;-0.03453986;0.015323598;-0.031910237;0.06075573;0.08455597;0.22645964;0.28258708;-0.32549405;0.45429862;0.20858032;-0.002572953;-0.08909005;-0.050782967;0.16236141;0.051956084;0.17472905;-0.009476292;0.017058289;-0.11988328;0.37944245;0.14446531;-0.04368412;0.06994243;0.43413776;-0.05430357;0.21695444;0.14459807;0.11762784;-0.00034838796;0.0791103;-0.039887197;-0.0032802485;0.18038121;0.12366916;-0.03782096;0.046859346;0.043568432;-0.024843698;-0.001626287;0.20328292;0.3429132;0.037190612;0.020433882;-0.28851026;-0.30782762;0.044021152;0.07899743;0.050563928;-0.020303996;-0.051228832;0.080849215;-0.021177629;-0.1413047;-0.00949687;-0.0824259;0.092326306;-0.05473669;0.2702355;0.035010792;0.22526154;0.04641827;0.061101645;0.26041037;-0.084191464;-0.14890741;-0.06558262;-0.29537952;0.3161298;0.040700953;0.21728171;0.3001565;0.13093784;0.3428567;0.1716419;0.20797385;0.5674214;-0.33457616;-0.17248018;-0.078584254;-0.014208969;0.22940454;0.017030504;0.18464549;-0.040991858;-0.030992566;0.012738627;-0.073884636;-0.070400536;0.05367049;-0.22196694;0.05383557;-0.11527396;-0.39345714;-0.016426211;-0.091625065;0.035778385;0.013666502;0.0008384163;-0.23930314;0.48398146;-0.085408784;0.6310424;-0.009038092;-0.0890665;-0.12831666;0.6339733;-0.026753694;0.08606566;-0.1012527;0.01976446;0.15435433;-0.053316426;0.049033634;0.08597646;-0.054352585;0.048584696;-0.035439193;-0.027688337;0.23928499;-0.0017416494;0.09617992;0.026950767;0.50445837;0.12971883;0.022074513;0.11968599;-0.04171733;0.120529;-0.16364643;-0.28226385;0.3380921;0.3766734;-0.13716868;0.3380725;0.33011517;-0.050519317;0.037739247;-0.11390896;-0.012035679;0.039009746;-0.046903666;-0.33861592;0.06638546;-0.2608519;0.19620685;0.16983512;0.21956402;0.08910436;0.010856778;-0.3164235;0.0017412701;0.04668342;-0.11018234;0.22114049;-0.2524535;0.13985115;0.03450162;0.19286996;0.38747528;-0.012722638;-0.09442658;0.23858893;-0.029763635;0.049508266;0.0026639805;0.013987003;0.030336304;-0.11309535;0.027566927;-0.02425234;0.09603579;-0.053777277;0.057309862;-0.11835722;-0.14594777;0.07538354;0.1917438;0.29831663;0.05096705;0.18619727;-0.106530555;0.27099475;0.23364745;0.010756235;-0.0012075993;0.04129509;-0.17746063;0.15363617;-0.27210903;0.3734593;-0.055529512;0.13553548;0.2199659;-0.05536101;0.060432985;0.01395288;-0.46999267;-0.10215429;0.049975265;0.03821912;0.15974894;-0.24860513;0.004100243;0.0051412964;-0.03540872;0.09181624;0.0693652;0.057350542;0.028011981;0.4084749;0.08169316;-0.08162956;0.303013;0.099218786;0.23703198;-0.099369265;-0.0059718885;-0.10511838;0.23906371;-0.0076139574;0.043881956;0.06786823;0.12899351;0.04118718;0.06381012;-0.023291446;0.23761515;-0.0459805;0.018546704;0.25618657;-0.05725556;0.34627908;0.32138863;0.0793479;0.06398697;0.5118809;-0.04989022;0.18734647;-0.2113656;-0.0048990515;0.22020523;-0.043234307;0.1303913;0.6149004;-0.028015073;-0.04125774;-0.3480571;-0.23945142;-0.10647692;-0.09025145;-0.07547241;-0.010019416;0.0147895;0.03131201;0.06465698;0.033053864;-0.007110954;0.039965786;0.026759436;-0.12516224;0.29456982;0.15861718;0.08001224;0.030821946;-0.24122547;0.013708597;0.03275438;0.3420337;-0.07384321;0.059021525;-0.20291892;0.059026122;-0.03633793;-0.02773142;-0.038245965;0.21355133;-0.1030916;0.068584755;0.21369639;-0.051623974;0.030754065;0.021852085;0.1081402;-0.27308053;-0.06549322;-0.06495838;-0.017144784;0.025344076;0.1216738;0.04575245;0.007217932;0.2884335;0.1439879;0.03990698;-0.07648689;-0.03350961;-0.10225729;-0.18444702;-0.2557139;-0.16001585;-0.01776093;0.3038044;-0.051170234;0.18113895;-0.0030923847;0.40664077;0.1329226;-0.040866017;0.037673317;-0.13166793;-0.06843804;-0.23433429;0.088364035;0.25050983;-0.31719142;0.18906772;0.03559633;-0.10824245;-0.06323473;0.096506335;-0.02970529;-0.18482505;0.020478465;0.46788418;-0.5285165;0.32527375;0.052978527;-0.015935272;0.048833877;0.05641731;0.16380364;0.14115939;0.23502715;0.025901873;-0.007227541;0.6014418;0.14556073;0.038534887;0.24643876;0.03383749;0.37103337;-0.06153931;0.427838;-0.02132475;0.0116339605;0.074974746;-0.18601021;-0.038271364;-0.16498871;0.08765575;0.0959622;0.071964465;0.08058317;-0.053066798;-0.140222;0.49074098;-0.28319943;0.061710287;-0.1468456;-0.07257529;0.041626707;0.284533
0.00598399;-0.021868166;-0.00073112035;-0.033854995;0.03322803;-0.20096935;0.056628183;-0.048263013;0.37303033;-0.08430717;-0.006555266;-0.6023472;-0.017507035;0.15228187;0.1098918;-0.04729194;-0.16554758;0.119570814;0.012329952;-0.15403593;-0.09144248;0.007483691;0.11024966;-0.3487744;-0.03998436;0.10417708;0.03850873;0.04055878;-0.0049985694;-0.18895602;0.084941424;-0.13937835;-0.1339677;-0.37579423;-0.010317907;-0.059213758;-0.20177563;0.12541503;0.061406735;-0.15091491;-0.01775414;0.34998778;-0.0019507747;0.10682669;0.029152146;0.21446818;-0.07706224;0.3005508;0.31931123;0.024448583;-0.018279148;-0.08959611;0.13351637;0.3017934;-0.11668809;-0.102670625;0.4351051;-0.20957944;-0.043051813;0.16910653;0.18381427;0.15853392;-0.09011054;-0.0039676484;0.05696907;-0.081373915;0.008156185;-0.14026923;-0.02977379;-0.010015687;0.020453699;0.41551897;-0.059263885;-0.014884326;0.04853414;-0.038422056;-0.044150904;0.039133273;0.17251323;0.2879118;-0.04840221;0.0322299;0.20029716;0.05782748;-0.068097144;-0.13628721;0.078483626;-0.025715547;-0.0870334;-0.20766282;0.046400752;-0.43339673;-0.30827186;-0.08518657;0.26464906;0.004648243;0.068870164;-0.12202537;0.015504955;0.023272194;-0.05232276;0.38526708;-0.01915618;0.0349983;0.31830856;0.06327127;-0.06744564;0.07116917;0.0055860337;-0.1810869;0.19207837;-0.028701944;-0.23040362;0.22356622;-0.033777162;0.21139868;-0.024846917;0.014871935;0.011137933;-0.2717026;-0.11417636;-0.19182584;0.0017601065;0.26858136;-0.0010562551;0.038034547;0.05443252;-0.03637221;-0.22669412;-0.055184666;-0.014660751;0.40220788;-0.096838385;0.03463984;-0.4600575;0.012970896;-0.0139107425;-0.027874649;0.06858184;0.016668122;-0.2884695;-0.046780255;0.042446025;-0.24352236;0.12573604;0.42818365;0.107693866;-0.2218442;-0.009822145;0.16706409;-0.07608909;-0.20020248;0.036374763;0.16149771;0.01835782;0.37571955;0.31647277;0.054788705;-0.009196148;0.0068351887;0.50729793;0.0058929;-0.06563818;0.034890782;-0.51663816;-0.10867644;-0.14464854;0.13186285;0.42110667;0.07273728;0.16546375;0.21797957;0.21199593;0.18574882;0.015746154;-0.020739904;-0.165626;-0.0038309747;-0.06608556;0.47409773;-0.030396441;0.08860449;-0.1787687;0.13579156;0.01592807;-0.0014421594;-0.016195029;0.21081546;-0.095220126;-0.0045460165;0.07885733;-0.25810158;0.07137032;0.003937986;-0.18966204;0.0033012265;-0.03312737;-0.22592412;0.1715279;0.057358027;-0.05611033;-0.13019295;0.047158964;-0.24492186;0.0146092335;-0.05268;-0.03518391;0.12128801;0.12028514;0.077193275;-0.020788513;0.0719491;0.004348134;-0.06173545;-0.0054117716;0.012227722;0.027936501;-0.052445747;-0.020672558;0.20048058;0.32676584;-0.2678696;0.24126673;0.16801941;-0.068649635;-0.22945242;0.07856304;0.14617546;0.051288992;0.15470265;-0.0657356;-0.0060354066;-0.12903227;0.20325793;0.1390252;-0.10011077;0.0035870178;0.40125135;0.012771437;0.19501817;-0.030507602;0.15425321;-0.09292047;0.11091652;-0.0071339463;-0.054842103;-0.02890836;0.028378582;-0.15783419;0.063322976;0.07691037;-0.08994559;-0.111383565;0.26689857;0.14000486;-0.0036393548;-0.034361657;-0.35708418;-0.21247092;-0.068955734;0.20527394;0.09797406;-0.1965779;-0.0076710475;-0.097390465;-0.028553346;-0.051100064;0.010981833;-0.02856407;0.026225923;0.15596783;0.18291946;0.03066026;0.07519057;0.013852157;0.0461858;0.16949482;0.03902988;0.0088008335;0.0563073;-0.12840344;0.20378782;-0.07957174;0.15631416;0.19394311;0.02030781;0.26239583;0.09347439;0.12742713;0.4617714;-0.2395967;-0.28619182;0.006711047;0.10849964;0.18131813;0.011393469;0.06455757;0.029699987;0.028249823;0.013926609;0.042206783;0.0055235974;0.014563636;-0.45476198;-0.017478561;-0.1231922;-0.35479936;-0.11116466;-0.09648107;0.052889988;-0.011843104;-0.10447884;-0.3054599;0.4545956;-0.1048056;0.6669986;-0.10852925;0.032936346;-0.08627421;0.5389344;-0.03607113;-0.024725359;-0.03972151;0.027542327;0.12114159;0.033573706;0.03014991;0.081025176;-0.024996974;0.04754795;-0.04719048;-0.060356464;0.14144427;-0.022962661;0.05656507;-0.08779227;0.53593737;0.08781411;-0.0245732;0.09140901;0.016069146;0.015681008;-0.04322;-0.21344393;0.39061356;0.41679272;-0.013282382;0.3422416;0.31428128;0.010278045;0.06488645;-0.00074690906;0.013958637;0.019840097;-0.08439035;-0.25374067;-0.08242235;-0.042539507;0.017208064;0.09998276;0.09499291;0.040358625;-0.09292316;-0.3806939;0.0029294007;-0.031931583;0.04813814;0.17616543;-0.0770631;0.08432287;0.10379178;0.16896924;0.5011866;0.0028035375;0.008374706;0.19755998;0.07617512;0.07385408;0.04268526;0.03144043;-0.11142493;-0.08793035;0.03880934;0.013748779;0.08451253;0.033104334;-0.035937972;-0.005970788;-0.0019485906;-0.026410565;0.26774713;0.18248622;-0.032693416;0.23546699;-0.030702353;0.23979425;0.12117512;0.07800132;-0.036335994;0.01861796;-0.2806275;-2.3834935e-05;-0.32897344;0.4217247;-0.03171191;0.02808589;0.25312287;0.03303084;0.001829029;-0.020643849;-0.44416434;-0.11756132;-0.053039808;-0.03372236;0.13888995;-0.23223081;0.050060764;0.03177968;-0.068111375;0.08242392;0.03847846;-0.011955733;0.05960908;0.31003806;0.14619735;0.06564586;0.19495015;0.25020075;0.19240518;-0.02611856;-0.06558021;-0.114719234;0.24067359;0.03661855;-0.051765226;0.019490978;0.093289554;0.16163968;-0.06005933;0.017709093;0.1863196;-0.13390899;0.066290975;0.16302954;0.02515621;0.4626492;0.31926385;-0.044199742;0.067594364;0.5099459;0.09562385;0.20724681;-0.1996894;0.011937069;0.3059178;-0.042973194;0.22940245;0.66433537;0.04254329;0.04165302;-0.41570872;-0.18377653;-0.122608066;-0.19732815;-0.02788048;0.00846292;0.06896288;-0.11519694;0.13345718;0.0034474453;-0.11372805;-0.047266778;-0.03427106;-0.16501094;0.2102711;0.25732583;0.076264724;0.072705775;-0.19420043;-0.07073992;-0.07728599;0.41992345;0.04448475;0.05836695;-0.12108937;0.13075706;-0.031641044;-0.006298655;-0.0050474214;0.26391014;-0.19997956;0.11141404;0.12027694;0.03959034;-0.07269935;0.034976393;0.14938772;-0.3853722;-0.060254615;-0.013652464;-0.010374693;0.08413112;0.123178676;0.009485224;-0.017384022;0.23583537;0.10464092;-0.0053504766;0.04067227;-0.07862199;-0.017753404;-0.094125226;-0.3343485;-0.05144079;0.07562481;0.105459355;-0.13741446;0.21718244;0.028879173;0.3287564;-0.0033936698;0.16048111;-0.0007304729;0.006010744;-0.045872346;-0.20001411;0.044867564;0.32293788;-0.32358518;0.23669475;-0.036858883;-0.2866721;0.06366095;0.124936596;-0.03275329;-0.021735528;-0.008715312;0.35610932;-0.3888045;0.34869865;-0.0039149774;-0.02709564;0.02243647;0.023187589;0.1905695;0.09123012;0.18561938;0.026562868;-0.0034908787;0.48654145;0.21850276;-0.06687859;0.25688818;-0.00016259274;0.41312534;-0.19979542;0.37739143;0.021274667;0.044137012;0.07757736;0.008386457;-0.076840155;-0.11118256;0.07769997;0.039093032;0.12711565;0.17160739;0.031549264;0.018108798;0.54671925;-0.35533586;0.11359447;0.021873666;-0.011076972;0.030047275;0.19330429
-0.014275812;-0.06753167;-0.0011181474;-0.053723086;-0.05422394;-0.177606;-0.070488565;-0.026054567;0.2600834;-0.03271843;-0.0062385076;-0.54819703;-0.12621364;0.21920374;0.22304054;0.0044330847;0.05595674;0.18467161;-0.048211772;0.024743766;-0.040010624;0.054021236;0.046355706;-0.24981065;0.00065120304;0.023735272;0.08657517;0.113320775;-0.0064057703;-0.20198171;-0.021422861;-0.090829745;0.10355703;-0.3123234;0.020601174;-0.027119603;-0.16507968;0.32991427;0.193644;-0.059910566;-0.05112271;0.44653103;0.16688262;0.21525681;0.036126718;0.0405815;-0.097439565;0.136857;0.3267231;-0.029549053;0.13087898;0.033589616;0.2023542;0.2877422;-0.111778766;-0.08646027;0.29360574;-0.28437465;0.025434263;0.093727514;0.19114488;0.29275593;-0.08522926;-0.00808007;-0.021103831;-0.01951261;0.05637477;-0.24013445;0.11590099;-0.032930464;-0.005107054;0.26189744;-0.0470903;0.040007114;-0.061751526;-0.029700352;-0.0059463335;-0.07526164;0.15072227;0.24217996;-0.15945293;-0.09749625;0.14425017;-0.015566329;-0.21124192;-0.27769443;-0.015529387;0.0021465088;-0.13697152;-0.13772355;-0.052040663;-0.478123;-0.27528593;0.07958266;0.14698432;-0.12332624;-0.05279082;-0.00494227;-0.031169614;0.014976792;0.11799393;0.27855122;-0.11685034;-0.047402903;0.373805;0.0076577216;0.01357433;0.04459226;-0.08795802;-0.098821126;0.20875087;-0.068301454;-0.23424558;0.1638637;-0.041901138;0.1388164;0.012214554;0.0276645;0.09072579;-0.22342266;-0.008489155;-0.4389242;0.053880006;0.2825103;-0.020600421;0.0656796;0.07129749;0.09191453;-0.20809902;0.007693177;0.0020334895;0.40219745;-0.11907586;-0.052489962;-0.2465792;-0.03314946;0.025519293;-0.06270088;-0.032475226;0.087796904;-0.36193597;-0.038478892;-0.062113788;-0.09149875;-0.01455358;0.3737974;0.15967825;-0.2409338;0.00028789544;0.19194987;0.011154128;-0.22531061;0.096941404;0.23947226;0.005723866;0.3391006;0.19362268;-0.013338403;-0.015953347;0.025641974;0.5452297;-0.037659053;0.039646875;-0.025821405;-0.41145137;-0.14544305;-0.14393221;0.09917641;0.26703256;0.015338202;0.10411859;0.21327141;0.116092324;0.12938505;-0.02270649;0.04533551;0.013554548;0.016639499;0.07797363;0.43224776;-0.08171743;0.047392778;-0.16903308;0.14396603;0.0080187535;-0.04200627;0.010297446;0.20287473;-0.07155766;-0.004891392;0.09670803;-0.23767196;-0.07397213;-0.025400126;-0.19109957;0.024041371;0.046240546;-0.23925409;0.22060531;0.10557791;-0.021238761;-0.10381781;0.13416599;-0.1269827;-0.07705584;-0.023116125;-0.016807495;0.0765074;0.026430445;0.053230297;-0.042739492;-0.0358186;0.021571899;-0.0141418325;0.054908536;0.00010511779;-0.086409464;0.07309881;0.11713834;0.25096503;0.37551305;-0.12866242;0.314245;0.12318091;0.026511304;-0.15167835;-0.04155951;0.15283674;-0.08623461;0.18993273;0.040186614;-0.03231894;-0.08475006;0.2537021;0.1573966;-0.10083992;-0.066048644;0.12451734;0.005436763;0.13696946;0.07810761;0.2392833;0.04356233;0.12829378;-0.021436434;0.06459369;-0.046837837;0.10745351;-0.16160023;-0.07178056;0.055210732;-0.045521278;-0.004162873;0.24366796;0.12990695;-0.058214825;-0.035506688;-0.44104165;-0.16543297;-0.16150483;0.18385139;0.044606276;-0.14798608;-0.0497391;0.01665609;-0.0029231787;-0.06668599;0.015284797;0.03172349;-0.017690765;0.28503257;0.1752849;-0.032417174;0.08040488;-0.085763216;0.019490993;0.31406242;0.018899722;0.002667587;0.01714196;-0.09281348;0.25929677;-0.07065287;0.35556373;0.09729226;0.013426071;0.30467921;0.078971684;0.18797214;0.3531538;-0.16735932;-0.11160182;-0.0028087092;0.13443752;0.19595672;0.019840237;0.34380928;-0.01962242;-0.009010748;-0.028882157;-0.066267125;-0.13997553;0.0016610823;-0.32156688;-0.075598195;-0.11811317;-0.31150767;-0.12042911;0.09900789;0.17892301;0.052714273;-0.03087836;-0.35152838;0.47401935;0.10416041;0.5471817;-0.09469154;-0.045589373;-0.051788732;0.5148813;-0.008046427;0.009883782;-0.10990438;0.0498052;-0.035078317;0.0056492314;-0.059276108;0.14386263;-0.12937035;-0.034598064;-0.12266565;-0.056898434;-0.01879396;-0.067590885;0.106941655;-0.14075653;0.440373;0.097673066;-0.025805384;0.00082814635;-0.027838847;0.05585416;-0.15086125;-0.24477029;0.35702488;0.33789408;0.06983853;0.35197526;0.22810614;-0.005670859;-0.04778009;0.07028398;-0.06681581;0.111194305;-0.11873071;-0.1487325;-0.07448679;-0.09247082;0.045173053;0.03061801;0.122505866;0.10564748;0.06723526;-0.24984613;-0.026306598;0.05872609;0.04920194;0.12997364;0.06545748;0.2521348;0.05316287;0.3067125;0.4290428;0.031523284;-0.04167366;0.2721022;-0.032993235;0.07669144;0.15901576;0.027946359;0.11492951;-0.1605069;0.05210549;0.16149645;0.21343656;-0.050611887;0.0040282514;0.084535964;-0.14225446;-0.044855695;0.15567787;0.20276016;-0.011927387;0.21788035;0.05376399;0.17619337;0.21475612;-0.051950328;0.01241936;0.06066755;-0.19049148;0.029033206;-0.200789;0.41139022;-0.06501428;0.13364588;0.23712815;-0.011301481;-0.024084829;-0.018106876;-0.36489075;-0.1291686;-0.053877976;0.0714895;0.20087388;-0.12293785;0.24551877;0.1690517;-0.059400473;0.04315014;0.046254538;-0.06753378;0.10165971;0.40028575;0.12761761;0.030593285;0.25156972;0.21723361;0.23935667;0.06660453;-0.03553125;-0.06744605;0.21782827;-0.05083071;0.011084542;-0.03415414;0.20847858;0.15148267;-0.04206477;-0.07998168;0.1323814;0.02484772;-0.005154544;0.25984243;0.033717982;0.41500401;0.29399493;-0.051533308;0.09134858;0.52774394;-0.02548862;0.14245053;-0.255699;-0.0043314667;0.10309649;-0.16499597;0.31048593;0.6774431;-0.027131056;0.055587813;-0.46129492;-0.105825916;-0.0070446106;-0.18644352;-0.07189838;-0.068321094;-0.01328734;-0.0021384733;0.15459469;-0.05794331;0.024008224;-0.024556722;-0.031015635;-0.13621615;0.25833914;0.1269519;0.23902155;0.018858498;-0.19463426;0.0064342995;-0.09335075;0.40611392;-0.017029172;-0.012200106;-0.08095671;0.16230032;0.05754427;0.020591686;-0.020814005;0.26782826;-0.21682808;0.026066469;0.124470904;-0.084919795;-0.075964324;0.04372453;0.046533372;-0.3393818;0.015123007;0.016955322;0.16718979;-0.0065162308;0.087495215;0.03377199;-0.035637803;0.18442279;0.26310468;-0.05401544;0.026312059;-0.07097054;0.06377009;-0.01996025;-0.25717875;-0.039552864;0.07163215;0.25813493;-0.1039814;0.07987058;-0.070331;0.1296462;-0.047056805;0.05354533;0.022695994;-0.0070555722;-0.038839895;-0.1113079;0.072586395;0.21625453;-0.38716453;0.21160725;-0.03758452;-0.26240766;0.017995501;0.21127424;0.03248667;0.07254518;-0.0676474;0.3251245;-0.36573377;0.34345415;-0.081122644;-0.039539725;-0.07963504;0.036642592;0.19170216;-0.08946453;0.38385308;-0.11005792;-0.03307052;0.57747;0.08693115;-0.045630623;0.26603043;-0.01077755;0.33862358;-0.12777534;0.26271054;-0.06562086;-0.031215645;0.033269275;-0.057387937;0.07932696;-0.019972779;-0.06728482;0.043279476;0.15269423;0.092941016;-0.009178928;0.01357041;0.4140408;-0.37206742;0.13017789;-0.09018961;0.024107153;0.09883716;0.14154036
-0.009017564;-0.123413816;-0.022226619;0.0031824394;0.06708055;-0.13392685;-0.036921144;-0.04084335;0.31357446;-0.08673345;-0.035241254;-0.5524789;-0.061716706;0.16111375;0.16313562;0.0031436007;0.1305344;0.17112261;-0.05944216;0.043081492;0.105135426;-0.031100687;-0.11199102;-0.29539597;0.124291085;0.1427691;0.13545686;-0.032816518;0.0018037332;-0.17145847;0.002297033;0.04419453;0.07698124;-0.23295042;0.021333149;-0.03767607;-0.22314589;0.34345055;0.19368379;-0.15234359;0.026187483;0.2851731;0.0567565;0.1764681;0.023163944;0.123656325;-0.0788486;0.10692163;0.27896068;-0.05399713;-0.028300194;0.015188417;0.19670513;0.35211435;-0.26017037;-0.16034494;0.38552275;-0.33724427;0.14881869;0.15232319;0.114494026;0.14899313;-0.008547861;-0.11464781;0.023265993;-0.05243312;0.17911509;-0.16516429;0.19789496;-0.0067015835;0.008670702;0.15725195;-0.07812723;0.0024904988;0.074236155;0.019744074;0.06737385;0.05218654;0.29847354;0.25493738;-0.1342491;0.024190858;0.13349596;-0.037490837;-0.2025882;-0.11611129;0.0906639;-0.031706885;-0.14712119;-0.02553045;0.09495086;-0.3048389;-0.3404021;0.121566996;0.22026826;0.017720899;0.07737864;0.053935695;-0.012825573;-0.044322778;0.10264659;0.22854847;-0.073928;-0.08187638;0.22086261;0.0127988355;0.03489922;0.008532679;0.041898675;-0.26180243;0.2352944;-0.047065735;-0.24744964;0.078685835;0.06535941;0.21772008;-0.04279994;0.008206705;0.008304799;-0.10357865;-0.09775243;-0.49350294;-0.03812995;0.21096787;-0.008592668;-0.037792273;-0.0030912487;0.18434766;-0.30155697;0.036328256;0.026344763;0.34133285;-0.08185364;0.021796491;-0.28248283;-0.06547404;0.076613724;-0.014837078;-0.06310194;-0.004846995;-0.36033368;-0.0142165655;0.02782424;-0.08268474;0.15580885;0.3190364;0.04607679;-0.18391584;-0.030727932;0.12808537;0.09583282;-0.19122714;0.010154908;0.22786516;-0.0065047364;0.45033544;0.28347057;-0.08136082;0.09748263;0.049944777;0.58081025;-0.040154792;0.06183043;-0.062018376;-0.27050823;-0.17998071;-0.13549198;0.057354648;0.3027297;0.110452056;0.11976787;0.120532215;0.12882113;-0.026474176;-0.10572873;-0.05778709;0.06460476;0.01819858;0.01657466;0.4569384;0.004459357;0.022099756;-0.12547414;0.07501207;-0.06311543;0.0050713453;-0.06613728;0.285395;0.09754069;-0.043305088;0.15460002;-0.11529947;-0.04626092;0.045183595;-0.015598628;-0.021291088;-0.018025134;-0.24730782;0.04717526;0.09650073;0.014064634;-0.034176167;0.1252874;-0.17888434;-0.015527122;-0.02755545;0.06176767;0.26603723;-0.042191885;-0.029198855;0.0211808;-0.05186354;0.06315543;-0.081810206;-0.039197892;-0.09212213;0.031672936;-0.024727771;0.2034754;0.21359447;0.45187715;-0.17850375;0.2738048;0.16892259;-0.071793295;-0.0058164285;-0.052005384;0.24126981;0.036707662;0.25290734;0.02707326;0.0023729072;-0.21215001;0.22585738;0.033741917;0.014743507;-0.07248084;-0.017841259;-0.056794494;0.054330297;-0.022151766;0.18486558;0.044641588;0.052624863;-0.022628233;0.074604645;-0.033484407;-0.029061971;-0.102158405;0.05489816;-0.014570338;0.002960004;0.008553473;0.13951303;0.085148804;0.014895097;0.02565098;-0.39330325;-0.2220669;-0.10845073;0.15269038;0.17754099;-0.22031417;0.07337965;-0.037368182;0.055639394;0.0137988515;0.07731424;0.13093378;-0.030836085;0.30925843;0.2684116;0.06843566;-0.0045044553;0.009160212;0.11937857;0.16791207;0.0443493;0.008657768;0.08272372;-0.07162055;0.27071148;0.074705265;0.281117;0.10552716;0.0976941;0.46011582;0.18939167;0.14213894;0.34437084;-0.06790879;-0.19172929;-0.0055152937;0.015273195;0.059318244;-0.054592438;0.22724424;-0.01934686;-0.05256817;0.02926388;0.00800853;-0.12128633;0.052586723;-0.4819034;0.06298754;-0.090500295;-0.3035266;-0.1229666;0.054480273;0.05016024;-0.035312474;-0.035885595;-0.30769855;0.3324358;0.17489274;0.61212116;-0.11977057;0.06902526;-0.120742686;0.50119114;0.054921832;0.011932585;-0.05963593;-0.08010116;-0.017583238;0.0038336713;-0.035221234;0.05060168;-0.14817044;0.0626654;-0.07141712;0.07771632;0.027971923;-0.022511361;0.12177095;-0.21253088;0.29183382;0.09296279;-0.029530115;0.10223392;0.05262416;0.08593893;-0.105409555;-0.22859101;0.25895205;0.21341756;-0.010690728;0.34969145;0.2791465;0.044714548;0.0153583195;0.0047423327;0.026833618;-0.0483688;-0.026869312;0.02811103;0.052392665;-0.06199826;0.16693442;0.052471463;0.118843265;0.06283831;-0.024837548;-0.23527338;0.0558511;0.05236123;0.023049546;0.040160548;0.0063833487;0.13125125;0.082457125;0.24371727;0.48886135;0.066088885;0.005120472;0.31244355;-0.04546659;0.06381323;0.29695204;-0.009173634;0.084573135;-0.035054542;-0.01796735;0.10441779;0.20908742;0.0014635071;0.09602298;0.12344024;-0.05494681;-0.036703248;0.19564518;0.17406937;-0.06573655;0.15383838;0.013474118;0.1873127;0.09047888;-0.025346454;0.044625577;-0.066126406;-0.32072675;0.04527391;-0.109534316;0.30973154;0.0060878075;-0.03908288;0.24335389;-0.00034304932;-0.010981806;-0.032050792;-0.27962166;-0.115713805;0.08394538;-0.041184615;0.19770426;-0.16320498;0.15167052;0.20015436;-0.03616125;0.061854877;-0.05652922;0.03287203;-0.04229652;0.4033335;0.0758385;0.045961313;0.27643934;0.2587323;0.23413289;0.0059561473;-0.120745234;-0.041285273;0.18278097;-0.085017316;0.038225275;0.07225082;0.083227016;0.067256235;0.030296098;0.073711574;0.10898536;0.11490543;-0.16636632;0.23408289;-0.032098178;0.3754503;0.327608;-0.023120329;0.08834445;0.45467696;-0.029591449;0.1352735;-0.19467613;0.042518713;0.1484607;-0.21569206;0.39220953;0.6794167;0.040967055;0.09074813;-0.3885052;-0.17505972;0.034306027;-0.1310032;-0.020798331;-0.025079792;-0.057017203;-0.022996835;0.21375662;0.02497318;0.0072924877;-0.04592466;-0.04812009;-0.1877308;0.15909195;0.0433526;0.16682748;-0.005340188;-0.17138876;0.018707989;-0.18367372;0.4033709;-0.05300132;0.05655327;-0.20265758;0.066972494;-0.039630603;-0.045131218;0.060783632;0.3282148;-0.15882987;0.008293486;0.17196655;0.0018209543;0.012589535;0.02781213;0.06773234;-0.21566989;0.011688343;0.006234744;0.22900206;-0.007809436;0.0304059;0.060491864;-0.042324036;0.18328269;0.24816045;-0.017819948;-0.017024763;0.06340029;0.022516428;-0.10457395;-0.10271506;-0.11029127;-0.059761327;0.1478917;-0.272104;-0.04411701;0.052323528;0.10726786;-0.022777515;0.07680759;-0.14664274;0.06624954;0.09306108;-0.21941681;-0.044092637;0.23764306;-0.2955876;0.18721713;0.08455548;-0.28886512;0.011763263;0.3193662;0.04582923;0.052515473;-0.059161875;0.2968983;-0.26472208;0.20399137;0.0571266;-0.04430176;0.028688006;-0.039614473;0.16435003;-0.17140076;0.33186042;0.022460217;-0.067941956;0.5171789;0.07621096;0.040122986;0.15635978;0.013080241;0.51973456;-0.16317528;0.2990643;0.061471444;0.051396202;0.0034498607;0.1226391;-0.041618578;0.013642217;0.08221932;0.0029219585;0.19150828;0.13462552;-0.0055578435;0.15309481;0.34435847;-0.37117118;0.099444404;-0.03145318;0.037752427;-0.05077636;0.106170416
-0.022057846;-0.10721085;-0.10936951;0.06640454;0.008110682;-0.057491396;0.0822747;0.021855662;0.31386304;-0.18077289;0.011472552;-0.48064455;-0.14196558;0.24159305;0.2557592;-0.068995744;0.27553645;0.20110844;-0.023580564;0.03057664;0.16626397;-0.04621196;-0.027062863;-0.17545205;0.11819293;0.099562086;0.25858927;-0.056306385;0.08356352;-0.08835505;0.022742277;0.03796694;0.052496858;-0.032918688;0.043168;-0.032710616;-0.22479245;0.25119722;0.16403277;-0.1025625;0.026296545;0.3065638;0.039956514;0.177975;-0.00696336;0.1942066;-0.08199039;0.20550616;0.18563934;-0.06976152;0.13417026;0.03421815;0.095875755;0.363315;-0.33581838;-0.16466153;0.43454653;-0.32785207;0.15704997;0.1478766;0.07963081;0.18096347;-0.024533626;-0.10031947;-0.012280384;0.06349229;0.15005244;-0.17714225;0.23020196;-0.06257568;0.009176439;0.08314471;-0.06924933;-0.041169066;-0.06824016;0.029214362;-0.047582585;0.014255345;0.30485463;0.1791563;0.016660726;0.0639605;0.15386236;0.04411912;-0.2048891;-0.13410373;0.16751383;-0.020498324;-0.14272209;-0.06689183;0.122370444;-0.36336035;-0.32810295;0.24116057;0.2906117;-0.12375821;0.033491354;0.06489499;0.10251903;0.009259218;0.15014851;0.2287103;-0.160667;0.009221149;0.21456449;-0.0112593975;0.04213754;-0.032978997;0.0036619636;-0.17233495;0.37070462;-0.055902272;-0.3324833;-0.006209721;-0.056755085;0.21192294;0.012044042;0.09275039;-0.05218463;-0.031527597;-0.026721632;-0.59761703;0.04658568;0.19344805;0.07241082;-0.028035264;0.0073656943;0.20007032;-0.23741165;-0.034582417;0.13013761;0.2498961;-0.0534184;-0.05913045;-0.15555938;0.05193212;0.010613425;0.052961055;0.026222985;-0.04313455;-0.23752043;-0.04715993;0.060674183;0.11599084;0.06311841;0.31685314;0.07732703;-0.2221057;0.07002221;0.0049453345;0.077712126;-0.050014578;-0.030220918;0.11350031;0.036090806;0.34598488;0.101077974;0.030925527;-0.011496171;-0.074094914;0.58326805;-0.117456116;0.059935153;-0.003947992;-0.13963331;-0.20144585;-0.118281245;0.03075409;0.3000168;0.12156003;0.1527593;0.13201226;0.14249794;-0.03915281;0.06074025;0.07540861;0.08648198;0.007933445;0.058202606;0.44284257;0.06305307;0.021489447;-0.1844284;0.1303127;0.01887112;0.019856224;-0.08457676;0.38071513;0.0036830886;-0.004821682;0.074521504;-0.2795536;0.039054204;-0.027139688;0.09168966;0.14637478;0.05364179;-0.39354688;0.113943264;0.07145678;0.1457459;-0.043922566;0.17549786;-0.24468274;-0.08430128;-0.08225508;-0.04207144;0.18472925;0.14468081;-0.053294044;-0.02137874;-0.014423703;0.12504289;0.0492038;-0.016777033;-0.018062826;-0.014247975;0.013312704;0.16826837;0.17970365;0.47199917;-0.14861177;0.3060128;0.1013425;0.0421263;0.0011354045;0.06875012;0.3213157;-0.040481925;0.1633459;-0.023048561;-0.016252164;-0.16450834;0.2248351;-0.024974126;-0.035867024;-0.031878874;-0.035738587;-0.01971119;0.121026404;-0.03948273;0.20844217;0.045108043;0.17311099;0.080444135;0.034948517;-0.034031305;0.098713756;-0.10205325;-0.041914187;-0.062011644;-0.07569363;-0.08136766;0.055588704;-0.04527437;-0.10640603;-0.020594638;-0.53173685;-0.07861864;-0.071260475;0.26450598;-0.015352966;-0.053652186;-0.063844785;-0.01886419;-0.03734623;-0.1523168;-0.00070226955;0.080835484;-0.0887506;0.35207874;0.17140137;-0.070980266;-0.0468008;0.02036098;0.080432616;0.21426031;-0.0160836;-0.04543593;0.047664557;-0.0040803184;0.14467114;0.010981611;0.29437968;0.02675971;0.035748802;0.43657753;0.20813286;0.032080058;0.436523;0.003516088;-0.22163785;0.007321801;-0.003819044;0.09162757;-0.005359157;0.3129122;0.08821948;0.076912865;-0.06558959;0.010554953;-0.010725811;0.005550157;-0.46467254;-0.08810985;-0.1062268;-0.2134941;-0.09719521;0.12544845;0.14707372;-0.06803411;0.04298367;-0.2566027;0.41732997;0.20902699;0.6396553;-0.12815495;-0.050881278;-0.04315475;0.57175624;0.019379238;-0.09377168;-0.079854816;0.06945614;-0.20650667;-0.03216349;-0.028715355;0.09353747;-0.10435264;-0.041430287;-0.032732062;-0.021071048;-0.0007110478;0.056367494;-0.025354074;-0.15931167;0.44711876;0.08065845;0.066319816;0.061608788;-0.059807662;0.08509913;-0.1203507;-0.21426192;0.2336155;0.32507658;0.032550324;0.30682275;0.20971017;0.045366444;0.030699091;0.08036981;-0.009864024;-0.059534676;0.016296864;0.1330088;0.018884655;-0.09559492;0.14531744;0.027163314;0.028588945;0.120627075;-0.009444447;-0.1623523;0.019675128;0.047419805;-0.068437554;0.04694208;0.03508963;0.112621434;0.05465998;0.42013282;0.57071096;-0.03262201;-0.029140422;0.4459227;-0.023015969;0.01011472;0.2187275;-0.04403088;0.119695105;-0.01973753;0.0619872;0.011297886;0.10319656;-0.04232277;-0.069863595;0.04879805;5.1161605e-05;-0.037893113;0.12680733;0.07368229;0.051099442;0.10374775;-0.03519916;0.12223551;0.17872643;0.034198087;-0.04576907;0.043466058;-0.24196504;-0.059471924;-0.13265565;0.30641788;0.04560634;0.08555574;0.1831922;0.119892806;-0.03424672;0.11955441;-0.28729057;-0.09405492;-0.025176622;-0.025153913;0.13053569;-0.16197515;0.30336678;0.09514189;0.04961391;0.006940354;-0.06039183;-0.048005383;0.024724334;0.42773435;0.052181304;-0.039383575;0.26836443;0.1380076;0.17433655;-0.04111112;-0.19851264;-0.030255655;0.19093685;0.036580667;0.049061332;-0.004622663;0.17097783;0.016894665;0.060903735;-0.030990034;0.123506844;0.008359315;-0.1291194;0.10397727;0.0033854125;0.40304413;0.3626597;0.009840158;0.08476875;0.3613824;0.06618158;0.2842702;-0.06956449;-0.006688007;0.13172077;-0.17212187;0.3849509;0.54965866;0.07645782;0.0121881785;-0.39439926;0.035241064;-0.11108763;-0.18304524;0.0076962435;0.06348444;-0.03872908;0.071828306;0.08792781;-0.05429879;0.061435618;0.069258645;-0.096923366;-0.08785552;0.17001395;0.050765432;0.07204924;-0.04564629;-0.051675227;-0.050548922;-0.18606055;0.42569557;-0.03607138;-0.07261459;-0.13287905;0.045079514;0.00213518;0.06196441;0.08755334;0.33236936;-0.13188101;0.15086257;0.1594214;-0.038656563;0.062899396;0.014970885;0.09839353;-0.24428675;0.04295468;-0.045220952;0.18263441;0.028034221;0.08887804;0.006109859;-0.046460945;0.16531846;0.121393315;0.10351397;0.0042914343;0.061968844;-0.03713151;-0.083497666;-0.16999173;-0.16286504;-0.045579582;0.19941744;-0.2512762;-0.010903238;-0.007421121;0.2218607;-0.05416598;0.017072773;-0.012776396;0.026805516;0.010302594;-0.13783196;0.017885504;0.27656603;-0.27988198;0.2595534;-0.0011580354;-0.1845634;-0.061629787;0.28992298;-0.043972358;0.15814854;0.051497575;0.27251452;-0.2066331;0.19492276;-0.018256143;0.02410673;-0.04175252;-0.010451857;0.18294182;-0.13737564;0.33512262;0.04652413;-0.0077479407;0.5733209;0.045010604;-0.08220607;-0.01313039;0.041793033;0.4378651;-0.18955462;0.40661028;-0.048001718;-0.057647623;-0.11703858;0.23051493;-0.020570917;0.14855291;0.032356042;0.052244827;0.08245026;0.06879482;0.048910435;0.14065361;0.35283023;-0.4401013;0.0036777179;-0.16553687;0.051918563;-0.058943138;0.043661095
0.012775939;-0.2343056;0.02297023;-0.026519794;-0.043673307;-0.071424805;-0.042557653;-0.036191616;0.38835937;-0.15791409;0.055811163;-0.4048924;-0.12276079;0.21850923;0.15809365;-0.028035067;0.2730474;0.23712449;0.009501131;-0.009627173;0.19537894;0.039515246;-0.2737486;-0.2515641;0.08905933;0.011704836;0.27751952;-0.1110268;0.0008843943;-0.20030665;0.10137395;0.15889362;0.025919437;0.021562368;-0.0050708675;-0.02191875;-0.115066975;0.09309979;0.010146042;-0.10341602;-0.004231918;0.3325919;0.046576057;0.23429376;0.0075161164;0.087076224;-0.07866399;0.07788473;0.2767176;0.045698933;0.014497883;0.07202691;0.16471179;0.26970002;-0.33460832;-0.08260232;0.4733594;-0.30983606;0.20602009;0.15795556;-0.004758341;0.15049723;0.04659206;0.018685132;-0.032791752;-0.06760553;0.14601524;-0.17269124;0.32616863;0.024109023;-0.043790814;-0.08002738;-0.028041704;0.020010265;-0.010563209;-0.037186217;0.08090586;0.014591828;0.21808766;0.07864597;0.019732218;0.10893282;0.2210683;-0.024964591;-0.27952096;-0.20939292;0.02822413;0.030278534;-0.28680167;-0.067503124;0.04305157;-0.31475705;-0.2888874;0.22448896;0.14707278;-0.09208647;-0.058943354;-0.017860953;-0.052335616;0.023867909;0.1617441;0.27596498;-0.13506478;0.03003287;0.23877504;0.008615501;0.075020425;-0.025189856;-0.009205023;-0.23539336;0.29827103;-0.02453066;-0.29648477;-0.11681102;0.05655378;0.22720528;-0.007088409;0.0048213485;-0.04093896;-0.0858088;-0.035512123;-0.5396373;0.044653673;0.1410837;-0.060962956;0.047163807;-0.051877476;0.16963048;-0.43374696;-0.0014266969;0.24162607;0.19337668;-0.16875517;0.061137136;-0.007378018;-0.043667626;0.029449698;-0.047200862;-0.020763397;-0.012210211;-0.12096378;-0.09214693;-0.0011116271;0.16438733;0.120462045;0.2473683;0.099635534;-0.33459517;0.044095524;0.042250324;0.23484726;-0.15994903;0.053487837;0.08374089;-0.0020445702;0.3640479;0.2035662;-0.013163906;-0.026697863;-0.017493661;0.565327;-0.06641185;-0.0011097202;0.06647365;-0.20342526;-0.08040794;-0.07354786;0.081588425;0.20015784;0.008435078;0.13480902;0.108076826;0.21100712;-0.0391885;0.028653936;0.057393122;-0.012587643;-0.016727304;0.104968466;0.40442783;-0.04244073;-0.006444215;-0.0988733;0.102276966;-0.07151583;0.0029289848;-0.07508587;0.40143296;0.10099015;-0.073248215;0.20707327;-0.2263464;7.1403745e-05;0.059650306;0.091544874;0.14777485;-0.0879065;-0.41750634;-0.069421425;0.13762736;0.07372965;-0.043345578;0.23035587;-0.1211144;-0.22239654;0.009994449;0.06907294;0.24062155;0.018754072;-0.047741376;-0.029508619;0.009174396;0.15890326;0.082560964;0.034875438;0.007359433;-0.024194336;-0.0034020257;0.1561322;0.18459934;0.48698893;-0.12139492;0.28260848;0.12618996;0.048845246;0.08674357;0.002612226;0.24771349;-0.029468743;0.16798659;0.07914586;-0.0068797055;-0.19350694;0.17615134;-0.023283727;0.035807643;-0.0820352;-0.14959991;0.057596195;0.048559565;0.048389763;0.11987467;-0.03672557;0.15252747;-0.05755769;-0.025872821;-0.06723989;0.032686614;-0.06410677;0.039522395;0.07382692;-0.06892684;-0.006226178;-0.049709186;-0.08557114;-0.022253865;-0.0041055004;-0.5619375;-0.013294465;-0.05440145;0.22329536;-0.031382672;-0.01999182;0.03205695;-0.030977892;0.07082872;-0.031656533;-0.052886646;0.17409635;-0.33073467;0.21384272;0.26260802;0.04839178;-0.054537576;-0.0009876555;0.10998304;0.20255446;0.020553876;-0.044955652;0.14625882;0.0050058425;0.09661952;-0.02597202;0.2831623;0.013527896;0.16019996;0.43538082;0.15045133;0.17841157;0.4717356;-0.034148317;-0.16971876;0.014879404;0.037857678;0.16927952;-0.055951443;0.22621775;0.09006393;0.07834599;-0.017749256;0.032080796;-0.13253285;-0.060357757;-0.51564294;-0.0139076235;0.013069587;-0.15699819;-0.0018737663;0.16255978;0.13809852;-0.10623179;0.038963515;-0.28805923;0.42610946;0.25435746;0.577106;-0.22435418;-0.03820695;-0.02119929;0.59343445;0.05186029;0.0008967093;0.008790313;0.056847192;-0.21913768;-0.019650443;0.042478308;-0.001096283;-0.0066356324;-0.023852542;-0.115982756;-0.03501032;0.022783786;0.025312552;-0.055714052;-0.27318117;0.395374;0.24238664;0.05675882;0.08089949;0.07225096;0.034370024;-0.14819065;-0.058663324;0.24721442;0.2919204;-0.074581064;0.25439176;0.23638687;-0.041322403;-0.059691057;0.11695857;-0.033657636;-0.042216703;0.009776493;0.19336922;0.02814143;-0.16319643;0.18560955;0.0558163;0.10309188;0.020549228;-0.07794319;-0.1268264;-0.04492641;-0.043535996;-0.026955191;0.060524832;0.056556694;0.013345777;0.1788192;0.43185297;0.54938406;-0.028834455;-0.0061887545;0.3554577;-0.0073468196;0.017110066;0.1891789;0.012382347;-0.062707506;-0.06976526;-0.020988999;0.0031288408;0.07709339;-0.039745282;0.06997502;0.02425548;-0.048356418;0.021906693;0.12768787;0.022982571;0.010389812;0.081922024;0.07739576;0.11305512;0.1796513;-0.12940958;0.0016503927;0.03646085;-0.19739564;-0.07188843;-0.17000155;0.29259834;0.034429785;-0.076452285;0.15743293;0.061946023;-0.077014394;0.055865664;-0.08324926;-0.1527225;-0.034241606;-0.040958226;0.19236226;-0.1329593;0.29576063;0.12689565;-0.015359138;0.110964715;0.068688236;0.005369803;-0.06462321;0.3593567;-0.012347433;-0.009817371;0.16107643;0.22855657;0.17297275;-0.03713086;-0.07840756;-0.19822222;0.22897212;0.04423488;0.032792505;-0.036692098;0.19690022;0.096544355;0.021851026;-0.020542769;-0.036160268;0.031294584;-0.28266826;0.032679018;0.010141306;0.42878732;0.31240577;0.0579616;0.19648685;0.24639538;0.0016521062;0.23868336;-0.017641218;-0.010584495;0.065910146;-0.34507868;0.23717608;0.59648144;-0.050530657;-0.05620948;-0.37316772;-0.08191384;-0.10566158;-0.15275978;-0.09654135;0.03816064;0.068684414;0.020845288;0.094012305;0.06711264;0.04591564;0.011684597;-0.12323719;-0.08017948;0.16501154;0.15670212;0.08855215;0.021251485;-0.047170375;0.006454331;-0.17131892;0.35465956;-0.022564087;-0.06607714;0.015885396;0.043057565;0.06086758;0.04553432;0.026181094;0.33763447;-0.13232535;0.016013969;0.10586959;0.042711876;0.0644988;0.0031380386;0.09008432;-0.2408912;-0.0006886196;-0.061797477;0.2967;0.009136161;0.07100895;-0.03728874;0.025572363;0.14080526;0.162004;0.012238087;0.02320985;0.054134637;0.013547482;-0.18810168;-0.13836311;-0.181768;0.053395562;0.23939477;-0.25608808;-0.018217858;0.00991051;0.19516377;-0.04641801;0.030872323;-0.08610294;-0.08123787;-0.05703656;-0.10342702;-0.02771272;0.29972723;-0.34954473;0.15797056;-0.03342023;-0.23561709;-0.049658135;0.19345868;0.07711669;0.08615255;0.105011605;0.0353722;-0.14291613;0.2810536;0.018314067;-0.013106239;0.0007563273;-0.070352405;0.19896963;-0.29568464;0.2945416;-0.033714507;-0.033349883;0.60574484;0.046643153;-0.11968975;-0.025601054;0.06824848;0.6091822;-0.18519568;0.38575414;0.054411855;-0.06253577;-0.16898867;0.19310063;-0.04341592;0.028295893;-0.0006589405;0.11181687;0.15962397;0.14441934;-0.044599395;0.10560893;0.22676541;-0.42101622;-0.06432136;-0.17200297;0.011316102;0.067390114;-0.13633159
0.054328375;-0.16456537;-0.033566933;-0.033759777;0.057023652;-0.1327036;0.0067342333;0.016233508;0.34826502;-0.1892435;-0.062327217;-0.23560049;-0.21916732;0.23141131;0.18713604;-0.0011361201;0.26549903;0.24821669;-0.050357837;0.08487467;0.10935967;-0.005539669;-0.1639286;-0.17227258;0.12439316;-0.13308306;0.25188383;-0.15097097;0.039235808;-0.18166228;0.058400877;0.15839304;0.090865314;-0.026281513;0.05861536;0.046665274;-0.1440551;0.11896394;0.09159715;-0.15563837;-0.0067089563;0.4217334;0.15115188;0.09166817;-0.000979425;0.14066602;-0.005346699;0.005674231;0.24279964;0.079361394;0.18232773;-0.0649356;0.111141145;0.3074684;-0.3526664;-0.15501803;0.5182619;-0.25836557;0.09830461;0.13250773;0.017360702;0.121435955;0.025873851;0.0109141795;0.018866537;0.07392456;0.16267122;-0.13369668;0.30000865;0.06985859;0.014080403;-0.2395426;-0.1337335;-0.003424755;0.047085293;0.040724527;-0.05685211;-0.053107146;0.12322906;0.04438158;0.022118155;0.21333662;0.14471123;0.074787825;-0.16198611;-0.0518907;0.024843916;0.055576954;-0.2143455;-0.14472084;0.097737335;-0.31203398;-0.3522426;0.3138464;0.1801553;-0.05837961;-0.04620454;0.0032627087;-0.042289928;0.15002143;0.15823369;0.2508057;-0.1827151;0.05323534;0.40509972;0.027709952;-0.057095964;0.027553963;-0.03885297;-0.2851053;0.23927806;-0.03997681;-0.23045309;-0.10696819;0.010715231;0.270452;-0.061716743;0.052480515;-0.03851346;-0.07102945;-0.102308415;-0.48170575;-0.016109738;0.2470297;-0.0010413057;-0.053924233;0.0074280053;0.12274519;-0.4784597;-0.054677885;0.22430223;0.17808905;-0.09342978;-0.045598432;0.11922789;0.056838375;0.025699943;0.012189268;0.029818734;0.06741772;-0.17728302;0.070925556;0.04662657;0.0736951;0.19419919;0.26343733;0.12459174;-0.37748966;-0.037053693;0.07756244;0.2302567;-0.10579198;0.086921796;0.036638405;0.0144664375;0.41661072;0.20657285;0.033447955;0.00979469;-0.03395136;0.5011639;-0.15399094;-0.08261987;-0.047495425;-0.1414851;-0.15063576;-0.15929753;0.097202025;0.1936916;0.15600845;0.07843635;0.15634336;0.23215148;-0.10677715;0.06033503;-0.06345444;-0.06917018;-0.1009453;0.11026955;0.34065813;-0.03157742;-0.060168695;-0.106602594;-0.075608134;0.009213067;-0.011489186;-0.057316698;0.30701196;0.11709904;-0.024560694;0.13419536;-0.12255456;0.033345103;0.02615725;0.22342525;0.111844085;-0.14037222;-0.33691588;-0.096731275;0.039337493;0.054578427;0.02258469;0.3088375;-0.09361136;-0.23064357;0.13041711;0.017815504;0.32455716;0.06499139;-0.007076149;0.015348814;0.044888094;0.27362707;-0.07437061;-0.015635679;0.009883311;0.008225527;-0.05492911;0.23168461;-0.011149871;0.3615008;-0.11217599;0.16793421;0.009815395;0.05859862;0.097216174;-0.06265215;0.3290543;0.0023035982;0.07206645;-0.059327025;-0.10637357;-0.13907494;0.08618314;-0.0985588;-0.057280157;-0.2159628;-0.37085056;0.03533974;-0.07312172;-0.043934636;0.1154972;-0.0007294072;0.10672226;-0.06944172;0.003752169;0.029618826;0.029055642;-0.071611196;-0.08195557;-0.041098323;-0.019909285;-0.060915653;-0.012566299;0.01985578;-0.08431347;-0.026537115;-0.45218992;-0.059748895;-0.010464412;0.1537236;-0.055757366;-0.014083486;0.029372945;-0.0046479804;-0.071557;-0.09963345;-0.020310396;0.04414582;-0.37622198;0.29159173;0.11694419;-0.06353744;-0.045372207;-0.019529149;-0.0013962827;0.053862274;-0.020035582;-0.1376281;0.044212036;-0.016386896;0.11198382;0.03271322;0.20699105;0.03476153;0.23327097;0.46106797;0.18398687;0.06291344;0.32412145;0.09963529;-0.13366534;0.010538462;0.09085805;0.22966717;0.017285936;0.23837365;0.019592796;-0.06682911;-0.04224901;-0.06343425;-0.24630472;0.0218274;-0.41859868;0.057445493;0.026222471;-0.16365916;0.039599087;0.35024914;0.11422928;-0.24646075;-0.039055288;-0.2759255;0.32707715;0.23744044;0.5365261;-0.16804384;0.019065285;0.13674514;0.6347222;-0.046233103;-0.06665454;0.033590145;-0.049824897;-0.28164873;-0.016184095;0.08461597;-0.034952134;0.062398884;0.019195316;-0.0049675675;-0.040556382;0.0003421091;-0.016187223;0.06742401;-0.34545958;0.27176416;0.15969178;-0.053714946;0.0016583956;0.0050522145;0.0059037935;-0.033325404;-0.115373634;0.1498498;0.27403966;-0.014480985;0.21617083;0.23800501;-0.009515674;-0.049405616;0.07924442;0.059002336;-0.14229706;0.05099837;0.20628946;-0.05424176;-0.18627812;0.15229587;0.14312302;-0.11657877;-0.035993144;0.045386676;0.03893171;0.044768784;-0.06287859;0.02988922;-0.035006613;0.13448612;0.009711158;0.068148434;0.3936717;0.50525975;0.015545995;-0.122790016;0.39490768;0.049025994;0.008496111;0.24593924;-0.010166552;-0.07279688;-0.08690611;0.075797975;0.066218376;0.020779867;0.08463342;0.0079491455;-0.02981545;0.03735228;-0.025734246;0.17247255;0.15399058;0.05070814;0.23582987;0.008320983;0.14558063;0.26486275;-0.123433605;0.034129806;-0.050178103;-0.1587024;-0.0031000194;-0.17704065;0.3631702;-0.019516854;0.05184021;0.22366606;-0.03275033;0.05192681;0.090930425;-0.03676421;-0.12281923;0.025958234;-0.0073153987;0.18260357;-0.12263175;0.30019575;0.15889736;-0.0051993397;0.044575877;-0.027271453;-0.03382724;-0.0025185419;0.3920513;0.022153491;-0.032009427;0.09076385;0.300772;0.14922696;-0.0028034186;-0.23237126;-0.1915813;0.112560466;-0.051397;-0.03964698;0.0021384817;0.16524397;0.10430963;0.0398648;0.039848458;-0.11554617;0.06705597;-0.34323388;0.067472234;0.014102241;0.37258598;0.2704528;0.05708834;0.054018427;0.14257884;-0.0156052075;0.09345967;-0.1262964;-0.014109407;-0.05968497;-0.33156356;0.24898957;0.54735327;-0.03483782;0.0075719818;-0.36222112;-0.031091787;-0.14570932;-0.11768452;-0.049729183;0.062294777;-0.056804635;-0.014171275;0.112550184;0.03410967;0.13030554;-0.061992463;-0.13835618;-0.1439135;0.12635286;0.20788054;0.18075313;0.05486334;0.11300505;0.028050395;-0.113106355;0.41960216;-0.037579432;0.046721477;0.09175736;0.11181958;-0.022332884;0.002480374;0.0872555;0.24080732;-0.093013026;0.028665742;0.01545694;-0.035291698;0.019350434;-0.0066966163;0.0924161;-0.19669084;0.04879295;-0.049011525;0.26701653;-0.036467213;0.17729719;0.05813111;0.037323155;0.2147953;0.083436936;-0.010961783;0.02912942;-0.005113542;0.07124744;-0.17811285;-0.08155499;-0.046906263;-0.009220528;0.2354204;-0.16320246;-0.11197984;-0.0018931159;0.08983397;-0.023522738;0.07990204;-0.11229388;-0.0020035226;-0.037414987;-0.13307121;-0.04307653;0.3283034;-0.32787368;0.24107455;0.008339593;-0.12655906;0.07012008;0.13007016;-0.08219059;0.1333161;0.051464234;0.14016137;-0.23885679;0.19537629;-0.034926523;0.025241328;0.049791463;0.025587402;0.13243334;-0.37433898;0.26974934;-0.07232633;-0.039845653;0.51593655;0.23912778;-0.2186914;-0.13370259;-0.08153428;0.63945645;-0.22626473;0.3474257;0.009037602;0.060221024;-0.18894134;0.15468411;-0.08835276;0.07822844;-0.052450255;0.05177753;0.116581485;0.056277253;0.0064333426;0.0260429;0.23448671;-0.35817736;0.022683358;-0.07434592;0.02460208;-0.056652576;-0.1988642
0.010750825;-0.19653761;-0.022662347;0.07109588;0.0037031432;-0.0043005855;-0.06971905;0.089020245;0.16832113;-0.15698145;0.071599424;-0.14674067;-0.13608852;0.15868801;0.34055665;0.002990785;0.28908935;0.23076046;0.013331955;0.02221901;0.1425207;0.026682844;-0.22212303;-0.15280366;0.101526394;-0.069737;0.20412324;-0.14597885;0.07047993;-0.060667552;0.15628262;0.1674086;0.03160879;-0.09908496;0.004776209;0.027719118;0.012366463;0.114329144;0.19689602;-0.14629179;0.02943327;0.43163282;0.18363248;0.15692177;-0.008599143;0.12140547;-0.048666943;0.01221485;0.29100713;-0.0005821578;0.10667726;0.02812797;0.13595787;0.2951777;-0.3562844;-0.19502562;0.5034441;-0.36763316;0.057126313;0.03877187;0.06507141;0.10149409;0.092510656;0.048375342;-0.082378834;-0.07495197;0.105295636;-0.11736803;0.24861246;-0.021355782;0.039849307;-0.13172649;-0.007348893;-0.10836851;0.0069788373;-0.046235032;-0.06407493;-0.06560189;0.19745982;0.062382847;0.057493187;0.3013823;0.28763518;-0.07081578;-0.10597399;-0.124648236;0.0953529;0.012248602;-0.24221852;-0.06618084;0.111982115;-0.20898616;-0.31795886;0.34049535;0.15145886;-0.11314934;-0.05213988;-0.0033442099;0.04353528;0.03793309;0.14088954;0.19470146;-0.22939011;0.051138576;0.27439085;0.0019934615;-0.032019876;-0.08571633;0.06330188;-0.3783997;0.26425356;-0.036289237;-0.22167759;-0.24226154;-0.06038929;0.18953936;0.07729608;0.18703672;0.03148821;-0.03348931;-0.067707434;-0.5602637;-0.020750036;0.22481681;0.0044030566;-0.043663558;-0.04028558;0.09018261;-0.30749357;0.0286735;0.3219559;0.20024438;-0.11022677;0.033301134;0.20520866;0.025013745;-0.07523259;0.018950984;0.02171203;-0.049682867;-0.2640562;0.024292279;-0.07101169;0.18179181;0.18146244;0.3526779;0.18056351;-0.34351066;-0.06345769;0.085859865;0.27584726;0.013096523;0.022742156;0.019530253;-0.028725926;0.27157843;0.2338704;-0.034473836;0.012909115;-0.0420409;0.40704152;-0.10320656;-0.032933325;0.0058570313;-0.047999375;-0.1720114;-0.13498722;0.08634028;0.14106826;0.15200406;-0.02786587;0.14631034;0.093021855;0.018008173;0.0051587997;-0.01568245;-0.060727753;0.039620552;0.19094604;0.30026007;0.09125134;0.113924675;-0.033077627;-0.09827281;0.034168094;0.029265286;-0.031400945;0.3147149;0.11594865;-0.0987988;0.19467956;-0.25793958;0.013307048;0.021355772;0.2552438;0.089439094;-0.11620356;-0.2754144;-0.03780877;0.12885801;0.18098144;0.0350311;0.2756679;-0.15654682;-0.32692456;0.13838986;-0.0326057;0.21290365;0.049930356;0.07079501;-0.03588962;0.046368495;0.20096338;0.0709491;0.061114676;0.0383496;0.04731015;0.007888468;0.25677043;0.0050001494;0.42597193;-0.12008426;0.18948826;0.03845648;-0.011562244;0.06362079;0.050363433;0.3609062;-0.018145321;0.13977762;-0.05653344;-0.023111224;-0.15136315;0.094708614;-0.12869065;0.014275022;-0.057816938;-0.3251468;-0.00051982445;-0.008163504;0.039499678;0.06638819;-0.0033155454;0.17684437;0.04642891;0.032689586;-0.032458637;0.023631478;0.023498125;0.054467194;0.0465777;-0.085849054;0.03520844;-0.111179836;-0.07115624;-0.05953407;-0.07256793;-0.48816425;-0.038612776;0.0012363775;0.23039743;-0.20493433;0.1218723;-0.037199937;0.050981276;-0.031447966;-0.01417101;0.030754428;0.015741417;-0.39861783;0.27789646;0.1999909;-0.008361942;-0.014856397;0.011673362;0.102231696;0.083884895;0.04350872;-0.15227641;0.1549002;0.040496945;0.11957661;-0.04689074;0.22928134;0.002323348;0.090625055;0.42049155;0.22985509;0.17808464;0.32299778;0.0450019;-0.21070927;0.007165229;0.105194144;0.10823382;0.06559954;0.34553653;0.03952117;0.074680015;0.052414868;-0.059883274;-0.2455669;0.04285654;-0.26260734;0.012497497;-0.127364;-0.13399522;0.09140426;0.3241392;0.14677773;-0.2774248;-0.072702944;-0.1706929;0.37874755;0.31743237;0.47247225;-0.2163266;0.010580923;0.11508992;0.5935096;-0.06522327;0.016395777;-0.12015459;-0.06350767;-0.19731778;-0.04667414;0.01607206;0.03009092;0.056545034;-0.045256294;-0.11568011;-0.0024781395;-0.03207704;0.020190263;-0.02575933;-0.30898425;0.35173202;0.16728997;0.037931383;-0.029614054;-0.026987795;-0.06845476;-0.0316542;0.015621962;0.21586207;0.1828545;0.00733808;0.24028896;0.15980217;0.021504652;0.04678168;0.11272141;0.003076104;-0.082666285;0.04762017;0.26627773;0.060463857;-0.07818932;0.18250835;0.08375392;0.003591278;-0.042403795;0.013981084;0.005462261;0.02844039;0.034456756;-0.0075610504;-0.15565616;0.1919581;0.07196024;-0.011468559;0.41666988;0.3560067;-0.026772784;-0.13063063;0.35048425;0.09224065;0.060644068;0.20725238;0.019372547;-0.070829175;-0.081041604;-0.015222302;0.12835602;-0.044119384;-0.021212576;-0.0036911226;-0.049091924;0.056511357;0.020384064;0.15224195;0.056658134;-0.008883607;0.19888072;-0.013776007;0.10368741;0.19749723;-0.11353693;-0.044128507;-0.014272273;-0.1629084;0.083966605;-0.1266059;0.3189531;0.1000403;0.026182244;0.20462549;0.06841371;-0.025185807;0.0006152537;0.014504421;-0.17229061;0.05004957;0.09252968;0.12671132;-0.1342999;0.23520638;0.024636764;-0.047304105;0.11432766;0.046289332;0.0068727024;0.04153827;0.37427002;0.04926184;-0.04517679;0.162803;0.15384246;0.024763145;0.09558413;-0.15612346;-0.068872645;0.1360479;-0.024666721;0.046242595;0.026950123;0.07062758;0.18585831;-0.05400832;0.011700008;-0.07018535;-0.01214313;-0.35402614;0.098428264;0.0060869423;0.35236862;0.27924147;0.02684876;0.08657892;0.11608371;-0.027991172;0.063602924;-0.17103763;-0.015714481;0.041349024;-0.3250937;0.27908954;0.5315051;0.024629777;-0.044120062;-0.27800766;0.0024888278;-0.063490026;0.026057;-0.0057414672;0.0006815586;-0.037552617;0.009481237;0.06425637;0.054533694;0.11414492;0.024262499;-0.13952877;-0.11824179;0.08394521;0.15525293;0.14821276;-0.019580707;0.08429813;0.0085611455;-0.017086675;0.39453295;0.09725852;0.04947686;0.1427204;-0.045999747;-0.011515818;-0.03954386;0.021301376;0.18368544;0.011443438;0.04517154;0.10765948;-0.021736572;-0.06945492;-0.01161257;-0.028803756;-0.10241035;0.03740434;0.03904616;0.19827287;-0.032537658;0.13877381;-0.052562084;0.003175803;0.24307697;0.14268415;0.054241337;-0.05279685;-0.04545079;0.019361291;-0.076400906;-0.023994673;-0.02597267;0.020729376;0.27755916;-0.20870592;-0.15627211;-0.067072205;0.17511438;-0.13199168;0.08418075;-0.1281965;-0.013029084;0.0804548;-0.21337143;-0.018520407;0.33461726;-0.18715607;0.19742686;-0.14671798;-0.2069579;-0.026750475;0.19274971;-0.0015786064;0.25876927;0.06669209;-0.012984506;-0.18908554;0.22634858;-0.06338418;0.07047717;-0.0022372266;0.041460242;0.033268087;-0.34039357;0.27324495;0.047569524;-0.023134753;0.49229777;0.2175911;-0.12158591;-0.20699744;-0.028930083;0.7162079;-0.116157465;0.3846718;-0.015794935;-0.06880621;-0.17879146;0.3072438;-0.109052375;0.054773957;-0.049099457;0.07169209;0.036854237;0.17286277;-0.05988025;0.08428637;0.17103311;-0.3900535;0.0073666903;-0.07769456;-0.08654989;-0.025288533;-0.15594079
-0.101393975;-0.18351021;0.030749671;-0.017393555;-0.06800606;-0.06114942;0.023797706;0.05323611;0.100796774;-0.15816863;0.0051356475;-0.13215248;-0.24255168;0.0962266;0.21743241;0.0029078228;0.32080954;0.28109986;0.03590699;0.053951833;0.12170292;-0.02156618;-0.19900262;-0.1555567;-0.055565055;-0.2044472;0.055989835;-0.09799041;-0.010278371;-0.09151608;0.12572956;0.17515016;0.010611733;-0.06449755;-0.03272633;-0.008915649;-0.106171265;0.0045123403;0.20080923;-0.16200174;0.030783894;0.3400742;0.16945787;0.003264;0.01698464;0.09499367;0.022313407;-0.0030847718;0.19797745;-0.011287686;0.15360932;-0.049028028;0.21549182;0.30091825;-0.2593221;-0.14021342;0.46745005;-0.24447846;0.052345593;0.12752128;0.035586096;-0.014981277;0.020012645;-0.055521652;0.051670615;0.037503492;0.11215752;-0.15438434;0.2022636;0.056635536;0.06426811;-0.30241325;-0.029269665;0.0071879653;-0.054542694;0.067168534;0.081651464;-0.056866005;0.15346482;-0.06714699;0.11260329;0.27660874;0.13545203;-0.04967771;-0.16088296;0.02842083;0.1952738;-0.05137852;-0.3948072;-0.087720715;0.118299335;-0.36644447;-0.3571348;0.35416564;0.120507285;-0.063440114;0.0066046566;-0.014650489;-0.035263754;0.18347496;0.14134558;0.21271263;-0.16693835;-0.04973337;0.26216692;0.029372301;0.009899535;0.022572948;0.0061349315;-0.36345506;0.28940722;-0.19606861;-0.2829224;-0.2859864;0.051957723;0.18951495;-0.0045445026;0.10018011;0.069750614;-0.005085185;0.05928425;-0.49647203;-0.042061727;0.27183;0.002966129;-0.05479697;-0.042960234;0.118691765;-0.3272614;-0.06963665;0.2762245;0.19206034;-0.18230852;-0.032999735;0.33202505;-0.002001946;0.04941841;0.017204054;-0.014431437;-0.025803601;-0.15378861;-0.032293834;-0.053942002;0.15567106;0.19561003;0.31364378;0.23154512;-0.36987934;-0.009908113;0.049828254;0.17350781;0.06150155;0.0026848593;-0.0043438617;-0.0062982715;0.2936337;0.22870329;-0.0058022635;-0.030028343;0.03578085;0.34981406;-0.1231781;0.007459202;-0.07198426;-0.024861868;-0.17463124;-0.10857979;0.074024215;0.17429383;0.07466501;-0.047530532;0.14699793;0.09502478;-0.12224776;-0.01972488;0.0029431519;0.024772134;0.055455193;0.14625326;0.29814932;-0.0040326356;0.096610904;0.059959367;-0.17306682;0.02750411;-0.056538526;-0.071598545;0.340919;0.11629991;0.023253497;0.10026577;-0.29579872;-0.039816223;-0.03880285;0.3331746;-0.024983957;-0.13524874;-0.32056972;0.018456578;0.14987758;0.074618876;0.20851646;0.3594354;-0.02933269;-0.40032226;0.16238813;-0.006173042;0.13642244;-0.06738804;-0.0043040547;0.0708805;-0.08444401;0.18434338;-0.06685965;0.017654652;-0.00053044857;0.061954584;0.010359441;0.23477969;-0.051971965;0.36203203;0.065687306;0.28252906;0.07709598;-0.059047103;0.13417494;-0.035843596;0.22677623;-0.025454298;0.17532451;-0.03639389;-0.051086895;-0.056389898;0.041979738;-0.20554236;-0.10225169;-0.097722374;-0.4138232;-0.03927326;-0.004303591;0.0719158;0.041020427;-0.0236974;0.17384127;0.09733982;0.01903765;0.042894937;-0.03894195;-0.029982867;-0.015551283;0.010852023;-0.07409008;-0.036205422;0.034820285;0.0043727877;-0.11591398;0.010956527;-0.4298673;0.046657342;0.0026416532;0.21252841;-0.21808137;0.035595905;0.06202453;-0.054870944;0.056885917;0.020303803;0.044480335;0.034005098;-0.30690733;0.41322172;0.12821269;0.01713929;-0.044223413;-0.026521526;0.09179425;0.108135596;-0.020241903;-0.023385355;0.058178056;-0.018527713;0.07968069;0.037227836;0.23793386;0.022127058;0.13398033;0.3460255;0.16235097;0.17456287;0.22495335;0.09201372;-0.1464143;0.015154867;0.015509314;0.15347442;-0.04489953;0.41909948;0.06647607;-0.049648985;0.025249869;-0.011353152;-0.33981398;0.006154206;-0.29031515;0.049316574;-0.058738265;-0.04080789;0.2010435;0.21938802;0.10130715;-0.211378;0.03968899;-0.09810139;0.30326203;0.23507264;0.35238972;-0.21907116;0.0092290845;0.0926416;0.4402715;0.0063056014;0.0133680105;0.05000479;-0.036210325;-0.34224048;0.07689401;0.056268238;-0.065179765;0.043747917;0.027095204;-0.21197346;-0.02853976;-0.017985592;0.0124434205;-0.0079861;-0.2729547;0.32043993;0.18113011;-0.06777251;-0.004396444;0.025644567;-0.04218476;-0.03912086;0.00480566;0.19412027;0.13517481;-0.040858936;0.17948398;0.2943641;-0.008430301;-0.08280044;0.13654637;-0.0059507536;-0.045299225;-0.019054944;0.18802235;0.047671046;-0.18728237;0.2687018;0.103028685;-0.11224289;-0.053323228;-0.015593178;-0.017092556;-0.07835066;-0.05395593;-0.007527751;-0.23147358;0.08129208;0.009360762;0.078438155;0.40174496;0.34152383;0.010016745;-0.1268371;0.44682008;-0.058310077;0.011957821;0.21853557;0.023880243;0.030723264;0.0466273;0.09027329;0.13599251;-0.07515224;-0.004133416;0.066953644;0.007478555;-0.017677125;0.048855282;0.14543584;0.06675228;-0.059168365;0.14535825;-0.049976304;0.07007052;0.23569809;-0.1839364;0.05022686;-0.044458684;-0.14009497;0.08524906;-0.08395984;0.35746247;0.08640743;0.042868413;0.16950767;-0.013885061;0.0727375;0.104908094;0.10426367;-0.074724525;0.048756875;0.10030662;0.11219963;-0.032314017;0.2454206;0.13145737;-0.03591576;-0.0067247865;-0.06400921;0.018409273;-0.033665635;0.4166333;0.124532856;-0.07344395;0.09085977;0.27349746;-0.053473618;-0.011927662;-0.14916794;-0.098737836;0.19002666;0.03119967;0.04548828;0.05060688;0.17761369;0.08368301;0.0003638027;-0.048093036;-0.12867631;0.06615735;-0.40654355;0.012518157;-0.03963499;0.22802536;0.20277414;-0.05586509;-0.01728327;0.109583855;0.027198441;0.030820113;-0.089615576;-0.123592466;-0.0072026057;-0.3384727;0.2287421;0.33961764;-0.029884895;-0.006017365;-0.30308577;-0.007852821;-0.029148368;-0.0042417035;-0.07283016;-0.043627203;0.00893475;0.1217113;-0.0026380895;-0.08096732;-0.008839023;0.03905836;-0.09693385;-0.10448998;-0.03233642;0.14980474;0.23766664;0.050152313;0.08246984;0.002380101;-0.15163642;0.3594225;-0.020684337;-0.09057559;0.08664878;-0.03011328;-0.0064709457;0.0023280461;0.14143066;0.2812246;-0.09570105;0.031495906;0.06382118;-0.043045625;-0.029024256;-0.04907866;-0.12125082;-0.10184609;-0.036808033;0.05318168;0.12900238;-0.02422176;0.0067756176;-0.048943534;0.015620195;0.30481306;0.10353531;-0.032525398;0.0006068156;-0.05036233;0.07648491;-0.08171308;-0.0027007447;-0.20433019;-0.018726597;0.20086336;-0.1259536;-0.06727664;0.07876261;0.050545026;-0.07351369;0.14450485;-0.024103887;-0.037348434;-0.047714263;-0.22076811;-0.031189594;0.27336043;-0.082099564;0.17374282;-0.08009474;-0.109200165;0.01776392;0.1860324;0.06738966;0.27128464;0.039341465;-0.005632577;-0.1249838;0.27236983;0.032700893;-0.016866451;0.02801579;-0.044403475;0.08511566;-0.49660364;0.25633177;0.038873613;0.09797557;0.34434307;0.22079578;-0.25380433;-0.25290602;-0.0758518;0.6439919;-0.13493621;0.27838665;-0.0043110023;0.046245366;-0.25198892;0.32234314;-0.08969512;0.09818063;0.000724992;0.089736596;0.07137361;0.032928485;-0.043796208;0.16441762;0.25255808;-0.4059572;-0.07287309;-0.1401303;0.020605054;-0.027388554;-0.053805266
0.061653584;-0.068242736;-0.08889769;-0.043571793;0.009283662;-0.066139676;0.029043658;-0.046772957;0.045215074;-0.25309485;0.06667071;-0.080324434;-0.22194105;0.17210503;0.27932045;0.06767098;0.20334789;0.22541514;-0.03561227;0.0035337869;0.14596881;0.017482955;-0.008227512;-0.051233713;-0.12405813;-0.1421883;-0.006357965;-0.2050861;0.025514027;-0.14628853;0.1861804;0.15184215;-0.05516151;-0.002222152;-0.020998005;0.0718134;-0.12386234;0.07224108;0.11168704;-0.09890978;0.006163857;0.41163987;0.08610154;0.11054401;-0.030567946;0.15070684;-0.07195643;0.10306588;0.34680927;-0.025127336;0.22050104;0.03609575;0.23907743;0.20173618;-0.30869725;-0.23443973;0.46508127;-0.20560563;0.029104846;0.09161303;-0.013396477;0.076663695;0.09310486;-0.0012248831;0.07074744;0.06693178;0.15668026;0.057101928;0.15054493;0.042162854;-0.032821145;-0.20805095;-0.058922082;-0.0012910047;-0.033088196;-0.027288347;0.07289603;-0.14923678;0.17614941;-0.058784623;0.039796475;0.2200184;0.25029933;0.042519376;-0.2825206;0.036912605;0.10862454;-0.028548019;-0.45312005;-0.090071194;0.1992721;-0.4167103;-0.18890885;0.30967718;0.24004818;-0.081438996;-0.04259516;0.065562256;0.013706014;0.13150054;0.16395386;0.2613232;-0.15159574;0.01893468;0.1748324;-0.013824751;-0.052193496;0.023242656;0.041012935;-0.40918988;0.24784505;-0.22743346;-0.32209244;-0.35551745;-0.033301946;0.045386996;-0.016817247;0.08282621;-0.02828049;0.01364532;0.016580421;-0.3052687;-0.017427165;0.2381096;-0.10411469;0.0065485593;0.033848103;0.024119573;-0.15348093;0.047109913;0.30470017;0.14530554;-0.1418313;0.05959784;0.41581073;-0.0017636035;0.040168732;0.0061171697;-0.04239829;0.028488109;-0.24586007;-0.028976128;-0.044107366;0.22548968;0.24124557;0.3270768;0.14621508;-0.5004815;0.015009344;-0.0019016301;0.17973107;-0.021286195;0.03431097;0.15454188;0.016057434;0.28190607;0.12529829;0.0101492;-0.017945891;0.05397554;0.4103383;-0.046560623;-0.008363311;0.04127677;-0.064570434;-0.070103616;-0.16283938;0.044964243;0.09945725;0.06596758;-0.14137445;0.13022631;0.10814863;-0.12573132;0.03887722;0.08010253;-0.15312706;0.05452138;0.19166836;0.39637616;0.032479838;0.027634144;0.08259294;-0.05136917;-0.04972455;0.07935551;0.046641048;0.3431119;-0.08233793;0.07203221;0.0032521195;-0.27675378;-0.010849038;-0.061896544;0.33581224;0.010435877;-0.11138616;-0.4522704;-0.120249055;0.15372957;0.10638263;0.072705284;0.41106337;-0.09277492;-0.4654584;0.16861005;0.023321783;0.20576562;-0.04425929;-0.06258526;-0.0013178935;0.025754679;0.19556107;-0.0032878723;-0.0567877;0.022689335;0.16725792;-0.03324847;0.20702028;-0.030724838;0.3548705;0.098086484;0.17024998;0.043358497;0.053793866;0.08527502;0.031763207;0.32073796;0.054821808;0.12966362;0.030433035;-0.06567083;-0.0968172;-0.038890418;-0.2459599;-0.16697405;-0.12838186;-0.3929984;0.037408672;-0.099954575;0.23862027;0.060884982;0.02182855;0.064649485;0.05292771;-0.041102666;-0.05207533;-0.019680958;0.0007234392;0.039135408;0.031828757;-0.13428824;0.03342754;-0.038939893;-0.15596916;-0.09326006;0.022379331;-0.32399833;-0.03968901;0.0803825;0.1972585;-0.17653647;0.18149939;0.034248166;-0.07945933;0.00038313025;0.00984103;-0.01751213;-0.0052859145;-0.40351075;0.23173042;0.18274036;0.046451993;-0.14656436;0.045595963;-0.011338492;0.14923447;-0.040350284;-0.13200238;0.10455871;0.06201552;0.027157767;-0.010393766;0.2236933;-0.11046478;0.22050124;0.36264616;0.29654518;0.19318879;0.15549353;-0.0127255535;-0.12962653;-0.016109688;0.042649176;0.1122538;0.021702845;0.3307356;0.072351806;-0.04605249;0.09413899;-0.041908428;-0.16625051;-0.029698731;-0.26536822;-0.061252587;0.0019055187;-0.0699911;0.15223224;0.31266752;0.08182732;-0.3267885;-0.03242455;0.04229316;0.22979379;0.3766632;0.43397775;-0.09761423;-0.017555257;0.16551892;0.4207161;0.047524188;-0.03566497;0.025018346;-0.05209165;-0.23266567;-0.0055716536;-0.05130119;0.047310848;0.105878934;-0.068563595;-0.22731255;0.065513566;0.03235256;0.044389997;0.04123415;-0.25016728;0.2803609;0.090482846;0.052712314;0.106194034;-0.072850496;-0.047747333;-0.06730745;0.10734737;0.059696272;0.16401398;0.01802642;0.34485587;0.23583283;-0.0016427052;0.056456868;-0.0068595135;0.05794483;-0.09780914;0.10489678;0.215381;-0.0103244;-0.04474045;0.1117322;0.1807387;-0.102083996;-0.12399225;0.033554733;-0.032429893;-0.02588641;0.0008843971;-0.010680534;-0.24155174;0.120229326;-0.044539645;0.011988463;0.29467556;0.39845535;-0.07521954;-0.021730231;0.3371414;-0.04959348;0.19212896;0.16926476;0.018503996;-0.049406428;-0.05663711;0.023602799;0.037659988;-0.06512101;-0.00226788;-0.0076306188;0.017783543;0.02029243;-0.0071314736;0.058425106;0.23086491;0.029318688;0.21192573;0.00811086;-0.03022208;0.31475052;-0.20958357;-0.053309873;-0.02215995;-0.1388173;0.032145064;-0.24223472;0.36395696;0.056948956;-0.063341;0.18813352;-0.012439653;-0.028560264;0.15111135;0.11537316;-0.12726064;-0.06138929;0.13520867;0.03030373;-0.12728064;0.34073246;0.09642888;-0.008356485;0.09684572;-0.0077002114;0.07139413;0.06632819;0.21803334;0.29970407;0.049729157;0.10854576;0.2514509;-0.041292246;-0.027042978;-0.12524535;-0.10530044;0.16613328;0.0004064405;-0.015561694;-0.035304677;0.16719286;0.027939418;0.004018364;-0.032766122;-0.07565596;0.08217664;-0.3989788;-0.01699324;0.0106555;0.14985852;0.21513197;-0.042711604;0.0028083236;0.042040654;0.0021550863;0.071025275;-0.16700464;-0.14691935;-0.14048861;-0.36087048;0.1813144;0.2884742;-0.027881037;0.051318463;-0.05855825;0.1616944;-0.01162215;-0.0073246825;-0.08742863;-0.06604409;-0.0074493233;0.09055452;0.04644944;-0.07639121;0.05560933;0.04194081;-0.1648631;-0.23362969;-0.03883202;0.19972819;0.26777607;-0.036280464;0.25182116;0.039671537;-0.11423481;0.37755713;0.06999073;-0.059908394;0.17610413;-0.12298711;-0.06367128;-0.0026234568;0.03361561;0.13133252;-0.13750856;0.13086587;0.071185224;0.046177328;-0.012684307;-0.12887417;-0.12009531;-0.16904631;0.03536611;0.031198867;0.08498543;0.025448404;0.15378246;-0.03315751;0.046468355;0.19609196;0.26118526;-0.03640628;0.027305849;0.02093785;-0.014902813;-0.16210967;-0.10476502;-0.1479127;-0.0083875675;0.16247328;-0.025046766;-0.062371068;0.027960265;0.1776192;-0.069041476;0.17989573;-0.016425963;0.042688776;0.049712237;-0.10286217;0.06237371;0.3382678;-0.06945155;0.16417219;-0.13490345;-0.12342066;0.03739228;0.15920997;-0.02323084;0.19180982;0.057265162;-0.03918177;-0.07593469;0.22873673;0.06226461;0.068033904;0.031604175;0.05890063;0.19254689;-0.3936201;0.14283831;0.042013183;-0.040036466;0.34209934;0.18727817;-0.2158306;-0.29962906;-0.07650531;0.58882385;-0.1683462;0.20541234;0.028223325;0.07452505;-0.28805074;0.31466115;-0.1875152;0.10151216;0.0882468;0.20772018;-0.015567797;0.0850678;0.053954814;0.024265803;0.22266391;-0.43132135;-0.20181325;-0.038996972;-0.068044454;0.02958013;-0.09042207
-0.044640906;-0.10624194;-0.050620083;0.018032521;-0.019643784;-0.16223621;-0.014985695;0.02429375;0.16253613;-0.23555085;-0.058248736;-0.17286019;-0.39144748;0.19251536;0.35702905;0.057324935;0.06114161;0.15159899;0.10123579;0.026135873;0.17546828;-0.07121333;0.0019345377;-0.14506675;-0.028986195;-0.07426037;-0.05446588;-0.13714707;-0.024873836;-0.103484936;0.13669002;0.069593005;-0.08737872;-0.024479887;-0.017720658;-0.009801385;-0.0018131697;0.01726971;0.17817692;-0.12291881;-0.014515077;0.3991119;0.1707762;-0.025246037;0.06282276;0.092328034;-0.07130142;-0.053930316;0.19691642;-0.022210598;0.13432147;-0.012720504;0.38109627;0.20799157;-0.26830646;-0.12291752;0.41514686;-0.2072955;-0.0662173;0.060418308;0.0598931;0.029206008;-0.01842277;-0.008046237;-0.011163876;0.043558884;0.08186331;0.026551126;0.08167806;-0.070191056;0.023346892;-0.33942762;-0.053324968;-0.068992764;0.04136703;-0.03729059;-0.032201663;-0.18504488;0.2888838;-0.12540248;0.14996517;0.24626379;0.10676062;-0.013012543;-0.20150459;0.0570705;0.12441846;-0.003869849;-0.3656104;-0.1841126;0.14966987;-0.4467946;-0.20519632;0.24106205;0.17163278;-0.042280186;-0.046234515;-0.026488295;-0.03181585;0.048833467;0.08241193;0.36327285;-0.047554854;-0.05086799;0.2509907;0.0027143836;-0.019569201;-0.09615757;-0.0035717553;-0.32861733;0.3522863;-0.18881908;-0.12844738;-0.30057856;-0.01048798;0.16657639;-0.017082779;0.15624715;-0.076009475;-0.087765805;0.012243765;-0.34318793;-0.0012734899;0.19613081;-0.11582831;0.07000018;-0.029278351;0.004033307;-0.1257304;0.076283954;0.40985572;0.028880805;-0.01956916;-0.04848705;0.32078192;-0.0129063595;0.14617829;-0.049911603;-0.00021258033;-0.057514567;-0.31476602;-0.04499555;0.030902497;0.166013;0.19888794;0.38903016;0.09402916;-0.4201549;0.08190299;-0.079041824;0.19066784;0.05805262;0.02067807;0.014893443;-0.0025692263;0.36595318;0.1298745;-0.070728384;-0.036881063;0.05965352;0.32257155;-0.0286452;0.008578394;0.060232863;0.07039705;-0.079022095;-0.11159295;0.100612886;-0.037937485;0.06677322;-0.12736623;0.15258817;0.26009917;-0.047016338;0.051249072;-0.05120997;-0.15072164;-0.071436174;0.038080886;0.21190241;0.019761788;-0.00027206397;0.056083404;-0.045771264;0.044876948;0.0036575138;-0.0043055294;0.415958;-0.03727775;-0.096437745;0.076367564;-0.16030264;0.02793343;-0.008561004;0.33652472;-0.08155299;0.028530758;-0.39370626;-0.18272474;0.023410106;0.17752509;0.18168671;0.34145102;-0.052263662;-0.5036214;0.03281404;-0.0053249355;0.019131603;-0.1948711;0.027808832;0.031768426;0.071848914;0.14317822;0.0435477;-0.020116588;0.05290852;0.22981016;0.04137025;0.31846344;-0.11612228;0.29464853;-0.02902162;0.17744964;0.075988375;-0.044239152;-0.019056106;-0.019842112;0.26782128;0.018941903;0.13360901;-0.05116065;0.13796437;0.021507652;-0.033191916;-0.3184963;-0.2217702;-0.11988165;-0.36264318;-0.08475382;0.036955625;0.12074559;0.037661582;0.027072646;0.06504162;0.044681754;0.09771275;-0.08228103;0.09456486;-0.07241665;-0.019248521;-0.08510765;-0.15391175;0.009488346;-0.0819382;-0.06015802;-0.037747037;0.023121875;-0.21534005;0.07335583;0.10545941;0.14429754;-0.17517523;0.13520983;-0.056150246;0.046985567;0.020533688;0.053064186;-0.038310286;0.042237505;-0.21505094;0.23884173;0.2741576;-0.038581166;-0.053038158;0.023120854;-0.045504726;0.14228196;0.017442191;-0.049401585;0.11909176;0.050413664;-0.115979545;0.060374696;0.103438646;-0.16174723;0.108182795;0.17987753;0.3200313;0.089864425;0.13446599;0.019112954;-0.08942841;0.042717267;-0.12098682;0.11119886;0.032620333;0.41850635;0.10568961;0.07139995;-0.05094163;-0.25076127;-0.26031184;-0.074077904;-0.17848831;-0.04125824;-0.07818778;-0.086649925;0.115521096;0.25306067;0.0825662;-0.30313477;-0.007919324;0.009849144;0.17090678;0.3056906;0.27618054;-0.11084206;0.03947834;0.23044772;0.33561832;0.008939268;-0.049926925;-0.011926377;0.069708414;-0.28501755;0.0013366309;-0.054301646;-0.016023945;0.036284674;0.00458544;-0.30889043;-0.011724926;0.06333134;-0.012918029;0.016288398;-0.33382604;0.19666559;0.14975259;-0.0032762564;0.044688955;0.052034218;-0.067653105;-0.1029397;0.04874194;0.04030992;0.17487335;-0.1357722;0.2306439;0.3307582;0.049865462;-0.009304858;0.018431183;-0.025229035;0.009322739;0.18499894;0.21244459;-0.05914985;-0.10277815;0.17170934;0.1535769;-0.15000154;-0.18530925;0.0916063;-0.09770669;0.053790122;0.06918768;0.052449863;-0.2811086;0.07502848;-0.012209171;0.0035911729;0.2040463;0.372741;-0.06746031;-0.112742774;0.18564212;-0.0034741391;0.1635602;0.13348635;-0.013723402;-0.073987946;-0.03534003;0.05311293;-0.028998457;-0.022711525;0.0045273993;0.014504634;0.062068652;0.082406655;0.043758;-0.028913148;0.119175315;-0.047869377;0.24156563;0.008153649;-0.018673379;0.20399669;-0.23825485;-0.07158441;0.0096563995;-0.18324529;0.04300213;-0.2930358;0.4412944;-0.086461075;0.028155657;0.05558997;0.18559012;0.0022210141;0.123345956;0.09678067;-0.05862667;-0.018833568;0.18460853;0.08537896;-0.13767126;0.32921228;-0.023004578;0.022512564;-0.028167186;-0.032121845;0.06788432;0.012480086;0.23118693;0.2817537;-0.0065165386;0.17730044;0.20159365;-0.021472283;0.017857658;-0.18313186;-0.17455167;0.18754324;0.026668997;-0.07781431;-0.0056446665;0.17344727;0.046005446;0.0037055286;-0.036192346;-0.078594185;0.028679388;-0.30801556;-0.15468903;0.06515778;0.097379014;0.04984899;0.022201918;-0.10001693;-0.0877045;0.062943384;0.022772938;-0.18274027;-0.13341033;-0.10200412;-0.45375583;0.2146602;0.30810213;0.0073923683;-0.044447422;-0.13178058;0.28414807;0.05020936;0.12212108;-0.18199594;0.04979359;0.041493405;0.17644241;0.07955285;0.04503198;0.06692298;-0.08352874;-0.08225815;-0.12323794;0.029762825;0.1897591;0.14220616;-0.050335355;0.20119599;0.023502754;-0.018074468;0.38547674;-0.041027397;0.04383436;0.21975198;-0.12395133;0.021210995;0.06514682;-0.18467231;0.13527626;-0.21506439;0.16133821;-0.02251418;0.041907627;0.033157945;-0.18917593;-0.16625439;-0.1374315;0.042668287;-0.0331746;0.11085153;0.00572586;0.14570796;0.0056560882;0.04028273;0.35751972;0.22374101;-0.037184108;0.049328707;0.019562472;0.004433566;-0.1229365;-0.08049138;-0.16323912;-0.027438622;0.27701682;0.032909222;-0.09192656;0.032846685;0.11931519;-0.14414221;0.17242488;0.037159033;-0.07028149;0.010522642;-0.14847507;0.025606245;0.42432818;-0.05453802;0.16250913;-0.20179088;-0.13756704;0.01090165;0.006863183;0.024823863;0.25338736;0.15233743;-0.13671789;-0.212251;0.12700734;0.014319737;-0.056707777;0.0021704414;-0.004628457;0.4047774;-0.4439799;0.11569527;-0.006040326;0.09922717;0.250458;0.077655055;-0.2542499;-0.23889296;-0.0038849872;0.55101454;0.035970427;0.1095549;-0.05422877;0.010910016;-0.22014423;0.28672057;-0.10164884;0.17505704;-0.029815882;0.17805345;-0.013892403;0.09662486;0.029066034;0.22442551;0.247803;-0.5191443;-0.10815293;-0.051002897;-0.065180294;-0.013682524;-0.029576257
0.05702671;-0.044320457;-0.002307295;0.005705928;0.0638916;-0.006870979;-0.04504767;0.00237671;0.15561621;-0.15444152;-0.07778381;-0.10836526;-0.45904422;0.14484785;0.33344987;0.022202771;0.07674064;0.13814628;0.017734272;0.055921465;0.07920942;0.071756326;-0.07940179;-0.19892722;-0.08333589;-0.16169572;-0.21464758;-0.27006596;-0.05873903;-0.03988044;0.16745704;0.15222962;-0.05207556;-0.058501143;-0.008038165;-0.017003242;-0.038668685;0.055632025;0.17445792;-0.04469098;0.060797032;0.4083492;0.10033028;-0.0023545022;-0.026562655;0.11032422;-0.066534825;-0.0020749278;0.33168247;-0.034342;0.13793539;-0.03612358;0.29267788;0.2406404;-0.39101514;-0.07629877;0.3134779;-0.3298489;-0.030097853;0.14128669;0.05041534;0.026194867;-0.16473906;0.038886946;-0.012307923;-0.0018333044;0.20855446;0.029378887;0.011612857;-0.033930585;0.01515614;-0.22413528;-0.07140272;-0.08726522;0.077140294;-0.044894774;-0.03867399;-0.14350283;0.23625702;-0.12571281;0.24318703;0.21147531;0.08878436;0.020282865;-0.20390023;0.010125676;0.093697734;0.037323885;-0.35507894;-0.107596554;0.12101061;-0.3761237;-0.13985169;0.3176485;0.09801117;-0.02839305;0.02511045;-0.07753298;-0.042447325;0.06874359;0.16063783;0.36716297;-0.16699173;0.0012528307;0.25898227;-0.025820864;0.09673468;0.035271503;0.065250345;-0.2544034;0.19822964;-0.1899762;-0.16053842;-0.17263442;0.066703334;0.12613766;0.04357799;0.09517005;0.042312797;0.015410879;0.0373493;-0.34483737;0.05733714;0.20455828;-0.0053743203;0.07981085;0.06377118;-0.087093174;-0.038367376;-0.054019038;0.3577689;0.107964076;-0.099295855;-0.0071054655;0.35861745;-0.022410255;0.09230566;0.08935559;0.03910664;-0.035010103;-0.31686726;-0.007424376;0.082307115;0.15955222;0.21832518;0.38056007;0.30228543;-0.2203299;-0.06836551;0.010999401;0.1216771;-0.041563176;-0.06462047;0.11785009;-0.06661995;0.28531462;0.087974444;-0.0001802369;0.032448996;-0.054011397;0.27661476;-0.10264712;-0.024978116;-0.035079204;0.018628906;-0.04826622;-0.11335168;0.13315879;0.015869856;0.08870929;-0.2486765;0.11559328;0.32453027;-0.07032055;-0.064391755;-0.03969407;-0.18460909;-0.0025479547;0.19121651;0.1874097;-0.06795825;0.012404347;-0.050272927;-0.063575216;0.05799514;0.012797401;0.06738461;0.35313988;-0.091003396;0.06722758;0.003980849;-0.11407148;0.03485158;0.04092852;0.28321886;-0.11398479;-0.10395051;-0.4344583;-0.19357729;-0.016663449;0.180948;0.20325343;0.42910427;0.080047525;-0.46325523;-0.008773795;-0.02885436;-0.04269638;-0.24456882;-0.050739754;-0.029005965;-0.0066754227;0.16033018;0.003992267;0.0033185955;-0.02972359;0.21894933;0.041043304;0.25741428;-0.10104234;0.311475;0.11509248;0.12344558;0.18152277;0.028740533;-0.01032152;0.043434102;0.251976;0.041953705;0.13347967;0.060835354;0.03011322;0.02805452;-0.08999874;-0.34897652;-0.29119524;-0.13846542;-0.3971267;-0.014482192;-0.005769299;0.17637943;0.07810901;-0.06898703;0.009142037;-0.034076955;0.08438811;-0.07750234;0.04127306;0.0064682746;0.034574416;0.0327642;-0.07348033;0.13768625;0.03525854;-0.18957189;-0.009114857;-0.029766696;-0.18528965;0.055991814;0.12498578;0.106076404;-0.22752684;0.10794214;0.059477616;-0.06320452;-0.0018574884;-0.019875823;0.0007784299;0.086245224;-0.31522894;0.22112803;0.2960123;0.054200925;-0.012115843;-0.048770364;0.05395611;0.07349209;-0.037344955;-0.10244107;0.17976627;0.11824453;-0.049485195;0.018293446;0.13592064;-0.094557665;0.21546218;0.17910981;0.34489462;-0.004758722;0.22982827;0.020076882;-0.08621759;0.01053689;-0.08742795;0.0731238;0.016439388;0.34291026;0.16419032;-0.041592587;0.021664303;-0.18831477;-0.26759177;0.0024944607;-0.13933443;0.057392433;0.02489781;-0.09781716;0.114425704;0.23064832;0.036853317;-0.27646184;-0.03608174;-0.08105346;0.22677259;0.3880312;0.20599088;-0.037492182;-0.043209843;0.24709433;0.25066826;0.036119115;0.014390711;-0.06635587;0.033321965;-0.20007987;-0.0020433937;-0.00020247008;-0.035798386;0.088634096;0.03059783;-0.3440089;0.04555996;0.03828535;-0.07338327;-0.04091956;-0.21898858;0.3466159;0.22643882;-0.050475463;0.13292637;-0.013793343;0.0021009273;-0.012229034;0.22171256;0.071331084;0.2497127;-0.16060598;0.32486746;0.28368267;0.02870078;-0.06992777;-0.034521695;0.082415655;0.10562664;0.08429189;0.2127484;0.002669027;-0.17047465;0.23988435;0.1738318;-0.15326324;-0.28339937;-0.03714747;-0.13087489;-0.033448834;0.018554356;-0.019658748;-0.2816431;0.032937914;-0.020211335;-0.08268634;0.25625426;0.32416952;0.003327412;-0.032509122;0.10313511;-0.025143182;-0.01779611;0.121853575;0.022198508;-0.03790024;-0.0041159783;-0.03829246;-0.022167798;0.019521806;-0.014005723;0.06097169;0.041923296;0.094775;0.011904172;0.1300534;-0.012011888;-0.0074264077;0.18383059;-0.061791755;0.05702765;0.1724321;-0.25375926;0.018213771;0.039364975;-0.073664;0.13849553;-0.20575811;0.38796443;0.018791813;0.12156302;0.0016142012;0.09286404;0.045419913;0.08685814;0.17738526;0.067588925;-0.05467189;0.14008366;-0.024121106;-0.09147916;0.31628257;-0.01739116;0.024841655;-0.0057438235;0.030607525;-0.028484;-0.026078245;0.15636995;0.38840854;0.011892693;0.23480135;0.3045697;-0.026213786;-0.03089109;-0.073760636;-0.19601725;0.1245203;0.024338039;-0.00032854278;-0.06285386;0.22250555;0.10038544;0.0183928;-0.028936595;0.05711154;-0.012739125;-0.40133417;-0.115880474;-0.032429375;0.102700256;0.10851421;-0.0118689835;-0.04447992;-0.036821213;-0.050179806;-0.04807468;-0.2792584;-0.02662212;-0.18259503;-0.29441127;0.1103476;0.20351838;0.012511017;-0.014608909;0.038962256;0.28659466;-0.029724443;0.08043629;0.0027126234;0.057385426;0.06090141;0.04162059;-0.0528736;0.076249935;0.1201287;0.06446396;0.020765916;-0.2949012;-0.018746914;0.08756782;0.22815822;-0.04368104;0.07728307;0.03077381;-0.11121739;0.3964352;-0.0029072566;0.025203887;-0.030038022;-0.17567846;0.082997315;-0.059502568;-0.22349468;0.025229577;-0.28330195;0.060313508;-0.13996194;0.10168556;-0.020989321;-0.1531352;-0.19004685;-0.008519165;-0.038260788;0.024689978;0.14694399;-0.037143227;0.24318084;0.003197701;-0.06559936;0.24007814;0.27783787;0.006824044;-0.03355587;-0.01744005;0.066465445;-0.15634386;-0.060127195;-0.054834187;0.05831431;0.27950776;0.014618213;-0.31125975;-0.041434765;0.21279234;-0.16204639;0.024349473;0.012655759;-0.10135148;-0.048405528;-0.034325186;0.03386556;0.328142;-0.019507067;0.32495776;-0.14133215;-0.11585444;-0.066811256;0.102673516;0.009380238;0.24755968;0.12687977;-0.07235497;-0.12355824;0.14989513;-0.06553379;0.007989359;-0.0027225416;0.055819504;0.2601144;-0.4690946;0.19810781;-0.032157354;0.021022785;0.16152105;0.121356875;-0.18575937;-0.32174137;0.058625177;0.336163;-0.07987371;0.09922765;0.040310547;-0.05738432;-0.28025538;0.32089368;-0.02167493;0.18144731;-0.044778433;0.12279493;0.13884488;0.0716172;0.028746672;0.27781683;0.32249808;-0.343659;-0.11367892;-0.093312725;0.08094486;0.026980374;0.03959193
-0.0034984637;0.057906363;0.042651344;0.04787784;-0.050879486;-0.11014319;0.044076864;-0.022261236;0.024401966;-0.24692781;-0.019414445;-0.19067979;-0.3388162;0.064471126;0.3639303;-0.035856906;0.042364698;0.07959344;0.0066044703;-0.013358928;-0.0072951796;-0.014657808;-0.05656161;-0.27292818;-0.055946518;-0.11105206;-0.21602294;-0.13915208;0.0037332098;-0.07386874;0.21189144;0.15522236;0.031650297;-0.06673218;0.013134781;0.037117913;-0.118883215;0.151463;0.12397849;-0.07939731;-0.0017776503;0.3768103;-0.021812838;-0.08304101;0.005716988;0.042940054;0.060016032;-0.07270513;0.21407644;0.055532202;0.3021962;-0.06179435;0.24738331;0.1934986;-0.32732803;-0.09639349;0.34561387;-0.28294355;0.03267136;0.039930478;-0.039160985;-0.011290617;-0.13985561;-0.023596521;-0.03817121;0.015578913;0.24786659;0.078254774;-0.016955769;-0.055056393;0.0057032234;-0.33237773;-0.10476465;-0.027703382;-0.05265259;0.057111863;0.0028718195;-0.20404299;0.15878442;0.014527149;0.17455435;0.073234305;0.14647922;-0.0765606;-0.1562302;0.16614737;0.053403866;0.002212377;-0.24034524;-0.05775874;0.24232537;-0.32453454;-0.09714478;0.31792733;0.1649531;0.011654674;-0.028059382;0.039219834;0.06563221;0.027967297;0.13833497;0.24652076;-0.047203686;-0.060163844;0.21528786;-0.017132908;-0.02588795;0.022318361;-0.089461744;-0.12599717;0.15746316;-0.29252222;-0.15195802;-0.15770966;-0.040212337;0.23098758;0.033992168;0.12929112;-0.04354292;0.011426178;0.040535066;-0.38218725;-0.0024818683;0.13386561;-0.021063475;-0.0053747133;-0.042183917;-0.0086700125;-0.0114590395;0.028534414;0.3593712;-0.076138824;-0.10847767;0.031706195;0.28550535;0.0013209007;0.08179828;-0.06314509;-0.085756496;0.0014443147;-0.3017331;-0.045910913;-0.018441238;0.095570534;0.22796592;0.38565743;0.29509613;-0.2146309;0.044232164;0.06876481;0.14968126;0.012286494;-0.013800592;0.025758792;0.01611555;0.21020602;0.08984327;0.066503845;-0.02777842;-0.025634333;0.2735022;-0.15112424;0.029417994;-0.06078826;0.12988551;-0.17073247;-0.0830275;0.13140057;0.084366694;0.026935408;-0.33580872;0.13968836;0.3521289;-0.08686209;-0.008253463;-0.006958904;-0.08061117;0.05793004;0.15400954;0.15672618;-0.0052661407;-0.09310912;-0.004668923;0.08203785;-0.036053162;0.034133494;-0.053161763;0.38924572;-0.05740512;0.09793184;-0.0934598;-0.18741445;0.02581118;-0.008021492;0.32724974;-0.13247995;0.080932826;-0.35116768;-0.14642665;-0.04790977;0.15341945;0.06495236;0.45204392;0.07083629;-0.26061177;-0.034655422;-0.06142769;0.006348541;-0.31619108;0.02699367;0.0049799206;-0.07183841;0.10417379;-0.05884619;0.06862614;-0.01591597;0.07556872;0.014152565;0.15536532;-0.06978846;0.15020286;0.045331642;0.2045654;0.09311981;0.0026188663;0.011876076;0.022761215;0.1599604;-0.015256602;0.070363;0.024375696;0.12711564;-0.012584365;-0.13361147;-0.23927487;-0.15622376;-0.098396674;-0.34679192;0.05706825;-0.0066389395;0.17832518;-0.0017041231;0.028370967;0.032688074;-0.014210482;0.09143518;-0.08714753;0.16070168;-0.020578627;-0.04726909;0.0068433853;-0.018222338;0.14706895;0.13015673;-0.12190303;-0.0881511;0.0423168;-0.18694168;0.06778228;0.1684253;0.0026989926;-0.19328964;-0.010750071;-0.06647325;-0.02187251;-0.003424894;0.015197121;-0.0016670405;-0.015163067;-0.22614834;0.21033208;0.27316728;-0.01728683;-0.005640998;0.021180233;-0.04875436;0.091446325;-0.029199062;-0.09020661;0.0018915898;0.19637908;-0.09846253;-0.010875422;0.13287349;-0.16330606;0.1480033;0.04428851;0.36070803;0.047691926;0.041038662;-0.04769814;-0.14060338;-0.025695503;-0.09330026;0.08720565;0.0043381583;0.26618412;0.15431936;-0.027150586;-0.044316776;-0.33479744;-0.3129427;0.058859944;-0.15023446;-0.01414966;-0.1435938;-0.009097441;0.07590556;0.22720022;-0.004563081;-0.26783115;0.07052729;-0.19207945;0.15620178;0.37549675;0.2963073;-0.070182174;-0.043341838;0.19737229;0.1586728;-0.014459869;-0.032719743;0.04201863;-0.032003395;-0.32467163;-0.013758043;0.0039428044;0.01993431;0.14891614;0.030868739;-0.26286522;0.0595603;0.06785929;0.02840718;0.08448875;-0.14078397;0.35868746;0.30933434;0.010043966;0.09006155;0.06556774;-0.02339201;0.0164997;0.021718984;0.012802495;0.17419888;-0.118923165;0.3033247;0.35315362;-0.04222756;0.045127146;-0.04486234;-0.035901565;0.08193686;0.15583692;0.1745834;0.043925986;-0.1126288;0.28974596;0.056984294;-0.112240136;-0.35012016;0.014006769;-0.11489875;0.021863358;-0.07670334;0.022222625;-0.23897392;0.100340344;-0.044916518;-0.07445551;0.21901661;0.33993205;0.010653455;-0.054817483;0.09048808;0.06490511;0.19747213;0.03180345;-0.006860242;-0.0051892325;0.06364465;0.024766946;0.1309945;-0.024286663;-0.0045668124;-0.04457328;0.21467723;0.03891285;0.009382129;0.10600451;-0.100702174;0.050071258;0.19382165;0.05135492;-0.02013404;0.16653185;-0.3296808;0.0041309283;0.033282313;-0.15942118;0.2064404;-0.25297132;0.34094614;0.012668221;0.19415495;-0.05348556;0.080638364;0.060426068;0.024341818;0.19790812;-0.020646537;0.06670966;0.15709081;-0.00958697;-0.08012687;0.196484;-0.15186802;0.021736396;0.014758993;-0.0038265006;-0.053081557;-0.044273656;0.115962066;0.39208123;0.03728572;0.17048839;0.31727037;0.03473164;0.004728234;-0.112969615;-0.20234796;0.18707195;-0.02198246;0.0048365104;-0.045909964;0.20714884;0.032248806;-0.03358165;0.067203365;-0.073140346;-0.003271394;-0.31541196;-0.08059902;-0.0049599092;-0.022431573;0.08532004;-0.031903222;-0.0902512;0.120447345;-0.031985722;0.082644664;-0.2513711;-0.001969788;-0.304129;-0.38496032;0.024159718;0.11535667;0.06798996;0.023645978;0.15505205;0.316721;0.02064404;0.18271035;-0.0012319393;-0.046735067;0.013164977;0.04499707;-0.058890738;-0.024411023;0.0952816;-0.024560995;-0.12725481;-0.27762255;-0.12170554;0.1614539;0.0934076;0.006953175;-0.009149607;0.025337288;-0.02577759;0.40753344;0.08445685;0.053465508;-0.03203339;-0.104308106;-0.03678528;0.027170347;-0.22802603;0.15475109;-0.27695575;0.084120594;-0.26388192;-0.014955765;0.08217662;-0.106758356;-0.1791754;0.13895333;-0.042618684;0.03146856;0.12622468;-0.028280051;0.19583838;0.00035234026;-0.055534687;0.27968898;0.37457436;0.012017147;-0.013889505;0.04300601;-0.0036687674;-0.2422982;0.0246047;-0.12013092;-0.0091608465;0.15949589;-0.045023486;-0.38475934;0.029194467;0.11704182;-0.108295426;-0.084707364;-0.030357426;0.027817912;-0.0063634226;0.1279071;-0.024778308;0.4609715;-0.050654784;0.32463717;-0.19986832;-0.083554655;0.044729497;0.051023103;0.014693208;0.25501516;0.14260681;-0.24127842;-0.15278755;0.08539358;0.05759363;0.001966137;0.0025663062;-0.085972324;0.2122284;-0.36595917;0.063766226;-0.008286444;-0.03398501;-0.050346978;-0.077656195;-0.21014549;-0.30204582;0.055267256;0.2919565;-0.07064486;0.08348538;0.0068491753;-0.0027489893;-0.29243276;0.30578852;-0.025943281;0.16828215;0.0073041175;0.094095945;0.091406934;0.045305815;-0.0067208926;0.32196182;0.5065945;-0.32987258;-0.17488442;-0.034025654;0.044746604;-0.05003979;0.07866741
0.015079588;0.03434365;-0.0029569382;-0.03764757;-0.034126315;-0.15527552;0.039574087;0.015315917;-0.032199733;-0.11206323;0.044607457;-0.22976631;-0.3003155;0.018634042;0.32760367;0.00042811426;0.026415087;0.022278149;0.028846033;-0.0107667865;0.019762715;-0.037087645;-0.034176663;-0.18113641;-0.044936452;-0.19351342;-0.22143957;-0.1073351;-0.014457459;-0.129934;0.16497172;0.10231701;-0.007505508;-0.019971054;-0.041924763;0.047664333;-0.016671725;0.054714095;0.05259936;-0.16408251;-0.010600928;0.5238428;0.031487457;-0.072424695;-0.055089664;-0.08921192;-0.004766252;-0.043359753;0.36604634;0.034450486;0.25068694;0.07163548;0.28053853;0.11673353;-0.33397862;-0.062347498;0.32814145;-0.3074817;-0.035287436;0.100195594;-0.092588976;-0.011933995;-0.1772373;0.070323385;-0.03182463;-0.04445831;0.13005394;0.11336402;-0.046981517;0.08840736;-0.06931037;-0.2299348;-0.055380113;-0.06505563;-0.016617732;-0.0043876558;-0.061584193;-0.12082464;0.11556059;0.009646394;0.12457329;0.038513113;0.21272331;0.009384077;-0.2486217;0.12837742;0.12412161;0.06485618;-0.20169489;-0.010605542;0.13675635;-0.42797428;0.010538457;0.32090503;0.08436222;-0.026015198;0.017315192;0.005491591;0.045181554;-0.09387601;0.16042867;0.28624466;-0.14977294;0.011909147;0.16147748;-0.037675302;-0.05411603;-0.077853516;-0.08369793;-0.1040742;0.12257897;-0.35670155;-0.07427561;-0.16680942;-0.03184971;0.22309053;-0.06893548;0.05516976;0.023505565;0.06350641;0.020826641;-0.33302245;0.04488469;0.120052986;0.03724068;-0.07381457;0.028119488;0.071328774;-0.03870956;0.053575233;0.4495341;-0.06604406;-0.11675823;0.052171506;0.36613512;0.05298711;0.14668524;0.0036488352;-0.052784834;0.023753747;-0.26227292;-0.115243316;0.030723972;0.14827396;0.21128309;0.33904874;0.4126811;-0.18713644;-0.018316971;-0.024453172;0.0477548;-0.027330948;-0.0354447;0.099633515;-0.014322172;0.07785611;0.17651393;0.053279158;-0.05130774;0.06735126;0.24134105;-0.055978928;0.035078585;0.016558457;0.043765876;-0.08987222;-0.061026555;0.1268165;-0.08439683;0.040099233;-0.33311182;0.066118345;0.4052497;-0.18756036;-0.035436705;-0.0033001462;-0.18939635;-0.07169557;0.07926887;0.07801138;0.031378925;-0.0945925;-0.10099722;0.14534302;0.038052026;-0.02964838;-0.07341014;0.39473075;-0.12839346;0.12301257;0.027581949;-0.122656226;-0.017344201;-0.05127564;0.34750143;-0.08494894;0.10512241;-0.35189715;-0.21775922;0.07062197;0.18169044;0.17211358;0.44292426;0.046984263;-0.35309562;0.07547786;0.025283694;-0.07599688;-0.3473582;0.03557519;-0.04132972;-0.06870743;0.067702346;0.03436673;0.0480388;0.05794469;0.17522429;-0.09280709;0.17326763;0.04366765;0.1060686;0.0962564;0.21444252;0.12941283;0.07858026;0.05503006;-0.042963084;0.119911104;-0.017917484;0.21375774;0.06875908;0.25956288;0.18269414;-0.07399444;-0.16737369;-0.24674238;-0.0041625495;-0.42518884;0.00036091855;-0.0073359082;0.16830291;0.017800521;-0.065102816;-0.010920965;-0.026930328;0.09165082;-0.15098225;0.006698796;-0.0935943;0.030215465;-0.019024227;0.018757692;0.1326841;0.21431571;-0.2071258;-0.17240043;0.028357916;-0.14508015;0.14916892;0.11797218;0.12094439;-0.23301674;-0.003088089;-0.031803183;0.059502147;-0.009249743;0.03442088;-0.026601583;0.07674285;-0.10231036;0.24476944;0.35474858;-0.043403994;-0.11649682;0.0028842215;-0.05115826;0.14942235;0.048513502;-0.09798324;0.13687482;0.3207714;-0.03607968;0.06112792;0.083991535;-0.2125302;0.20312585;-0.15745707;0.4214615;0.05053528;0.13545302;0.07869211;-0.14728004;0.022488503;-0.15347743;-0.020851126;0.051918395;0.28734767;0.15139242;-0.03662879;-0.017910149;-0.42874968;-0.19393726;-0.0032264644;-0.09445393;0.05262676;-0.011856731;0.020816466;0.07083855;0.26032406;0.05412919;-0.22464575;-0.01884505;-0.09658021;-0.011249628;0.27333373;0.18977581;-0.06914531;0.0496355;0.2773799;0.103875205;-0.033536103;-0.06230383;0.058249302;0.079529956;-0.30300182;-0.020362038;-0.05739436;-0.031708367;0.12967633;-0.0013313087;-0.3210263;0.03576983;-0.014323138;-0.050876826;0.020981586;-0.16056843;0.32677886;0.18783164;-0.038790915;0.10838923;-0.0627439;-0.00095881696;-0.014850586;-0.011507646;-0.05422763;0.3298229;-0.06605091;0.40083766;0.19612758;0.052792788;0.07461199;-0.01385618;0.0003022819;0.11462631;0.08591861;0.30462483;0.022212273;-0.14669223;0.36948454;0.12912332;-0.21982971;-0.2650194;-0.07705659;-0.2050264;0.025694922;0.07016341;-0.064451165;-0.2405052;0.17105316;-0.08330359;-0.11211322;0.11269639;0.32408312;0.027424015;-0.03784869;0.12622571;0.077240765;0.16590962;0.057910834;-0.047158748;0.032144587;0.12147539;-0.032066893;0.15113902;0.02103711;0.055336908;-0.012799196;0.15217188;0.058868606;-0.07037732;0.13211896;-0.09900094;0.033379965;0.3123239;0.07958035;0.005861321;0.14675133;-0.37808624;0.0647544;-0.034008943;-0.036867652;0.22209586;-0.23603281;0.46149564;0.05641511;0.12861103;-0.060458492;0.116085835;-0.06475797;0.072949104;0.19515118;0.035269383;0.033703998;0.16034913;-0.12900533;-0.10028922;0.18251677;-0.16794856;0.023253653;0.08332307;-0.032727014;0.017257567;0.014524181;0.002532316;0.387184;0.027440257;0.20175165;0.27708158;0.0781175;0.06191118;-0.22631475;-0.25681186;0.28144386;0.0027277023;0.0112588;-0.035926167;0.28546178;0.072985366;-0.03733734;0.039156538;0.01411343;0.06346556;-0.28369904;-0.12806982;0.07643245;-0.033492856;0.10407989;-0.022250373;-0.11289812;0.16283482;0.00025007667;-0.0671584;-0.3083217;0.043300334;-0.29938462;-0.39927045;-0.003791216;-0.004963302;0.011496797;-0.055232316;0.21467592;0.3786825;0.023487022;0.15147918;-0.11007982;-0.055270247;0.03605101;0.059707068;0.101322606;-0.014076168;0.17413941;-0.019276906;-0.07553824;-0.23848335;-0.07607352;0.1938648;0.15050635;-0.0064456533;-0.07478843;-0.02862303;-0.11225726;0.39307842;-0.030004617;-0.038012672;-0.09965582;-0.21325198;-0.018871842;-0.041608922;-0.2773192;0.12837094;-0.30960733;0.05546085;-0.16906768;-0.025621809;-0.028094728;-0.17690663;-0.24827172;0.10473265;-0.025335878;0.061840665;0.11551616;0.06800493;0.14622211;-0.0058992063;0.027465764;0.19138436;0.36299407;-0.039099343;-0.03134625;-0.0018487339;0.13550682;-0.21608673;-0.10137805;-0.056076426;0.02194318;0.15892836;-0.09999107;-0.43932298;0.009152219;0.20844874;-0.14480425;-0.09465386;0.014129437;-0.10373909;0.067845084;0.11629787;-0.044509266;0.3121774;-0.030404078;0.28139162;-0.20544392;-0.1481624;-0.029159896;0.067682736;0.031258978;0.15949473;0.13972221;-0.1450884;-0.02745135;0.15937221;0.0282166;-0.017595278;-0.027878564;0.03838776;0.245095;-0.2579871;0.06306799;0.03396005;-0.012104566;-0.06581562;-0.10427195;-0.233692;-0.44270706;0.01038617;0.33071437;0.035618566;0.06004576;-0.03273571;0.0071206135;-0.27084994;0.34299704;0.01204142;0.15415978;0.041871924;0.17238797;0.09898656;0.12065183;-0.030748053;0.35624415;0.49454248;-0.47454947;-0.050460313;0.085340336;-0.028980542;-0.005005357;0.17781514
0.0632309;0.046164505;0.003823236;0.019251736;0.031142114;-0.095656924;-0.057280835;-0.05237859;-0.0118895555;-0.23412338;0.0054265433;0.009606829;-0.38398772;0.12129039;0.43048823;-0.03262208;0.048517227;-0.0927369;-0.053655237;-0.04340892;0.054216117;-0.028359942;0.033007283;-0.13279505;-0.004291001;-0.13779067;-0.31069747;-0.02686629;0.027123548;-0.07793792;0.117552936;0.031101882;-0.0549555;-0.10951001;0.0794914;-0.03758914;-0.004056697;0.059876475;0.04266593;-0.05594461;0.057032946;0.41698954;-0.0040539796;-0.074007064;-0.069609165;-0.07111047;-0.04297976;-0.12946439;0.2277154;-0.09187524;0.25193268;0.09175981;0.23126446;0.17981584;-0.31863427;-0.06315003;0.30975094;-0.18100262;-0.03317161;-0.055563077;-0.2422054;0.074714564;-0.34575385;-0.033531778;0.029593095;-0.056622606;0.16457848;0.1346788;-0.112268135;-0.035748642;-0.07132838;-0.4264025;0.00070180587;0.070896626;0.009337649;-0.004718585;0.044742938;-0.19637676;0.19812927;-0.064856745;0.12811781;-0.045504127;0.18732128;0.009746894;-0.23546925;0.15753596;0.2148142;-0.08248588;-0.2124075;0.03488786;0.17060162;-0.36688322;-0.009402786;0.18535797;0.11687341;-0.019403022;0.002657266;-0.051267903;-0.07377455;-0.013608548;0.17141269;0.36759397;-0.06145221;-0.018918261;0.19538485;-0.046585526;0.086381406;0.040125035;0.039879236;0.05280894;0.017292606;-0.29317784;-0.05237292;-0.24821381;0.033099715;0.29966697;0.04581547;0.13588291;0.04010542;-0.03442702;-0.0531064;-0.19563964;-0.063333675;0.15550427;-0.017159104;0.01269228;-0.04399135;0.08773628;-0.027860636;-0.041029926;0.4031956;-0.22589803;0.016135177;-0.041325428;0.19688593;-0.007016613;0.07679405;0.0017551638;0.043005362;0.03456338;-0.22249769;-0.10515731;0.015342818;0.16137677;0.29001397;0.49367204;0.24640226;-0.18912283;-0.0615163;0.13258976;-0.023192694;-0.14398736;0.025994588;0.08133731;-0.062632784;0.07045453;0.04317692;0.033880565;-0.07483582;-0.052956674;0.20799105;-0.11853056;-0.053802874;0.039921645;0.12213716;-0.08400443;-0.0006467564;0.13495481;-0.028549457;0.0099736145;-0.40366405;0.09743884;0.43457392;-0.075922;0.06155436;-0.04478644;-0.1871279;-0.022618629;0.0012207562;0.034335088;-0.032133315;-0.17740574;-0.06790225;0.01012787;-0.022135679;-0.05164112;0.12657258;0.32818213;-0.08808721;0.08602336;-0.04568776;-0.10382549;-0.047866512;0.100395575;0.25348938;-0.04399818;0.05412537;-0.32930332;-0.138514;0.033685267;0.24821512;0.04407775;0.36851767;0.050492432;-0.35418516;0.09999734;0.030871542;0.024768462;-0.24412736;0.009799458;0.019096445;0.07002695;0.050281752;0.037217118;-0.027974024;-0.04158143;0.09259772;0.032511715;0.15737617;0.06893265;0.26893452;0.1683066;0.24802364;0.1952915;-0.033332482;0.010357598;-0.022495614;0.16176835;-0.0133919325;0.24717401;-0.03750735;0.15832709;0.054076727;-0.085092455;-0.07315779;-0.2936399;0.06022671;-0.35213882;0.07512064;0.008956791;0.09764711;-0.040532324;0.07072836;0.045117058;0.056274336;0.016842712;-0.21129055;0.07099553;-0.008049523;0.039823476;0.008124914;0.06352703;0.16487871;0.14070316;-0.19741707;-0.120040804;0.021125909;-0.13276546;0.028601771;0.036400646;0.0070258197;-0.13095884;0.014244425;-0.052255657;-0.07158481;-0.0040340233;0.0055521345;0.00074552215;0.0142124435;-0.05688521;0.237489;0.32774988;-0.007102979;-0.033516586;0.07103391;-0.024875188;0.1814068;0.07314111;-0.060791414;0.09421466;0.22146793;-0.06697119;-0.018142015;0.10943767;-0.17683768;0.20401761;-0.18519014;0.3447019;0.03238958;-0.024824316;0.17044596;-0.22334251;0.059645053;-0.051239226;0.014767145;-0.08213524;0.32877308;-0.010321775;0.014680695;-0.064394526;-0.48367298;-0.12072958;-0.0326339;-0.22800843;-0.04488022;0.00066476344;0.0794849;0.06969802;0.12037885;-0.0059096296;-0.25371948;0.07435401;-0.13268663;0.040055137;0.22004598;0.15871544;0.0006852379;0.031150494;0.1350854;0.054946724;-0.044100925;0.051304545;0.10700387;-0.02605661;-0.29193932;0.08708121;0.073906235;0.01831214;0.10349217;-0.05898919;-0.38569242;-0.07230809;-0.0071488735;0.067341246;0.054150917;-0.09082007;0.34413067;0.3214981;-0.055058695;0.05466708;0.01690116;0.0062604058;0.079369806;0.12654671;-0.15793893;0.25634873;-0.08558332;0.40256307;0.18080539;0.042328592;-0.06860021;0.0060392115;-0.061861888;0.006100236;0.099562116;0.18474838;-0.03661311;-0.028001182;0.31921795;-0.04956502;-0.16370156;-0.32906637;0.008434878;-0.13107486;-0.0708925;-0.073329136;0.05181422;-0.22808029;0.14991577;-0.020533698;0.009059202;0.04143967;0.23267463;0.019826867;-0.0555368;0.07079486;-0.053859893;0.09037564;-0.023967288;-0.059478614;-0.02564133;0.08906051;-0.08937969;0.04169177;0.11961766;0.065893434;0.011037075;0.08861601;0.06720505;0.016969621;0.19843839;-0.19910131;-0.04417268;0.2163471;-0.036849804;0.017582893;0.1707075;-0.28765386;-0.035769116;0.025374217;-0.089502804;0.14632842;-0.15532434;0.4464355;0.044167563;0.2048262;-0.041513164;0.08614468;0.041920546;0.08532974;0.23342076;0.13127792;-0.016423455;0.12142242;-0.05312215;0.030193998;0.172732;-0.1263887;-0.00989482;0.055738863;0.05646802;-0.030362822;-0.052396797;-0.033858374;0.34991416;-0.0021984028;0.32055625;0.24002284;0.1382882;0.020744264;-0.21195637;-0.2134304;0.20454629;-0.0037404362;-0.029751183;-0.0047476916;0.22960946;0.16338034;0.018265305;0.060269095;0.033987746;-0.0065825097;-0.280235;-0.17134945;-0.071744405;-0.004703507;-0.0826834;0.016232189;-0.16785587;0.030139059;-0.07713916;0.025602799;-0.29902157;0.18910822;-0.24486357;-0.22090447;0.016223138;-0.09738096;-0.04725288;0.02747928;0.24095823;0.4095977;0.026673997;0.13712813;-0.11246138;-0.02319767;0.083593935;-0.053436734;0.15304951;-0.030122083;0.124777965;-0.008272299;-0.043778725;-0.15642768;-0.06430428;0.12828046;0.10501729;-0.009429293;-0.08686674;-0.012959077;-0.14648211;0.30742934;0.021556206;-0.068761125;-0.24484684;-0.28880212;-0.019012785;-0.042752475;-0.17541204;0.065257125;-0.25080764;0.028383793;-0.23467268;0.0076028984;-0.0014037278;-0.073833644;-0.2118136;0.17478871;-0.05496612;-0.06569555;0.06807181;-0.030784085;0.13628581;0.039296824;-0.010347314;0.25601685;0.3272669;-0.017414333;-0.0071006636;0.04254144;0.072217055;-0.18760034;-0.14665908;0.06701359;-0.102238216;0.21823281;-0.10872701;-0.52562946;-0.06810031;0.10186602;-0.1560123;-0.024241967;-0.030118462;0.0022983465;-0.0015379785;0.16242972;-0.033800635;0.33072922;0.14694773;0.21908435;-0.15712185;-0.13525145;0.04172019;0.1264537;-0.07578753;0.062745064;0.14666367;-0.26689395;0.009680495;0.10024916;-0.019735226;-0.041510195;0.013922476;-0.05026044;0.37529734;-0.08661979;0.07847899;0.035849955;0.01725629;-0.2865842;-0.05868942;-0.2239264;-0.39060447;0.03904518;0.17183664;-0.015999218;-0.09808586;-0.038128566;0.004612769;-0.24747592;0.37763566;-0.07762175;0.19390325;-0.034599874;0.11730712;0.17679995;0.06622542;0.055478647;0.30066222;0.57755053;-0.35212824;-0.14867647;0.076628424;0.08620749;0.05179119;0.15709284
-0.054339655;0.08431422;-0.027035017;0.058041546;-0.031953514;-0.030898968;0.041715063;0.060353994;-0.037387084;-0.21299101;-0.07184718;0.09394073;-0.30432338;-0.016067654;0.49371147;-0.009978449;0.0784953;0.09242718;-0.008826818;-0.08647472;0.12542282;-0.058436554;0.083907254;-0.18933485;-0.1974029;-0.0427373;-0.24461001;-0.12684706;-0.06337622;0.004027304;0.12320683;0.14375097;0.11001489;0.021587135;-0.034698207;0.011828606;0.052674;0.045012485;-0.040017974;-0.04698843;0.035870798;0.4179611;-0.042200297;-0.048727807;0.07900931;-0.18569681;0.022007486;-0.110586196;0.26345658;0.015752528;0.291543;0.00074542133;0.3481731;0.119457535;-0.25005263;0.07238601;0.32202318;-0.16379923;-0.06021468;0.023814093;-0.2056391;0.07260947;-0.2839284;0.019625561;0.024891185;0.08202051;0.08186337;0.056688447;-0.31901664;0.070365995;0.054139137;-0.37595543;-0.119204745;0.08120373;0.037909977;0.07631124;0.06482694;-0.12556681;0.167447;0.055600625;0.17818683;-0.033665042;0.13861056;-0.021423059;-0.16257203;0.19744067;0.2646667;-0.060778208;-0.015063528;0.05603491;0.15676418;-0.3054284;0.011813054;0.036265027;0.2470737;0.010382355;-0.028413739;-0.14246769;0.052687388;-0.11543643;0.1617744;0.4693903;-0.20793217;0.06270477;0.07430124;0.116288915;-0.018848741;0.023748638;-0.004307962;0.03186002;0.06458012;-0.2271294;-0.12200942;-0.33274567;0.004843034;0.28080425;0.01614149;0.13779853;0.00708102;-0.038805373;-0.026901074;-0.22617419;-0.0062056035;0.18134257;-0.09016426;-0.030510943;0.014006834;0.04310698;-0.13108526;0.027785935;0.28936952;-0.10584431;0.011700925;-0.028467752;0.3015793;-0.037316736;0.093296245;-0.0643821;0.053909894;0.0037437344;-0.23518603;-0.06513191;-0.037285145;0.08087444;0.23994212;0.42246604;0.35094023;-0.13079736;0.03878954;0.15019685;-0.11275355;-0.16626483;-0.070590496;0.0043242676;-0.0046544108;0.05093284;0.18682207;0.026872735;0.009331656;0.057517413;0.1089254;-0.09857228;0.02054443;-0.058579784;0.02539527;-0.06200315;-0.010565545;0.022555888;0.07844295;0.034578815;-0.4301497;0.16989164;0.42941144;-0.09675624;0.0671745;-0.043143176;-0.14893332;-0.009283566;0.12535223;-0.05373908;-0.018323155;-0.26208258;-0.2995418;0.12641722;-0.0012182832;0.026796328;0.06888709;0.33638954;-0.14944904;0.07673675;0.068565086;-0.08109469;-0.01713376;-0.012370895;0.19236705;-0.0890097;-0.02587512;-0.13409066;-0.12344241;0.14503455;0.24083471;0.06549882;0.32527792;0.05588419;-0.2564183;0.10089284;-0.055037566;-0.16817291;-0.19230646;-0.019289212;0.017390508;-0.0120186;0.046869714;-0.00022122599;-0.0027862336;-0.046314374;0.15163897;-0.09505567;0.1304893;0.032446068;0.24244936;0.020403821;0.31182492;0.22204906;-0.03785867;-0.09402495;0.07821059;0.17958952;0.07730578;0.14993274;-0.006914115;0.22042042;0.20560047;-0.026994852;-0.05338602;-0.20056725;0.07240237;-0.26732838;0.008445903;0.06618618;0.07464394;-0.04920129;-0.052621856;0.012751818;-0.050056323;0.073081665;-0.19592774;-0.09487664;0.0047645844;-0.089832716;-0.04058723;0.16525984;0.03346005;0.1387729;-0.28122893;-0.0537288;0.00027213313;-0.16163042;0.07246021;0.14483388;0.024632977;-0.15027195;0.08921354;-0.00649214;0.017922757;-0.03289905;0.0036952917;0.034669615;0.04655389;0.009672535;0.24090736;0.30659518;-0.0036486334;0.012687623;-0.073169865;-0.03193747;0.056663666;-0.033783592;-0.0081110895;0.16345312;0.31086957;-0.020382404;-0.0425529;0.07001497;-0.09168905;0.28111443;-0.2064395;0.36575451;0.034655645;0.017799709;0.09046111;-0.20554669;-0.06854612;-0.05702335;-0.065364875;0.040979903;0.20655096;-0.07084371;-0.009822978;0.045189936;-0.2854557;-0.048971836;0.05685749;-0.15042828;-0.025617918;-0.039883237;-0.012738666;0.10436975;0.05556986;0.064902954;-0.26183873;0.0064842254;-0.1429984;0.13249633;0.15470147;0.046273682;0.03171408;-0.029113503;0.2174533;-0.048564486;-0.023640327;0.0145542715;0.08329622;-0.050525814;-0.29842657;-0.025175232;-0.012698402;-0.103744015;0.051195458;0.050480735;-0.3275637;0.06174173;-0.08113392;0.042554703;0.10303118;-0.09965336;0.38999853;0.14146109;0.059452884;0.08431856;-0.061747998;0.016162261;-0.056727868;-0.024755558;-0.25728938;0.35434672;-0.083299786;0.4559814;0.23742734;0.013272145;0.03383264;-0.059889823;0.03022434;-0.030247912;0.07970098;0.19185509;-0.02934893;0.024880799;0.3377293;-0.078754365;-0.2728092;-0.30670023;-0.004596406;-0.17599048;0.020792041;0.03019466;-0.07184313;-0.3091433;0.09407597;0.14606509;0.078486554;-0.13946256;0.11204978;0.044590965;-0.1483558;0.07355002;0.023998909;0.06934722;-0.08079516;0.021947918;-0.08359957;0.15098985;-0.08623705;0.07885059;0.079526;-0.06317884;-0.047939222;0.12786362;-0.023577597;-0.05812884;0.17937373;-0.27619445;-0.043328542;0.19700584;0.036096923;0.09519932;0.31246486;-0.24685524;-0.023770383;-0.018960796;-0.033229876;0.1637938;-0.24288926;0.3737124;0.10871292;0.27655634;-0.03810342;0.024195323;0.057773802;0.21438867;0.20575161;0.027078036;-0.06844559;0.1260063;-0.0020116924;-0.046126477;0.1518747;-0.1630704;-0.046253875;0.02113343;-0.042308006;-0.032183982;0.017348284;-0.101839356;0.29596028;-0.0050580665;0.36513233;0.20676522;0.11767028;-0.019311387;-0.17198968;-0.15618525;0.3275737;0.07649983;-0.045473035;0.017842341;0.22541857;0.16276345;0.052827276;0.06446718;-0.120369434;-0.0012767721;-0.04830572;-0.30068687;0.00760123;-0.04090246;0.06216937;0.024922166;-0.30203792;0.16651908;0.039608527;-0.084641844;-0.3772763;0.20300888;-0.3130866;-0.19469266;-0.04930929;0.020385947;-0.026257217;0.016232558;0.29120508;0.31057352;0.08017799;0.2317513;-0.031241167;0.016436728;0.030587852;-0.08615018;0.09103254;0.012440998;0.14046034;0.012250566;-0.07394295;-0.27538556;-0.03667509;0.01702693;0.17382963;0.013441468;-0.045208257;-0.033967905;-0.14340065;0.16771959;-0.06019692;-0.011882128;-0.18952908;-0.17840476;0.031361092;0.082933344;-0.19362293;0.111457944;-0.15989329;-0.061881773;-0.18518879;0.034598593;0.01574432;-0.10994451;-0.1450585;0.18581304;0.023895808;0.049200635;-0.01216924;0.002698941;0.2796052;-0.04969545;0.035069805;0.123122275;0.2919243;0.06919175;-0.06002962;0.057175066;0.14846265;-0.17052256;-0.22322477;0.050609574;0.030855875;0.062711254;-0.16555654;-0.45850798;-0.06351354;0.08661862;-0.14965475;-0.008858659;0.019919975;-0.061850227;0.03248492;0.18493283;-0.0054982416;0.25403002;0.16021676;0.22040199;-0.109697446;-0.037341196;0.034719117;-0.0072084144;0.017145768;0.018294647;0.17308979;-0.28284195;-0.015021898;0.06520395;0.026208775;-0.06563125;0.015334879;-0.0005823365;0.4005324;-0.08824979;0.12314638;-0.06815587;-0.07209189;-0.25662547;0.061419696;-0.290452;-0.3388208;0.035066888;0.08808841;0.030624058;-0.03406273;0.031511545;-0.009992402;-0.26143524;0.4056304;0.059144784;0.13365199;-0.044737607;0.26479596;0.2755601;0.16799544;-0.02800435;0.38454816;0.6084412;-0.28564215;-0.00031522327;0.13099809;-0.009483627;-0.03930905;0.19292703
-0.052645493;-0.06663099;-0.08405746;0.02750281;0.0010921208;-0.07174825;-0.005210268;-0.029003734;-0.077185765;-0.18644351;0.07090384;0.076760866;-0.4066973;0.065403596;0.46665725;-0.06315001;-0.027971033;-0.04659007;0.06112716;-0.105791055;-0.0066121924;0.084225245;0.03341828;-0.028067192;-0.21590586;-0.18482976;-0.17971762;-0.20163232;-0.07972138;-0.03437878;0.009458461;0.09033261;0.116949804;-0.119782545;-0.033153255;-0.00040029763;-0.057322655;-0.041063804;-0.14373043;0.03899608;-0.060089823;0.44361845;-0.1270052;-0.03816273;0.025471741;-0.1431889;0.06612229;-0.075697824;0.06099852;0.06190722;0.35605556;-0.0076261004;0.3288996;0.06977459;-0.3316104;0.029085819;0.28736383;-0.2100665;0.013601851;-0.03845076;-0.19282919;0.09507821;-0.18085754;-0.039588884;0.019498851;0.032522626;0.14354382;0.048622318;-0.3509289;0.0049679675;-0.017246317;-0.44860184;-0.14215519;0.06581799;-0.067413785;-0.049037177;-0.083271764;-0.1862024;-0.0004997794;0.0024221018;0.07265886;-0.0768277;0.22726129;0.020827241;-0.12702326;0.12531462;0.2764638;0.113681406;-0.10153119;0.0003904824;0.08119313;-0.40139657;-0.0054000933;0.0535127;0.23475277;-0.0070629306;0.0722078;-0.21148767;-0.080095306;-0.006920535;0.08519599;0.48729286;-0.17441653;-0.009679373;0.107241414;-0.04046421;-0.005415046;0.048998248;-0.015601585;-0.0609496;-0.06312844;-0.15198037;-0.14764135;-0.36237425;-0.0034602806;0.14380151;0.0038039805;0.07609245;0.005722868;0.01756996;-0.059602447;-0.23370135;0.053137217;0.15747572;-0.13758555;-0.015913403;0.022401754;0.077227876;-0.13665041;0.022164766;0.36137304;-0.09970751;-0.04100267;0.072395965;0.295508;-0.006705401;0.1320315;-0.016008634;0.01702775;0.042985644;-0.1817039;-0.022891844;-0.061163414;0.0937203;0.22712198;0.18249114;0.3652606;0.020307554;-0.040012777;0.14325383;-0.0675063;-0.1956198;-0.08709617;0.09689486;0.05265011;-0.021633705;0.18215258;-0.043429818;0.060786344;-0.034462012;0.09593767;-0.078004844;-0.017678203;0.008035266;0.1303316;-0.09446518;-0.025167197;0.12647867;0.069485754;0.009013417;-0.4611462;0.20454912;0.29884407;-0.15717748;-0.0468003;0.04723025;-0.26526856;-0.0635959;-0.027677905;-0.0654323;0.03452771;-0.28509793;-0.2369553;0.14251493;-0.033903882;0.025014766;0.10649068;0.12087983;-0.14816429;0.06017255;-0.092550464;-0.04223409;0.042453077;-0.05863005;0.14448467;-0.08917129;-0.13166662;-0.13875008;-0.07249307;0.19876882;0.2648646;0.10807531;0.35095662;0.09882369;-0.33366847;0.066809595;0.046450086;-0.10886455;-0.2258477;0.022395732;0.025681695;-0.05190745;0.046415888;0.05507255;-0.05579772;-0.043338876;0.064776614;0.0185627;0.07322456;-0.06888905;0.13582483;0.19614726;0.27921188;0.16885579;0.0009347262;-0.07385862;-0.08039792;0.09013506;-0.05179468;0.27428615;-0.026334992;0.27844605;0.07447233;-0.09118359;0.029076664;-0.33227038;0.11129257;-0.25134262;-0.039930254;0.10154616;0.030638885;-0.029623985;0.054308236;-0.042109776;-0.081784695;0.026334006;-0.12811013;-0.13764815;-0.048669945;-0.041966315;0.01446162;0.06799307;0.07746859;0.23118111;-0.21765289;-0.10150259;0.13913149;0.016988114;0.02923108;-0.049966805;0.14207266;-0.03955129;0.03145031;0.0574339;-0.04664645;-0.0037389887;-0.06355751;-0.030101914;0.14837113;0.06626019;0.20317385;0.30323255;0.07474379;0.018537957;-0.06201048;-0.026223224;0.12168468;-0.026352214;0.0055505177;0.10207959;0.18109597;0.030976612;-0.002673477;-0.07782542;-0.20575666;0.3034828;-0.27468863;0.24409652;-0.040649574;0.07493192;0.17735568;-0.24549802;-0.028630702;-0.038699288;0.019824713;-0.06387979;0.33128002;-0.12123428;0.03194607;0.07679217;-0.26632768;-0.036074765;-0.0050693857;-0.21802416;-0.015318712;0.08463564;0.1155952;0.12891786;0.15824655;0.09403409;-0.21939325;-0.028002305;-0.20878907;0.13975318;0.13349983;0.0906021;-0.0032415763;0.028069418;0.1900017;0.0299756;0.023017537;-0.0014262662;0.2123999;0.010897534;-0.26536092;-0.002475653;0.010723245;-0.016747637;0.07167801;0.041637413;-0.30962572;0.044597767;0.010142264;-0.032551084;0.08164861;-0.105777204;0.29251525;0.09315676;0.023331324;0.034708418;0.010174911;0.024894785;0.05486518;-0.081914805;-0.23070931;0.32984218;-0.04480181;0.3461294;0.30633748;-0.057058882;-0.017253783;-0.037232533;-0.0038696686;-0.07473252;0.15308407;0.19283885;0.024994208;-0.0046249176;0.18151832;-0.11450059;-0.28743237;-0.20161346;0.042566992;-0.1763755;0.04363945;0.0060563884;-0.00732536;-0.32329735;0.13287218;0.100948974;0.096832424;0.0012647352;0.17750326;0.0404726;-0.093013234;0.082369335;0.0070316275;0.09688137;-0.06503054;-0.09175158;-0.032443676;0.21368262;-0.070869684;-0.009887207;0.17595932;-0.017570315;-0.09329801;0.11278769;0.06767405;-0.05144372;0.19454403;-0.29905853;0.038592745;0.040351085;0.05507399;0.12219085;0.18773387;-0.3254829;0.029920928;0.050937746;-0.100030735;0.13089183;-0.18057702;0.35806292;-0.0195055;0.2197967;-0.019030023;8.5247986e-05;-0.03104184;0.2283464;0.19866736;0.15461017;0.03318825;0.11775724;0.057223946;0.06431401;-0.017574998;-0.1765784;-0.13989511;0.016411213;-0.016403602;0.046518996;-0.037713148;-0.077881664;0.049184076;-0.036348604;0.3371426;0.19871101;0.08050303;-0.029875575;-0.12724514;-0.14825918;0.34322166;-0.051449947;-0.06124586;0.071002595;0.27282825;0.101531945;-0.09041056;0.06527869;-0.04963692;0.06750059;-0.010337865;-0.26600963;-0.021735404;0.024144419;0.08371966;-0.056382496;-0.36632884;0.14591803;-0.044707585;-0.135918;-0.43049008;0.15984112;-0.3584684;-0.23578385;-0.101036966;0.00067885814;-0.045178853;0.008320208;0.42437035;0.3894434;0.04203647;0.25918326;-0.10356655;0.083009124;0.008142306;-0.047061156;0.19154163;0.080573745;-0.0042237244;0.052592725;-0.08422884;-0.20883279;-0.12636387;0.04335557;0.22365831;-0.06552775;-0.13173309;-0.012935785;-0.21029797;0.15091345;0.05553356;0.04206966;-0.26240328;-0.23607218;0.0024463544;-0.07764325;0.011032761;0.13625266;-0.115334146;0.010067288;-0.22628006;-0.026909305;0.008881541;-0.025652401;-0.07802205;0.043786008;0.039880577;0.002485726;-0.06590367;-0.017374462;0.31013444;-0.038022835;-0.031875152;0.19876146;0.2870082;-0.018246807;0.0073812376;-0.05612901;0.15598425;-0.122080214;-0.16937697;0.10448707;-0.05406675;0.033448894;-0.17428209;-0.45092332;0.033239122;-0.038500343;-0.20845456;0.14954323;0.03544737;0.028367866;-0.022185229;-0.006181615;-0.022703007;0.35868737;0.10977117;0.27205843;-0.16689344;-0.14854178;-0.00053339964;-0.08832687;0.047070164;-0.0050371704;0.24999312;-0.18649991;0.074402146;0.11782393;-0.026706027;0.015468692;-0.025504123;-0.033093918;0.20588636;0.045325827;0.14806673;0.012031761;0.070342734;-0.2852361;0.07202724;-0.3330424;-0.27501208;0.07588433;-0.063870184;0.012096135;-0.12360964;-0.036838137;0.032774635;-0.14764538;0.2773208;0.033930894;0.050383102;0.024150755;0.20112208;0.23036712;0.2141133;0.13063696;0.31707275;0.5165903;-0.21603295;0.010166908;0.07152918;0.048687916;-0.035998184;0.19461492
0.035070565;-0.005581532;-0.08860827;-0.02287779;0.03979049;-0.023499351;0.029165052;0.041835412;-0.1184161;-0.10761745;-0.004276984;0.06493627;-0.27727678;0.0103170965;0.4363667;0.0915627;0.025942791;0.04234979;-0.020688185;0.0006888356;0.08091562;0.003721457;0.15679914;0.006522891;-0.2793832;-0.19409592;-0.08933969;-0.20410556;-0.06592786;-0.040663376;0.13598424;0.051393032;0.064328924;-0.10319333;-0.034869105;-0.06739961;0.04001343;-0.079518;-0.13913706;0.0021696673;-0.05041789;0.3204426;-0.18276599;-0.15319729;-0.036130752;-0.17315507;0.11765032;-0.10011162;0.09485359;0.06891402;0.3034246;-0.00948079;0.23772532;-0.03686266;-0.2826202;0.078026935;0.26828283;-0.120554574;-0.11268108;-0.040788304;-0.30664188;-0.025163906;-0.1759659;0.0016042567;0.05609647;-0.002488211;0.12795262;0.05888497;-0.26123112;-0.04944862;0.051671855;-0.5832937;-0.16002814;0.103193596;-0.008033356;0.047787998;-0.06296403;-0.22724697;0.04753246;0.022235868;0.06591178;-0.15435831;0.19086824;0.019159906;-0.130697;0.12788574;0.33386487;-0.02532493;0.030583464;0.024603488;0.062298898;-0.34056035;-0.0043268916;0.046028417;0.21794549;0.055546984;0.052944068;-0.21721418;0.015365308;-0.015521925;0.12002739;0.5727048;-0.19576147;0.043311898;0.19239992;0.019212253;-0.063681364;-0.027364966;-0.0047142766;0.05007033;0.047928;-0.075778015;-0.16404036;-0.35605064;0.04402572;0.24997155;0.056629166;0.031287774;-0.07306536;0.077192865;-0.0076960195;-0.2427622;0.005586571;0.18498546;-0.062985085;0.021697838;0.052227397;0.10276299;-0.104444265;-0.033641297;0.38410562;0.037966367;0.03738383;0.011741838;0.29728344;0.010747909;0.11616702;0.02351663;0.023630941;0.01587837;-0.25765443;-0.0865998;0.008870489;0.083873935;0.30576366;0.26581326;0.28841257;-0.005850769;0.08930666;0.19968559;-0.05265514;-0.08021718;0.022037255;0.13613507;0.039927285;0.11597865;0.22345431;-0.027789934;0.02449615;-0.046163592;0.0055819745;0.11302252;0.0068089855;0.07378904;0.06221298;0.110407874;0.04055583;0.061338633;0.07272304;-0.10089044;-0.31852746;0.07888685;0.44326904;-0.06824481;-0.06404909;0.022530302;-0.31809196;0.08642108;0.09210006;-0.15318413;-0.010969271;-0.2998782;-0.18802989;0.014505098;-0.030416355;-0.044328712;0.09244101;0.00941001;-0.23796175;0.1512817;0.015958045;0.041429114;-0.009889985;-0.04879811;0.08242392;0.052141935;-0.11835377;0.013982516;-0.12089444;0.09444331;0.17637537;0.026480759;0.38037777;0.015824994;-0.16412154;0.14281206;0.02623883;-0.09484022;-0.13927856;-0.058972884;-0.015396897;-0.008799792;0.19641495;-0.03663376;-0.049015503;0.0053793634;0.09445401;0.057646543;0.08029412;-0.07705955;0.16413154;0.20794047;0.36517724;0.10184305;-0.046171714;-0.08593085;-0.030319385;0.12954646;0.07945631;0.25416103;-0.0055905757;0.19812727;0.12554462;-0.0879712;-0.070528656;-0.25073636;0.010050601;-0.20207103;-0.058165796;0.057916924;-0.07864729;-0.14733918;0.058270928;-0.047317903;0.066158995;0.012138313;-0.2041953;-0.18621522;0.044214852;0.011083572;-0.080810905;-0.054221727;0.07228773;0.14699452;-0.29384556;-0.11512282;0.04903586;-0.051843893;-0.007606293;0.017652573;-0.030790681;-0.11865197;0.15071574;-0.01536885;-0.07385218;-0.004320961;-0.075338714;-0.04198894;0.09007463;-0.06019275;0.087969564;0.19542578;-0.019133396;0.06308293;0.026619967;-0.11845315;0.08119698;0.027693452;-0.07469059;0.082081564;0.2124289;0.06212594;0.014244375;-0.13421886;-0.08432813;0.2773009;-0.25334525;0.3054642;-0.0471588;0.050637748;0.09212608;-0.23197521;-0.041192617;0.020478955;0.016351802;0.029053515;0.2834951;-0.1477368;-0.08404943;0.039309222;-0.2425021;-0.10377007;-0.031460676;-0.19427964;0.018113757;0.091758184;0.09337954;0.17341413;0.07664037;0.038835354;-0.21878739;0.041205935;-0.23120125;0.19959307;0.09456615;0.079863325;0.06946922;0.0026142907;0.22980092;0.025214951;0.0071154106;0.02817935;0.174234;-0.0555063;-0.35823515;-0.05191317;-0.023194239;-0.006324083;0.12610418;-0.05366668;-0.19821183;-0.05306899;-0.07529022;-0.03912184;0.121174455;-0.1369574;0.28412583;0.2194858;0.0042982004;-0.001253402;0.027929768;-0.01875654;0.03938662;-0.18889955;-0.12134087;0.2780322;0.011696847;0.363954;0.34674785;-0.0743878;-0.002030023;0.011575527;0.032133624;-0.013492454;0.1747541;0.030313313;-0.058200616;-0.07432773;0.28296205;-0.079756804;-0.288317;-0.26779336;-0.058375757;-0.11594003;-0.037530024;-0.008371484;0.036510114;-0.31504512;0.14400175;0.17371054;0.20054291;-0.031319182;0.15660538;-0.042657465;-0.23886247;-0.12000195;-0.07859284;0.0694527;-0.08367083;0.07094947;-0.07606116;0.12413951;-0.017221726;0.002870035;0.14303046;0.069042176;-0.022441471;-0.018019602;-0.07081585;-0.031458452;0.06905401;-0.26385286;0.020152675;0.03207449;-0.08084041;0.08361967;0.19471712;-0.3432748;0.07628937;-0.07826141;-0.02141172;0.23763014;-0.23717044;0.22286224;-0.02815538;0.13955177;0.037855927;-0.0838287;-0.08955038;0.20570894;0.22802742;0.023359952;-0.013197607;-0.03754907;0.034176026;-0.002054559;0.072271936;-0.36093968;-0.023353986;-0.00918871;0.04252351;-0.027260542;0.04077814;0.020352777;0.08723036;0.014701388;0.2751521;0.06333678;0.1725227;-0.06649233;-0.03905284;-0.21266454;0.25019524;0.06974023;-0.032152086;0.07306645;0.29919347;0.2920735;0.022926731;-0.013104868;-0.025415476;-0.004430651;-0.021836877;-0.30063912;0.04225371;0.054565735;0.06988007;-0.012623711;-0.28229684;0.23212276;0.068249956;-0.11559741;-0.41238734;0.058188003;-0.20641322;-0.19939104;-0.104017735;0.043234438;0.023573976;0.027376221;0.4287032;0.3648547;0.01719659;0.13322425;-0.061613753;-0.011504403;0.0045539974;-0.13211712;0.19738972;-0.055406813;-0.0005408851;-0.09097344;-0.030851614;-0.19246313;-0.16327171;0.13610719;0.11115352;0.00061770243;-0.23510039;0.052104667;-0.25308564;0.018496253;-0.031846285;0.033818275;-0.21853937;-0.20435908;-0.051250014;-0.016003821;-0.017688539;0.028447011;-0.11131637;0.031403136;-0.24229525;-0.0195698;-0.034848314;-0.15614708;-0.19374204;0.12656768;-0.003660007;0.0014805817;-0.022616202;-0.05249589;0.25367463;0.012644433;-0.0025227955;0.084637895;0.24307834;0.006385395;0.023638772;-0.033552397;0.065600395;-0.24718782;-0.11882061;0.054411113;0.030833412;0.08805793;-0.20935184;-0.5957922;0.068176284;-0.09192258;-0.09589281;0.04542551;0.064827316;0.0036433737;0.042128265;0.12369916;0.045016706;0.2458557;0.205012;0.14857773;-0.14647129;0.069095954;0.065923095;-0.16367328;0.037540197;-0.08387064;0.26179504;-0.2912099;0.11673047;-0.0025104918;0.0040369653;0.067235164;-0.014314914;0.04218115;0.25605875;0.20185669;0.13661644;-0.06740122;0.07781315;-0.16067542;0.031582955;-0.23444438;-0.20067844;-0.044358365;0.044785745;0.1376733;-0.16402487;0.026610665;-0.029239807;-0.072220035;0.26821512;-0.032636732;-0.0018569266;-0.033730213;0.23790516;0.22672708;0.28444356;0.009572516;0.30611432;0.6255739;-0.055608507;-0.0007374248;-0.015625952;-0.044125274;0.059713226;0.15252551
-0.06742317;-0.16074823;-0.1067086;-0.00852017;0.012710993;-0.063761294;0.044797275;-0.017428992;-0.07316445;-0.20165716;-0.05722265;0.06613213;-0.28047067;-0.021153038;0.5632127;0.03641777;-0.043422934;-0.026977574;-0.0065052854;-0.0062428336;0.06890481;0.01905154;0.13311143;-0.104797006;-0.20826076;-0.08243323;-0.043979123;-0.24857396;0.08191217;-0.0012416558;0.05508071;0.14254588;-0.0036139863;-0.054612875;0.03154908;0.006975222;0.07688514;-0.122336864;-0.112034835;0.0043048984;0.03562622;0.45865548;-0.13933237;-0.22115527;0.035874188;-0.18083881;0.13096258;0.01450838;0.096170954;0.0054340945;0.3883787;-0.0100119505;0.25424513;-0.05805965;-0.14069772;-0.0013029111;0.24417493;-0.22447713;-0.024237972;-0.01208489;-0.23944023;0.041799024;-0.2687374;-0.005532521;-0.008137518;-0.011264545;0.05901931;0.10818508;-0.16004086;0.044355024;-0.018180212;-0.54131365;-0.12751484;0.16090094;0.05312468;-0.008599176;0.040478155;-0.21358393;0.0067909923;0.03749758;0.1273803;-0.12301811;0.15263888;0.033455513;-0.1778646;0.13749938;0.3259816;-0.06179103;-0.0039162487;-0.0712153;0.1438108;-0.44252592;-0.005964499;-0.04695021;0.12060018;0.0046789213;0.07932971;-0.27080974;0.022039304;-0.0075629256;0.07857524;0.5794089;-0.16566618;-0.02531512;0.14525586;-0.020033611;-0.007500234;-0.037158597;0.03663744;0.0870332;0.00010924703;-0.10545029;-0.013018234;-0.2859003;0.006944129;0.26105228;-0.052755814;0.076406464;-0.037913643;0.052013658;-0.013451599;-0.26791614;-0.039485663;0.11495266;-0.14418466;0.028137391;0.023143917;0.08661829;0.060906336;0.006434496;0.36196613;-0.022741739;-0.0023051219;-0.02877467;0.13770209;0.015767368;0.1312073;0.08340733;-0.06596787;-0.0649903;-0.338856;-0.112023175;-0.021633336;0.21483041;0.218723;0.27058157;0.3813787;-0.03189897;-0.009477727;0.1779061;-0.15946442;-0.114967816;-0.009419815;0.044128213;0.044253927;0.016031375;0.22030158;-0.013290618;0.0061808163;0.050467927;-0.003514949;0.18714191;0.01910453;0.06914926;0.061569996;-0.035248276;0.02861891;0.013548202;0.0698819;-0.1693702;-0.4460874;0.07214033;0.41388252;-0.06817806;-0.0021791828;-0.00023841106;-0.2123724;0.061867885;0.063474335;-0.1895886;0.07794986;-0.1707898;-0.117496185;-0.03036485;0.062039826;-0.016265906;0.04448086;-0.09860377;-0.21792832;0.16166238;0.025879052;0.01824401;-0.030454116;0.041425668;0.07975109;-0.089677915;6.395616e-05;0.17587234;-0.17732607;0.066985786;0.3259771;-0.057038613;0.29863635;0.072558075;-0.19163227;0.026769666;-0.0069997706;-0.00904221;-0.16467692;-0.047556035;-0.018856078;-0.035169568;0.087818615;-0.07167069;-0.009576325;0.0238954;0.0016061086;0.021252042;0.08068174;-0.1099796;0.18954968;0.19724797;0.31604224;0.14088525;-0.02777386;-0.09713237;0.0307774;0.05821642;0.04209262;0.3144316;0.05573927;0.2050823;0.05489971;0.007561934;-0.109871045;-0.2386966;0.047044598;-0.35241622;0.020240873;-0.025639065;-0.059520505;-0.20056212;-0.0076925415;0.026691262;0.05561243;0.10396166;-0.22841033;-0.18543921;0.11010975;0.02566541;0.061157264;0.044088878;0.14914213;0.17053099;-0.19563785;-0.17408738;0.041700587;0.20715077;-0.02361187;-0.0990134;-0.002547318;-0.047320914;0.13616231;-0.03266494;-0.178318;-0.021015188;-0.1156038;-0.023137275;0.07115566;0.08507431;0.1021805;0.25899434;-0.03479665;0.0035068975;-0.040990293;-0.09432684;0.062785566;-0.05394771;-0.004588213;0.09758308;0.11894886;0.09748019;-0.051918756;-0.06257659;-0.11403853;0.30367613;-0.1096059;0.22862442;0.026604246;0.18471593;0.15438104;-0.1956333;-0.022911629;-0.0055191573;-0.045091465;-0.020405898;0.3153337;-0.04277383;0.052073766;0.035283264;-0.20405616;-0.051777318;0.0077816434;-0.1628799;-0.010438551;0.09759035;0.047952108;0.19916345;0.07529129;0.0031297288;-0.29806545;0.022880277;-0.28654003;0.15595666;-0.053697016;0.04632884;0.06684244;0.045126554;0.16303505;-0.0067062476;0.068950064;0.014513096;0.14857128;0.04664779;-0.27115408;-0.008922436;-0.052069753;-0.0055084387;0.103941575;-0.032763835;-0.2701988;0.010338491;-0.0760263;0.046997707;0.2017356;0.02389598;0.42428848;0.04799328;-0.0011828763;-0.046037577;0.01797397;-0.056351636;0.026578218;-0.1595294;-0.25620267;0.31345674;0.021123862;0.25216395;0.24023089;-0.026528543;-0.020665482;-0.003135351;-0.0540555;0.009608933;0.11693335;0.12508805;-0.03230245;0.012089011;0.2954346;-0.06039645;-0.2497885;-0.20899227;0.03737523;-0.005380681;-0.037850082;-0.016702136;-0.018355235;-0.27519134;0.21548258;0.13204108;0.2592224;-0.041164625;0.03761679;0.014221524;-0.09973776;-0.16282053;-0.05397428;0.034859683;-0.1213508;0.0062881815;-0.020224843;0.08498017;-0.04547648;0.101711035;0.08492911;-0.00052270654;-0.0408744;-0.041797787;0.07839367;0.042684935;0.017253578;-0.42506108;-0.0050122146;0.025528187;0.028111393;-0.0439366;0.27892554;-0.25772348;-0.06260297;0.012470411;-0.00031556672;0.20113793;-0.08696951;0.22245957;0.12586454;0.14564034;0.12277764;-0.13822027;0.013077382;0.37264836;0.29301703;0.029742867;0.032487303;0.113831535;0.032812227;-0.07131274;0.08669559;-0.44094974;-0.07241383;0.012445421;0.027588118;0.010714756;-0.05091436;0.11249418;0.015591086;-0.002534317;0.3619556;0.03370052;0.12688112;0.09045469;-0.054369904;-0.12881029;0.2686687;-0.043715186;0.028850092;-0.038386013;0.26278502;0.30755046;0.003825711;0.033630308;0.0661418;0.059489176;-0.007390488;-0.24857938;0.0051277224;-0.018227523;0.05403964;0.06069289;-0.24628995;0.16020802;0.05401521;-0.08390076;-0.37813643;0.08169936;-0.16720779;-0.18078941;-0.17767058;0.026135512;-0.050037786;-0.06689367;0.31029016;0.2766903;0.029630562;0.04866992;0.018360194;-0.024184301;-0.010920375;-0.090001486;0.20817056;-0.056000937;0.0300644;0.015559529;0.008080996;-0.02993245;-0.0066677337;0.005394293;0.23209675;0.053496487;-0.38078636;-0.07969362;-0.14944853;0.019981788;-0.0103398375;-0.034886178;-0.16064538;-0.15263751;0.012732565;0.0702954;0.059566192;0.19788392;-0.04179229;-0.002624992;-0.28948584;-0.060210872;0.01919744;-0.14689694;-0.09670556;0.20006825;0.027998535;0.0173273;0.014857705;0.005922878;0.13476066;0.0719078;-0.048826188;0.21923746;0.3236307;-0.073325224;0.04454766;0.049039543;0.1746564;-0.11135611;-0.03848951;0.10149722;0.015820948;-0.0041618026;-0.1858621;-0.58716667;0.015847212;-0.010564157;-0.016949661;-0.042863145;-0.022290269;-0.0691111;-0.0125861075;0.08572057;-0.042810492;0.3147835;0.13085134;0.042829387;-0.23156871;0.09499453;-0.020405764;-0.026056195;-0.035757348;0.072447464;0.2910426;-0.42955852;0.0057004406;-0.021778923;-0.03783297;0.041430477;-0.041245975;-0.035074253;0.3392951;0.27056143;0.12408368;0.027978228;-0.050882287;-0.28815204;-0.012510797;-0.35051945;-0.31856337;-0.018381031;-0.17547886;0.19064982;-0.21649717;-0.05829629;-0.025768394;-0.15200208;0.20402318;-0.123093344;-0.00046497796;-0.018706366;0.23532683;0.27531773;0.32416403;-0.0014381715;0.3726256;0.47313625;-0.02826823;-0.050012276;0.03291176;0.016662551;-0.032172788;0.16241561
0.054601755;-0.06760413;-0.04144585;-0.008156572;-0.06605886;-0.020059818;0.040038377;-0.07037549;-0.13819614;-0.20845126;0.040580798;0.024212321;-0.27465796;-0.10987149;0.5977487;-0.030504696;0.08513248;-0.10727598;0.000812647;-0.009089683;-0.0543012;0.004974868;0.11576456;-0.028052023;-0.2062417;-0.06991754;-0.034549512;-0.11745205;-0.02615428;-0.11290586;0.15804526;0.1734344;0.06716158;-0.008954104;0.06257411;-0.0012680377;0.122172065;-0.08752216;-0.18592416;0.019973624;-0.08242943;0.34443766;-0.0892592;-0.07318208;0.05526186;-0.1650201;0.020131273;-0.048622422;0.026279332;-0.04822134;0.40338165;-0.033721015;0.19092357;-0.12299478;-0.14102028;-0.03802245;0.29624692;-0.25583556;-0.018296719;0.010959524;-0.1387384;0.02006118;-0.1987244;-0.007959962;-0.05992006;-0.048871398;-0.0021060852;0.1444451;-0.058141723;-0.07084429;-0.07212594;-0.48432013;-0.11592221;0.05713936;0.010337838;-0.006944112;0.04167279;-0.1257873;-0.18147512;-0.033078976;0.090298235;-0.15608081;0.06975954;0.021636233;-0.16015854;-0.008990833;0.19705002;0.003432161;-0.014269893;-0.03796496;0.087103695;-0.469316;-0.115444355;-0.009359144;0.13674645;-0.007048897;-0.07628027;-0.32651746;0.010300966;-0.010617496;0.07374198;0.4598401;-0.23623316;0.06252127;0.08616971;-0.05964078;0.057204865;-0.06093186;-0.019294826;0.121506855;-0.09852617;0.0179456;-0.08511348;-0.17349996;0.0029815577;0.36603013;-0.11037984;-0.013595565;-0.038314544;0.041034345;0.081854045;-0.25661552;-0.0555514;0.20255968;-0.07221659;0.013963097;-0.04519583;0.0072296234;0.008373392;-0.056415677;0.25803047;-0.020637698;-0.0601096;0.04425971;0.1756325;-0.06583872;0.24666558;0.01674757;0.035216577;0.030308684;-0.31549394;-0.06337488;0.054351263;0.20776439;0.2727089;0.23423952;0.44865036;0.013435659;-0.03761061;0.028804658;-0.16446455;-0.19756874;0.030148527;-0.019612262;0.014822138;0.17604867;0.15049393;-0.019806927;-0.0063820267;0.029541047;-0.044726755;0.2575712;-0.04791833;-0.06472149;0.26331767;0.097334094;0.026161043;-0.04211124;0.09618074;-0.21363282;-0.41490734;0.07653271;0.4755854;0.005046649;-0.093038715;-0.038361594;-0.31618595;-0.015705312;-0.07493531;-0.24003702;-0.09349218;-0.24994072;-0.071531184;0.056787923;-0.054802015;-0.008855332;0.09542974;-0.12684716;-0.18343496;0.008192477;-0.099928275;0.016635902;0.0031012928;-0.017820533;0.10448213;-0.015534098;-0.09171253;0.21907458;-0.18404688;0.124112606;0.30121824;0.083574556;0.36224136;-0.09944165;-0.059505675;0.05782592;0.010260185;-0.033157572;-0.12250036;0.06136557;-0.00644286;0.02117296;0.01926279;-0.09090364;0.062767215;0.006550019;0.088445015;0.043902826;0.1278363;0.013427686;0.15908313;0.175575;0.17838798;0.14513119;-0.024149502;-0.019094005;0.04493657;0.014024196;-0.038253576;0.22638196;0.061213054;0.2987614;0.13703696;0.115448676;0.040569376;-0.22567941;-0.06122102;-0.31241775;0.053988203;0.017793056;-0.04360205;-0.18555874;0.020826569;0.01674771;-0.07735586;-0.0054325345;-0.25213253;-0.20745374;0.08788875;-0.028653009;-0.019920196;-0.07196618;0.22358719;0.21671161;-0.2905131;-0.09794673;-0.09052684;0.25325915;-0.008403616;0.030204752;0.11552469;-0.039656993;-0.009782177;0.032444406;-0.14636138;0.061323937;-0.048464615;0.07633446;0.24693398;0.14339755;0.07486712;0.22990961;-0.0180614;0.017175404;0.071747854;0.032388225;0.10391134;0.012330917;-0.041207917;0.080555215;0.14779969;0.14660914;-0.031030275;-0.026029296;-0.042300243;0.28085777;-0.16960081;0.2796368;-0.009380646;0.2751943;0.059962142;-0.18925929;0.0601715;-0.108602226;0.008957069;-0.012757016;0.19082628;-0.105177134;0.031384412;-0.047048353;-0.14207749;-0.21829276;-0.037481487;-0.16549455;0.040264588;0.18142411;0.1207153;0.21505354;0.20923238;0.06794994;-0.24260494;0.005179923;-0.35534415;0.23156741;0.094500065;0.06145908;0.09561821;-0.062438827;0.20665996;-0.054726828;-0.06892348;0.01710899;0.10416423;-0.024574973;-0.28280342;0.04331668;0.0403068;-0.006276948;0.050953623;-0.047924366;-0.2035359;-0.06488965;-0.13372172;0.04624352;0.2297541;-0.028689366;0.35602528;0.24592966;0.012586774;-0.097481765;-0.056494806;0.022585465;0.053378556;-0.3168586;-0.16273378;0.3300073;0.123555444;0.3429021;0.32529;0.03969584;0.07760026;0.048785802;-0.0876429;0.031020468;0.21895573;-0.026975978;0.030269127;0.062337838;0.13227266;-0.18810052;-0.15678017;-0.1796485;0.060113452;-0.17381571;0.02202013;-0.04540329;0.062138055;-0.2211124;0.21504539;0.090910725;0.21635686;-0.1824533;0.10221685;-0.074598245;-0.17214052;-0.14763214;0.051962588;0.007990913;-0.07629507;-0.005089573;-0.11859906;0.09918143;-0.017644325;-0.09088652;0.088931695;-0.04262044;0.0015938687;0.0340628;0.055000246;0.068242;-0.080356345;-0.29919115;0.0066010477;-0.025038991;0.026103828;-0.07012614;0.30912593;-0.23962396;-0.0014293509;0.061237972;0.02827855;0.1999501;-0.10151954;0.17046604;-0.007129874;0.09574704;0.06333571;-0.23678707;0.064352;0.30628178;0.1703815;-0.023139223;-0.008356828;0.08612722;0.041149594;-0.17742056;0.052952833;-0.5633457;-0.10506114;-0.037698038;-0.014876614;0.007168946;-0.04684678;0.15205488;-0.069462605;0.061502103;0.30834326;0.034889475;0.12572561;-0.02628486;0.06285812;-0.22420931;0.15303357;-0.02054664;0.0713447;0.0006493095;0.20938045;0.2548604;0.04408932;0.0018154605;0.014605774;-0.10997534;0.09969852;-0.29421744;-0.063059814;0.03518483;0.185825;-0.00029718387;-0.083386585;0.21450482;-0.034073267;-0.07665818;-0.45596462;0.27135247;-0.2596076;-0.106820144;-0.11661044;0.04401745;-0.0022904458;0.01899902;0.26443106;0.26159903;-0.0075749806;-0.046342432;0.10234171;0.014936259;0.021190535;-0.11997798;0.13170423;-0.010059847;0.09356776;0.04556998;0.0074148527;-0.0058629937;-0.09960193;-0.008201896;0.24133417;0.057937425;-0.35020345;0.05422024;-0.17353308;0.11445573;-0.046311405;-0.035789162;-0.122164905;-0.15610622;0.040596854;-0.012882424;0.19195738;0.12742147;-0.05477942;-0.044604648;-0.25748143;-0.026749022;-0.05963311;0.020506378;-0.084747694;0.16523138;-0.031899184;-0.020835795;0.04351908;0.09706283;0.20601116;-0.047460344;0.004475913;0.17109485;0.19944589;0.04557666;0.051865652;-0.019451471;0.15154462;-0.26311454;-0.014724416;0.090947375;0.038932674;0.010217088;-0.20182706;-0.6300567;0.048013426;-0.06772224;0.027083607;0.046476662;-0.065061636;0.026910307;-0.029998217;0.16561916;0.0795341;0.25922057;0.07830376;-0.0054739197;-0.2699137;0.0660206;-0.037305925;-0.06637118;-0.041270316;-0.05251487;0.2472441;-0.5087844;-0.014783775;0.113569595;0.0013899611;-0.028685167;0.017814618;-0.0103466725;0.12647161;0.23468116;0.008371146;0.05178387;-0.011970531;-0.13027182;-0.045144133;-0.20765133;-0.32170781;-0.02790793;0.023517797;0.18967523;-0.102529086;0.038644224;0.0034024857;-0.14630976;0.1388103;-0.0334381;0.11542371;0.004602406;0.07721352;0.23147619;0.32410812;-0.04003241;0.22418202;0.53889626;-0.06281131;0.047185265;-0.086350486;-0.0022978624;0.003131582;0.06458801
0.009222171;-0.039435837;-0.08362179;-0.0685739;-0.0054960786;0.046693545;-0.01790543;-0.054080643;-0.25431606;-0.09027542;-0.018497707;0.0016511474;-0.21260904;0.024345702;0.54740405;0.06935866;0.11087192;-0.100742385;-0.041203003;0.0395654;0.0025245685;0.01749966;0.17800297;0.06188204;-0.09619851;-0.15182312;-0.09450924;-0.13753438;-0.024139449;-0.14901175;0.15629502;0.2225793;-0.08102702;0.05850039;0.024165908;0.06012652;0.07135047;-0.10424133;-0.18329029;-0.060753897;-0.01148442;0.3791112;-0.15156144;-0.183389;-0.017337319;0.096255355;0.02408732;-0.10234056;-0.08506012;0.0034826694;0.40863153;-0.06027381;0.34904328;-0.16239643;-0.13373314;-0.09654921;0.31678388;-0.15931928;-0.034415953;-0.03684037;-0.06564223;-0.10721353;-0.10179927;0.07245329;0.015054874;0.013083791;0.01353133;0.06617438;-0.088755414;-0.011485797;-0.015528085;-0.40837818;-0.030036153;-0.049907323;0.0451805;0.042771276;-0.0041008904;-0.079040796;-0.05831102;0.014112318;0.17123169;-0.089226946;0.16114764;-0.07557051;-0.13889088;0.015849194;0.27208525;0.03803539;-0.007368631;0.07602137;0.18403426;-0.30119294;-0.011504119;-0.115979075;0.15185319;-0.040631168;0.0027964548;-0.32734817;0.002490383;0.06661747;0.07534531;0.45863634;-0.11119474;-0.01971518;0.14043842;0.061558526;0.062945135;0.01877691;-0.039428297;0.09987079;-0.07722065;0.00010896448;-0.03196165;-0.25344908;-0.035272334;0.29320267;0.052952383;0.061690085;0.0018988473;0.31024677;0.1294694;-0.1969847;-0.0120352125;0.09653423;-0.075788714;-0.061997455;-0.049035706;-0.12379709;0.22592409;-0.007132038;0.15054166;0.119731925;-0.025099795;-0.039179575;0.13669026;-0.04540162;0.20127364;-0.006910293;-0.07503175;-0.008972741;-0.18545355;-0.07949132;0.06732564;0.3098927;0.19551139;0.15360956;0.3947637;-0.062173605;-0.009533108;0.21759179;-0.106511846;-0.06937687;-0.00962144;0.0016906545;-0.05660357;0.15141357;0.20461385;0.0046273656;-0.03366565;-0.019105434;-0.027585456;0.10913222;0.049228635;-0.064434715;0.10743611;0.11812791;0.0135101825;-0.07164146;0.13090087;-0.2331453;-0.50130475;0.08879024;0.32737395;-0.056377616;0.04069021;0.01904787;-0.41391665;0.0089176465;-0.073241755;-0.3106808;-0.014793444;-0.37416622;-0.051856376;-0.06978548;0.016419234;-0.048879392;0.0011060062;-0.14179215;-0.16907471;0.058887195;-0.15209621;-0.06131671;-0.048618846;0.046950333;0.0979911;-0.039191626;-0.045523956;0.23014481;-0.04977874;0.070380114;0.2624768;0.09293361;0.336221;0.06003148;-0.045770697;0.027570555;-0.03284634;0.09977478;0.0292952;-0.0599461;0.03617159;0.007824887;0.111106396;0.065961994;-0.04854895;0.06725683;0.01253325;-0.028913809;0.08946384;-0.13484561;0.19339363;0.25355744;0.11003767;0.14707044;-0.0026945542;-0.035293054;-0.079421856;-0.07380723;0.02591618;0.23842652;-0.029883232;0.12637752;-0.03671429;-0.022117836;-0.05608047;-0.20499364;-0.1337716;-0.40798825;-0.05501648;-0.043095972;-0.079803504;-0.058080487;-0.069094;-0.05966636;-0.010507489;0.07861432;-0.22325605;-0.026097458;0.0654045;0.027725182;-0.060096454;-0.124391526;0.15683445;0.14820348;-0.259247;-0.16484994;-0.003587456;0.22165158;0.11087161;-0.048923068;0.009780393;-0.0235634;-0.019985514;0.030776186;-0.14474756;-0.0021699448;-0.052949294;0.03824361;0.20066528;0.13576317;0.1577656;0.11708047;-0.039609384;0.029156344;-0.009510135;0.0015408758;0.17577064;-0.054614905;-0.021126054;0.15740797;0.08029978;0.0674232;-0.04814443;-0.05531905;0.04575715;0.30131608;-0.13802058;0.22177745;-0.1792333;0.10205684;0.12683454;-0.15907787;-0.04004071;0.018088836;0.051930115;0.043821078;0.25786653;-0.14686662;-0.060994815;-0.05343239;-0.17681526;-0.20012479;0.02986416;-0.15159325;0.050352417;0.046680383;0.1942201;0.26121527;0.16167147;0.03616582;-0.25032082;0.07761803;-0.2325649;0.15504472;0.09104678;-0.0061265817;0.14242426;0.0011166325;0.18262891;-0.06787062;0.0018114294;0.021059627;0.048455205;0.028780952;-0.26888782;0.018515132;0.008166861;0.008382389;0.07921521;0.054663427;-0.10096302;-0.061848618;-0.13260822;-0.08816363;0.1157115;0.11455505;0.42690796;0.07515004;0.020097822;-0.047878746;0.019680712;0.04254302;-0.019409973;-0.34802628;-0.18991143;0.33173078;0.12784536;0.35041192;0.20223662;0.010050972;-0.02963947;0.07974282;0.011839265;0.14738384;0.16555235;-0.124459825;0.01083218;0.025204545;0.110801235;-0.13095982;-0.30948728;-0.107829124;-0.065948635;-0.04893478;0.04498291;0.018247623;0.008553712;-0.20378305;0.20209457;0.098704085;0.2665139;-0.22884378;0.118361406;0.06757445;-0.09354065;-0.16353507;0.01451806;0.18388341;-0.058274854;-0.05395167;-0.084125146;0.116303936;0.027089678;0.04120633;0.020584993;-0.080191456;0.022790527;0.06879452;0.024433251;0.030494245;-0.056685645;-0.33896384;0.058681186;0.11065956;-0.008604853;-0.05136408;0.35877728;-0.21789505;0.06704558;0.048650645;0.02683742;0.13562062;-0.19375029;0.2192754;-0.004021712;0.092537545;0.044565942;-0.25663894;-0.02635385;0.2672795;0.12176302;-0.052884843;-0.020486776;0.098024346;0.07722783;-0.09109979;0.06941331;-0.5606947;-0.066012636;0.19367102;0.058338687;0.027637517;0.082533084;0.054096688;0.06536195;-0.08893271;0.1405118;0.016585236;0.19842719;-0.0013435276;0.0548003;-0.10249312;0.18756841;-0.032533508;0.07832523;0.00073983066;0.18586653;0.23800358;-0.023137392;0.042755842;0.055012736;-0.08268747;0.10712274;-0.15440403;-0.050747354;0.011723029;0.06270647;0.04891764;0.020009527;0.24142344;-0.07656736;-0.17608537;-0.47299492;0.11624084;-0.24681497;-0.008410502;-0.067219414;-0.028338155;0.08113309;0.043094747;0.35085118;0.31266224;-0.079907835;-0.062695794;0.0058713295;-0.039919097;0.00801688;-0.08150246;0.14795353;0.039131213;0.041309644;-0.030471904;0.059097197;0.20308587;-0.24570891;0.050586253;0.18018407;-0.0586714;-0.37694672;-0.0030092257;-0.055492595;0.02101098;0.05680203;0.04510563;-0.28947973;-0.08672283;0.07049522;0.028952362;0.1619896;0.089636855;-0.020873189;-0.02429771;-0.31129807;0.06879085;0.057208374;0.124794126;-0.085365444;0.14486162;0.042428598;-0.04642403;-0.020548211;0.07902337;0.11371276;-0.0075769564;0.005708616;0.20225477;0.3227546;0.06285435;-0.03382583;0.01533802;0.13395305;-0.17401536;-0.023503758;0.10629397;-0.024904106;0.060155965;-0.2042455;-0.6057766;-0.07822266;0.04576624;0.016716864;0.02237928;-0.005487712;0.06019593;-0.061564635;0.2937111;-0.037556235;0.19748107;0.18026727;0.08193181;-0.16586478;0.103229105;-0.049639918;-0.14670475;-0.07791784;0.0827705;0.3396015;-0.52411944;-0.044729397;0.022998724;0.05957311;0.010001409;0.026628241;-0.05219557;0.20867626;0.21969941;-0.07970087;-0.06624503;0.014851526;-0.27040744;0.030970523;-0.23282471;-0.21030055;-0.0304758;-0.09141537;0.2406753;-0.17024852;0.017800651;0.057514023;-0.021722304;0.23844;-0.1111056;0.01910606;-0.02767809;0.064497836;0.24719049;0.38163656;0.021981046;0.31268;0.5651031;-0.058830786;0.04742302;0.14380118;-0.050468687;0.043315943;0.09567739
-0.02752553;0.024794819;-0.107250065;0.029932348;0.022703886;0.006132416;-0.072882675;-0.027966266;-0.34412697;-0.0637428;0.063372865;-0.06079447;-0.24735406;0.032628406;0.4601032;-0.07476863;0.096939705;-0.094873674;-0.042651303;-0.0057055377;0.06836709;0.056212757;0.06813941;0.044345893;-0.18609436;-0.21273085;-0.051431388;0.0099084675;0.04937939;-0.0400005;0.015709905;0.19545592;-0.050702825;0.027467636;-0.088976756;0.0013891105;-0.070595704;-0.18372625;-0.26720354;0.034721654;0.03579867;0.25008434;-0.06517167;-0.009227354;-0.035020772;0.06632419;0.098005705;-0.20646249;0.06691644;-0.069038466;0.40077373;0.045193218;0.31201267;-0.27035403;-0.06755404;-0.088020585;0.25394887;-0.21326034;0.0054628765;-0.20248064;-0.010528415;-0.17645219;-0.23941681;0.026320055;-0.04753561;-0.02078493;-0.013122693;0.022872888;-0.094129905;0.029083285;0.015697002;-0.45581403;-0.043006506;0.02999398;-0.055588212;-0.022286473;-0.07300578;-0.12838355;-0.0017968994;0.12948504;0.08259975;-0.037632976;0.136597;0.059674133;-0.06383767;-0.019757394;0.13146187;0.0043385774;-0.05256524;-0.010707317;0.12870273;-0.25625888;0.08077849;-0.13440222;-0.010223411;-0.08187125;0.056924317;-0.3863297;0.06672156;0.065368526;-0.0135789765;0.49718708;-0.13240156;0.013549066;0.17537309;0.04172974;-0.048430942;0.04531131;0.00051758427;0.14272057;0.005364448;-0.061362017;-0.15688793;-0.21106113;-0.037339434;0.27466312;0.013325747;-0.024085635;0.048371807;0.28883108;0.20633256;-0.2685328;0.054925963;0.05125299;0.0015964678;0.06961681;-0.004970403;-0.13609876;0.30929908;-0.011769395;0.13966437;-0.013362051;-0.012530393;-0.07439842;0.13043338;0.030270107;0.2505562;-0.053372;0.016648086;0.01851787;-0.18383701;-0.09382857;-0.026239319;0.24785672;0.16792832;0.16555956;0.29842684;-0.08832279;-0.01146341;0.22611615;-0.24055062;-0.12595671;-0.004451666;0.024333373;-0.051743325;0.11641474;0.16298626;0.029418988;0.051536698;-0.06782069;-0.12846701;0.098185815;-0.027740166;-0.042322583;0.11407672;0.21291922;0.059777416;-0.039993323;0.13113455;-0.17289934;-0.41076994;0.042558607;0.32895157;0.016909506;0.048478883;0.07810376;-0.41439235;-0.01843218;-0.13165995;-0.31729147;-0.025023421;-0.28548402;0.011979122;0.030770391;-0.070384726;0.064413846;0.008898218;-0.10501038;0.0012770011;0.10414301;-0.19427396;0.037796933;-0.022328071;0.056680035;0.17446403;-0.000245401;0.010594762;0.21486597;-0.0884218;0.10642649;0.20235299;0.0640035;0.22538257;0.07635758;0.095653825;0.0057340725;0.043527838;0.19840649;-0.091486655;0.019826902;-0.07400964;0.053041417;0.06866171;0.039271396;0.023291329;-0.02547014;0.069183275;-0.06507482;-0.030251618;-0.11184817;0.3309468;0.12362548;0.1180261;0.09359178;0.09519745;-0.0033532039;0.009559687;-0.004735565;-0.054458003;0.3120238;-0.038737454;0.25761107;-0.008109784;-0.046914846;-0.011041398;-0.1145509;-0.06431986;-0.33196977;-0.013326683;-0.032075837;-0.05268685;-0.14053647;0.011578614;-0.09304163;0.0013825186;0.06959226;-0.2714147;-0.055010233;0.11048;0.029153813;-0.0445245;-0.044468123;0.20719887;0.14293157;-0.09305345;-0.006471878;-0.10544271;0.3347519;0.06126928;0.002461332;0.16345428;0.027348565;0.14437081;0.07861574;-0.14348061;0.07432073;-0.049507305;-0.06707094;0.09331262;0.09389225;-0.006420359;0.15849018;-0.04552458;0.0019369095;0.0140948;-0.09245689;0.18962581;0.0029463652;-0.016269362;0.11964285;-0.030053463;0.053887755;0.059767116;-0.028107168;-0.02508118;0.18666773;0.020315927;0.3111643;-0.034984134;0.23400173;0.064166516;-0.2589485;-0.016909787;-0.03401317;0.023777017;-0.070754096;0.2369579;-0.12679623;0.08037066;0.0036179426;-0.12241994;-0.15879637;0.06275237;0.031431317;0.010338029;0.10015093;0.041587327;0.27988052;0.11977148;0.11036654;-0.26619008;0.028175859;-0.2723661;0.13884537;0.106925294;0.19211446;0.20784174;-0.049939353;0.1503368;-0.13137817;-0.041786168;-0.015308403;0.02939369;0.012496554;-0.16628727;0.051767934;-0.011541421;0.043702543;0.16179354;0.040063698;-0.061060593;-0.035156418;-0.14345592;-0.006581897;0.19448952;0.005294287;0.46027997;0.18839704;-0.06968573;-0.065509625;0.064392924;-0.017666427;0.018336345;-0.35877213;-0.19558993;0.26815522;0.10917776;0.35995966;0.27063167;0.019646766;-0.056984153;0.016676005;0.03331731;0.18950748;0.21610275;-0.16021483;-0.061436825;-0.038153596;0.037012327;-0.24197866;-0.16452809;-0.12066818;0.0052478616;-0.17136689;0.038994253;0.054228444;-0.010778431;-0.21791954;0.2643097;0.10753639;0.13043286;-0.20328866;0.09671976;0.022127546;-0.15148191;-0.2108359;-0.0013454168;0.12706794;-0.0156212235;0.0692895;-0.14794646;0.038557187;0.0790472;-0.01381555;0.118966796;0.03958894;0.026899833;0.05564336;0.13754922;0.00071673945;-0.028923612;-0.2788113;-0.07969484;0.15271023;-0.06455219;0.041229423;0.37536642;-0.20959543;-0.062544465;-0.07020362;0.026308473;0.12203803;-0.2738452;0.07680673;-0.07776699;0.042543314;0.104416184;-0.17692772;-0.017280992;0.30193585;0.1494245;-0.06032143;0.01219098;0.011412145;0.1268793;-0.1269905;0.018341599;-0.50504315;0.027040126;0.11448785;-0.06318308;-0.06793876;-0.008544282;0.07927056;-0.05829296;0.06069316;0.17487817;-0.061264526;0.24202125;-0.043878682;0.17007782;-0.15172839;0.17897628;-0.06310717;0.02102826;0.010742004;0.046729065;0.2472075;0.057782017;-0.061267994;0.0043415613;-0.029350951;0.21020406;-0.204305;0.015828189;-0.09576625;0.03517984;0.0075310157;-0.06030486;0.20126952;0.033045337;-0.07292004;-0.38288477;0.12194094;-0.19851233;-0.00251565;-0.11048955;-0.099086635;0.004423448;-0.008239914;0.19305149;0.19347079;-0.042763174;-0.048995394;0.07166974;-0.041527558;-0.042421684;-0.0062222327;0.09921876;0.053042326;0.12190559;-0.05951276;0.08992891;0.10052234;-0.27403483;-0.0013811961;0.10086737;-0.061773717;-0.28181016;0.024619052;-0.024753474;0.001674351;-0.003537963;-0.04302437;-0.4280165;-0.2138032;-0.08127858;0.027535781;0.18062077;0.08803396;-0.16476786;0.052216746;-0.25654888;-0.046944637;-0.019632021;0.033038847;-0.0989816;0.1170107;0.008504523;-0.058082797;-0.09851233;-0.062477272;0.030313846;-0.038064733;0.049132597;0.12670878;0.1545667;-0.033938177;-0.050187167;-0.06753933;0.20689856;-0.13348253;-0.05720883;0.13472052;0.057409808;0.03987722;-0.17178163;-0.7250517;-0.08122474;0.09487859;0.058684047;-0.04641404;0.0059255073;-0.032240845;0.0032078137;0.22257447;-0.041225206;0.26309118;0.20413885;0.04189672;-0.1436759;0.19831802;-0.025495276;-0.08394053;0.0070740585;-0.0017386099;0.26180187;-0.53192264;0.049217895;0.13435343;-0.04487936;0.059020508;-0.020548053;0.072642185;0.16655141;0.19763213;-0.16058125;0.029055383;-0.04305697;-0.117577866;-0.08250047;-0.2453161;-0.20738906;-0.0717153;-0.15812773;0.30396807;-0.11726065;0.015588206;-0.055676054;0.009505712;0.16677289;-0.10646084;-0.027087549;0.013488105;0.05999088;0.26176712;0.3708687;0.004837933;0.18067862;0.54783744;-0.13371402;-0.0368232;0.047119815;-0.01299852;-0.0043742936;0.09230707
-0.021832753;-0.07866673;0.033202797;0.051159695;0.018909099;0.015427674;-0.06444875;0.06679817;-0.35865444;-0.07669002;0.0696264;-0.014956228;-0.22502577;0.018197322;0.47773337;-0.01062941;0.08447389;-0.074216366;-0.03392701;0.030140612;-0.07022369;-0.06860307;-0.067866355;0.0452828;-0.08443122;-0.015772002;-0.13246715;-0.0066784536;-0.028953893;0.0057464736;0.04523481;0.16135961;-0.027764488;0.07138557;0.07149668;-0.04472012;0.00307034;-0.18114486;-0.17246747;0.050799213;0.040652756;0.23513718;-0.06871295;0.0065938085;-0.03950049;-0.0035009806;0.14256495;-0.27600238;-0.054193024;0.027732061;0.29160717;-0.035532217;0.34449413;-0.2527552;-0.03876092;-0.18697794;0.31337953;-0.17832337;-0.03264318;-0.14357641;0.005593388;-0.19956733;-0.11307723;0.07967049;0.045698266;0.0213979;-0.086830474;0.072466485;-0.0108877;-0.052597243;0.055751406;-0.50466305;-0.11786206;0.00019179253;-0.07861452;0.029118776;0.046697836;-0.012043399;-0.06825407;0.04527046;0.23740548;-0.014061931;0.18182637;0.029214388;-0.124318205;-0.03363929;0.22548652;0.07913903;0.013834012;-0.006572422;0.23056464;-0.24678057;-0.07412614;-0.031208722;0.019922482;-0.10023884;-0.032813407;-0.301149;-0.08365883;0.13250351;-0.09422805;0.36542025;-0.09105872;-0.007343359;0.16516799;0.028873367;-0.050828885;0.0076043424;0.014826508;0.17055668;-0.07813591;-0.052549116;-0.035181824;-0.28548622;-0.05315381;0.27821177;-0.04078952;0.09251553;0.07092449;0.3185227;0.16326508;-0.13696805;-0.026015807;0.030400515;-0.026832169;-0.022492515;0.06374291;-0.14531642;0.42407247;0.032627143;0.19701783;-0.060117885;-0.040039815;-0.007970229;-0.00072892697;0.034708053;0.36390698;-0.024353905;0.054785088;-0.034668315;-0.073422894;-0.0960912;-0.041027684;0.28634235;0.23334838;0.2031666;0.29124734;-0.022481645;0.0054915445;0.26194027;-0.2657964;-0.109143555;-0.057138603;-0.061377652;0.046123292;0.17288385;0.06403176;0.03124725;-0.084957175;-0.066922784;-0.23923293;0.14524488;0.006670543;0.008599904;0.17799017;0.14152722;-0.009240886;-0.11006009;0.12268624;-0.25723153;-0.434375;-0.010393389;0.34410748;0.1508155;0.0016111396;0.029879777;-0.39525107;-0.0013158986;-0.017380536;-0.4240912;-0.0158812;-0.26513046;-0.0008603813;-0.12613696;0.049982112;0.08329809;-0.051855363;-0.15460746;-0.019567337;-0.057914864;-0.2382115;0.002008921;0.07146656;-0.006912094;0.065517254;-0.012227971;0.031074304;0.18793282;-0.072787754;0.09411675;0.11294465;0.08703108;0.26201615;-0.115727454;-0.009284705;0.05035883;-0.046420936;0.23476821;-0.09126055;0.0808483;-0.007563944;0.035545025;0.05776078;0.033590183;-0.0013338142;-0.01086534;0.07944403;0.06456716;0.06908163;-0.092965044;0.35405192;-0.018544676;0.13567835;0.15210891;0.0062486283;-0.04694206;-0.04096823;0.102186225;-0.017212832;0.28580967;-0.038864188;0.20226184;0.03127814;0.04984008;-0.045542087;-0.16903219;-0.15150954;-0.34411144;-0.006148333;-0.024478175;-0.04273247;-0.033039965;-0.087680794;0.079614945;0.025205359;0.027544392;-0.24713202;-0.11052174;0.15236285;0.034140702;-0.04612913;-0.046400074;0.22890401;0.028109552;-0.18559669;-0.012443323;-0.02496552;0.3774572;0.12987243;-0.047083292;0.044032767;0.11899927;0.12291122;-0.056631267;-0.16281532;-0.06133191;0.02481652;0.07937426;0.24219817;0.08184642;0.06755374;0.025929388;0.06291062;0.0669353;0.026845848;0.02136957;0.13360976;0.07736925;0.008394062;0.23653412;-0.13399868;0.039909046;0.034274135;0.084833875;0.06654734;0.24115843;-0.036433183;0.28244892;-0.17029089;0.26519915;0.11542152;-0.14417954;-0.01088188;0.046791855;0.022120005;-0.0046983776;0.20505428;-0.0850343;-0.06562232;-0.005611945;-0.22598612;-0.2965574;-0.017080626;0.13960187;-0.029104762;0.17670965;0.20461197;0.21170795;0.18271624;-0.0023280834;-0.203023;-0.0069892537;-0.2526177;0.1875753;0.052661188;0.12558521;0.23554873;-0.00015007152;0.12458494;-0.0952706;0.001592244;0.0077904435;-0.026277544;0.0226512;-0.20758402;-0.030521695;-0.02394584;0.020201202;0.099433;0.0649457;-0.12556542;0.04652181;-0.061419975;0.07359204;0.13687082;0.19433255;0.32097328;0.22584803;0.01944114;-0.09579353;0.0092745265;0.016889442;-0.17025879;-0.36401653;-0.09934446;0.34472644;0.08489011;0.1668871;0.3064386;0.02245961;0.0062534423;0.05011747;0.0350837;0.23869607;0.116684005;-0.14755212;0.03679932;-0.105181105;-0.0004755448;-0.24242795;-0.1035726;-0.1333047;-0.039355457;-0.07785163;0.022240816;0.0137237245;0.045327343;-0.14233884;0.21441144;0.09023018;0.17171626;-0.10363903;-0.011487584;-0.058957044;0.048626818;-0.08196805;-0.0015918274;0.11622272;-0.02849236;0.06607679;-0.07608016;-0.040564217;0.05183894;-0.08755307;0.062141657;0.07025728;0.066127606;0.10620288;0.07732395;-0.037385296;-0.11982963;-0.25825092;-0.039487183;0.10841002;0.007967456;-0.05356451;0.35341644;-0.12617762;-0.078304864;-0.024471913;0.13107103;0.03179245;-0.19781889;0.01047886;-0.07794073;0.030813808;0.05041938;-0.19904059;-0.041019715;0.31960464;0.2366962;0.00506061;-0.022589501;0.029231247;0.11590528;-0.12271823;0.081946865;-0.40250847;0.0682001;0.22845916;-0.014478019;0.0120176;0.021813547;0.06892569;-0.01365059;0.013196572;0.12830403;-0.06372495;0.19637977;0.019020068;0.2230086;-0.2579572;0.19658022;0.06436003;-0.025120514;-0.053839654;-0.052711774;0.2395039;-0.036430288;0.052982226;0.039175134;-0.060047835;0.23042405;-0.21182759;0.07696289;-0.12171086;0.13867782;-0.036197983;-0.019822225;0.12752615;0.032627303;-0.13433607;-0.50712985;0.17141595;-0.023586556;-0.024199609;-0.09758388;0.010238434;0.0015580544;-0.015068265;0.18876934;0.23101489;0.03986077;0.037696015;0.14986111;0.0499434;-0.07058724;0.0020370116;0.09624014;-0.051111627;0.090143286;0.052221008;0.05070783;0.27109998;-0.21813378;-0.041554805;0.1834714;0.09930209;-0.31224918;-0.030045826;0.048195355;-0.19130817;-0.0815962;-0.01448147;-0.28164053;-0.19540226;0.006520999;-0.062466785;0.034104716;0.12424117;-0.21868956;-0.004923946;-0.13544944;-0.047554813;-0.0350522;0.113510616;0.011277286;0.1632638;-0.02610778;-0.018121902;-0.12104149;-0.018592075;0.027717777;-0.017812787;-0.08134146;0.2449785;0.24067523;-0.052877143;0.00071745337;-0.005107933;0.17707509;-0.075448506;-0.06460107;-0.025084589;0.016983872;0.0005525551;-0.0967183;-0.5394592;-0.026238494;0.17464824;0.028511371;-0.17670394;-0.026007853;-0.11088758;0.008679739;0.23341854;0.05638869;0.09035236;0.10062014;-0.06939296;-0.13059762;0.26992926;-0.0066764;-0.099655636;0.06440195;0.043374117;0.28265893;-0.61079305;-0.06653185;0.10279056;0.007762596;-0.045338698;0.03848042;0.056039188;0.114736035;0.05466643;-0.11236413;-0.06408542;0.031180149;-0.057754982;0.088470355;-0.20444888;-0.15449144;0.0478613;-0.075414225;0.4221077;-0.027241748;-0.046955146;0.04556735;0.007674079;0.10985886;-0.0353614;-0.058965586;0.07266102;0.17328024;0.25375196;0.3021527;0.0402348;0.12663424;0.4736735;-0.09994601;-0.1403181;0.022346301;-0.022072334;0.06641855;0.09964912
-0.0016109304;0.06624737;-0.029271925;-0.029628834;0.045731854;0.11477328;-0.060933568;0.02339775;-0.359614;-0.019652214;-0.017759457;-0.0464345;-0.2346761;0.0031747532;0.38290086;-0.055449106;0.033694264;-0.049612325;-0.039965555;-0.020896029;-0.009387739;-0.067970805;0.02010025;0.18772186;-0.091378056;-0.045403797;-0.0715869;0.0016978906;0.07249505;-0.055993672;0.033388145;0.12532195;-0.12476019;0.12647273;0.08101576;-0.041851964;0.17793779;-0.23202755;-0.109065786;0.12309841;-0.07377486;0.23020783;-0.033679627;0.06642863;0.06030892;0.092658564;0.16882381;-0.33041224;-0.09288878;0.04335194;0.15194976;0.05251557;0.23841989;-0.25101066;-0.024335241;-0.16224101;0.32204545;0.021689167;-0.053153526;-0.118019655;0.17487721;-0.15323031;-0.10545824;-0.029094754;-0.0033543974;-0.040249772;-0.18404512;-0.075125515;-0.022599394;0.0096206935;0.01519139;-0.4472554;-0.035332173;0.010766086;0.021212164;-0.068964876;0.006140566;-0.017622514;-0.18252254;-0.0607305;0.19178295;0.12258209;0.066105686;0.03462366;-0.028831458;-0.0049646874;0.15066002;-0.032021575;-0.035213843;-0.09361157;0.19684945;-0.09622122;-0.11488669;-0.16362303;0.10033612;-0.08295367;0.04566979;-0.35571384;0.0072895386;0.1277973;-0.05277277;0.30568072;0.009809204;-0.050601084;0.11418917;-0.0020702397;0.0071041784;-0.043894406;0.019085353;0.14654726;-0.13996844;-0.08734197;-0.056152135;-0.31285933;0.037755236;0.3449856;-0.022839392;0.011099181;-0.03421846;0.3326741;0.26857865;-0.18761514;0.057298418;0.014451169;-0.077743344;0.015779104;-0.018217431;-0.15559392;0.53205436;-0.0049961014;0.21351102;-0.19062121;0.077638626;0.04824877;0.025495352;0.0635794;0.2813449;0.037310176;0.0057810503;0.017761929;-0.098518096;-0.18536001;-0.023901096;0.28980616;0.19474882;0.17544156;0.19224612;-0.007780378;0.024753517;0.25049037;-0.21122496;-0.06533725;0.016944727;-0.003018424;0.071622245;0.21084857;0.11612758;0.009919405;0.04392387;0.0638898;-0.15811752;0.10804324;0.0569237;0.075474575;0.14180313;0.16917308;0.16034892;-0.037095442;0.21292211;-0.19362378;-0.38533178;-0.046646524;0.3023302;0.19437627;-0.050957523;-0.0360872;-0.30347535;0.028836945;-0.09330386;-0.438472;0.06480657;-0.21859221;-0.022040442;-0.061030887;0.012541708;-0.08026381;0.12270672;-0.25402263;-0.016660359;-0.11399965;-0.17659365;-0.046506044;-0.009941378;-0.008166646;0.08282418;0.04487455;0.032488663;0.2698974;-0.097538196;-0.02354755;0.23302859;0.14396341;0.08562015;-0.022427471;2.9854626e-05;0.013845644;0.07067382;0.19939466;-0.09199116;-0.027855346;0.07203485;0.041069917;0.07329188;0.0692048;0.095312804;-0.0044723684;0.03134724;0.008050238;-0.030890225;-0.04669127;0.3965683;0.021425653;0.09961873;0.21368867;-0.0070385574;0.023629937;0.04634109;0.06494124;-0.04774481;0.26759335;0.02078399;0.159145;-0.04897519;-0.020144166;0.088210754;-0.04710701;-0.11414547;-0.2529354;0.050969455;-0.16191417;-0.06870022;-0.028080342;0.046264764;0.013908672;0.03781599;0.048377953;-0.21784985;-0.07184011;0.12835185;-0.014129372;0.011621403;-0.12119504;0.19526601;-0.041472495;-0.08492828;-0.026287695;-0.032188665;0.511521;0.0512314;0.11703577;0.115208685;0.11077061;0.13956541;-0.06045988;-0.18601601;-0.031577025;0.025548346;-0.05359462;0.20620823;0.17334577;0.007385386;0.006115893;0.0843246;-0.08062585;-0.026648624;-0.0485245;0.21984711;0.039692365;-0.06802566;0.09013152;-0.07750154;-0.0059773615;-0.005847164;0.021412807;-0.06465026;0.1461669;0.11985637;0.1962955;-0.0750725;0.15682061;0.046875603;-0.111173384;0.053317856;-0.033960566;0.013026189;0.047025464;0.17097016;-0.19709836;0.020147227;0.022869539;-0.17793995;-0.29399464;-0.06613127;0.22376184;-0.07166525;0.19514847;0.17151298;0.13729662;0.06611604;0.048339196;-0.07494136;-0.069981426;-0.17780845;0.35332036;0.0988658;0.108801104;0.25632954;0.07296587;0.18830356;-0.060401943;0.043971915;-0.06972802;-0.05332112;-0.0994345;-0.04902527;-0.016522376;0.019692749;-0.052458793;0.1715805;-0.0061533935;-0.22005618;0.053293716;0.010378938;-0.0014984057;0.22111414;0.19562739;0.47501916;0.16568948;0.019727927;-0.032470006;-0.044657458;0.014135304;-0.15131663;-0.30676764;-0.11102328;0.23948433;0.23137248;0.19376807;0.27823293;-0.041852992;0.06479811;-0.069944635;0.025019433;0.17896682;0.25726402;-0.2793869;0.021275727;-0.041354734;0.054709796;-0.23887274;-0.20865597;-0.08601664;0.011938368;-0.03626059;-0.06081104;-0.0029242833;0.050071813;-0.28666204;0.15482944;0.14416179;0.26983425;-0.053781494;0.025786664;0.049977843;0.0774191;-0.030981377;0.018095935;0.10479951;-0.079967804;0.030018855;-0.17263533;-0.025996117;0.009538166;-0.16387346;0.061566215;-0.014419499;0.038053058;-0.05917141;0.120991796;0.030075295;-0.07499513;-0.3091051;0.022338137;0.073981255;-0.045091614;-0.008791893;0.26632553;-0.21480669;0.022369599;0.07212116;0.20253183;0.03766927;-0.21691531;0.03302046;-0.09330292;0.06389364;0.024741853;-0.24223916;-0.08047901;0.16828799;0.24971336;-0.0075984565;0.017421661;0.053989414;0.18928473;-0.08534101;0.012154969;-0.440118;-0.06023739;0.22357017;-0.020301702;0.048090674;-0.008749532;0.1742109;0.124153465;-0.029052483;0.13378526;-0.17967215;0.13016333;0.05056164;0.09713308;-0.1502896;0.18079284;0.02447571;-0.03213592;0.06495906;-0.094527096;0.16547288;0.004769291;-0.021282833;-0.060930844;-0.04275784;0.13411398;-0.22635254;-0.061008435;-0.09857533;0.029765513;-0.043367084;-0.04008606;0.05386079;-0.027892632;-0.15559189;-0.4928776;0.08200501;-0.19191812;-0.037736118;-0.13427076;0.102449596;-0.017506007;-0.02820013;0.20521003;0.3137833;-0.047840558;-0.029231502;0.008825714;0.010603733;-0.061106414;-0.011879251;0.20875156;-0.05128067;0.17260394;0.038218174;0.010130953;0.10765784;-0.2754449;-0.032695726;0.14622255;-0.027736956;-0.33034733;-0.032984607;-0.060415696;-0.17903948;-0.01178736;0.023452166;-0.30324203;-0.345165;-0.0730033;0.047403;0.19922058;-0.056732655;-0.2172604;0.086660214;-0.05643127;0.0074475533;0.06471721;0.28887877;0.027530659;0.13883358;-0.047248024;0.06569836;-0.14902118;-0.018229868;0.09327702;0.035822168;0.056765202;0.15812491;0.019070107;0.06895785;-0.0013958579;0.0078024045;0.16799894;-0.055372953;-0.01510224;-0.101363905;-0.08048089;0.10817641;-0.07891372;-0.4863228;0.06561554;0.19339225;-0.017089527;-0.16111094;0.032129444;-0.08489752;0.011300104;0.21974568;-0.036454476;0.14614373;0.0924878;-0.119347155;-0.070398286;0.29117092;-0.02821715;-0.24037257;-0.008367903;0.060199678;0.28931388;-0.5857132;-0.017740512;-0.10690362;0.011339289;-0.05364732;0.044433992;0.009346612;-0.028937321;0.18764015;-0.20446259;0.041448966;0.016632257;-0.14240499;0.046273626;-0.09485232;-0.10728055;0.02544944;-0.08800606;0.46558246;-0.1305031;0.06037629;-0.059006855;-0.087577395;0.10673391;-0.14058092;-0.116438374;-0.022835115;0.13008773;0.1631378;0.36240408;0.03939047;0.1913621;0.58008355;-0.09009976;-0.13027504;-0.014427407;0.07138361;-0.0735712;0.09350984
0.050928283;0.15638451;-0.12238249;0.005485163;-0.018634127;0.12360688;0.03672331;0.040661804;-0.44367853;0.020231228;-0.051250957;-0.07784388;-0.16608858;-0.028144427;0.36774033;-0.06505212;0.06653087;0.08665708;0.032701068;-0.03612362;-0.0004378807;0.034688864;-0.019939538;0.13224466;-0.21001789;-0.023245772;-0.22287686;0.0018255013;0.021224588;-0.028160382;0.08451769;0.112835474;-0.027851272;0.009121852;-0.08849114;-0.051840093;0.19230431;-0.3209168;-0.1589392;0.01036063;-0.05330407;0.1112634;0.007155123;0.002942702;-0.057821058;0.10484017;0.043496776;-0.2881174;-0.04702623;-0.020911861;0.19351104;0.06068722;0.3408706;-0.256285;0.009276806;-0.2895695;0.1855446;0.017600551;0.06614918;-0.06827649;0.07395961;-0.14044271;-0.19026387;0.027195815;-0.019661956;-0.036656167;-0.2690618;-0.008947879;0.0048687723;-0.047077004;0.09590168;-0.49528417;-0.16633584;0.043904725;0.05052561;-0.06706629;0.06123521;0.048840955;-0.15175036;0.046809178;0.04457761;0.024377787;0.19891147;-0.040269315;-0.076199025;-0.09199561;0.14631729;-0.031538725;-0.15316172;-0.070299305;0.090938576;-0.027723074;-0.06662964;-0.23241854;0.070272766;-0.02435607;-0.09071493;-0.26312503;0.0023832992;0.06718559;-0.19460073;0.28096652;0.12946296;-0.02191031;0.10847032;-0.04604176;0.041357342;0.03077697;0.052738976;0.21460232;-0.124195814;-0.22011763;-0.04613593;-0.24133691;-0.044463463;0.28345734;-0.012116726;0.039617684;0.04166749;0.31313542;0.12602895;-0.085050166;0.066936076;0.07357122;-0.048605714;0.029403968;-0.0076445104;-0.0023861632;0.44516513;0.00079359894;0.18887746;-0.19109647;0.043981347;-0.050204534;-0.047878373;0.075448796;0.348654;0.040437147;0.075524725;0.0062465305;0.066661805;-0.13093276;0.027073106;0.23294804;0.109711625;0.3508106;0.38358337;0.07972335;-0.0057413066;0.31149796;-0.40437925;-0.108665206;0.06572627;-0.014958629;-0.009722943;0.10028934;0.1491349;0.018670576;0.04964139;0.055034157;-0.31375808;0.057729755;-0.036588043;-0.050788127;0.1488246;0.17019197;-0.02671754;-0.062318042;0.2787032;-0.40360788;-0.37536216;0.02774936;0.23724173;0.23230025;0.05420066;-0.00044346275;-0.23391539;0.037087295;0.0032253037;-0.44225252;0.03311781;-0.2816693;0.046687756;-0.12762743;0.0036945725;-0.042270847;0.09909392;-0.33127305;-0.050292067;-0.0386583;-0.13714968;-0.016562214;0.0028875591;-0.04830195;-0.035600465;0.0435411;-0.015270641;0.12143986;-0.09256795;0.07686923;0.14928813;0.24102677;0.20893076;-0.09688983;-0.094114184;0.008622199;0.022546912;0.28144217;-0.10090605;-0.039258037;-0.047857188;-0.011212077;0.056996714;-0.05137972;-0.017972568;-0.027556349;0.045689736;0.009397563;-0.033682972;-0.16033703;0.41342318;-0.021826938;-0.0037585793;0.11887058;0.066775724;-0.016456634;0.063490994;0.027020812;-0.06163948;0.42277658;-0.064774975;0.118335254;-0.020008678;-0.03980036;0.07104855;-0.10623922;-0.13455878;-0.20465118;0.019958388;-0.15363878;-0.05239432;-0.09458157;0.034129974;-0.041029;-0.0036906719;-0.022619544;-0.34525722;-0.020381318;0.05385113;-0.034980975;0.049422104;-0.10222197;0.20207627;0.05062407;-0.051613603;0.028946547;-0.010600645;0.51196694;0.025210414;-0.019090353;-0.0009004124;-0.017765306;0.077429585;0.00045181907;-0.1284708;0.0062576053;-0.0014212088;0.03218674;0.23037641;0.1196939;-0.094646685;-0.03186076;0.0011200778;-0.0069649075;-0.05171452;0.046580985;0.20448239;-0.05752024;-0.08404701;0.2568749;-0.06448512;0.1275342;-0.035505373;-0.041165054;-0.047473434;0.2942419;0.051607646;0.18303062;-0.13780418;0.26490924;0.15231691;-0.00350369;0.047311604;0.0093111815;-0.038045034;0.01660519;0.25615495;-0.21696362;0.028652262;-0.011290918;-0.08823659;-0.24609818;0.022465011;0.22205916;-0.010624776;0.181357;0.16124183;0.14406171;0.07201342;-0.042511377;-0.03790948;-0.045004934;-0.24674995;0.24805127;0.02264314;0.15731479;0.29373136;0.040771652;0.20326677;-0.13656655;0.055612113;0.05200421;0.008738748;0.059050288;-0.07814263;-0.052297708;0.06214394;-0.05838979;0.10047492;-0.027821768;-0.17478848;0.038058132;0.035356093;0.006966843;0.09068016;0.12207379;0.32053262;0.18223123;0.054750092;0.027434826;0.020152302;-0.06892045;-0.1772975;-0.33094868;0.030377753;0.3387945;0.123388864;0.1538621;0.36261895;0.05272869;-0.03611636;0.019945974;0.012437937;0.34852204;0.08504967;-0.28968698;0.047794454;-0.026637474;0.022935258;-0.22869271;-0.24094184;-0.112519085;-0.027177177;0.0041493075;0.06875866;-0.06744755;-0.08283622;-0.31146678;0.15825407;0.033504054;0.3176071;-0.11884418;0.031113725;-0.07754649;0.06724236;-0.20663838;0.011145747;0.114408106;-0.15083063;-0.06203597;-0.12510772;-0.014018014;-0.0066507636;-0.11817655;-0.048728846;-0.046144664;0.047563363;-0.0753202;-0.010477085;-0.039427657;-0.14167915;-0.18434013;-0.0154252965;0.1667617;-0.05021951;-0.03086883;0.22123665;-0.17916968;0.043799948;-0.044234596;0.0772085;-0.012453266;-0.3702376;-0.004363988;-0.09734869;-0.095090546;0.09800662;-0.20746103;0.06385947;0.25305808;0.322518;-0.0969496;-0.015605895;0.045265507;0.2315414;-0.007178361;-0.11169761;-0.26816893;-0.078285165;0.24633932;-0.009436794;0.000795173;0.02660553;-0.0020008478;0.06385582;-0.02509957;-0.001396339;-0.16777551;0.092084624;0.059661675;0.06855067;-0.2500382;0.16598457;-0.031227425;-0.015140718;0.02514128;-0.06609513;0.16730261;-0.060007744;0.093039244;-0.03737357;-0.06928783;0.23358305;-0.23091106;0.06446392;-0.023945991;0.05087354;-0.0029638687;0.007277066;0.2423029;0.016886683;-0.15025449;-0.62900877;0.23600936;-0.17599337;-0.04244461;-0.0058969352;0.018579815;-0.017065015;0.04967375;0.11416771;0.1933297;-0.083753675;0.028408477;0.12256833;0.051208645;-0.030548144;-0.040038384;0.21482003;0.059726007;0.08891461;-0.085231036;-0.041912146;-0.0030237776;-0.25328502;-0.023138758;0.020224046;0.011558606;-0.36120403;0.06413384;-0.04060996;-0.13422464;0.07002913;-0.054587442;-0.341221;-0.32051882;0.047899265;-0.015888907;0.15101504;-0.019537052;-0.21332969;0.030003019;-0.0557811;0.055051584;-0.046172455;0.18426986;0.01024084;0.1943183;0.023040967;-0.02212523;-0.208803;-0.018331055;0.13835521;-0.040892754;0.05765384;0.23130918;0.14342219;0.039329123;-0.007198562;0.01314181;0.03860965;0.03251803;-0.103659295;0.024101809;-0.03716039;0.09307859;-0.03210867;-0.4821839;0.0628551;0.16305074;-0.06321376;-0.13138139;0.024097707;-0.077598974;-0.03451766;0.34725198;0.040970713;-0.0074759126;0.12742312;0.1275338;-0.085734725;0.18039094;0.008857576;-0.20107402;-0.07851684;0.09125867;0.1902926;-0.5637097;0.17738134;-0.06774332;-0.025824375;-0.04649773;-0.024842938;-0.036863;-0.0077868965;0.09149565;-0.17975771;0.011374917;-0.08683119;-0.10822463;0.032521583;-0.14075963;-0.087215215;-0.022455348;-0.23693919;0.42617595;-0.05550823;-0.010705992;0.017135996;0.10432205;0.046633266;-0.04693759;-0.19647859;0.06475838;0.038442954;0.21802613;0.23695262;0.03141054;0.09133596;0.47494912;0.03079019;-0.06792775;0.044185616;-0.041855466;-0.007346548;0.04254242
0.049656056;0.25551727;-0.08043215;0.012156373;0.06022271;0.2342269;0.06460106;0.062327016;-0.4952175;0.04510731;-0.028644765;-0.016354484;-0.28876626;0.028604768;0.2212604;0.029680913;0.07822053;0.067806095;0.08089688;0.08515553;-0.019300183;0.048799135;0.012502577;0.10263443;-0.24324833;-0.09100053;-0.16261235;-0.053588703;-0.020614773;0.023841389;-0.22510283;0.14033282;0.054885224;0.07461361;-0.044202857;0.06422738;0.16672447;-0.30106634;-0.10639886;-0.019007958;0.014045241;0.16761741;-0.111804925;0.0094274245;-0.0521915;0.07436328;0.12024294;-0.27714804;-0.16317621;-0.049257554;0.23482841;-0.023693109;0.33636528;-0.22042559;0.08525494;-0.2823414;0.067593046;0.06576818;0.068330206;-0.09758002;0.07607266;-0.14697553;-0.29336396;0.102018446;-0.023855282;0.06878408;-0.18227859;-0.023024376;-0.013522057;0.06436437;-0.034261297;-0.36774272;-0.056404304;0.00033653877;-0.06791977;0.033744626;-0.008891561;-0.030381655;-0.061127003;0.013148609;0.021370515;-0.017501744;0.10811158;-0.094229996;0.15018187;-0.097056665;0.30193108;-8.445197e-06;-0.13682762;-0.028761625;0.09599245;-0.025717907;-0.09131156;-0.24465367;0.19416542;-0.0024431618;-0.009471258;-0.19599652;-0.016020374;0.03412676;-0.19281296;0.24858733;0.08576364;-0.035561737;-0.034333706;-0.012444709;-0.011801775;0.09095852;-0.01860102;0.17802605;-0.12121377;-0.15852287;-0.10883898;-0.12837997;0.018146632;0.22495094;0.04308916;0.0697584;-0.03850199;0.34003526;0.23016192;0.011449975;-0.006826895;0.0476069;-0.006669121;-0.08037571;0.031920403;-0.06112621;0.38378578;0.028400399;0.19415161;-0.30630013;0.055606138;-0.034849856;0.019058868;-0.054745924;0.34249198;0.0069482746;-0.07711782;0.04883771;0.05523771;-0.058569808;0.01242051;0.36760092;0.0737061;0.32073703;0.34202847;0.14774519;0.024941439;0.3082291;-0.33095357;-0.08863664;0.03549462;0.05631743;-0.03446046;0.12017432;0.097865745;-0.015285352;0.02192535;-0.021386482;-0.30898884;0.11257232;-0.08508323;0.045861993;0.08303501;0.036646057;0.14661098;0.0036874996;0.21731025;-0.418862;-0.40684792;0.084777564;0.17722346;0.21801835;0.022849852;-0.06579443;-0.19688588;-0.049159046;0.016715096;-0.41347355;-0.0068722647;-0.15454993;0.10881657;-0.121675946;-0.0051804427;0.05206881;-0.073774934;-0.4213397;-0.09962101;-0.023361925;-0.12661313;-0.004233658;-0.052645802;0.043688662;-0.07876918;0.018649474;-0.020756565;0.16223441;-0.008272294;0.09553057;0.14948994;0.20952861;0.15805331;0.0177516;0.017769909;0.005773105;0.016604524;0.23515005;-0.10816998;0.019833896;0.076729424;-0.03170721;0.1055498;0.037050437;-0.0230297;0.078490585;0.10674773;-0.08189218;0.050621174;-0.16798387;0.3783626;-0.074071206;-0.06403825;0.26870158;-0.013658474;-0.08471599;0.060679466;0.03411712;0.09306373;0.34420145;-0.026505353;0.16394731;-0.10964622;0.014436166;-0.006104905;-0.118626535;-0.13855384;-0.17863293;-0.05061845;-0.1555659;0.03944832;-0.020258455;0.036860492;0.009684128;0.052381393;0.06747474;-0.24337965;-0.01800746;0.16197094;0.052010946;-0.008613638;-0.091216356;0.2651959;0.06453567;0.049428746;-0.075932056;-0.011657048;0.5020932;0.0463214;0.09075453;0.11407893;0.1636141;0.12694608;0.00829531;-0.20512901;0.0500776;0.0029520812;-0.029392846;0.1038392;0.11203072;0.066671886;-0.007370106;0.04123314;0.08094481;-0.009792859;0.04521763;0.30070546;0.038446955;0.1103361;0.21287678;-0.15474541;0.040337905;0.016141813;-0.06066088;0.08622388;0.22934763;-0.05252812;0.18897934;-0.1891719;0.20529296;0.10973629;0.104888394;0.046330903;-0.056268603;-0.05554318;-0.08224026;0.3174461;-0.12814964;0.051997766;0.041640364;-0.028626282;-0.19142233;-0.0349109;0.21753496;0.019711722;0.17507853;0.12926969;0.07117332;0.21279469;-0.061709158;-0.0790194;-0.08075828;-0.14370243;0.14925712;-0.06803808;0.10675534;0.42046565;-0.036912315;0.19967413;-0.2618034;-0.03665719;0.09196988;0.048136637;0.05516144;-0.09918603;0.0023406406;-0.006846557;-0.029392723;0.17730927;-0.08948943;-0.26456118;-0.05547468;-0.019264063;-0.043452404;0.10221942;0.14140904;0.18743719;0.014672291;-0.003940258;-0.034947507;0.08784182;0.05634747;-0.19083783;-0.22471184;0.10903066;0.25696188;0.22470078;0.19049095;0.25280437;-0.057262506;-0.024097033;-0.07425642;-0.0024626264;0.35980698;0.14389056;-0.37575936;0.045286335;-0.10123927;-0.05228985;-0.22941759;-0.31097156;-0.15388711;0.03417616;-0.05721966;-0.06449578;0.019203432;-0.046063077;-0.24498975;0.13279608;0.1218126;0.3209512;-0.116366245;-0.17669293;0.028127298;-0.059237156;-0.25140354;0.017165126;-0.025002673;-0.04536999;0.0604068;-0.13394469;0.18291721;-0.04535351;-0.08804004;-0.03775754;-0.05884704;-0.069405615;-0.0008091793;0.1482356;0.055068772;-0.06539805;-0.08143857;0.02186794;0.063550055;0.048742194;-0.063512996;0.31781366;-0.08156635;-0.062172476;0.017542519;0.10815613;0.10861574;-0.305663;-0.060005624;-0.11484786;-0.08290947;0.25896287;-0.20104487;-0.012783292;0.12026268;0.26497298;0.06916617;0.018927056;0.1854697;0.18373156;0.06530872;-0.097711354;-0.347855;-0.0048096646;0.16251306;0.015604141;-0.034374557;0.042624373;0.024959205;-0.035209905;0.004356905;0.071647756;-0.09756305;0.071325526;-0.07362876;0.20083192;-0.2737427;0.32695025;-0.0730544;-0.024136191;-0.032755643;-0.06285199;0.08858542;0.04146181;0.0994185;-0.0198419;-0.07671254;0.31722397;-0.19424865;0.003456905;0.011956143;0.095332116;0.03958695;-0.056123186;0.20227973;0.018771876;-0.02907654;-0.6035896;0.22030506;-0.14442298;-0.019263078;-0.028061984;0.0005064403;0.015223909;-0.07438523;0.057465214;0.114578776;0.019561576;0.13177283;0.2307307;-0.05281312;0.052577056;-0.008851806;0.18440546;0.046110578;0.069883;0.036556695;-0.022969909;0.057389762;-0.2697991;-0.30005446;-0.023603238;0.003407975;-0.23334247;-0.034656506;0.014684518;-0.17596075;0.0071526663;0.0148257995;-0.30327505;-0.35277563;-0.036687016;0.06843213;0.20744139;-0.09011057;-0.1148254;0.17503017;-0.07418019;0.002269533;-0.04310654;0.16973333;0.10230928;0.102566004;-0.06158825;-0.0020508284;-0.21810375;-0.05539557;0.032286044;0.055843484;-0.03386665;0.24412362;0.16102082;0.019653345;0.06948557;0.039611645;0.03771356;-0.077524856;-0.13731275;0.03357072;0.031378724;0.16062976;-0.10408665;-0.40886554;0.025542933;0.21369599;0.011649384;-0.19789526;0.071400136;-0.08842995;-0.029794287;0.3064637;0.08820364;0.001273734;0.14689043;0.055195548;0.05408908;0.25306472;0.03629992;-0.13369599;0.006777313;0.13694538;0.16371424;-0.49400607;0.09288763;0.0033872812;0.027032422;0.02653418;-0.037153743;0.020336522;-0.008367631;0.14629516;-0.16498046;0.013185804;0.009767132;-0.21677367;0.012216914;-0.111409426;0.062019516;-0.015061454;-0.42043555;0.4318367;-0.07394418;0.05956091;-0.051935133;0.08798818;-0.08356921;-0.083691545;-0.12450737;0.025109774;0.0493574;0.13422275;0.25622803;-0.03637379;0.015690563;0.38578892;-0.0006330796;-0.19170278;0.09364439;-0.06309047;-0.0022817515;0.11899312
-0.014982479;0.2789716;-0.13825107;0.02630825;-0.07147513;0.18281965;0.066147804;-0.03342218;-0.5362052;0.033400256;0.054154716;-0.05699661;-0.41222546;-0.083063535;0.17303568;0.053221494;0.038599472;0.18716629;0.026075566;0.049819436;0.028150337;0.034434445;0.029718092;0.06419495;-0.19835807;-0.076821856;-0.16894048;-0.12869035;-0.0064378334;-0.020331075;-0.12910172;0.046629578;0.015287006;-0.06748762;-0.036712185;0.043788817;0.09557658;-0.33483562;-0.047413044;-0.06232837;0.0057131634;0.2430365;-0.062447462;-0.14346547;0.029134464;0.17377952;0.045141526;-0.3225486;-0.032182857;-0.063503735;0.21446835;-0.05344115;0.3706731;-0.2879725;0.09634756;-0.2755244;0.18469608;0.11465915;0.010330221;-0.06541257;0.15350269;-0.13765654;-0.21325494;-0.04203874;-0.062449753;-0.04732793;-0.1918698;-0.044297196;0.055159967;0.027203513;-0.029688943;-0.27904442;-0.15409352;0.034956746;0.04147909;0.037725564;0.01993995;-0.108098604;-0.14991437;0.04699149;-0.040246632;-0.106208965;0.111357346;0.051634297;0.1389042;-0.13616653;0.33896133;-0.017350925;-0.13039206;-0.016277377;0.13044757;0.01776171;0.08253992;-0.24575755;0.18693289;0.05673504;-0.064174525;-0.1850912;0.010831098;0.0423803;-0.19056068;0.1705201;0.12507142;0.063764036;0.08991484;0.04429805;0.011590354;-0.014296333;-0.020341063;0.13063711;-0.020865612;-0.27456665;-0.06699387;-0.2055893;-0.034091502;0.2767603;0.009569174;-0.026603332;0.03468751;0.19211414;0.031257834;-0.04797072;-0.034314945;-0.074153766;-0.17513329;0.023139112;-0.038580645;-0.13036232;0.30510315;-0.04419558;0.15569605;-0.2389445;-0.091767915;0.043773063;0.047470868;-0.06911556;0.27762052;0.031032361;-0.040302265;-0.09097883;-0.010845766;-0.11636274;0.01147975;0.29756698;-0.015351477;0.30237013;0.35771734;0.07383025;-0.080276124;0.2323496;-0.39502054;-0.2551345;0.03025357;-0.012201567;-0.052270345;-0.036513615;0.24286538;-0.06694702;0.02661193;0.039277032;-0.31534576;0.08535117;0.063025415;-0.008660399;-0.03817153;-0.078433745;-0.03178588;-0.08063881;0.25384808;-0.37763384;-0.53252804;0.04039474;0.0653765;0.14031692;0.012711365;-0.01572799;-0.25559613;-0.006606999;-0.081918314;-0.24451211;0.08156983;-0.29201517;0.14013508;-0.00662025;0.025187768;0.042352203;-0.059271045;-0.4676123;-0.31796476;0.015996374;-0.14183629;0.0012496839;0.019685544;-0.0647523;0.06807515;-0.065775014;-0.06483661;0.011037153;-0.048817582;0.049587026;0.078607;0.24948205;0.11604496;0.068109386;-0.023248607;-0.0007234089;-0.033735007;0.17211694;-0.010091478;0.040621884;-0.015694868;-0.007973334;-0.03240884;-0.040886335;-0.053746805;-0.007441398;-0.043346297;-0.06512605;-0.058473293;-0.20361117;0.28129756;-0.034421664;0.05438083;0.13687435;-0.007489901;0.008381734;-0.038795844;-0.05542732;-0.010599306;0.3001264;0.012500969;0.0077841748;-4.995015e-05;-0.105909035;0.018353706;-0.042300925;-0.1255993;-0.23689814;0.027942892;-0.15322094;0.08192126;-0.05069231;0.028012086;-0.09547494;-0.06346554;0.058725927;-0.3626259;-0.033012897;0.035117563;-0.045868088;0.04752767;-0.06747201;0.33349288;0.013145103;0.015776224;-0.05212404;-0.07314004;0.3702817;-0.034881122;0.052644715;0.13080472;0.010993029;0.1205687;0.077285714;-0.16052565;0.034903824;0.095922254;0.037716;0.061820876;0.06384254;0.004761424;-0.054091867;-0.0286451;-0.07076988;0.018020002;0.064278066;0.27107087;0.049411207;0.1245068;0.35899752;0.010052005;-0.0041352077;0.035290703;-0.10984055;0.11672641;0.26126295;-0.06812026;0.19199692;-0.15170138;0.10446568;0.21222953;0.10467501;0.019148698;0.07466997;-0.010609561;0.043402568;0.45785773;-0.2036702;0.027645912;-0.0060230573;-0.030991517;-0.24315356;0.06722628;0.21412414;-0.024888555;0.09043954;0.04936239;-0.031176295;0.22297274;-0.058182478;-0.06845272;-0.044871625;-0.08318444;0.22690603;-0.11992506;0.044559307;0.35732672;-0.054522533;0.099177465;-0.18808928;-0.018679595;0.058077015;-0.019950138;-0.02768952;-0.1613493;-0.059675254;-0.03274213;0.0533486;0.27822724;0.057477124;-0.13046844;-0.065791704;0.020175025;-0.042569093;0.11269267;0.03300984;0.24122049;-0.025619352;0.035813015;-0.07933868;-0.066175625;-0.07454418;-0.14765516;0.0070481766;0.31048015;0.23858385;0.25191718;0.26977473;0.3119475;-0.010672368;0.016206104;-0.091642685;-0.025911242;0.29793513;0.20681404;-0.31978843;0.061172735;-0.10434798;-0.12602994;-0.22058082;-0.3847978;0.034155555;0.006375394;-0.038592655;-0.046836182;0.022223094;-0.028311355;-0.18300849;0.113176785;0.1309921;0.370817;-0.082929105;-0.03593441;-0.0041351924;-0.027884284;-0.22271344;-0.029615538;0.105344355;-0.08873632;-0.0049976404;-0.20217954;0.17382886;-0.060136247;-0.22600192;-0.076295204;0.03929109;-0.038317606;0.003952262;0.10865923;0.024302019;-0.16123733;-0.0026162453;0.058556713;0.0822309;-0.0013243363;-0.15512909;0.19768639;-0.013343732;0.07799984;-0.075805254;0.1354197;-0.017664526;-0.29268503;-0.00055631564;-0.16737273;-0.059458386;0.188937;-0.19442879;0.04691693;0.19708686;0.19546448;-0.085681856;0.0086746905;0.14907522;0.36032096;0.003824638;-0.15819053;-0.3518427;-0.14275138;0.2500714;0.030384013;-0.016141647;-0.006217753;0.0013133563;-0.05049632;0.0016176613;-0.04823948;-0.183055;0.014827491;-0.0069331694;0.08055101;-0.2056489;0.38661256;0.053918492;0.0026602098;-0.06454927;-0.11789659;0.01796995;0.05436951;0.020320853;-0.034725294;-0.070553206;0.19174005;-0.29576677;0.020174814;0.06806926;0.06572261;-0.05833781;-0.04821523;0.25207755;-0.035931695;-0.08110675;-0.59504765;0.20258248;0.04819291;-0.032200824;-0.14614491;0.04335535;-0.054220278;0.025104064;0.1736334;0.18577063;-0.046311095;0.102690324;0.18696152;-0.017677395;-0.018280037;0.0025087453;0.14354287;0.026483411;-0.07032694;-0.089613095;-0.01247233;-0.1404472;-0.32250252;-0.33697432;-0.09771435;0.055088256;-0.17378107;0.07287065;-0.07458676;-0.22184832;-0.046476215;0.018030206;-0.23946224;-0.14145507;-0.007316144;-0.055357344;0.18964155;-0.02791714;-0.27322796;0.115435764;-0.11290388;0.009159421;0.035242893;0.3032633;0.17625093;0.05257457;0.048502788;-0.052999903;-0.25626832;0.056813248;0.14062746;0.04931797;0.047666863;0.21846217;0.08710993;-0.03385186;-0.07011757;0.022172987;-0.02719869;0.032180384;-0.20297332;-0.042111397;0.011071866;0.08299761;-0.12008304;-0.3741011;0.00050665945;0.15762661;0.09387591;-0.054818794;0.0661589;-0.038065955;0.019760355;0.38114026;-0.04223918;-0.036721602;0.04558906;0.07656364;0.014252445;0.15751898;0.020356504;-0.13344884;0.069172494;0.02746112;0.13900396;-0.5193899;0.113425106;-0.13759197;0.04013948;0.03335847;0.022709148;-0.021902084;0.06886057;0.26232338;-0.09639147;0.06935777;0.018267013;-0.15657026;-0.040163424;-0.026897958;0.060787395;0.011161704;-0.47083858;0.4007144;-0.004107079;-0.022206172;0.06470997;0.13483013;-0.14783117;-0.21788324;-0.17650183;-0.030857326;0.0725777;0.13860422;0.14517464;-0.10388777;-0.11708079;0.42259917;-0.029860055;-0.1469789;0.18956062;0.0541953;0.0016292309;-0.016052926
0.01269726;0.25103822;-0.04480145;-0.081467845;0.012974196;0.26702118;-0.061226446;-0.012865505;-0.44496462;0.11392426;-0.03912837;-0.04096613;-0.43474838;-0.024794232;0.21539974;0.018651972;0.08476392;0.022856306;0.011452499;0.006950227;0.06708804;-0.076265946;0.03506564;0.06581317;-0.15236232;-0.015307829;-0.1589161;0.025613656;-0.020183593;-0.008445692;-0.19378704;0.06443798;0.03797394;0.027314855;0.03658176;-0.025267858;0.1499938;-0.28710246;-0.026659168;-0.03731855;-0.028146798;0.15085082;-0.1534785;-0.046031453;0.0158415;0.23466074;0.13749707;-0.3174169;-0.1754806;0.08459995;0.2217467;0.003442592;0.19113527;-0.1468912;0.15051979;-0.19419013;0.23079666;-0.008272216;-0.077412784;-0.08185762;0.18263957;-0.19757341;-0.30373657;-0.046011336;0.08147105;-0.04597738;-0.33235997;0.0118732415;0.05467042;0.012592804;-0.060234293;-0.4959237;-0.21828912;0.026723852;0.044346336;-0.06146176;-0.011721187;0.096929334;-0.12095023;-0.08671972;0.071772814;0.060050532;0.17973281;-0.030284464;0.13273934;-0.0544984;0.39671192;-0.0076586627;-0.025803559;-0.12570709;0.1437033;0.16325505;0.051519077;-0.23670185;0.243944;0.11614021;0.018929068;-0.12650567;0.053517617;0.07735945;-0.08928268;0.06072776;0.25108373;0.029783055;-0.07320565;-0.08097317;-0.04099082;-0.020014377;0.042733457;0.20215817;-0.06332333;-0.09927314;-0.04133245;-0.13415565;0.050534144;0.24688402;0.016852384;-0.05717605;0.033414733;0.23010284;0.060101796;-0.040404268;-0.06137206;-0.04213724;-0.11829686;0.008234518;0.023038594;-0.012329314;0.21103872;-0.0378397;0.24037844;-0.40339082;0.059671823;0.038795996;0.040652543;-0.00872405;0.31816992;-0.009516356;0.04322998;0.024452364;-0.013792951;-0.06762716;0.0022339148;0.37428164;0.013423823;0.17135459;0.28235593;0.047516726;0.05827922;0.33597234;-0.35447812;-0.21423358;-0.052538257;-0.030569335;0.018717295;0.05372078;0.23727244;0.012284487;-0.056689996;-0.053151004;-0.3285415;0.12671928;-0.051441424;-0.0090755485;0.016307807;-0.07197823;-0.0125205945;-0.059275813;0.34672475;-0.42293036;-0.3819501;-0.04090998;0.054251943;0.08597325;-0.016498813;0.08586293;-0.19619173;-0.06030216;0.012478583;-0.37396014;-0.042975347;-0.17438859;0.1553854;-0.013112909;-0.004078059;-0.040865656;-0.062083323;-0.40754467;-0.24646267;0.08000949;-0.09518233;0.13284239;0.054606367;0.01826251;-0.033786736;-0.15168753;0.07169931;-0.06724512;0.02037119;0.07912568;0.19465876;0.3129005;0.06874802;0.088725;-0.09669675;0.0580112;-0.050418153;0.09200898;0.061185878;0.021087512;-0.06661479;0.0151865715;-0.08963451;-0.04986908;-0.022991026;-0.0736155;-0.07512122;0.0346508;0.033679105;-0.06847738;0.2993338;-0.041088026;-0.070315145;0.17069857;-0.07389559;-0.09323033;-0.060525887;-0.12437987;-0.043432355;0.29107606;0.047382995;0.15483595;0.048471685;-0.006030158;0.07964871;-0.052916255;-0.07950573;-0.09366032;0.044425;-0.089236714;0.122337244;0.116725855;-0.0128495535;-0.019082643;-0.031611543;0.0017373613;-0.42685822;0.0050631943;0.17521696;0.040864445;0.050205205;-0.22878195;0.2963565;0.023763258;-0.12578194;-0.12573864;0.08898463;0.32685846;0.07753561;0.16951986;0.010834433;0.0868962;0.120361455;-0.07256178;-0.29172269;-0.06977589;0.07264954;-0.014372614;-0.03199751;0.040750526;-0.021564687;-0.013943571;-0.013345247;0.06816464;-0.027048232;-0.052473772;0.2391076;-0.071614265;-0.07598883;0.3584974;-0.0979316;-0.03647357;-0.004229254;0.007393336;0.13633555;0.12818815;0.15534659;0.10862715;-0.07956911;0.23674507;0.068612084;0.079784274;-0.06430378;0.044356737;-0.039262302;0.06406966;0.40195528;-0.061786346;0.032697745;-9.955607e-06;-0.042192787;-0.21278937;0.009503304;0.105747364;0.07297966;-0.039758142;0.073749006;-0.10749841;0.21259847;0.05673098;-0.1323944;-0.056253705;-0.14019512;0.15363993;-0.0913608;0.041393798;0.46012598;-0.060979746;-0.018746674;-0.24003871;9.126496e-05;0.049637236;-0.030727189;-0.047904182;-0.13420261;0.06145281;-0.0011467002;0.038919646;0.34266672;-0.07223864;-0.10974285;0.048134353;0.16086641;0.014253538;0.08218981;-0.019122904;0.19905834;0.029509036;-0.0442158;-0.122826844;-0.04383029;0.057304084;-0.16377233;-0.0045532146;0.29044187;0.17435515;0.1535638;0.08178106;0.29519826;-0.030253306;0.011761527;-0.12063372;-0.0015948528;0.33476537;0.20569801;-0.23766711;-0.047979444;-0.12747207;-0.13140687;-0.36577404;-0.29611766;-0.094253816;0.0453204;0.07079682;0.0048818476;-0.038278688;0.010346955;-0.22925784;0.086190045;0.19270188;0.23222628;-0.06385908;-0.1489851;0.031400796;0.019534674;-0.088158496;-0.0060677375;-0.020071499;0.07494795;-0.057372242;-0.19455874;0.13535307;0.07834507;-0.049319986;-0.02070193;0.045248363;-0.023694092;-0.038229004;0.08324427;-0.006287933;-0.21458444;-0.15423901;-0.040494703;0.11132001;-0.023646658;0.016184641;0.3587659;0.06572788;-0.025887525;-0.055826005;0.116836555;-0.03163588;-0.30976874;-0.015654719;-0.11627245;0.013551361;0.24010624;-0.005528169;0.050086994;0.15489815;0.2797828;-0.010831862;0.021203794;0.048265375;0.34947506;0.07927042;-0.2332106;-0.25442207;-0.021641226;0.24371289;-0.03552654;-0.01878683;0.025346277;-0.009459151;-0.13121626;-0.038191143;0.09080961;-0.247144;0.08851197;-0.044870067;0.21224509;-0.13940498;0.34325233;-0.01885095;0.043981664;-0.031637255;-0.086412914;0.093426526;-0.055781614;0.10231997;-0.2011341;0.037049823;0.28037205;-0.23814149;-0.039582286;0.13080412;-0.08608172;0.03899639;0.0063743438;0.13360938;0.00949922;-0.18150233;-0.519136;0.091591716;0.0067807934;0.068998404;0.02339391;0.062984586;0.043240603;0.011794155;0.16218124;0.05716563;-0.0655554;0.12197529;0.13820627;0.048613615;0.055746485;0.077796765;0.16063526;-0.0534807;-0.046775162;0.028740326;0.0006554487;-0.09313906;-0.18933177;-0.42342216;-0.24447495;-0.049759135;-0.25409287;0.019143095;0.011866058;-0.24077417;-0.01705852;0.05106157;-0.28416672;-0.19224559;0.02805175;-0.048809506;0.11472207;-0.17368141;-0.27091283;0.089916654;-0.16352086;0.06078255;-0.007251411;0.26333827;0.15222399;0.16839492;0.01590362;0.039675202;-0.2564648;0.010137197;0.06196953;-0.06964173;0.04376624;0.16414768;0.0731226;-0.019819135;-0.013527111;-0.020385465;0.1106955;0.022461234;-0.30074707;-0.10543865;-0.023857694;0.060648683;-0.2084757;-0.3255497;-0.094809875;0.19487584;0.044290613;-0.14035186;0.08003878;-0.061401814;0.02745696;0.17490885;-0.022455823;0.065157816;0.026887408;0.13770425;0.09025848;0.3126288;0.016627694;-0.1939243;-0.018206405;0.015427817;0.2665201;-0.5128157;0.048523866;-0.13516015;-0.07322959;0.06440074;-0.04578793;0.07795841;0.11522966;0.08294617;-0.13785177;-0.00934711;0.018118666;-0.065077245;-0.09899919;0.030014012;-0.0042551835;0.0018769494;-0.5444614;0.31049907;-0.0075729666;-0.0414272;0.05286957;0.042382266;-0.04916038;-0.0644429;-0.20771557;0.055533648;0.011355251;-0.006011908;0.27468163;0.0152122;0.0591499;0.32988313;-0.046633206;-0.09776512;0.14821073;-0.017926581;0.003742203;-0.07348445
-0.065996476;0.26785222;-0.14076346;0.02929119;0.02334627;0.21661395;-0.035375956;-0.024941873;-0.31350464;0.17600979;-0.027848119;0.05054477;-0.40211472;0.04095291;0.15907598;0.008747311;-0.056052826;0.027661074;-0.025911037;0.08021417;0.028562538;-0.050866902;0.09214989;0.18312627;-0.23685391;0.042795807;-0.10628392;-0.041231964;-0.032478493;-0.02591816;-0.25537378;0.069379255;-0.03842063;-0.06446943;-0.082610115;0.019581897;0.07688616;-0.2675733;-0.078969;0.022962654;0.029374726;0.2535484;-0.14459588;-0.081261195;0.07765971;0.21127814;0.14723943;-0.36970526;-0.030338334;-0.009575284;0.13070093;0.053755376;0.184058;-0.21016034;0.16212127;-0.2536773;0.27929392;0.1343489;0.066125624;-0.07148258;0.1192785;-0.18729658;-0.27694374;0.09321435;0.07232947;0.09657328;-0.3939394;-0.030176517;0.031079434;0.04516523;0.0037135803;-0.4660866;-0.14046498;0.003207141;-0.07261499;0.0076608043;0.008355867;-0.057980984;-0.049859907;0.048871923;0.0074792127;-0.07806936;0.14565866;-0.012831828;0.09025208;-0.08207734;0.45397738;0.050820757;-0.021183446;-0.10220069;0.122473456;0.089893125;0.09221557;-0.19142461;0.17886613;0.107878625;-0.05015274;-0.11957161;-0.070366986;0.29737294;-0.18000403;0.16843168;0.187187;-0.05478436;-0.09740936;0.0108709205;-0.033846024;0.03245385;0.023784291;0.18343955;0.055565596;-0.20039333;-0.119432434;-0.27549556;0.038697883;0.1513579;0.052742373;-0.1268957;-0.05914019;0.09740444;0.05317163;-0.021679679;0.0506132;-0.09899479;-0.16528693;0.07235078;-0.019434454;-0.12424813;0.19969586;0.038075175;0.036233973;-0.38557526;0.0150130605;0.015996916;0.022689663;-0.029809998;0.24260971;-0.026107464;-0.028144611;-0.013702442;0.041882623;-0.012910009;-0.054388337;0.3123535;-0.03715162;0.15829402;0.08548606;0.05067394;0.0068768277;0.3349208;-0.40944958;-0.14426155;-0.02292569;0.046643887;0.07108697;0.03731398;0.24873067;0.030261474;-0.0666366;-0.041703027;-0.20600402;0.12765296;0.022472356;-0.053712778;-0.1116981;-0.0038955319;0.0018279216;-0.10428716;0.2791614;-0.35960928;-0.37320173;-0.05415553;0.076766126;0.07441751;0.022349598;0.00057528756;-0.07201647;-0.075242326;-0.019536069;-0.34340152;-0.043121047;-0.13868864;0.106325924;0.008546127;0.009560457;0.045605812;0.036075804;-0.43743485;-0.38302127;0.246444;-0.005902693;0.028175408;0.005428508;-0.016397865;-0.030599006;-0.0751195;-0.04659976;0.06773943;0.1553174;-0.03793328;0.12432572;0.2125177;-0.009606791;0.17891477;-0.0036347138;0.122340396;0.022714382;0.11891286;0.041740812;-0.03581735;-0.06817127;-0.07247875;-0.26602402;0.06388315;0.0019870196;-0.04728343;-0.09854023;0.056917917;0.0044707987;-0.029452473;0.42131796;-0.14668871;-0.10346303;0.16138569;0.01934313;-0.123423494;-0.036583956;-0.12820567;-0.016200444;0.31612888;-0.03777275;0.015753048;-0.011151232;-0.11275551;0.12909059;-0.107513696;0.005829833;-0.18008731;-0.041473135;-0.17428493;-0.010237213;-0.05687111;-0.071010925;-0.06332328;-0.040809244;-0.04006685;-0.4166218;0.050280772;0.12912449;-0.052767493;0.01932251;-0.17944054;0.17398392;0.00037288858;-0.04443621;-0.069875315;-0.051354684;0.24286328;0.047451004;0.13426128;0.049067788;0.018272715;-0.000579653;0.08345792;-0.1911115;-0.04076129;0.0592827;0.057240054;0.048592985;0.08991632;0.08421974;-0.048138756;-0.06715316;-0.067085184;-0.058673237;0.042681184;0.24159113;-0.07320575;0.069461375;0.34276173;-0.020772582;0.015634745;0.009613024;-0.10464851;-0.003929473;0.30962014;0.14169416;0.1251708;-0.19457324;0.21077453;0.1913271;0.07843491;-0.015899647;-0.008049596;-0.03936731;0.0073588346;0.46196187;-0.026610017;-0.070001185;-0.07573155;0.13548659;-0.2229819;-0.05530937;0.08708883;0.01148545;-0.117469914;-0.08058115;-0.07670386;0.14710434;0.08018041;-0.16008668;0.050542332;-0.019240616;0.10994203;-0.21750058;0.017556395;0.3120414;0.06048508;-0.0027246063;-0.15056136;0.02755737;0.11582879;-0.013368478;0.07047203;-0.06748295;-0.031180061;-0.016832162;-0.008450623;0.3217939;0.0036751397;-0.1221013;0.0703253;0.052692182;0.059681688;0.087798804;0.100399226;0.19415708;0.012016764;-0.05349588;-0.023253866;-0.019918658;0.03674765;0.009998039;-0.016942715;0.3087838;0.24202953;0.13997795;0.15899563;0.34524828;0.023492934;0.013863788;-0.15071596;-0.045128293;0.17250206;0.16864291;-0.24698018;-0.057687785;-0.13747923;-0.19335452;-0.27592966;-0.35018706;0.00824353;-0.033864886;0.07499495;-0.04153096;0.031244265;0.05505763;-0.2157747;-0.043867975;0.18685088;0.22211504;-0.068446174;-0.083279446;0.088609554;-0.03581053;-0.052632518;0.008038658;0.03757138;-0.05132263;-0.030416965;-0.18029138;0.12004881;0.01661265;-0.14963864;-0.0117311;-0.07163752;-0.028176298;-0.09029824;0.059313275;0.0044850847;-0.16725497;-0.119279325;0.06213635;0.16000251;0.07195889;-0.20086855;0.29091474;0.107986026;0.03362063;0.086471856;0.100217946;-0.040161856;-0.36782265;-0.028542526;-0.1316467;-0.034330085;0.19412537;-0.06051116;0.025607895;0.04316636;0.21455494;0.08253835;-0.036165424;0.0980519;0.359987;-0.031395096;-0.21792883;-0.22537625;-0.015451948;0.2527475;-0.056609634;0.06441938;-0.028096443;-0.08329749;-0.09412515;-0.043289967;-0.105292425;-0.32188192;0.06158028;-0.024823206;0.12801136;-0.027249306;0.26136318;0.042387385;0.003269532;0.022887839;-0.12952404;0.16412337;-0.0043462208;0.15833071;-0.079732224;0.0010636058;0.30560386;-0.1719168;-0.05015027;0.09550686;-0.13706312;0.03638341;-0.05005838;0.13048512;0.052687794;-0.042282492;-0.5425992;0.1878054;0.06540924;0.02143198;0.0090313405;0.05441873;0.041338466;-0.0870919;0.13090481;0.026038218;-0.1579836;0.09243585;0.14683487;-0.020822596;-0.037230887;0.04255935;0.18514292;-0.011995018;-0.041817885;0.0050755218;-0.0048350785;-0.17472243;-0.25103584;-0.48203024;-0.3795466;0.03047371;-0.18683474;-0.03358184;0.06269204;-0.21858595;0.058050204;0.06327002;-0.27423805;-0.09659336;0.037036594;0.03993873;0.2007076;-0.0032632793;-0.24313045;0.08842068;-0.16209452;-0.07306896;0.034557678;0.19418868;0.2315514;0.16108106;-0.0109805325;0.052626096;-0.27039605;-0.028477985;0.0213149;0.0629456;-0.0141657945;0.264191;-0.06406287;-0.076191954;0.03665435;-0.00665017;0.09827533;0.03740421;-0.23574962;-0.12440858;-0.008607985;-0.016960409;-0.13774616;-0.3157774;0.030125566;0.13130155;0.04937894;-0.09683528;0.04002774;-0.06908526;0.032298747;0.28842658;-0.04006753;0.046688974;0.16859968;0.19297439;0.1637592;0.24838479;0.054421484;-0.10843598;0.018000927;0.01363504;0.19384915;-0.4018037;0.09548185;0.010123958;-0.015233249;-0.0664317;0.008923878;-0.049551338;0.038558275;0.1294419;-0.18108071;-0.013846013;0.042164363;-0.05339673;0.017343404;-0.01643388;0.05436865;-0.008314076;-0.5507608;0.3540097;-0.016875824;-0.048047155;-0.048529044;0.23960172;-0.17148148;-0.1374307;-0.1348483;-0.08807451;0.0030597667;0.052696478;0.24813205;0.053235155;0.025261648;0.2758231;0.07581879;-0.1243135;0.15467091;0.016252749;0.02023148;-0.13941573
-0.015053868;0.25453708;-0.111772254;-0.0038710209;-0.0696281;0.1981488;-0.030156553;0.03171034;-0.30069652;0.10374783;0.010932439;-0.0794482;-0.28884834;-0.0028919163;0.072000735;0.03660384;-0.01095498;0.069706924;0.063835494;-0.026853474;0.15552433;0.043806255;-0.008359783;0.142144;-0.22174446;-0.038015403;-0.074921966;0.0077748667;-0.027678598;-0.06813196;-0.30745402;0.06519805;-0.04695346;-0.130849;0.03357045;-0.030874137;0.12905304;-0.2630052;0.057239134;0.06388615;0.004659501;0.17712109;-0.09281621;0.0029916575;0.012013515;0.26060247;0.008927983;-0.36046427;-0.07799261;0.06987454;-0.06223082;-0.046372116;0.20891844;-0.09793201;0.25926673;-0.2438197;0.26272944;0.053955726;0.057979453;-0.070167296;0.118955426;-0.21806285;-0.16706455;0.0519809;0.016998366;0.09358171;-0.3024271;-0.077971734;0.012726528;-0.03354592;0.015188909;-0.4565811;-0.1677721;-0.07851953;0.01704486;0.04027808;-0.023648836;-0.047096703;-0.06890888;-0.077743225;-0.012560611;0.048798464;0.21975715;0.05479809;0.24802618;-0.089751326;0.47102526;-0.06680577;-0.027327148;-0.1401861;0.22143006;0.14593513;0.09782745;-0.13137786;0.13427451;0.034693845;0.1038671;0.0043750578;-0.023347072;0.22068451;-0.12458312;0.004806683;0.287101;-0.007474306;-0.21064553;-0.01334862;0.06431162;-0.025015859;-0.024994029;0.23887701;0.0026969393;-0.07126746;-0.058421183;-0.095431514;-0.0011328696;0.23649664;-0.03534991;-0.04140316;-0.016051328;0.14859472;0.07123643;-0.056413706;-0.08305026;-0.12274558;-0.16650276;-0.007917787;0.009273615;-0.14772932;0.20380722;-0.0046660206;0.11347361;-0.5551123;0.057271138;-0.03409488;0.08806401;0.011289892;0.39527106;-0.039151732;0.06661141;-0.093136854;0.10834801;0.08334526;0.043186508;0.42002562;0.06783896;0.19702873;0.17281953;0.07986247;-0.018655298;0.3239922;-0.39395213;-0.19067669;0.055987976;0.053960085;-0.045212068;0.0020464065;0.24874136;-0.038222864;0.06479079;0.0046557174;-0.34499085;0.10134236;0.037049826;0.049840793;-0.10459462;-0.0010897842;0.044050116;-0.07116041;0.40738374;-0.31824762;-0.27235153;-0.023713205;0.019469842;0.057958513;-0.040592402;-0.026222516;-0.09810993;0.057029415;-0.12330988;-0.35604456;0.011612542;-0.15945733;0.16068001;-0.14513242;-0.02829156;-0.024067475;0.025740338;-0.25735834;-0.3323315;0.122378714;-0.06460514;0.030490475;-0.0105717275;0.04700248;-0.026510937;-0.064235814;-0.13861603;0.015192578;0.16867168;0.13172321;0.11914811;0.27760395;-0.06503583;0.12520407;0.095204234;0.06532981;-0.06337041;0.13158712;-0.026281865;-0.07497913;0.009242887;0.027528465;-0.20980196;-0.03778983;-0.041167527;0.053089034;0.014179589;0.04632779;-0.093304045;-0.12533073;0.44840014;-0.0471529;-0.09097825;0.15462986;0.014852494;-0.097239695;-0.05749882;-0.058272827;-0.0015146788;0.4192213;0.052595817;0.058362402;-0.047561593;-0.01636075;0.053431142;-0.0153114665;-0.040518045;-0.06443753;-0.077098735;-0.15456899;0.09137082;0.0066252737;0.009889241;-0.06973054;0.041976184;0.04103277;-0.24916676;-0.063547514;0.08455481;0.028312897;0.03522326;-0.18386942;0.27760255;-0.0766186;-0.06988309;-0.0800449;-0.03919714;0.2801694;0.16096856;0.11056503;-0.14105283;0.06036935;0.13234387;-0.004014335;-0.22548768;-0.056226496;0.056907747;-0.06631977;0.08180161;0.058976125;0.034693774;-0.03850296;-0.058636747;-0.09922334;0.07435915;-0.00038248266;0.22068633;-0.031669516;0.094349906;0.34369254;-0.18584399;0.026243906;0.040737323;-0.12174737;0.119955115;0.11985949;0.024320377;0.011018102;0.0062192483;0.19989471;0.096732445;0.15488927;-0.0021253657;0.09317673;-0.01047947;-0.05705628;0.44490293;-0.11065028;-0.06472116;-0.03294686;0.08905182;-0.20540555;-0.04823856;0.043477137;0.040311515;-0.098605104;-0.09481211;-0.13130774;0.28578776;0.005100227;-0.12459844;-0.03523879;-0.0129910875;0.23240095;-0.17552042;-0.0130955335;0.415154;0.053681616;-0.21669379;-0.122004315;-0.01369156;0.08415328;-0.15929762;-0.04299435;-0.11504283;0.07730789;-0.06869758;0.035738435;0.34427223;0.035023663;-0.020087857;-0.05221145;0.03401048;-0.008136145;0.072774425;0.060781486;0.2257168;0.1193259;-0.017759848;0.016028011;0.015727954;0.06508493;-0.10424974;0.0151484655;0.16970047;0.16608691;0.16977008;0.10093029;0.38728008;0.01449731;-0.03552654;-0.058608685;0.024369577;0.24687536;0.15670693;-0.2351835;0.02544256;-0.08115064;-0.22116944;-0.115407124;-0.3081133;-0.14966637;0.06467655;0.030859258;0.038717672;0.029248761;0.015977398;-0.06990716;-0.101600595;0.22583297;0.2848299;-0.04091086;-0.21766499;-0.0687935;-0.051854048;-0.14242512;-0.039049175;0.070119776;0.087313145;-0.034322;-0.14956546;0.083522335;-0.043247454;-0.09405464;-0.16107948;-0.07319425;1.837243e-07;-0.060119916;-0.028187217;-0.06359221;-0.21937458;-0.23636384;-0.044653505;0.13246518;0.024762709;-0.22676681;0.28780836;-0.025158485;-0.047586523;-0.022027513;0.1746294;-0.1698205;-0.2115577;-0.100481555;-0.22465068;-0.025938906;0.17144692;-0.0133968275;-0.061981175;0.109111756;0.28736743;0.007169013;0.046004985;0.120231114;0.41121995;0.005199779;-0.23405871;-0.22853275;-0.12616691;0.21208164;0.040541586;-0.033872794;0.0119793145;0.07253733;-0.05378971;0.0107631525;0.06444121;-0.20039329;0.036260374;0.085405156;0.191453;-0.03253493;0.26444554;-0.06479784;-0.0058370414;-0.047882948;-0.25689405;0.21892239;0.01696407;0.09424612;-0.024973445;-0.0368969;0.37087047;-0.17296487;-0.042664222;0.15572292;-0.028404236;0.051071074;0.029921941;0.1328354;-0.034049872;-0.09402772;-0.4743709;0.06863905;0.0309921;0.07128366;0.07291432;0.07040734;0.038645845;0.07686935;-0.049904794;-0.13825184;-0.119272515;0.14762568;0.20982036;-0.010177214;0.040672984;0.02444509;0.09751945;-0.022641683;0.11720756;0.026373586;-0.054454435;-0.14093122;-0.18561493;-0.49951485;-0.23444556;-0.0044905576;-0.14943554;-0.018006353;0.09011238;-0.24360998;-0.03318966;-0.054410536;-0.34619796;-0.13752407;0.031390823;-0.019319708;0.116124235;-0.025518019;-0.18122056;0.107482366;-0.037401535;-0.03454331;-0.030789915;0.0807939;0.288789;0.04592037;0.038260385;0.013161376;-0.2561608;0.040774286;0.09766418;0.05862794;-0.0763298;0.20346566;-0.10315472;-0.03317474;-0.058987286;-0.026954437;0.058774434;0.13426371;-0.21543312;-0.2622388;0.012974698;0.0773762;-0.39191592;-0.3144494;0.022250121;0.18065684;-0.0054433756;-0.13359074;0.04439316;-0.034985285;-0.035017926;0.21906835;0.0041043544;0.09202982;0.051459096;0.10766095;0.15804416;0.28044167;-0.0408724;-0.1129455;0.056030966;0.13777657;0.15529624;-0.35849914;0.09154022;0.004783152;0.040542446;0.032883115;-0.06319495;0.025700528;-0.05432231;0.10560984;-0.21207708;-0.03034072;-0.028434798;0.06295285;-0.06722193;0.043993097;0.14401063;0.030552803;-0.44893575;0.3768481;0.13896327;-0.004878658;-0.061089285;0.19796455;-0.15843527;-0.11686758;-0.12358006;0.020213975;0.1175744;0.0059010414;0.38617072;0.07161085;-0.036954954;0.3094317;0.109567404;-0.19185457;0.11738186;0.016811537;-0.044857834;-0.084038846
0.028107641;0.21921432;-0.16943212;-0.043140445;0.044494953;0.31471673;0.11555352;-0.044719502;-0.3425929;0.09560601;0.0059351446;0.013201356;-0.5108501;0.009170467;0.12798655;0.034574214;0.012193188;0.038453907;-0.053475715;-0.060488995;0.01746958;0.019302225;-0.08690501;0.22347668;-0.27712187;-0.04404171;-0.02257193;-0.063027985;0.056311656;-0.123193905;-0.24917905;-0.104258105;-0.0029697004;-0.11953144;0.030443927;-0.033043705;0.22276694;-0.34274566;0.03170812;-0.0025196786;-0.030746883;0.08652875;0.040803544;-0.10879012;-0.05879788;0.17749466;-0.037661385;-0.2790455;0.01331491;-0.021784402;0.033922177;0.07625752;0.16567567;-0.10146087;0.20358163;-0.19537461;0.19391021;0.13204996;0.07185433;-0.024702009;0.20670915;-0.1867962;-0.021977652;-0.011286923;-0.060718454;-0.030189041;-0.41943064;0.08739014;0.0499359;-0.025873033;-0.006520976;-0.3144743;-0.025105469;-0.031224124;-0.03337509;-0.031353515;-0.054926448;-0.059874456;-0.029011847;0.050229937;0.112160005;0.098563835;0.23524131;-0.07473123;0.28338256;-0.030478198;0.36043802;-0.056013096;-0.16172715;-0.118322104;0.08138591;0.20917705;0.017594544;-0.16646752;0.10283806;0.017440304;-0.03730832;-0.043648057;0.05103997;0.22120789;-0.20723662;0.06366747;0.24012575;0.05845531;-0.13401908;-0.07550301;-0.0099147055;-0.03961305;-0.04805958;0.27895555;0.11203214;-0.033321295;-0.10251781;-0.19953796;0.072489336;0.042233262;0.046582986;-0.11562881;-0.027694276;0.108400136;-0.007985859;-0.04052389;-0.035906415;-0.062333263;-0.21698979;-0.038866043;-0.021408157;-0.018302709;0.17646311;0.0051682484;0.09091763;-0.46177995;-0.039144646;0.053847644;0.09500365;-0.005402156;0.34918568;-0.03487139;-0.006847468;0.070644416;0.20463103;0.08003842;-0.020467672;0.2988766;0.022602959;0.15526202;0.053783264;0.039378915;-0.031436738;0.46140715;-0.33521202;-0.19055706;-0.05405114;0.1310771;-0.026328398;-0.07049441;0.22666772;-0.04743007;0.0073019387;0.037583742;-0.28736275;0.061682064;0.028364673;0.040044412;-0.22061071;0.016172966;-0.03868079;-0.1661919;0.45755386;-0.36876822;-0.3233003;-0.12989421;0.059851285;0.14400347;-0.033036016;0.034870677;-0.10841369;0.026810117;0.009320468;-0.34934187;-0.06910973;0.025067221;0.19458696;-0.10849423;0.001054859;0.039523613;0.009595697;-0.3891099;-0.42475533;0.18678246;0.052381165;0.09127676;-0.017478384;0.043670576;-0.030093996;0.03610794;-0.00686533;-0.007926327;0.17691875;0.03032921;0.07408628;0.27560073;0.023143118;0.18750226;-0.042032752;0.09055503;-0.04322248;0.05393836;0.037892897;0.009430682;0.057138007;0.020064922;-0.18941239;0.04352084;0.08046726;0.023728512;-0.028380271;0.06151523;-0.044655576;-0.15680383;0.29383078;-0.121890314;-0.07917571;0.08418803;-0.07964389;-0.004709246;0.07489021;-0.05244855;-0.011521249;0.4309779;0.04531007;-0.04976919;-0.01679733;-0.034566656;0.08278412;-0.1045333;-0.0065702586;0.05989628;0.030997016;-0.18347034;0.11066357;-0.03233444;-0.061764833;-0.05440265;0.056228306;-0.08764539;-0.3611998;-0.05581449;0.13945171;-0.011695654;0.02971245;-0.16400225;0.20511544;-0.012188899;-0.021658894;-0.028321626;0.060441192;0.08635463;0.113073766;0.15918148;-0.04495912;-0.004443724;0.12384331;-0.066216186;-0.31971714;0.04810527;0.023914343;-0.008362655;0.014371072;-0.10673442;0.046501838;-0.07476707;0.019543044;-0.03658684;0.055317577;-0.031269167;0.11822653;0.060121603;0.088928774;0.2808481;-0.10886713;0.006827142;-0.021680152;-0.1448958;-0.059320886;0.22916764;0.104345016;0.012676443;0.06518206;0.06894264;0.08036926;0.21242082;-0.06843574;0.0699552;-0.034041703;0.032937597;0.40311968;-0.15977421;0.00036602578;0.070373386;0.16765806;-0.22129837;0.031336326;0.12724045;-0.06567314;-0.08775598;-0.013756938;-0.13006885;0.13886826;0.070830405;-0.19339038;0.035392363;0.009969472;0.21899106;-0.073354065;-0.114050865;0.31875762;-0.045492657;-0.28631204;-0.11463818;0.053112287;-0.023986053;0.042857032;0.007854267;-0.10595599;-0.048288118;0.035377257;0.021974074;0.3724836;0.030524902;0.103806034;-0.038114667;0.035720803;-0.009708582;0.026283354;0.092832536;0.1880869;0.09832373;-0.008752291;-0.110351555;0.031001218;-0.056606483;-0.18074274;0.08295096;0.25611055;0.21096784;0.24229959;0.059689328;0.4818052;0.05167076;0.031997744;-0.100944765;0.05723138;0.17730877;0.1668018;-0.21767224;-0.008318399;-0.12408181;-0.22482435;-0.16672112;-0.23993367;-0.012893154;0.034203593;0.15970725;0.00052453147;0.043168124;0.020052977;-0.058139514;-0.10282534;0.17404692;0.13601996;-0.060002163;-0.22108793;-0.05643277;0.000270126;-0.016390115;0.042810287;0.12352087;0.0489508;0.09764163;-0.13661373;0.08597465;-0.061928663;-0.06917475;0.011516347;0.06130716;-0.052164502;-0.20496528;0.0010202263;-0.07487719;-0.19064204;-0.17792244;-0.064768106;0.1058192;-0.05587926;-0.14618994;0.1289335;0.08954582;0.0013721143;0.028193401;0.19473654;-0.1486343;-0.2730837;-0.005959171;-0.2145897;-0.0689975;0.31075335;0.067063294;0.033329815;0.120498665;0.26413152;-0.0019484143;-0.010776408;-0.014801961;0.39883816;0.0057682055;-0.21835396;0.004217915;-0.090569206;0.020394715;0.04864409;0.05042566;-0.07349184;0.03452723;-0.16219147;0.05120927;0.016101938;-0.2673507;-0.12951173;0.036833644;0.15505035;-0.0033448746;0.29576632;0.029025346;0.0640182;0.08075931;-0.13457407;0.2162971;-0.049533546;0.12449583;-0.08977615;-0.0697238;0.35349503;-0.14209983;0.074577406;0.23109566;-0.11629646;-0.017720718;0.083150804;0.10843762;-0.06487484;-0.219378;-0.58721846;0.03274757;0.13036145;0.094491914;-0.08161831;0.03632216;-0.0012670929;0.05482962;-0.009548456;-0.20471416;0.004885912;0.1397268;0.16140164;-0.017626807;-0.017865868;0.011660614;0.18288045;-0.012259286;0.14675187;0.04737379;-0.07165601;-0.2015301;-0.28511423;-0.48655647;-0.3333967;-0.059027817;-0.21377178;-0.017817643;0.13026826;-0.20796517;0.0782834;-0.022990488;-0.24464168;0.02052692;0.0006415089;-0.007236141;0.23660794;-0.028223848;-0.10327219;-0.018572217;-0.097117215;0.06395685;0.0711088;0.08396294;0.22542927;-0.012084174;0.004085895;-0.044539705;-0.22808;-0.038967498;0.03152448;-0.022464033;-0.06729609;0.12008846;-0.10386655;0.08160576;0.019307021;-0.008947016;0.009327216;0.18722759;-0.24561806;-0.13028534;-0.07239396;-0.025854671;-0.31346557;-0.26037294;0.022171656;0.08378721;-0.057436958;-0.09416384;-0.02738255;-0.014205207;0.0072784964;0.20179595;0.02738788;0.105018936;0.013599663;0.11359466;0.19987758;0.07221834;-0.022139126;-0.013761321;-0.003929444;-0.0055562747;0.13446195;-0.22589104;0.037706457;-0.013149316;-0.0025473118;-0.07656637;0.045909878;0.0059628687;-0.05721566;0.12509887;-0.10878073;0.01290434;-0.0035585184;0.046578795;0.037484176;0.018979806;0.16323262;0.01030931;-0.48974004;0.26481232;0.055886865;0.0037070136;0.033259515;0.32041696;-0.21667811;-0.043381065;-0.05534691;0.005662796;-0.00093223836;0.017641537;0.3167136;0.053043388;0.03474495;0.2998653;0.05570166;-0.12624191;0.0921701;0.016117524;0.08169086;-0.13894735
-0.0946667;0.18481597;-0.12327378;0.0113053275;-0.012454768;0.15629403;-0.04839088;0.058941167;-0.23350658;0.20841321;-0.05537949;-0.04888661;-0.41858613;0.09205477;0.072994135;0.0045530293;-0.008364885;0.0884182;0.01281341;-0.0068392395;0.14909764;-0.023683826;-0.11624769;0.09639985;-0.29222673;-0.13785185;-0.09260656;-0.08662436;0.05764113;0.05325009;-0.31046918;-0.079495855;0.08428908;-0.2400869;0.041970987;0.006088421;0.17894238;-0.25621414;0.038190782;0.036197353;-0.0052319174;0.11900453;-0.020652255;0.07970807;0.06458571;0.18891141;0.050543938;-0.32690182;0.018767087;-0.037374973;-0.0020087366;-0.01300332;0.20925443;-0.012342656;0.29810864;-0.16100764;0.12503965;0.17790224;0.075856425;-0.08227389;0.12853043;0.036754683;-0.006004744;0.009753026;-0.03489794;-0.014782455;-0.35286793;-0.09451769;0.16279979;-0.005290877;-0.054015554;-0.34461668;-0.118560895;0.16568807;0.03937713;0.052565247;0.016201152;0.0041846302;0.16112168;-0.048295643;0.021657513;0.07575446;0.1576271;0.054383334;0.21337181;0.00646758;0.31506166;0.064470075;-0.12149838;-0.03272076;0.19528441;0.17155479;-0.0045059854;-0.17657682;0.17816463;0.14210698;0.05497524;0.081959054;-0.087463565;0.24620847;-0.18471172;0.09124438;0.2489714;-0.05596446;-0.15871035;0.03392882;-0.025736317;-0.011159856;-0.00067273;0.27384463;0.10603577;-0.14476421;-0.16429494;-0.26851246;-0.012568966;0.07203825;0.0404281;0.072300225;0.054225318;0.08024293;-0.036490254;-0.061933275;0.0691571;-0.01830467;-0.12058958;-0.015383504;-0.006599183;-0.0030834656;0.112020575;0.038780976;0.11002974;-0.5204625;0.01855266;-0.034425862;0.113943934;0.01800931;0.23333472;0.017164094;-0.011995394;0.027999096;0.2764567;0.15120009;0.03203339;0.40730688;0.005633595;0.042685036;0.010172413;0.057649616;-0.07128697;0.45561075;-0.29820305;-0.038776442;0.024520159;0.12226077;0.027168432;-0.022390233;0.24549946;0.004541325;-0.07949027;-0.061144225;-0.47596812;0.061432794;0.048037633;-0.029923929;-0.27887335;-0.0033999905;0.07242549;-0.03301597;0.3637932;-0.36755615;-0.18516053;-0.11751029;0.057000633;0.16965795;-0.0076071247;-0.018407013;0.039526686;0.03765707;0.029286753;-0.3352326;0.014156967;0.018157743;0.10512327;-0.12796631;0.0090986;-0.0793877;0.01621524;-0.33603212;-0.2683081;0.27982146;0.12283229;0.19094217;-0.02418674;-0.0031459464;-0.051149037;-0.07199604;-0.017699877;-0.028072715;0.23102355;0.13884127;-0.04687184;0.34069523;0.016753286;0.122941084;0.07359752;0.07031131;0.016135367;0.08335113;0.007920734;0.030545492;0.03843852;0.007624199;-0.2939601;-0.052722547;0.078222625;0.052763294;0.002449419;-0.061640598;-0.02917984;-0.09095329;0.36844757;-0.020899039;-0.09648184;0.11595407;0.0400583;0.023331549;0.08384059;-0.17524147;0.036736522;0.35239854;-0.06636971;-0.011154214;-0.062729076;0.057476945;0.06511122;0.017254682;0.013617727;-0.04149889;0.045767006;-0.2443267;0.27886635;-0.06785129;0.038592234;-0.043459676;-0.017521324;0.048424482;-0.3331236;0.04466694;0.09597475;-0.019056771;-0.031314794;-0.10502449;0.18403131;0.031395443;-0.050585333;0.119718395;0.084345266;0.22713216;0.07068432;0.12896784;-0.08552212;0.04831403;0.019950245;-0.06997124;-0.29089552;0.056327455;0.11993741;-0.041559417;-0.046706025;-0.10657783;0.08944533;0.033850376;0.014449363;-0.02735718;-0.068065815;0.091247275;0.15038852;0.039343182;-0.004697947;0.21245664;-0.18627176;-0.03409839;-0.008247841;-0.23868817;-0.007776228;0.11071252;0.11648958;0.14506483;0.06971005;0.08944459;0.094741754;0.19716191;0.014103434;0.01811508;-0.05195455;-0.006558122;0.49991542;-0.09207266;-0.0132780755;0.0029193086;0.22569522;-0.22934651;-0.006145855;0.12624396;-0.016792856;0.032455873;-0.01910969;-0.117329456;0.14261751;-0.084868096;-0.14363652;0.027122954;0.07904438;0.119127005;-0.026656214;-0.14528312;0.32771274;-0.042432643;-0.36858776;-0.08655344;0.022106368;0.006284592;0.017764004;-0.011653956;0.03606194;-0.057343736;0.07881333;0.045380533;0.42195505;0.009521635;0.07256253;0.043961335;0.10443975;-0.0537958;0.056307383;0.0252338;0.24943651;-0.0003402867;0.033044416;-0.0662497;-0.05357347;-0.058551848;-0.25848436;0.046981886;0.13076642;0.1936913;0.20239022;-0.033543307;0.5142459;0.015689382;0.013469305;-0.18553989;-0.05308181;0.15685311;0.04817096;-0.28388104;-0.0064434577;-0.12719055;-0.2766103;-0.17464651;-0.17874084;-0.09764472;-0.0564928;0.084788054;0.07315562;0.036434483;-0.013101528;-0.0038393815;-0.10068187;0.33307162;0.16386496;-0.0019671174;-0.14558496;0.051606983;0.1432472;-0.05807837;0.002658696;0.06417748;0.04589354;-0.039673734;-0.19318706;0.10392152;0.04967071;-0.044562608;-0.1842453;-0.0032821335;0.08742794;-0.2256723;0.07739914;0.020523544;-0.09311029;-0.09400455;-0.00606112;0.18635313;-0.03390658;-0.19657382;0.23745805;0.083774775;-0.025364496;0.06147284;0.305972;-0.27443984;-0.16887145;0.08360564;-0.22027068;-0.060015604;0.3489432;-0.013671477;0.023074143;0.09816557;0.30278724;0.009129775;0.004698592;0.11212656;0.36456797;0.06636228;-0.038907435;0.091229215;-0.05892447;0.014643388;-0.0039646886;0.012490825;-0.004302615;0.024326738;-0.2139133;0.03391353;-0.05063758;-0.19494055;-0.03555625;-0.04283977;0.10245332;-0.095334716;0.24808918;0.06517808;-0.09490109;-0.019464234;-0.11618911;0.17979534;-0.02375502;0.08376404;-0.12976268;0.013277312;0.4042063;-0.07089209;0.057999294;0.23125167;-0.09899751;-0.024112985;0.06024585;0.18420026;0.069031596;-0.22611214;-0.53998816;-0.005802395;-0.025185237;0.11760814;-0.013612794;0.10344763;-0.0817619;-0.047816627;-0.17724311;-0.22653946;-0.07161656;0.19768685;0.061081745;0.027657392;0.095420934;0.07396088;0.12376614;0.019529823;0.12621224;-0.039525792;0.009747102;0.039894175;-0.3138142;-0.43387616;-0.27128392;-0.0352392;-0.20565628;-0.04914798;0.2590729;-0.17013274;0.0712145;0.044298097;-0.30907518;-0.10606785;-0.04643139;-0.046254378;0.17111418;-0.18029751;-0.09263902;0.17869735;0.069597736;-0.03816527;-0.01600117;0.12008164;0.40216696;0.028089438;-0.037894428;-0.013562196;-0.28060895;0.06506624;0.05294761;-0.07076915;0.029149193;0.12063798;-0.016771592;-0.023820361;0.056965794;-0.07893332;-0.04059248;0.20284979;-0.287464;-0.34257478;0.05268986;0.08178371;-0.39605993;-0.21305528;-0.054771204;0.21420053;0.014218721;-0.08025506;-0.078280546;-0.0048451503;0.07108426;0.10792817;0.0076534045;0.11858284;0.03906074;0.14913484;0.20000462;0.093233556;-0.035554316;0.030717518;-0.09359985;-0.024295077;0.07055959;-0.17269915;0.09124089;-0.050794356;0.020866983;0.035499144;0.01704577;-0.053439837;-0.1642499;0.02220915;-0.10920895;-0.040116392;0.046087082;0.020111885;0.021547373;0.0055750916;0.18494661;0.03122991;-0.5094434;0.1909161;0.081925206;-0.0056213345;0.032162696;0.3075526;-0.22016719;-0.078309774;-0.113761894;-0.044067115;0.06317752;-0.06461791;0.3711537;0.003351657;0.009503586;0.08776071;0.04091827;-0.3313371;0.22226766;-0.058185674;-0.047209013;-0.20564753
0.04631628;0.23828243;-0.068555675;-0.021955708;-0.022487925;0.15416166;0.036500048;0.014193899;-0.26840052;0.06542793;0.04703116;-0.03538418;-0.39628303;0.13035022;0.12996268;0.009491832;0.0143306;0.20548657;-0.081267655;0.009894775;0.0821701;-0.0093233315;-0.040702704;0.099983536;-0.38358667;-0.20612231;-0.07803233;-0.06310945;0.0029995723;-0.070184045;-0.31102237;-0.02615179;-0.002192216;-0.3386481;0.03154659;0.07457049;0.34448186;-0.19116133;-0.05701255;0.02647893;0.017585974;0.20377094;0.052420888;-0.027911065;-0.06965931;0.29964548;0.10204988;-0.15662524;0.04348864;0.0012884416;-0.052777823;-0.0672266;0.31157044;0.06482058;0.33028746;-0.04300347;0.14135398;0.2587059;0.074532725;-0.051365025;0.097900786;0.03997537;-0.026927548;-0.084963165;0.021815322;-0.02139126;-0.3825305;0.06048023;0.040702153;0.04941206;0.062830105;-0.24624681;-0.028873662;0.10057237;0.06018839;0.03494129;-0.03637832;0.043705493;0.06267554;0.03252463;0.015451103;0.08955152;0.13231857;0.037503086;0.2625121;0.040837277;0.30196154;0.01837144;-0.09878817;-0.16879423;0.12106398;0.1475517;0.0015110453;-0.031653054;0.05998652;0.053539027;-0.06918935;0.06209449;0.04379352;0.19734916;-0.14205042;-0.024039924;0.28163004;0.030556936;-0.10855879;0.031570505;0.025769612;-0.036418557;-0.04578841;0.32553095;0.054710615;-0.14127403;-0.10228692;-0.31846032;-0.029376192;0.10966784;-0.02525633;-0.046438016;0.011563971;0.06727199;-0.0082973605;-0.058458943;0.06552696;-0.16136199;-0.1880679;0.040519327;-0.0012012739;-0.07299459;0.17126337;0.05209475;-0.037466053;-0.4867815;0.031969137;0.07358198;0.16908604;0.014049616;0.28664976;-0.043939102;0.027423812;-0.010506769;0.18157922;0.03604951;0.013035262;0.32577777;0.0134152435;0.021927672;-0.0035133886;0.105052665;0.072072335;0.45144475;-0.23995271;-0.1981854;-0.04734998;0.133099;-0.014692295;-0.062459555;0.1845394;0.07480856;0.08929587;0.03413648;-0.44623733;0.15242478;-0.059042178;-0.07659723;-0.27096516;0.10922387;0.03820877;-0.11301399;0.47514096;-0.3141332;-0.26424006;-0.075737074;0.08478458;0.20883885;-0.004207198;-0.0135020055;-0.114231214;-0.017980462;-0.082105964;-0.23819862;0.0055977777;-0.056574102;0.14472824;0.021027109;-0.030120436;-0.015416233;-0.1117152;-0.1579209;-0.5035878;0.20080909;0.03393151;0.13934216;0.044157688;-0.06199992;-0.08172766;0.012754906;0.041806575;-0.0028593407;0.26448604;0.11457748;-0.07761957;0.22284028;0.01930219;0.17334953;0.06503221;0.14435513;0.03452017;0.15280709;-0.054577447;-0.026355721;0.0114196045;-0.030493228;-0.2851357;-0.059077866;-0.030790402;0.0582167;-0.011849588;0.02729602;-0.042638663;0.010272227;0.33679324;-0.010949377;-0.06425649;0.104811564;-0.041638877;0.0126776565;-0.06644753;-0.16411453;0.037329342;0.36751848;0.055301473;-0.02333648;0.08491935;-0.07448864;0.121609315;-0.05650655;-0.066004604;0.08527544;-0.017761832;-0.2386853;0.3671034;-0.065041244;0.03542294;-0.022669844;-0.0845788;0.014384984;-0.2342865;-0.026805988;0.09233446;0.006297249;-0.04601857;-0.097858585;0.21589734;0.026936635;0.0586749;0.16204046;0.032667063;0.19445536;0.14605148;0.1769199;-0.111748375;0.015854143;0.019833406;0.0644871;-0.27255586;0.008989457;0.009009984;0.059899103;0.051018227;-0.0006337525;0.051014353;0.097097;0.023436993;-0.07544241;0.057360366;0.031522185;0.06472447;0.0019238326;0.15239328;0.24492826;-0.13988736;0.06112853;0.035101846;-0.21311718;-0.090039365;0.12902942;0.20731185;0.08248517;0.0783667;0.1038613;-0.027056312;0.27787372;0.03977875;0.17303763;-0.118036;-0.013369008;0.5577815;0.023548225;0.0867811;-0.002089253;0.16633727;-0.15766002;-0.00844697;0.10484075;-0.048930548;-0.11521101;-0.13380094;-0.088162996;0.034880504;-0.08786643;-0.115171134;-0.0711926;0.14543353;0.10187634;0.0011955888;-0.043442607;0.43970764;0.06847687;-0.36326545;-0.11641453;-0.054521464;0.07779924;-0.05073623;-0.019066524;0.03204923;0.0031509846;-0.043460287;-0.07059413;0.42674953;0.01366309;0.020174889;-0.0012747813;-0.005865502;0.043054022;-0.034757603;-0.033798844;0.11852553;0.07336357;-0.0014526603;-0.116661094;0.019529777;-0.025891535;-0.2758165;-0.0100816535;0.083601;0.22226635;0.24538632;-0.037611116;0.4446697;-0.021242933;-0.039892945;-0.114912175;-0.004563337;0.122950114;0.05379245;-0.26291808;-0.0055509605;-0.0965619;-0.26695517;-0.06885885;-0.274739;-0.17527093;-0.046172917;0.2601332;-0.05196453;-0.046090454;-0.058931783;-0.038722187;-0.07143933;0.31804216;0.14816049;0.039370853;-0.119919345;-0.0027601789;0.10378959;0.0079607;-0.016146308;-0.020571668;-0.05460027;-0.033689536;-0.15392047;0.20600982;-0.0046877493;-0.071327075;-0.08028229;0.05299844;-0.033441454;-0.18520351;0.08768619;0.0062119784;-0.040076006;-0.050437387;0.06287361;0.14618036;0.07712925;-0.2947433;0.24686903;0.11784703;0.037274346;-0.010294852;0.2713437;-0.23004603;-0.20829882;0.048077874;-0.2054967;-0.028791742;0.2959286;0.16261566;-0.0617737;0.08494344;0.28984487;-0.09010177;-0.021306256;0.09724409;0.3869899;0.036441416;0.009818936;0.14251032;-0.06811289;-0.014336113;0.0790877;0.04129005;0.011327588;0.08990125;-0.2222734;-0.017376445;0.009242734;-0.21720043;0.07169335;-0.032771464;0.1845787;-0.085473284;0.2799306;-0.015243284;0.04219554;-0.04113044;-0.13724983;0.20794238;-0.014515714;0.10193012;-0.06491011;-0.05586585;0.48515075;-0.16735727;-0.06516694;0.16876629;-0.06663775;-0.016014876;0.044036902;0.093319766;-0.06238304;-0.1772711;-0.44161722;0.06273271;-0.009229135;0.15661862;0.037448738;0.046251524;-0.031529445;-0.031164723;-0.24866994;-0.3524549;-0.0057364716;0.07099073;0.018479992;-0.022858083;0.040366698;0.051653735;0.112971276;-0.04575833;0.06436627;0.05036163;0.0456933;-0.036185697;-0.226218;-0.43976128;-0.25964266;-0.041742723;-0.079141505;0.03293343;0.0986302;-0.11221906;-0.0516029;-0.027694367;-0.18027166;0.017768046;0.013950134;0.09785407;0.118475564;-0.06261308;-0.045010805;0.22110307;-0.038833305;0.004151213;-0.008943161;0.1702997;0.29787505;0.06510221;-0.050719447;0.020634951;-0.19869758;0.036236573;-0.013095822;-0.03186375;-0.0036747984;0.108915955;-0.033553164;-0.0076245726;-0.008750242;0.046102483;0.01576495;0.22120796;-0.25376162;-0.16360767;0.04657739;-0.05345429;-0.28228945;-0.09071863;-0.04558358;0.20921369;-0.022962067;-0.060797736;-0.015038007;0.09854174;0.015183372;0.019621352;-0.03593835;0.09670139;0.03171982;0.033660635;0.263301;0.043220777;0.017155133;0.02193714;0.07168425;0.035272162;0.006356968;-0.234715;0.14148386;0.08842106;-0.06029617;0.0393532;0.0486505;-0.070051;-0.23078571;0.05562568;-0.093237124;-0.039028686;0.021183232;0.053550288;-0.029081374;-0.14371528;0.1842113;0.05483707;-0.4276584;0.106524855;0.028949257;0.059005603;0.04003473;0.2574981;-0.14136386;-0.11470204;-0.16690643;-0.053904295;0.06881746;0.0597129;0.32376608;0.03765014;-0.14036131;0.077681385;0.116672106;-0.21859664;0.14731707;0.031273287;0.009961462;-0.032823093
0.05527624;0.287108;-0.16741365;0.049074925;0.022551233;0.22185022;-0.01704796;-0.06284523;-0.26353198;0.026222983;0.030696485;-0.10415581;-0.3926232;0.07051605;0.13699935;-0.06155866;0.07013096;0.22563587;0.04618149;-0.120793015;0.016211873;0.03753282;-0.21024244;0.16033916;-0.25494292;-0.15693776;-0.013682241;-0.007149393;0.04160551;0.030314222;-0.26756138;-0.049613394;0.052781053;-0.4260276;-0.057570014;0.041103605;0.35491043;-0.2453678;0.052000664;0.03195307;0.00025681572;0.16644017;0.07250941;-0.16579522;0.007010922;0.24499573;-0.020566357;-0.12332666;0.022467516;-0.045120977;0.035474963;-0.052778307;0.34255692;0.059652023;0.33700055;-0.04052508;-0.0248336;0.12989524;0.027087308;-0.026477287;0.092712454;-0.04226686;-0.051895432;-0.13975987;0.02002809;-0.008274227;-0.23165558;-0.13251162;0.062244006;-0.016006446;0.064831965;-0.11799647;0.080316566;0.21012884;-0.006416987;0.048199896;-0.0031222627;0.11556989;0.05068079;-0.07731656;0.034981027;0.018584559;0.1479588;0.0316792;0.25194123;0.12488958;0.34471747;0.0038739485;-0.20923817;-0.042860735;0.17545661;0.213333;0.09144378;-0.16333328;0.09049545;0.021255445;-0.001994637;0.12766418;0.03548231;0.24855813;-0.17051245;-0.033571415;0.27667323;-0.00077232596;-0.21553864;-0.0062668673;-0.024330184;0.052855466;0.0064011887;0.36334202;-0.017213264;-0.07368795;-0.15948716;-0.17176649;-0.022813544;0.117590174;-0.023288429;-0.017959725;0.039989162;0.1254327;0.16445093;-0.13218026;0.013645292;-0.062712334;-0.072703615;-0.05006212;0.061853863;0.0038889404;0.14695327;-0.00991877;-0.09251211;-0.48921844;0.07215294;-0.026410317;0.05386711;0.08447113;0.27862257;0.00920627;-0.016449442;0.06792282;0.26703468;0.10865505;0.009150494;0.31513202;-0.0005574765;0.0456285;-0.16307527;-0.058450792;0.043186016;0.28616053;0.00010248107;-0.075239226;0.05759756;0.097483926;0.02597799;-0.01918184;0.25879052;-0.012647209;-0.022308253;0.07573256;-0.39472497;0.14936455;-0.07493049;0.06260354;-0.12896843;0.024821525;0.14241333;-0.053261165;0.38355482;-0.38463032;-0.2792597;-0.04362508;0.049493905;0.27736902;0.046727497;-0.03367391;-0.13723297;0.04299154;-0.09869014;-0.25577033;-0.06298919;0.0018980349;0.15089387;-0.041188456;0.06393956;0.027389623;-0.13497722;-0.12738127;-0.31253073;0.12848482;-0.087805755;0.14675762;0.041631594;-0.042490527;-0.052016057;-0.08914027;0.030876335;-0.022713432;0.27259168;0.17488231;-0.17470662;0.28617096;0.10805256;0.036472682;0.23718773;-0.09519126;0.01767255;-0.051202055;-0.040093288;0.075751334;0.05659233;0.04501339;-0.39861712;0.032409582;0.07481968;0.036851373;-0.039108094;-0.04020063;0.03220946;-0.031883657;0.30746418;-0.070679456;0.0039436487;0.037908737;0.008930071;-0.06385492;0.04214002;-0.33255556;0.079559565;0.3576329;-0.054695576;0.10068126;0.07122524;0.023765204;0.015221056;-0.09497918;-0.117360584;0.11645628;0.022047704;-0.22822945;0.27736017;-0.05446005;0.037288353;-0.16827802;0.0032039217;0.034055285;-0.2752725;0.052447055;0.14955151;-0.02370674;0.035831306;-0.10928559;0.15215053;-0.055928525;0.065831356;0.20738716;0.016890574;0.088309854;0.26484883;0.033800557;-0.046096936;-0.017433573;0.11978668;0.040736377;-0.34523097;0.044933587;0.008011562;-0.018109243;-0.060193762;0.017075233;0.071524024;0.0333182;0.016753497;-0.07293455;0.049568236;0.083306916;0.09272028;-0.030417198;0.08346507;0.24614769;-0.13348337;-0.018389529;-0.023904601;-0.20900616;-0.048273742;0.10322023;0.1823583;0.14698942;0.15799287;-0.024800971;0.017580695;0.2990483;0.05902773;0.19101563;-0.14405966;0.029020635;0.53915447;0.09305896;-0.019928161;0.019600047;0.13354185;-0.0046142596;0.036299568;0.12636437;0.003492688;-0.11495051;-0.096736535;0.023770045;0.2245528;-0.044355858;-0.16629727;0.015457414;0.02174646;0.11386006;-0.031052507;-0.15519705;0.4181349;0.044043135;-0.42876434;-0.071948975;-0.025048036;0.013102238;0.03316193;-0.033112325;-0.07283436;0.06660572;-0.0019882678;-0.027892303;0.29757476;0.0588201;0.14595622;-0.00052352826;0.08651264;0.0013905709;0.028085556;-0.026134588;0.066913284;0.078089066;-0.043343455;-0.19135146;0.022295984;0.04024207;-0.32367253;-0.029453786;-0.03773635;0.09909407;0.17141625;0.06500174;0.4051762;0.020441782;0.00089484564;0.0047427453;0.03864661;0.13967393;0.08829296;-0.15980598;-0.044717137;-0.12344424;-0.09320987;-0.07625014;-0.1563548;-0.23563413;-0.04280241;0.16051546;0.047993183;-0.010346738;0.015769994;0.08585129;-0.09628313;0.11218895;0.14884335;-0.03782482;-0.16108331;0.008836506;0.09516811;-0.013726717;-0.06353301;0.084012754;0.010557092;-0.04852795;-0.15059844;0.23046447;0.08799483;-0.051459793;-0.163475;0.025846446;0.038702715;-0.10506822;0.083655104;0.003196333;-0.05796425;-0.020690007;0.02883479;0.18467104;-0.03051741;-0.32934055;0.21196242;-0.068212315;0.02490067;-0.03508829;0.21154381;-0.21174663;-0.12767512;0.15984987;-0.1847995;-0.029029978;0.3955527;0.23041047;0.0068352185;0.01790202;0.31286812;-0.06486309;-0.021636814;0.28164566;0.47844225;0.027787467;0.029137881;0.20315;-0.032697458;-0.07974398;-0.07664757;-0.009628293;-0.019173875;-0.007330354;-0.13714276;-0.07432241;-0.00013008738;-0.015458712;0.039073426;-0.06256933;0.2505869;-0.014891911;0.14543147;0.00788178;-0.055580374;0.02168353;-0.16981974;0.10707897;0.02482866;0.021887891;-0.099141575;-0.05527175;0.43180862;-0.16733345;0.08082635;0.032556064;-0.023619395;-0.06767085;0.13773088;0.19182958;0.013707575;-0.23486838;-0.35478565;-0.09907968;0.05994915;0.028957365;0.16388409;0.077455856;-0.046410583;0.03929815;-0.2603567;-0.43119574;-0.015747992;0.07596439;-0.094468296;-0.056871347;-0.018855784;0.03844733;0.07664047;-0.009961095;0.09379514;0.005934397;0.11102642;-0.043334533;-0.063335456;-0.6098117;-0.04464806;0.06841146;-0.15067855;0.067055665;0.18253714;-0.2032363;-0.05361882;0.0426304;-0.1245836;0.026751066;-0.061528713;-0.03797743;0.21014059;-0.19561599;-0.08774005;0.24536815;-0.11635093;-0.017771063;0.009247328;0.15155706;0.32580173;0.07405535;-0.060857505;0.03530521;-0.26531285;-0.054523394;0.11179277;0.012436474;-0.07015291;0.078281954;-0.1144913;0.040811196;0.0051402547;0.028287323;0.030229917;0.25112256;-0.31699213;-0.32154062;0.038657177;0.0693117;-0.35518056;-0.18612969;0.04412085;0.104187615;-0.07283928;-0.15986456;-0.02401452;0.086810276;-0.03175977;0.08363071;0.03493889;0.021180522;0.103484936;0.17441685;0.17397755;0.016430492;0.03736749;0.11739024;0.06883118;0.10874461;-0.0041308305;-0.17867357;0.20103104;-0.011936684;0.06524298;-0.030543942;0.0074477633;-0.026045747;-0.1268567;-0.004696167;-0.04489697;-0.024553007;-0.041350298;0.08490576;-0.038251534;-0.09730946;0.25119418;-0.04920803;-0.3338456;0.19998439;0.15070404;0.03042138;-0.033807196;0.2524481;-0.15664154;-0.1214939;-0.11539421;0.027831431;0.15451422;0.0005490211;0.27462938;-0.020347416;-0.13893287;0.03991386;0.17487141;-0.2822054;0.2096432;0.05173931;-0.030558528;-0.1511319
0.04069187;0.2761235;-0.20227921;0.013112444;0.0016901571;0.09966952;-0.033149943;0.0131228715;-0.25604317;0.14039373;-0.022035496;-0.021560011;-0.46532005;0.23062222;0.21615382;-0.03137783;-0.015019093;0.052719567;0.017529361;-0.03067919;-0.025948232;0.02529172;-0.12685502;0.17545466;-0.36464643;-0.14220093;-0.13588178;-0.03309143;0.043222692;-0.088699795;-0.30239528;-0.13380036;0.07264084;-0.44030702;0.005942521;-0.08434629;0.3123355;-0.06486805;0.10567012;-0.057165932;0.029928964;0.32525542;0.1690078;-0.21398915;-0.07015724;0.11625282;0.052573085;-0.1179496;-0.036494464;0.064089015;0.106153175;-0.0002985845;0.24305017;-0.09116366;0.29850087;0.036949784;0.031825937;0.11596249;0.11285809;0.035409324;0.053321086;-0.07799233;0.005889761;-0.11329594;-0.0016447625;-0.049333956;-0.19926073;-0.06700068;-0.03932716;-0.00050764595;-0.06575027;-0.08040848;0.19965315;0.032616034;-0.039980024;-0.060159277;-0.035909865;0.12110189;0.04728723;0.06772379;0.040808644;0.008203605;0.117737055;-0.052975975;0.32155952;0.0494469;0.15431194;-0.07076705;-0.225581;-0.07201917;0.16090395;0.1713948;0.057244934;-0.15359485;0.038942996;0.08768651;-0.037184775;-0.02315754;0.06516939;0.2476014;-0.08240583;-0.07693688;0.14901538;0.004149616;-0.29716474;0.052355822;-0.030043295;-0.04028013;-0.041537695;0.2590112;0.14884065;-0.17287053;-0.117809445;-0.04381212;0.073501654;0.22613752;-0.043312926;0.12485125;-0.016384453;0.13653569;0.18039928;-0.104019016;-6.0941684e-06;-0.14844488;-0.00064703106;-0.011857273;0.04206876;0.018831426;0.17952245;-0.07403375;-0.19937433;-0.32526627;-0.11048234;-0.059592653;0.11121685;-0.060897324;0.22636217;-0.051964715;-0.04033545;0.0037670038;0.24902211;0.140477;0.00568711;0.39662427;0.017553378;0.028286645;-0.057942837;-0.07598385;0.02065575;0.2688006;-0.08093094;-0.17752424;7.1532186e-06;0.090862535;0.03998244;-0.022400577;0.18943584;-0.043061238;-0.011065981;-0.022903323;-0.45380196;0.18029849;-0.04695251;0.022256222;-0.17948832;0.08678404;0.094567575;-0.04930749;0.36585402;-0.3790509;-0.39096215;-0.16592614;0.030028032;0.25506163;0.0275178;0.041912775;-0.007803454;-0.065273486;-0.13251284;-0.20218392;0.020459156;0.04387276;0.22108305;0.09137667;-0.01844094;-0.022834465;-0.03244342;-0.1739496;-0.43497375;0.15235245;-0.11884289;0.1543172;0.0141898105;0.047694556;-0.08922341;-0.06633913;0.18061984;-0.13962664;0.21070878;0.02155727;-0.09047177;0.32757348;0.027356794;0.14782636;0.14201573;-0.081008166;0.02524508;0.0011108604;0.009072531;0.07243663;-0.015937343;-0.07117671;-0.34313643;-0.046284;-0.072114095;-0.08517363;0.008472381;-0.0147100715;-0.11462122;-0.08097847;0.17485392;-0.006598642;-0.02417167;-0.030035138;0.010815255;-0.09719155;-0.0494662;-0.36376768;0.011065449;0.319166;0.05004526;0.08775882;0.053438522;-0.00012512613;0.09655002;-0.03257118;-0.10024717;0.105562925;-0.04339836;-0.27632266;0.22055426;0.04683361;-0.043669682;-0.16218397;-0.014883934;-0.09180818;-0.24258621;-0.07574619;0.0050473614;0.033466734;0.08825444;-0.092106454;0.20160334;0.044494327;0.140304;0.1845448;-0.072683886;0.18333758;0.23375896;-0.006661269;-0.054795824;-0.033875298;0.03914948;-0.016779358;-0.24411866;-0.07427124;0.15597531;0.07854524;-0.049976278;-0.08209653;-0.04894593;0.10426297;0.05812189;-0.10584688;0.056413952;-0.015511379;0.18325193;-0.0103237545;0.13831961;0.14721473;-0.060736444;0.015545983;-0.015580248;-0.16159932;-0.052082073;0.04714611;0.1350375;0.060720105;0.19645637;0.03127654;-0.03203369;0.18053389;-0.062129505;0.20170638;-0.1853828;-0.047553416;0.56640744;0.105558254;-0.008079303;-0.02683947;0.10045637;0.004856701;0.021765264;0.006129613;0.058841955;-0.13470826;-0.14213386;-0.12393325;0.14047845;-0.09409701;-0.15362537;-0.093386136;0.062190898;0.048819978;0.115945175;-0.14061098;0.4658887;-0.03414257;-0.29624087;-0.123975486;-0.04886828;0.061727926;-0.02774994;0.020995518;-0.02941928;0.06005214;0.05841808;0.032348365;0.3210521;-0.038716942;0.2229546;0.031729437;-0.014304748;0.08792779;-0.021458916;-0.014641565;-0.03693318;0.11780311;0.005668114;-0.16512175;0.070959285;0.018533899;-0.20451522;0.04115917;-0.060268957;0.08617334;0.11970465;0.071551256;0.43095574;-0.033024006;0.018801728;0.036860306;0.024915025;0.10845083;0.1960088;-0.12799561;-0.014376367;0.016824948;-0.12918203;-0.006585836;-0.20525119;-0.19874278;0.07388251;0.23072924;-0.023176715;-0.06697298;-0.030552328;0.093646206;-0.09649645;0.10448209;0.108662374;-0.009526382;-0.029763909;-0.030369386;0.030738937;-0.034636524;0.031217236;-0.015813334;-0.08819974;-0.019809106;-0.10857088;0.26572707;-0.025265887;-0.10112302;-0.11733782;0.031393684;-0.036972053;-0.1582278;0.1424742;0.025272379;-0.066514365;-0.1414386;-0.040528823;0.17258762;0.035537515;-0.25283283;0.18275525;-0.023423804;-0.0011846024;0.051662173;0.10493656;-0.28521195;-0.19565508;0.179367;-0.18520653;-0.08293029;0.4473477;0.25549394;-0.054347258;0.010015856;0.25598767;-0.09021364;0.028554747;0.29530817;0.48977068;-0.0036855699;0.06772297;0.15221329;0.05473722;0.008319709;-0.083499;-0.06946679;-0.04306771;0.018347617;-0.047592115;0.082408875;0.061689768;0.04581914;-0.06012247;0.022009607;0.29151133;0.0072609503;0.17819467;0.05593725;0.047340244;-0.022525908;-0.18138961;0.14344083;0.03912854;0.049058065;-0.16889296;-0.043268494;0.32664266;-0.08388151;-0.027688468;0.07486302;0.08760793;0.06628285;0.10792012;0.20738956;0.083051026;-0.32601202;-0.48912132;-0.062100425;0.110227846;-0.024117114;-0.0047172885;0.109770685;0.073368765;0.0109359035;-0.21672602;-0.31526756;0.14165543;0.08981322;-0.08825508;0.035343092;-0.03532207;0.04219304;0.07996959;0.05319449;0.18077174;0.0016348822;0.19396813;-0.034139685;-0.17021763;-0.5177973;-0.040015336;-0.049504664;-0.22711009;-0.071356334;0.029274002;-0.09980718;-0.053613767;-0.0838252;-0.18828608;0.0757565;0.027451992;-0.021805793;0.101976015;-0.05893582;-0.102878205;0.35442588;-0.12899822;0.025530133;-0.0432456;0.19087328;0.39018074;0.13096415;0.085495435;-0.06869435;-0.11040578;-0.009884272;0.118044436;0.07404053;0.07845941;0.09985765;0.010858022;-0.06246004;-0.04375552;-0.016330501;0.21993555;0.24979347;-0.3007683;-0.2478821;-0.031516645;0.057261784;-0.2611796;-0.06310932;-0.051466826;0.18254189;-0.03395043;-0.1292475;-0.07385658;0.062253978;0.0009841344;-0.0086992765;-0.04074788;0.15667428;0.07198902;0.047595423;0.25107002;-0.09374654;-0.02762841;0.072998926;-0.03929405;0.18185642;0.046090726;-0.08056697;0.2021185;0.06303293;-0.08743079;0.032420438;-0.06785761;0.028973442;-0.12344797;-0.062413987;-0.012072412;0.058985386;-0.044380303;0.046866193;-0.047813177;-0.19887848;0.30511218;-0.061787505;-0.35343963;0.07601127;0.0770767;-0.074545704;-0.041120395;0.36005735;-0.16955619;0.016076986;-0.10866979;0.022274747;0.056986097;-0.022018628;0.11070728;-0.08580808;-0.1014679;0.12418385;0.10958489;-0.33433113;0.18936647;0.029400667;0.025826873;-0.13772897
-0.06288672;0.26972467;-0.20515268;0.0107660005;-0.07245957;0.14691721;-0.0211111;0.008299926;-0.24543817;0.09398278;-0.009313205;-0.09160724;-0.45162016;0.11381254;0.15600722;-0.050419908;-0.09916135;0.070853494;0.007137455;0.0056821373;0.05312467;-0.064652406;-0.14091535;0.12957399;-0.34461334;-0.004673069;-0.16753258;0.017811207;0.038886894;-0.042220928;-0.39694765;-0.03436662;-0.077683695;-0.3933836;-0.083290234;0.07928434;0.2748381;-0.12386245;0.09003371;0.012633722;-0.009815516;0.27882156;0.13674244;-0.09213673;0.009145146;0.1075574;0.06430862;-0.0640318;-0.025895638;0.033288553;0.055909324;0.033048946;0.36465338;-0.04447003;0.35502958;0.049431324;0.08879127;0.2625412;-0.043442212;0.0426474;0.034271833;-0.06391591;-0.09210417;-0.068847194;-0.0019055068;0.051434945;-0.32239816;-0.11304628;-0.025317915;0.0022084108;-0.012629248;-0.043113016;0.13470843;0.048544753;-0.042181745;-0.023710813;0.040786568;-0.011528918;0.06596173;-0.07450371;0.042591874;0.06787538;0.06007296;-0.02988746;0.21871471;0.007262554;0.16726986;-0.080269195;-0.14191352;-0.15876412;0.11709432;0.103498206;0.03722962;-0.13873813;-0.13289441;0.07050821;0.023424756;0.081456795;-0.038801696;0.31890517;-0.018916823;0.04168843;0.21544947;-0.044757716;-0.28840947;-0.003867743;0.05372013;-0.040187687;0.0022955493;0.29853764;0.08822928;-0.05334885;-0.13731901;-0.029484509;-0.023507012;0.18814267;-0.037617132;-0.030127307;0.001985626;0.16956076;0.14148593;-0.12687166;-0.04390556;-0.093941525;-0.025786228;-0.03151048;-0.0780519;0.002534254;0.3029926;-0.047081508;-0.10082195;-0.4125571;-0.08778931;-0.04430922;0.14357989;-0.007932346;0.25831485;0.057348646;-0.0007966361;0.07589492;0.25329265;0.073255286;0.021536397;0.315337;0.050002474;-0.044612978;-0.1350377;0.005670087;0.006820755;0.27213332;-0.13456751;-0.0019128593;-0.0915526;0.20703252;-0.05116155;-0.006975306;0.23095073;0.05386639;0.011169258;-0.024213808;-0.41054553;0.1870394;0.06977403;-0.03694035;-0.1626748;0.04337371;0.18383463;-0.17590371;0.27437797;-0.3337455;-0.28759432;-0.14958045;0.10438975;0.18234617;-0.06955017;-0.027901351;-0.10912615;0.02055984;-0.18632509;-0.2415374;0.054511596;-0.026768835;0.053094294;0.101182826;-0.03657974;0.059630986;-0.10470329;-0.024867078;-0.23111488;0.18055034;-0.06756103;0.25703615;-0.08660879;0.059905045;-0.00969563;-0.09448231;0.137377;-0.15018445;0.21587026;0.06695187;0.007879306;0.26167357;-0.11645454;0.16089243;0.17696919;-0.059585005;0.005171985;-0.21958002;0.07899285;-0.057986323;-0.009244336;-0.045024596;-0.32790208;0.079105355;-0.064013146;-0.037071172;0.007153067;-0.022002965;-0.024810217;-0.07584052;0.22988291;-0.010050795;0.06350961;0.0016710018;0.022349367;-0.13346677;0.0031920557;-0.41843954;0.012457969;0.42681628;-0.0122486465;0.15831602;-0.033441562;0.14770354;0.10958766;-0.080388546;-0.108958796;0.1258437;0.0238007;-0.070004314;0.20746388;0.05926229;-0.04354421;-0.1597607;0.056172665;0.050375875;-0.16699447;-0.03007207;0.02455951;0.004369397;-0.047997676;-0.13771102;0.12087105;0.01908442;0.135118;0.15143642;0.04271321;0.15073268;0.19926007;0.10147728;-0.03944532;-0.11876782;0.06566563;0.012030684;-0.31603304;0.0453339;0.15827806;-0.05731429;-0.039195765;-0.065198034;-0.048619933;0.074233145;-0.046027623;0.04266196;-0.080373034;0.00677317;0.18504907;0.01137963;0.16576114;0.024748351;0.036460266;0.034922022;-0.029846223;-0.19119327;-0.054685608;0.11333931;0.22538012;-0.06003556;0.28562874;0.021567916;-0.0033413002;0.19916634;-0.010100169;0.17191815;-0.1427231;-0.006505471;0.5557176;0.036202602;-0.02593703;0.03646309;0.0646641;-0.08398587;0.0310192;0.10720321;0.019082807;-0.15345792;-0.1110324;0.008434967;0.015967863;-0.16766937;-0.05776249;0.07500786;-0.027480677;0.15435816;0.026135946;-0.031934306;0.35085654;-0.052988563;-0.3110615;0.040080655;0.040740773;0.07218151;-0.016723465;0.028366195;0.004757505;0.07272278;-0.017330261;0.07016075;0.3227438;0.030011324;0.16838948;-0.061282184;0.11904876;-0.0575272;-0.0056460635;0.006170155;0.06265558;0.041465554;0.010860736;-0.15033206;-0.059446357;0.0048696054;-0.35025582;-0.11568549;-0.10636286;0.14654632;0.085243024;-0.06420861;0.4596293;-0.0346197;-0.035663135;-0.06982857;-0.061700277;0.09092981;0.07060537;-0.2513124;0.032174855;-0.05438836;-0.09922261;-0.081741475;-0.121212535;-0.23597173;-0.053899214;0.2881233;-0.054745078;-0.0013018703;0.01738608;0.16981132;-0.24096774;0.1381695;0.17690814;0.0067817573;-0.15166256;0.010105516;0.09723247;0.020317312;0.0059327697;-0.07868897;-0.02602395;0.009612927;-0.12745537;0.10542577;-0.0042138174;-0.07524402;-0.02857016;0.0696795;0.008947826;-0.14526547;0.07190586;0.041556038;-0.12112419;-0.17108059;0.068763345;0.123816736;-0.09267172;-0.33868968;0.09909875;0.06929089;0.031883575;-0.0027405082;0.06956703;-0.2183223;-0.07568119;0.14777504;-0.22171831;0.0034930583;0.32294175;0.35351712;0.049259596;-0.032271355;0.19264962;0.004252039;-0.040253375;0.34543455;0.3687277;0.049793124;0.17950736;0.22208226;-0.064469166;-0.10123684;0.025249;-0.04216613;0.059201345;0.0938476;-0.14837356;0.04634116;0.075979024;-0.04067455;-0.13722189;0.023135265;0.29132336;0.11230859;0.1598925;-0.008654635;-0.022825716;0.016808318;-0.1637721;0.058375776;0.014596583;-0.022163238;-0.26054236;-0.03615451;0.23995587;-0.09328336;0.043000504;0.13696785;0.0021010689;-0.005560131;-0.079260066;0.06851996;-0.016510837;-0.451115;-0.47055036;0.08011862;0.08940475;0.06935219;0.075693674;0.0037255082;0.05883928;0.009749601;-0.35362592;-0.29315466;0.1114984;0.17291173;-0.022114351;-0.0006997412;-0.05599935;-0.03601366;0.028608501;0.046235826;0.08436262;0.0010242586;0.12792027;0.027400225;-0.10902832;-0.54850745;0.016264433;0.075397514;-0.17742011;0.04822158;0.14359851;-0.19417523;0.041979462;0.06248515;-0.069488935;0.20404403;0.05012026;-0.042443696;0.13730258;-0.10114925;0.00044264336;0.3473292;-0.07896217;0.0035099366;-0.010674536;0.06317678;0.44043756;0.124567285;0.05986409;0.017453888;-0.13719086;-0.01069451;0.13641074;-0.0016089621;-0.017539524;0.11715778;-0.028276356;0.042687662;0.014577773;0.024892889;0.2083667;0.15147595;-0.24032523;-0.22850232;-0.012824086;0.05365924;-0.2438667;-0.057358332;0.07121102;0.16074519;-0.07222904;-0.12673615;-0.06997945;-0.012496886;-0.048678465;-0.046884466;-0.0050475365;0.11545428;0.25023222;0.081503205;0.12749724;-0.17046878;-0.018905558;0.19781612;-0.0009851957;0.0707899;0.15253915;-0.058993056;0.3296092;0.11666642;0.03392297;-0.04430321;-0.01601199;-0.012572668;-0.15583193;0.047844503;-0.13132793;0.035858937;-0.0036029436;-0.00077243167;-0.09775693;-0.19373268;0.36511126;0.0030381114;-0.34832966;-0.04188421;0.2023969;0.05467751;0.032753956;0.34390882;-0.15696593;-0.07141726;-0.064580016;0.0123781925;0.05491736;-0.06484868;0.21347804;0.01849787;-0.2048994;0.0723891;0.074293755;-0.23582025;0.07663386;-0.018365966;0.011003071;-0.009446257
0.05411785;0.19148271;-0.20599994;0.058951676;0.044496685;0.13727286;-0.0010489201;-0.014952581;-0.28065875;0.14622419;0.033905987;-0.08776759;-0.41096824;0.08606347;0.10130303;0.059877437;-0.09460102;0.046915807;-0.039406754;0.050381552;-0.011860305;-0.0021403653;-0.10860011;0.10952688;-0.40066886;-0.01759236;-0.09438714;0.06627788;0.011396585;0.039916318;-0.25285313;-0.09681642;-0.097566046;-0.30903006;0.071667396;-0.07512588;0.2456449;-0.109772906;0.12144794;-0.053550977;-0.026556425;0.18857378;0.22357287;-0.19446522;0.054625586;-0.007952058;-0.078071795;0.078224875;0.0120007815;-0.03291634;0.1608065;0.0073310244;0.3250957;-0.14109577;0.32121107;0.17412105;0.006318482;0.29466644;0.08030371;-0.06653564;-0.096944004;-0.23997064;-0.028656846;-0.06925422;-0.019110192;-0.02669673;-0.20402132;-0.15628813;-0.1296054;-0.03771263;-0.0020576532;0.17748328;0.16060406;-0.029958436;0.0012972056;0.031488243;0.010672349;-0.037599586;-0.0023644418;-0.043143142;0.01226759;-0.0041000186;0.10236333;0.072804265;0.31377664;0.0661641;0.063303806;0.07314671;-0.1991356;-0.09577303;0.16633034;0.029106583;-0.10061023;-0.06597966;-0.04352709;0.10430711;-0.03306078;-0.06836682;-0.0823228;0.3087735;0.012166297;-0.011771763;0.060371727;0.032395106;-0.40620226;0.020662175;-0.023364924;-0.027812717;0.08008175;0.29655027;0.021509076;-0.1871634;-0.21186545;-0.0051268484;-0.046893038;0.18330237;0.0064850072;0.020806655;0.008364905;0.20469207;0.18175158;-0.10205086;-0.001953748;-0.16159491;0.14509504;-0.014375926;-0.018726548;-0.12127711;0.3696486;0.044318955;-0.25354502;-0.30252954;-0.14945067;0.020604981;0.0046821027;-0.01014803;0.19555733;0.057613175;-0.08225667;-0.048272822;0.35957316;0.099120945;-0.05058224;0.24705411;0.04646773;0.038059745;-0.16523665;-0.01566489;0.019760918;0.38637257;-0.07932491;-0.025998216;0.0855615;0.11789842;0.065441035;0.028462436;0.2389649;-0.042994548;0.06938039;0.050601993;-0.32731664;0.21639574;-0.0013797898;0.0149070155;-0.1368107;0.10851396;0.1821531;-0.15361388;0.2842806;-0.24373;-0.2787528;-0.087033145;0.10465993;0.032873224;0.056191113;-0.055802774;-0.07576752;0.013501875;-0.1982569;-0.20518126;0.0234875;-0.052864973;0.10776908;-0.012361717;-0.002759508;0.05137094;-0.050702296;0.040044893;-0.20345707;0.047370557;-0.15802768;0.22754812;0.04590429;-0.07981473;-0.14201418;-0.08923074;0.07778833;-0.1900223;0.20029715;-0.010102441;0.014455494;0.3028608;-0.13738841;0.035344694;0.18477187;-0.042375796;0.041194547;-0.2440818;0.11848084;-0.041589435;-0.020421976;0.026195724;-0.36438587;0.008043891;0.02973036;-0.075841546;-0.024826573;0.041830774;-0.12396913;-0.024088988;0.14235018;-0.042016976;0.0035047594;-0.023098819;0.06074788;-0.22603975;-0.01700009;-0.39506823;-0.02798596;0.39900997;-0.09993758;0.20926347;-0.041023623;0.1204487;0.21127357;0.024926726;-0.0006708036;0.16081032;-0.03143844;-0.065166384;0.19248176;0.0675769;0.09761852;-0.16507612;0.067149505;0.031898078;-0.14826667;-0.16167969;-0.08965164;0.055996355;-0.049278993;-0.15239187;0.1548736;-0.010869514;0.106106594;0.2247735;-0.019715836;0.25434723;0.31388727;0.024774889;-0.11032952;-0.23722254;0.16138816;0.032804266;-0.3223679;-0.05516659;0.067816295;0.038192555;-0.09449729;-0.032660145;-0.1335333;0.06719579;0.024166664;-0.021927886;-0.029881123;-0.040513072;0.19817244;0.036311712;0.113175996;-0.038765695;0.07076223;0.0016912599;-0.0012262983;-0.1430105;0.068483815;-0.008490284;0.15460871;-0.011196623;0.28636885;0.03740153;-0.058653828;0.10288839;0.022390915;0.14619099;-0.16046052;-0.0353491;0.589087;0.06123869;-0.055204913;-0.058412857;0.17040242;0.0017236423;0.042327434;0.08665269;-0.061525736;-0.14147393;-0.1775083;-0.02382669;0.052726727;-0.042010028;-0.03457842;-0.033826195;-0.019642724;0.10611889;-0.009755424;-0.061997853;0.38621134;-0.04625564;-0.4036424;0.0010108459;-0.020810928;0.028912496;-0.119261615;-0.01669441;-0.0082511455;-0.04537651;-0.06003932;-0.010550502;0.26157886;-0.06346713;0.12805094;0.055743307;0.08872909;-0.043068994;0.022460863;-0.0481154;0.06843498;0.077706076;0.04887741;-0.14312159;-0.036945887;-0.032357875;-0.2680529;-0.078449935;-0.14062046;0.23059115;0.22284722;0.001208046;0.30410993;-0.013342796;-0.013186581;-0.06908769;-0.07027494;0.041065387;0.06849938;-0.12836184;-0.037926674;0.04837079;-0.13567176;-0.040618803;-0.009966334;-0.26838964;0.01232603;0.19651052;-0.025966682;-0.006844948;0.040186506;0.09378767;-0.10528933;0.09886216;0.09193252;0.120070614;-0.04436969;-0.022392122;0.079572566;-0.05950427;0.008274037;-0.14380771;-0.0602492;0.06918241;-0.2152518;0.204346;0.0149230035;-0.028857963;0.0985157;-0.049930405;0.073590316;-0.066096604;0.09157522;0.05123214;-0.09391849;-0.1951761;-0.048411526;0.16414551;-0.0032362724;-0.2233812;0.14025672;0.047951825;-0.019095305;-0.029946374;0.01545647;-0.31825367;-0.15619756;0.1781965;-0.11042158;0.14005731;0.38128707;0.34686634;-0.031140707;-0.031000517;0.31769294;0.024786936;-0.060089353;0.38042474;0.33073273;-0.028230743;0.11095599;0.02798679;0.05807737;-0.032658532;0.059200395;0.021129807;-0.06709234;0.043645915;-0.0962112;0.031857975;0.061024427;0.060085826;-0.16651799;0.07321301;0.30856976;0.12228379;0.14570409;-0.039690513;-0.024916293;0.04140748;-0.27073106;0.04041027;0.047722396;0.04123279;-0.2852828;-0.074647844;0.26218632;-0.10194829;-0.048780136;0.05299706;0.05237504;-0.034792483;-0.16633472;0.096479826;-0.018924842;-0.3863662;-0.470425;0.018184774;-0.009806116;0.20722304;0.13068053;0.2008326;0.0047258884;0.06745797;-0.25989163;-0.10854174;0.120297424;0.12074584;0.038481236;0.0712855;-0.033842627;0.11707703;0.051042568;0.02851203;0.16391449;0.012590736;0.13344415;-0.008456143;0.068821914;-0.47838062;0.09090868;-0.067313135;-0.33662757;-0.029026417;0.10786224;-0.12997437;0.027582107;-0.04037685;-0.03999996;0.08336721;-0.030100742;0.004984328;0.0667367;-0.037951503;-0.066674836;0.38396513;-0.13325188;-0.08529891;0.02501704;0.15737365;0.31529412;0.054720137;0.017206084;0.018802792;-0.14218119;-0.012069583;0.0713581;0.036518175;0.008694729;-0.057436273;0.039495904;-0.012740903;0.032972056;-0.005306804;0.29699138;0.2528713;-0.20017281;-0.30548418;-0.03771017;0.26558834;-0.2379843;-0.033030998;0.0731623;-0.0020476463;0.03643841;-0.08048042;-0.0066896467;-0.031278666;-0.033533596;-0.05154011;0.048521474;0.20453478;0.1931584;0.12839587;0.08434004;-0.21233805;0.038375333;0.16602221;-0.06591027;0.08436664;0.10190201;-0.028795458;0.24548471;0.2324059;0.07628204;0.013704758;-0.019925348;0.06438702;-0.049252424;-0.012905256;-0.1376377;-0.020264642;0.014356997;0.09624557;0.013012234;-0.12430662;0.32857606;0.027561463;-0.30217883;-0.15798467;0.24376492;0.074608706;-0.02995965;0.3822755;-0.19469364;0.03958303;0.05022905;-0.0573939;0.15011783;-0.08097186;0.18347205;0.03336991;-0.19558226;0.0826779;-0.008999248;-0.088964984;0.19121122;-0.062017545;-0.055429824;-0.14676502
-0.030001137;0.23647656;-0.18481673;-0.045320336;0.023408385;-0.013313558;-0.043331824;0.033628553;-0.23221232;0.08468798;0.0578318;-0.117513865;-0.20209844;0.12964681;0.09537322;-0.01034164;-0.0324572;0.04110392;0.018318191;0.026925622;0.07846169;0.005379532;0.052378215;-0.021527112;-0.47797066;7.165932e-05;-0.062432744;0.16382228;-0.016492492;-0.025232978;-0.23042138;-0.09032144;-0.0700676;-0.30573735;0.016127354;0.07025953;0.25950086;-0.087650195;0.03246173;-0.16168644;-0.053625178;0.2937312;0.07858568;-0.15713535;-0.004971419;0.03706656;-0.069173545;0.039465148;0.027224766;-0.0018913024;0.19821462;-0.020776989;0.2730897;-0.29087532;0.38504854;0.18692598;0.067918934;0.21023428;-0.022814624;-0.04817992;-0.18448186;-0.16885011;-0.086638644;-0.03783355;-0.043640394;0.020251771;-0.20002499;-0.21606441;-0.18349624;-0.042854298;0.010359454;0.17057507;0.14174022;0.028843427;0.01009036;-0.05130778;0.019366859;0.09877054;0.099772096;0.02728766;0.08689014;0.05736702;0.073643714;-0.010221784;0.24268532;0.0064942073;0.072840974;0.035019957;-0.18569791;-0.07316624;0.224585;0.097991444;-0.09778538;0.02607451;-0.048531756;-0.0067742974;-0.017291654;-0.018053174;0.067113355;0.28283775;0.0998578;0.08451536;0.041777797;0.013722571;-0.4247662;-0.003756728;0.056769248;0.06162715;0.041104194;0.30046064;0.029304063;-0.10020497;-0.13646317;0.054183215;-0.059645675;0.30068523;-0.030919952;0.012735756;-0.030217793;0.13182269;0.0050749327;-0.12170882;-0.029124025;-0.11659318;0.12227026;0.07763843;-0.00024355004;-0.0042995503;0.2639168;0.010596788;-0.17318772;-0.3919012;-0.103346355;-0.019055512;0.007875716;-0.05358728;0.19078016;0.04037049;0.02889579;-0.054513756;0.27153417;0.09179098;-0.0744408;0.3275161;-0.026179936;-0.00029095178;-0.110514425;-0.061991166;-0.07024056;0.32319888;-0.11890592;-0.05134834;0.059687234;0.23265436;-0.049957175;0.07612454;0.20656177;0.020938095;-0.05755762;-0.06303859;-0.26357582;0.30930907;-0.008923825;0.038302124;-0.26150146;-0.011943889;0.17875127;-0.12235805;0.18877326;-0.27021667;-0.36058366;-0.16975781;-0.08979832;0.05155077;0.053742565;0.046934016;-0.011698691;-0.0072523453;-0.08384966;-0.20092607;0.05667487;0.024552353;0.17709474;0.014383639;0.0060720923;-0.08467746;-0.026582476;0.07817301;-0.2798542;0.17912045;-0.009484227;0.2589878;-0.07854213;-0.078219794;-0.037622165;-0.12933768;0.09995982;-0.26690573;0.31331146;0.007468491;-0.06923582;0.34067935;-0.1433602;0.013302479;0.27535802;-0.08902918;-0.03980662;-0.21270376;0.20929891;0.06869309;-0.05390792;0.05841504;-0.3964333;0.047812648;-0.04374077;0.041074086;-0.007848241;-0.054818142;0.03266957;0.06736878;0.14467123;-0.10399475;0.13756916;0.04585972;-0.01440512;-0.1554623;-0.017452141;-0.4729266;-0.034773022;0.38196677;0.052602485;0.28944474;0.095838405;0.1822683;0.17041352;0.03210715;0.12082756;0.29707682;0.050567407;0.07074762;0.07139329;0.12817164;-0.049310703;-0.11753416;0.07736406;0.09371109;-0.06930656;-0.17766508;-0.09509269;-0.10459998;0.01794281;-0.05180177;0.097782224;0.028798534;0.19264083;0.3145715;-0.05984969;0.23055328;0.20751943;0.0023580622;-0.04336981;-0.311189;0.18058154;-0.039111517;-0.16714801;0.008663303;0.2209307;-0.06370923;0.031952556;-0.029102346;-0.079629004;0.13953567;0.01102583;0.103573985;-0.024031539;0.012098005;0.14275043;-0.018394543;0.08580028;-0.00060945435;0.04435135;-0.05393779;0.0048115053;-0.121214055;0.09465523;0.055730823;0.17808834;0.010621165;0.20038798;-0.019846793;-0.17350096;0.14630075;0.047908142;0.13618107;-0.25526848;0.018458763;0.5102568;0.14251296;-0.005175729;-0.016863551;0.011822608;-0.09265366;-0.039929572;0.031032331;0.010085805;-0.09924929;-0.30592203;0.00020386;0.10874617;-0.10159556;-0.07088845;0.083854176;-0.070394896;0.07252211;0.11167114;-0.12299729;0.3871164;0.07681528;-0.309834;0.031263642;0.011571127;-0.036144283;-0.18945779;-0.03524094;0.081947654;-0.059251018;0.02566566;-0.042669896;0.36536637;0.008043311;0.21821178;-0.051833775;0.06734531;0.0940913;0.07975096;0.051967647;0.0601251;0.08569825;0.07402839;-0.109995335;0.0060057947;0.01584416;-0.23117644;-0.12753019;-0.011784767;0.23265369;0.09866634;0.021484971;0.3287992;0.05205222;0.010113847;-0.054829497;-0.0011370631;-0.019363403;0.13155152;-0.06413091;-0.01756288;-0.0011471832;-0.0156246275;-0.09501323;-0.07073348;-0.327968;-0.018676527;0.25386235;0.05863571;0.057778545;-0.030741017;0.15370809;-0.09331412;0.05289398;0.07684212;-0.028870903;-0.039994944;0.067776754;0.10637792;-0.11352714;0.05036141;-0.008841953;-0.13290107;0.03472327;-0.19602534;0.17229693;0.07601898;0.092691;0.106775485;-0.056762442;0.008243786;0.050482616;0.11883168;-0.04254966;-0.036250163;-0.16742007;-0.08927428;0.11697511;0.023246737;-0.24613605;0.12776054;0.13633947;-0.06326354;-0.048328858;0.044543236;-0.37771815;-0.07145922;0.18370374;-0.08811464;0.030264974;0.3228644;0.27735558;0.053343166;-0.05429422;0.24353692;0.013990707;0.040926218;0.40447697;0.46856856;-0.15035884;0.2261067;0.041388635;-0.012801815;-0.11904872;0.05218383;0.08698331;0.064678565;0.20563523;-0.025052207;-0.07438804;0.13407402;-0.044058003;-0.2166624;-0.042044725;0.3098326;0.076960005;0.17314817;0.008849613;0.042935416;0.036009226;-0.32888734;0.15205565;-0.052023046;0.03222811;-0.12500368;-0.048224345;0.22023417;-0.25137135;-0.053705253;0.046793263;-0.06884897;0.07556751;-0.098225124;-0.08271503;0.057233267;-0.4613728;-0.45806646;-0.020559104;-0.0036062293;0.17424567;0.0734977;0.013466903;-0.06067932;-0.01787931;-0.119261734;-0.15616971;0.10727156;0.12702009;-0.049920857;-0.027260436;0.039259367;0.03352494;-0.044551484;-0.04290027;0.044223383;-0.055227816;0.25496462;0.12067917;0.1215819;-0.44629788;0.07985293;-0.025188617;-0.2841878;-0.04704184;0.2513131;-0.05256565;-0.0513391;-0.019208768;-0.14373343;0.12696128;0.039026838;-0.0048031225;0.011765683;-0.03633003;-0.033330943;0.4703918;-0.14686452;-0.012225574;-0.033083763;0.020630369;0.3600465;0.024230963;-0.0057026315;0.05105638;-0.01267047;-0.046035014;0.101760015;-0.08416941;0.020312382;0.069155104;-0.12854335;0.0020141988;-0.047963854;0.059494104;0.42537272;0.15257291;-0.2277171;-0.17081921;0.055436537;0.19711842;-0.19708839;0.14989948;-0.0539046;-0.07802088;0.018586542;-0.120597586;0.00046400074;0.0073764864;0.07070104;-0.06848897;0.051476136;0.21096677;0.1917309;-0.006865499;0.06659234;-0.21682915;0.025075994;0.105675355;0.010404967;0.010409886;0.17413487;0.04091104;0.3175338;0.097871915;-0.02538805;-0.0047317673;0.038975347;0.066064775;-0.09891578;-0.11421518;-0.13519074;0.026315223;-0.02915832;-0.020975688;-0.1864517;-0.11554496;0.21847947;0.0003587666;-0.15088505;-0.29514992;0.31258246;-0.06379998;0.01695848;0.28667176;-0.12983087;-0.00591641;0.05096693;0.043979485;0.20318343;-0.012219745;0.08059874;-0.033156756;-0.25603694;0.058331948;0.045549087;-0.105026916;0.05218155;0.016033199;0.033084825;-0.013413395
-0.07711538;0.15081523;-0.12054129;0.010291471;-0.06511842;0.08692976;0.04298987;-0.07644836;-0.13962625;0.10761577;-0.065401524;-0.17806624;-0.14814837;0.110266805;0.19050446;-0.038344733;-0.03741496;0.001178091;-0.07848419;0.08377514;0.09309125;0.041671623;0.042361617;-0.033623006;-0.54306024;0.016043834;-0.11729814;0.0939869;-0.07973626;0.01902373;-0.28564268;-0.10224135;-0.16233966;-0.16450618;0.014565661;-0.04218795;0.09790907;-0.11622177;0.10336522;-0.15101565;-0.008781051;0.34429595;0.17511198;-0.17881876;0.056584667;-0.020617759;-0.073185705;0.1677504;0.106038816;0.053517703;0.14937934;-0.022200774;0.3408704;-0.3776011;0.29540583;0.19013204;-0.010155532;0.22973418;0.029070172;-0.12487256;-0.32151604;-0.16950521;-0.121217266;0.030449428;0.035631415;0.023982028;-0.3355154;-0.22612783;-0.13522732;-0.019392693;-0.020171197;0.012592034;0.16970034;-0.092737;-0.00070346333;-0.03836867;0.018045392;-0.013563375;0.13599183;0.061632782;0.15659429;-0.057625733;0.08970751;-0.008708653;0.2613862;0.10397399;0.17372964;0.0786583;-0.05209703;-0.0027188251;0.09067507;0.14738896;-0.13656999;-0.049185988;-0.07747616;0.04691717;0.029811433;-0.20937;0.066334106;0.2578056;-0.036688782;-0.03545254;-0.015898658;0.040937643;-0.57122505;0.016929282;0.06402797;0.053171866;-0.07022645;0.2337634;0.17547485;0.014439178;-0.104424834;0.10152035;0.08062895;0.15280558;-0.055851143;-0.13194743;-0.0675657;0.1253685;0.032595266;-0.011808617;-0.016984122;-0.0372935;0.11779391;0.06855482;0.014847533;-0.09347919;0.2672969;-0.0059161833;-0.34721607;-0.28627187;-0.03998473;0.024155486;0.05216582;-0.008979051;0.18378642;0.07114886;0.07291129;-0.03706171;0.1881767;0.08965841;-0.08354373;0.2145225;0.08242439;-0.05258008;-0.16826989;0.046859194;0.041353803;0.30246308;-0.28705257;0.0844999;-0.032527823;0.22287998;-0.035374712;0.04806223;0.07661732;0.00870428;0.055448946;0.032171328;-0.18101975;0.30019978;0.037700355;-0.09743407;-0.08899555;-0.023864577;0.13241564;0.039223388;0.30335537;-0.18110393;-0.2721028;-0.089936644;0.016891735;-0.08598024;-0.015177054;0.051743496;0.06392231;0.04671866;-0.06474101;-0.36181074;-0.025256075;-0.001730829;0.1884398;-0.0027164004;0.0025073634;0.05866921;-0.118850276;0.1774084;-0.20582995;0.20346917;-0.0904834;0.21508181;0.07196381;0.0362505;-0.20966133;-0.09740677;0.12278886;-0.29211813;0.18438704;0.16134734;0.04394576;0.26193178;-0.16611049;0.089158185;0.33973843;-0.030458895;0.0099439435;-0.27589083;0.38518;-0.06870821;-0.072214834;-0.036138907;-0.3099744;0.07051208;0.05590721;0.044924185;0.036122873;-0.040999167;-0.13314427;-0.060572803;0.23636764;-0.13695884;0.18721369;0.04376569;-0.038311657;-0.14338216;0.029134005;-0.47888646;-0.043004252;0.29722607;0.044372696;0.24275634;0.14807223;0.12624063;0.14318858;0.04611011;0.13448244;0.30672672;0.016026339;0.12099958;0.16400525;0.08477457;-0.030993417;-0.19635001;-0.056597043;0.13864933;-0.18465589;-0.050837807;-0.021027692;0.040257543;-0.0571587;-0.07141723;0.21041048;-0.010321305;0.1437406;0.18535636;0.02086509;0.14959621;0.13421132;-0.05515096;-0.09060046;-0.32354936;0.06868464;0.0016673825;-0.16556987;0.048370898;0.15826935;-0.022409094;0.015019845;0.07809666;-0.11016911;0.013769773;-0.028985918;0.04073232;0.012484037;-0.07653688;0.040596303;-0.011124829;-0.0008265528;0.0783101;0.11356712;0.013222077;-0.009728208;-0.1774865;0.08764788;0.11298417;0.29633528;-0.029813867;0.21377183;-0.017063625;-0.21853167;0.1978277;0.037439443;0.07687577;-0.25242352;0.04606024;0.55279213;0.15183228;0.020854156;0.04466243;0.15331087;-0.024415461;0.008959833;0.103824094;0.049447794;-0.13179536;-0.1720957;0.037232358;0.08768506;-0.092415094;-0.051570386;-0.051871542;-0.091129236;0.21190292;0.044019554;-0.15159176;0.36922437;-0.008333622;-0.31363824;0.050699923;0.060753938;-0.042084657;-0.16857998;0.018622167;0.09429513;-0.056366716;-0.052962165;0.03796609;0.3675573;-0.05615315;0.09438434;-0.072741136;0.12230024;-0.04135412;-0.06925699;-0.048512932;-0.1191987;0.0689095;-0.025039375;-5.640349e-05;-0.014861684;0.0046589463;-0.1548033;-0.1529935;-0.06978189;0.36626235;0.16425298;0.09240764;0.2786642;-0.068465844;-0.058677897;-0.020697983;0.028942974;0.04464317;0.033421993;-0.106500685;-0.027984077;0.0129061835;0.007160881;-0.01859719;-0.03823584;-0.29783684;-0.06923143;0.2830045;0.00012610911;-0.029727314;-0.057926692;0.124328166;-0.13079198;-0.060935516;0.10394037;0.031790096;-0.11435786;0.03921772;0.1648692;-0.14500675;0.018395415;-0.041531354;-0.13539648;-0.05619336;-0.33374482;0.0055897445;-0.016735973;0.087584704;0.01614073;-0.05138845;-0.065124564;0.043007374;0.094621114;-0.062412128;0.10293882;-0.15590405;-0.00019188499;0.09662508;0.019657059;-0.34506524;0.08680136;0.086506635;0.05325826;-0.07671717;-0.02863029;-0.27241808;-0.090570435;0.11656039;-0.11977556;0.008915338;0.31223804;0.18428943;0.006838768;-0.044971187;0.4260558;0.12102173;0.027736735;0.38408527;0.31747812;-0.13048784;0.098120145;-0.08931432;0.06879613;-0.054853607;-0.001984894;-0.04812394;0.062624775;0.21203169;-0.10471103;-0.049426667;0.15192795;-0.069822095;-0.38161567;0.0037784383;0.33670044;0.164644;0.13370955;-0.04806589;-0.015283315;-0.03257829;-0.2691376;0.099344805;0.08036249;0.087968424;-0.16362146;0.14331008;0.10370051;-0.20345435;-0.052027732;0.05609139;-0.030447612;0.019206157;-0.16791883;-0.11695786;-0.037090488;-0.31011313;-0.42367056;-0.025961014;0.014435491;0.21053816;0.093500465;0.12028741;-0.058321435;-0.062557004;0.009454471;-0.19024128;0.17121285;0.14605708;0.04891697;-0.037081566;0.00826343;0.10486059;0.11886694;-0.06261447;-0.0029754266;-0.06606921;0.2243598;0.033187035;0.13086364;-0.4286656;-0.003148059;0.071165666;-0.14770211;0.010592034;0.12770627;-0.16955815;-0.010968356;0.006327417;-0.005932377;0.10161255;-0.028591724;0.07825574;0.028289312;0.07742243;-0.10197529;0.3623465;-0.07049634;0.018710224;0.008998199;0.031156193;0.28674087;-0.019610416;-0.06524389;-0.04141836;0.03724329;-0.007354561;0.11855654;-0.06898505;-0.044808563;0.028606443;-0.11633528;-0.008644269;0.09262684;-0.016225671;0.37052238;0.27057913;-0.2101837;-0.13034762;-0.078191936;0.22881706;-0.017833678;0.18270525;-0.057025798;-0.033972852;0.10702109;-0.084431954;-0.0057015256;0.057561778;-0.03630384;-0.09321036;-0.077131525;0.22093526;0.23109841;0.04007096;0.08547741;-0.124940015;-0.011964441;0.18075185;0.012778812;0.094644226;0.09943088;0.015432901;0.30245462;0.16365372;-0.0016877718;0.010290099;0.058945864;-0.048655033;0.0077282577;-0.15415154;-0.0930971;0.062494952;0.061411675;0.07086896;-0.013402161;-0.053417422;0.16191623;-0.021181237;-0.17085172;-0.3022715;0.22271915;-0.035303332;0.016896235;0.3743527;-0.063575424;-0.13636965;-0.019232234;0.02189791;0.1944654;-0.11925005;0.17190209;-0.027782487;-0.40617943;0.0021922295;-0.029549723;-0.050114594;0.027145887;-0.07091786;-0.049867265;-0.059447445
0.00795042;0.05930672;-0.1491579;0.01872263;0.0040411022;-0.054118812;0.056143463;0.03685118;-0.1357871;0.23341806;0.0097888475;-0.08976727;-0.20672229;0.1265221;0.11789377;0.06877654;-0.04168682;0.1098285;0.020730596;-0.048259154;-0.043704297;0.045285273;-0.016227853;0.035509456;-0.5261056;-0.018044852;-0.16094266;0.03719381;-0.07080122;0.078258716;-0.23049466;-0.2291922;-0.17059758;-0.16745622;-0.00946395;-0.047553606;0.0806259;-0.035848815;0.01975248;-0.16191795;0.04505243;0.2900409;0.16255932;-0.27138928;0.00036296388;0.10619903;-0.08300119;0.20713301;0.19179592;-0.09101925;0.13194208;0.03496641;0.25598982;-0.23217826;0.23332424;0.2031736;0.0028917254;0.19951762;-0.049823858;-0.094036;-0.32893354;-0.102248125;-0.13054192;-0.08845781;0.024654692;-0.00954361;-0.16096553;-0.25723502;0.014617454;0.014806686;0.030237887;0.057789385;0.20193912;-0.10307287;0.054449268;-0.004188573;-0.020601558;0.006005874;0.13752818;0.15724203;0.052486274;-0.17947057;0.05490187;-0.019467922;0.2850468;-0.014206893;0.03692121;-0.037381425;-0.0909152;-0.024356622;0.082656786;0.14006546;-0.07362873;0.120356955;-0.02965479;-0.019347357;0.037125997;-0.13510484;0.00028837688;0.26980436;0.11150973;-0.044006173;-0.08742394;0.050722618;-0.5193629;-0.056757558;-0.07883349;-0.058310516;0.04069091;0.3083284;0.14256927;0.01605441;-0.09414331;0.16754223;-0.0627909;0.22465903;0.021058219;-0.100329086;0.02826554;0.046482593;-0.05606381;-0.0945607;0.029558437;-0.056051105;0.18172073;0.02604735;0.04356572;0.03171961;0.11491898;-0.0072273863;-0.40004137;-0.29884604;-0.006257483;0.017858867;-0.018918063;0.0015433591;0.039076954;-0.08194505;-0.036218405;-0.030722199;0.27111912;0.23929965;0.049180966;0.29969203;0.057931606;-0.0751068;-0.011954124;0.025777053;0.04841127;0.41913262;-0.21736373;0.12697421;0.054038405;0.32510883;0.0090303635;-0.032993283;0.07859951;0.03482319;-0.055061318;0.019546302;-0.17279516;0.123715036;-0.08045986;0.04605088;-0.08290917;0.16040814;0.09773872;0.0879387;0.1558133;-0.069719486;-0.29075125;-0.15616228;0.061953418;-0.055639464;0.03985198;-0.06338381;0.11927278;0.008164008;-0.13469869;-0.3043159;-0.05778342;-0.036959726;0.20403397;-0.02710676;-0.028093116;-0.021643907;0.013112002;0.06907368;-0.24073535;0.21771906;-0.023355424;0.2975286;-0.07336499;0.046729725;-0.29345858;-0.048790425;-0.032121733;-0.14126031;0.20815253;0.08713996;-0.041783653;0.1773806;-0.26798132;-0.009971164;0.16829002;-0.0006288195;-0.052707013;-0.2566566;0.24930276;-0.07217554;0.037034877;0.034152098;-0.2962539;-0.07769257;0.047249235;0.018026989;0.015976654;0.06901287;-0.07559247;-0.05074002;0.08850268;-0.100513205;0.1351559;-0.04033698;-0.017205955;-0.098277465;0.057898175;-0.42823777;-0.07066365;0.41599762;0.005801285;0.14190598;0.067188986;0.14674248;0.27103004;0.0143410005;0.028041316;0.24235447;-0.0007457717;0.15905373;0.10332923;-0.013868612;0.007691391;-0.22966099;-0.025754591;0.018491806;-0.13789967;-0.19005378;-0.06019647;-0.028996395;-0.0079026725;0.00015115747;0.0553193;-0.0445375;0.059703168;0.23349838;-0.07470798;0.2016631;0.15694004;-0.18724199;-0.010889006;-0.2935989;0.024096085;-0.019474968;-0.20741053;-0.05547561;0.09463653;-0.042082705;-0.02979367;0.08919903;-0.09190399;0.10652193;-0.0031141844;0.11011325;0.058019653;-0.101050615;0.16223168;0.05331351;0.10802087;-0.0902685;0.14855175;0.022748467;0.0036789465;-0.1694536;-0.018178727;-0.0076203905;0.21853867;-0.113703616;0.13513026;-0.06946982;-0.21877801;0.22288465;-0.012598871;0.20133607;-0.3243229;-0.034046847;0.5919659;0.121030696;0.058953695;0.04933726;0.17354201;0.017964756;-0.08331352;0.12989861;-0.025376149;-0.101847574;-0.33136472;0.060597114;0.055161867;0.028800031;0.058527637;0.020302769;-0.06286154;0.014623078;-0.11684638;-0.16498138;0.42602006;0.0050078477;-0.34976274;-0.020110631;-0.059179507;-0.025153367;-0.093130946;0.046999846;0.18434598;-0.0052017393;0.05459191;0.010086952;0.28547812;-0.0035167497;0.33796573;0.0068705007;0.078244515;0.0011099654;-0.119346045;-0.022871865;-0.02619537;0.21538797;-0.0785861;0.04579225;-0.017421974;-0.046203963;-0.21332073;-0.20759797;-0.026700944;0.35893637;0.15867524;0.05940414;0.31517664;-0.0028308574;0.05232557;0.083022624;0.03706155;0.03644241;0.100719914;-0.012048185;0.064902045;0.09384882;0.012174582;-0.01565133;-0.013769803;-0.3039092;0.07002121;0.25903675;0.045275204;-0.06575435;0.065268375;0.14629339;-0.11267083;-0.012183203;-0.011029624;0.05436353;0.009117012;-0.043105293;0.11650224;-0.025566285;0.033596143;-0.036025885;-0.16660014;0.01058831;-0.2561861;0.029794596;0.0030586175;0.04120655;0.12337601;0.015190798;-0.025175404;-0.008072694;0.1512171;0.0676878;0.061795436;-0.044861004;0.057653923;0.11503615;-0.029214952;-0.31871262;-0.11659984;0.20838255;-0.007783725;0.06778325;-0.11331297;-0.27198222;-0.042397633;0.1613406;-0.06544155;-0.0045419354;0.29076484;0.15056692;-0.047909953;0.07801805;0.35691553;-0.0034291344;-0.06981895;0.39246377;0.41327113;-0.08086682;0.18007194;-0.026057668;-0.043557376;-0.06420451;-0.04341585;-0.021329857;-0.09018522;0.17318499;-0.25849763;0.07604184;0.12833513;-0.1364792;-0.31553462;0.045170687;0.1909801;0.10367186;0.20932281;-0.062423266;-0.04525908;-0.05298694;-0.25634688;0.20257641;-0.04742475;-0.098597065;-0.22783075;-0.026911395;0.13793586;-0.20545624;0.03500866;0.11095233;0.08062394;-0.08190022;-0.08054127;-0.08907527;-0.0380648;-0.30381498;-0.39094543;-0.10875438;-0.0517276;0.1998602;0.14230973;0.09900516;0.0648297;0.030194663;-0.09920356;-0.07002494;0.22642343;-0.011722956;0.044643056;-0.040075365;0.037421197;-0.0059137437;0.14799803;0.0744879;-0.06033341;0.014002543;0.18595883;-0.010569103;0.041213073;-0.40350682;0.07663902;0.03879255;-0.23491345;0.019145437;0.06199722;-0.19100648;-0.0031346648;0.015156211;0.14115751;0.20392148;-0.044375252;-0.0009930676;0.13333905;0.16131106;-0.05333547;0.46971214;-0.14810075;0.043209985;0.014458182;-0.0076531204;0.33002627;-0.1867328;0.035616226;0.08559475;-0.01806556;-0.023901097;0.07558535;0.010438085;0.049367305;-0.00015306141;-0.1329638;0.031074164;-0.014754607;0.024577603;0.3325461;0.27414003;-0.20466211;-0.12096128;0.007566751;0.2819939;-0.10249348;0.20583522;-0.000391954;-0.08867929;-0.038567107;-0.020977797;-0.10796207;-0.03185968;-0.031003548;-0.019078776;-0.036901224;0.15795349;0.07010323;0.16792752;0.017152252;-0.062664695;0.008581992;0.2120268;0.035324335;0.0378777;0.040364586;0.11954462;0.3461075;0.21654952;-0.05799894;0.044120297;0.04442924;0.028731782;-0.016300216;0.0053886566;-0.040943258;-0.060436178;0.033971645;0.060863107;-0.11314784;-0.17781262;0.1533097;0.05898208;-0.192283;-0.33217782;0.15930991;-0.04192968;-0.05252097;0.33889714;-0.07482227;-0.11124423;-0.020726057;0.056676067;0.11268874;-0.20876083;0.10871146;0.004624197;-0.42584446;-0.07974277;0.05677391;0.042342067;0.06157713;0.054535117;0.051845066;-0.13177441
0.034414593;0.0057133804;-0.003138102;-0.03627809;0.06078865;-0.016372493;-0.029232059;-0.026865996;-0.05880133;0.1191486;0.02283241;-0.09568425;-0.1549669;0.2993122;0.121271126;0.017340455;0.109697066;-0.038774557;0.06384204;-0.024720648;-0.0020049473;0.0143511435;0.02836409;-0.116495244;-0.4175063;-0.06819426;0.004723688;0.16007617;0.031148529;0.12436225;-0.11808662;-0.11567156;-0.116992034;-0.07595316;-0.042095453;0.07538037;0.03678406;-0.021995626;0.180136;-0.13012081;0.041391637;0.19239971;0.09084634;-0.14628428;0.0076892446;0.079184525;-0.08983821;0.22488858;0.15877543;-0.016865438;0.06863303;0.026756689;0.27818078;-0.15870947;0.22893699;0.16333406;-0.0048859785;0.15307614;-0.016317435;-0.046426594;-0.5702593;-0.10978893;0.023170948;-0.058809653;0.04559278;-0.06598177;-0.24864079;-0.2527221;0.047717717;0.013972103;-0.0028136768;0.09317231;0.19813612;-0.025855638;-0.005357353;0.06075478;0.058978546;0.07800732;0.1323313;0.011334874;0.10742972;-0.09879239;0.06581781;0.039378464;0.27520826;0.016700888;0.101500966;0.07724356;-0.0024371673;0.021742662;0.1836408;0.07836891;-0.17548853;0.15891542;-0.07609739;0.0034432702;-0.03425445;-0.036427096;-0.029411977;0.36956063;0.22948687;0.032570098;-0.048253443;-0.085379355;-0.4324591;0.0557685;-0.05257752;0.06719904;-0.0039664833;0.2572796;0.07666244;0.11260532;-0.014974605;0.2414813;0.018829163;0.25832516;0.067325436;-0.033747375;-0.04612658;0.08968753;-0.011654946;-0.20407577;-0.033761278;-0.07161865;0.119083755;-0.025874678;-0.04270033;0.15646522;0.091606095;0.026550831;-0.3627138;-0.24317734;0.014929206;-0.10192689;0.011094058;0.0812454;0.13606301;-0.082393855;0.027839031;0.08001712;0.2434284;0.26134434;0.047810446;0.17519534;-0.059505623;-0.17512004;-0.14081772;0.08577242;-0.052991677;0.411352;-0.18093587;0.0688946;-0.03073655;0.30931285;0.002240598;-0.093099155;0.06568707;0.042754278;0.003854901;-0.049894147;-0.11303801;0.23443331;0.062399045;0.022732357;-0.07123837;0.10115637;0.15553063;0.071916096;0.041476943;-0.0063218083;-0.24637982;-0.13401978;-0.14094308;-0.07277085;-0.054557957;0.045313586;0.04479827;0.06474693;-0.27779913;-0.31038955;0.04695254;-0.078425966;0.27781373;-0.03797421;-0.023007572;-0.017698066;-0.04110703;0.15146749;-0.20269433;0.30244923;-0.006181682;0.32128355;0.0076414426;0.044647127;-0.13803801;-0.08976094;-0.09881104;-0.10646365;0.28196412;0.10115691;-0.049727943;0.11930947;-0.2062808;0.010200102;0.31481084;-0.04316784;0.060407415;-0.10149369;0.263278;-0.02859277;0.06480189;-0.0003541361;-0.23582813;-0.06245865;-0.07425357;-0.018160118;-0.042680528;-0.05285455;-0.0042574955;-0.017486477;0.09881225;-0.029267887;0.1653733;-0.123651564;0.038978223;-0.19411995;-0.03633754;-0.34596014;0.04284107;0.40165412;0.03640566;0.26641595;0.047784586;0.1044301;0.26342046;0.08256797;0.19264176;0.23496991;0.039051145;0.18235382;0.04493591;0.026973745;0.0060832794;-0.12066643;-0.027545378;0.023475021;0.07639192;-0.20657882;0.015826305;0.037282787;0.023522949;0.040290587;0.18953675;0.01802911;-0.018294454;0.2888879;0.06549714;0.14411803;0.07338426;-0.098185554;0.011558322;-0.19792235;0.087215826;-0.007101639;0.0017168389;0.04712417;0.19695827;0.053595338;0.09635125;0.22308289;-0.08505145;0.08913683;0.06640096;0.12921521;-0.019696483;0.0620047;0.098440915;-0.07809727;0.016442824;0.013226037;0.23817274;-0.13451308;-0.034763314;-0.07676293;0.061857976;0.04693039;0.26161078;-0.1788979;0.13611844;0.00610108;-0.29569006;0.17936856;-0.06965587;0.016922666;-0.14299718;-0.011098814;0.4960471;0.16481209;-0.004002832;0.015272167;0.23909889;0.1275473;-0.07008069;0.11336351;0.011237933;-0.036309745;-0.25585026;0.03703096;-0.023716353;0.03758293;0.20472659;-0.07762312;-0.12694842;0.06427043;-0.05837132;-0.15087403;0.4726561;0.04460833;-0.3327875;-0.056778193;0.003124871;-0.0649306;-0.11068448;-0.069350965;0.036916185;-0.040730253;0.047583546;-0.014121907;0.40871915;0.06012072;0.27745366;0.028577888;0.1415809;0.08125785;-0.11043927;0.0071520032;-0.059696466;0.10002282;0.071548894;0.07709276;-0.00041284424;-0.0060844473;-0.14532402;-0.12332226;-0.17433217;0.2157276;0.13797148;-0.056273922;0.2913461;0.07401449;-0.011804079;0.14052026;0.062145073;-0.032828882;-0.051294878;-0.121400185;-0.04272125;0.1493802;-0.046640076;-0.1826264;-0.010101697;-0.31204435;0.033073895;0.42815566;-0.06279524;0.022641975;0.03397526;0.038580686;0.10130154;-0.07412186;-0.03139388;0.1026922;0.027638644;0.0021395667;-0.02822758;-0.12584549;-0.018581167;-0.05885946;-0.1242912;0.06254482;-0.23707587;0.14702727;-0.036515445;0.13799036;0.08545066;0.04114978;0.04878466;0.081020206;0.09851734;-0.06768238;0.07068616;-0.14126553;-0.00092694146;0.12117676;0.015525548;-0.26395184;-0.12333816;0.18142617;0.0050505963;0.026574215;-0.11613378;-0.09161041;-0.12839805;0.13977273;-0.049590714;0.013113032;0.24448214;0.04728671;-0.043949854;-0.103482775;0.37405524;0.019161193;0.046825193;0.3311247;0.27077362;-0.15421276;0.17898047;-0.18132241;-0.024857853;-0.0954111;0.03236019;-0.029714633;0.0035207334;0.16518508;-0.3106003;-0.055147294;0.08367378;-0.1671979;-0.31147;-0.01218572;0.19322339;0.03521369;0.15303378;0.04091903;0.051306438;0.07383938;-0.23574981;0.30042627;-0.031624533;-0.009296973;-0.21599995;0.06167708;0.016250534;-0.20790656;0.051398516;0.12224283;0.101986706;0.010452962;-0.06278402;-0.082770914;-0.008590796;-0.415251;-0.4414816;-0.20557486;-0.15200707;0.34786293;0.21577589;0.24325667;0.02052205;-0.045848668;-0.13501546;-0.1296187;0.08525157;0.04610798;-0.028009105;0.017298805;-0.051033154;-0.040128656;0.041431643;0.015921487;0.03648484;0.008509038;0.1822606;0.08798967;0.16615348;-0.4935946;0.13948566;0.012648321;-0.110848665;0.013160662;0.16791327;-0.21079181;-0.007263729;-0.02811998;0.23110722;0.19996747;-0.0344548;0.034477454;0.10616451;0.04759616;0.04647172;0.45367798;-0.26900926;0.03840842;0.01804836;-0.06490739;0.2270734;-0.19100326;-0.020569233;-0.05247749;0.11249555;-0.006829227;0.07826642;0.042456035;-0.0057139248;-0.10208404;0.030088926;0.034427293;-0.04346397;-0.06313096;0.3317376;0.3301982;-0.2006659;-0.20604405;-0.0079047205;0.3132212;-0.038790517;0.21044073;-0.063403465;-0.20269229;-0.057410993;0.023030275;-0.037783474;0.061362647;0.028881729;-0.15289399;0.049993046;0.27653456;-0.0014545533;0.19686574;0.00738685;-0.04050377;-0.060629822;0.10590458;0.05381408;0.06138145;0.07586294;0.036923766;0.3886702;0.11355369;0.06125358;-0.06285882;-0.0009217185;-0.07122686;-0.08409076;-0.06602149;0.03064466;-0.003564918;0.00016163646;0.1084997;-0.19063641;-0.1040982;-0.07746133;-0.05373231;-0.14465967;-0.38432226;0.23415227;-0.051415414;0.011513372;0.4370357;-0.13043773;-0.1224645;-0.001962314;-0.044522077;0.12250893;-0.10786169;0.26225063;0.06527148;-0.38074735;-0.064055495;0.14683348;0.016122043;0.050462436;0.020498028;-0.04522623;-0.0239757
-0.027153283;-0.064585835;-0.06071125;-0.014288515;-0.027029414;-0.06431014;0.02863602;0.014652073;0.043976296;0.13571711;-0.05396283;-0.24584073;-0.00043982442;0.27959484;0.18311791;-0.055055737;-0.04175426;-0.008516552;0.009626129;0.00068875036;0.044293344;-0.059996493;-0.02603989;-0.21482962;-0.5136228;0.012927494;-0.023758322;0.23512168;-0.048836295;0.09428204;-0.21937768;-0.04793472;-0.034512043;-0.13478352;0.09454728;-0.056421097;0.0932063;0.090541124;0.08289786;-0.07431153;-0.0778861;0.3217256;0.028830852;-0.19768552;0.027653934;0.0691636;-0.13523991;0.24407378;0.09795788;0.049252667;0.16332121;-0.023110451;0.2946105;-0.16685921;0.095508665;0.104024746;0.13235134;0.12406408;-0.06264624;-0.069679484;-0.51267296;-0.23594828;0.0328552;-0.055247776;-0.044380907;0.06684411;-0.24023272;-0.2539583;0.108240135;0.042383213;-0.038742736;-0.07341761;0.09526056;-0.05621787;0.0067766355;0.07895741;0.044704955;0.07619085;0.14285202;-0.016286125;0.064635865;-0.15430793;0.14292717;-0.012041723;0.1574049;-0.12675083;0.1567577;-0.0849522;-0.088706344;0.099731386;0.08492047;0.20407794;-0.10533887;0.26623628;-0.08054718;-0.02000249;-0.03266381;-0.07755326;-0.0027992295;0.4306946;0.2086899;0.11689254;0.106143706;-0.0974533;-0.45381832;-0.07536558;-0.0053247428;0.045059957;-0.071733356;0.31030238;0.09042554;0.22081874;0.0449091;0.18839598;-0.04988905;0.18094112;0.03998454;0.0025819466;0.076256454;0.06467388;0.08826023;-0.2515206;0.03337539;-0.031244135;0.10063361;-0.05660628;-0.004140477;0.072915986;0.05444114;0.024622375;-0.34794983;-0.2761112;-0.044353902;0.02806007;0.010864194;-0.056829467;0.17449653;0.03993181;0.017654194;-0.03679117;0.27343467;0.13333042;0.024032371;0.35532585;-0.015371661;-0.18918781;-0.022927348;0.21170437;-0.025733972;0.32657495;-0.08535769;0.05203847;-0.06172475;0.19730447;-0.022845358;-0.0013605983;0.08652367;-0.07359725;-0.05478414;-0.015556263;-0.06405832;0.25530693;0.006864236;0.053896464;-0.10373725;0.26108515;0.15503038;0.14727397;0.07765595;-0.027511768;-0.10802317;-0.027478544;-0.16878335;-0.038148392;-0.085985474;0.025624108;0.051064957;-0.07866543;-0.22884543;-0.2656691;-0.044111308;-0.06251969;0.13037962;-0.058485452;0.009652431;-0.041360777;0.024656115;0.17045863;0.004744974;0.1695175;-0.0009528758;0.27888593;0.04919042;0.019296573;-0.28786412;-0.10030596;-0.10344985;-0.22626537;0.28132167;0.17857634;0.034723543;0.107305676;-0.10260436;0.090660706;0.14247654;-0.04392957;0.01205524;-0.09768725;0.13754907;0.05648417;-0.009619672;0.0068005603;-0.18622625;-0.017154826;-0.023872832;-0.00706256;-0.10797124;0.02778794;-0.13761333;-0.16788043;0.016488425;-0.02404818;0.040741764;-0.022853391;0.020999918;-0.18637449;-0.022889402;-0.4363004;0.032517873;0.35427994;-0.04073458;0.15258357;0.021217166;0.15503371;0.29816657;0.06673375;0.05904986;0.2427371;-0.016294993;0.10849621;-0.029715871;-0.028677166;0.0027405133;-0.12366504;-0.0046025384;0.03789109;-0.010845555;-0.021971466;0.057940837;-0.0017412055;0.06677598;0.066833206;0.16914378;-0.1800856;0.014037157;0.31773263;0.042316895;0.010925519;0.11706659;-0.18161425;0.09926809;-0.045270596;0.17326024;0.003154594;0.076442674;-0.013957364;0.096925974;0.06522069;0.01287833;0.08641957;-0.19058569;0.108583316;-0.01652568;-0.005455402;-0.04752044;-0.010059834;0.048800513;-0.030602645;0.046181075;0.04742981;0.13293578;-0.049963698;0.0067360606;-0.041277997;-0.030005075;0.16932897;0.21399574;-0.17922376;0.10320185;0.037030622;-0.2162893;0.2028912;-0.0070481473;0.04395145;-0.14595328;-0.028654478;0.39655218;0.094054066;-0.004640942;0.007472044;0.12611206;0.043621767;0.053307664;-0.008153776;-0.016381215;-0.006191636;-0.34446204;-0.046386864;0.09624646;-0.08192836;0.16921458;-0.011745037;-0.08075844;0.06448606;-0.10897005;-0.20710006;0.3817756;-0.016267322;-0.2218827;-0.019440996;0.058633015;-0.0147226695;-0.07019567;-0.0082953265;0.1565355;-0.0050725853;0.013615817;-0.060345285;0.40581256;0.05478724;0.27783942;0.07959824;0.21836746;-0.049910367;-0.16562863;0.03229177;-0.17054066;0.17690082;-0.079250105;0.12974419;0.028130978;0.078144886;-0.11061989;-0.028552616;-0.13672884;0.29517132;0.040667452;0.0028902749;0.2569902;0.0049003656;0.03901826;0.050865564;-0.01260395;0.07363834;0.00040739359;-0.01620852;0.06351766;0.21145125;0.018656448;-0.093008064;-0.13570529;-0.3751002;0.03677194;0.45603684;0.01331482;0.004936681;0.014652105;0.021149479;0.1395149;0.08624263;-0.017193967;0.15369582;-0.06463851;-0.0420286;-0.072931826;-0.13450798;-0.02805389;-0.14795576;-0.08066565;0.026903924;-0.15625069;0.012648577;-0.050160054;0.22838607;0.15618552;0.014231119;0.027312767;0.13799356;-0.021657111;-0.016984835;0.060357895;-0.0761781;0.03478127;0.07106876;-0.00069276785;-0.32815263;-0.14776248;0.16627584;0.0010569703;0.022823766;-0.17190066;-0.12229534;-0.029040422;0.03783887;-0.086623125;-0.013580109;0.2358618;0.22044758;0.028161455;0.055494063;0.4021333;0.033565987;0.04554853;0.37200472;0.28776455;-0.048756845;0.08391131;0.017308008;0.10570394;-0.1836477;-0.07490812;-0.035913523;0.07595517;0.16232742;-0.29830125;0.04477362;0.12447139;-0.29230326;-0.35686457;-0.05793499;0.13037205;0.044200256;0.15472233;-0.037724547;0.017973924;-0.030672655;-0.22862893;0.1970142;-0.026921201;-0.02084559;-0.2050192;0.022065869;-0.048156947;-0.31402686;-0.037568193;0.21072225;0.17941123;0.06329841;-0.15535289;-0.12520014;-0.0378205;-0.5020312;-0.36390644;-0.2672601;-0.16918823;0.2446951;0.14637057;0.24803044;-0.064574614;0.06111676;-0.10670539;-0.022470815;0.11766352;0.05838015;-0.08120755;-0.020884106;0.036323667;0.02684293;0.07006746;-0.067659155;-0.12673049;0.02437976;0.27993917;0.08081836;0.11023057;-0.49243194;0.09945531;0.003270102;-0.06451235;-0.04374702;0.110330656;-0.11711222;0.06855194;0.037219856;0.23265372;0.36312222;0.06423047;0.023712326;0.14124568;0.14786172;0.21149848;0.4594123;-0.1527018;0.038815465;-0.0452862;-0.0814943;0.19676186;-0.105909795;0.0033962827;-0.00035673092;0.07156468;0.06988926;0.047632605;-0.0092059225;-0.013529703;-0.13760297;-0.0038494072;-0.050445653;-0.050953735;0.08178964;0.330093;0.23402764;-0.16593993;-0.10282016;0.062162276;0.3832726;-0.06312279;0.18478687;0.07456644;-0.13095026;0.032232802;0.058806922;0.05045788;0.01110943;0.015947493;-0.34455794;0.014286434;0.14691882;0.078000225;0.23490903;0.005079343;-0.20770104;-0.044321764;0.1222254;-0.024450518;0.17413026;0.0677983;0.11365245;0.40310013;0.039537188;-0.02837397;-0.0028154391;-0.07616253;0.031035976;-0.058971692;-0.075351655;-0.0093498835;0.024302425;-0.017936002;-0.02993483;-0.1833791;-0.11486258;-0.13282749;-0.07083742;-0.01119326;-0.28834733;0.20769654;0.018626468;-0.014473883;0.3540069;-0.068571486;-0.031048695;-0.012389023;-0.07507949;0.0020535202;-0.064298645;0.10548299;-0.021445539;-0.21277983;-0.09932227;0.08960028;-0.03487481;-0.07875363;-0.067750394;0.06338457;-0.16067573
0.042984508;-0.15641794;-0.0056187776;0.04021194;0.03256357;0.012893652;0.069684915;0.023005454;0.014230283;0.06347766;0.050775662;-0.10151482;-0.13620387;0.19661945;0.14583509;-0.012022279;-0.005790116;-0.0131683545;-0.086567275;0.009351131;-0.07599325;-0.043749675;0.013767288;-0.07115487;-0.5193742;0.09460197;0.01921191;0.19628344;-0.039990477;0.17099355;-0.13150232;-0.19822079;-0.207475;-0.1485271;-0.0308519;-0.02028404;0.013758471;-0.027235977;0.13484655;-0.19271398;0.05120877;0.2833804;-0.043153595;-0.10370125;-0.04626032;0.09063275;-0.1374982;0.29569748;0.12705465;0.00057128794;0.172647;0.0713112;0.25920177;-0.24363482;0.06444109;0.066148706;0.23113258;0.1921133;-0.008609256;-0.03076796;-0.45497587;-0.28273296;0.0028001077;0.066849306;-0.050233737;-0.0038927284;-0.13375504;-0.20996748;0.15868217;-0.035286024;0.029615682;-0.0024548315;0.16933773;-0.13163675;-0.006265373;-0.06740423;-0.08231678;-0.072535485;-0.020853944;0.017248543;0.11262578;-0.13570361;0.20158108;-0.05347677;0.19738483;-0.039001983;0.03260609;0.061332628;-0.036910385;0.11857342;0.027796492;0.13021111;-0.09094029;0.22489636;-0.044053003;-0.1032755;-0.07026174;-0.04776018;-0.044022113;0.4674633;0.2103918;0.0658632;0.07003567;0.019369762;-0.30796063;0.045358866;-0.015815627;-0.0154527435;0.029443523;0.23252033;0.022846809;0.18540661;-0.012658957;0.073314615;0.031734046;0.15808602;0.05368422;0.101938486;-0.043121863;0.057402946;0.013941194;-0.1622857;0.055825647;-0.029916022;0.1149391;0.0046825106;0.02162493;0.01816661;0.060101327;-0.013404415;-0.40549046;-0.3513193;-0.036087014;0.053726066;0.036648277;0.05538067;0.10705119;0.05223441;-0.0040836735;-0.023989018;0.25759718;0.24931492;0.057641156;0.2062928;-0.003109757;-0.07813951;-0.033395182;0.14595795;-0.049937002;0.387021;-0.021201432;0.1443742;0.008739661;0.28769964;-0.059719857;-0.0490202;0.092808194;-0.03458977;-0.03875938;-0.015408135;0.0885707;0.24771847;-0.0017714608;-0.078726254;-0.17109635;0.193552;0.13790543;0.11727688;0.034518722;0.113286555;-0.13685074;-0.05465325;-0.039654028;-0.12857483;0.06600765;-0.0816009;-0.10823906;-0.07657035;-0.19532436;-0.23493604;-0.054289345;-0.27787137;0.20920116;-0.0018531908;0.011259055;-0.029710399;0.085268654;0.12292533;-0.15704553;0.289226;-0.18785375;0.27883312;-0.04867238;-0.025358295;-0.30395216;-0.019830817;-0.15788102;-0.18032481;0.27296093;0.19604713;-0.051970217;0.18583807;-0.21703705;0.12600619;0.00879799;-0.107590444;0.05608063;-0.20799652;0.17972757;0.050791834;-0.02351394;0.03060998;-0.07923801;0.019167898;0.024967078;-0.0030589264;-0.117562085;0.06674344;-0.124669075;-0.23663369;0.024401147;0.041285384;0.0601076;-0.14797102;-0.051471427;-0.116094664;-0.029872162;-0.40432993;-0.015957087;0.3324036;-0.0010178704;0.16119495;-0.00027101612;0.14322425;0.26557267;0.02852115;0.002550562;0.2885572;-0.009491814;0.14005557;-0.07849716;0.10638753;0.04868342;-0.194868;-0.03902996;-0.07863759;0.058448434;-0.040015563;0.07347586;0.040261943;-0.07816167;-0.03211947;0.027699763;-0.16597523;0.06117541;0.32128245;-0.04151217;0.023063933;-0.045712583;-0.2140511;0.14839652;-0.17161754;0.12399092;0.03381055;-0.13242042;0.01774889;-0.0015565918;-0.0484017;0.043426048;0.056621943;-0.2155269;0.13439524;-0.029893005;0.076020084;-0.064713955;-0.060082074;0.083571956;0.06322394;0.014029251;-0.09653521;0.2658399;0.021423813;0.021928638;-0.13934548;0.0072427248;0.24360497;0.07127413;-0.19072577;0.10836547;0.06590875;-0.240667;0.16985777;-0.0122066215;0.08228486;-0.11968073;0.06724943;0.31250325;-0.044839688;0.024668843;-0.03495361;0.27644023;0.17923738;0.025304198;0.07820744;0.026877835;0.09225902;-0.19248645;0.033932395;0.067888975;-0.02203869;0.17149273;-0.08785378;-0.020471053;-0.0014384787;-0.089341424;-0.29489827;0.438982;-0.009675862;-0.14039584;-0.07612783;-0.05989573;-0.04334938;-0.08778836;0.049599204;0.17003953;0.06700241;-0.075785026;0.0651509;0.4883015;-0.03623272;0.2859402;0.016329572;0.14436454;-0.030425463;-0.17485628;-0.110346176;-0.03987552;0.13060226;0.037757576;0.07629825;-0.06211918;-0.027315086;-0.056705385;0.004849716;-0.056505617;0.2274716;0.011920255;-0.063499674;0.25252214;-0.07282997;0.014313855;0.055881646;-0.046476506;-0.06406283;-0.021893928;-0.18468459;0.055810817;0.19535492;-0.08000507;-0.10413542;-0.1586853;-0.3435808;-0.016592769;0.5293764;-0.008508019;0.049293354;-0.071281426;0.1088557;0.12250872;-0.09763861;-0.024341179;0.1178215;0.12877025;-0.03995064;-0.12370036;-0.053863674;-0.012309441;-0.0073896362;-0.1368428;-0.06015475;-0.23493655;0.105768755;-0.011001448;0.05893266;0.31234083;-0.014794965;0.023201073;0.10678152;0.15228891;0.024481531;-0.011926136;0.039851192;-0.017107587;0.015517443;0.036488295;-0.3233983;-0.08179103;0.10063389;-0.013136921;-0.030353118;-0.09388807;-0.07840491;0.03602341;-0.01565969;-0.04803835;-0.07910947;0.16911337;0.02477083;0.039467297;0.0811202;0.40307608;0.063891836;0.063059196;0.39208376;0.1991957;-0.017706435;0.0511895;-0.013664163;0.03198324;-0.055720154;-0.0064400765;0.07238328;-0.06909553;0.20450585;-0.20646505;0.0042375918;0.07221111;-0.21706674;-0.31025994;-0.04478245;0.1608555;0.0083089555;-0.024311613;-0.0028212941;-0.040904738;0.031133084;-0.09356604;0.33383062;0.019023627;-0.07148357;-0.2198821;-0.035164487;-0.07841651;-0.19684301;0.025610326;0.27397493;0.109729454;-0.013085838;-0.05943332;-0.14855422;0.046591047;-0.44842046;-0.52535546;-0.2631345;-0.26230463;0.32264307;0.052778862;0.30212644;-0.011432881;-0.059456512;-0.13535938;0.006188135;0.04550782;-0.012194895;0.084389776;0.0322322;-0.020867316;0.10643657;0.06209689;0.017154755;-0.2095154;-0.069237195;0.29515913;-0.018194474;0.15353833;-0.4097641;-0.058962967;0.026016425;-0.030136732;0.06509244;0.24239953;-0.14343415;-0.09032845;-0.038437236;0.44787243;0.32590428;0.011509888;-0.039103974;0.08999564;0.14011906;0.27301157;0.37129414;-0.21068263;-0.062636904;0.023029981;-0.015173464;0.224614;-0.19876316;-0.041929293;-0.044338327;0.102518424;0.050209504;0.04042333;0.05136938;-0.008139808;-0.17575897;-0.043429464;0.005941653;0.06426625;-0.066280946;0.29504806;0.20532398;-0.14351806;-0.103854276;-0.0020176985;0.3031583;0.00823109;0.21703877;0.031656347;-0.21923986;0.119221136;0.06911596;-0.03081439;0.010324998;0.073654786;-0.29061615;-0.004241829;0.2752709;-0.043514587;0.21501757;0.07219534;-0.23992607;0.09231945;0.12811722;-0.06806124;0.062053118;-0.044026237;0.15249734;0.3587262;-0.052231822;0.037045818;-0.006469522;-0.057601858;-0.024445543;-0.06943232;-0.14324358;-0.08589138;-0.058260936;-0.028333213;-0.03442167;-0.07193046;-0.22188263;-0.21541533;0.067984745;-0.040468644;-0.3282583;0.088581406;0.06609292;-0.00663081;0.36806536;-0.15011038;-0.107221425;-0.012834413;0.07619674;-0.050406333;-0.15144125;0.09417512;-0.037373737;-0.35844913;-0.014954677;0.064459644;0.048550308;-0.12570101;0.06162666;0.026600331;-0.24142158
0.054193098;-0.17833662;0.11477015;-0.030330209;0.03743553;-0.0659687;-0.032016937;0.005341609;0.08955245;0.0038939712;-0.032137536;-0.16729803;0.07045191;0.21244717;0.048836622;0.0061872806;-0.10936609;-0.08411138;0.03524172;0.10046683;-0.037282016;-0.03869022;-0.05097996;-0.22640191;-0.42920333;0.17774446;0.06299395;0.25223157;-0.07404979;0.17432876;-0.07206946;-0.02970037;-0.09735873;-0.077430144;-0.05070885;-0.039324578;-9.883869e-05;-0.0873685;0.10875335;-0.13959716;-0.021970697;0.24823372;0.10058531;-0.16472222;-0.05563812;0.07985201;-0.16907676;0.2594374;0.15328154;-0.05140818;0.10910296;-0.058049705;0.25780636;-0.23047732;0.14094561;0.109306954;0.2197574;0.116672754;-0.039919086;-0.0641836;-0.37839916;-0.18943262;0.086613;-0.046076365;0.021402618;0.026930172;-0.20030831;-0.30095556;0.21443442;0.036581624;0.03467394;0.12056888;0.07161243;-0.052294586;-0.00545614;-0.021535587;-0.050289594;-0.110116206;-0.009468394;-0.13075282;0.06683571;-0.089602225;0.10827148;-0.018206833;0.15572688;-0.12750821;0.06917463;0.028516756;0.050411686;0.09671505;0.14157626;0.14542514;0.0013465703;0.16113041;-0.0879699;0.031252723;0.03055041;-0.060079645;-0.032157462;0.43793592;0.24252638;-0.032340445;0.08480785;0.034674693;-0.33187047;-0.0096911425;0.059534244;-0.013942408;0.049016636;0.2461618;0.05398423;0.15761337;-0.008651382;-0.050073996;0.009630209;0.21204473;-0.03377277;0.10351388;0.02285283;0.0998;0.015975256;-0.19227505;-0.04985604;-0.069217876;0.082667835;-0.06810935;0.058378555;0.044472616;0.022909656;0.0048839487;-0.43812886;-0.34928966;0.019644462;-0.014540044;0.081607774;0.008412747;0.1211594;0.030484287;-0.05628043;0.054703865;0.16337413;0.16184558;0.036656987;0.17766964;-0.0172254;-0.043158762;0.0038752416;0.10296423;-0.02967554;0.3238616;-0.06579507;0.08196335;-0.018108644;0.12201631;0.057428647;0.01033206;0.0982733;-0.03595422;-0.01449918;0.024586132;0.035540927;0.22397701;-0.0543575;0.0063120644;-0.14157161;0.269348;0.0053597847;0.10065284;-0.094812505;0.17765668;-0.19816065;0.026522448;-0.0894143;-0.07020852;-0.048965614;0.021156618;-0.21373688;0.011059593;-0.21815732;-0.22026435;0.06596312;-0.34488922;0.15729256;-0.10812204;0.08134473;0.09024527;-0.026240965;-0.013802894;-0.04336496;0.25608972;-0.16402549;0.30222905;0.023929592;0.0049760803;-0.33032802;-0.06017938;-0.26650676;-0.16513872;0.19177468;0.21870315;0.085335866;0.15410405;-0.17743064;0.13987501;0.027175771;-0.09487701;-0.062328495;-0.19301933;-0.0009240142;0.07728938;0.00769862;0.032509547;-0.086471274;0.019382557;-0.017365616;-0.055489846;0.027109781;0.010757903;-0.07557385;-0.08840423;-0.07102603;0.016104573;-0.019137297;-0.20065056;0.010400061;-0.20241775;-0.009068666;-0.40807572;0.08213103;0.28038025;-0.07611159;0.12790667;0.0068201814;0.13265857;0.22547631;0.055087447;0.124580145;0.19790596;-0.069148436;0.07214261;-0.074018575;0.015255382;-0.03942248;-0.17722137;0.0496764;0.0059422087;0.025430469;-0.00054430217;0.061938222;-0.035042543;0.019882446;0.03849156;0.15318877;-0.16208391;0.0563884;0.2819902;-0.006825072;-0.11628121;-0.023606092;-0.11695195;0.19572005;-0.10187893;0.22283839;-0.04105609;-0.0671808;-0.051788256;0.13958761;0.011007199;0.08640224;0.1452995;-0.19016097;0.078883246;-0.03849311;0.13281387;0.064751565;-0.021109432;0.04288654;0.023020688;-0.016992437;-0.014484458;0.23215981;-0.05208346;0.0462996;0.03875488;0.022868045;0.16814315;0.066368885;-0.09739766;-0.014356473;0.05508272;-0.11704295;0.24976152;0.0028677157;0.089577794;-0.08204713;-0.03906078;0.417133;-0.010511093;0.044193424;-0.051651068;0.20720227;0.10914331;0.08238061;-0.037878286;-0.05755847;0.089553185;-0.26833093;0.0032177893;0.14670959;-0.17352629;0.14442661;0.039516807;0.10724824;-0.04555135;-0.09821268;-0.40085292;0.39307344;0.042920142;-0.04780237;0.077099055;0.043613106;-0.0061885514;-0.07013292;-0.01683993;0.21721849;0.013764674;0.0022250959;-0.054342624;0.385988;-0.029070914;0.1933008;-0.030457798;0.15123178;-0.056046516;-0.13128658;-0.026445223;-0.10207966;0.16712096;0.0058113066;0.21575671;0.038686752;0.008729206;-0.032127842;0.13306636;-0.1261477;0.13346751;0.075061336;-0.04140547;0.31633043;0.044942632;0.023078369;0.18779853;0.044548158;-0.10205826;0.068251535;-0.16006008;-0.07600736;0.19280463;-0.0060607167;-0.048681248;-0.16119738;-0.31857392;-0.046585537;0.34792852;-0.010313442;-0.05242329;0.06767118;0.042351358;0.10358885;-0.073007114;-0.015575026;0.11376561;0.06985006;-0.06313945;-0.0021358116;0.018696237;0.0049443594;-0.19091764;-0.0067727123;-0.030061359;-0.20928672;0.019145107;-0.036852732;0.012069132;0.2691465;-0.0297777;-0.023714919;0.15639155;0.0037015816;0.009197265;-0.12065282;0.07607712;-0.022684267;0.006497459;0.014896929;-0.20283714;-0.10781538;0.11754957;0.0055058473;0.06034817;-0.14069575;-0.13793977;-0.008617454;0.118151344;0.02106343;-0.033866;0.09349944;0.14890154;-0.014856167;0.16561328;0.3591771;-0.038065683;-0.074268855;0.36008433;0.20247997;-0.068477124;-0.08651297;-0.04146156;0.07788687;-0.20944998;-0.050774712;-0.043924488;0.025032796;0.21327405;-0.27600265;-0.049799956;-0.033762146;-0.1777684;-0.33066234;0.002483946;0.15599258;-0.0449639;-0.0862633;-0.039838698;0.061337158;0.020832863;-0.10932022;0.35128132;-0.049089424;0.0020507947;-0.16040447;0.08918884;-0.15354675;-0.094791204;-0.015735798;0.29516262;0.23411666;-0.046478443;-0.13444747;-0.22198422;-0.012090758;-0.48834047;-0.548144;-0.17636317;-0.34482643;0.22086756;-0.0051454734;0.31349692;0.015252133;-0.020746473;-0.23552452;-0.011502801;-0.020277793;-0.04347598;0.10381407;-0.014614455;-0.050255787;0.099779114;-0.017646033;-0.032257568;-0.09301031;0.0330358;0.3578409;0.0077947993;0.046183597;-0.40449905;0.060719196;-0.0386578;-0.09265427;0.016170673;0.1764968;-0.077329904;0.025769698;0.046773896;0.46590713;0.27494898;0.018395582;-0.051770758;0.13345568;0.0671683;0.22881353;0.37465012;-0.2646055;0.025810126;0.06803947;-0.050739866;0.04186481;0.01347596;-0.03999275;-0.04215514;0.16358076;0.019104766;0.09542713;-0.038982254;0.07817517;-0.098389104;0.05455897;-0.022693202;-0.00504236;-0.054756593;0.31328362;0.28207707;-0.055196147;-0.18080768;-0.02574095;0.41526175;0.07156981;0.28126374;-0.03611239;-0.29958108;0.116024025;0.07154352;0.030495241;-0.008061354;-0.07537968;-0.39700833;-0.0006240288;0.2164425;-0.05481924;0.25526088;0.10143245;-0.1138026;0.009416213;0.27964088;-0.044764455;0.12569155;0.08107675;0.11437183;0.20106287;0.029708754;-0.051439606;0.06415664;0.036966562;0.021264767;-0.011195195;-0.0732547;0.0670634;0.012893189;-0.018108606;0.0057916674;-0.018516388;-0.0629007;-0.20281956;-0.010506886;-0.065545686;-0.34593388;0.021689419;0.05848071;0.028998258;0.20622995;-0.14568843;-0.14970687;-0.02277692;0.05417649;-0.097748645;-0.067114756;0.16718633;-0.036911443;-0.31941912;-0.23883945;0.055752803;-0.03124004;-0.06060637;0.055829994;0.016058842;-0.19597462
-0.057658523;-0.27164695;0.034505412;-0.040779304;-0.03931209;-0.12827855;-0.06533282;0.012790987;0.17118959;-0.011593113;0.041704297;-0.088534035;0.1314087;0.11425539;0.13026528;0.0142042525;-0.15446502;-0.098073766;0.071438566;0.00079655065;-0.113088265;-0.03135897;-0.10569775;-0.26965657;-0.43408963;0.19380152;0.16036877;0.14656933;0.005162157;0.17966445;-0.120677315;0.0010889284;-0.18805017;0.106249474;-0.04152308;0.07189426;0.008781988;-0.02061978;0.002333522;-0.15922925;0.017002247;0.3423481;0.09693039;-0.13849263;-0.022850541;0.038720272;-0.22337659;0.23671299;0.12082175;0.002689111;0.10561213;0.025991438;0.17113012;-0.11303808;0.18501438;0.13345808;0.15532914;-0.016659215;0.07592321;-0.0007586185;-0.28701547;-0.11508277;0.18742143;0.06779802;0.004756539;-0.019881994;-0.069456115;-0.15187666;0.14034395;-0.06667295;-0.06640147;0.06469795;0.14313367;-0.030051365;-0.05827605;-0.04976092;0.04584345;-0.001962743;-0.12891963;-0.093819834;0.13582407;-0.16811205;0.16498521;-0.006331717;0.3003334;-0.079682685;0.17020188;-0.08725872;-0.0512349;0.11160542;0.14287463;0.07565657;0.022013746;0.18314044;0.016617112;-0.014850673;-0.024256082;-0.0019809194;-0.049953792;0.33553657;0.22311608;-0.12705156;0.07090962;0.030992497;-0.17847835;-0.082317226;-0.074495785;0.02188818;0.014211426;0.05809353;0.05700663;0.1973452;-0.024694482;-0.016856916;0.055883344;0.20674458;-0.06587641;0.058315184;0.009137947;0.073613554;-0.01121376;-0.24264471;0.059984557;0.0072038816;0.017383972;0.047978446;-0.03782865;0.0054529267;0.0066585713;0.004684165;-0.37559748;-0.18329878;0.011513124;0.002975731;0.18593541;-0.054420695;0.14848435;-0.07977532;0.05310212;0.028210819;0.15653646;0.18039723;0.010768926;0.33158368;0.05333513;0.0035238713;0.09698127;0.11783654;-0.024219207;0.27656543;0.08284527;0.10479588;0.006476762;0.20819107;0.059099562;0.10525604;0.0043832557;0.05610555;0.0026294526;-0.050308146;-0.008548866;0.23699771;-0.01209013;0.072816215;-0.14841782;0.18337725;0.045806717;0.02979994;-0.16196519;0.2625414;-0.31000972;0.0608952;-0.11452843;0.035228673;0.047802385;0.042870536;-0.14056848;0.037905104;-0.07271022;-0.17388621;-0.01665041;-0.3010323;0.1031136;-0.06677888;-0.046127535;0.040105157;0.060570512;0.07622121;0.015154019;0.23218544;-0.1531193;0.24739376;-0.029682932;-0.08702783;-0.2520939;-0.08418381;-0.22830698;-0.09912582;0.17631605;0.06218401;0.09908498;0.22422168;-0.12976143;0.05551917;-0.021389352;-0.15457708;0.009933038;-0.03366897;-0.17969179;0.00023448815;0.00843858;-0.06562064;-0.054672834;-0.020724293;-0.042512696;0.06266543;-0.04758381;-0.060864545;0.012920113;-0.124019906;-0.103725664;0.15241393;0.028010475;-0.061759014;-0.06491345;-0.1145035;0.04457965;-0.50432813;-0.046022948;0.21913902;0.022161273;0.2500222;0.020522924;0.06426902;0.29424977;0.077856004;0.018079305;0.27520183;-0.03100462;0.0953694;-0.12089666;0.121013075;0.052205723;-0.14903513;-0.0064971675;0.11909452;-0.0025527135;0.0934016;0.16321777;-0.029626431;-0.061803907;0.04587262;0.24902901;-0.14744423;0.12045766;0.32175916;-0.039480347;-0.057872757;-0.048202313;-0.19867326;0.10474139;-0.02017847;0.20564939;-0.00213669;0.007594467;-0.04669565;0.072628275;0.026467105;0.10278127;0.07291139;-0.18839158;0.09866368;-0.0047737523;0.067583695;-0.023631249;0.002665805;0.050806947;-0.041344628;-0.049353763;-0.0814604;0.26118478;-0.11276767;0.05876073;-0.13630892;0.1539813;0.2019277;0.11714932;-0.21065317;0.023640897;0.017128408;-0.08015585;0.2368005;0.028433992;0.002164235;0.011775084;0.0099330405;0.32810324;-0.26756862;-0.027788656;0.022653561;0.19107276;0.06426372;-0.03051007;0.07674361;0.047843106;0.022121262;-0.1147504;0.08586066;0.17428988;-0.26943588;0.1060958;0.080193415;0.25441545;-0.052319005;0.077093735;-0.24624334;0.40270284;-0.080099344;0.007281584;0.07046831;0.016872233;-0.049251452;0.013742729;0.055939075;0.16812178;-0.06483518;0.05957102;0.01951797;0.3700594;-0.067539945;0.18665113;-0.025761094;0.27040917;-0.03188313;-0.16332547;-0.047380365;-0.09747903;0.15459672;-0.07212754;0.07914045;0.04617042;0.049312897;-0.03006512;0.14967296;-0.17542636;0.17142355;0.048196487;-0.024268094;0.38782468;-0.0582224;-0.06978151;0.118178226;-0.017550383;0.03379257;-0.047017746;-0.34655216;0.04340457;0.19988829;0.033122387;-0.05386219;-0.24993898;-0.33996084;0.046098754;0.36777952;0.05644232;0.07006016;0.017876448;0.08893295;0.051893156;-0.06809597;0.12696461;0.1448611;0.1319649;0.07542138;-0.022519251;-0.02523094;-0.05911984;-0.1513071;-0.16415235;-0.040789198;-0.079469614;0.12933892;0.02686569;-0.14021336;0.28335574;-0.06649056;0.023322491;0.07525452;0.10225962;0.048494164;-0.043682907;0.11309221;0.05303947;0.0029745162;0.01804266;-0.21018273;-0.14600675;0.22092107;-0.067539915;-0.031195428;0.0048609287;-0.16332798;0.005383181;-0.0021762827;0.025146961;-0.028809065;0.0627092;0.14078039;0.03812849;0.13541806;0.38592088;-0.001895027;0.026474047;0.44130716;0.21225186;-0.0073782164;-0.075358085;-0.06773261;-0.07036835;-0.13947515;0.034798786;0.061291136;-0.0040806085;0.15970235;-0.22500077;0.0628556;-0.042121436;-0.2656149;-0.2613494;0.06333962;0.101562336;-0.0138163;-0.0827966;0.07438653;0.06356333;-0.03972688;-0.0020688477;0.24403225;0.048589397;0.06554924;-0.3217136;0.056626532;-0.014413438;-0.0066360356;0.0014025153;0.20392351;0.20484167;-0.06782734;-0.052053653;-0.18722549;-0.043195177;-0.37191004;-0.4472511;-0.17788102;-0.20864694;0.1345701;0.07572996;0.27795687;-0.053154413;-0.084165595;-0.23478651;-0.081395455;0.034707446;-0.014403369;0.18214896;-0.023983985;-0.021714216;0.06902144;0.038176425;0.025182966;-0.082266964;-0.008818508;0.4627615;0.064780325;0.083608344;-0.43855497;0.054260418;-0.038382325;0.029615322;0.051166307;0.11798668;-0.12373584;0.068692245;-0.019969773;0.487746;0.29835278;-0.028219074;0.06941456;0.15789336;0.1555063;0.32207158;0.39837834;-0.30135185;-0.054579765;0.008755203;-0.19279815;0.12211967;-0.078506604;0.07991658;-0.01938262;0.06843425;-0.038169954;0.1216275;0.059387006;-0.049922813;-0.044134244;0.12917025;0.03931031;-0.046570733;-0.032579113;0.2960187;0.12858932;-0.07812568;-0.10148248;-0.0038357603;0.4470944;0.02053212;0.20392652;0.037514213;-0.18247733;0.11517444;-0.09366004;-0.019923313;0.054198913;-0.035419047;-0.37552965;0.0395263;0.19333187;-0.2746249;0.3443623;-0.015471427;-0.089315854;-0.03578986;0.23895934;0.036118057;0.25511104;0.06403136;0.16813713;0.124611706;-0.0014569208;0.04010803;-0.061193317;0.038500726;0.032960013;-0.058587763;-0.15007383;-0.0748498;-0.037736103;0.01394186;-0.024122253;-0.10350051;-0.012617993;-0.31562096;0.029739223;0.010124183;-0.33528692;-0.0113178035;-0.09799372;0.05252743;0.23539215;-0.22482102;-0.17626664;-0.05102339;-0.037486535;-0.16831401;-0.025128227;0.053257808;-0.004923464;-0.26531202;-0.1939704;0.024190132;-0.11121596;-0.10717518;-0.03924818;0.034466513;-0.20884405
0.016141778;-0.28304872;0.043017387;0.07121346;-0.031811785;-0.04273693;0.062135577;0.038447935;0.19401686;0.08646874;-0.022195427;-0.108757734;0.06035932;0.067557395;0.008448605;0.075722046;-0.0050407443;-0.20193368;0.0008697408;-0.011019227;0.013968474;0.074555956;-0.20698607;-0.3717288;-0.45481545;0.10901975;0.072238825;0.19387376;0.09314721;0.15030557;-0.1723188;0.0009599102;-0.09109299;0.057240818;-0.01601167;-0.006580481;0.0719266;-0.04151993;0.07427155;-0.020842057;0.015806835;0.2286743;0.0768031;-0.18782586;0.031750966;-0.055610184;-0.23674512;0.19811052;0.060352422;0.06360379;0.018182263;-0.053444963;0.23288865;-0.21834493;0.0884488;-0.019170722;0.16399752;-0.09712272;0.011616146;-0.02424845;-0.33682424;-0.22592002;0.12549318;-0.04759275;-0.032377888;-0.036625862;-0.12431061;-0.1157379;0.19084473;0.01386263;0.022647278;0.1763797;0.15496893;0.021631302;-0.039940454;0.064990334;0.0575337;-0.034449723;-0.07646214;-0.05664141;-0.025119789;-0.077181;0.15928423;0.036285475;0.27486193;-0.17546125;0.105311766;-0.0033482404;-0.051138707;0.124819756;0.1325909;-0.0031704283;-0.017475711;0.16123064;0.06899088;0.098878145;0.026017148;0.042985857;0.08227016;0.32558724;0.12673786;-0.086674415;0.020308834;0.0136852935;-0.22483549;0.0336037;0.038300652;-0.054840747;0.015926985;0.18059999;-0.030389078;0.3429628;-0.10504664;-0.12663132;0.020064315;0.40325314;-0.00769526;0.1497521;-0.068564534;0.010889326;-0.03779504;-0.20044324;-0.06804218;-0.014038969;0.065448165;0.00090583396;-0.07756437;0.0634232;-0.04487921;0.017374622;-0.42776725;-0.2573205;0.02184004;0.047588136;0.0783948;0.008201008;-0.009342102;0.057872333;0.008066001;-0.030248404;0.17070836;0.17817369;-0.025766687;0.22412997;-0.060817372;-0.01189984;0.18174997;-0.03000039;0.064657465;0.33678982;0.060089767;0.09601688;0.013297726;0.11502814;0.018242765;0.2008648;0.080693185;0.026585257;0.032388967;0.07854803;0.15836225;0.17521921;0.072007954;0.004044285;-0.088213004;0.32872337;0.07697296;0.1363484;-0.18213677;0.14582841;-0.31934017;-0.008387381;-0.053770717;-0.08875111;-0.070967294;-0.028451042;-0.15966332;-0.07036695;-0.18148218;-0.14844696;0.044190906;-0.34947217;0.038232226;-0.09315643;0.08011757;-0.059071064;0.05563221;0.01625344;-0.104271434;0.26172727;-0.28204146;0.18600534;0.079397194;-0.0017625951;-0.25680804;-0.19023179;-0.14214246;-0.041512996;0.13974875;0.11840706;0.07334661;0.08237038;-0.11240082;0.054959234;-0.12739685;-0.20418544;-0.048469458;-0.074434064;-0.12812875;-0.023571631;-0.048363946;-0.021261647;-0.057063896;0.014346785;0.059874944;-0.028156428;-0.073105894;0.03799925;-0.02802149;-0.10212096;-0.023736008;0.054270077;0.03861547;-0.20226453;-0.058020167;-0.081550926;0.07925975;-0.47579852;-0.048668537;0.1195992;0.043345198;0.16964093;0.040869117;0.05954622;0.2946465;0.14569905;-0.062163778;0.34069428;0.08999054;0.09035614;-0.13383178;0.048189722;-0.025400013;-0.25856084;0.06841697;-0.002057035;0.05791147;0.17619893;0.18801303;0.032359656;0.05829382;0.021988854;0.23969102;-0.06926828;0.062367056;0.19360967;0.0048141414;-0.14005774;0.110461816;-0.20672588;0.2394613;-0.0533829;0.32453638;0.01048501;-0.12090008;0.041723613;0.055276707;-0.013493394;0.037186787;0.092542015;-0.24667652;0.17176881;-0.028619464;-0.01771534;0.032834966;0.028220013;0.053928487;0.047614988;0.05951281;0.08098837;0.16168548;-0.09660525;-0.05169911;-0.20994908;0.19661313;0.254321;0.15142447;-0.2532414;-0.059285756;0.0142801525;-0.12589978;0.20954815;-0.02014246;0.044225775;0.022521198;-0.037432354;0.27591226;-0.26034334;-0.008967694;-0.05206913;0.22142383;0.08683316;-0.054301083;0.08928844;0.01934715;0.14967358;-0.2134256;0.17380163;0.17543587;-0.2973608;0.22405064;-0.029630998;0.28666154;-0.045172736;0.09436385;-0.29694623;0.37564602;0.042702734;-0.073396444;-0.015844353;-0.054248843;0.0077983644;0.056589294;0.040712442;0.22118121;0.0056029484;-0.08587159;0.06282788;0.25840804;0.07116518;0.11567033;-0.0045950403;0.22391546;0.06266215;-0.25966913;-0.052976746;-0.11113277;0.214634;0.048490345;0.071142726;0.051688857;-0.044880737;0.038974512;0.23929077;-0.20568286;0.12239264;0.026688768;-0.042084996;0.3131939;-0.0057724994;0.06693463;0.0797944;-0.008608268;-0.120372795;0.0677197;-0.2734872;-0.020968026;0.35608378;0.03844306;-0.06378448;-0.22855186;-0.28180656;0.026988018;0.26656958;0.020030804;0.030563977;0.034464672;0.11503023;-0.004331412;-0.17053303;-0.044619422;0.18747273;0.16363989;0.019426433;-0.07450527;0.005641093;-0.0042203916;-0.09885717;-0.008312725;0.06538661;-0.1938211;0.074364476;0.02992586;-0.10898539;0.20101248;0.008933752;0.0020612467;0.18869701;0.06550872;0.0019114888;-0.050149396;0.13950069;-0.08392282;-0.049749304;0.012831726;-0.19994956;-0.067199096;0.16066179;0.043322563;-0.034172382;-0.0050478377;-0.23692018;0.04440526;0.044521913;0.036088284;-0.09381745;0.118252866;0.22228743;-0.04074118;0.10261999;0.22887355;0.14424305;-0.006899015;0.4105692;0.040677298;0.08676784;-0.10024263;-0.058897607;0.015602582;-0.22461718;-0.049295694;0.039040368;0.0039438694;0.030303061;-0.273109;-0.06045059;0.0018865488;-0.10641827;-0.20409428;0.041791357;0.043531507;-0.13284309;-0.072981045;-0.006615938;-0.03776874;-0.062087126;0.0075263;0.15673317;0.03893876;-0.07566681;-0.19042411;-0.03063613;-0.110537454;0.04136962;-0.008056395;0.21436888;0.27613416;0.041636646;-0.21049903;-0.21091679;-0.0067503564;-0.28932768;-0.5418745;-0.21088614;-0.25608823;0.20278764;-0.023992615;0.34920213;0.09175125;0.0034678201;-0.26476604;-0.057084262;0.05052153;-0.093189195;0.29482868;0.06404661;0.012150905;0.03908207;-0.050333153;-0.00847804;-0.091623284;-0.0050526685;0.44964674;-0.09611239;0.13954072;-0.5055567;-0.0103663895;0.0037084916;0.08967384;-0.03371951;0.24743468;-0.19305843;-0.03773781;0.047394525;0.45942724;0.28546986;-0.049225338;-0.0759987;0.23735037;0.09608683;0.30694738;0.39453584;-0.2673688;-0.014044844;-0.06304212;-0.20535564;0.044555996;0.02190859;-0.019866886;0.04783805;0.07236337;-0.006050212;0.1044438;-0.05785277;0.034132365;0.0067683146;0.05115101;-0.04328391;0.0068158256;0.01735945;0.29788634;0.19357096;-0.081654385;-0.12542565;0.015245489;0.49755517;0.101963334;0.35555586;0.08430174;-0.20320132;0.10292896;-0.038043622;0.10017721;0.023378689;-0.051935475;-0.3653069;-0.007155145;0.14383908;-0.25526732;0.15289524;-0.040833894;-0.070052475;-0.03469008;0.13679568;-0.097883865;0.24711683;0.04862517;0.1497774;0.18356223;0.021438766;-0.054066576;0.032169256;-0.052779544;0.0026251464;-0.09296682;-0.11302136;-0.050598346;-0.04363029;0.041081782;0.027413037;-0.07181236;-0.0709622;-0.21027353;-0.03031074;0.089913696;-0.36513713;0.09787024;0.014026417;-0.041644845;0.24974318;-0.2704882;-0.17915624;-0.16052578;-0.020293899;-0.17521706;-0.064949654;0.05669612;0.03924669;-0.3165875;-0.18155648;-0.039017186;-0.07409079;-0.10088528;-0.036060125;-0.084753476;-0.123752974
-0.0060714586;-0.39662153;-0.010149619;-0.007873536;0.035759877;-0.08182992;-0.0535225;-0.032578852;0.21773387;0.111855365;0.0026055838;-0.06805772;0.20700777;0.021485226;0.045017045;-0.058292758;-0.10726625;-0.1067363;0.06432848;-0.026430078;-0.09946708;0.061495114;-0.23085275;-0.42225057;-0.35942787;0.0969335;0.2133792;0.25734365;0.04812657;0.24525069;-0.26154262;0.044751484;-0.058127303;0.180249;0.054961875;-0.024556376;0.028730404;-0.085026674;0.023966659;-0.007340579;-0.0037182649;0.28233927;0.18282317;-0.023448577;0.024003994;0.046253417;-0.23249754;0.14709485;0.025645263;-0.0014305102;-0.02207514;0.0425814;0.2696009;-0.13570257;0.08380635;0.04857944;0.05824274;-0.060761563;0.11582016;-0.077272706;-0.35305768;-0.094059885;0.21418378;0.03325408;0.034219194;-0.048762567;-0.048081823;-0.31522414;0.03130445;0.08465744;0.06508489;0.1480118;0.11640004;-0.19418886;0.0035146964;-0.087729394;-0.020091124;-0.018526815;-0.17041698;-0.025684975;0.094007;-0.079815365;0.12034331;0.04018537;0.3471455;-0.11503524;0.09681747;0.025250541;0.025965916;0.0382537;0.18161148;0.103043325;0.0060030767;0.16563213;-0.020590093;0.081692114;-0.012868766;-0.037043236;-0.038595457;0.26989985;0.17667829;0.026315937;0.1345437;0.01729198;-0.1053987;-0.024526402;0.092815086;0.047102723;-0.031863187;0.077607304;-0.1225544;0.3223549;-0.08654378;-0.12963325;-0.017572159;0.3200501;0.008833601;0.0933302;0.06294847;0.1332426;0.12771279;-0.107405715;0.03761628;0.0969906;0.020756532;-0.021288365;0.012027733;0.010400628;-0.0065060314;-0.057562023;-0.4167504;-0.2959518;-0.0122468015;-0.0028222383;0.15108818;-0.001999967;-0.010277123;-0.007123582;-0.009832946;0.015206849;0.19788301;0.12519683;-0.028087914;0.20163593;-0.04182431;0.055896133;0.107697085;0.073293;0.051453874;0.2766456;0.22129408;0.14681141;-0.0094551025;0.0758907;0.010402703;0.056473035;0.100420564;-0.0045227804;-0.033627592;-0.01246777;0.109522074;0.27310026;0.007924994;-0.0573892;0.037044562;0.4090097;0.05148577;0.07322812;-0.10960698;0.25426036;-0.30236986;-0.06469982;0.029656589;-0.1457912;0.050610203;0.027373767;-0.13952333;0.036479212;-0.115990296;0.05987981;-0.06258544;-0.3595761;0.17057563;0.03988338;-0.03969862;-0.048906207;0.085356854;0.022148931;0.0162373;0.2389963;-0.24489103;0.23287393;0.01590859;0.058056902;-0.14621514;-0.103209496;-0.09765327;-0.08795025;0.023564119;-0.020995747;0.1492597;0.24129151;-0.12859848;0.14912356;-0.28885722;-0.199566;0.01549847;-0.11189593;-0.17777628;-0.018339587;0.051511735;0.014019339;-0.02367969;0.05058509;0.03247343;-0.034165703;-0.06741845;-0.059191976;-0.05721748;-0.061532434;0.0074806064;0.082417525;-0.10335703;-0.19952433;0.09183071;-0.028284619;-0.050477028;-0.444814;0.019831933;0.1172927;0.0007041553;0.113602415;0.09926443;0.032602597;0.13112098;0.1857011;0.0038230862;0.20127302;-0.038469598;0.03016775;-0.13655365;0.11355246;-0.0040437686;-0.16739133;-0.087611966;0.0035623687;-0.0054572225;0.22270745;0.22956787;-0.008154835;-0.055967636;0.2115992;0.23875155;-0.15233488;0.08183732;0.32278928;-0.10594897;-0.21485111;-0.0090835495;-0.26237214;0.21205357;0.006100445;0.27474058;-0.048582524;-0.095934674;0.021200104;0.15171246;-0.055791426;0.07999545;-0.0052451566;-0.21578288;0.20694682;0.09278801;0.09828061;-0.08008852;-0.027354047;0.07145733;0.023085695;-0.07033579;0.082194105;0.25801077;0.051638756;-0.00035696418;-0.1861731;0.1820922;0.28200483;0.17278738;-0.26477668;-0.12927486;-0.055487335;-0.12835725;0.34860876;-0.058432564;-0.016332865;-0.036963508;0.016296428;0.2068776;-0.31990415;-0.0752811;-0.030643111;0.23444968;0.01820878;-0.055591483;0.06990955;0.036414187;0.14422011;-0.054224536;0.052480854;0.3094814;-0.18206097;0.17053694;0.036850374;0.32759255;-0.21896283;0.14054948;-0.2764967;0.45992836;-0.052848198;0.041692745;0.02357513;-0.005491821;0.041074444;0.032273926;-0.04939257;0.267901;0.04202115;-0.019819759;-0.021125484;0.25832015;-0.045622464;0.14166518;0.0027477571;0.24878538;0.020892944;-0.31110242;0.074993946;-0.13798094;0.13030699;0.0509455;0.019682845;0.032104563;0.024258818;-0.018060101;0.07686154;-0.11636229;0.15602116;-0.18005016;-0.0015419035;0.2178974;0.052662;-0.06874164;0.08653563;-0.015087484;-0.11693491;0.0918607;-0.3560903;0.02674565;0.31818342;0.093175136;0.07838955;-0.10869823;-0.37166464;-0.00878882;0.28977558;-0.073888235;-0.015059758;-0.046916597;0.02210086;0.07276146;-0.20483282;0.038416795;0.15202211;0.062833406;-0.016189495;0.0587936;-0.022171607;0.0432739;-0.12775867;-0.16252851;-0.0546539;-0.17147705;0.08937399;-0.0033021288;-0.091283694;0.2547056;-0.009938056;-0.025209753;0.14000107;0.10487112;-0.08191778;-0.11761108;0.25856218;0.017408263;-0.010431335;0.01803061;-0.30945367;-0.08814253;0.19478816;0.056309983;-0.057841178;0.034913264;-0.0673956;0.05197022;-0.08855507;0.009753718;-0.078848824;-0.05098191;0.18282951;0.051341727;0.21845044;0.2673498;0.037785035;0.05921912;0.3701523;-0.0039715064;-0.0074594077;-0.20964716;0.01416521;0.019296426;-0.2069763;0.032921955;-0.05746524;0.041876774;-0.043927472;-0.20300569;0.04880783;-0.024888283;-0.26250973;-0.0905241;-0.06584655;0.05965051;-0.19185224;-0.15514582;0.028997883;-0.07979843;0.032760948;-0.11915393;0.11020414;-0.011361025;-0.03746595;-0.12260056;0.057399;-0.07861702;0.09367233;-0.0037899169;0.06167782;0.24555923;0.04431165;-0.17788813;-0.18960638;0.00371998;-0.33197233;-0.5217247;-0.10014848;-0.20665011;-0.0057322304;0.0025163868;0.35898829;-0.01441199;-0.0072458033;-0.30644125;-0.02795178;-0.048671316;-0.0652005;0.15006037;0.03639916;0.047798082;0.13354078;-0.07809785;0.05985798;-0.0052326587;0.025259048;0.46958393;0.030930342;0.06918409;-0.42472467;0.17700373;-0.047493532;0.083416075;0.031695675;0.08936474;-0.09760734;0.05739508;0.026956487;0.42338327;0.23321392;0.039258495;-0.030620843;-0.017995449;0.08034842;0.34765798;0.42257315;-0.3612504;0.044430766;0.026963947;-0.19634804;-0.07020236;0.073508434;-0.021908348;0.059911665;0.13909478;-0.023993304;0.1652921;0.025879702;-0.026166813;-0.014106953;0.07524234;0.014778378;0.050558783;0.06304952;0.25914162;0.05672143;0.14738211;-0.09993772;0.060184635;0.43722266;0.14220105;0.39498663;-0.066559285;-0.1909236;0.17384326;-0.13399512;0.034733847;0.081104584;0.047524624;-0.4670202;-0.07212352;0.17473699;-0.40169862;0.16543224;0.09392555;-0.021680614;0.004444711;0.18508506;0.05410222;0.18060012;0.095535055;0.22837067;0.11253004;0.0017914614;0.019504335;0.046757244;-0.026926205;-0.06659206;0.042981334;-0.18366608;-0.010679559;0.04662987;-0.08119991;0.019125458;-0.063289486;0.0486275;-0.098875634;0.05445299;-0.032603506;-0.34285533;0.048231687;-0.009392578;-0.020736968;0.28384066;-0.1597542;-0.20191371;-0.060498953;0.05580039;-0.049465165;0.019831743;-0.03452925;0.079557605;-0.18628933;-0.16058;-0.037717115;-0.12773854;-0.0857664;0.056144536;-0.054870605;-0.08484815
0.041756976;-0.30698663;0.028339984;0.0062952754;0.010250478;-0.10368444;-0.04702978;-0.038711894;0.16388254;0.046077553;-0.035758134;-0.072367944;0.17761567;-0.09945074;0.027244696;0.004388974;-0.14413866;-0.19891521;-0.085400596;-0.042246167;-0.023209615;-0.048951015;-0.31636027;-0.3139308;-0.22862561;0.22728351;0.16212912;0.16773662;-0.0014486742;0.28195667;-0.21628726;0.17298909;0.043841314;0.21836792;0.009380498;0.0142664015;0.033950906;-0.09010235;-0.008759426;0.053775586;0.03940722;0.28091338;0.09618165;-0.1177934;-0.028083306;-0.03200737;-0.10045337;0.12056813;-0.0485165;-0.07971572;0.07038325;0.07786585;0.13706306;-0.22962792;0.0780443;0.073881604;-0.01166684;-0.2069365;0.12646167;-0.05642436;-0.26675388;-0.04742195;0.28570938;-0.011803175;0.03461092;0.018874487;-0.17661746;-0.235471;0.09795508;-0.01964917;-0.026773423;0.21679665;0.13460918;-0.20580609;0.07060128;0.01770283;0.0078089233;0.1136086;-0.15841225;-0.02109857;0.022826647;-0.08608256;0.06995325;-0.006066715;0.21664996;-0.09505755;-0.031171715;-0.067539245;0.090721965;0.10840877;0.09535187;-0.0051763523;0.013804421;0.14746271;-0.04471538;0.060698636;0.08215149;0.15360308;-0.0371416;0.2903743;0.15927713;0.020311637;0.0051084356;0.051184528;-0.2443838;0.004952609;-0.045524597;-0.024275819;-0.058260832;-0.010759515;-0.1368952;0.29506;-0.09265881;-0.17189793;-0.023106653;0.40956014;0.0434175;0.18771522;-0.008658355;0.08334098;0.15503252;-0.26117173;-0.011669251;0.03993304;0.010967567;-0.04190031;0.050330065;-0.057546765;-0.058128346;-0.036895946;-0.2568175;-0.47612476;0.08578684;0.002529163;0.13543133;-0.0076996735;-0.03861346;-0.084000215;-0.031238193;0.012584108;0.050044682;0.20228969;-0.030465564;0.17821175;-0.031611368;-0.065369636;0.12996879;0.10120919;-0.016120639;0.22954524;0.14001808;0.11325339;-0.006179912;0.22595002;-0.07288166;0.1375132;0.009489667;-0.06529085;0.03413936;-0.0068860804;0.106303014;0.24182911;-0.03867147;-0.025743112;0.06689317;0.4178191;0.03781244;0.115443125;-0.12987913;0.17028248;-0.10539876;-0.10504339;0.0414684;-0.13312669;0.031267878;-0.035836156;-0.16710056;0.051467173;-0.07369502;0.08343225;-0.027173832;-0.38250068;0.14557813;0.03135207;-0.029126601;0.028539183;-0.0814233;0.11562572;0.0702435;0.1689318;-0.27275333;0.16927786;-0.06418148;0.07441569;-0.24418053;-0.108905606;-0.10016096;0.0035698349;0.066550285;-0.027156683;0.12066157;0.22732997;-0.26915765;0.087003626;-0.2761832;-0.35676432;-0.028160874;-0.09503061;-0.26094154;-0.014929996;0.057068557;-0.02619782;0.07152724;-0.02969382;-0.016424924;0.052949402;0.009444812;-0.012370538;0.07288218;-0.08693276;0.022729777;0.084911466;-0.09914139;-0.22209597;-0.013121493;0.09388331;-0.015006421;-0.30738264;-0.028319264;0.1598286;0.046551056;0.16134836;0.11237103;0.053690333;0.2235641;0.21568401;-0.024700973;0.23892197;0.0030642997;0.043463442;-0.1940276;0.087470196;0.024996663;-0.17191337;0.00091855734;0.06934681;0.009972962;0.2880774;0.15788087;-0.0761404;0.041030005;0.1377436;0.34129128;-0.1495728;0.080680996;0.16198492;0.07222369;-0.14385435;0.076367564;-0.19357947;0.19307761;0.20224148;0.3324869;0.041234348;-0.09439996;0.002228129;0.25415173;0.06772521;0.16003768;0.05999436;-0.09135463;0.19683276;0.007381244;0.055308837;0.06559759;0.06863577;0.1110451;-0.053089574;-0.013646913;0.008423975;0.1646045;-0.022043487;-0.033228822;-0.28111038;0.17694089;0.18269184;0.119974636;-0.24745521;-0.06288879;-0.05858341;-0.09684471;0.34333944;0.06211361;-0.022369696;-0.021187376;0.05849594;0.10241414;-0.2956191;-0.0137912445;-0.0041183378;0.11690532;-0.025610467;0.037927054;0.14436765;-0.0551261;0.14094362;-0.056129556;0.083254755;0.2949928;-0.12138406;0.17001654;0.03885377;0.22128156;-0.19251014;0.044638153;-0.28972027;0.3770261;-0.052706804;-0.05414507;-0.02438838;0.049996864;-0.030716697;-0.0034812684;-0.021953573;0.1844432;0.017103188;0.058200072;0.011818662;0.28865823;0.07084941;0.11924837;0.019753443;0.07405764;-0.03808953;-0.19340622;0.0751547;-0.10551075;0.09442096;0.018803665;0.021448776;-0.017276948;0.029886309;-0.04717352;0.099646844;-0.018962374;0.008818627;-0.17127505;-0.08607536;0.19761707;0.039590627;0.011768819;0.014458144;0.0026878125;-0.18047866;0.008493408;-0.22246285;0.04348617;0.31798396;0.098809265;0.15000029;-0.104492635;-0.36972874;0.07380324;0.2005652;0.021380605;-0.05909759;-0.011894841;0.11203876;0.100993164;-0.26328096;-0.06259113;0.06278654;0.07503636;0.06886035;0.08558849;-0.08015603;-0.052012045;-0.26550832;-0.007234296;0.053551454;-0.16074343;-0.0056792805;-0.08108297;-0.075981304;0.11080432;0.0507394;-0.057992186;0.15085079;0.04880165;0.024367869;-0.12865528;0.06563577;0.058314186;0.08561286;-0.038506493;-0.13336116;-0.17521441;0.17684442;0.056708198;0.06038361;0.022920787;-0.021267802;0.13607544;-0.007904737;-0.075482346;-0.15602757;-0.007029097;0.13043262;-0.043580823;0.21536976;0.21597126;0.030039685;-0.038272075;0.4859792;-0.0070857205;-0.07009031;-0.1751969;0.03909907;-0.012675141;-0.20313704;0.040330645;0.024463465;0.013958936;-0.036792308;-0.14454946;-0.025081975;-0.11161148;-0.23861192;-0.08775981;-0.058588542;0.015050008;-0.17519316;-0.12197303;-0.04776316;-0.015077404;-0.058671553;-0.077451535;0.18580219;-0.009789394;-0.055640146;-0.025298169;0.058132406;-0.11545664;0.049272437;0.019936811;0.097161055;0.13703191;0.034659892;-0.08666003;-0.14740588;0.07975688;-0.27448526;-0.42478544;-0.12639283;-0.16754977;0.023269648;-0.09105642;0.23723562;0.0641876;0.045384005;-0.38360503;-0.17055917;-0.025179759;-0.022379857;0.16562337;0.03177642;0.06266839;0.10654836;-0.079726785;0.041007627;0.07718597;0.01026079;0.4127915;0.04752589;0.047007695;-0.5190689;0.07852779;0.042990904;-0.053375173;-0.08682925;0.20773363;-0.1258403;-0.0739637;-0.052124646;0.37436673;0.32856086;-0.05026162;0.061566193;0.013900556;0.059792224;0.365702;0.49334365;-0.20245017;-0.031104958;0.02236684;-0.15123713;-0.009990946;0.021480625;0.038972806;3.6224355e-05;0.06759115;0.034285214;0.15711412;0.062460847;-0.03807209;0.048324;-0.051538084;0.06474641;-0.065077975;0.010949147;0.30470884;0.14631906;0.13323559;-0.24837294;-0.067319386;0.32638928;0.21021464;0.36332497;-0.003927686;-0.1858706;0.078713655;-0.03759286;0.021966899;0.03323626;0.031694647;-0.4551051;0.060033023;0.08115874;-0.41072607;0.2445455;-0.037280954;0.08597749;-0.010309032;0.237457;0.046094947;0.027360331;0.06967473;0.019976238;0.09419782;0.006988039;-0.02023629;-0.034673575;0.003154022;0.03435281;-0.027302096;-0.22877538;-0.088099524;0.03607647;-0.017871795;0.020913728;-0.031026255;0.08579247;-0.17179373;0.0014501951;-0.12647319;-0.2885506;0.05026175;0.030232474;0.032617964;0.16957948;-0.14093326;-0.18992357;-0.029739015;-0.06250813;-0.055904604;-0.11017998;-0.080297515;-0.012388597;-0.18653822;-0.0942443;-0.060659543;-0.13645226;-0.18986297;-0.031492572;0.05002123;-0.045152497
-0.06203572;-0.31626588;0.019837609;-0.012606093;-0.025449472;-0.047870617;0.06172158;-0.0013709123;0.12780377;0.1014905;-0.039021466;0.021126172;0.20915683;-0.040770505;-0.031192807;-0.008302561;-0.1830448;-0.14390683;-0.002986106;0.0457793;0.036076166;-0.056000467;-0.21001072;-0.37688446;-0.42687765;0.12770262;0.13544099;0.29491642;0.056487363;0.21789017;-0.21529882;0.14509286;-0.01582701;0.23286961;0.015378347;0.014596662;-0.054710116;-0.020683795;0.107882164;-0.004785965;-0.00044638952;0.22826366;0.030801544;-0.046736203;-0.043745633;0.050775167;-0.18222849;-0.0030757182;0.09014049;0.029155368;-0.04199207;-0.015081151;0.19217743;-0.19550383;0.14643084;0.0315981;0.03504164;-0.24372686;0.20352226;-0.05303516;-0.20992342;-0.09380313;0.2258178;-0.017473416;0.005565312;0.00074840046;-0.0756911;-0.21951751;-0.024676947;0.0036325417;-0.05356698;0.16754174;0.113213874;-0.07335471;0.041903455;0.06104927;-0.08705958;0.02403534;-0.107844934;-0.13208292;0.13043974;-0.10838454;0.07324309;-0.009052494;0.16107748;-0.035786;-0.0018202681;-0.07399385;0.082539834;0.0077539408;0.22785322;0.039698042;-0.06635057;0.0037925697;-0.10464613;0.0013618802;-0.04367178;0.11419066;0.041255683;0.2829318;0.061599553;0.061718844;0.046115335;-0.05142873;-0.086199015;0.03608218;0.019520184;-0.050885245;0.037898857;-0.15453947;-0.15739197;0.22782934;-0.17020005;-0.14337638;-0.01606979;0.39242154;0.044829667;0.1813408;0.017007876;0.020645432;0.069097124;-0.09360368;-0.044607062;0.06026555;0.06204868;0.05907871;-0.006706278;-0.10841234;-0.09533253;0.05341488;-0.22102386;-0.538238;0.021509487;-0.0045932233;0.03495186;0.07852405;-0.003522813;0.04048146;-0.012583439;-0.024467435;0.07483856;0.24714777;-0.01940987;0.15312576;-0.09995447;-0.02728362;0.15439036;0.053511035;0.013047517;0.16714188;0.05772197;0.018103838;-0.013940077;0.26272416;0.031865124;0.20757806;0.010510938;0.086885;0.05579999;-0.0035035887;0.12778157;0.083059646;0.01949472;0.039815526;0.15622912;0.5180289;0.0851964;0.073860444;-0.21582837;0.15700153;-0.24728668;-0.0511008;-0.08056104;-0.2071777;0.009324896;0.039477225;-0.08768872;-0.02965908;0.041281577;0.069104016;0.0102307405;-0.4030111;0.027679456;0.07969372;0.0009077005;-0.0036727833;-0.030926596;-0.03379684;-0.077181324;0.20640703;-0.2373457;0.15450928;-0.020454424;-0.04746609;-0.27774578;-0.1142256;-0.14199474;0.029771034;0.21605204;0.056054212;0.10211515;0.25249037;-0.17100783;0.036190208;-0.3949475;-0.29208052;-0.03893268;-0.08121855;-0.37958586;0.028893508;-0.059532065;0.023676505;0.0019274409;-0.023309506;-0.038477175;0.05644082;-0.061336942;-0.0063020117;0.1080354;-0.06874031;-0.072213925;-0.0005899723;-0.064053595;-0.19405827;0.024444612;0.14315791;0.016741946;-0.2114623;0.0112280585;0.084010094;0.0015072055;0.1058829;0.15420476;-0.032948636;0.2747855;0.18768036;0.06517815;0.188873;-0.035643313;0.10975744;-0.00837325;0.15677918;-0.018166495;-0.08486275;-0.012211381;0.021343369;0.090100735;0.2990902;0.15523699;0.03454171;-0.01918518;0.26187018;0.29688355;-0.21242613;0.08561707;0.09227496;0.014608726;-0.16776253;0.029074375;-0.06800193;0.38243264;0.1479193;0.29786;0.02854043;-0.1614819;-0.009563917;0.23228022;0.034865525;0.17776531;-0.027055152;-0.1345786;0.08225551;-0.03417232;0.10967337;0.041846003;0.051917657;0.2031393;-0.04194573;0.007694135;0.027458187;0.29680872;0.044501163;-0.017886136;-0.1362706;0.09687715;0.121709906;0.048503105;-0.15355298;-0.0635483;-0.04218479;-0.013643626;0.43571958;-0.041301485;-0.015133685;0.07032032;-0.0045929975;0.16871183;-0.35265148;0.019469567;0.012124604;0.1104484;0.060782664;-0.017559592;-0.035830937;-0.03670515;0.24243228;0.10565148;0.02460854;0.33242738;-0.17404574;0.26680017;0.03570356;0.30470616;-0.17140652;-0.04962163;-0.21698508;0.3828131;0.04557447;-0.028266666;0.0025271233;-0.03249052;-0.06931182;-0.030926464;0.04271372;0.10861431;0.023563331;0.035141278;-0.067292914;0.21882077;-0.07710184;0.12558189;-0.010206953;0.055647824;0.064865544;-0.23012632;-0.0045764367;-0.30158728;0.16057998;-0.059381817;0.07904984;-0.066598676;-0.019358447;0.042298604;0.008054451;-0.15003073;0.068959504;-0.21803598;-0.05214027;0.13084236;0.053968348;-0.019126762;0.04857509;-0.06869585;-0.1965267;0.06612844;-0.31987822;-0.05240405;0.27008933;-0.0075536575;0.19011916;-0.015969688;-0.28513318;-0.06655464;0.25354186;0.015996803;-0.020124415;-0.013257515;0.12480536;0.109079584;-0.36913687;-0.03829533;0.07318325;-0.0007394925;0.052399293;0.1586262;-0.038671114;0.05764066;-0.2769803;-0.08988634;-0.00038022126;-0.22080179;-0.04118702;0.019178065;0.009290733;0.29533494;0.014153273;0.03877278;0.20370506;-0.072081596;-0.037269205;-0.13554154;0.0023868901;0.0013249629;0.18045862;-0.048883278;-0.23506951;-0.14128195;0.25502652;-0.021323623;0.04000163;-0.05060965;-0.06854405;-0.022950944;-0.14019553;-0.019907095;-0.21734956;0.008276797;0.14991808;0.05990502;0.09561977;0.24818401;0.008363025;-0.050430305;0.52524614;-0.15367997;-0.05138174;-0.19456264;0.022182988;-0.030533526;-0.14543466;0.023650346;-0.026348032;-0.067123905;-0.14451756;-0.15222897;0.00087675196;-0.063140586;-0.2104872;-0.047220897;0.065536544;-0.047049113;-0.1692941;-0.22922532;0.019620629;-0.061103966;-0.069094196;-0.08122814;0.19908549;-0.026626514;-0.06636284;-0.08702592;-0.0030808107;-0.13344021;0.17290643;0.011200008;-0.04272583;0.08382006;0.07473483;-0.10820019;-0.21065176;0.013627022;-0.42594406;-0.5152148;0.00020865956;-0.13487859;-0.07431318;-0.102841295;0.25397345;-0.051589966;0.055858783;-0.17474371;0.004310347;0.012444942;0.08962071;0.13743562;-0.038413078;-0.06083866;0.17946628;-0.12331129;-0.05856782;0.022588424;-0.03686935;0.50951964;-0.08910491;-0.021159053;-0.4912295;0.08927806;-0.0075920727;0.0326868;-0.01524745;0.15552656;-0.122319706;-0.018921157;-0.062222168;0.40840435;0.17316768;0.081126556;-0.06389924;-0.027101416;0.10421066;0.30319703;0.55714893;-0.31834581;0.016016284;-0.04063132;-0.16730414;-0.17689045;0.010004227;0.0345825;-0.047820356;0.10087723;0.019499;0.17922735;0.007940158;0.020402724;0.06898862;-0.050096553;0.027247814;0.0075976984;-0.020114822;0.30571014;0.15798774;0.1629697;-0.1963875;0.009293085;0.38854188;0.25287884;0.5169468;-0.055841602;-0.021572199;0.07221887;-0.03373177;0.06795664;-0.08419721;0.059436414;-0.46779248;0.04466792;-0.0044702683;-0.32319555;0.22891238;-0.05442919;0.0039885584;0.045431368;0.21158701;-0.044146866;-0.07415804;0.033481404;0.080269724;0.14329708;-0.11071053;0.003266401;-0.045770574;0.052575294;-0.012014088;-0.06954555;-0.12965544;-0.14053199;0.042558517;0.03040339;-0.10024426;-0.09923088;-0.0056525087;-0.16202128;0.042436387;-0.17497605;-0.24657324;0.034187675;0.012938758;0.0357009;0.16196871;-0.12970157;-0.06276134;0.08461906;-0.050024714;-0.12352481;-0.10288857;-0.044089418;-0.06448718;-0.13423073;-0.10451219;-0.058595825;-0.126495;-0.14959086;-0.01760718;-0.03437869;0.0794029
0.027029349;-0.22829896;0.026822172;-0.04118012;-0.07221738;-0.08829485;-0.021450752;0.05067674;0.18206252;0.010118253;0.022826659;0.10323496;0.2583806;-0.11871461;0.014451126;0.0389794;-0.11475873;-0.21334168;0.0116214985;-0.06783864;0.06614657;-0.014576469;-0.27123633;-0.2604128;-0.2153209;0.250616;0.25461528;0.17756267;-0.06776283;0.15827148;-0.29107398;0.13898712;0.025318721;0.20982493;-0.035300817;-0.001404374;-0.000349292;-0.019376522;0.039218124;0.015365155;0.002592973;0.14810717;0.021694811;-0.16532233;0.054958146;-0.024724843;0.0007680329;-0.04634519;0.100749075;0.03628996;-0.06738668;-0.07139113;0.103264466;-0.18395941;0.017070005;0.100476116;0.0371862;-0.24374647;0.17045741;0.0062208953;-0.24816999;-0.06122277;0.114374466;-0.05288767;0.006893403;0.06288866;-0.042530943;-0.22265191;-0.097645715;-0.037376013;0.00063653523;0.14266974;-0.0063055116;-0.18078054;-0.021310808;-0.0076438417;-0.022680057;-0.008003199;-0.15791482;-0.08620754;-0.01884387;-0.12619099;0.13095906;0.006726496;0.21024568;-0.051077485;-0.10165831;0.07055147;0.14584266;0.064288266;0.20699528;0.08870845;-0.014577685;-0.009267171;-0.055258904;-0.100341626;-0.0488344;0.091719404;0.05787061;0.14565393;0.008688255;-0.004315504;0.07184334;-0.010377729;-0.16131309;0.002715732;0.009957225;0.08087973;-0.06301986;-0.15071519;-0.13169229;0.119122;-0.19296528;-0.19044425;0.045545947;0.26365912;-0.058560573;0.055050563;0.047240503;-0.04696947;0.038232997;-0.081045456;-0.015531219;0.03591585;0.144864;0.06675491;0.00045923982;-0.10729674;-0.27774757;-0.033313807;-0.24730554;-0.50533366;0.03609931;0.032927364;0.055462603;-0.030733244;-0.16730502;-0.023559678;-0.030643074;-0.056126975;0.17781945;0.28993157;-0.04753236;0.015959674;-0.10719123;0.05784522;0.08269291;-0.04743745;-0.016399251;0.23627546;0.1002974;-0.015362879;0.024125569;0.23154801;-0.047150996;0.17109777;0.029589377;-0.060946465;0.07701837;-0.015494664;0.15913476;0.13121095;0.061046995;0.019555481;0.116125;0.4690967;0.018630015;0.050765842;-0.24898301;0.03461127;-0.10320013;-0.040897477;-0.057043258;-0.30875915;-0.01585739;0.02315814;-0.13174632;0.03268253;0.041535445;-0.008290354;0.07445719;-0.29009137;-0.053076442;-0.072911516;-0.03884011;0.038343027;0.0748961;-0.025332443;0.00783941;0.20324413;-0.16449717;0.04905722;-0.05894468;0.0014345754;-0.26169524;-0.20223063;-0.21461745;-0.05837443;0.11087005;0.050653607;0.065071285;0.2021269;-0.30780205;0.029288286;-0.3814224;-0.14587907;0.05449679;-0.08471465;-0.27959394;-0.072087005;-0.023774324;-0.031867184;0.0569297;0.0048896875;0.06302421;0.048584934;0.099739425;-0.011186189;0.054089934;0.09960841;-0.08872907;-0.03492214;-0.08267942;-0.18467018;0.05300603;0.24278425;0.0017480876;-0.26206547;-0.015140325;0.15099223;-0.025098372;0.038244337;0.039797302;-0.033643782;0.14545809;0.05253761;0.14144161;0.14192592;-0.01104011;0.029444644;-0.10238775;0.14547174;-0.0012360903;-0.061334502;-0.064410195;-0.05512085;0.115817904;0.3901142;0.14818093;0.045856442;-0.039682224;0.25077528;0.3612045;-0.19435897;-0.012675827;0.1565395;0.13186269;-0.31985798;-0.13261393;0.0072135166;0.38480964;0.036617976;0.32502124;0.04385266;-0.14637174;0.03521852;0.22050078;-0.032572903;0.17145254;-0.029697575;0.024671448;0.038581036;-0.06681316;0.1051502;-0.000564498;-0.059771165;0.20528801;0.045269202;-0.0345448;0.039253432;0.30065972;0.014457329;0.028274043;-0.095943466;0.06512807;0.0693274;0.02519521;-0.29948643;-0.08732012;-0.061689794;-0.053273603;0.45349187;0.0061534652;-0.12890644;0.019504782;-0.032675497;0.1405857;-0.4746014;0.018833594;0.053108595;0.019536711;0.038589653;0.089314;0.008648759;0.049319427;0.2994643;0.014396863;-0.065765806;0.25684524;-0.1724245;0.29941818;0.032853067;0.25099847;-0.13414814;0.025117094;-0.15107645;0.3548198;0.036223304;-0.038545024;0.004435598;-0.020203196;-0.18990618;0.053356696;-0.057100505;0.006963931;0.02611652;-0.0228725;-0.06573022;0.29852274;0.08228836;0.28554624;0.00339343;0.08857021;-0.08539839;-0.11731185;0.05157816;-0.30879712;0.08863703;-0.02952458;0.17055532;-0.07395027;-0.033270255;0.08857691;0.023722218;0.01924394;-0.06303986;-0.091966175;-0.1653341;0.19378366;-0.04865226;0.0231486;0.1418766;0.08537904;-0.16364829;0.026117893;-0.36438325;0.040280063;0.30678338;-0.02567431;0.32566863;-0.18435057;-0.18800414;-0.060338154;0.31553808;-0.01887153;0.030040303;-0.014428856;0.16215938;0.18229488;-0.2679253;-0.1230515;0.1112481;-0.0072784526;-0.061042715;0.15242383;-0.0032470322;-0.019757418;-0.21347563;-0.022766959;-0.010600985;-0.02933848;-0.029173872;-0.047593012;-0.055280525;0.20181404;0.025712516;-0.048815563;0.12014281;-0.05069338;0.035551228;-0.11588509;0.11581985;-0.029117774;0.19948803;-0.035750125;-0.09825956;-0.18437389;0.074031375;-0.046453547;0.0056380234;-0.1797298;-0.05657901;-0.028538328;-0.20351072;-0.09014575;-0.21232696;-0.06262348;0.14775233;-0.019119577;0.026040878;0.357987;-0.01089554;0.026574759;0.5238861;-0.21024218;-0.048601408;-0.21192084;-0.018846998;-0.04373698;-0.2665509;0.05489255;0.076104745;-0.063760504;-0.25625592;-0.034543276;0.00581379;-0.11405078;-0.25118926;-0.13367794;0.020298386;-0.04201455;-0.27236426;-0.19946924;0.066176936;0.044095412;0.08304531;-0.10319988;0.11432231;-0.050548207;-0.11352818;0.03720838;-0.05892464;-0.09369485;0.15234178;0.010623463;0.053262882;0.120357595;-0.06863288;-0.115816526;-0.18171921;-0.04385262;-0.4462696;-0.39514196;-0.008035507;-0.007766791;-0.18002765;-0.06715631;0.22200349;-0.032077596;0.03615605;-0.29890817;-0.010741947;0.11589377;-0.043845512;0.047987867;0.026176075;0.057696614;0.15148841;-0.07328698;-0.055613536;0.050538596;0.041231457;0.37161103;-0.0053696786;-0.052917015;-0.34499353;0.18403116;0.041696753;-0.094439216;-0.032358963;0.06156601;-0.085769035;0.028335635;0.04914611;0.32777578;0.2506296;0.052382603;0.060491055;-0.08869365;0.14165872;0.19174714;0.53114027;-0.27010557;-0.04229007;-0.028048739;-0.19362727;-0.2574988;0.054088313;-0.04642684;-0.07004446;0.059658706;-0.012155458;0.11343063;-0.06895104;-0.0335837;0.02619404;-0.07000295;-0.038049348;0.03450752;0.07554826;0.14392364;0.13274169;0.1735204;-0.1309222;-0.047332;0.4117314;0.07745612;0.48976755;0.0031209097;-0.078450985;-0.031663172;-0.026941601;0.04319813;-0.1299426;0.0029959613;-0.38118893;-0.043412004;0.0035628192;-0.2543485;0.15198517;-0.0046238173;0.016110996;-0.035707816;0.1626586;0.006839648;-0.16799234;-0.001958464;-0.050431896;0.13704559;-0.10482232;-0.018716259;0.020934418;0.024733903;0.061720677;-0.06141719;-0.07757304;-0.072136596;-0.04707531;-0.0061612823;-0.06277388;0.018293494;0.07630554;-0.09795878;0.010315942;0.0047889804;-0.18778867;0.07269644;-0.008848452;-0.05517501;0.25467348;0.07313793;-0.103752226;0.04162763;-0.019630427;-0.07644147;-0.110385545;0.028261818;-0.014039932;-0.07818312;-0.17767745;0.01420355;-0.24590862;-0.11991608;-0.015199612;-0.00063646573;-0.027863717
0.0022178257;-0.11589183;0.029197596;0.014365167;0.027345242;0.0076251305;-0.062946714;-0.025817204;0.13308877;0.12454145;0.06393327;0.20954716;0.332688;-0.12538388;0.07223652;0.017889965;-0.14296186;-0.13576159;-0.06662441;-0.009852875;-0.028634712;0.028238865;-0.23889583;-0.21626912;-0.25557733;0.18343572;0.323634;0.27964503;0.09551767;0.19400688;-0.16197039;0.24512076;-0.020417746;0.16682494;0.042497814;0.009771225;-0.025780864;-0.042370014;0.06785713;0.10840603;0.025613768;0.1836839;-0.043300595;-0.18357258;0.022502681;0.014483102;-0.096688874;-0.15875943;0.17042194;-0.05065694;0.046421282;-0.0859141;0.065524384;-0.19601087;0.1111956;-0.016753526;-0.031252164;-0.18020177;0.006681967;0.052399196;-0.18129763;0.103193164;0.093735024;0.07866009;-0.0055582356;0.002964047;-0.11373117;-0.16465439;-0.09629588;0.0015308213;0.011975658;0.0534754;0.08522612;-0.20589846;-0.049975187;0.051317725;0.003824028;0.0250055;-0.09319771;-0.16056105;0.016033957;-0.22951879;-0.009311784;-0.0017506754;0.25981298;0.070681326;-0.037290066;-0.012895329;0.17099272;0.02790025;0.19774742;0.077583954;0.023664514;-0.055055857;0.05929197;-0.13051747;0.00808686;0.15748015;0.023378458;0.21615833;0.124462776;0.13996981;-0.07076345;-0.03520561;-0.17871077;0.010015244;-0.056348424;-0.066785835;-0.009429333;-0.13529101;-0.045844905;0.12622128;-0.14751634;-0.09217196;0.018548217;0.30783203;0.028032325;0.12739888;-0.049520228;-0.12751752;0.046199635;-0.01568432;-0.00097340473;-0.027470652;0.08668503;-0.083256535;-0.038052656;-0.07973845;-0.26754272;0.0034762106;-0.31441656;-0.5538442;0.021063522;-0.007833422;-0.080236;-0.063748434;-0.029086981;-0.05793641;0.08770825;-0.023297628;0.23254731;0.28963313;0.01780652;-0.0075686555;-0.07096248;0.076965585;0.1642257;0.018390425;-0.016412975;0.20278047;0.056445967;0.08376638;-0.05348392;0.17444415;0.05175412;0.090605654;0.018912474;-0.021633327;-0.029988695;0.011949776;0.027211813;0.015258474;-0.07431535;-0.010090248;0.08978269;0.59253734;0.11984713;0.16366003;-0.31049892;0.16050306;-0.22711623;0.08736353;0.039805178;-0.38952926;-0.04295531;-0.0354575;0.052866522;-0.026954856;0.006492707;0.09043216;-0.066989526;-0.3966313;-0.07173344;0.019914707;0.0045327093;0.05172475;-0.06153339;0.011297423;0.18135597;0.24140844;-0.010363331;0.0035617403;0.044085145;-0.004506213;-0.1983978;-0.12727535;-0.20044087;0.046026707;0.13618396;-0.037163608;0.10981417;0.18978222;-0.31896642;0.06007944;-0.30827212;-0.041090038;0.048456807;-0.07675568;-0.26695174;-0.068844326;0.007305924;-0.05079778;0.075660035;-0.021568516;-0.015600782;-0.053432677;-0.024108063;0.065685235;0.075585246;-0.028530164;-0.047144845;-0.096907154;-0.048234507;-0.16521403;-0.06352805;0.21838044;-0.050620437;-0.12681587;0.03343723;0.015368751;-0.030695967;0.10764417;0.12756677;-0.0675375;0.21734238;0.1545758;0.014135467;0.08773673;0.07099355;0.10998279;-0.13593955;0.10426388;-0.036187246;-0.025957284;0.02323526;0.035818107;0.07416199;0.35574985;0.3278881;0.0033956042;-0.012871997;0.19770262;0.4055326;-0.118736535;0.07586959;0.06253231;0.08565446;-0.2816968;0.0005077071;-0.09584434;0.31881744;0.04608666;0.30599445;-0.016587252;-0.0013718684;0.04850639;0.21554837;-0.05461206;0.064651005;0.062046617;0.16902758;0.021024033;-0.037291545;0.067845136;0.062115226;-0.08768875;0.17122506;0.040199064;-0.07805722;0.09092299;0.20449445;0.016119426;-0.02214423;-0.2711074;0.20723537;0.100651905;0.0696281;-0.22007328;-0.19050068;-0.0514337;0.01823691;0.31390792;-0.020173242;-0.113500334;0.06094625;-0.028669443;0.1594134;-0.37285614;0.05985846;-0.004383955;0.06603675;0.036376223;0.012038358;0.011414497;-0.013658429;0.18813562;0.18486425;0.006722212;0.40253687;-0.076376595;0.21917628;0.009627039;0.24296081;-0.20211096;-0.065099366;-0.25638595;0.3450288;-0.07811351;-0.11270074;0.017307293;-0.025677096;-0.11410621;-0.08946554;0.08351675;-0.031698957;-0.0054661473;-0.043044034;0.0064726286;0.3053281;-0.06604584;0.27147397;-0.04565465;0.054293327;0.06133263;-0.120249905;0.08440512;-0.24942248;0.05952057;0.019879423;0.120968744;0.011228216;-0.057805024;0.0065350267;0.047533847;-0.092637554;-0.07381717;-0.22751217;-0.19727921;0.15028724;-0.056277175;-0.0342508;0.06999013;0.019923173;-0.37335667;0.078406446;-0.3990035;-0.057756577;0.21720183;-0.009133998;0.18639304;-0.06264483;-0.100795396;-0.0061736624;0.3648285;0.046674244;0.053103767;-0.045318346;0.038647078;0.053501897;-0.395515;-0.093570985;0.12844273;-0.037067004;0.03629233;0.14591958;-0.05388764;0.021368241;-0.27852136;0.022182107;-0.07929747;-0.10054087;0.08211046;0.056792516;-0.11880864;0.2280464;0.024716906;0.057533834;0.23852149;0.021599678;-0.033412997;-0.103150494;-0.062106907;0.004084806;0.08046272;0.021408772;-0.13276327;-0.2137895;0.1250771;-0.048041847;0.022018036;-0.1470119;-0.11079881;0.0494023;-0.19034882;0.02142148;-0.10512176;-0.043417934;0.010389748;-0.0025668112;-0.0064735813;0.28667173;-0.10077278;-0.011588763;0.5324363;-0.20697543;-0.024815548;-0.12564524;-0.0109063005;-0.03484994;-0.15898305;0.012379124;-0.05034897;0.03535569;-0.16628763;-0.048600394;-0.044375304;-0.098656625;-0.27164385;-0.08746708;0.030959468;-0.028427636;-0.3295652;-0.31266904;-0.0128348945;-0.019791454;0.033743195;-0.3258603;0.0982667;0.065158956;-0.12516367;0.095681734;-0.11835089;-0.12968211;0.16061318;0.01603931;0.06523314;-0.00294752;-0.03897389;-0.14665915;-0.14748749;-0.008599727;-0.31976426;-0.348957;-0.11543528;0.09202611;-0.026960421;-0.053787194;0.3067706;0.011231651;0.04906526;-0.19298448;-0.104515314;0.021058435;-0.045719936;0.041631922;-0.05945495;-0.020699881;0.17158914;-0.032765098;-0.029711591;-0.0688859;0.0033371064;0.49183986;-0.0070219478;0.042603966;-0.41879517;0.12812816;0.04304164;-0.08433764;-0.029207375;0.061117526;0.080393925;0.0621468;0.037242725;0.31521583;0.10351253;-0.06771595;0.013050599;-0.07151609;-0.06176248;0.19499837;0.54493123;-0.30733818;-0.007379398;0.07052119;-0.23282611;-0.20422217;0.06888575;-0.00020190826;0.05970035;0.02366819;0.0016439896;0.08893399;0.007054157;0.022432629;0.1381378;-0.10751722;-0.051739708;0.05052571;-0.065946236;0.07558288;0.17275739;0.1882843;-0.12727273;-0.023193745;0.34533867;0.08997082;0.38677257;0.025796952;-0.093015656;-0.059177395;0.02390974;0.047853023;-0.09728659;-0.035495523;-0.38807634;-0.033547714;-0.0025193044;-0.21885023;0.30880138;-0.03162378;0.023841469;0.06834983;0.13441303;-0.004978556;-0.19852018;0.012402877;0.07026146;0.066787615;-0.11904293;0.034746338;0.04361558;-0.022452155;-0.07705328;-0.07482201;-0.15318167;-0.036414437;0.02146643;0.029961752;-0.10974525;-0.05409891;0.061625898;-0.1619821;-0.072673276;-0.015824309;-0.2743806;0.022915186;0.009738268;-0.06535395;0.12929773;0.05181217;0.034762803;0.053502016;-0.036518384;0.012007537;-0.095106326;0.0385011;-0.07771274;-0.07824955;-0.12227909;-0.028001659;-0.13777427;-0.16816914;0.071999095;0.042780094;0.026914518
-0.08106292;-0.20203888;-0.0897306;0.03258375;0.07882926;-0.032063093;0.010855698;-0.059006676;0.19831878;-0.016767887;0.028005444;0.12809673;0.42083097;-0.09640441;0.05825369;-0.014492924;0.01272557;-0.30644506;0.015791835;0.0606907;0.1482107;0.050042327;-0.16101684;-0.2855622;-0.13529006;0.15250948;0.23559295;0.23270148;-0.043278698;0.2271549;-0.17867425;0.19589612;0.063991144;0.23828295;-0.023170989;0.041345414;-0.076105386;-0.006897439;0.025958953;0.042615384;0.036741108;0.21167457;0.008657673;-0.14556873;0.045567397;-0.053636063;-0.026450794;-0.20267619;0.1009298;0.020593565;-0.07064964;0.07280253;-0.044331335;-0.21959278;0.22047837;0.20908934;-0.15749756;-0.092473105;0.048364736;-0.045962736;-0.053425446;0.08404007;0.1236583;0.026548287;-0.077613614;-0.0017399644;-0.15971343;-0.092375234;-0.13849877;0.091210544;-0.007299138;0.08428547;0.10437975;-0.25132415;-0.0027789192;0.014686344;0.061641313;-0.04318123;0.056259945;-0.1295147;0.007817723;-0.25681767;0.07173537;-0.065771036;0.20764819;0.053083893;-0.0485347;0.0032551638;0.21004473;0.056279365;0.14343321;0.13728927;0.029846897;-0.047273457;-0.04427342;-0.015694939;0.02575235;-0.026972638;-0.045440696;0.22799549;0.12516986;0.15242285;-0.069097005;-0.013355313;-0.21981296;-0.06874883;-0.029238943;-0.04660764;-0.0156962;-0.19887152;-0.10577397;0.033496972;-0.19357947;-0.06664083;0.014759351;0.34945816;0.036858026;0.041968845;0.066710845;-0.1411282;0.11353435;0.016205112;-0.015993027;0.017568748;0.27277493;0.012772351;-0.07562494;-0.109231964;-0.22387284;-0.03556304;-0.18703972;-0.4702931;0.014282644;-0.010479932;-0.08336584;-0.025542622;-0.022413962;0.02407133;-0.00065768295;0.049614992;0.15750575;0.28142157;0.006891402;-0.0074216295;-0.022531567;-0.033857968;0.0013640919;-0.08526243;0.06212854;0.05562936;0.0388843;-0.016023004;0.02568254;0.28821063;-0.07969714;0.08188822;0.04262966;0.012126197;0.07040426;-0.053598434;0.11055579;0.013558824;-0.022109548;-0.023584953;0.10330278;0.527378;0.011844309;0.094028786;-0.18876679;0.03594251;-0.2164421;0.10502055;-0.07645708;-0.35138863;-0.01797;-0.06118952;0.17091736;0.0061436803;0.15771186;0.065947704;-0.015422602;-0.40517288;-0.0020379636;0.07837381;0.0070919506;-0.08589905;0.06801802;-0.045724154;0.11386092;0.237759;0.059445124;-0.03534509;0.065119706;0.0004340022;-0.30038488;-0.10806476;-0.030396463;0.043236647;0.1952109;0.0741369;0.10265281;0.31798545;-0.32401067;0.069884226;-0.30493587;-0.11826904;-0.041175097;-0.030601678;-0.10863463;0.022945743;0.08290951;0.011870458;0.14034605;0.0092231305;0.02483919;-0.03674975;0.10495927;-0.03740624;0.08861632;0.057908297;-0.13894366;0.016066277;-0.032762893;-0.1858261;-0.0077926605;0.33616105;-0.008283822;-0.25356278;0.046460498;0.09840943;-0.015530727;0.085161544;-0.02601131;-0.21467465;0.12881824;0.14812386;0.110559106;0.10417505;-0.0209321;-0.024578644;-0.027318234;0.004026333;0.015613017;-0.13658072;0.02683486;-0.012165727;0.098358095;0.33138767;0.25187445;0.08328855;0.012359746;0.23077881;0.4532341;-0.26636446;-0.00682975;0.11029133;-0.06611332;-0.36776352;0.022531599;-0.04982134;0.28608596;-0.0046017854;0.37434196;-0.06854928;-0.03515985;-0.07278138;0.2109639;-0.03917473;0.22948612;-0.09264793;0.23986651;0.026935913;0.046370268;0.123375684;-0.025932742;0.069537245;0.2350777;-0.015942363;-0.08109683;0.1263725;0.2720076;0.14106902;-0.023933891;-0.18663087;0.12677486;0.09169468;0.09145848;-0.28703767;-0.24993198;0.09183607;-0.07567086;0.48106015;0.035292376;-0.122638285;0.10336082;0.07084705;0.04610116;-0.3570844;0.025598036;0.0400982;0.10618753;0.19847575;-0.04311541;-0.1263504;0.026783999;0.1260543;0.09407796;-0.08370522;0.3697048;-0.09910158;0.15506661;-0.0065077767;0.17346194;-0.35646436;-0.03589961;-0.1542519;0.354077;0.0494957;-0.17466171;-0.007915387;0.08755201;-0.094350375;0.028724205;-0.03372429;0.029428342;-0.011981435;0.060817022;-0.042111326;0.31785327;0.00489674;0.17978467;-0.036397345;0.082947075;-0.05354093;0.0031476715;0.15416834;-0.21517001;0.061460383;0.025733147;0.056663357;0.02912501;0.035610832;0.05755937;0.062802374;-0.10152989;-0.07118086;-0.19934624;-0.27336934;0.1779807;0.0014523019;0.030347196;0.044397376;-0.08026738;-0.4099974;0.06601916;-0.34856868;-0.014157503;0.35127172;0.011986635;0.21775551;-0.13257901;0.0054929648;-0.0624249;0.26735213;-0.046582144;-0.016413456;0.064828426;0.16444337;0.16780706;-0.40402415;-0.1467114;0.16205181;0.00042238735;-0.00023551958;0.05160172;0.026473455;0.0169522;-0.27552125;0.1025602;0.06275613;0.0077435533;0.09003791;0.013479704;-0.042551614;0.3615846;-0.015747176;0.06646366;0.22059779;-0.09930558;0.0001000181;-0.021950033;0.065443054;-0.00045291777;0.08564173;-0.017497167;-0.2014795;-0.26272312;0.1816744;0.025653977;-0.058256604;-0.17671776;-0.009985662;0.13812819;-0.22439225;-0.040030163;-0.25382146;-0.1770756;-0.08649452;-0.021074958;-0.018435525;0.1657345;-0.028755082;-0.021067126;0.57275754;-0.23883219;0.02398714;-0.19063659;-0.05455127;0.06935947;-0.26075566;0.048176803;-0.02453989;-0.027692907;-0.14085639;0.054568972;-0.050996516;-0.110750884;-0.1640559;-0.10329819;-0.03299989;0.053865135;-0.3852247;-0.19580282;0.05631555;0.062295;0.014752012;-0.28853056;0.1348625;0.037930325;-0.006265314;0.0368321;-0.019517832;-0.1046139;0.09757798;-0.010763546;0.0043142275;0.097738944;-0.056994937;-0.16663152;-0.11767182;-0.0034224475;-0.38172373;-0.2385003;-0.0668178;0.05329036;-0.09064968;-0.0711483;0.3545409;-0.008896623;-0.08026786;-0.27020252;-0.017983384;-0.016542822;-0.053956933;-0.09319018;-0.05541582;0.0053809863;0.13864866;-0.14675735;0.10045586;-0.037497964;0.061027996;0.48509902;0.07304934;-0.07534207;-0.44337815;0.03240122;-0.037054732;-0.06932751;0.054062564;0.13571899;0.050370317;0.03155752;0.008304808;0.23555924;0.13708864;-0.02771584;0.04154739;-0.13785537;-0.0011252679;0.2699441;0.44229487;-0.38362125;-0.04941276;-0.018532047;-0.31525436;-0.18136604;-0.058159284;0.0021187859;0.036959708;-0.08673767;-0.059971813;0.14784616;0.010100382;-0.029008187;0.01324346;-0.28458768;0.007656982;-0.05615206;-0.02517262;0.07249943;0.15640855;0.080631755;-0.23791659;0.07719356;0.33285347;0.056911867;0.3563752;-0.045832034;-0.08419821;-0.011170548;0.056799088;0.09864575;-0.104611784;-0.009898891;-0.3800118;-0.06186412;0.013871028;-0.041507334;0.18697241;0.008149216;-0.019669088;-0.046255574;0.1391492;0.048033822;-0.223871;0.015528696;0.08983744;0.09941742;-0.0009879956;-0.017161109;-0.03050406;0.046985637;-0.02639895;-0.100383;-0.1224214;-0.020530466;0.006815868;-0.00802612;0.022186765;0.055479974;0.04932426;-0.21040383;0.079109326;-0.076345816;-0.2799311;0.119762756;0.034702573;0.07702603;0.13728265;0.15692303;0.00673168;0.22720313;-6.5776967e-06;-0.05776474;-0.23641096;-0.017337557;0.05872975;-0.07525303;-0.21722817;-0.08812436;-0.19828512;-0.26607522;-0.03296025;0.026273642;-0.028382808
0.0173225;-0.1288114;-0.115097485;0.027678393;-0.028364653;0.012283978;-0.0772225;0.046349384;0.085604064;-0.038847543;-0.06984356;0.220957;0.33613804;-0.15347177;0.06124084;-0.043715205;-0.034407984;-0.17415063;0.023754643;0.025564326;0.1390677;-0.00032649515;-0.24674788;-0.1391172;-0.099004395;0.22112343;0.28559273;0.22655508;-0.02188277;0.31630102;-0.26562545;0.36435404;0.17798057;0.22286417;0.003976737;-0.012399329;-0.052987166;-0.017270893;0.12949733;0.119306505;0.036909536;0.12393268;0.10835677;-0.16598807;-0.106608965;0.014109363;-0.121639565;-0.059900906;0.13213089;0.047434755;-0.042865258;-0.06048961;0.017909767;-0.3533146;0.12691434;0.19216311;-0.22558054;-0.13557483;-0.059351254;-0.020043364;-0.07637313;0.13571618;0.11970522;0.07394191;-0.011337108;-0.014172726;-0.09880943;-0.0792386;-0.026374174;-0.0135348;0.024259577;0.002718193;0.11394298;-0.1609658;0.040555328;-0.04788106;0.02417611;0.088230416;0.082349375;-0.17571469;0.09505234;-0.17903803;-0.00010009433;0.042348124;0.16755985;0.10383536;0.023869084;-0.026634147;0.25026923;0.19226557;0.22779371;0.07723386;0.121087395;0.021953331;0.07910984;0.0019639654;-0.04628492;-0.0639201;-0.002523879;0.16750544;0.10652596;0.11675348;0.064075425;-0.038435884;-0.20992059;0.0393053;-0.025769247;0.013509665;0.047293536;-0.24120942;-0.25041792;0.09366993;-0.20591779;-0.074812666;-0.056944713;0.30403772;-0.014488743;0.03108678;0.053513926;-0.07587021;0.108083256;0.11734877;0.03909022;0.013410715;0.23668209;0.0093965335;0.056320854;-0.12171021;-0.3676976;0.042325545;-0.31894568;-0.5081607;0.0012665265;-0.06405169;-0.0973001;0.02572705;-0.038008057;0.05706268;-0.016461296;0.037915226;0.26296303;0.27057418;-0.06781257;0.013391813;-0.17798263;-0.098531045;-0.036281772;-0.068135746;0.033494864;0.14633708;0.10264436;0.028348846;-0.033963766;0.1928605;0.052719906;0.093979;-0.05866126;-0.06838972;-0.040193945;0.04549051;0.03615692;0.05615006;0.007871577;-0.05156048;0.05470621;0.50282604;0.05030509;0.19980676;-0.26063383;0.055410966;-0.24119397;0.043451205;0.0401999;-0.46285298;0.023923002;0.062068757;0.090603106;0.043411884;0.054152794;-0.015021966;0.06889194;-0.4899737;-0.070785224;0.05498652;0.053298056;0.00920579;0.0110963965;-0.08269107;0.16989174;0.14889772;0.05416987;-0.12696996;0.052757174;-0.015122448;-0.22094518;-0.009865445;-0.13561422;0.05845123;0.2738293;0.06790552;0.035576705;0.18270116;-0.26011723;-0.023023605;-0.18717438;0.030784404;-0.021770595;0.08227413;-0.10271977;0.014481207;-0.031117387;0.05534644;0.20942074;-0.010578028;-0.056041803;0.046700466;-0.006666739;0.0261634;0.10072861;0.012303561;-0.055345427;-0.06098338;-0.0035463518;-0.034186512;0.06374243;0.34344417;0.059795015;-0.19621487;-0.007779388;0.09906179;0.006466989;0.060628165;-0.024167312;-0.26208916;0.07824586;0.14671981;0.1819706;0.05583957;0.04521843;0.0107759535;-0.086627595;0.097109616;0.054922156;-0.038820397;0.035280116;-0.08790308;0.0810888;0.42282894;0.2610359;-0.07041879;0.022875203;0.19758277;0.36731932;-0.23382132;-0.015601805;0.026951918;0.023193842;-0.45644596;-0.06498745;-0.06688024;0.38495722;-0.06351906;0.38429925;0.014564222;-0.11984237;-0.0010541365;0.18283433;-0.004777635;0.108545035;-0.02663082;0.2434614;-0.043054264;-0.00073149905;0.056940638;-0.06161853;-0.05476792;0.32111982;-0.026942393;-0.11287358;0.17605852;0.25830498;0.039274115;0.03841535;-0.16956243;0.098662645;0.08407142;0.103095524;-0.20397437;-0.22252552;0.05587746;0.071509235;0.35067236;0.0199351;-0.033228718;0.11518925;0.022491783;0.033739604;-0.3653762;-0.046119027;-0.020422956;0.14848208;0.26084533;-0.06313717;-0.059227508;-0.06893281;0.19960426;0.106323935;0.046977833;0.3877154;-0.1234517;0.030307872;-0.046154186;0.12395947;-0.24446385;0.06358645;-0.29654527;0.42413706;0.053747095;-0.018953312;0.028288322;-0.04360287;-0.09072792;0.10633515;-0.047162548;-0.0037227834;-0.035640366;-0.055329323;-0.03717678;0.32929718;0.028150635;0.20456426;0.025365103;-0.062306233;0.014421726;-0.032768987;0.2162549;-0.23980987;0.15603949;-0.046637237;0.115759484;0.029296512;-0.0016339798;0.1158593;-0.009137666;-0.12597059;-0.14780699;-0.23822486;-0.25256652;0.105857864;-0.044239268;-0.06154381;0.038852096;0.011189575;-0.42378405;0.1211862;-0.44444633;-0.054593667;0.3426315;-0.061208278;0.2915543;-0.047968432;0.016313145;0.03486674;0.4383794;-0.015811127;0.005588911;0.017288154;0.10985171;0.15294255;-0.42588305;-0.06951107;0.026171818;-0.024295066;-0.037735358;0.13869731;0.009479691;-0.069091864;-0.31937343;0.23585519;0.045417335;-0.07921121;0.12394926;0.012112253;-0.070717864;0.17740457;-0.0091918055;-0.05894896;0.21331853;-0.05917018;-0.03344244;-0.11281628;-0.060292903;-0.004884056;0.034470286;-0.02314436;-0.10997647;-0.21315038;0.07222589;-0.014525628;-0.04664832;0.049622096;0.010811419;0.20537528;-0.2805696;0.073499076;-0.19740002;-0.06760162;0.01874056;-0.06701231;-0.03956621;0.24941061;-0.01670622;0.017306069;0.49128756;-0.30218497;0.10747042;-0.14400655;0.05219251;-0.031778004;-0.22614047;-0.051121723;0.021456633;0.020722225;-0.12146592;-0.0418065;0.07731978;-0.07360859;-0.12525839;-0.122951604;-0.016512234;-0.03872155;-0.26454768;-0.30368698;-0.06513165;-0.006041502;0.015013832;-0.3028291;0.15850952;-0.02349396;-0.011301424;-0.015444266;0.04006502;-0.093502216;0.2475183;0.011997759;-0.0043193675;0.08222872;0.03504857;-0.30583695;-0.12377328;-0.045232445;-0.38400552;-0.11489201;-0.08893781;0.09333315;-0.08519216;-0.014834036;0.2520057;0.025460297;0.03865882;-0.18863268;-0.08721357;0.034758914;-0.06686381;-0.008923656;0.027372884;-0.050024264;0.14899775;-0.16365509;-0.0051104277;0.15006268;-0.029035607;0.46801177;0.15678294;-0.014773109;-0.38671216;0.061419953;-0.025878733;-0.05188522;0.079029724;0.16814198;0.025055517;-0.05199035;-0.042477906;0.1763754;0.08705732;0.051694125;-0.03534167;-0.04723427;-0.041588828;0.19590378;0.3787318;-0.4209199;0.022920705;-0.03509001;-0.2948635;-0.30108443;0.08749124;0.07461726;0.017316557;-0.022685783;0.019980345;0.13444325;-0.03997541;-0.012113236;0.07538313;-0.32253546;-0.07365619;-0.01143051;-0.06085176;0.09065823;0.1826674;0.19244422;-0.17551157;0.031015968;0.45959756;0.071346015;0.3248419;0.011225021;-0.17593446;-0.027636196;0.085319705;0.017099733;-0.20099372;0.0061178897;-0.28576526;0.024806373;0.049420994;-0.039605886;0.2251902;-0.004772798;-0.007647904;-0.039579168;0.31400892;0.007868746;-0.33356884;0.028033609;0.062357582;-0.010786824;-0.0696054;0.030595904;0.011022215;-0.046166427;-0.018729297;-0.18276185;-0.026286025;0.017720783;-0.045550346;-0.009343678;-0.006532843;0.07440099;0.05116182;-0.11790132;-0.030462466;0.103625976;-0.20362802;0.017956933;-0.028906502;0.061334666;0.17298746;0.1664296;-0.12627152;0.20476219;0.028585149;0.04206834;-0.114507064;-0.023706723;0.016365895;-0.10424326;-0.13096294;-0.08839351;-0.23149431;-0.14678997;-0.01153632;0.050710965;0.05946753
0.052749388;-0.20940834;-0.2097967;-0.08228488;-0.043301847;0.029758383;0.029506452;0.045541488;0.21259542;-0.031859655;-1.7764367e-05;0.20374437;0.30836082;-0.20743594;0.13390252;-0.00637319;0.08708095;-0.23326945;-0.03314654;-0.0026599788;0.2139162;-0.03887561;-0.16809353;-0.090676226;-0.14970331;0.22995394;0.31893438;0.06761094;-0.05982119;0.33783817;-0.29242125;0.30823335;0.09233941;0.1965612;-0.06949977;-0.056219928;0.066808335;-0.0411883;0.120318964;0.055758618;-0.03745349;0.08461253;0.080207534;-0.21028681;0.008940314;-0.010383123;-0.10939218;-0.18384348;0.032665648;0.0034772928;-0.09468344;0.03454941;0.026153324;-0.34974012;0.23840581;0.12724708;-0.12484689;-0.15035422;0.051670462;0.04108807;0.03650099;0.27608696;0.20425975;0.0019427602;-0.006684709;0.0412773;-0.021800095;-0.004868202;-0.091365345;-0.042643942;0.021458095;-0.025920764;0.035447404;-0.16231094;0.0075581255;-0.066593185;-0.063937396;-0.05234016;0.04274776;-0.007128444;0.060386848;-0.27239016;0.031204995;-0.028277526;0.20352142;0.12167774;-0.03566476;0.07914019;0.25574157;0.09370366;0.1549957;0.078126304;0.080880575;-0.009810869;0.13594514;-0.039032355;-0.021200985;-0.00044363376;0.083215386;0.26103532;0.1148904;0.21197097;-0.006312309;0.031036148;-0.13870376;0.036196977;0.07805904;-0.009866913;0.095716655;-0.22127883;-0.26826343;0.12175361;-0.17746183;-0.09404941;-0.008776359;0.2989287;-0.06374582;0.007866267;-0.03159725;-0.1967851;0.08666202;0.105486676;0.038024116;-0.10559158;0.22163014;-0.0020253214;0.055681575;-0.10042026;-0.35625705;0.020745026;-0.22449555;-0.51682824;0.012450118;-0.0017472814;-0.11060601;-0.056287497;0.06216544;0.05207755;-0.03750249;0.04607561;0.2888994;0.3528589;0.071232244;0.05208873;-0.027209872;-0.14824186;-0.06681568;-0.19171032;-0.032376535;0.07893793;0.07367206;0.037695184;0.080421485;0.30311167;-0.017732764;0.07304909;-0.040809005;0.07706745;-0.070666455;0.007090894;0.10135324;0.13406834;-0.006197996;0.010876934;0.1931551;0.43374676;0.08006549;0.09552142;-0.16099426;0.09601945;-0.11206456;0.055072855;-0.08464409;-0.2917224;0.0061723515;0.0189001;0.012846917;-0.06872405;-0.012702172;-0.009859554;0.015619752;-0.34633678;-0.10301604;0.04048247;-0.04956227;0.06692579;-0.07990747;-0.024240084;0.13746896;0.27504456;0.031652406;-0.10590899;-0.05916804;-0.061846074;-0.16161719;-0.056466285;-0.054364644;0.092797756;0.28974676;0.002510023;0.0139904395;0.15467036;-0.22230536;-0.0102710165;-0.2506108;0.014721987;-0.019039258;0.1278306;-0.013748996;0.073047206;-0.007434715;-0.02218292;0.19344352;0.015774751;0.07930376;-0.041545108;0.06971332;-0.019493721;-0.0002929143;0.078307636;-0.14842966;-0.088301815;-0.037726387;-0.036558338;0.0013671389;0.38046977;0.00024645566;-0.0739293;-0.0081994645;0.06415715;-0.05632579;0.079864524;0.014647302;-0.19596767;-0.06275792;0.22279663;0.104578026;0.059972245;-0.034027312;0.20660844;-0.15056692;0.036787692;-0.035535444;-0.084073745;0.017223213;0.01766771;0.10683823;0.2978662;0.0987032;-0.034110043;0.023992497;0.26370883;0.3677053;-0.19008292;-0.10929573;0.12321359;0.03748711;-0.3988744;-0.010148101;0.01497224;0.3594519;-0.1795869;0.30188027;0.0062830956;-0.047150385;-0.0054295603;0.02806588;0.06761802;0.06712868;-0.18399589;0.12576863;-0.006037448;0.059819635;0.16887528;0.03502821;0.09379392;0.35331225;-0.05043928;-0.05412246;0.09861456;0.20717263;0.025365524;0.022447512;-0.18808411;0.2027549;0.19342998;0.06130088;-0.24878666;-0.19891077;0.12474158;0.10336748;0.40550807;0.058879964;-0.104874484;0.09242629;-0.044820633;-0.04746513;-0.1618636;0.0166804;0.02208813;0.15792629;0.28659502;0.014545375;-0.12871183;-0.022373917;0.12332334;0.06453158;-0.010755979;0.5345438;-0.12685141;-0.08519653;0.058949944;0.23157214;-0.3105696;-0.00482011;-0.30099788;0.4365686;0.026531266;-0.0815997;0.029528504;0.04307647;-0.04013936;-0.054296594;-0.0030377118;0.108653896;-0.09378287;0.059950102;0.065057196;0.3181955;0.08247467;0.19296114;0.008565362;0.0002967865;0.03147952;-0.05043196;0.05731764;-0.18813546;0.07920458;0.028219858;-0.017621022;-0.034762796;-0.0734203;0.1853845;-0.013527266;-0.18713412;-0.09806154;-0.13335249;-0.30997097;0.05905684;0.062042624;-0.016934318;0.022209994;0.014865759;-0.50077045;0.0066919313;-0.31179;-0.007560996;0.22479932;-0.12758689;0.27049655;-0.021303201;0.10006891;0.00805026;0.42467365;0.0022574286;-0.024247637;-0.03317862;0.15097533;0.0057295626;-0.32433313;0.052663613;0.11598201;0.016153561;-0.055366885;0.10942279;0.032057226;0.016691953;-0.19894569;0.15347521;0.0283096;-0.06299929;0.023581685;0.051956467;0.078623794;0.29863024;-0.044071574;-0.061892267;0.16700545;0.0049837297;0.02782131;0.009410828;-0.06426073;0.01747769;0.021028096;0.03493044;-0.14045103;-0.061401535;0.14733909;0.04401151;0.044473793;-0.05805759;-0.004017853;0.15360169;-0.2302533;-0.00036543008;-0.15126167;-0.1956916;0.021043085;0.073681064;-0.111427054;0.20571484;-0.06474953;0.018295022;0.49933812;-0.19944927;0.05499243;-0.029378373;0.039822053;0.07181644;-0.180631;-0.03100103;0.047414925;0.045030985;-0.12388731;-0.11155098;0.02752431;-0.12381204;-0.2951058;-0.16120619;0.042082332;-0.045782737;-0.18989255;-0.26852465;0.053051006;-0.033288494;-0.09021667;-0.45659384;0.097795434;-0.015496731;0.055392783;-0.017345585;0.03624451;-0.045066237;0.19633093;-0.087563016;-0.057447936;0.09099252;-0.07555875;-0.26807654;-0.21665469;0.06318392;-0.42423964;0.049564414;0.05655281;0.13277237;-0.024381142;0.07153682;0.30347192;-0.023919577;0.034285024;-0.2737597;-0.04069637;-0.08589734;-0.08803543;-0.11565056;-0.02648323;-0.054639563;0.18614346;-0.13269277;-0.020879496;0.1926123;0.01535621;0.48544624;0.04333445;-0.09768547;-0.36142805;-0.07568661;-0.05619133;-0.093876906;-0.0154788075;0.1896353;0.071822636;-0.059350856;0.02586929;0.1490345;0.15515777;-0.027683472;-0.09192347;-0.13787849;-0.06117654;0.22280568;0.51757646;-0.26119837;0.024581522;-0.067925036;-0.10539936;-0.18557188;0.032980196;-0.07885621;0.02596127;-0.013776877;-0.06834012;0.1530095;-0.0625843;-0.008966753;-0.04191965;-0.36502555;0.07239323;0.0668151;0.037262347;0.020031529;0.17340033;0.142232;-0.074760854;-0.062979214;0.3125289;0.061716944;0.39765057;0.07529227;-0.2310138;-0.00809465;0.028812867;0.0092251515;-0.23791254;-0.024313208;-0.3001782;-0.011148306;0.107350826;-0.019549148;0.17186415;-0.056564745;0.051974945;0.011243867;0.2158282;0.04071681;-0.23105282;-0.0036082696;0.15033206;0.022740962;-0.15156366;-0.0016970758;0.0026802868;-0.03177277;0.016887894;-0.20746844;0.07946923;0.07941176;0.014481283;0.04573494;-0.046107855;0.0085289;-0.017410105;-0.21195272;-0.0089633325;0.0066676694;-0.20974751;0.11393697;-0.010932626;0.037238277;0.12980281;0.1383788;-0.102348916;0.22692324;0.0075666322;0.031522527;-0.005198557;0.07807836;0.07290863;-0.032702297;-0.29979312;-0.1237896;-0.24788015;-0.23294929;-0.040041775;0.030561613;-0.065818034
-0.021925591;-0.19284911;-0.227536;0.060822494;0.04918275;0.0037407372;0.05898824;-0.011026632;0.10163805;0.007946296;-0.029460087;0.23273171;0.124913104;-0.20137109;-0.006255241;-0.03613016;0.14407073;-0.10531929;0.0013306593;-0.026160132;0.15460965;-0.06684727;-0.28081843;-0.1759369;-0.22630012;0.17363502;0.18530636;0.10555864;0.0371938;0.28231788;-0.29623365;0.2979788;0.08251947;0.104395576;0.035591967;0.03927928;-0.036747757;0.0025424627;-0.058329612;0.061406344;-0.063674;-0.036914084;0.07123602;-0.24159805;-0.0010503768;-0.043156393;-0.090666205;-0.011462401;-0.0035619522;0.014020706;-0.08024784;-0.001923782;-0.047068972;-0.2677052;0.27635494;0.27766567;-0.2374534;-0.07392654;-0.05628567;0.029113403;0.082239784;0.25545895;0.24054809;0.11444012;0.031232117;0.0068570296;-0.14560932;0.021374382;0.081941806;-0.0032977925;-0.057911504;-0.11722335;-0.0068131946;-0.22804987;0.07137551;-0.030844493;0.071070194;0.021837704;0.025660766;-0.028890476;0.06612318;-0.21852994;-0.014276034;0.04029422;0.2782323;-0.009761024;1.7735372e-05;-0.07036829;0.3748138;0.14707045;0.051370267;0.11952628;0.14758973;0.054343518;0.04803253;-0.08581506;0.076361366;-0.15790212;-0.03707935;0.08593516;0.15827043;0.25719923;0.067156464;0.06502249;-0.23044834;0.04099356;-0.043377507;0.012244654;-0.031002268;-0.20217146;-0.2654882;0.08188529;-0.19464092;-0.10468635;-0.08340677;0.40587795;-0.05932224;-0.13530013;0.0116837695;-0.20353656;0.093734786;0.07010264;-0.049616087;-0.040864553;0.24616155;0.017753588;0.022991236;-0.026383167;-0.4340223;0.009856286;-0.35599583;-0.33916217;-0.14716104;0.02310076;-0.08652411;0.07941425;0.05506123;-0.08583647;0.016166301;0.026989954;0.3100922;0.26033202;0.054155815;0.040471673;-0.06575272;-0.00036361895;-0.071352825;-0.19573602;-0.030577376;0.1575251;-0.039905835;0.09683986;0.03920397;0.174195;0.010367299;0.04401676;-0.039536998;0.043432783;0.0118248435;0.018436937;-0.06825992;0.14670683;0.032681625;0.09888082;-0.0072645335;0.4551123;-0.017955784;0.22974372;-0.27097318;0.11376102;-0.20073004;0.0068058935;-0.073740035;-0.30513483;0.000101486075;0.0023406162;0.19801413;-0.024450582;0.0035613885;-0.06894325;-0.04042706;-0.41209802;-0.02713875;-0.027080646;0.028622275;-0.04044137;0.045072418;-0.043020047;0.24309969;0.23402071;0.069353;-0.073184416;-0.0679011;-0.04608961;-0.16541484;-0.08653279;0.019178165;0.21212769;0.31982243;-0.10407825;0.0819767;0.1998274;-0.12608045;0.09921708;-0.25046396;0.020181127;0.008119443;0.26926544;-0.0010680477;-0.01835499;-0.04798455;0.042173985;0.16780081;0.0012854239;0.0054118014;0.040490013;0.15889524;0.04898982;0.010616917;-0.093601316;-0.1745421;-0.05682088;-0.14115502;-0.083333075;-0.019229785;0.36808953;-0.045635033;-0.08389199;-0.055097885;0.036310054;-0.024333393;0.08593982;-0.040488567;-0.24453932;0.04461624;0.17210232;-0.00065587176;-0.050001178;-0.000813718;0.18022297;-0.061291315;-0.082104966;-0.014729341;-0.17162983;0.04309372;-0.008039084;0.20584689;0.41955188;0.08235852;-0.061298463;-0.060291097;0.2742772;0.26788032;-0.15245584;-0.0669046;-0.0776292;-0.07669917;-0.49139467;0.10711785;-0.012207935;0.32146937;-0.24558479;0.35143653;0.03128652;-0.1234698;0.019146586;-0.012989022;0.03306525;0.14728476;-0.16596575;0.23962112;-0.1657416;-0.019676471;0.019150084;-0.04968519;-0.010351616;0.30146617;-0.009131739;-0.07442244;0.15817378;0.30118474;0.052373715;-0.023364058;-0.11362934;0.24528006;0.05130395;0.032768;-0.19903311;-0.17860709;0.07478446;0.14318943;0.4089358;0.06541073;-0.038087904;0.09974334;-0.04648213;-0.12178692;-0.17969446;-0.043015886;-0.045832247;0.25404492;0.3773125;0.028644463;-0.19485748;0.026847253;0.115227096;0.16701087;-0.013343362;0.43349496;-0.07504243;-0.124317326;-0.039083794;0.21411122;-0.2840554;0.10677293;-0.29857773;0.35405847;-0.02014059;0.061867822;0.035826482;-0.03466896;-0.021976305;-0.12969995;-0.027665941;0.06192138;0.045005467;-0.026549757;0.007135438;0.3815798;-0.04961121;0.23326309;-0.04454654;0.02435187;0.026183398;-0.08232958;0.12443068;-0.14188175;0.14893688;-0.012204686;0.10347422;0.075121365;0.03875096;0.29574743;-0.11445074;-0.05893917;-0.1157116;-0.059241623;-0.34617865;0.17003281;-0.008887408;0.05454756;0.09580777;0.00096337905;-0.50683594;-0.06870011;-0.26134196;0.016457887;0.329657;-0.06877048;0.30674845;-0.15230145;0.08892885;0.040462226;0.36556438;-0.023222078;-0.048488673;-0.046349384;0.07140178;0.10296525;-0.2879506;0.106925875;0.06860208;-0.016597878;-0.07696978;0.08274769;0.020316934;0.04520052;-0.14123313;0.14694318;-0.051058162;-0.13515422;0.14786655;-0.04066119;-0.022545861;0.19664186;-0.009180499;0.060589246;0.2202196;0.011456343;0.057287127;-0.022369377;0.015363958;-0.010665456;-0.025504291;-0.059147287;-0.13594745;-0.057867497;0.12793082;-0.023833256;-0.038472425;0.0713901;-0.050956625;0.18615267;-0.25666577;0.09421432;-0.21338283;-0.3395287;-0.06975797;-0.036073033;-0.122296885;0.1254282;-0.018421797;-0.039479017;0.4943984;-0.22048448;0.11193418;0.054460082;0.011152228;0.068569526;-0.17524604;-0.057263516;-0.08022963;-0.026362546;-0.19186515;-0.030224202;0.07826114;-0.10418213;-0.2041108;-0.05673256;-0.04328863;-0.030115485;-0.2334325;-0.12111193;-0.026030764;0.032734316;-0.0048822598;-0.35903043;-7.473458e-05;-0.04320409;-0.00025642614;0.10149711;0.06524353;-0.014707542;0.28603175;0.034108587;-0.1291039;0.083073154;0.04439043;-0.07798492;-0.10868441;-0.07201879;-0.38748878;0.08349206;-0.104775;0.2020428;-0.08123643;-0.024895327;0.18175209;0.022802167;-0.07752618;-0.26654118;-0.09347809;-0.061450314;-0.15228382;-0.07864353;0.081904896;-0.016726127;0.07752086;-0.1885927;-0.004189545;0.09053264;-0.060575552;0.6092203;0.102368996;0.018695978;-0.34628865;-0.065422066;-0.060799688;-0.013991435;-0.0786222;0.19153683;0.08416704;-0.07652578;-0.051722713;0.08148743;0.05538669;0.006337667;-0.00069302757;-0.15792911;-0.076795675;0.1609259;0.433425;-0.26914743;0.06513187;0.028337432;-0.072170846;-0.27480283;0.1114804;-0.01764624;-0.070564225;0.02296514;0.004084603;0.081253186;0.06908309;0.07521929;0.04994845;-0.4736536;0.06256111;-0.036758013;0.02080266;-0.0027688642;0.2906447;0.10148537;-0.080973804;0.0064030807;0.36203519;0.20275298;0.29184505;-0.02728343;-0.12524265;0.027478792;0.07618274;-0.043450657;-0.20146535;-0.061626893;-0.20759822;0.0609762;0.093065694;0.08398676;0.14968115;0.008817868;0.16000617;-0.041995827;0.2149171;0.013233938;-0.27110207;0.10954667;0.13806665;-0.02311816;-0.07693773;-0.059636123;0.0036854134;0.04418932;0.06644508;-0.32392305;0.06116164;-0.004498382;0.005893814;-0.0044209915;-0.008419384;0.109064646;-0.088740475;-0.13393511;-0.03747698;0.10488852;-0.09904598;0.07442273;-0.020901525;-0.033585507;0.3023996;0.039433967;-0.10774039;0.22594193;0.08309368;0.0053257523;0.008206013;0.040166292;-0.06182124;-0.026915822;-0.2759612;-0.065772116;-0.12755756;-0.100266464;-0.06973643;-0.06935861;0.0777393
0.03067615;-0.2979661;-0.24525228;-0.05117134;-0.005047768;-0.113511965;0.03779441;0.053466547;0.2042537;0.019118302;-0.0003843081;0.28229743;0.15760462;-0.29765373;-0.06257088;-0.017453127;0.18646331;-0.08158318;0.0060704253;0.054834105;0.15164058;0.05835591;-0.19954385;-0.20213373;-0.039711934;0.046495575;0.2145535;0.16561487;-0.05623655;0.24431968;-0.19107015;0.41053063;0.0645031;-0.09444031;0.03717646;-0.055484664;0.024983756;0.14172544;0.0033730208;0.09797937;0.057201363;-0.0241721;0.07729383;-0.22623712;0.02100478;-0.06542236;-0.09136645;0.028978204;0.07330309;-0.0008216182;-0.16514629;-0.024962205;0.057287674;-0.21142448;0.32215053;0.24385269;-0.111854106;-0.17324427;-0.06825374;-0.05690631;0.1305003;0.2692898;0.10034787;0.08383663;-0.0310144;-0.08321596;-0.1132814;-0.119746685;0.057819065;-0.026949853;0.08399307;-0.10053388;0.05561355;-0.21655168;-0.07107253;-0.029900057;-0.0599877;-0.10496614;-0.03669992;0.005612832;0.04827621;-0.20821196;-0.06304533;0.013234466;0.14630099;0.08293372;0.12685722;0.05203731;0.30615842;0.2291684;0.14224957;0.119189546;0.21862559;-0.0513295;0.10499032;0.047790352;0.055091865;-0.053843565;-0.052480396;0.11682058;0.13222603;0.22302692;0.040969282;-0.0387286;-0.121223904;-0.06495585;0.009029872;0.06863246;0.044965502;-0.17530654;-0.18790804;0.08260558;-0.27826726;-0.049228743;0.016317012;0.30500582;-0.036774542;-0.13963673;-0.062567726;-0.101778746;0.17384233;0.25577325;0.02590511;-0.00207291;0.16807772;-0.060000475;-0.03152481;-0.1477129;-0.3721321;0.026408788;-0.20538726;-0.32472205;-0.1715315;-0.032276455;-0.07674931;0.06803611;0.09415322;0.0072253686;-0.005165452;-0.068367995;0.14023162;0.238559;0.031364437;-0.06655981;-0.10354917;-0.10546151;-0.13067101;-0.33160606;-0.04676648;0.08948907;0.04789713;-0.017955992;-0.024715424;0.19970591;-0.008850131;-0.045162342;-0.022719946;-0.005323395;0.017025165;0.03921999;-0.041757204;0.26721233;0.0029342314;-0.057236042;-0.01475845;0.39743856;0.10142705;0.13341467;-0.157566;0.030807052;-0.25297788;-0.005314078;-0.031039923;-0.2531421;0.011577331;0.010413712;0.20983809;0.05005595;-0.09636679;-0.083053514;-0.03818206;-0.321453;-0.01824344;0.0359828;-0.036911365;-0.056273524;-0.06317895;0.060534976;0.21364373;0.14479432;-0.026321378;-0.052329067;0.025075594;0.053735692;-0.08996118;-0.00163821;0.085915215;0.17147481;0.24429937;-0.08480133;0.01540792;0.14670879;-0.058703206;0.15684396;-0.12572701;0.09279085;0.04627217;0.29343307;-0.020955332;-0.027392874;-0.009668276;0.0052339663;0.2295254;0.07141209;-0.046756912;-0.028333101;-0.0009927105;-0.037767675;0.004951413;0.0092332745;-0.18085879;-0.054139648;-0.1895337;0.043477636;0.03152738;0.17975953;-0.063443646;-0.18245627;0.061775953;0.0853663;-0.0013787283;0.18658862;-0.026817644;-0.21074396;-0.027151328;0.14353672;0.12258485;0.108481996;-0.009371963;0.07322906;-0.116237424;-0.0057423315;0.010716467;-0.18295828;0.00069997343;-0.030263355;0.2618424;0.5059695;0.085025296;0.022316795;0.07401618;0.34120736;0.20921922;-0.15865116;-0.09065731;0.03293797;-0.13794217;-0.48342738;0.03993406;0.02734112;0.25290197;-0.17601483;0.181523;-0.03533901;-0.14800134;-0.010781846;0.0389941;-0.03153921;0.1844446;-0.19671975;0.21981582;-0.11602265;0.030393653;0.07344557;0.07850074;0.06606715;0.31086156;0.069596395;-0.01690099;0.22037974;0.23180476;-0.062027685;-0.035766896;-0.09593154;0.19114283;0.14899889;0.05674738;-0.09694148;-0.29713935;0.08639312;0.20914009;0.41941476;-0.093025714;-0.040601432;0.120734684;-0.00045452296;-0.17568597;-0.16796194;0.0126380725;0.018487014;0.18724932;0.35519826;-0.0039836583;-0.1257322;-0.061786998;0.038615584;0.09384944;0.09221142;0.52426225;-0.034584038;-0.09064871;-0.05647548;0.13531902;-0.38068762;-0.00160258;-0.34403628;0.31499994;0.0035711578;0.09714431;0.014735618;-0.06297468;-0.07912347;-0.035139482;-0.061044384;0.13033754;0.056690432;-0.07242735;0.045995828;0.25475544;-0.027476562;0.17385179;0.00016509154;0.053414147;-0.026223477;-0.0645522;0.114858784;-0.12408554;0.03647778;0.0059942887;-0.034893695;-0.068840995;0.069081075;0.29253736;-0.072776504;-0.117732905;-0.14867094;-0.06595129;-0.2129522;0.16174743;-0.014817465;0.073917754;0.15712179;-0.017007932;-0.4615565;0.072281994;-0.20281845;0.006411092;0.35019156;-0.21335456;0.36173087;-0.13227636;0.031132288;0.025274577;0.43367675;0.060026098;-0.015504359;-0.03663212;0.110893354;-0.014388044;-0.3546838;0.15583284;0.061617136;-0.042695835;0.07790447;-0.05879118;0.14694016;0.021340737;-0.17375228;0.27591014;-0.003994595;-0.11045827;0.055593897;0.037268706;0.034342308;0.24723288;0.011139287;-0.056853253;0.15744284;0.035349395;0.047627393;-0.0015772729;-0.115570605;0.0017866753;0.018608414;0.067876026;-0.088870645;-0.21988313;0.0547255;0.05957042;-0.038773444;0.20893176;0.027846765;0.21057028;-0.26829875;0.10877396;-0.10746094;-0.25645342;-0.046178706;0.00062928075;-0.20237032;0.0633488;-0.01883214;-0.035642695;0.3225441;-0.21867843;0.08479003;0.054736905;0.07955837;0.09770137;-0.13504834;-0.034070823;0.026017;-0.039642274;-0.1561404;-0.10613976;0.006882044;-0.13132888;-0.06878283;-0.13885619;0.028183669;-0.108955614;-0.22308826;-0.16075952;-0.035027802;0.019152204;0.043727707;-0.3399251;0.09738391;0.06093038;-0.036937833;0.08341657;0.011633067;0.105932;0.22236039;0.050656565;-0.13695617;0.0672852;0.031722892;-0.11026962;-0.06451993;0.018052619;-0.2094986;-0.0021155882;-0.11667894;0.24472667;-0.13998382;0.045352716;0.110540666;0.041280244;0.023770602;-0.44823834;-0.19472334;0.009383558;-0.04288264;-0.13472582;0.07211632;0.033371385;0.06886053;-0.28763342;-0.045798298;0.21923989;0.061812058;0.5390066;0.14229627;0.08457269;-0.28365916;-0.082643315;-0.025028547;-0.10966026;-0.075274356;0.09652459;-0.050458465;0.06515758;-0.01726955;0.044587728;0.084765285;-0.006320012;-0.006774987;-0.15750751;-0.09110988;0.19624455;0.40881848;-0.34386626;0.018383471;0.062433094;-0.08899758;-0.23332717;0.053629678;0.019065764;-0.055186734;-0.043555316;0.027797239;0.03735574;-0.0114493845;0.024412861;-0.0051659495;-0.31446373;-0.0095317885;-0.04642191;0.025450395;-0.035241704;0.27294916;-0.025272029;-0.06448398;-0.049372185;0.25069854;0.1971227;0.4569196;0.01856166;-0.074785;0.049910452;0.21523315;-0.037849724;-0.13832903;0.03174092;-0.2592819;0.024626072;0.09520632;0.0010669403;0.092188805;-0.05474104;0.16033047;0.071994856;0.37820837;0.016419446;-0.31717733;0.08244202;0.101805985;-0.016864812;-0.19033204;0.058051184;-0.022627564;0.02196308;-0.0054444936;-0.32368064;0.15281203;-0.009126892;0.07115959;-0.031570274;-0.06531741;0.1798913;-0.09834768;-0.26031983;-0.05005519;0.10772878;-0.2314587;0.12005889;-0.025292648;-0.04946675;0.2539554;0.06849337;-0.1714361;0.26985857;0.014640741;-0.013184086;0.047456894;0.18620363;0.0005663345;0.005335708;-0.21711828;0.03502422;-0.1155202;0.008026965;0.014676024;-0.019331561;0.10010508
-0.009282783;-0.1620494;-0.14100006;0.045930523;-0.0630262;0.010184512;0.042210102;-0.07156341;0.09875001;0.029563505;-0.021798765;0.22164388;0.120215476;-0.17797379;-0.056473374;0.027132677;0.22289252;-0.12624045;0.03961226;-0.018076085;0.21248864;0.042154983;-0.16358958;-0.2775403;0.021344932;-0.08182152;0.1544517;0.1625215;0.06928593;0.23570526;-0.15984872;0.3734059;-0.054086626;-0.120561965;0.026488641;0.052003108;0.030939037;0.04436365;-0.061322752;0.0192542;-0.049495388;-0.01884628;0.05869314;-0.12669003;0.0347719;-0.05786225;-0.08111032;-0.083910525;0.033177365;-0.042298943;-0.12408183;-0.02396537;-0.07705559;-0.18137418;0.2611498;0.30518585;-0.27464563;-0.016550811;-0.14300114;-0.04895719;0.075947024;0.26801068;0.08158871;-0.025046682;0.03108694;-0.017778616;-0.033730954;-0.07436813;0.08209745;0.006113604;-0.017286418;-0.17506993;-0.033528652;-0.04121831;-0.03647417;0.05794815;0.0057240897;0.020173883;0.02660919;0.108722076;0.17457888;-0.200814;-0.06370442;-0.07070769;0.102634154;0.13512968;0.033070523;-0.028405577;0.3651027;0.14093372;0.082000904;0.09699039;0.12230061;-0.063263945;0.1685259;-0.022912567;-0.08486201;-0.037077636;0.0010496036;0.05622813;0.1130872;0.17934142;0.005752595;-0.01781022;-0.045884863;0.046221506;-0.0014739705;-0.045859948;-0.05040938;-0.28777626;-0.2031491;0.036622558;-0.23081182;-0.10417704;-0.0076426915;0.2853691;-0.010378901;-0.13955416;-0.035699155;-0.1453171;0.12272248;0.20638968;0.036730237;-0.07195002;0.22324212;0.004119928;0.043945123;-0.14903869;-0.30421492;0.00096949615;-0.15550357;-0.29094583;-0.06433872;-0.021581285;-0.20931302;-0.06939211;0.11199352;-0.0026843846;-0.036705203;-0.042179376;0.24226834;0.30452564;-0.08620018;0.0147862295;-0.091243245;-0.029429084;-0.12762032;-0.3195628;-0.044896483;0.121452704;0.024469541;0.067865476;0.06761818;0.26066515;0.04476744;-0.19624911;-0.06783399;-0.0010391235;-0.0019294793;0.05400664;-0.06863424;0.23713781;-0.03434312;-0.06450361;0.08779197;0.3531675;0.071931206;0.22958668;-0.2382291;0.06270053;-0.25982755;0.096741185;-0.026690926;-0.13491508;0.085370116;-0.09368934;0.18336561;-0.0097860545;-0.0435638;-0.13366309;0.071729615;-0.36771476;0.10077669;0.0033985954;0.048067003;-0.024156364;-0.0041864277;-0.024154793;0.17992628;0.24916658;0.09655437;-0.14342988;0.0565047;0.042550616;-0.030269066;0.0071894405;0.2599266;0.23767358;0.36162016;-0.08889266;0.07435544;0.1867804;-0.07258385;-0.008502038;-0.04075048;0.038060956;-0.014326666;0.23495318;-0.03571544;0.02091001;-0.011414568;-0.0041525224;0.19941232;-0.014274909;-0.05598091;-0.06667126;0.12831713;0.05586391;0.029606808;-0.020975985;-0.21719022;-0.07946048;-0.016464107;0.037484482;0.012744439;0.3069484;0.06499906;-0.19967104;-0.0838437;0.045180872;0.046733666;0.19891769;0.03184983;-0.18374158;-0.05482294;0.04774825;0.16244371;0.034953635;-0.035682674;0.045379743;-0.11859363;-0.1077198;0.031344216;-0.24232793;-0.0051434166;0.07673636;0.28468844;0.5229519;0.12722732;0.02239369;0.07583498;0.25847197;0.18970846;-0.27916566;-0.016297828;-0.059781455;-0.046501756;-0.36369362;0.1341646;-0.051232044;0.20815575;-0.20534623;0.20349042;-0.072239004;-0.010626741;-0.007083288;0.068473876;-0.043338336;0.20311284;-0.24198195;0.20888804;-0.12667744;-0.039134566;0.013183408;-0.050494555;0.056871522;0.2345259;0.027433787;-0.08504377;0.22927909;0.18884766;-0.060887847;-0.052505754;0.0138505325;0.17974506;0.15494847;-0.03720444;-0.08678686;-0.29510042;-0.054920655;0.277952;0.40527222;-0.062944934;-0.15278094;0.19927616;0.00034462588;-0.19011238;-0.021225307;-0.06465909;0.03632674;0.17514206;0.3286809;-0.03648077;-0.17180906;0.05105097;0.0013137888;0.12170507;0.063514054;0.5392122;0.06360462;-0.123349175;0.0150943855;0.108857326;-0.42037475;0.07410022;-0.31427675;0.27517062;-0.0233407;0.055580895;-0.04423937;-0.0022364063;-0.03479851;-0.116688564;0.06937707;0.097448274;-0.018580219;-0.028480604;0.018584097;0.3296723;0.010082025;0.103811376;0.045493737;-0.011159595;0.02201814;0.052409608;0.052901298;-0.08573936;0.049325366;-0.010439705;0.0127223255;0.012420763;0.008854678;0.24364159;-0.17191067;-0.12829322;-0.19120586;-0.22190468;-0.194582;0.057939768;0.038035538;-0.07354159;0.2297791;0.00399889;-0.2987728;0.09133912;-0.10156112;0.06702856;0.27942172;-0.15866286;0.2708918;-0.19153409;0.061596803;0.043109093;0.415975;0.01810998;0.019245846;-0.06878602;0.043166444;0.007888217;-0.50041777;0.10474282;0.066894196;-0.07169985;-0.031362824;0.09597825;0.09588449;0.05347067;-0.2539906;0.17453101;-0.014398865;-0.050268516;0.096236125;0.00619707;0.009448289;0.11225386;0.018024286;-0.019860357;0.23285004;-0.07479788;0.047384776;-0.041531593;-0.15793899;0.07433435;0.061154883;-0.0100614205;-0.03512217;-0.093037665;0.02097287;-0.009129702;0.014722919;0.2404015;0.033240367;0.36423516;-0.11505412;0.18552692;-0.06518155;-0.3386107;-0.01508176;0.058909226;-0.11009195;0.09674989;0.007795328;0.010274367;0.39330408;-0.20872687;0.004673299;0.21488184;0.08140558;0.07266615;-0.09900338;0.09512511;0.022429164;0.030386033;-0.13595717;-0.01943617;-0.056955904;-0.129589;-0.12903275;-0.022458341;0.04485623;0.055520058;-0.33184424;-0.12645023;0.045178995;-0.048159763;0.05032895;-0.37450755;-0.009644863;-0.0494509;0.054908276;0.25800002;-0.016647253;0.05264711;0.3050531;0.0216983;-0.20405431;0.011115646;-0.029788665;0.04022725;-0.058576893;0.024941752;-0.2924974;0.14720845;-0.08818884;0.19407715;-0.12486287;0.10769442;0.07978176;-0.056962322;-0.007794258;-0.4815112;-0.22208743;-0.08721016;-0.011233446;-0.25051218;-0.08134173;-0.047777764;0.13859913;-0.2322056;0.089633934;0.10322451;0.00047733524;0.55745554;0.25505105;0.004060912;-0.28311497;-0.10964982;0.06897641;-0.022654267;-0.0057710228;0.17592062;-0.059776742;0.03063951;-0.020070521;0.043295465;0.075960636;-0.07414463;0.018481005;-0.25085384;-0.098178335;0.017618189;0.4157257;-0.31234762;0.039545354;0.017065883;-0.0028824778;-0.089839615;0.13117969;-0.029279824;0.02053033;0.062859066;0.029646896;0.11935844;-0.014399337;0.03156024;0.096778564;-0.30393502;-0.07224465;0.074666135;0.018407485;-0.18338759;0.19154865;0.036462475;-0.078991786;0.0023225537;0.21568392;0.095663555;0.393745;-0.0017434788;-0.076748595;-0.031210186;0.07196869;0.038264424;-0.07459734;-0.06630685;-0.2041126;0.07713489;0.21572727;-0.1312803;0.05487586;-0.04029285;0.15066949;0.04795653;0.43820345;-0.026271582;-0.2479011;0.14909224;0.076047614;0.08064677;-0.19715545;0.05828411;-0.045876604;-0.049068764;-0.057111662;-0.43446407;0.07642007;-0.014581891;-0.025731944;-0.043004967;-0.021196155;0.09548739;-0.02816912;-0.23380964;-0.03934387;0.11781651;-0.05933987;0.009380096;-0.004743181;-0.012701904;0.23741955;0.12319747;-0.14539434;0.2718101;-0.014498095;0.08060491;0.15097345;0.15025716;-0.033205446;0.031292215;-0.19092594;0.029007912;-0.1496369;0.0064119324;0.069492415;-0.04497794;-0.024431743
0.018326312;-0.22193535;-0.1437109;-0.06595668;0.08159729;0.01914845;0.03378045;-0.015472344;0.07131842;-0.11805373;0.07239033;0.2545221;0.20121858;-0.25026911;0.09183196;-0.023809366;0.10119558;-0.17795502;0.012708095;-0.02542837;0.16404204;-0.0076209893;-0.14929317;-0.14522783;-0.01854037;-0.01288551;0.144264;0.07708959;0.03195826;0.30180028;-0.29014826;0.35282052;-0.22088678;-0.1559227;-0.06178027;-0.0668677;0.044325057;0.12282793;-0.0961683;0.18200271;0.04576544;-0.121821865;0.081811525;-0.15811169;0.034601312;0.08029113;-0.0005895831;-0.15663034;0.08391709;-0.02668803;-0.055182546;0.071562275;-0.06939494;-0.10845755;0.37585112;0.1934318;-0.26273608;0.067869104;-0.10999255;-0.08089769;0.20368244;0.26787448;0.013085628;0.050105773;-0.041647572;0.032900203;-0.04657373;0.053115845;-0.015169811;-0.016473072;0.0013122277;-0.21120061;0.04706125;-0.042534504;-0.0028277894;0.049750876;0.077788055;-0.0024600811;0.045965225;0.13915202;0.05883006;-0.19305539;-0.062524885;0.014587008;0.127849;0.09675511;0.07396347;0.026270853;0.3424305;0.12175425;0.05725876;0.050660133;0.10653937;-0.116335034;0.16986491;-0.04255582;0.020440582;-0.048120886;-0.060235675;0.053370837;-0.017532287;0.2722979;0.12176233;-0.0011921519;-0.11750692;-0.009626197;-0.047182508;0.021981485;-0.017902035;-0.32127556;-0.18274835;-0.12140251;-0.13103695;-0.068448044;0.05454585;0.23001128;0.05344877;-0.06932122;-0.08749971;-0.18541452;0.12026758;0.33305973;-0.07444577;0.10508759;0.1778075;0.039671432;0.033677556;-0.083393134;-0.3134326;0.020681463;-0.20421973;-0.26067048;-0.13686407;0.07599179;-0.12585194;-0.07756431;0.10142128;0.035193417;0.03365133;0.023982031;0.16842614;0.2700052;0.02424967;0.042713255;-0.0510086;-0.05471166;-0.08552708;-0.4481796;0.07770903;0.18833047;0.055473376;0.0760365;-0.06728927;0.15468569;-0.029199658;-0.26169914;0.073496215;-0.045662306;-0.035860214;-0.084820695;-0.09019511;0.247575;0.008348067;-0.0038519942;0.08611993;0.41466928;0.14235611;0.08140125;-0.14666662;0.14895825;-0.16070998;-0.014332576;-0.025963694;-0.09627855;-0.0008473528;-0.033218857;0.24512109;-0.024237487;-0.16601305;-0.013637912;-0.04467898;-0.30893573;0.14126688;0.05006725;-0.06528779;0.06396338;-0.04953744;0.059036925;0.18066554;0.21834457;-0.008031328;-0.21993062;0.0218664;0.025201691;-0.089964665;0.030195476;0.27345213;0.02503977;0.28229797;-0.12830791;-0.037764676;0.13745952;-0.07121137;0.053200167;0.016157988;0.039931946;-0.040628582;0.27069676;0.065949716;0.016108945;0.016506808;0.062461417;0.39205667;-0.001618438;-0.028325235;-0.030113794;-0.030425373;-0.034787413;0.028148178;0.06343232;-0.19350755;-0.0006086893;-0.062038492;0.011448881;-0.078323744;0.2799008;0.013707102;-0.09454726;0.021854592;-0.022841943;0.029976213;0.23278108;-0.026977623;0.001894177;-0.06926883;0.012149566;0.111403726;0.0040347395;0.01974945;-0.038318984;-0.037383784;-0.14975388;0.004088221;-0.17312934;-0.07352684;0.09520455;0.3284983;0.4695516;0.096082665;-0.0015615266;-0.067146726;0.3327737;0.09708686;-0.36358353;-0.05134462;-0.10723366;0.029214669;-0.30328533;0.1752735;0.026556486;0.20929463;-0.11817383;0.34506577;0.041589826;-0.034957115;0.018790862;-0.023116365;-0.026239607;0.21930547;-0.22887059;0.077043;-0.17374638;-0.03148572;-0.101486176;-0.021716192;-0.06912193;0.24445757;-0.021037342;0.040591106;0.14492548;0.20292467;-0.034207758;0.08971135;0.043034997;0.15715663;0.08661774;0.11420829;-0.09081493;-0.13319361;0.032893907;0.20022632;0.47700465;0.023494726;-0.034826394;0.15647596;-0.04160202;-0.27859464;-0.16849135;0.07369032;-0.072569475;0.25601515;0.30891702;0.060226887;-0.062635265;0.0135657545;-0.028403055;0.11437665;0.19821815;0.41540766;0.027627125;-0.078551956;0.02315706;-0.05910845;-0.2949481;0.09026288;-0.39319772;0.11243036;-0.008239244;0.22402512;-0.0844193;0.036805376;-0.026884526;-0.15350023;0.0066830334;-0.026566166;0.020249851;0.057558607;0.04791786;0.28454107;-0.047642466;0.077962585;0.010635727;-0.05333158;0.020750647;-0.013737215;0.07428551;-0.02453219;0.12866086;-0.020833882;-0.13993958;-0.048019614;0.002596385;0.13966742;-0.1902218;-0.07874653;-0.25270253;-0.15687615;-0.21156318;0.16610065;-0.04480268;-0.023421705;0.22264464;0.05762924;-0.37860867;0.031247858;-0.15636079;-0.03575262;0.18063736;-0.2485084;0.2693545;-0.06294586;0.2590938;-0.031274036;0.33441544;0.021413945;-0.032594133;0.046594497;0.15863872;-0.08290888;-0.46517214;0.18560055;0.12838714;-0.19890589;0.05443554;0.024980117;0.015849419;-0.09896156;-0.23802911;0.13626379;0.028233515;-0.1470581;0.1132391;-0.08497932;-0.1272203;0.1378135;-0.00072670233;-0.021176858;0.2639007;0.06587019;-0.05336609;0.0015555706;-0.2360411;-0.06751762;0.053250175;-0.0025874868;-0.12754993;-0.15535308;-0.10184511;-0.0066129956;0.005056604;0.21445668;0.06711909;0.22023499;-0.19461352;0.04785093;-0.13062888;-0.19772637;-0.05885134;-0.044485714;-0.16215433;0.0844046;0.008780265;0.0077801393;0.36412135;-0.13047455;0.0341001;0.12925373;0.0948082;0.055568755;-0.17261401;-0.0038444484;0.042000525;0.015436392;-0.13525882;0.07136379;0.003003084;-0.07247654;-0.004571172;0.012723241;-0.066307716;-0.013053813;-0.3721468;-0.13567176;-0.036301333;-0.03200272;-0.012608529;-0.33484182;0.029086027;0.020422693;-0.023873711;0.17162211;-0.013675567;0.082887;0.11111597;-0.053390577;-0.25524807;0.09446349;-0.0056955703;0.044394046;-0.1618233;-0.01609326;-0.2767836;0.11791334;0.0140611725;0.22902025;-0.16527727;0.028110692;0.17773332;-0.0010651262;-0.0031772566;-0.30268168;-0.086423896;0.01557362;-0.015706958;-0.14563034;0.0036457146;-0.092319444;0.22385725;-0.34231967;0.00015676687;0.18844992;-0.07516695;0.4548688;0.26465353;-0.0096290475;-0.35557362;-0.18412893;0.07820783;-0.1436116;0.027445395;0.20631379;-0.073544055;-0.0007255701;0.01619674;0.028315647;0.07215515;0.023195487;0.042482156;-0.23338036;-0.1562079;-0.026615137;0.37416857;-0.17792152;-0.08621455;-0.059742022;-0.029987345;-0.13616505;0.15704028;0.0754389;0.01819142;0.013612061;-0.01658744;0.087835856;0.054286055;-0.08004926;0.1515783;-0.4606237;0.033202585;-0.06509564;-0.04973571;-0.2444946;0.33673328;0.050158158;-0.13837986;0.06894981;0.2309866;0.14903495;0.39675942;-0.0321994;-0.088920355;0.08660212;0.23280723;-0.0684265;-0.09207714;0.066883095;-0.25296098;-0.051509514;0.21765533;0.0794405;0.10648794;0.080171965;0.03953245;-0.028940435;0.3173709;-0.03695918;-0.30116943;0.18184468;0.07344903;0.04471977;-0.2524323;-0.05863377;0.0051251287;-0.028209707;0.050067138;-0.30848578;0.05652252;-0.04300001;0.01809841;-0.021073513;0.06323965;0.14079969;0.043910712;-0.20250289;0.018063368;0.034048937;-0.038567346;-0.03945027;0.06708705;-0.04171022;0.34615347;0.069756635;-0.016627803;0.11043321;0.08507585;0.015353668;0.14036833;0.09188915;-0.02087326;0.018132987;-0.10016147;0.051202413;-0.2944604;-0.026405722;0.028008552;0.001922586;-0.030249098
0.03819946;-0.16489471;-0.17909825;0.06989707;0.01808592;-0.11015751;6.714797e-05;-0.0506808;0.09811471;-0.049759902;-0.057130687;0.21011914;0.20798293;-0.15441304;-0.094530255;0.013798127;0.037244298;-0.15633261;-0.0054343897;0.07778462;0.19278552;-0.06985343;-0.0020685939;-0.20418818;-0.029339537;-0.049912054;0.02269829;0.20193844;0.008894259;0.3257984;-0.28246686;0.31540373;-0.18395221;-0.07836271;-0.01768149;-0.009021706;0.034548447;0.10626097;-0.12167093;0.18783508;-0.05944595;-0.012539913;0.080918014;-0.12579927;-0.030253235;-0.07931726;-0.023643354;-0.18947692;0.09374324;1.1374655e-05;-0.16071062;0.088095896;-0.069356106;-0.18211845;0.2701399;0.21024957;-0.27261218;0.0021250201;-0.19139922;-0.059307475;0.18407582;0.26212534;-0.061281707;0.11635365;0.060151026;-0.024312476;-0.13450585;0.024496883;-0.12366447;0.013431562;-0.052179616;-0.14999788;0.11929346;-0.038718786;-0.06372675;-0.040460847;-0.073757075;0.03975791;0.15671813;0.19784544;0.109762564;-0.09514838;-0.05649902;-0.03354492;0.18939492;0.1333406;0.008474952;0.05869317;0.25077462;0.12536757;0.13415875;0.13867712;0.13897121;-0.11869574;0.047457155;0.012501433;0.06264311;-0.12857625;0.06555573;0.084131256;-0.12317101;0.2638728;0.1701972;-0.04950556;-0.19862252;-0.048535187;0.024833066;-0.0011475594;-0.026302962;-0.35667652;-0.12619855;-0.097886324;-0.24152012;-0.12872191;-0.06536674;0.34054583;0.040999837;-0.06645946;-0.027205108;-0.23809855;0.05485208;0.30906296;0.067900054;0.009448719;0.12249532;0.041374255;0.014598558;-0.04424089;-0.12216271;-0.0627983;-0.10424416;-0.1395094;-0.09817038;-0.06029518;-0.03987056;0.07788773;0.14335582;-0.013120923;-0.02754257;-0.076835185;0.18118155;0.1242247;-0.011763915;-0.050463792;-0.028565306;-0.16799317;-0.117156036;-0.492487;-0.005495511;0.22667666;0.10634763;0.0415756;-0.043649834;0.31009933;0.019603364;-0.27777877;-0.0138397915;-0.05275025;-0.0029361618;-0.007227171;-0.12231415;0.2465394;0.00046786893;-0.015513214;0.04431066;0.28818083;0.23955289;0.08001777;-0.24892272;0.05355523;-0.17419182;-0.07807691;0.034249336;-0.21137346;-0.04496168;0.01716406;0.34218767;0.026170999;-0.057553347;0.13692787;-0.03167186;-0.36425492;0.110348254;0.121014975;-0.001589276;-0.060497012;-0.019317854;-0.013025142;0.24899699;0.16612189;-0.11293207;-0.13846354;-0.046558138;0.01831698;0.012223359;0.042259425;0.32960442;0.08645492;0.42287442;-0.14236924;-0.0060768714;0.14240892;0.056052834;-0.040986273;-0.018105306;-0.09866582;0.049684647;0.25952026;-0.0135412775;0.06671064;-0.021761553;-0.0028546383;0.3581208;-0.059546612;-0.044784833;-0.01728738;0.0730561;-0.07828415;0.14916767;-0.012862202;-0.27469772;-0.19300371;-0.024917863;0.04938862;0.035444617;0.09099999;-0.015839456;-0.090456896;0.061713897;-0.006721027;0.049841784;0.28894717;-0.07057401;-0.025294947;-0.15142299;0.017235305;0.088918276;0.10883492;0.036174815;-0.005692048;-0.030026404;-0.14608617;0.028907698;-0.10176135;0.05414106;0.083864614;0.29697326;0.4048917;0.16653602;0.03765053;0.051232725;0.31694448;-0.014192311;-0.41279596;-0.14377047;-0.09794968;-0.028671712;-0.26862398;0.23111169;0.009224101;0.21046036;-0.025780948;0.38757512;0.027420675;-0.13480692;0.0073945643;-0.089382865;0.0769191;0.24966326;-0.15175898;0.01267775;-0.14192477;0.04148843;0.02193561;-0.02883246;-0.069689475;0.1407515;-0.0077250423;-0.14319569;0.15217689;0.16216756;-0.024536537;0.015191584;0.077832945;0.27125487;-0.07002824;0.0047007217;0.030095827;-0.06652586;-0.0028590038;0.2605369;0.38463563;0.019670118;-0.06331045;0.26143909;0.056571085;-0.32263672;-0.0964754;-0.05609381;-0.008704211;0.17694433;0.33104518;-0.05095575;0.04011958;0.014223755;-0.033896234;-0.011849921;0.092395104;0.4174135;0.16212747;0.01764245;0.0044882214;0.04098404;-0.36779404;-0.02375717;-0.43865636;0.09908929;-0.0320284;0.19244497;-0.12863709;0.064360775;-0.08395072;-0.10634709;0.020133955;0.1335999;-0.01976458;0.07283863;-0.00307449;0.21408989;0.016776877;-0.007985088;0.035927344;-0.0034157042;-0.06336392;0.14376205;0.054251794;0.006408276;0.085895464;0.06879558;-0.09128639;0.011890028;0.06892536;0.073394515;-0.16333652;-0.11062843;-0.273702;-0.25959656;-0.28298908;0.014080945;-0.016492886;0.04871512;0.178805;-0.0070610917;-0.36558425;0.0390606;-0.13163416;0.04083005;0.11186253;-0.22772321;0.24264587;-0.12086826;0.20661692;-0.051727377;0.31073487;-0.047116857;0.074829526;0.014146758;0.14296365;-0.050392754;-0.4243571;0.07698995;0.15741926;-0.2014579;0.03417146;0.008764485;-0.028681599;0.042209588;-0.2836355;0.028256977;-0.008388228;-0.15958388;0.15632343;-0.056175485;-0.11823753;0.17610021;0.0082476195;0.04206836;0.3775412;0.066875614;-0.060708772;0.024611278;-0.23420066;-0.042361982;0.048949044;0.068965726;-0.097829;-0.042704057;-0.11486741;-0.04731455;0.037412185;0.31349462;-0.07018268;0.303521;-0.17074381;0.11303457;0.09991613;-0.19124243;0.005657592;-0.06533377;-0.105285704;0.15362962;-0.07228419;0.05222895;0.31120425;0.00044319965;0.10756205;0.1453079;0.1831725;0.111628905;-0.22443911;-0.039460693;-0.07885956;0.046290666;-0.22335306;0.06774386;-0.055480126;0.06270503;9.890543e-05;-0.072410285;0.044145923;0.11139756;-0.3290096;-0.17648934;-0.0042729187;0.07158366;-0.027000949;-0.3223238;0.09334431;0.048021924;-0.05649451;-0.025295734;0.058708258;-0.002453571;0.09098373;-0.0038102947;-0.08682112;0.067548394;0.027092513;-0.15039615;-0.1711776;0.078861855;-0.19010061;0.051320698;0.052417368;0.26197144;-0.16022368;-0.0735015;0.12693283;0.015112614;-0.07181302;-0.30647758;-0.09359506;-0.013389934;0.02749914;-0.24493596;-0.06842706;0.034327794;0.21442024;-0.33835277;-0.036015444;0.31632587;0.044844143;0.538017;0.30018777;0.015143235;-0.3338426;-0.29524595;0.063419595;-0.07477627;0.049578093;0.11478718;-0.21745436;-0.0005001103;0.0413978;0.06003669;0.0038525949;0.025575103;0.0045110257;-0.30984318;-0.20022215;-0.11743464;0.29389468;-0.16257268;-0.01284527;0.03628244;0.040574364;-0.048679374;0.09564717;-0.0402934;0.03834274;-0.12452502;-0.0019723861;0.23572172;-0.039896645;0.041179433;0.06716681;-0.35730848;-0.034084916;0.019392293;0.041466873;-0.19634515;0.18895884;0.07009832;-0.13638896;-0.024452817;0.14868262;0.13026907;0.397684;-0.0073409444;-0.099981606;-0.07083783;0.10895383;0.039196253;-0.106984854;0.06986461;-0.34799337;-0.046705782;0.28834876;0.019982196;0.096659675;0.115252055;0.06100813;-0.0015302605;0.41592345;-0.03950315;-0.27105564;0.24349387;0.2043839;0.21099721;-0.21319477;0.04058109;-0.031363484;0.04049316;0.07026247;-0.3499817;0.108021826;0.059265275;-0.041289825;0.0076025953;-0.012144392;0.2351004;0.14507395;-0.11761844;0.09112359;-0.043523546;-0.060059045;0.08206823;0.012480454;-0.023931412;0.3358357;0.042921256;-0.06638576;0.10891998;-0.027314164;0.02677237;0.046856336;0.19179474;-0.01946104;-0.028043447;-0.13052776;-0.06571773;-0.31317902;0.079549715;-0.0009890666;-0.0044854064;0.015253589
-0.083175525;-0.18658677;-0.10718631;-0.09317588;-0.03691142;-0.15393925;-0.07440762;0.0008171899;0.07274795;-0.09364675;0.06121217;0.23708752;0.22230835;-0.21843562;-0.055256423;0.057107106;0.063922204;-0.18759191;0.03774472;0.007119405;0.24434924;0.0238526;-0.0056763208;-0.14052127;0.1723947;-0.07170926;0.014730561;0.21566522;-0.025448568;0.28769234;-0.21083283;0.12053231;-0.31660923;-0.2011422;-0.013139773;0.048903286;-0.03159585;0.01359696;-0.18644577;0.26668003;0.016216418;-0.05907637;-0.023068486;-0.13238145;0.026521325;0.0056066774;0.0009935816;-0.1406572;-0.009912078;-0.009837549;-0.063920006;-0.050107818;-0.14691542;-0.07695993;0.320637;0.1941819;-0.28922704;0.05125517;-0.23590627;0.04068931;0.2273614;0.29372248;-0.060364537;-0.019917741;-0.021902371;-0.008533384;-0.12861001;0.039367616;-0.14984018;-0.028802317;-0.0042380546;-0.1932253;0.08248065;0.066698335;-0.017341057;0.0063807345;0.084182285;0.07222247;0.1699071;0.1290466;0.08373897;-0.019946236;0.07774262;0.0007430025;0.058318406;0.09546727;-0.07418121;0.025227966;0.37766826;0.07994601;0.17729808;0.17777155;0.0647185;-0.098568715;0.16117135;0.0402909;0.026533322;-0.12660758;-0.02940083;0.18824288;-0.180392;0.17671362;0.018491032;0.09262524;-0.17024386;0.029592669;-0.022185272;-0.021992687;-0.049061406;-0.3360651;-0.19072804;-0.073530495;-0.20505553;-0.062523276;0.04986435;0.21603239;-0.046884276;-0.1736782;0.06726847;-0.1810701;-0.042026155;0.2905141;-0.037378848;0.07416694;0.21864101;-0.07057378;-0.02959668;0.020434445;-0.00093726174;-0.07887859;-0.15902649;-0.22923274;0.03793438;0.026122438;-0.14702472;-0.05591301;0.17531435;0.030554196;0.06352336;0.05739261;0.18402103;0.17448403;-0.049306646;-0.24774836;0.13688679;-0.08164336;-0.1936316;-0.43258768;-0.043100853;0.13559511;0.14958784;0.065408364;-0.019263724;0.3093009;-0.047007497;-0.2799422;0.06273204;0.06574243;-0.023358535;-0.036078934;-0.019337893;0.28648728;0.048489016;0.058830876;0.18497208;0.31801006;0.26281166;0.077184245;-0.06394494;0.065087214;-0.11477218;-0.03563201;0.048669636;-0.07156688;-0.0068903463;0.035640873;0.4439995;-0.038263507;-0.11070815;0.14695351;-0.060079593;-0.3410935;0.20432359;0.13083462;0.052548878;-0.01958045;0.010205948;0.04066255;0.30984837;0.14557122;-0.033323903;-0.19082288;-0.09293375;-0.07118987;0.14134909;0.13488398;0.34126973;-0.0631534;0.39195704;-0.18686482;-0.018601855;0.16540194;-0.0650787;-0.07685292;0.111818574;-0.06927108;-0.004627314;0.2195165;-0.118769474;0.006771291;0.077379785;-0.023527471;0.4044768;0.0055537997;-0.0044703064;0.051112775;0.03333981;0.03787525;0.21982756;-0.06635634;-0.19688955;-0.2580785;-0.05847602;0.11640331;-0.017182617;0.14934772;0.043971635;-0.009035078;-0.04604575;0.065923065;0.0015682512;0.2561949;-0.13503912;-0.016974026;-0.1236979;-0.016218048;0.07283544;0.15984891;-0.07080458;0.03508453;-0.09825788;-0.117394194;-0.030183738;-0.077580586;0.036572233;0.09686118;0.2782972;0.4389139;0.122493014;-0.010843698;-0.023203148;0.3896382;-0.039105162;-0.3378546;-0.011954301;-0.15377629;0.03549582;-0.11708462;0.21288179;-0.06201429;0.23785152;-0.10197729;0.26284087;0.08356493;-0.0275716;0.0013320365;-0.19899167;-0.06068676;0.20437382;-0.10279958;-0.059761237;-0.10031003;-0.052616622;-0.0056536677;-0.0125701055;0.05818836;0.21266273;-0.0143370265;-0.041351635;0.09813102;0.24732792;-0.032588642;-0.029050289;0.0827045;0.2946889;-0.008041213;0.12704283;0.05068064;-0.18965746;-0.058573876;0.25368452;0.33719262;-0.08626174;-0.16620539;0.26827243;0.016414795;-0.44577146;0.0026898007;0.061073072;0.08297397;0.26383504;0.33038822;0.07670747;0.067448914;0.0015405274;-0.046877123;0.10833471;0.00054489664;0.4528312;0.079865;0.10466879;-0.08236245;-0.059972312;-0.23882438;0.033268817;-0.36527404;0.037203137;0.0027676376;0.27712485;-0.17412136;-0.019682204;-0.050048094;-0.16129595;0.060548306;0.027729094;0.02967776;-0.0543207;-0.0080035785;0.3690007;-0.0029937;0.03292022;0.04627272;0.004557166;-0.009998211;0.022252204;0.08514371;0.093162045;0.06837046;0.02644142;-0.10190743;0.019492125;-0.052936964;0.10054268;-0.26352018;-0.08802865;-0.18562259;-0.35873935;-0.25323072;0.08767034;0.06734268;-0.022256969;0.23983863;-0.039349664;-0.30257112;0.05198169;-0.058762465;-0.0540821;0.18509683;-0.26505008;0.27318487;-0.070173286;0.32193717;-0.042396434;0.41650996;-0.020642739;0.058781344;0.06892943;0.21804565;-0.012706495;-0.563185;0.12862076;0.26159656;-0.23171902;0.0075405627;-0.011820487;-0.060714807;-0.07035546;-0.3302348;-0.045881916;-0.07671623;-0.22158323;0.11669921;0.022963732;-0.059325233;0.19327424;0.038990524;0.018888898;0.44773635;-0.017816246;-0.032954026;0.0056716944;-0.20779139;-0.007375932;0.049616102;-0.0075936937;-0.0052363905;-0.08431275;-0.22445558;-0.017523753;0.0376422;0.38770285;-0.12439438;0.262732;-0.18776959;0.10217593;0.023578862;-0.26706824;0.08332296;0.011872119;-0.15950468;0.06469465;-0.030582393;-0.01729855;0.25161603;-0.10344356;0.07327494;0.1408399;0.24498636;0.09604413;-0.14953084;-0.027214726;-0.02266441;-0.019219063;-0.18830357;0.037868623;-0.019072909;0.07223872;0.0147655485;-0.15893182;-0.038928963;0.16502322;-0.36620146;-0.23733488;-0.060209583;-0.07538057;0.042681098;-0.24305417;0.14058232;-0.026714876;0.018587034;0.033189792;0.00698838;0.019429727;0.13779896;-0.06530169;-0.11722943;-0.03063922;0.039984427;-0.052055955;-0.13187145;-0.0641609;-0.37053263;0.0120999105;0.11793465;0.21395952;-0.035067283;-0.038734768;0.19195673;-0.0024597156;-0.007973307;-0.2839912;0.087052025;0.035506375;-0.06944843;-0.26746434;0.06429404;-0.013240904;0.12110926;-0.2510085;-0.044370428;0.25362927;-0.02720523;0.48886406;0.27687135;0.12341982;-0.39631158;-0.17242469;-0.052503373;-0.06815663;0.044227913;0.21606736;-0.22052069;0.020809582;0.0038198642;0.014424634;-0.14259331;0.03356802;0.013149551;-0.38289738;-0.22412802;-0.16729693;0.16340898;-0.23684807;-0.011473399;0.04174952;0.045924954;-0.023327949;0.15729353;-0.035109885;-0.021647085;0.03592273;0.0081156045;0.17171428;0.06528634;-0.04341677;0.08144603;-0.40290833;0.0062460685;-0.01819569;-0.030841967;-0.07197048;0.31775326;0.045278326;-0.1545795;-0.008332174;0.13821869;0.07821859;0.35691214;0.01219073;-0.11728861;0.060126003;0.19897808;-0.0070883576;-0.13519338;-0.03294009;-0.28347233;-0.017503235;0.19101144;0.11322511;-0.03116629;0.05836311;-0.059519153;0.01515891;0.4265463;-0.012740462;-0.16402946;0.17930695;0.10463533;0.14867808;-0.30653268;-0.061959673;0.0592452;-0.02915016;-0.013207799;-0.32314557;0.1798892;0.015488796;0.012009621;0.06827614;0.05671949;0.14994262;0.005556143;0.06053972;0.006314065;-0.04613077;0.039626464;-0.06422922;-0.038660437;-0.044449836;0.3697105;-0.051138934;0.00998656;0.13301441;-0.037067603;0.2202828;0.07387921;0.19080396;-0.09616096;0.059604052;-0.027013145;-0.08418607;-0.25604236;0.0037086706;0.0536693;-0.06236403;0.017874187
0.029149998;-0.25063092;-0.07964409;0.043162365;-0.01704941;-0.2064413;-0.016382959;0.06409621;0.024600178;-0.057361428;-0.036626186;0.14389987;0.18508714;-0.18155019;-0.060415987;0.0149097815;-0.06159715;-0.11276271;-0.03504614;-0.038338374;0.16860059;0.0024822138;0.008790504;-0.21664873;0.13614905;0.029788783;-0.0033241867;0.22872192;-0.027529445;0.22858955;-0.20985536;0.16058663;-0.33188838;-0.23200534;0.056317955;0.0121506015;-0.16239299;0.014275567;-0.24159598;0.1880163;0.075645454;-0.09083638;-0.108110175;-0.0696096;-0.036085974;-0.107793614;0.0028581007;-0.09402636;0.040579986;-0.004101831;-0.0078535685;-0.03842781;-0.16931675;-0.0017664509;0.12260087;0.2288275;-0.37582326;0.07645349;-0.24262445;-0.07438576;0.13505697;0.2696298;-0.22914118;0.07089091;0.02906888;0.057792056;-0.07211026;-0.033687018;-0.17600219;-0.030268053;-0.046690557;-0.19202095;0.014485108;0.01222644;0.06196069;0.05672391;-0.009139097;0.058207747;0.17960288;0.21430594;0.14365907;-0.1620799;0.053325992;0.06083714;0.12121103;0.004248799;-0.043639686;-0.088678665;0.40455496;0.14254202;0.19046818;0.16418055;0.07572277;-0.15600185;0.023324274;0.043052748;-0.025049556;-0.008877549;-0.011624567;0.18279275;-0.16616176;0.18116541;0.107197486;-0.004994364;-0.23921633;-0.031113146;0.05076673;0.048131835;0.08402961;-0.39142588;-0.16177225;-0.13894142;-0.16815831;-0.08058074;0.04387809;0.22914122;0.061654348;-0.12083577;0.045689292;-0.18555795;-0.13168855;0.27606928;-0.040541567;-0.045017697;0.16234604;-0.013856648;-0.08752326;0.08388061;0.077658355;0.031636383;-0.21550441;-0.1419881;0.13632756;0.04921269;-0.10949422;0.074296884;0.08150184;-0.03751183;-0.05016323;0.019825459;0.24416938;0.2422485;0.069382876;-0.2433168;0.21254212;-0.07984631;-0.13631767;-0.3350521;0.03438752;0.19796444;0.13623624;0.0893244;0.045549203;0.3264452;-0.008675424;-0.26323405;-0.02679672;-0.017257467;-0.05095403;-0.033887368;0.13825706;0.20891975;-0.017209668;0.0485963;0.23518278;0.092271455;0.35000327;0.029255506;-0.1868521;0.14136986;-0.21942839;-0.036932714;0.06748544;-0.15694763;-0.02309847;0.014710982;0.50117636;0.056843534;-0.09114776;0.295325;0.02016861;-0.2269813;0.16334927;0.24290712;0.04256039;0.057994913;-0.04189619;0.02244629;0.21165198;0.24863154;-0.1321012;-0.18033771;0.029867718;-0.01841883;0.043315053;0.046942092;0.46692008;-0.15173961;0.41524115;-0.1577656;-0.013620477;0.14358038;0.0667554;-0.23325491;0.10485888;-0.07748205;-0.03960886;0.09374687;-0.27155772;-0.016945403;-0.036344517;-0.036685314;0.48383546;-0.026833287;0.06032489;0.015319592;-0.10171369;-0.027312508;0.073880665;-0.050472777;-0.30288884;-0.2512862;-0.08555719;0.08954352;-0.032556307;0.05763675;0.00071708206;-0.075827375;0.017421696;-0.015882019;-0.020656476;0.35674047;-0.11107999;0.017368596;-0.082881965;-0.23038156;0.0782188;0.06936924;0.075415;-0.09548344;-0.16118944;0.013950852;-0.04811913;-0.10793672;-0.06465894;0.12072622;0.23668587;0.5031736;0.057923626;-0.006068474;0.04073737;0.4012;0.047036406;-0.46730465;-0.11368264;-0.15939444;-0.041613452;-0.18397439;0.20616803;0.010625592;0.23869619;-0.070529945;0.22622944;-0.052485153;-0.007268491;-0.011140861;-0.21117093;0.03863589;0.19444992;-0.029632261;-0.049165178;-0.1163805;4.811356e-05;-0.0017687486;0.06688875;0.055541433;0.10629556;0.04747035;-0.03568656;0.13814624;0.2895579;-0.029914727;-0.02319715;0.28345358;0.30623052;0.069999695;0.054064333;0.10347923;-0.15257299;-0.12422444;0.349225;0.39669728;0.06426983;-0.14957142;0.14330287;-0.006809646;-0.47601646;-0.00403077;-0.083467156;-0.06206015;0.2606213;0.33995155;-0.0559963;0.021460107;0.07392305;-0.0596622;0.16124463;-0.016796205;0.39912537;0.17668848;0.10386906;0.09091943;-0.09554626;-0.2402356;0.059976935;-0.35437045;0.030649455;0.01979316;0.328251;-0.06046642;0.009098252;-0.029470205;-0.14850067;-0.05304502;0.057765983;-0.041512717;0.034679104;-0.04210508;0.3090535;-0.05652764;-0.048784297;0.015748102;-0.14339264;0.00982323;0.006786572;0.044432703;0.21726586;0.056167435;-0.046083722;-0.098475434;-0.0356499;-0.00911985;0.122753985;-0.16503072;0.11265931;-0.061404165;-0.26099822;-0.2188996;0.0506659;-0.04852887;0.033227008;0.33463636;0.04188777;-0.3457579;0.16818438;-0.013942848;0.051019095;0.11469233;-0.26392055;0.23997374;-0.0913444;0.34216672;0.05899075;0.39767325;0.01808604;-0.05677858;0.03265516;0.29929492;-0.08315564;-0.57775897;0.09808844;0.22077687;-0.3345273;-0.010021392;-0.07122898;0.072487034;0.043075264;-0.25376025;-0.00976927;0.050038386;-0.16238265;0.0815835;0.020272087;-0.105338305;0.16974938;-0.023490919;-0.054053303;0.38441595;-0.20252894;-0.046686742;-0.01366628;-0.20077555;0.018934337;0.007043534;-0.03600987;-0.19236486;-0.17502075;-0.15074591;0.028652713;0.020240586;0.32019174;-0.2162685;0.3186323;-0.15309072;0.10178915;-0.011452001;-0.23066062;0.07623723;0.031641442;-0.2195737;0.13545394;-0.1359234;0.028367583;0.27042305;-0.12242754;0.072638966;0.04421698;0.21122585;0.078202955;-0.15458518;-0.028832598;0.040810946;-0.025061568;-0.18798117;0.13604474;-0.016932074;-0.05683501;0.10760609;-0.17425035;-0.04755609;-0.0067025973;-0.2924554;-0.19051926;-0.054874867;0.063396074;0.045556005;-0.31350958;0.051814683;0.010898913;0.02493837;-0.07973073;0.020971557;-0.11843962;0.026634227;0.007076781;-0.25709867;0.080343224;-0.0028241077;-0.2010436;-0.09855314;0.04074058;-0.25814304;0.0042923638;0.03706649;0.14007571;-0.16160817;-0.042645853;0.08041842;-0.033609595;-0.022044433;-0.22004536;0.08708521;-0.07793812;0.007936879;-0.21751966;-0.012843111;-0.0291773;0.10314619;-0.33212268;-0.05221039;0.23118785;-0.06676747;0.45626912;0.3323789;0.17213005;-0.29308996;-0.27931607;-0.006275305;-0.116799034;0.079545796;0.17941824;-0.18564954;-0.06191168;0.014968211;0.0810928;-0.024521144;-0.028690046;0.04146074;-0.40674895;-0.23597643;-0.16459244;0.29610226;-0.22370309;0.048809446;-0.035357986;0.17388737;-0.050078735;0.12999664;0.014265222;0.00040739024;-0.040278107;0.044648733;0.20055741;0.029608347;-0.006279725;0.16744207;-0.46429062;-0.010976918;-0.045361824;-0.008492685;-0.13939181;0.17650495;0.011301257;-0.19360721;0.049530104;-0.013762919;0.12663059;0.37366083;-0.07955293;-0.17921345;0.06162922;0.28753218;-0.007945959;-0.07949111;0.022130584;-0.3935633;-0.021739138;0.1190948;0.14195119;-0.01848575;0.04890473;-0.13821016;-0.06874622;0.431728;0.0032068924;-0.21713889;0.20591903;0.088533595;0.11011472;-0.30708864;-0.047333665;0.08256679;0.032804344;-0.07056549;-0.27623034;0.16692375;0.111932114;-0.04092722;-0.051548842;-0.025332384;0.1746485;0.082505904;0.033893045;-0.020514753;0.015642662;0.092191204;-0.00953865;-0.04973885;0.054624375;0.24517754;-0.043504227;-0.011432353;0.07659295;-0.028028555;0.116039544;0.17417136;0.25977576;-0.050360605;-0.078284465;0.10444406;-0.10249789;-0.31824893;0.07559036;0.0013556107;0.06376234;-0.015267603
-0.02744553;-0.25991434;-0.12280809;0.015018448;0.004586635;-0.17016909;0.042366426;-0.058102828;-0.03956439;-0.16957934;0.015204894;0.117574036;0.32842857;-0.3098249;-0.04031021;0.044840656;0.029241854;-0.078732796;-0.022913061;-0.03519075;0.21126735;0.062308997;0.144797;-0.13648458;0.10395874;-0.08380387;-0.07426012;0.15808508;-0.058033418;0.28349242;-0.1272411;0.07867117;-0.28772962;-0.15357095;0.054943245;-0.008743778;-0.24054633;0.06112233;-0.105998285;0.21880572;-0.010537073;-0.15022554;-0.15519911;-0.018752653;-0.06518744;0.01290072;-0.014497398;-0.13585249;0.07891253;-0.024318289;-0.08444104;0.0073454627;-0.1706134;-0.05738951;0.09560837;0.16584639;-0.34375966;0.03941231;-0.18284397;-0.13516219;0.12769859;0.32556057;-0.27864966;-0.019078093;0.016080381;0.0049221297;-0.07000146;-0.014832417;-0.20548895;0.008400543;0.055296354;-0.010299244;0.105644494;0.02437416;0.04290864;0.009005741;-0.060561508;0.05782885;0.16460477;0.08074098;0.31761152;-0.11536605;-0.0046628322;0.0005485881;0.009021604;0.0018022066;-0.10195384;0.051124603;0.3096842;0.14137022;0.11459126;0.17223853;0.14873748;-0.06849025;-0.026223386;-0.011193167;0.03584983;-0.08708337;-0.007944433;0.036403507;-0.1734867;0.20242594;0.076822676;0.03876712;-0.27014986;0.004514973;0.07101343;0.027580181;0.026929636;-0.40854415;-0.1853835;-0.13737571;-0.028282614;-0.15435383;0.057706498;0.14313585;-0.0008198554;-0.1546366;0.010724978;-0.18472975;-0.06702541;0.29716852;0.019708084;0.030291267;0.26975846;-0.0077861417;-0.054521676;0.1395873;0.04805585;0.05276807;-0.19395001;-0.08618563;0.11397664;-0.0025912134;-0.061098784;0.023996536;0.1726436;0.001882473;-0.027592074;-0.0102175195;0.11923877;0.19323203;0.044944223;-0.26746973;0.29729185;-0.103167556;-0.1650422;-0.45581412;0.044095136;0.08218325;0.13505287;0.14946495;-0.0140876705;0.3141141;-0.024769058;-0.31398755;-0.083129585;0.07054471;-0.01499767;0.056272723;0.0810263;0.23611017;-0.027012654;0.035336383;0.3415945;0.10339781;0.31516892;-0.049211767;-0.15547799;0.06584009;-0.227058;0.01562832;0.10551159;-0.19460973;-0.039649777;0.051028702;0.5388205;0.059285603;-0.039510645;0.30386648;0.08648381;-0.3049265;0.29979092;0.28309157;-0.037834626;-0.027669799;0.07665438;-0.10788113;0.18356277;0.13695215;-0.101730235;-0.22189292;0.06353437;0.012124944;0.058048207;0.0969143;0.36437336;-0.1419791;0.4000203;-0.12960827;0.08146637;0.14410777;-0.009997248;-0.21076135;0.12872933;-0.17210028;0.055848427;0.11938593;-0.13049175;-0.06448949;-0.017918022;-0.028629389;0.49913496;0.014318807;0.048897866;0.067194365;-0.09918988;0.013667505;0.16853093;-0.008745826;-0.29608575;-0.2587669;-0.11152694;0.13568373;-0.033216037;-0.018581692;-0.021936554;-0.1389233;-0.02018387;0.04908454;0.018225038;0.398688;-0.15006624;-0.017001854;-0.015949821;-0.26088008;0.13944907;0.103577934;-0.007963314;-0.065226994;-0.16023672;-0.08854389;0.017549565;-0.083650276;-0.051467128;0.053032205;0.2241124;0.46086377;0.13539895;-0.0012692487;-0.05920359;0.38260055;0.012649182;-0.41371566;-0.0037443468;-0.25728372;0.06433956;-0.19626983;0.23964916;-0.1797048;0.18243596;-0.08472472;0.30261412;-0.05723847;-0.03420725;-0.01905297;-0.34060344;-0.0049266326;0.33175498;0.15394507;-0.08521434;-0.086827785;0.03922592;-0.013452195;-0.047888637;-0.047805037;0.10748086;-0.04778986;-0.07705983;0.2689683;0.21982323;-0.053153593;0.04089633;0.24551176;0.31332418;0.11253;0.08046615;0.07459602;-0.27451754;-0.016666098;0.2422717;0.38769117;0.055306893;-0.22705497;0.15766521;0.0213528;-0.49244595;0.13035952;0.033492327;0.0108459545;0.16672051;0.30750677;-0.07148977;0.026364846;-0.03517096;-0.23484568;0.16191983;-0.044673417;0.42089614;0.25285697;0.19857055;0.08005202;-0.17060569;-0.31482095;0.00729268;-0.48095214;-0.13662548;-0.037755974;0.4612593;-0.057223763;-0.056326553;0.0077847685;-0.07728738;0.016485753;0.09304744;0.039648842;-0.07198329;0.02000087;0.23654312;0.07635076;-0.045110762;-0.056787856;-0.23181686;0.029414559;0.09491546;0.044087093;0.26112035;0.038111355;-0.05335097;-0.00064733607;0.041260663;-0.029460736;0.079832956;-0.21516995;0.17289092;-0.08289018;-0.370845;-0.19489837;0.044570677;0.048804414;-0.030344369;0.2594594;-0.029713785;-0.4182719;0.09427977;0.08170811;-0.06247005;0.16105367;-0.3584333;0.17226635;-0.051559977;0.28572398;0.07106725;0.22075516;0.016832363;-0.057120133;0.074509636;0.33355665;-0.094402544;-0.6279687;0.06956751;0.22297542;-0.37614843;0.023227325;0.00787264;-0.03732448;0.054254528;-0.3688257;0.008702023;0.00909495;-0.2364281;0.1098307;0.012237356;-0.14476283;0.16416927;0.04393555;0.022721903;0.57096165;-0.19347218;0.077450864;0.16645008;-0.21374826;0.01372038;0.022742677;0.06972827;-0.19864814;-0.1263436;-0.15620756;0.009486518;0.027670892;0.46477747;-0.25836164;0.23257434;-0.07851626;0.035383753;0.03916489;-0.25823852;0.027770603;0.041375045;-0.32087043;0.17055574;0.021651736;-0.015109443;0.33708283;-0.05707407;-0.015571486;0.051708;0.2493813;0.14936957;-0.039634828;-0.015695905;-0.007090619;0.039554723;-0.1645512;0.016750775;-0.017177759;-0.04581665;0.0069842613;-0.21743599;0.04617175;0.15208517;-0.32811007;-0.20295884;0.07731272;-0.018788295;-0.015904337;-0.2610475;0.04341138;0.004451504;-0.0569266;-0.17952344;-0.034955412;-0.069941096;0.13921797;-0.0025662207;-0.14172524;0.14042473;0.06967759;-0.2655024;-0.122188054;0.004152804;-0.34538528;-0.19267711;0.15806764;0.109778084;-0.13544197;-0.04196366;0.19633856;-0.010875557;0.041020066;-0.30443257;0.15983091;-0.055961445;0.046451837;-0.13966085;0.004549434;0.0383974;0.14388478;-0.26865363;0.082961544;0.26364362;0.013922461;0.52715033;0.29226097;0.11717588;-0.31737;-0.28963068;-0.0040937522;-0.1170971;-0.0384767;0.15150753;-0.24608034;-0.026763527;0.04774386;0.030786699;0.008717212;0.018060789;-0.01301225;-0.3565732;-0.18004426;-0.25427023;0.1703361;-0.33633226;-0.08232655;-0.050440777;0.114411645;0.0463978;0.09285154;0.023607941;0.03819155;-0.03277495;-0.023217015;0.32226932;-0.06811114;-0.044089165;0.250527;-0.4574061;0.061499525;0.06193279;0.05331272;-0.087256424;0.20413348;0.060633592;-0.20025843;-0.020030627;-0.02743034;0.14026044;0.16930318;0.06839578;-0.20769879;0.028307173;0.29486886;-0.07804676;-0.086701244;-0.028433762;-0.40585193;0.03700309;0.21949886;0.15103403;0.105932705;0.08929409;-0.15673517;-0.0014240913;0.42882228;0.029297762;-0.19129819;0.23154864;0.1539234;0.19044255;-0.28578356;0.081436984;-0.049940944;0.030644711;0.016060714;-0.3079222;0.101951994;0.17265098;-0.038868032;0.023904225;0.0015995097;0.062977985;0.16684537;0.03777404;0.043352038;-0.103655055;0.09975446;-0.0045427126;-0.035495814;0.05408697;0.34071845;-0.058721416;0.11542688;0.0024398626;-0.00083698146;0.07813533;0.16341287;0.21112584;0.098210685;-0.16542;0.18188778;-0.10100122;-0.21854033;0.0502515;0.028742628;0.01399592;-0.035389602
-0.00090733677;-0.27557987;-0.16794097;0.028906016;-0.060617458;-0.23761433;-0.09526058;0.0368784;-0.011480373;-0.10366938;0.027141696;0.022450909;0.3744781;-0.16577163;-0.11747554;-0.005411411;-0.13066038;-0.17123964;-0.07194658;0.083417326;0.27694604;0.0413251;0.041770793;-0.040152904;0.21080714;0.041077822;-0.044316143;0.2556929;0.057834607;0.15638064;-0.23234089;0.01911268;-0.41297156;-0.18240815;0.039226487;0.05621459;-0.22578302;0.07076036;-0.1830233;0.11933182;-0.018916978;-0.03640512;-0.11764513;0.028050737;0.0037201748;-0.026666079;-0.008987055;-0.07148627;-0.017883254;0.057782065;-0.13950895;-0.010914254;-0.10502871;-0.009181106;0.032442834;-0.006546702;-0.5455402;0.054059565;-0.091566384;-0.10570851;0.21228464;0.32549033;-0.32322627;-0.032622915;-0.02898013;-0.02632649;-0.1604573;-0.008423617;-0.2250629;0.09649768;-0.0041600144;-0.21018758;-0.016348291;0.10546932;0.05507804;-0.023573143;-0.06818832;0.11475393;0.22164017;0.17065832;0.20385104;-0.14128293;0.19664758;0.02627519;-0.03233867;-0.14562301;0.07548206;0.034079723;0.40607968;0.1784403;0.1830791;0.31181896;0.1097305;-0.048782405;-0.022242798;0.07258376;0.051149745;-0.012268857;0.075824074;0.07263852;-0.16325547;0.17513004;0.024767995;-0.06320976;-0.1568513;-0.0127297565;-0.037484564;-0.10247806;-0.037780385;-0.5089;-0.31163517;-0.09350963;-0.043353394;0.09415481;-0.043071657;0.28031048;0.027251652;0.0069463723;0.012912091;-0.18009496;-0.07935762;0.22267592;0.07267083;0.09867954;0.096853256;-0.008918975;-0.0015596228;0.094368726;-0.05418594;0.05227597;-0.30548236;-0.14934118;0.20068172;-0.038763884;-0.06902353;-0.07033366;0.12782295;0.030760191;-0.03218755;0.03626376;0.260434;0.25437355;-0.04807498;-0.3901308;0.20418394;-0.105824515;-0.2371328;-0.41003466;-0.021929827;0.07577618;0.05571718;0.24108581;0.012249709;0.26484126;0.047504295;-0.39501178;-0.06531418;0.06068651;-0.03879021;-0.005001463;0.18147418;0.24706256;-0.008226342;-0.026082175;0.28189564;0.010010993;0.37738675;-0.08240447;-0.11355461;0.10045286;-0.17644724;-0.046570186;0.2086447;-0.29143593;-0.037435003;0.030001301;0.6054069;-0.0027887444;-0.104154296;0.23229249;0.005611414;-0.25560898;0.35191047;0.27518412;0.013428697;0.03654413;0.062175315;-0.092931904;0.2296028;0.33353806;-0.11625843;-0.15675454;0.039538432;-0.020204347;-0.04755007;0.06791229;0.36562753;-0.088363774;0.44570953;-0.12733442;-0.026779052;0.089757234;0.061839934;-0.1706977;0.25978452;-0.078913145;0.054344933;0.06962194;-0.1654451;-0.06535917;-0.026829379;-0.08338313;0.47297743;0.026433237;-0.028322497;0.005608535;-0.07950075;0.0016302547;0.20177925;-0.06307253;-0.23531719;-0.34816504;-0.03408574;0.06801784;-0.007708688;-0.084611185;0.00018671206;-0.13120249;0.051988594;-0.009231664;-0.026626738;0.48541898;-0.08786651;0.13731647;0.11241789;-0.31776753;0.072518215;0.01218477;0.019842591;-0.23699416;-0.02925713;-0.050902493;-0.07235828;-0.025529938;0.044654824;-0.036837377;0.1811177;0.34118873;0.04522033;0.016459495;-0.042872425;0.348473;0.02794962;-0.440009;-0.102971576;-0.19425616;0.04031883;-0.35020286;0.2432537;-0.1475258;0.17984475;-0.022624658;0.3209933;-0.06031442;-0.042910103;0.027479753;-0.33329147;0.019947598;0.3215964;0.2051642;-0.26225495;-0.1518556;0.054353654;0.04635249;0.024971612;-0.025024075;0.20640673;0.067886874;-0.012774268;0.312841;0.27174148;-0.10055592;-0.0070006177;0.18912534;0.24218304;0.14366578;-0.023014966;0.16310146;-0.27049232;-0.1380753;0.30907372;0.44967842;0.020974316;-0.15496187;0.2538127;0.0062142997;-0.4474883;0.15313932;0.03271379;0.013135277;0.2072656;0.24132247;0.042020243;0.14629734;0.07714816;-0.16386361;0.073714264;-0.08049077;0.3114141;0.20216228;0.2347585;-0.0059690885;-0.27007118;-0.21315521;-0.099030636;-0.49878246;-0.06804033;0.025687158;0.48285475;-0.13408977;0.04129392;-0.06920054;-0.072339274;0.060904093;-0.020286081;-0.06092699;0.07791797;0.05520958;0.32507542;0.019097013;-0.098560505;-0.014392954;-0.2692454;-0.046504192;0.17229114;-0.05157648;0.24457999;0.05127163;-0.016789697;-0.088726945;-0.057128858;0.013781568;0.18488993;-0.17493762;0.06960442;-0.1213661;-0.29430127;-0.3309328;-0.031317383;-0.037407342;-0.012801474;0.37299788;-0.015282122;-0.43557286;0.18570474;0.07853838;0.02706315;0.13632491;-0.32705072;0.13117364;-0.20374434;0.33013886;-0.00858814;0.096683815;-0.083494656;0.0031424414;-0.03561891;0.39267984;-0.14615096;-0.5388629;0.064280726;0.22943775;-0.42793792;-0.012742198;0.03184903;-0.13077965;-0.08035549;-0.44706917;-0.1340003;-0.009388216;-0.20012106;0.1080684;0.05337255;-0.038337223;0.17348762;-0.039471984;-0.009470426;0.48140574;-0.18309022;0.01357593;0.15349238;-0.19544864;0.036948267;-0.12193125;-0.04763171;-0.07740215;-0.15907437;-0.34482825;-0.06295383;-0.04649988;0.3813637;-0.4220098;0.31477374;-0.07312179;0.08403629;0.002818193;-0.35425666;0.06269229;0.05067808;-0.36497283;0.080210626;-0.047096517;0.0010089659;0.2356437;-0.08897453;-0.06843093;0.050554108;0.31778067;0.10368219;-0.032261066;0.07666092;0.03714568;-0.06427193;-0.09003969;-0.021418363;0.07064872;0.026902406;0.20300043;-0.40365186;-0.0041249855;0.019684786;-0.39447227;-0.21671484;0.025457425;0.051274545;-0.041215226;-0.24008977;0.039569706;-0.02705412;-0.046423987;-0.18151538;-0.0765107;-0.031110879;0.04446205;-0.007463827;-0.19735229;0.15306945;-0.07095089;-0.23477216;-0.18031366;-0.023337563;-0.40451184;-0.1014715;0.16986297;0.09695299;-0.13386488;0.12518698;0.17668453;0.05326305;0.050095208;-0.20358866;0.1197768;-0.028282735;-0.010189551;-0.21619643;0.031859294;0.07181586;0.21837397;-0.2891292;0.01965115;0.1669905;0.0024013729;0.46696898;0.16278346;0.17587797;-0.17760421;-0.08551432;-0.003430235;-0.05285277;0.01828667;0.1705756;-0.25765672;0.026417341;0.03507208;-0.13109417;0.039547626;0.042597625;-0.056222275;-0.4324154;-0.21701515;-0.2888331;0.20537457;-0.34392;-0.013424594;0.059638586;0.192604;-0.015535249;0.25452268;0.043545585;0.0317234;-0.07921703;0.04601152;0.30107343;-0.047940165;0.04392647;0.15465596;-0.32955799;0.010051088;0.0014463069;0.02694398;-0.04764456;0.3279561;0.12185891;-0.2044762;0.04135302;-0.14301051;0.13099533;0.24914192;0.01220558;-0.103324935;0.04340417;0.28450614;0.02201387;-0.07708101;-0.00071832427;-0.35414118;-0.028248336;0.23692948;0.17031153;0.14392813;0.20995003;-0.1886189;0.07876113;0.48629424;-0.00030083265;-0.15182629;0.21927716;0.041857537;0.2254609;-0.23979132;-0.032724362;-0.0072972453;-0.077356875;-0.05966034;-0.41465342;0.09108209;0.2760439;0.041980937;0.06305615;-0.039964564;0.07486457;0.04549728;0.16290742;-0.076549634;-0.044981144;0.14768612;-0.13301337;0.080662;-0.04413706;0.3715697;-0.0001698315;-0.0055663534;-0.024241913;-0.06925498;0.1302418;0.15167397;0.22751474;0.043944776;-0.10693699;0.18751837;-0.07487515;-0.266917;0.055627264;-0.023976393;0.045365114;-0.010359547
0.023749905;-0.21571912;-0.16894631;-0.03684259;0.020448161;-0.17216673;0.06948064;-0.025338972;0.024754452;-0.13871892;-0.026896643;-0.08533245;0.414637;-0.14328085;-0.056041364;-0.033100627;-0.1470474;-0.0582066;-0.047412045;-0.049898777;0.21349372;-0.052637257;0.20058933;-0.061444353;0.19201207;-0.074749984;-0.10679321;0.21641636;-0.0010537414;0.16635911;-0.035881188;-0.11748974;-0.4774937;-0.14951771;-0.09438521;0.04110969;-0.21925244;0.075431585;-0.13777855;0.10321187;0.01261919;-0.0626224;-0.27263534;0.09595249;0.08233341;-0.08321084;0.0749325;-0.05916758;0.088920966;-0.032539804;-0.17599721;0.07954629;-0.17218278;-0.03181802;0.006690863;0.05329215;-0.5072708;0.045788098;-0.20991324;-0.12642612;0.20009468;0.30926296;-0.38152966;-0.10508558;0.07214781;-0.044425707;-0.15119164;-0.08794953;-0.2630507;5.8193316e-05;-0.065110594;-0.13330552;-0.044132344;0.115328066;0.060130797;-0.008079747;0.06347421;0.11414924;0.14505874;0.035221193;0.30709967;0.02839432;0.2401108;0.010985804;-0.012141705;-0.1485293;0.027016211;-0.0047950735;0.40037522;0.20714864;0.26840267;0.28969076;0.14871353;-0.03462633;0.0530378;0.04186878;-0.036912378;-0.16584322;-0.051630046;0.19230238;-0.17794487;0.17370856;0.09406152;0.033485353;-0.23016855;-0.0070461077;-0.06019439;-0.022607727;0.017607097;-0.4443139;-0.32213652;-0.09353828;0.048950277;0.009707439;-0.05624366;0.101336665;-0.073341645;-0.067465976;0.06791677;-0.25015634;-0.096314855;0.07904552;-0.035165936;-0.005855788;0.20236057;0.051485647;0.0021037431;0.16500196;0.030038029;-0.0045050243;-0.3787229;-0.19286822;0.3008131;-0.023360435;-0.16979058;-0.017434321;0.067357056;0.010015417;0.07461288;-0.03370633;0.16629939;0.30465907;-0.019654902;-0.41564214;0.31250355;-0.12025593;-0.29175666;-0.4255492;-0.053714223;0.111138746;0.10667125;0.22697194;0.056146078;0.31714478;-0.0060621616;-0.2613436;-0.19121668;-0.051518768;-0.025004337;0.01761379;0.24241106;0.3724558;0.012298304;0.064418964;0.41095394;-0.036551166;0.42132002;0.06832009;-0.26141936;0.12356126;-0.26132178;-0.027758848;0.22179797;-0.23219222;0.078248434;-0.011637129;0.68808174;-0.0561787;-0.099709615;0.37508664;-0.06688841;-0.37653887;0.39966074;0.42416826;-0.08150389;0.019454896;-0.047710933;-0.08384668;0.16507338;0.27985957;0.0011364827;-0.15690082;0.015794508;0.009607387;0.0066438452;0.086685136;0.43533683;-0.12849279;0.34126005;-0.11429867;-0.01367442;0.1787718;0.13957696;-0.19117433;0.20928603;-0.13071783;-0.006520205;0.05522873;-0.10738192;-0.045675386;0.009994638;0.054552663;0.5353227;-0.07032511;0.02036067;0.088097766;0.04744288;-0.016024282;0.20551781;-0.11518935;-0.25175297;-0.30181533;-0.11083636;0.12174419;0.030659938;-0.058146838;-0.02080345;-0.110782154;0.038294945;0.041910797;-0.051296238;0.48867294;-0.15323487;0.14808881;-0.019023862;-0.40418482;0.1313497;-0.011946065;-0.042006582;-0.31859708;-0.08793054;-0.11063597;0.051832728;-0.060148824;-0.009939869;-0.07787317;0.2180846;0.44110104;-0.025964154;0.038258944;0.017224785;0.39198488;0.0190174;-0.46013775;-0.09492376;-0.318917;0.04238461;-0.42498285;0.36010134;-0.20718873;0.20823592;-0.09861306;0.21918598;0.051842462;-0.10166638;0.035822283;-0.39937717;-0.009585222;0.28811616;0.2922925;-0.19377202;-0.15342316;-0.018989984;0.047978397;0.027219644;-0.048737522;0.0031671247;-0.07157732;0.01498135;0.24037682;0.38032395;-0.11772314;0.00096266624;0.27672693;0.25261074;0.119367406;-0.020746468;0.1811755;-0.3219961;-0.08210002;0.23701932;0.4048298;-0.054258138;-0.09101838;0.27113104;0.0027655335;-0.49568325;0.066246636;-0.038361065;0.01667845;0.1961609;0.2702593;0.03461834;0.011789172;-0.07177302;-0.24410571;0.15588708;-0.008299168;0.3195663;0.31539837;0.056373313;0.06913419;-0.17814785;-0.23902343;-0.035150323;-0.46415314;-0.16963406;-0.0533754;0.42129883;-0.13106523;-0.038671702;-0.04108411;0.049015127;-0.063763395;0.022477642;0.01517516;-0.051936496;-0.048962854;0.40814006;-0.06871953;-0.23253573;0.03620264;-0.17434335;-0.028287908;0.14824626;-0.075000025;0.2388098;0.14772134;0.054556843;-0.04763931;0.049189266;-0.04389813;0.094958596;-0.0918043;-0.07316837;-0.0035583763;-0.22475599;-0.21744119;-0.03077559;0.06743182;-0.027559813;0.38817722;0.044002388;-0.37602577;0.26495826;0.18438123;0.04757618;0.1964781;-0.38695264;0.21041279;-0.11360064;0.33598444;-0.079753295;0.24116455;0.030878974;0.029710967;-0.034516104;0.37649742;-0.18760665;-0.5690743;0.0457368;0.25285342;-0.37430945;-0.000530884;-0.062233094;-0.1607054;0.01966514;-0.3170755;-0.07231607;0.06170988;-0.23389812;-0.03091353;0.010115461;-0.0035846937;0.11748358;-0.06556593;0.058136825;0.51194185;-0.11815998;0.033158943;0.1390125;-0.23474392;-0.017852707;-0.10636551;0.010224405;-0.04143691;-0.19215098;-0.44041422;-0.04368764;-0.0182549;0.40515414;-0.41699815;0.23529737;0.019659095;0.1734382;0.029782249;-0.29621625;0.008359219;-0.042145066;-0.35861242;0.20478854;-0.049364276;0.0134935295;0.27533135;-0.18290593;0.08326969;-0.09127897;0.3128749;0.06349126;-0.04307112;-0.0347333;-0.018032927;0.022328913;-0.15737961;0.009816054;0.07855248;-0.09171903;0.37063813;-0.48640293;-0.039462492;-0.070789896;-0.30262107;-0.2428293;0.0062945285;0.0335242;-0.07087459;-0.3388971;0.06806849;-0.0664923;0.01852464;-0.2481802;0.025568087;0.028083919;0.0299032;0.04578721;-0.17402977;0.17611761;0.059913542;-0.15064442;-0.13338059;-0.012957213;-0.3880581;-0.10465422;0.13930063;-0.103289835;-0.036601808;0.1645606;0.12420852;-0.048419632;0.056335278;-0.028833816;0.15173131;-0.045407657;0.046571743;-0.1513421;-0.09230237;0.06996005;0.2605536;-0.36801648;-0.0044378503;0.11077871;0.063407026;0.58647734;0.12648945;0.20744635;-0.20182514;-0.041015264;-0.078270845;-0.030401848;-0.02434544;0.13625143;-0.1831523;-0.0063223024;-0.0055754734;0.035749737;-0.06205656;-0.045323398;-0.042171326;-0.34395084;-0.1473799;-0.46973822;0.042793103;-0.3899462;0.038171757;-0.00448024;0.1707573;0.08447945;0.116817996;0.027041797;-0.0012188763;-0.077275716;-0.0860507;0.33759195;0.04554285;-0.050367683;0.18452384;-0.40480262;0.04081417;-0.04351215;-0.037812002;-0.09020692;0.34097987;0.0033662997;-0.06796755;0.0082416395;-0.17201403;0.10642595;0.116072625;0.023718437;-0.059339274;0.00671969;0.40363553;0.010915575;0.08542491;0.043453682;-0.37298617;0.0073698945;0.2430757;0.21617799;0.005936491;0.16363835;-0.11041889;-0.024694536;0.36309513;-0.047293592;-0.084888846;0.23252569;0.09683656;0.25459778;-0.39523187;0.0032809;-0.04394667;0.05567405;-0.044381;-0.5544401;0.073628366;0.13334121;-0.07560078;-0.0024064668;0.15047356;0.13020699;0.08743272;0.16808467;-0.026400968;0.036877096;0.13050345;-0.0025903275;0.015083919;-0.06400022;0.28228116;-0.009217682;0.045711707;-0.21234211;0.01341421;0.06332792;0.18820532;0.16160333;-0.0014629718;-0.12805597;0.17935082;-0.09587134;-0.2964112;-0.05005125;-0.0635041;-0.06513359;-0.0015941599
0.05215312;-0.23563048;-0.17597544;0.012075325;0.059759855;-0.20305042;-0.0069273585;0.05342412;-0.07992602;-0.10408534;0.0030190228;-0.040037386;0.44946834;-0.11017128;-0.22666892;-0.031996503;-0.121304795;-0.025953727;0.058329627;-0.03311351;0.3250557;-0.01934289;0.19785768;-0.0861413;0.07603893;-0.008464389;-0.008535337;0.1471766;-0.012228614;0.22677973;-0.02305757;-0.048247885;-0.44585273;0.016828915;-0.004454668;-0.062669516;-0.22925845;0.0057234787;-0.0116151655;0.0696192;0.025129074;-0.15160157;-0.27439559;0.17150371;0.001410299;-0.08313742;-0.07702308;0.013265028;0.047582347;-0.047015443;-0.104194865;-0.048876338;-0.09535203;-0.05068469;0.06914231;0.06386792;-0.6306879;0.09374149;-0.2500888;-0.3047937;0.22636576;0.26267445;-0.35205856;0.021748336;-0.030433338;0.079135;-0.14073586;-0.05684571;-0.21932463;-0.06252553;0.0777261;-0.22993447;0.019345473;0.1098543;-0.06416727;-0.016515171;0.020661123;0.20717104;0.21549739;0.15155537;0.2820974;-0.021267349;0.20814759;-0.029344771;-0.07088575;-0.26777422;0.08358563;-0.051514175;0.3772867;0.12152917;0.20201103;0.39698592;0.14065124;0.09224607;-0.014861051;0.0019984688;-0.0071761394;-0.03921199;0.07854162;0.09603962;-0.11075608;0.21997912;0.1386634;0.0096442485;-0.12602225;0.057910662;0.07644844;0.0071407165;-0.0010139657;-0.5279126;-0.40372238;0.004348074;-0.07472872;0.100159325;0.045619123;0.09917189;-0.015928356;-0.07861198;-0.06389386;-0.12692127;-0.04440623;-0.018974006;-0.022218794;-0.0632689;0.13681142;-0.021994863;0.06526886;0.14247097;0.0024403876;-0.062428027;-0.41096333;-0.13248129;0.36738825;0.0022888868;-0.2085491;-0.004555867;0.02616896;0.020177953;0.07502794;-0.008611662;0.24728067;0.30590835;0.05575779;-0.4343266;0.46808726;-0.08160913;-0.2570985;-0.45127168;0.085788056;0.04041307;0.09959687;0.25423586;-0.0010464976;0.32011107;0.0441758;-0.317722;-0.13092625;-0.09873317;0.05833063;-0.051153213;0.24638772;0.30726668;0.04824515;-0.055808812;0.30101594;0.12389436;0.30203477;-0.040927544;-0.26798266;0.11982211;-0.284257;0.081526324;0.19571766;-0.3657121;0.026326027;-0.054709326;0.6560634;-0.0026645837;0.09839591;0.37934938;0.039011985;-0.2201686;0.41579172;0.37729946;0.013256753;0.021215359;-0.024250554;-0.13932784;0.033856902;0.3573021;-0.055998106;-0.027035438;-0.0113053555;0.032324422;-0.03709825;0.14529695;0.30321842;-0.29207662;0.31452358;-0.10076554;-0.011771417;0.19117787;0.24158424;-0.31319115;0.34642053;-0.12727347;-0.074723795;-0.011080391;-0.11040932;0.06826785;0.068796106;-0.0071423645;0.4559061;0.059731495;0.04803067;-0.053112276;-0.06858616;0.031470757;0.22092043;-0.05956352;-0.35463065;-0.3716739;-0.07683691;0.05491296;-0.0049921283;-0.04178611;0.02292604;-0.107454285;-0.060971845;0.1531405;-0.052385014;0.5217478;-0.3160444;0.090507194;-0.0320914;-0.5319617;0.10770973;-0.15564027;0.03738805;-0.31329748;-0.0062173144;0.018166438;0.0035482054;-0.016794236;-0.0060459017;-0.11799647;0.118039764;0.31399232;-0.022815969;0.015939297;-0.033414483;0.41772917;-0.10326729;-0.564691;0.01426956;-0.27383608;0.037384737;-0.50965905;0.3209166;-0.12879598;0.16672876;-0.11670342;0.19178237;0.04291505;-0.074662305;0.0008365609;-0.39573747;-0.004908828;0.45091853;0.27102616;-0.26256153;-0.101916626;-0.013776625;0.16456819;0.04470243;-0.006620576;-0.0036031215;-0.034916006;0.042485535;0.20527828;0.42706102;-0.089589305;-0.0012224313;0.14944719;0.09819396;0.17827626;-0.028229827;0.15258698;-0.23367094;-0.2399703;0.3474841;0.4546741;-0.010272644;-0.057556972;0.3111557;0.01909201;-0.5726716;0.19218345;0.03978517;-0.036815416;0.30336487;0.34613904;-0.076362625;0.051706735;-0.051359624;-0.37345996;0.12809584;0.03174508;0.35914338;0.2562278;0.03459658;-0.031364255;-0.2999748;-0.23753035;-0.03528121;-0.49128765;-0.18009013;0.052475434;0.4927979;-0.16247152;0.048218608;-0.1280443;-0.026908346;0.02044682;0.05998889;-0.051178996;0.07464234;0.008854952;0.32018995;-0.05974533;-0.12096363;-0.0075686495;-0.261593;0.014658183;0.1564636;-0.009529891;0.38166827;0.10951089;-0.008325449;-0.13916077;0.04057215;0.020020382;0.16674003;-0.04163564;-0.025744794;0.00081972656;-0.30035636;-0.22947928;0.18091904;-0.043837428;0.02466299;0.41918248;-0.016147234;-0.34500036;0.22853668;0.30733147;-0.0062046936;0.26354942;-0.45743808;0.10697457;-0.26774448;0.3278167;-0.017775219;0.26865366;-0.01931882;0.05102064;-0.015050726;0.3434863;-0.09847696;-0.46147108;0.06413168;0.2668165;-0.4190705;-0.024406413;-0.04193849;-0.11580238;0.003267178;-0.3077338;-0.095487185;0.014357757;-0.4317226;0.07441341;-0.07541509;0.026442261;0.16970827;0.007195518;-0.0018821703;0.43647912;-0.22134463;-0.0011743123;0.12026055;-0.19835208;-0.06970987;-0.0342084;0.011038251;0.0073517174;-0.09151911;-0.46809778;0.050452944;-0.000229927;0.42808455;-0.39184526;0.24088085;-0.072149195;0.22264272;0.11257141;-0.50746554;0.033380833;0.0007078395;-0.14791116;0.14991277;0.043029625;0.035261445;0.17049852;-0.32926705;0.083341055;-0.10307507;0.33605918;0.04006493;-0.108999;0.015952682;-0.062046207;0.053053815;-0.22478935;-0.021276066;-0.048108798;-0.14004925;0.32496032;-0.5551402;0.067376345;-0.048477918;-0.4401429;-0.16356635;-0.046978697;-0.0025273557;0.014338816;-0.40825388;0.14923178;-0.0036675073;-0.04415261;-0.2482896;0.06482008;0.046225484;0.07416379;-0.019837055;-0.2825198;0.21563427;-0.025806747;-0.19315211;-0.30431208;0.038939767;-0.41065007;-0.11556929;0.20686792;-0.12449964;-0.0958103;0.262851;0.17072076;0.032809187;-0.045489144;-0.05983369;0.15099864;-0.009372583;-0.09210072;-0.016286915;0.0536746;-0.0028392947;0.22388837;-0.33058748;-0.039210696;0.15486412;0.0065916902;0.6130299;0.20859128;0.1593116;-0.038874276;-0.106548935;0.07823802;-0.059377674;-0.013879827;0.20253755;-0.3152593;0.023230473;-0.09173017;-0.09059619;0.07745224;0.075556114;0.056682196;-0.42473397;-0.09355236;-0.39743143;0.08726156;-0.2913956;-0.025932964;0.014811704;-0.014932176;-0.09533402;0.20022565;-0.056811906;0.007938317;-0.1201824;0.02197385;0.41558734;-0.081378385;0.0285438;0.2684652;-0.41429177;-0.07598638;0.042207442;-0.051362026;-0.06868136;0.30379552;-0.0061632446;0.015097577;0.033189166;-0.32759902;-0.008645183;0.08638143;-0.063891515;-0.015459208;0.15591486;0.47575137;-0.012843442;0.038037166;-0.06732807;-0.41316712;-0.0171134;0.24966101;0.28670743;0.07216114;0.24425416;-0.08275271;0.021863244;0.51635075;0.07220972;-0.18509558;0.33366653;0.041785084;0.26496235;-0.4410446;0.044925496;0.052654818;-0.060980484;0.09119552;-0.6275624;-0.061231617;0.12218734;0.04745047;-0.048144445;0.024283135;0.03241031;0.17021394;0.2797002;0.023674622;0.12713669;0.12134911;-0.15039843;-0.037824493;0.04520805;0.30072886;-0.08087914;-0.113851234;-0.3236419;-0.039738055;0.14764193;0.2917884;0.27443218;0.011592412;-0.18358694;0.27151203;-0.15240449;-0.26776943;-0.020077966;-0.037085474;0.052612524;0.02592626
-0.06778032;-0.377021;-0.0487192;-0.006474445;-0.03076417;-0.09426027;-0.009374277;-0.010252495;-0.0647948;0.046898752;-0.012675915;-0.056506865;0.52350026;-0.21172023;-0.21603929;-0.008057695;-0.06506339;-0.10503979;0.04896589;-0.022991845;0.26987466;-0.010341755;0.1811762;0.035449833;0.099464774;0.041194692;-0.01628629;0.2010026;0.008533785;0.14615309;-0.07732438;-0.10724466;-0.48668614;-0.00024234054;-0.0011720981;-0.02400209;-0.20562883;-0.06399054;0.043853257;0.09750682;-0.06802477;-0.19368878;-0.23837943;0.40903965;-0.052173525;-0.0102618905;-0.07392901;0.037723027;0.017989192;0.05740124;-0.2915004;-0.03096967;-0.08232624;0.10070171;-0.087125674;0.05739776;-0.6778832;-0.047904346;-0.36775112;-0.3706881;0.31649625;0.26116392;-0.37889126;-0.11366235;-0.044299446;-0.024999347;-0.11885557;-0.17252003;-0.21504581;0.0168885;-0.0043360563;-0.16074118;-0.056268077;0.15882677;-0.050919287;-0.003953276;-0.017912533;0.25751513;0.0745536;0.043834887;0.3154729;0.13880871;0.38853222;-0.023762971;-0.013709506;-0.18115745;0.076139145;-0.0070026526;0.36019304;0.2559916;0.13850774;0.40760627;0.10642882;-0.010081008;-0.15578353;-0.057839565;0.0005731551;-0.04936657;-0.06637086;0.17598736;-0.12682277;0.21607158;0.117832385;-0.035949487;-0.149027;-0.018775675;-0.046721447;0.05032305;-0.0064398986;-0.45951778;-0.31663826;-0.08695172;0.018327598;0.13136296;-0.039807525;0.10638792;0.029264946;0.055100277;-0.004030938;-0.14145161;-0.035079714;-0.06146003;-0.00022374846;0.04389627;0.25969625;0.0006883588;0.005350301;0.06269142;-0.01667677;0.019287998;-0.38615334;-0.15828139;0.29939115;0.017844062;-0.17155844;0.033314865;-0.007876553;-0.049393192;-0.0793805;-0.0046137115;0.14629962;0.22536427;-0.046982314;-0.53257185;0.5558138;-0.00024458332;-0.17411466;-0.34954712;-0.048237674;0.011406458;0.34487325;0.27136838;-0.050004613;0.18343481;-0.039493073;-0.32764912;-0.07767218;0.040472426;0.09679437;0.040584028;0.1850594;0.29022136;-0.04040723;-0.04404244;0.36790717;0.121141784;0.41791806;-0.14466359;-0.18980847;0.22767863;-0.33578554;0.08215902;0.3465477;-0.29144415;-0.0073152357;-0.007364694;0.7735309;-0.008099508;0.11344815;0.37112755;0.0011297947;-0.30560678;0.5103565;0.36231312;0.016610384;-0.059154727;0.009504349;-0.25538513;0.07388145;0.43634278;-0.02242477;-0.04831491;-0.032797836;-0.012372464;-0.024527526;0.121076815;0.36977512;-0.24137306;0.34709135;-0.23254687;-0.13973288;0.03925664;0.31795067;-0.19476254;0.46888578;-0.20358913;0.001625495;0.103024885;-0.13268952;0.0399663;-0.028921869;0.04712666;0.45194146;0.0035383485;-0.06696304;-0.07172215;0.07602069;0.013006105;0.14807585;-0.0806153;-0.37096447;-0.30198598;-0.24362297;-0.045324683;0.030928923;-0.13813704;-0.00540556;-0.06044955;-0.009792716;0.13180263;0.061184473;0.43390673;-0.2883073;0.16898304;-0.019619321;-0.75069875;0.025960295;-0.12629409;-0.02797194;-0.5253673;-0.044727035;-0.08205583;0.024452439;0.059305537;0.015768796;-0.040782113;0.13290857;0.42081073;0.034687396;-0.06319399;0.0051271236;0.4348055;-0.1693874;-0.5999107;-0.034721587;-0.28743568;-0.057217117;-0.603257;0.23711032;-0.14413172;0.35435727;-0.052041553;0.3056263;-0.014647287;0.047673624;-0.04143526;-0.42122096;-0.00021900075;0.5250991;0.2491399;-0.3167126;-0.2008026;-0.018254673;0.16129306;-0.04465132;0.07714875;0.06702209;0.037257604;-0.030647244;0.22919585;0.41650322;-0.22711289;0.008547016;0.27445966;0.106175914;0.17717294;0.047906723;0.24002479;-0.38760036;-0.21536496;0.3437187;0.3677663;-0.007236709;-0.018840658;0.26006514;-0.0544192;-0.5218445;0.2449269;-0.019467236;0.0056518787;0.3882452;0.33921248;0.056484792;-0.098504424;0.030889967;-0.46401337;0.08606032;-0.01118394;0.19428349;0.29797718;0.010893943;0.004558234;-0.28158844;-0.1549911;-0.063665085;-0.48101866;-0.20291175;0.0064627053;0.4950076;-0.1052574;-0.018468859;-0.06513162;-0.017925134;-0.041099858;-0.045336816;0.05553371;-0.06536836;-0.0307083;0.47286773;0.08309431;-0.15515651;-0.02610666;-0.3014506;0.042899836;0.16978113;0.054848105;0.46373478;0.1128833;0.004228785;-0.17082544;-0.042599414;0.025314234;0.3538196;0.108248845;-0.03318934;0.10782548;-0.2567181;-0.3960952;0.088655256;-0.016204972;0.0040509603;0.52022845;-0.02397937;-0.32638034;0.1756446;0.3102825;-0.042124603;0.28723985;-0.5407583;0.1118455;-0.197633;0.34305248;0.049793266;0.25054234;0.03616508;-0.05171496;-0.03670411;0.48205015;-0.1611736;-0.29209164;-0.02513016;0.4247785;-0.35612166;-0.012838846;0.11465295;-0.28030932;0.0108070625;-0.4667005;-0.089068696;-0.04545886;-0.36337113;-0.050216883;0.060061432;0.028559638;0.26851255;0.02953993;-0.015750194;0.5177778;-0.1611798;-0.038740367;0.06636427;-0.036778226;0.0652989;0.027389392;-0.03302916;-0.033421986;-0.108722694;-0.6294643;0.04063226;-0.020059496;0.50991786;-0.5151098;0.30778342;-0.02662854;0.1346937;0.054962855;-0.5894374;0.003752394;-0.024408242;-0.091737054;0.13097128;-0.13118055;-0.06541314;0.12710553;-0.42773592;-0.032813888;-0.1338287;0.37635306;0.031775888;0.06708448;0.037605762;0.04839618;-0.04693507;-0.12406297;-0.18133748;-0.03306965;-0.16861187;0.25129518;-0.55718577;-0.012220381;-0.08081275;-0.44569495;-0.23863396;0.045490853;-0.07048902;0.048274472;-0.33163667;0.2162315;0.04274381;-0.10655972;-0.08750531;0.09133629;0.05583702;0.10565612;0.022376394;-0.2901476;0.2847951;-0.048943844;-0.25598246;-0.34829503;-0.029968837;-0.38339844;-0.02348971;0.17221712;-0.111730315;-0.112560466;0.20645131;0.13520995;-0.0012037882;-0.011115681;0.059234217;0.15196317;0.041575536;-0.12838317;0.14705575;-0.008892507;-0.03485972;0.1459435;-0.29461372;0.029862804;0.012409969;-0.016474776;0.57768786;0.24843992;0.2058755;-0.15337656;0.016969038;-0.038298406;-0.016305013;-0.038598523;0.12295213;-0.16658422;0.009600852;0.008651654;-0.05284119;0.030149579;-0.07432227;-0.015941825;-0.5134636;-0.07926545;-0.3861042;0.053298134;-0.46175653;0.046579886;-0.037412684;-0.12296294;-0.15125655;0.19877774;-5.0655915e-05;-0.07105459;-0.22822817;0.0028204708;0.27130008;0.09306151;0.02360418;0.30434823;-0.31178704;0.00371693;-0.008388595;0.008470933;-0.13671838;0.43197727;0.18889408;0.047536574;-0.0872549;-0.22175477;-0.040631104;-0.117165424;0.027723853;0.02876474;0.18965337;0.53121406;-0.025571648;0.2400415;0.011315885;-0.43706402;0.046861105;0.24591564;0.30946833;0.17968464;0.11154643;-0.041436497;-0.046323497;0.58843523;-0.024461443;-0.07106552;0.29523444;-0.16542411;0.16268685;-0.36764914;-0.038432818;-0.015923899;0.044429302;0.0034656683;-0.7839664;0.053841338;0.054369155;0.040336143;-0.005191372;0.17172137;-0.011350648;0.07357123;0.21709509;0.019860556;0.18017124;0.15889561;-0.00954253;0.024857616;0.033667404;0.42103332;-0.003443888;-0.17400143;-0.23495072;0.077197224;0.14510866;0.354932;0.27346453;-0.04050159;-0.20263928;0.40458763;-0.174979;-0.28209555;0.012182378;0.038595367;-0.006033118;-0.13542558
-0.017346578;0.19982374;0.12543277;0.02724689;0.046895884;0.3102412;-0.021136664;0.039630864;-0.23484717;0.16015494;0.0037346866;-0.24186155;0.14347331;-0.012817234;-0.20776783;0.014361681;-0.49952924;0.273855;0.029320467;-0.09117894;0.33979592;0.03882353;-0.20331931;-0.062039338;0.36835653;-0.28348553;0.10096658;0.052935816;0.029236378;0.1116485;0.25951317;0.16134824;0.040683825;0.36428803;0.011445421;0.04474778;-0.10209323;-0.09049775;0.23254849;0.38119233;0.028653791;-0.3423591;-0.4184274;0.10341447;0.019858483;0.3693164;0.041465476;0.098470144;0.095721334;-0.04214519;-0.17395587;-0.018154992;-0.08862977;-0.26634005;-0.19609325;-0.34073612;0.17244495;0.20019563;-0.01999007;0.34564278;0.4229761;-0.006836412;0.4229023;-0.11430018;0.00488942;-0.04459018;0.11682743;0.018030996;0.14731342;-0.010677761;-0.027429294;-0.43983355;0.19839491;0.07622345;0.0008239901;-0.017181616;0.014804836;0.14162831;-0.04528185;-0.3372064;0.47999057;0.29909495;0.51295596;0.0067805466;-0.0034374525;-0.40915924;-0.0019103173;0.0017338514;-0.014540875;-0.26342428;0.23639971;0.3545133;-0.119439274;0.123473264;-0.30590144;0.06224645;3.6024234e-05;0.086308956;0.042934425;-0.062211562;0.16371876;0.13020606;0.38247347;-0.012619935;0.08871091;-0.020267274;-0.047670443;-0.018356863;0.013644488;-0.2233622;0.06262158;-0.2841482;-0.15839805;-0.6771029;0.013948276;-0.2399127;0.0046917093;0.092592835;-0.010173236;0.10351542;-0.13937026;-0.5869176;-0.0041490835;0.12799212;0.3128518;0.051509984;-0.039637376;-0.30743188;0.18721008;0.00091386476;0.19903176;-0.43822202;-0.09582008;0.023388157;-0.22171555;0.019457744;-0.20790996;0.019813618;0.030293278;0.045555282;-0.2586207;0.6001008;0.019506315;-0.194837;-0.011758474;0.42612562;0.07233098;-0.5023973;0.0054395953;-0.06737911;0.10859493;0.35695997;0.03352613;-0.23895739;0.0039836583;-0.015213662;0.27033427;0.012054893;0.050200645;-0.010925159;0.21004203;-0.08762416;0.0069639077;-0.039358642;0.40433645;-0.44110665;0.05109419;-0.43468413;0.34955263;-0.21875636;-0.0027183434;0.21869919;0.38531604;0.11991329;0.00849548;0.041592285;0.23284471;0.018854327;0.47426224;0.14801867;-0.010763402;-0.29404518;0.12941478;0.07952725;-0.015324616;-0.051197827;-0.11070497;0.01711572;0.3777487;0.12256571;-0.09440626;0.009834489;-0.044051938;-0.0048495946;0.3539654;0.12044933;0.15219626;0.28136933;-0.080251254;0.022907967;0.0011337411;0.298498;0.2700492;-0.29326364;-0.28650945;0.20396225;-0.03584563;0.3864297;-0.076105386;0.0011654642;0.054277364;0.026349729;-0.12308024;-0.0154412305;-0.01264904;0.009958139;-0.16245535;0.049906515;-0.0022169591;-0.08043142;-0.112771966;-0.044607177;-0.27039805;-0.13697885;0.020978075;0.15749748;0.03981133;0.15428776;-0.07499226;0.09198971;-0.01708492;-0.28338656;-0.054337475;0.063504875;-0.12402605;-0.22972718;-0.0390783;0.23331156;-0.0050634057;-0.015007201;-0.30199507;0.018127916;-0.062910385;0.03944125;0.022308564;0.024562424;-0.12827618;-0.00083089346;0.23122981;0.013807094;0.071208715;-0.01529996;0.38835806;-0.014072645;0.16971721;-0.6011722;0.02209837;0.24610277;0.4550065;0.18280436;0.1898083;-0.11560444;0.45806554;-0.009602933;0.0729567;-0.03927404;-0.19355683;0.048014678;0.3484169;-0.4537303;0.21155237;-0.32898247;0.006651212;0.0075338907;0.03188607;0.06577318;0.26866698;-0.012459796;-0.16633466;-0.11460577;0.0071154675;-0.15909794;-0.0004886017;0.3878609;0.034451876;0.13159192;0.08847021;0.06102103;0.032821707;-0.07469836;0.16675963;0.10886283;0.03923272;-0.07404479;-0.045284107;0.003164893;-0.61091024;0.26942763;0.048279416;0.023042087;-0.43661878;-0.056429826;0.02719987;0.56792927;-0.00751506;-0.096126646;0.303755;-0.066929;0.11033358;0.08702093;0.0016993138;-0.030214842;-0.23040628;-0.013482595;0.08348927;0.049813867;-0.6066973;0.020423966;-0.20982572;0.10448204;0.03279276;0.050204944;0.14577231;0.031097023;0.12419772;-0.01886178;0.013723529;-0.012089749;0.26278692;-0.035967108;0.12448736;0.013505463;-0.25083953;-0.019113833;0.3127524;-0.22650337;0.16970263;-0.47250333;0.020953145;0.15282606;0.009446153;0.06271156;0.17074703;-0.07259243;-0.012883081;0.14243507;0.0062076687;-0.1815496;0.12167732;-0.017941708;-0.009974216;-0.06656645;0.00089583057;-0.08950117;0.2506365;0.2540363;0.020614605;0.1496859;0.19119261;0.15116483;-0.25210148;-0.005766603;-0.010917867;-0.5375338;-0.011537102;0.024695989;0.00062166504;-0.1114097;-0.080836885;-0.367992;-0.068285644;-0.25552452;-0.08081849;-0.025181167;-0.15042835;0.39433467;0.036764488;0.22727062;0.040441826;0.031603247;0.119818315;-0.006823638;0.05134936;-0.083511315;-0.23946796;-0.032996777;0.06203104;0.08183656;0.1658999;-0.05105176;-0.048263036;-0.15244953;0.03875638;0.12135479;0.0125538185;0.045926392;0.18841276;0.3899456;0.028229415;0.024923624;0.04822894;0.7085105;-0.40667027;-0.6626947;0.11569865;-0.16083397;0.21080157;-0.0970317;-0.020912943;0.27697787;0.101498954;-0.0134432325;-0.008449472;-0.5411869;-0.30919755;-0.0015769349;0.052803233;0.03483987;0.012935391;-0.42713207;0.0085232025;-0.008598641;-0.018696003;-0.15017797;0.39308146;0.0171128;-0.21241552;-0.25730026;-0.053388927;0.0031414689;-0.1317959;0.065050185;-0.20321187;-0.0037969851;0.048858073;0.040921915;-0.15586711;0.07973841;-0.02333525;-0.12004951;0.72906417;-0.13353525;-0.8358704;0.41242898;-0.029459484;0.0783569;0.027414976;0.042569287;-0.00082188594;-0.06489981;0.0019173458;0.041781776;0.0015966167;0.18327694;-0.34644336;0.0024685082;-0.1596112;-0.45539302;0.013882411;0.021171594;-0.016363306;0.20059699;0.18883108;-0.21667798;0.21515246;0.057509065;0.02769344;0.31789652;-0.3932145;-0.021804776;0.14766939;-0.01953669;-0.10519121;0.41097283;-0.29421246;-0.15321584;0.07694173;0.024591357;0.21069092;-0.056510825;0.28162447;0.06100796;-0.029258143;0.025889343;0.48832807;0.17319547;-0.0018628917;0.044206206;0.15373164;0.014307701;-0.33063227;-0.45270142;0.0027698122;-0.021671453;-0.033149548;-0.10282734;-0.31935593;-0.14536825;0.015488074;-0.024446642;0.4193814;0.052737337;-0.38172668;0.008296977;-0.0014403892;0.0066022524;-0.09861281;-0.002969555;-0.005878311;-0.006631627;0.2229425;0.18935598;0.34993026;0.039022457;0.041585404;0.3755809;-0.11200459;0.10228557;0.02766851;0.18936352;0.04936256;-0.23940897;0.018270597;0.25105092;-0.02271367;-0.20869268;0.008989021;0.29091188;-0.21774484;-0.08348562;-0.33910373;-0.00727613;0.030359121;-0.8390403;0.011498493;0.38078362;-0.12965061;0.31453887;0.39490196;-0.37959394;-0.019224258;-0.02314094;-0.019899474;-0.04791069;-0.119333364;-0.052371662;-0.076766215;0.017370917;-0.014079128;0.2982046;-0.13517432;0.06913672;-0.48917842;0.009389039;-0.22435588;-0.06307399;0.11359394;-0.039966006;-0.028605655;-0.4037125;0.32747263;-0.20550334;-0.09271014;-0.040431555;0.04198824;-0.8087725;0.21551974;0.0083635;0.23109463;0.25851125;-0.006626577;-0.11179423;-0.066888236;-0.005662436;0.0018389703;0.343251
0.0017064741;0.07303768;0.08026508;-0.022360472;-0.053719793;0.29511556;0.041379906;-0.062676065;-0.31895882;0.04526322;0.018957809;-0.058641262;0.22723912;0.10092757;-0.24644966;0.025567766;-0.33624604;0.31204087;-0.043889295;0.074395664;0.33628538;-0.0046110232;-0.24994513;-0.20485882;0.3161752;-0.2900982;-0.01266246;0.020338228;0.030094659;0.06839675;-0.08326937;0.14693022;-0.05287731;0.3240529;0.049922146;-0.066937014;-0.29286632;-0.1076693;0.2555022;0.27411717;0.057595056;-0.2411359;-0.2774605;0.15087402;-0.035746228;0.24835223;-0.06583583;0.17161693;-0.20499296;0.083314076;-0.12734629;0.014244555;-0.020756913;-0.21633358;-0.048580606;-0.14032574;0.046539303;0.11849045;0.21424621;0.35651854;0.38197765;0.018817702;0.07066456;-0.024551854;0.033400487;0.028456174;0.115467824;0.0091250595;-0.043808114;0.008430372;0.054479253;-0.3160722;0.16203105;0.17802805;0.02280235;-0.038707446;-0.06414596;0.16679761;-0.024505524;-0.14901584;0.3052936;0.22332166;0.4496325;-0.01715297;0.15454729;-0.20285843;0.18823941;0.048745736;0.053472213;-0.089537084;0.20688763;0.24376233;0.028969746;-0.027216394;-0.13187262;0.093095064;0.04725758;0.11404388;-0.07102901;-0.20495981;-0.085250676;0.08743542;0.20551409;-0.0262272;0.055484008;0.00571407;0.02029816;0.01162564;-0.006349737;-0.07257605;0.13286263;-0.13857411;-0.030986117;-0.45616537;0.007725687;-0.30962318;5.9913287e-05;0.14109594;0.049998697;0.013953875;-0.018823117;-0.35473838;0.021935645;-0.027125299;0.07817949;-0.035196073;0.022651525;-0.319016;0.10831409;-0.008954307;0.2298377;-0.19746348;-0.009816149;-0.062274553;-0.35674357;0.0063258833;-0.07617918;0.012212401;-0.026751205;-0.03206011;-0.07966617;0.52689;-0.024335913;-0.021633172;-0.09078486;0.42915925;0.067313865;-0.4944921;-0.016254567;-0.1311961;0.1382849;0.23730402;-0.01448817;-0.2010084;-0.0016711706;-0.054906927;0.28280932;0.040753208;-0.034478202;0.00059464126;-0.0054149497;0.07167582;-0.029835733;0.080712505;0.3918031;-0.39919427;-0.022324253;-0.26435143;0.013810853;-0.08398086;-0.13703975;0.19070403;0.33691603;0.06907512;-0.017315254;-0.0008786723;0.022042202;0.0004325315;0.2978255;0.15747613;0.0024334725;-0.3625248;0.26630297;0.21624298;0.003349199;0.062281374;-0.042606175;-0.12689804;0.26441786;0.0847934;-0.23855;-0.18149084;0.035474144;0.030881425;0.27124548;0.11175924;0.07645939;0.022687102;0.023093795;0.070830114;-0.002409853;0.32514012;0.34297693;-0.1438089;-0.101521;0.08380832;0.04075474;0.0670269;-0.061744574;0.020073732;-0.039912265;-0.035081208;-0.09096081;0.00438465;0.0016322674;0.01954533;-0.16064371;-0.03655328;0.055663433;-0.16799787;-0.004762525;0.10692645;-0.18626659;-0.06718148;-0.047919758;-0.1866963;-0.010246831;-0.10011333;0.058574125;-0.23715161;0.040102694;-0.19161758;-0.053465217;-0.16146669;-0.12608117;-0.19807804;-0.05503624;0.099279396;0.022922382;0.15179402;-0.097782396;-0.019305248;0.058792558;0.08940341;-0.006895482;0.077870846;0.06058284;-0.06408866;0.023543311;0.038757905;0.012072238;0.17542997;0.4250208;0.06236813;0.19474262;-0.45856556;-0.05343269;0.14362627;0.31619513;0.20096242;0.015591059;-0.24891551;0.25204465;0.02581133;0.023721058;0.07802404;-0.14604746;-0.046832908;0.17717613;-0.4646583;0.05377323;-0.12129406;0.0066377423;-0.028139427;-0.02203015;-0.014267027;0.38016003;-0.0012632194;-0.011662961;-0.12630808;0.014203596;-0.29527912;0.04164919;0.3445945;0.07179651;0.011877686;-0.10632112;0.029105153;-0.048408736;-0.020689549;0.30448437;-0.12086355;-0.024720015;-0.12054362;-0.001445761;-0.01348478;-0.53837305;0.29399598;0.0046265903;0.014652594;-0.35062167;0.17467073;0.012954309;0.32347867;-0.008047745;-0.23304291;0.1559944;0.15277594;0.16039439;0.018375043;0.12905538;0.084065974;-0.069109716;-0.10788365;0.104737446;0.01862114;-0.28940785;0.023002109;0.00037120597;-0.08233649;-0.020504374;0.095131665;0.165769;-0.03275646;0.1628691;-0.007881681;-0.021779511;0.041038085;0.15876554;0.059286702;0.10893205;-0.017952412;-0.15757401;0.033553027;0.3480254;-0.12373225;-0.14640076;-0.41698912;-0.000301134;0.21568385;-0.043701597;-0.023112444;0.14808694;-0.09964363;-0.029236661;-0.03814807;0.1529168;-0.13979791;0.022124441;0.014372985;-0.015880195;-0.18259645;-0.048149686;-0.05779166;0.045100383;0.05653142;0.020074414;0.20087625;0.00096500904;0.124261074;-0.3008729;-0.21452916;0.018820884;-0.33323935;0.023122966;0.011852295;-0.021998825;0.01982748;0.08504901;-0.35365307;-0.09526093;-0.36421555;0.09413909;0.030229678;-0.22417626;0.028869735;-0.010381238;0.27807036;-0.08555885;-0.011829915;0.0688875;0.07539677;-0.00876819;0.15124622;-0.165;0.020659648;0.085259594;0.038446296;0.15910587;0.04411824;0.109159306;-0.15332866;-0.0155790085;0.1151586;-0.032884683;0.090753905;0.07280164;0.10166316;-0.04277327;0.010883663;-0.18671136;0.7747777;-0.4356805;-0.2759729;0.13836184;-0.071457796;0.3058367;0.052890778;0.0030910934;-0.023665639;-0.010517864;0.004548723;-0.00871098;-0.13824373;-0.27343702;0.2187383;-0.14896342;-0.041115887;0.11158643;-0.29573953;-0.00025231647;-0.0050682803;0.010206338;-0.3004581;0.33747843;-0.017031636;-0.019261623;0.10772552;-0.086799145;-0.014235202;-0.11695589;0.13709183;-0.17444845;0.0005377844;-0.0457953;-0.036596753;-0.069954745;-0.161824;0.04026173;-0.08307011;0.5613548;-0.10597122;-0.6050165;0.4700435;0.018760053;-0.13348517;0.085815154;-0.0125261005;-0.078641936;-0.022162043;0.062029492;0.1339904;-0.058977038;0.10856902;-0.19842167;-0.036449697;-0.0054181316;-0.51157653;-0.037489723;0.018770024;-0.017353358;0.11873717;0.1090095;-0.05985692;0.04898639;-0.04191474;0.0326049;0.07200153;-0.39805517;-0.04212789;0.07252386;-0.0021211575;0.008516449;0.395281;-0.24770933;-0.215241;0.23838043;-0.0030230002;0.33312356;0.07373284;0.2634006;-0.022251215;-0.0074673686;-0.0051824013;0.18928054;0.21282692;0.019143287;-0.021462487;-0.061483376;-0.120268054;-0.1399462;-0.21666488;0.033792824;0.026662908;0.013363043;-0.07161359;-0.23939294;-0.19377694;-0.07053002;0.03987216;0.24313694;-0.04115766;-0.15864085;-0.006320862;-0.040231355;0.042787682;-0.16497794;-0.018600315;-0.0037709412;0.0110498555;0.1339064;0.12856886;0.17462817;0.0058333026;-0.035378806;0.13934934;0.03690748;-0.01382677;-0.022661623;0.043773025;0.0561609;-0.05831993;-0.014920816;0.2993923;-0.0067370543;-0.011905504;-0.009005803;0.06707059;-0.17564349;-0.02010224;-0.1618205;-0.0121267615;-0.035113018;-0.4126443;-0.006364268;0.40793258;-0.037838433;0.3165217;0.4351138;-0.3583888;0.0001666429;0.0026195357;0.026465787;0.06411775;-0.14106232;-0.053167723;0.08507657;-0.043319147;-0.032434866;0.20507702;-0.16286275;-0.05136964;-0.390906;0.019909497;-0.14278679;-0.20549183;0.020302705;0.07690749;-0.0066008;-0.34931046;0.23226982;-0.13366492;-0.043190558;0.045293313;0.22143337;-0.6827342;0.05815634;0.049530942;0.14393155;0.13891284;0.070604816;-0.042411875;-0.0033051702;-0.037121825;-0.0131914485;0.48621434
-0.03453242;0.07170386;0.035184495;0.02748473;0.025556525;0.22140785;0.006981707;0.052199226;-0.2964265;0.114614874;-0.023147414;0.069622256;0.18749838;0.03842384;-0.45065922;-0.0071776696;-0.3036094;0.09288219;0.045842018;-0.020559061;0.31092945;-0.03779107;-0.20727621;-0.18895963;0.27919358;-0.13670306;-0.16898493;0.101373754;0.03443671;0.10665751;-0.1995774;0.16231924;-0.23823921;0.19279121;-0.046563663;0.01433111;-0.25240535;0.03672847;0.04288581;0.22416015;0.055187125;-0.42390135;-0.019845081;0.10165773;0.03657432;0.15251333;-0.06727458;0.15187481;-0.26376107;-0.052079737;0.07996687;0.028755445;-0.15921296;-0.25877237;0.058675274;-0.00886585;-0.04697532;-0.15760842;0.073845476;0.11652077;0.27701083;0.023602199;-0.0019486081;-0.014061918;0.0039545572;0.028944166;0.059434943;0.11090375;-0.17198855;0.025621446;-0.022087311;-0.28940514;0.06761451;0.08692672;-0.043903828;0.062227644;0.08057329;0.24540132;0.02403706;-0.032626446;0.20670812;-0.0057286136;0.3908544;-0.02115431;0.05176966;-0.10633223;0.026412925;-0.09867699;0.102744244;0.07425881;0.2547097;0.23899367;-0.051177505;-0.14154734;-0.2999281;-0.031797823;-0.04518628;0.029822515;0.03269885;-0.16211404;-0.14440113;0.029787755;0.30070877;0.03300298;0.08094924;-0.021727365;0.025494885;-0.009607151;-0.03762137;-0.14096197;0.16471617;0.0021654328;-0.104408905;-0.33082646;-0.055934142;-0.2604154;-0.03428933;0.34513053;-0.014982002;0.11959915;0.02798339;-0.34022108;-0.02113144;0.044660915;0.07846607;0.0011126153;-0.021080337;-0.19737582;0.19907202;0.032706972;0.32276458;-0.1492395;-0.043912206;0.045039076;-0.46246567;-0.029368313;0.09649136;-0.065482594;-0.029410718;-0.019111894;0.03839506;0.45334086;-0.006751117;0.024251372;-0.0838987;0.47085586;0.10409506;-0.25926867;0.038782515;-0.06504278;0.093049996;0.21399382;0.0031598138;0.017527973;-0.042683784;0.02722142;0.30545884;-0.034741856;-0.05660511;0.06974195;-0.022555377;0.10659794;0.06594177;-0.027504781;0.3762445;-0.23628278;-0.05795208;-0.20324491;0.13001919;0.058266435;-0.06715558;0.2032571;0.30478725;0.28222448;0.021229642;0.00040288523;-0.22020924;-0.0002383907;0.19333376;-0.043850116;-0.0063689617;-0.2726154;0.2942929;0.23596789;-0.024892235;-0.026990267;-0.0024811774;-0.06452817;0.26370767;-0.10203275;-0.23809706;-0.112442516;0.040074356;-0.008857332;0.060301624;0.20481637;0.15102349;0.20466563;0.0051091453;0.14743973;-0.21385445;0.3629791;0.33253145;-0.07005623;-0.011941057;0.09706333;0.0099465195;-0.050169516;-0.114036456;-0.0076240706;-0.05519168;-0.019321574;0.074384846;-0.01997217;-0.0161082;-0.035385255;-0.030839028;-0.029043231;0.07046692;-0.09588228;-0.08402375;-0.038293734;-0.07001641;-0.0016562021;0.025217608;-0.0012677527;-0.04388829;-0.012932257;0.04503424;-0.19157226;-0.004265736;-0.09816341;-0.12311684;-0.032986198;-0.20324185;-0.08762798;-0.16875128;0.07634375;-0.014047069;0.2013459;-0.010855464;-0.11812491;0.03915633;0.27605462;-0.04674303;0.014714063;0.090839624;0.04747207;-0.049961664;-0.04269417;-0.070425004;0.1592153;0.40949777;0.18337856;0.13622017;-0.4562485;0.00056376035;0.013234339;0.13907796;0.11810201;0.07800624;-0.25963;0.038951237;-0.025046349;0.13146003;-0.030869192;-0.22058682;0.01579211;0.08408155;-0.29844514;0.010105394;-0.25846383;-0.043309227;-0.1405695;-0.012567742;0.055829853;0.3093268;0.03970043;0.0034136765;-0.31208378;0.08016361;-0.23482239;-0.0315054;0.2539703;0.05964746;0.10777774;-0.0522719;0.07140202;0.04289146;-0.16787784;0.23750164;-0.115355544;0.0041972916;-0.073407695;0.15777011;-0.010242817;-0.5140255;0.17549822;-0.045730297;-0.031446118;-0.35156325;0.1709815;-0.07638722;0.39357117;0.03289366;-0.189659;0.12728326;0.15216215;0.074470475;0.0061764736;0.10040724;0.084783465;-0.20888671;-0.15812682;0.013916686;0.0352046;-0.29828286;-0.04364159;-0.10050847;-0.11159759;0.049016356;0.050694555;0.08798024;0.024309006;0.123506926;0.039275944;-0.002541166;-0.037317973;0.193355;-0.0677977;0.034214802;0.014914877;-0.120746516;0.017716508;0.14372297;-0.022347966;-0.18969834;-0.49925283;-0.0035761588;0.30247626;0.008682422;-0.055533107;0.19589072;-0.20799933;-0.11672514;-0.12923458;0.06722541;-0.08960585;0.032268297;0.0036987797;0.02756146;-0.19070563;0.020853758;-0.067561515;0.06474922;0.05280619;-0.04798218;0.12998052;0.026861139;0.32073104;-0.21247755;-0.22445168;-0.046845857;-0.41282973;0.028654594;-0.04896855;-0.014033393;-0.025663637;0.072974354;-0.18797281;-0.0060985447;-0.35413134;-0.006998884;-0.003991444;-0.20786747;-0.034274634;-0.0066921078;0.39696983;-0.13111766;-0.032596834;0.1701797;0.119354144;-0.013768547;0.26543263;-0.24400099;0.04404609;-0.052419737;0.109114036;0.1308659;0.03339797;-0.0639157;-0.08082962;0.0039780894;0.062043004;0.03314686;0.2063452;0.05010353;-0.034143906;-0.0020116386;-0.039237283;-0.24337481;0.64760906;-0.57011354;-0.29157498;-0.018941173;-0.053099837;0.28326353;0.16575909;-0.009601979;-0.20370378;-0.10268177;0.05999578;-0.017430393;-0.02362787;-0.28721008;0.18912095;-0.07391019;-0.09217573;0.114375524;-0.3025943;0.029303977;-0.03633952;-0.0058737765;-0.299255;0.0869987;0.0017436773;-0.022507776;0.042632625;0.01367107;0.01738709;0.052464712;0.2802022;-0.03133793;0.012075944;0.0018637311;0.0054672984;-0.1390725;-0.3452231;-0.04098239;0.019959884;0.20115307;-0.0625022;-0.4627865;0.47836217;0.009305365;-0.14150983;0.108812526;-0.056109644;-0.053297434;-0.024529165;-0.056013495;0.14158513;-0.21445887;-0.15913273;-0.14753665;-0.118078366;0.09065047;-0.39311033;0.020680841;0.01466754;0.05715705;0.2600463;0.056418546;-0.1283543;0.0025481412;-0.045101877;-0.044035506;0.17482343;-0.24665305;0.07181217;0.041265022;0.031879585;0.053584743;0.46678573;-0.10537949;-0.24081233;0.13970271;0.003633728;0.31823003;-0.02381925;0.16903748;0.046028137;0.05288334;0.014820095;0.20002332;0.16493268;-0.021446044;-0.04989738;0.050603334;-0.15667078;-0.08214683;-0.11630377;0.08282161;0.005306512;-0.0032588493;-0.06424985;-0.12985839;-0.11834389;0.044544674;-0.055815026;0.11544436;0.0029316596;-0.014704822;0.015231399;0.058200654;0.07870803;-0.23786868;0.053043883;-0.015047975;-0.03026027;0.00781607;0.16550946;0.3661517;0.06829878;-0.030281398;0.10051303;0.07438861;-0.17473502;0.0004703999;0.03486946;0.03606021;0.105601974;0.027927639;0.19592057;0.030468913;-0.046205208;-0.02330995;0.06665142;-0.03892858;0.0524597;-0.0054871505;0.0081436895;0.0054281927;-0.5023837;0.029945232;0.29913816;-0.06858631;0.2246;0.24689032;-0.39419696;0.05735792;0.04784338;-0.05596407;-0.031920295;0.025486762;-0.13011967;0.18492438;0.029171895;0.037042603;0.11422085;-0.12354115;-0.08188511;-0.35815126;-0.090252735;-0.1049595;-0.2802763;-0.14862221;-0.04422073;0.0086528305;-0.20404784;0.18560839;-0.040255252;-0.07587582;0.004829185;0.12833461;-0.60894203;-0.21601547;0.02984152;0.23606038;0.08687767;0.19374645;0.010657906;0.04174224;0.04232965;-0.050118085;0.44565728
0.045930523;0.004670096;0.042175278;-0.060212784;-0.037573174;0.35211772;-0.049446505;-0.03774771;-0.38024548;0.027307652;-0.008768877;0.116586395;0.16414173;0.05953048;-0.4865027;-0.033735823;-0.37986293;0.15048386;-0.058728565;-0.006217118;0.0672857;-0.0026536307;-0.19955002;-0.16139546;0.3555562;-0.27973384;-0.25157714;-0.020175297;-0.035415366;-0.06525843;-0.14610994;0.1606141;-0.354554;0.06481897;-0.0068346714;0.048306044;-0.13585044;-0.030157672;-0.11831395;0.15598996;-0.00021549014;-0.47801462;-0.11123788;0.19546662;-0.009869423;0.04351166;0.018657446;0.23318262;-0.41717815;-0.029236037;0.11513193;-0.04220259;-0.09440141;-0.41778105;-8.917926e-05;-0.013837015;-0.11024875;-0.21862163;0.09708372;0.18679333;0.24653693;-0.15412034;0.05497823;0.01736433;-0.019883892;0.045937642;0.19828045;0.04505867;-0.18745059;-0.037005562;0.005345656;-0.111789525;0.08045439;0.1388369;0.009373275;0.008733127;-0.035280157;0.2636653;0.10322545;-0.019955182;0.30448768;0.05058706;0.18482627;0.007526815;0.04876003;-0.28924745;0.13966024;-0.0008104706;-0.05370434;0.0608348;0.20888591;0.44946837;0.06633234;-0.12873074;-0.24706838;-0.0057571284;-0.0047799437;0.051823955;-0.011579228;-0.2779188;-0.17529233;-0.07131367;0.17174146;0.05505191;0.24828325;0.071931005;0.05511708;-0.04501212;0.038517807;-0.18062077;0.27288064;-0.050513864;-0.047402006;-0.23472807;-0.0011784125;-0.18239388;0.03667607;0.3313778;-0.06242899;0.14488967;0.1715064;-0.37181193;-0.0068859444;0.067481734;0.028905999;-0.030102199;0.057486862;-0.23448852;0.14268103;-0.027243905;0.27839506;-0.27133498;0.05597175;-0.0015037766;-0.40185568;0.018972568;0.06749467;0.057512823;0.01873932;0.01639983;0.032664236;0.3235508;-0.041915648;0.036398973;-0.062047035;0.325956;0.036259077;-0.31406254;0.009272159;-0.0065982076;0.10795996;0.15250735;0.046100404;-0.010838505;0.030879596;0.05299212;0.22174732;-0.04015151;0.032592762;-0.044487525;-0.22341704;0.15536119;-0.019692792;-0.026659902;0.23572361;-0.23308899;-0.06413997;0.052168664;-0.10515403;-0.10619688;-0.117020756;0.13216315;0.19930853;0.29717225;-0.0016808732;-0.065473676;-0.2364495;0.0034251653;0.03721721;0.086324535;0.015280231;-0.31029132;0.28508267;0.19857234;0.020853378;0.008251119;0.039276335;-0.22283012;0.10327279;0.028230917;-0.29624555;-0.09536417;0.015114578;0.0059029334;0.12985697;0.10246975;0.14797112;0.16060644;0.107801735;0.04768296;-0.35039327;0.31907037;0.19989166;0.055478524;-0.10464252;-0.028740037;-0.053927727;0.096372925;-0.014634418;0.0303133;0.03653174;0.02186634;0.06690089;0.059958197;0.03753353;-0.030203717;0.09018399;0.05042949;0.03049204;-0.045076706;0.08695674;0.025412349;-0.10391652;0.10993479;0.06819739;-0.17976709;0.015272839;-0.13800256;0.00035633123;-0.114647366;0.0052910675;-0.15655702;-0.05755975;0.011278582;-0.08295568;0.15696752;-0.19489203;0.14540721;0.0018985568;0.21723548;0.028131193;-0.042545203;-0.0735638;0.22100528;0.015397475;0.011467663;0.011008317;-0.04173537;0.021634784;0.008771091;-0.041909512;0.10627622;0.33363125;0.2354458;0.16604601;-0.26926818;-0.0030777426;0.11428472;0.04156894;0.047428556;0.12168526;-0.23543999;0.24612598;-0.016414009;0.09899298;-0.022391118;-0.14169137;0.00986642;0.2417502;-0.22254233;0.009697779;-0.33247644;-0.026199063;-0.17381382;-0.04435885;-0.09308939;0.2328613;-0.04953598;-0.095185734;-0.19324282;0.09434307;-0.16318792;0.016841708;0.1142266;-0.06974873;-0.01429092;-0.13834696;0.009379247;0.022934167;-0.16057922;0.322387;-0.07561088;-0.009335286;-0.06369292;0.09240813;0.01994475;-0.50559;0.14961673;-0.023427926;0.0040722997;-0.35638034;0.27862525;0.032771427;0.29124966;-0.0117112575;0.106269345;0.067353845;0.11059653;0.056470368;0.044225294;0.12827459;-0.043506045;-0.13851513;-0.11682315;-0.036556713;-0.06766598;-0.19231209;-0.061798856;0.021394806;-0.1522625;-0.057904396;0.045801025;0.062430523;-0.049793594;0.039109327;0.009352112;0.012959457;-0.028571384;0.10904762;0.061867893;0.13637675;0.00039818927;-0.019406332;-0.015181358;0.12373882;-0.066964455;-0.20408955;-0.5064683;-0.017418642;0.20577316;0.03817646;0.020348946;0.21496525;-0.30600044;0.051104277;-0.15365952;0.07180861;-0.0011736562;0.10292506;0.020575754;-0.052816156;-0.1667947;0.06315348;-0.12390587;0.040131193;-0.069408774;-0.022003986;0.1946859;0.011595681;0.15347232;-0.17379475;-0.18775363;0.046320166;-0.24818261;-0.040397637;0.00658229;0.012945991;-0.07007286;0.0059616566;-0.16362639;0.14397232;-0.25252938;-0.010984817;0.044285342;-0.19387479;-0.0075801834;-0.047542866;0.36064819;-0.21950479;0.043058395;0.07613776;0.027168421;-0.06832755;0.114956565;-0.2473848;-0.023962272;-0.068780564;0.24902052;0.032615814;-0.013654993;-0.09164018;0.0006619307;-0.013093547;0.006630796;-0.055461746;0.16294818;0.016593909;-0.09476657;0.019210165;-0.027169589;-0.20502059;0.51844543;-0.5201323;-0.11653134;-0.058797956;-0.12983489;0.2112523;0.004889059;0.07695195;-0.35319448;-0.15740198;0.12402028;0.030628953;-0.019771187;-0.29241216;0.23891251;-0.13560876;0.044779096;0.07252218;-0.19952942;-0.03529278;0.07675806;0.010366404;-0.23135185;0.035767667;-0.013270257;-0.107553735;0.10767244;-0.06438333;-0.011397082;-0.008533213;0.23763318;0.035711776;0.014974161;-0.04693547;-0.043589376;-0.27068308;-0.21882254;0.024965731;0.0052500647;0.2683999;0.0048413686;-0.47149616;0.32648668;0.027718576;-0.10299864;0.014054069;-0.03524108;0.08013367;0.14804222;-0.022889804;0.21038531;-0.2856887;-0.08746327;-0.10804443;-0.010966481;-0.08291545;-0.5078455;0.025091147;-0.053761;0.021571234;0.20624876;0.13033566;-0.1617011;-0.08515092;0.00021557881;-0.0405158;-0.0042128116;-0.28703;-0.007964342;0.024630925;0.06927568;-0.0033967122;0.3776483;-0.046222523;-0.25342783;0.113768324;-0.031150587;0.29017398;-0.006054571;0.18688819;-0.0056345286;-0.04522117;-0.028831653;-0.017323066;0.21704482;0.0063892608;0.03150415;-0.043937642;-0.19334313;0.037818648;-0.031026378;0.08867981;-0.053549156;0.03897334;0.00046507572;-0.15856089;-0.15658107;0.057304762;0.024417637;0.0009138884;-0.054853942;0.003797898;0.0029871212;-0.04356113;0.12422039;-0.25299385;0.0178362;0.030953422;0.03281073;-0.09130369;0.09471731;0.2282516;0.16527209;0.03958929;0.0062474413;-0.18010472;-0.023560146;-0.0025676005;0.010218086;0.02151437;0.13560593;0.06591513;0.21277586;0.051431943;0.13021877;0.009541335;0.080907315;-0.0112432595;0.0341759;-0.12992725;0.24196334;-0.012762312;-0.30543715;-0.049107417;0.13830695;0.04333666;0.40432537;0.16999853;-0.47598827;-0.04321477;-0.025148012;0.050968766;0.024898747;-0.060184117;-0.13340452;0.07091653;0.002643134;0.01787142;-0.0355527;-0.19738583;-0.04712425;-0.12605372;0.022775775;0.051449355;-0.30729237;0.060234774;-0.032308236;0.07801861;-0.15115988;0.055897385;-0.13967058;-0.03439963;0.037779592;0.15868646;-0.5312802;-0.1838759;0.0011301128;0.21232623;0.25554594;0.25363314;-0.07283727;0.03822515;0.020656405;0.042031452;0.3394806
0.0495708;-0.065479934;0.052363403;0.014821528;-0.018266616;0.42077103;-0.025671069;0.00014897763;-0.22372694;0.055282105;-0.029355565;0.21001507;0.21564421;-0.0018548247;-0.45796794;-0.015801745;-0.42150053;0.18334049;0.034574185;-0.010468243;0.14001438;-0.0046075;-0.03975639;-0.1262795;0.1814298;-0.2779459;-0.20318231;0.036749087;-0.075144954;0.038169205;-0.033223618;0.32178533;-0.2848154;-0.008776893;-0.054694556;-0.08033627;-0.22701833;-0.10396897;-0.28889024;0.28629282;0.029987695;-0.40633497;0.04728927;0.10880425;0.035190243;0.1811254;-0.089879856;-0.00045012595;-0.27736107;0.024318242;0.2153725;0.023187779;-0.14774291;-0.24406807;0.00434055;0.014159064;-0.06686425;-0.09642264;0.0051959017;0.010795109;0.05896641;0.005614125;-0.023993837;0.060869355;-0.0019607474;-0.06376305;0.14477853;-0.035715394;-0.16343364;0.037288155;0.009807526;-0.15960234;0.07647178;0.15549894;0.060603213;-0.010956541;0.027313273;0.33088347;0.0759981;0.008320891;0.34463233;0.13902138;0.1549165;0.047818642;0.10662652;-0.17594473;0.21848191;0.029424809;-0.09454358;-0.01110262;0.10754553;0.37936607;0.07427122;-0.16436043;-0.2874824;-0.013528577;0.0362583;0.00086156366;0.01549392;-0.09823;-0.18351512;-0.08296089;0.21573265;-0.023790473;0.09569971;-0.014373575;-0.064195186;0.07113826;-0.033836905;-0.22754945;0.20853256;0.05338112;-0.020490304;-0.18201943;0.03288742;-0.1998245;-0.044503994;0.24792346;0.008658208;0.070258774;0.07946185;-0.33157113;0.013443536;0.016693527;0.0012693369;0.03513382;0.04169909;-0.20943333;0.1707797;0.019571489;0.2434393;-0.24425435;0.025845837;0.0037969656;-0.33334732;-0.057283256;0.12025398;-0.03142328;0.021208066;-0.0054481723;0.025624435;0.400254;0.06743874;-0.02780897;-0.08852566;0.20164432;0.0834922;-0.32513213;-0.014973479;-0.014688072;-0.022170456;0.15297444;-0.06116964;0.06849851;0.07165493;0.075526364;0.16074319;0.009393738;-0.0049795588;-0.0470386;-0.2625882;0.09965375;-0.007868446;-0.03309468;0.13514002;-0.12388805;-0.06318725;0.09888052;-0.07211878;-0.16594896;0.003919389;0.20949087;0.070696816;0.48207107;-0.018015733;0.039214235;-0.1800546;-0.036755264;0.13234897;-0.09722665;-0.0036191083;-0.31813005;0.05439148;0.109131396;0.015604333;-0.01017908;-0.05811985;-0.16835167;0.13341163;-0.066156395;-0.22337605;-0.1188416;-0.04412357;-0.082352765;0.050108813;0.21049106;0.100616075;0.07928332;0.23399118;0.082006775;-0.3816597;0.25209266;0.0080343;0.18779477;-0.07184402;0.08149593;0.058652572;0.08117033;-0.120380074;-0.06479456;-0.017171988;0.0034591134;0.006179659;-0.039664354;0.014543727;0.04520522;0.022273354;-0.0370523;0.055292156;0.085887596;0.026274448;0.13580686;-0.108380705;0.20227556;-0.055165235;-0.09200146;0.01338067;0.13669978;0.015463336;-0.03194816;-0.030739436;-0.013682207;-0.09966504;-0.016118528;-0.07813733;0.10521188;-0.16678658;0.273203;-0.021340197;0.18921757;0.09204588;-0.08334508;0.031356633;0.40856275;0.04807612;0.03158738;-0.07755699;-0.00044924123;0.054863952;-0.05716042;0.05196754;0.18149094;0.34338132;0.24528177;-0.036413047;-0.14645588;0.007712494;0.107598916;0.11360757;0.14974308;0.14990468;-0.23286325;0.32324615;0.05821019;0.03149993;-0.027481653;-0.11303483;-0.033175968;0.11547962;-0.24323946;-0.0020840191;-0.3485504;0.014425094;-0.12798743;0.0736672;-0.07288256;0.18984284;0.0434729;-0.084079154;-0.22723414;0.00812443;0.013778687;-0.022315655;0.16692756;0.099137865;0.0042934245;-0.07076999;0.07095889;0.18677256;-0.2545836;0.27838618;-0.20437647;-0.05994707;-0.07551667;0.22291219;0.04609358;-0.47328845;0.013898679;0.008891075;-0.05774861;-0.24621879;0.23902941;0.027290983;0.26335838;-0.020708073;0.0558933;0.027598215;0.095057845;0.033084944;0.17549406;0.05977933;0.022463659;-0.061254952;0.02698469;-0.06007592;-0.040179044;-0.12185871;0.021640077;0.11456935;-0.14888516;0.00640875;0.051568277;-0.013936925;0.0009996162;0.08092803;-0.045885146;-0.022971023;0.014725185;0.08552982;0.034255516;0.21893838;-0.048947044;-0.040390268;-0.045710243;0.17630199;-0.06062176;-0.2370772;-0.50752914;-0.009250853;0.038562126;0.017977053;-0.024322608;0.025716621;-0.30852747;-0.028387731;-0.23899044;0.14598562;0.017788138;0.065785944;0.021751449;0.07188614;-0.26070374;0.018586889;-0.08602496;0.03411995;-0.07279062;0.08009993;-0.037110005;0.1278152;0.27785516;-0.111456595;-0.18248303;-0.02879957;-0.26781815;-0.00031895854;-0.022479476;0.024049805;-0.05463823;0.03403386;-0.3288356;-0.0019203019;-0.21859759;0.020759042;-0.08316031;-0.22867821;0.0026292456;0.0027392951;0.35624728;-0.21091254;-0.012418557;-0.03817183;0.1762859;0.03969678;0.11173414;-0.03885762;-0.044400364;-0.06726303;0.19478022;-0.0028500943;-0.07273576;-0.1958581;-0.12123731;-0.030464083;-0.021330083;0.07878688;0.29032505;0.061915968;-0.054393888;-0.011243232;0.02256829;-0.27266932;0.46039578;-0.56710213;-0.25728735;-0.077294715;0.012434814;0.08237348;-0.12880935;-0.030409632;-0.19550079;-0.004615173;0.11903801;0.010420067;-0.05012448;-0.21746589;0.21601295;-0.12669675;0.12717749;0.11441585;-0.25866133;-0.0027369002;-0.009185307;0.06646745;-0.21717821;-0.095984876;0.048738144;-0.054001987;0.013507243;-0.018511727;0.038691092;0.19429077;0.1520332;0.022624187;-0.02700216;0.028770665;0.046054944;-0.31671765;-0.17675816;0.008760798;-0.06064425;0.22826308;-0.024234159;-0.37280783;0.134746;-0.06305837;-0.17406721;0.014973974;0.008658671;0.058868587;0.055498093;-0.038154967;0.0032402962;-0.30202305;0.03128718;-0.085162014;-0.042214755;-0.08130163;-0.4006012;0.026541412;0.016341863;-0.11174256;0.20868695;-0.046097327;-0.1252844;-0.061989006;0.014813933;-0.023368478;0.09280718;-0.22372235;0.02701774;0.078931354;-0.054419953;-0.16554335;0.23855187;0.038771108;-0.33146566;-0.055990715;-0.011252063;0.29633868;0.053099196;0.060805675;-0.047088567;0.06220044;0.0055480627;0.020955255;0.09085284;-0.0054818364;-0.02224798;-0.120304845;-0.110203736;-0.07788017;-0.097685605;0.12831797;0.053794827;0.042402588;-0.11857347;-0.058225766;0.016697127;-0.030395927;0.06766278;0.03193086;0.03736328;0.032630116;-0.046331692;0.057652857;0.12562492;-0.255362;-0.049120374;-0.008314313;0.009748185;0.05140881;0.16861564;0.37141958;0.044391233;-0.002723213;0.02279453;-0.023073;-0.03944236;-0.028970791;-0.020464107;-0.020471804;0.17738065;0.044300955;0.250105;-0.031972293;0.12220107;-0.01366576;0.07456773;0.046275854;0.014126769;-0.054460518;0.22843784;0.06049502;-0.2830731;0.007840271;0.19250229;0.07811075;0.40484145;0.13457465;-0.26061252;0.04943531;-0.020002887;0.02152674;0.022455372;-0.042982966;0.0058136233;0.097578265;0.016471986;0.04210512;-0.12462255;-0.3105595;-0.16650994;0.036635492;0.06248152;-0.13557337;-0.13050237;0.09762629;0.013441922;-0.058652103;-0.07235833;0.16489512;0.010218347;-0.1061384;-0.037006352;-0.010566915;-0.4202935;-0.17825031;-0.027597971;0.18474376;0.095372796;0.26765946;-0.06712703;0.078715004;-0.05196623;0.06405813;0.2775382
-0.013201672;-0.07388547;-0.015929213;-0.029081393;0.066464975;0.45546603;0.0077289944;-0.021453474;-0.2711454;0.10347308;0.0075970585;0.13325693;0.13658436;0.03903245;-0.19233999;0.009046248;-0.28836396;0.0047005294;-0.04662422;-0.034226075;0.20886083;-0.035747383;-0.07692241;-0.017610844;0.29822853;-0.22468269;-0.02761493;-0.037928518;-0.03573111;-0.10718048;0.058012832;0.28738657;-0.36726272;0.003793146;0.05984822;0.015522346;-0.23916674;-0.1246355;-0.039710626;0.18253589;-0.032835584;-0.3295044;-0.034095693;-0.056092735;-0.03467503;0.14322013;-0.09422762;0.02484498;-0.30081102;0.07303168;0.13608126;0.019797755;-0.12628321;-0.0827365;-0.00075814646;0.022164926;-0.112522855;-0.03979029;-0.0779093;-0.010921403;0.07367422;-0.024590556;0.08037954;-0.009658781;-0.019910289;0.055076513;0.22812499;-0.032679204;-0.18005149;-0.043195352;-0.016715165;-0.16260372;0.03216666;-0.055375967;-0.0453887;-0.026709186;-0.03806968;0.18786961;0.07656073;0.007360959;0.29509145;-0.20733242;0.2361017;-0.07283091;-0.029777104;-0.33347833;0.15304486;0.0006782663;-0.116884254;0.010426806;0.22436695;0.35571545;0.17087255;-0.18952945;-0.29006925;0.035046052;-0.007901129;-0.17436406;-0.02367542;0.061861947;-0.05134922;-0.100122124;-0.006364841;-0.052635264;0.21298034;-0.013916458;0.04825418;-0.03551532;0.074432656;-0.17165844;0.10976038;0.039663196;0.0017235322;-0.028980462;-0.008518481;-0.298699;0.054328963;0.15360852;0.028260399;0.062455483;0.23656568;-0.25868925;-0.022461139;-0.052339286;-0.037750147;-0.0633446;-0.07162092;-0.12007905;0.17465657;-0.009612106;0.23193163;-0.26983377;0.071872406;-0.00030640094;-0.21814726;0.026573367;0.038176253;0.005139936;-0.023959322;-0.024151789;0.05206571;0.3034939;-0.012757035;-0.0592311;0.06831086;0.3048283;0.27409318;-0.12295597;-0.039101638;-0.1369518;0.12797743;0.13895005;0.06827989;-0.03325357;-0.07911287;0.193501;0.116672985;0.014192233;0.058119193;-0.012788619;0.041931357;0.32845807;-0.012364334;0.03209356;0.01614607;0.08167728;-0.14953315;-0.037782382;0.0263547;-0.06794269;0.017157568;0.33950898;0.13859612;0.22556452;-0.0045188577;-0.03384674;-0.10931074;0.004616241;0.18497047;-0.25747767;0.03963397;-0.32083568;-0.09043183;0.0734002;0.030094052;0.026022691;-0.042765673;-0.1903412;0.060994674;-0.1363966;-0.1351072;0.033784423;-0.014216133;0.048710167;-0.0064237467;0.16436803;0.021370204;-0.0763736;0.24057697;-0.050801884;-0.4697983;0.314362;0.12657423;0.27886304;-0.06946623;0.095514305;-0.004602574;0.12631889;0.006267401;-0.04608213;0.031499874;0.0068692616;0.06530841;0.05220063;-0.04298869;0.0014754833;0.18356623;-0.022197213;0.004640262;0.112341255;0.17966658;0.034718007;-0.0773676;0.021782754;-0.027642682;-0.16177878;-0.00852488;0.12620367;-0.040157273;-0.16198792;0.029297307;0.040424436;-0.0045577404;-0.02950232;-0.021041526;0.053249873;-0.07701063;0.092331596;0.01672361;0.0937459;0.027100597;-0.004854265;0.06271359;0.40684998;-0.053399645;0.065314636;-0.1817981;-0.08080782;0.011086518;0.023027021;-0.08400154;0.2537958;0.23392123;0.27402893;-0.14401805;-0.2541561;0.012960541;0.110663205;0.051898845;0.0008798565;0.15357316;-0.17961775;0.10106408;-0.026923485;0.06935663;0.082427576;-0.25228673;-0.026082462;0.17075391;-0.17804015;0.08854688;-0.17017615;0.05177183;0.11217861;0.010061284;0.0068126777;0.18229751;-0.02807213;0.076319136;-0.27745542;0.11047758;-0.029295474;-0.014171403;0.10266241;0.089503385;-0.068183035;-0.07726292;-0.069886774;0.11390265;-0.12271049;0.10624514;-0.17348577;0.059485763;0.016620059;0.1652492;-0.06159313;-0.46763927;-0.13876846;0.0011899574;0.043220438;-0.1929167;0.14074318;-0.021509195;0.24299781;-0.014981792;0.09459139;0.059012312;0.1093836;0.1632011;0.16144201;0.18447587;-0.016853612;-0.022052597;-0.06956827;-0.16046073;-0.039682288;-0.15042277;0.057137467;0.039379723;-0.13434881;-0.0314271;0.045541286;-0.046311732;0.015110954;0.04360656;-0.013837433;0.026075447;0.04761907;-0.032604773;-0.029710576;0.18188584;0.035538446;0.119927;0.021162447;0.1616926;0.030507496;-0.015279178;-0.38882205;0.024898244;-0.033630345;0.015764255;0.002868779;0.1321361;-0.2557496;-0.12346395;-0.22958235;0.11345716;0.039494794;0.14294612;-0.013601678;0.017440509;-0.24566993;-0.03519072;-0.007704081;0.06618415;-0.10292112;-0.02200757;0.055597987;-0.0067733508;0.23584312;-0.009867205;-0.237133;0.04453978;-0.13789204;0.0018671289;0.00867048;-0.02835626;0.112617806;0.1444494;-0.19940118;0.101386115;-0.25720516;0.0294961;-0.011768154;-0.19865112;-0.16611119;0.03188757;0.3712385;-0.11553362;-0.049251046;-0.059540927;0.08617511;-0.018854147;0.17938907;-0.09623881;-0.008005704;0.009211509;0.25990433;0.04865805;0.06183009;-0.19122112;-0.29924056;-0.004048586;-0.057134148;0.032044914;0.16447285;0.013624319;-0.033371177;0.040732983;0.01439981;-0.34677;0.35137427;-0.43247882;-0.07726019;0.09767535;-0.014779349;-0.020217182;-0.084857605;0.03025689;-0.23239477;-0.02757967;0.040708315;0.012134695;0.08579188;-0.18547623;0.36358482;-0.19044338;0.063745074;0.065898165;-0.23378207;-0.022418529;0.015116047;-0.058863454;-0.015381209;-0.07799532;-0.02828133;-0.13439707;-0.07443185;-0.066837855;-0.026264802;0.18989189;0.0942057;-0.086154416;-0.009443555;0.045686413;-0.003251485;-0.28227925;-0.059972104;0.012243793;0.04830733;0.045935787;0.032091122;-0.39958203;0.09167748;0.008847927;-0.116858274;0.025112955;0.0697265;0.049019698;-0.048946563;0.035938513;-0.06048925;-0.15299538;-0.12189327;-0.18294063;-0.010835139;-0.10394112;-0.28504694;-0.024869563;-0.095312536;-0.18533634;0.009933849;-0.05001587;-0.012135065;-0.24041449;-0.0025315138;0.014180746;0.08125075;-0.16599555;-0.03512328;0.02439405;-0.037101734;-0.171584;0.2118132;0.08928226;-0.2023959;-0.17133132;0.041449428;0.2907255;-0.046169713;-0.11804906;-0.14851744;0.01477838;-0.019479185;0.19271165;0.22978303;-0.008669888;0.021086093;-0.29197878;-0.066126764;-0.031159895;0.07334635;0.06940252;0.06884371;-0.078066945;-0.15419528;0.008981231;0.031559907;-0.0517929;-0.00052824535;-0.13649645;-0.02625841;0.16779491;0.00021891216;-0.029023593;0.10256982;-0.102707975;-0.035051785;0.028401013;0.02561699;0.09329682;0.19403246;0.20638683;0.13167477;-0.041510727;-0.15704434;-0.21439211;-0.10561362;0.032679096;-0.09485548;0.00918735;0.058997493;0.027607033;0.21561685;-0.069589235;0.25361633;0.023814132;0.1003891;0.15051383;-0.01707839;-0.008567469;0.13106133;-0.059340123;-0.3830127;0.070853926;0.30777553;-0.0013471755;0.30548194;0.057141237;-0.20921811;-0.03159279;0.07721774;-0.0041065235;-0.06352106;-0.024959479;-0.050864257;-0.008730381;-0.0049702404;-0.03386991;-0.03814304;-0.15616682;-0.12549524;-0.07240332;-0.05361347;-0.016949918;-0.067563646;-0.004381646;0.07365162;-0.054455385;-0.12991625;-0.0058616092;0.03693397;-0.031172743;-0.024185646;-0.13392277;-0.5160224;-0.10737085;0.059188914;0.21080163;0.014670082;0.18697867;0.06531107;0.13246053;0.015668703;-0.05708384;0.36997986
-0.039391678;-0.02752763;-0.108637996;0.028472858;0.013125769;0.2635276;0.06981112;0.047290217;-0.25647295;0.05555805;0.028008223;0.14717516;0.239616;0.1249028;-0.3313956;0.03948199;-0.22875515;-0.058093544;0.053091697;0.030803274;0.28641027;0.030166155;-0.065662324;-0.093038574;0.18557382;-0.14735925;-0.093888976;0.052696936;0.041121006;-0.074908756;0.110162325;0.29306194;-0.25578365;-0.014870307;-0.027542658;0.032901283;-0.11405635;-0.17586292;-0.03736078;0.19798876;-0.09041329;-0.22093217;-0.11743375;-0.059993386;-0.03729647;0.066329375;-0.114085905;0.040203854;-0.34813675;-0.04712269;-0.038702946;-0.039287597;-0.13023913;-0.049354766;-0.015305618;-0.11821921;-0.019772772;0.12416911;0.026436497;0.04283437;0.19044794;0.033237256;-0.23193966;0.0675978;0.002954355;-0.050169777;0.18072428;0.18481426;-0.22325033;0.023307113;-0.060837083;-0.15740538;0.05935915;-0.19149582;-0.013799223;0.034987204;0.0004891305;0.23745131;0.05070111;-0.122973256;0.044948373;-0.3679357;0.21657917;0.040167086;0.0685159;-0.18202776;0.17910267;0.028684607;0.057871595;-0.0044937795;0.197569;0.2981188;0.13594283;-0.14701593;-0.082800455;-0.026606416;-0.011767489;-0.0005216469;-0.0017746515;-0.07671847;-0.08448559;-0.13913274;-0.04907703;0.036059406;-0.044487998;0.021433894;-0.057545148;0.075731896;-0.031292234;-0.17171024;0.18557751;0.057668403;-0.08409453;-0.09441109;0.014469554;-0.08409481;0.003133235;0.16103671;0.039078232;0.24549003;0.20633504;-0.19443356;0.047621157;-0.105579615;0.01905342;0.0047968733;0.016593002;-0.17168517;0.11543531;-0.014420898;0.0628662;-0.13984804;0.017121265;0.03067541;-0.39799663;0.036268786;0.2007624;0.0045068813;0.0034581863;0.03876434;-0.050818704;0.3424695;0.029737461;-0.032708567;0.019503437;0.16174263;0.24772826;-0.14621978;-0.0035923468;-0.0272622;-0.05272084;0.1199433;-0.07763739;0.0848132;-0.010865344;0.22575386;0.22637656;0.04840772;-0.064483136;0.03284345;0.13533957;0.34825996;-0.02558082;0.03181644;0.07202258;0.039784055;0.04722747;0.03825417;0.0117654065;-0.054424938;0.06570283;0.13339202;0.15440534;0.3105498;-0.005715787;0.0428965;-0.10642245;0.008182279;0.19890913;0.0016061958;-0.04001065;-0.14084525;-0.107417755;0.15578786;-0.021662261;0.016152207;0.054371223;-0.18217853;0.1097484;-0.1900576;-0.09643498;-0.21005216;0.0032193856;-0.021367839;-0.13011082;0.27554068;-0.031095337;0.005791694;0.21474047;0.1006933;-0.52257955;0.19951694;-0.05036527;0.11769932;-0.014364223;-0.028413989;0.0054843114;0.08549745;-0.031192115;0.05563968;0.027906787;-0.017493295;0.021965493;-0.058058176;0.026085725;0.012960348;0.1683236;-0.002583595;0.07288188;0.14300613;0.2861927;0.114992835;-0.036328327;0.005344815;0.029393855;-0.0439435;-0.031642035;0.1715983;-0.032161485;-0.17106092;-0.036272395;0.20618132;0.01885399;0.09542749;0.08521801;0.08518493;0.047079768;0.07567064;0.023794528;-0.11951641;0.1451219;-0.2380061;-0.03562312;0.29845476;0.04719219;0.11904289;-0.18787324;-0.21689773;-0.02435607;-0.008353788;0.056983665;0.23750825;0.16268364;0.2221413;-0.16470544;-0.21967998;-0.06269938;0.12779464;0.07978381;-0.06575428;0.12617908;-0.18356036;0.19507381;-0.009638451;-0.048825078;-0.020460848;-0.154219;-0.032487597;0.105729446;0.033480287;0.15990265;-0.2378069;0.047176063;-0.002214226;-0.02466744;-0.102164775;0.06655703;0.0070522367;0.04113089;-0.1448422;0.1266863;0.05536358;-0.045351095;0.1414743;0.03955883;-0.09135235;0.014663445;-0.12286861;0.18543616;-0.15284866;0.18628232;-0.32773855;-0.0060299165;0.05951869;0.15912712;-0.013421918;-0.4949806;-0.030213855;0.050998654;0.057314485;-0.18508144;0.27485064;-0.03403918;0.338549;0.049693514;0.025421891;0.09352605;0.07519464;-0.005645783;0.1444316;0.22255455;0.021396002;0.03409165;0.055862352;-0.27610058;-0.045867972;-0.029091533;-0.0109648565;-0.11816073;-0.09103833;-0.03930453;0.040522844;-0.112424254;-0.0033595643;-0.0524042;0.052221946;0.00046735897;-0.053223196;-0.12430111;-0.05709114;0.12227651;0.010027016;0.052764975;0.029788777;0.14086695;0.15797411;0.041765425;-0.32061598;0.0033127659;-0.20454784;-0.03384574;0.017590772;0.22396564;-0.032126598;-0.061074268;-0.23329349;0.14578016;0.032768074;-0.017495409;-0.04462298;-0.07120318;-0.26556435;-0.012313889;0.09580883;0.07713028;0.014218277;-0.020221232;-0.004376381;0.11288482;0.12938505;0.10985558;-0.24023145;-0.043002773;-0.19168103;-0.039789002;0.01773691;0.039203532;0.08312413;0.2048449;-0.041219626;0.032355454;-0.27004176;0.10788239;0.04673812;-0.15805915;-0.1644348;0.0036628137;0.3429524;-0.10026046;-0.010751981;-0.060422342;0.19875869;5.431184e-05;0.16346575;0.05303128;0.04403328;0.0692766;0.11089625;0.096905924;0.04478987;-0.26281032;-0.16320717;0.022860877;-0.041666888;-0.05826882;0.23529966;0.062558144;-0.125238;-0.030783182;-0.026350142;-0.23219918;0.23410015;-0.42402714;-0.08180335;0.085988484;0.11258165;0.062165752;-0.09220568;-0.034186386;-0.16960715;-0.019440241;-0.0016266737;-0.04853926;0.04933858;0.07808029;0.23581532;-0.2161883;-0.016454244;-0.085839316;-0.2259716;0.06560605;-0.053835634;-0.055728752;-0.09658689;0.04688781;-0.0737179;-0.017158799;0.031764794;-0.106724896;0.0014111045;0.20523809;0.22527064;-0.07073228;-0.044274393;-0.072091125;-0.012078232;-0.4543878;-0.13984069;-0.03042331;-0.007585429;-0.09270343;-0.013099636;-0.20590499;-0.1852756;0.055842433;-0.24359363;-0.090224;0.017984962;-0.009154526;-0.0851934;0.011585664;-0.11145384;-0.10675156;-0.16209671;-0.1463467;-0.14310291;0.04757983;-0.13924973;-0.06384273;0.047288366;-0.24665396;0.12212403;-0.021971665;0.005547767;-0.15505634;0.028774226;0.02311774;0.036293823;-0.044953693;-0.0044881976;-0.21424964;0.05404071;-0.085602276;0.24822287;0.06966878;-0.3379749;-0.14805607;0.0005898636;0.09521117;-0.035010308;-0.28538626;-0.19572584;-0.0654864;-0.018745583;0.08953089;0.13431032;-0.0077616996;0.02216074;-0.31041995;-0.0023794954;-0.04981793;-0.025116818;0.21019295;-0.08826209;0.034609273;-0.08529615;-0.05006386;0.11951767;0.017448053;-0.06798823;-0.24811831;0.022044908;0.12156677;-0.026040217;0.01318036;0.19355932;-0.040349223;0.023340449;-0.007008039;-0.04894943;0.20567441;0.14366202;0.1544203;0.15616792;0.02896179;-0.07220322;-0.090423115;-0.1237377;-0.01971424;-0.08886051;0.031742945;-0.05481738;0.03984088;0.19287053;0.07020409;0.070249066;0.043584153;0.26449808;0.11814732;-0.051691264;-0.12504584;0.23439176;-0.009331498;-0.17454085;-0.06646685;0.1879356;0.053093784;0.44112793;0.071596794;-0.1555742;-0.023640528;-0.044495866;-0.0021748936;0.02396584;-0.026818756;-0.07243225;0.12270014;0.02581057;0.01189368;-0.019584162;-0.14191298;-0.24322166;0.036603898;0.020989561;-0.100124136;-0.13347787;0.13912533;-0.062377244;0.072632745;-0.07801687;0.07535079;0.10105777;-0.0694392;0.053322792;-0.20005539;-0.32508868;-0.15598622;-0.048275247;0.23550522;-0.035973534;0.09570065;0.1132049;0.019238936;0.0023846074;0.022609008;0.31410727
0.004196685;0.0571833;0.014663789;-0.009101944;-0.045303997;0.535811;0.04396577;0.017002292;-0.22064687;0.023219362;0.056601122;0.1590416;0.19350798;0.03765924;-0.26212746;0.0004300563;-0.11162965;0.049708597;0.019606655;-0.082467414;0.3136688;0.018092848;-0.031415734;-0.18593653;0.19956917;0.002845676;0.11848192;-0.09698483;-0.00069893734;-0.12544057;0.03652901;-0.0090360185;-0.18360142;-0.045794453;0.049444694;-0.004240016;-0.20234546;-0.11977839;-0.10646125;0.3282122;0.014703418;-0.30017847;-0.1488;-0.033668477;0.05027002;0.20612262;-0.03332934;-0.02250137;-0.26901075;0.0014487797;-0.0845488;0.02861603;-0.17334518;0.03211318;-0.08915566;0.0090840515;0.057350174;0.19850539;-0.0484386;0.20017402;0.11219921;-0.16707835;-0.09145858;-0.047268715;-0.04389139;-0.03941414;0.17591867;0.035358652;-0.23076972;-0.0075751175;0.04063954;-0.33132035;0.06459363;-0.24878237;0.026415542;-0.009396843;0.03360785;0.19594537;0.11266555;-0.101430364;-0.018793285;-0.17627971;0.20642081;0.06311017;0.14668556;-0.10440951;0.034117907;0.027602954;0.040496677;0.005914612;0.17454341;0.104042776;0.20476697;-0.25712097;0.00093076145;0.0021694289;0.045744807;0.17421247;0.018157227;0.06382184;-0.23123161;-0.19416004;-0.04919622;-0.03811442;-0.06657686;-0.0018484343;0.031396307;-0.027800128;-0.030338444;-0.25089318;0.1027668;0.092728436;-0.024115099;-0.13526973;0.03163218;-0.061081685;0.030582126;0.19732472;-0.025562687;0.19695388;0.15775342;-0.14235117;-0.04141945;0.015371201;0.14402576;0.041816138;-0.08013067;-0.18377644;0.23455878;-0.0009719992;0.1805554;-0.18173197;0.028832866;0.008679267;-0.37259102;-0.020183899;0.014264256;-0.016547542;0.042244725;-0.059068274;0.05671288;0.3075133;-0.034649476;0.029287726;0.11690035;0.1528245;0.15621513;0.03000108;-0.012831255;0.090394296;0.08986553;-0.011483641;0.0028060172;-0.06916604;0.068446584;0.23338234;0.24574967;-0.04042181;0.05965853;0.07204853;-0.015768774;0.33658212;-0.02554398;-0.01957836;-0.10290057;0.06505607;-0.04182098;0.029597256;-0.008771206;0.03207897;-0.03303228;0.28252196;0.065878324;0.15267985;0.027474089;-0.062136248;-0.13758215;0.026996264;0.17973709;-0.07173033;-0.04728664;-0.13386889;-0.031328037;0.051841076;-0.017148025;-0.008246337;0.0016791496;-0.20733517;0.19281383;0.033507682;-0.24674797;-0.0461328;-0.000500783;0.039722774;0.038287263;0.07909286;-0.1321136;0.03508262;0.0970662;0.14680952;-0.5163242;0.20109037;-0.10128195;0.290037;-0.03592642;-0.036552556;-0.047344055;-0.011785227;0.11228954;0.0361097;0.027872154;0.06383671;-0.039133467;0.0086165;-0.005498573;0.025341785;0.13559796;0.06259946;0.076725066;0.07053367;0.23711577;0.16754353;0.08314935;0.07150664;-0.021920178;0.05635107;-0.007417114;0.21790962;-0.05899723;-0.030151477;-0.007029073;0.07312195;-0.0315951;0.07710222;0.09280489;0.26092935;-0.013821805;0.039146323;-0.06881511;-0.17483324;0.16095062;-0.18117471;-0.02728423;0.3549986;-0.0052761566;0.11042847;-0.092599414;-0.19365828;0.044889756;0.0059449603;0.027870055;0.36809918;0.2413134;0.07760035;-0.13314334;-0.045991812;-0.042415753;0.22796921;-0.013930877;0.021192832;0.01610085;-0.06549969;0.25524002;-0.036110368;0.13744041;-0.040330652;-0.078363664;0.042966973;0.24123311;-0.023200233;0.23887362;-0.26847163;-0.033253744;0.09585992;-0.049665708;-0.02993884;-0.036917463;0.017834265;0.0342437;-0.06922602;0.11027307;0.1402911;0.028145226;0.077675365;-0.101924494;0.075670965;0.12669326;-0.093917005;0.2024726;-0.0154834185;0.22993566;-0.2509178;-0.050449714;-0.0034796558;0.3062688;0.023879534;-0.52658457;-0.088876404;-0.032780495;-0.0415647;-0.020277573;0.43207934;-0.015145593;0.082073964;-0.0138606755;0.057830207;0.049981937;0.16631815;0.016114138;0.07379446;0.27054033;-0.052441433;0.055656165;0.18912292;-0.18517047;-0.23003249;-0.06727038;0.019270152;-0.09990976;-0.04428276;0.061585188;0.058838774;-0.073544644;0.023367891;-0.10995322;0.0021999127;-0.03824453;-0.014950879;-0.09926285;0.027359301;0.15061267;0.04401916;0.060573556;-0.03847009;-0.09696052;0.16409998;0.05494261;-0.38604578;-0.037578966;-0.13806438;0.0038311512;-0.009905031;0.19569354;-0.12394662;-0.1008026;-0.112317674;0.1913931;-0.016242769;-0.19013616;0.030301709;0.010754664;-0.31391457;-0.027541025;0.057859775;0.0025079024;-0.01426118;-0.050605133;-0.05354898;0.011177351;0.09499104;0.031560782;-0.24916132;0.001255032;0.009056926;0.037826046;0.03919949;0.018382123;0.13828461;0.13639231;-0.10751287;0.12738489;-0.30262613;0.034004744;0.042420924;-0.003309456;-0.2874999;0.023238331;0.27688912;-0.03502137;0.007764628;0.0656259;0.06756407;-0.019772701;0.3062926;0.047625866;0.015745679;-0.054502793;0.024570253;0.040116884;-0.004601854;-0.17207733;-0.1295084;-0.016343724;0.022301165;-0.011914828;0.23808973;-0.005546121;-0.07801769;-0.015962029;0.029931415;-0.15065108;0.31394988;-0.4345612;-0.0043957867;0.054264575;0.21140273;0.040710315;-0.20191263;-0.042654563;-0.1862276;0.03224278;-0.061905812;0.048677146;0.026728708;0.08761372;0.28705177;-0.18251456;0.044056106;-0.115354605;-0.23485021;-0.019319996;0.048348587;0.06176022;0.064629614;0.0019886587;0.042070348;0.20447665;0.049406342;-0.1120073;-0.00045423355;0.07532441;0.01955791;-0.18979283;0.05712585;0.048812352;-0.019764097;-0.38158968;-0.064711906;0.03272642;0.03353004;-0.17233618;0.06950698;-0.21630006;-0.18109472;0.0024864967;-0.07381549;-0.10774546;-0.015722994;0.04931467;-0.13529629;0.01972499;-0.2257292;0.009839875;-0.18548806;-0.12965462;0.022139845;0.062663205;-0.3005933;0.039826356;-0.016538994;-0.33526304;0.16711159;-0.09989307;-0.058124345;-0.14600138;0.041049946;-0.029943878;0.017272668;-0.30694348;-0.007843547;-0.32719815;-0.038072787;-0.085619584;0.33168864;0.1040454;-0.27071002;-0.15787706;-0.014584892;0.08076321;0.033068754;-0.31617236;-0.28862387;-0.022050532;0.020742916;-0.020248743;0.011738254;0.0052541126;0.017087592;-0.22334059;-0.039671753;-0.0899418;-0.08794134;0.15947105;0.01169484;0.012338316;-0.20456515;0.035468698;0.112981066;0.022255018;-0.022032715;-0.22028233;0.031112537;0.07261978;0.037751272;-0.0460009;0.06979925;-0.13331075;0.0041075572;-0.011335874;0.002627934;0.2587016;0.15115589;0.122224346;0.13232748;-0.008565014;-0.08476442;-0.11274515;-0.18066698;0.027823575;0.03140921;0.08149784;-0.042296413;-0.018130217;0.21827696;-0.030903727;0.03777755;0.03358553;0.15891363;0.09915964;-0.1441554;-0.04845356;0.2647475;0.010226345;-0.3481532;-0.03100798;0.060971063;0.0984398;0.41720015;0.054128453;-0.21767937;0.017308446;-0.0434368;0.01390261;0.0031610148;-0.1788779;-0.13789946;0.027984584;-0.03124572;-0.036580946;-0.029750224;-0.030257959;-0.11687873;0.012268029;0.04250622;-0.11393866;-0.17554387;0.13567404;0.023151971;-0.037153576;-0.18482943;0.18584137;-0.041630853;0.03331443;-0.06546722;-0.11817237;-0.40532398;0.16557343;-0.08127059;0.15154602;-0.06881854;0.07759259;0.20794192;0.120010346;0.006637635;-0.021671074;0.16588452
-0.030458665;0.15030041;0.068052925;0.026035946;-0.014322915;0.39176995;-0.066616744;-0.007024615;-0.03896519;0.16219799;-0.0107470555;0.17333782;0.22429661;0.13862826;-0.30836692;-0.044001203;-0.14290543;0.0030380117;-0.0035078614;0.052555278;0.22235782;0.033185605;-0.05494157;-0.1918691;0.04808959;-0.14267345;0.035775512;-0.09779212;0.01146443;0.048649307;0.02491873;0.17938827;-0.20003796;-0.027361797;-0.050626755;0.023583038;-0.22818859;-0.108403586;-0.055838235;0.20530987;-0.028184276;-0.3561567;0.051066447;-0.15173556;-0.06106219;0.32237402;-0.11511308;-0.09340342;-0.11594646;0.01563541;-0.17925844;-0.018122474;0.0036142957;-0.15323539;-0.13930345;-0.027589897;0.1509534;0.15601559;0.10330741;0.099626295;-0.029965296;-0.14931816;-0.00093075674;0.055653088;0.015006745;0.03208288;0.18140578;0.1329432;-0.19473605;0.013696549;-0.0075828577;-0.34917426;0.06409202;-0.22625476;-0.034803897;0.03998167;-0.03828615;0.18234643;0.0487054;-0.056348242;-0.1980805;-0.37630987;0.18921447;-0.066418074;0.10856228;-0.05797467;0.021405207;-0.042066816;-0.0068937126;0.06888561;0.23344323;0.052469403;0.14975725;-0.057689212;-0.12204514;0.030218517;0.028309511;0.11402843;0.057999942;0.19890754;-0.23349601;-0.10096118;-0.1059905;0.039981544;-0.051360928;-0.013868644;-0.0020166156;-0.062360525;0.047201637;-0.11870395;0.11727494;0.14366873;0.018104136;-0.1818583;-0.039539237;-0.3439374;-0.05004813;0.12411359;-0.03697518;0.19311911;0.11517812;-0.07118832;0.050798245;-0.003163156;0.20910053;0.01784074;0.04431771;-0.16787083;0.1113454;0.009996744;0.09144085;-0.00314807;0.0048879324;-0.07073978;-0.37834206;0.019753946;0.011482791;0.059251945;-0.07848699;0.034825787;0.11613187;0.39820886;-0.030930875;0.019061366;-0.006476302;0.13934104;0.14754869;-0.009346928;0.034697242;0.037962325;0.018116271;0.28013843;-0.06475418;0.089262724;-0.01122286;0.053709466;0.2854177;-0.040253736;-0.08010286;-0.060322948;0.07546872;0.5017788;0.074341774;-0.008857178;-0.1390985;0.033698794;0.01893277;0.15953246;0.13282184;0.07534622;0.055998717;0.15492317;0.17052694;-0.034743458;-0.019759778;0.022582287;-0.10078469;-0.005696181;0.13199998;-0.23699506;0.059583705;-0.07903347;0.1444012;0.15751162;-0.00042561284;-0.045141928;-0.048529882;-0.17496392;0.00251621;0.08268611;-0.17069739;-0.08816967;0.025483998;0.013436249;0.1413335;0.13140649;-0.30318835;0.02421088;0.03824966;0.09451035;-0.45714173;0.29513037;-0.11133166;0.2872771;-0.036476225;0.010540207;-0.02104873;0.05499448;0.31056052;-0.022303797;-0.040902372;0.03032125;0.030193558;0.0036428757;0.04011563;-0.08455418;0.13445115;-0.058014683;0.08731125;-0.08050837;0.10621049;0.13394733;0.15872213;-0.0117509635;0.08316731;0.0061271307;0.013670746;0.07790931;0.067170955;0.0022597488;0.00827345;0.023175068;0.08424341;0.2391624;0.10561349;0.134413;-0.07478141;0.13028882;0.03639492;-0.1819338;-0.03986896;-0.047500167;-0.06015938;0.3007601;-0.026955122;0.04554943;0.071348354;-0.22580454;-0.035841353;0.042018734;-0.028780544;0.23112778;0.15240994;-0.11932382;-0.16928387;-0.12868887;-0.05250819;0.24804874;-0.023824127;0.12545474;0.012267777;-0.27792555;0.30598652;-0.011076444;0.0047305077;0.026221206;-0.06691401;0.048862148;0.17038824;-0.032297738;0.17515172;-0.16988605;-0.042904872;0.085830905;0.017431496;0.038011286;-0.13459454;0.011163582;0.08563353;-0.169099;0.025955137;0.156839;0.04415981;0.050339304;-0.15298045;0.01883058;0.16303822;-0.155984;0.2721601;-0.03006366;0.065531015;-0.22978766;0.020886417;-0.14288919;0.2574804;0.04997591;-0.40083987;-0.21824244;0.0155374175;-0.012118143;-0.054443166;0.3695345;-0.0044712075;0.10824139;-0.038328167;-0.030529361;0.027808571;0.13538824;-0.078576826;-0.045447454;0.07422351;0.08507296;0.02762325;0.1435392;-0.15301473;-0.36223128;0.01673974;0.004834373;-0.08681703;-0.12013982;0.038167644;0.19788238;0.2030616;0.013115202;-0.0881621;0.008197928;-0.0041785473;0.06997482;-0.17249782;-0.011295668;0.17122439;-0.008857961;0.09586647;0.013476091;0.08835385;0.1500009;0.10596374;-0.37120736;-0.030325815;-0.14190084;-0.044999298;-0.0033844297;0.10813009;-0.14954975;-0.17419775;-0.1171144;0.1721442;0.043422084;-0.11766413;0.0012020633;0.042281598;-0.26540586;-0.04463238;0.20352332;-0.038099136;-0.04542697;0.051192712;-0.04066658;-0.017017879;0.08614635;-0.089146614;-0.019423239;0.017982813;0.1537651;0.02842491;0.0028539917;0.00794778;0.092413664;0.19243366;-0.08114769;0.20992495;-0.43356463;0.012252993;-0.025745975;0.017692262;-0.32154188;-0.010117152;0.20678401;0.080064245;0.040880986;0.012242635;0.26006916;-0.05453879;0.27291876;-0.10608362;0.02448157;0.014062671;-0.14309265;-0.12105792;-0.083192475;0.015248249;0.0049194866;0.02064371;0.008885993;0.011521331;0.21462627;0.012284876;-0.045159522;-0.026877519;0.053651232;-0.11080156;0.025898177;-0.36032924;-0.054805297;0.04123185;0.1280603;0.083384775;0.008460203;0.002793018;-0.22227627;-0.14085276;-0.012031256;-0.009715233;0.115647316;0.1766654;0.31399158;-0.1753476;0.1731844;-0.0060213534;-0.26124144;-0.052860327;-0.0018928761;0.028880678;0.01836622;0.089376;0.035640534;0.08214371;0.0058709187;-0.19012909;0.009151053;0.19796544;0.06991108;0.041695688;0.031025058;-0.023232425;-0.008854312;-0.32910815;-0.124541104;-0.010960968;0.044019975;-0.18441157;0.11959229;-0.11370373;-0.20437002;-0.049015407;-0.17812566;-0.10858825;-0.032613285;0.079370566;-0.09098408;0.01521607;-0.32321155;-0.13957174;-0.16429195;-0.24491155;0.10873064;6.640141e-05;-0.24929242;0.0010367628;0.03935879;-0.1753719;0.07233338;-0.059294697;0.087528974;-0.18649356;-0.0667173;-0.012925985;0.010359623;-0.27562207;0.010374929;-0.2557364;-0.009980416;-0.0071558743;0.21783459;0.23198865;-0.28984934;-0.01054836;-0.015774887;0.06404243;0.07440937;-0.3551938;-0.15971996;0.043308623;-0.018321471;-0.26488495;0.074314766;-0.034208514;0.0010555134;-0.16780101;-0.07798026;0.010738446;-0.009484075;0.20602486;-0.04210293;0.0008249292;-0.13336915;0.17538278;0.12247632;-0.045147553;0.066716366;-0.31039634;-0.014525845;-0.08584829;0.010805443;0.03681101;0.15180443;-0.107667655;0.013873171;0.011454158;0.0151712;0.21249731;0.14487562;0.32497266;0.1466704;-0.003670309;-0.083579786;-0.16759671;-0.1965824;-0.042825885;0.24486099;-0.020920666;-0.10220499;0.062472414;0.06546494;0.058795746;0.09758651;-0.077752374;0.1988438;-0.04713259;-0.121170506;-0.12737042;0.3067707;0.05872941;-0.35328996;0.00634556;0.18700133;0.1413876;0.38705033;0.051769704;-0.28624687;-0.05257399;0.0156837;-0.04075523;-0.011281628;-0.072009064;-0.017489674;0.14738636;-0.011960931;-0.023131728;0.031086357;-0.06817425;-0.14069156;0.13932663;-0.041974783;-0.21568681;-0.18810993;0.1704941;0.013618067;0.042586576;-0.20835188;0.23128064;-0.069127984;-0.10865856;0.04242223;-0.084684834;-0.3206554;0.24302466;0.02288993;0.17388359;-0.10016153;0.15464088;0.13092704;0.14163513;-0.039710585;-0.0232714;-0.020600276
0.044966664;0.11509339;0.07700712;-0.020230789;0.01999592;0.36616218;-0.04978986;-0.05296003;-0.016684515;0.1352487;-0.05934994;0.008666356;0.03900594;0.1747684;-0.044345815;-0.05982644;-0.033985086;-0.105029166;-0.019645337;0.028119802;0.32295913;0.00884061;-0.090280935;-0.12757833;0.07927108;-0.0658098;-0.0014359436;-0.2947256;0.003766823;-0.011233384;-0.0078245;0.31428248;-0.06745899;-0.029914396;-0.018068;-0.021461051;-0.07744643;-0.089668885;-0.14792538;0.2760628;-0.0385158;-0.25064686;0.12719484;-0.10490663;0.061929185;0.08617764;-0.10075096;-0.11876401;-0.12913844;-0.013174976;-0.1615896;0.029513313;0.054221522;-0.16334523;0.09218168;-0.060632028;0.10668639;0.25378987;0.0658806;0.22035432;-0.05723578;-0.13229431;-0.12629287;0.037502132;0.028658073;0.03301781;0.15440695;0.14017712;0.016751776;-0.045352466;0.024502805;-0.32605907;0.050533026;-0.118739024;0.0020102395;-0.014622379;0.01061562;0.13946386;0.005259907;-0.11586802;-0.25667477;-0.30881572;0.17484847;-0.022030529;0.13962841;-0.08102904;-0.024426628;-0.03617208;-0.08863335;0.058963865;0.15664871;0.10107778;0.08496667;-0.17187369;-0.08195567;-0.027852912;0.003941342;0.13836852;-0.086751685;0.15601395;-0.26152614;-0.014997711;-0.1485546;0.0022947802;0.001663887;0.018554974;-0.01876811;0.023847857;-0.07401292;-0.034860857;0.0960951;0.17601447;0.105173856;-0.0705295;-0.007417208;-0.28606352;-0.052941944;0.10687725;-0.020958787;0.22241892;0.054669525;0.17364752;-0.0005650864;-0.04100107;0.07733742;-0.008418571;0.03285462;-0.11544905;0.015978849;0.039006755;0.08971097;-0.080189824;0.0980885;0.026494402;-0.27896774;-0.0021834134;0.12724021;-0.032812975;0.07686065;0.03415385;0.21230255;0.2523613;0.030568963;0.056639515;-0.09025345;0.08480602;0.123711884;0.039348274;0.04585514;0.02418498;0.037609678;0.15380093;0.030531356;0.20000689;-0.06140474;0.12956688;0.30873352;0.020663345;0.00015162001;0.043377932;0.019250564;0.4395783;-0.033972632;0.045331523;-0.22322819;-0.094282426;-0.039687626;0.24432643;0.029543484;0.17121145;-0.09858509;0.15953733;0.1582036;-0.030983755;0.023550969;0.04371134;-0.0134792095;-0.021371994;0.068583086;-0.08527753;-0.0052054888;0.048134502;0.11526464;0.23775728;0.0385333;0.0527051;0.10293224;-0.29735643;0.063657515;0.0016502403;-0.16659437;0.15148136;-0.036791075;-0.009883261;0.024905875;-0.0101008;-0.33720183;0.18013883;0.06266342;0.13122171;-0.44337383;0.21711124;-0.1500041;0.25339055;-0.05070845;0.1282784;0.07893025;0.07597913;0.2645428;-0.03333848;-0.03128841;-0.03838029;0.10707244;0.008687786;-0.04688029;0.03543708;0.16895758;0.04142277;0.13954975;-0.11132406;0.12986994;0.13213508;0.17956719;0.020826394;-0.06322675;-0.0081697935;0.045330916;0.09977785;0.043499243;0.058431834;0.011640626;0.015401551;-0.087076366;0.3423452;0.07392836;0.16940667;0.012762824;0.29625317;-0.021920584;-0.3232497;0.17476161;-0.060689963;0.06666223;0.27972186;-0.0021475106;0.018447211;0.022448584;-0.07194138;0.046850998;-0.032977313;-0.043293152;0.21358201;-0.01547037;-0.05564254;-0.16727273;-0.10279327;0.017979095;0.16168913;0.008502354;0.016908431;0.049295995;-0.38491204;0.38177633;0.04266347;0.019897351;0.007477244;0.004893633;-0.03197261;0.10034751;-0.104350515;0.20635402;-0.07719696;0.035143707;0.09852301;0.030822206;0.011790032;-0.22048806;-0.044316933;0.012374872;-0.13881764;-0.020753125;0.124680646;-0.007257368;0.15598056;-0.12978898;0.068607524;0.08842944;-0.15719481;0.3122846;-0.023972038;0.17642745;-0.15741232;0.051676326;-0.10406434;0.24750595;0.023264293;-0.32684043;-0.10122915;-0.03017003;0.015924217;0.052155826;0.29755718;0.084762916;0.08154502;0.04913922;-0.039652456;-0.07361674;0.031199409;0.0860534;-0.019714596;-0.09427963;-0.011040419;0.14081624;0.16932248;-0.30758727;-0.2778749;0.093948014;-0.055125523;-0.03120731;-0.17632015;-0.0461207;0.11837063;-0.0034127652;-6.370926e-05;0.06446202;-0.025173053;-0.004287399;-0.023650808;-0.12251166;-0.021906625;0.32338315;-0.025409264;0.23524213;-0.0028951128;0.17256582;0.16704442;0.015805744;-0.43579823;0.04976835;-0.032502685;0.03105013;0.012511062;0.2507072;-0.004234473;-0.14692853;-0.21458161;0.090334564;0.17588681;-0.15014632;-0.033602785;-0.012052941;-0.24554904;0.053579915;0.02732922;0.021569079;-0.14636229;0.026752362;-0.057649225;-0.0054408945;0.05068089;0.022860484;-0.1569591;-0.0058819074;0.017060075;-0.052658144;-0.009710401;-0.03744327;0.1639385;0.20824209;0.039387383;0.14754122;-0.3975351;-0.04999917;-0.029312165;-0.006715317;-0.22624412;-0.048289035;0.2900886;0.000115941206;0.04082142;0.15532444;0.21416354;0.077934764;0.15578446;-0.20182164;-0.05093458;0.07818383;-0.13683486;-0.076657884;0.053856246;0.0111572845;-0.013268968;0.004657148;-0.090593666;-0.022795878;0.010300382;-0.15518141;-0.2526596;0.058164023;-0.044456787;-0.15408584;-0.0030735217;-0.14508598;-0.042844646;0.2693162;0.18907247;0.18713854;0.022288455;-0.019925341;-0.18423992;0.099346966;-0.06594104;-0.043744266;0.2388096;0.32256848;0.12838262;-0.10571186;0.26315477;-0.120262615;-0.2744403;-0.015778832;-0.024828184;-0.022951094;0.25037184;0.121801265;0.03625269;0.18402776;0.09450164;-0.13015589;-0.0217424;0.19375849;0.041586082;0.10133335;0.051889986;0.04260356;0.03906078;-0.32801047;-0.15630154;-0.024522632;0.08673207;-0.38558054;-0.047848497;0.064500675;-0.15019974;-0.057370193;-0.25586295;-0.072214454;0.02365579;0.014331482;-0.019624915;0.023478318;-0.20347452;-0.24332999;-0.16950253;-0.29759043;0.018698184;-0.07623064;-0.2097405;0.06012066;0.015469179;-0.12233752;0.20041983;-0.14524324;0.19344534;-0.2295304;0.005722856;-0.03842907;0.013893048;-0.20058477;-0.0007694669;-0.3686946;-0.01592493;0.026878392;0.06801556;0.17876017;-0.43796706;0.06649629;0.030014962;0.11253145;-0.08487149;-0.42852393;-0.13005264;0.020659484;0.053708885;-0.16332763;0.052287146;0.043288145;-0.020894825;-0.1545231;0.0027655389;0.031750385;0.045224506;0.07013907;0.026406463;-0.06348765;-0.085066274;0.13262518;0.032368455;-0.010758191;-0.0023444179;-0.3397026;0.030127307;-0.0027892287;-0.041109763;-0.058335558;0.13337143;-0.085638545;0.020927291;-0.012660077;0.009451314;0.113430515;0.093039416;0.07480901;0.17006809;0.021406626;-0.261249;-0.2420884;-0.056826185;-0.0021443183;0.20497012;0.047181673;-0.1435485;0.027410628;0.04073864;-0.08321884;0.08796299;-0.024818636;0.15857878;0.064927824;0.010740727;-0.17911096;0.27374268;-0.048870202;-0.25724423;0.028821578;0.04786092;0.112537004;0.2578928;-0.15210071;-0.34702897;0.05480524;-0.031478174;-0.010518925;-0.0069714333;-0.056924473;0.004598158;0.117653094;-0.011487696;0.07974465;0.24092403;-0.06875191;0.007972284;0.04754199;-0.017169321;-0.24643938;-0.036274284;0.09017371;-0.07985559;0.000989611;-0.07880662;0.048856538;0.0455643;-0.07864001;-0.029510798;-0.17575811;-0.19326347;0.34495655;0.042673588;0.08882551;-0.08824886;0.1584869;0.15866905;-0.018479701;0.03820267;0.038282428;-0.24466759
0.022422817;0.089776054;0.017121824;0.009118325;0.009716669;0.25851184;0.0750098;0.0121160215;0.07427803;0.07966778;-0.0046181283;0.09148828;-0.006326025;0.18395892;-0.08245714;0.05746506;-0.06974436;-0.10136242;-0.023679934;0.044655763;0.2882375;-0.07331283;-0.09066645;-0.06606176;0.013020277;0.0019908405;0.08797931;0.016662978;0.01668594;-0.08506877;-0.077444926;0.23655859;-0.008796175;-0.09677034;0.046536736;-0.05714175;0.053779494;-0.08204309;-0.086112745;0.13308175;0.054840937;-0.25522873;0.09852708;-0.08399489;-0.028418524;0.13873014;-0.010093514;-0.02186456;0.096143015;-0.061986946;-0.06519771;-0.0486892;0.000623013;-0.058701854;0.1208672;0.0055061695;-0.02576294;0.27298978;0.13457222;0.11955;-0.06745832;-0.017490802;-0.07288145;-0.048042264;0.022276346;-0.04097235;0.21085331;0.042481598;0.017878449;0.03379157;0.038705897;-0.3684445;0.0757914;0.053371836;0.05185425;-0.003986613;0.0049549984;0.08018651;-0.036087357;0.06248021;-0.35758096;-0.34162498;0.06037077;0.054730717;0.16256599;0.076069824;-0.044892006;0.011427577;-0.07142668;0.16393887;0.19759747;0.12834395;0.24116445;-0.15041311;-0.06739963;0.03669549;-0.032308806;0.22572865;0.022215176;0.16916153;-0.17958015;-0.18101893;-0.22059646;-0.013802032;-0.100229315;-0.010683659;0.028707134;-0.0014826407;0.02673883;-0.17450695;0.0982372;0.22465877;0.0033020405;-0.05069102;0.04172211;-0.3320043;0.061838884;0.100326225;-0.0036165498;0.09048486;0.011038425;0.089232855;-0.021578528;0.061690327;0.09387146;-0.03481414;0.030650279;-0.22602196;-0.15862235;-0.043001406;-0.050564542;-0.061030757;-0.04149191;-0.015163832;-0.19135769;-0.024665043;0.023227816;-0.000830138;-0.045436833;-0.010909145;0.09662221;0.2544811;0.0090296;0.0890862;-0.11359941;0.12106418;0.19634628;0.06827288;-0.033644717;-0.017431118;-0.042633124;0.11524757;0.023935284;0.188899;0.049557637;0.13611108;0.43172407;0.014275213;0.035498917;-0.0345833;0.05461337;0.52252686;-0.0033105046;-0.013133352;-0.11037631;-0.0077139563;0.018730203;0.11990525;0.00046695332;0.21454541;-0.09201299;0.28141642;0.17461345;-0.057047103;0.00591383;0.029641086;0.027597614;-0.011029736;-0.0069550187;-0.15165907;-0.028424963;0.06443331;0.22603425;0.22443594;-0.054431915;0.010300931;0.10486087;-0.17678192;0.08470819;0.008540118;-0.10045193;0.07799389;0.028933132;-0.0065644896;-0.059164733;-0.013854669;-0.2635133;0.28795782;0.100130506;0.22221476;-0.32667446;0.23484029;0.0725251;0.32472923;-0.113296315;0.12441893;-0.032868832;0.061819874;0.15442762;0.03852425;0.020293709;-0.013772321;0.021191958;0.03550856;0.0108344145;0.02666242;0.01406492;0.040119242;0.17215328;-0.070429675;0.23044768;0.11034673;0.0854584;0.10978988;-0.043738984;-0.018206613;0.035337977;0.11913743;0.008184599;0.09767102;-0.0040245582;0.022374546;-0.03440407;0.4378004;0.18761177;0.27143562;0.01622184;0.29878578;0.016255947;-0.34811455;0.05403242;-0.051630236;0.036553882;0.14667384;7.316337e-05;-0.0656513;0.12066494;-0.15465464;-0.11050428;0.033872914;0.06551533;0.32356223;-0.21259047;0.11625557;-0.21227442;-0.04606189;-0.00013604673;-0.03293977;-0.08510239;0.08257236;-0.015055503;-0.34571284;0.19687372;0.040559147;-0.0704182;-0.022207547;-0.024817742;0.016128216;-0.038288265;0.048935916;0.19191165;0.08578089;-0.021078506;0.058709186;0.0005377855;-0.032422774;-0.43182316;0.0049365647;0.05190663;-0.22806641;0.076157585;0.11614563;0.031426106;0.055448692;-0.189588;0.18201546;0.10381328;-0.081600286;0.16447237;-0.017760115;0.24454796;-0.1022147;-0.025833769;-0.04982814;0.1589202;-0.06340399;-0.30212942;-0.0720054;0.040293183;-0.041210253;0.00057936384;0.12923472;-0.027544515;0.1726229;-0.05478486;0.08600898;-0.07831503;-0.050542366;0.12403198;-0.010656484;-0.11620396;-0.033722024;0.19046201;0.14510463;-0.21707141;-0.25200796;0.041276075;-0.018967766;-0.075716674;-0.05088364;0.04361952;0.0864652;0.07266246;-0.008785891;-0.06646553;-0.03805179;0.020874918;0.040061574;0.026179492;0.041179016;0.35066172;0.008420651;0.10426957;0.008131335;0.2730716;0.1214693;-0.035445504;-0.39618096;0.041873474;0.023959434;-0.024215769;0.021027785;0.21726249;-0.076515675;-0.09547159;-0.14449987;0.11405116;0.089519374;-0.095688656;0.0422494;0.03327048;-0.31213742;-0.026348121;0.15010506;-0.0076283864;-0.25464782;-0.010466023;0.0048503545;0.0019997605;0.10269262;-0.018294206;-0.18282509;-0.018266404;-0.04199742;0.06543055;-0.07275789;0.008332967;0.0703701;0.2184571;0.13991131;0.12076659;-0.5170768;-0.08774165;-0.036189295;0.027595991;-0.18331006;0.0171246;0.10099433;0.006796238;-0.032603834;0.042942487;0.22896834;0.015546978;0.13654876;-0.23985471;-0.03145948;-0.045844574;-0.26170474;-0.023955498;-0.03877836;0.002082141;0.051586494;0.016904643;-0.14483935;0.0014610423;0.012692523;-0.09506885;-0.14728978;-0.0026524954;-0.010030841;-0.1830965;0.008767702;-0.025605183;0.08383137;0.31146735;0.19711468;0.2255174;0.052854277;0.05411188;-0.2806229;0.102555715;-0.12096312;0.0030417664;0.04564804;0.22895253;0.16616552;-0.07191922;0.31653333;-0.079251185;-0.12279618;0.044591274;-0.042040475;-0.029769693;0.17606692;-0.032805968;-0.049966283;0.11435811;0.019123996;-0.16909541;-0.032241683;0.10292006;0.12186424;0.028015532;-0.0729435;-0.0072538;0.008533784;-0.29860657;-0.14415665;0.035829246;-0.0074533685;-0.22278453;-0.026203007;0.10589792;-0.09727935;0.050727576;-0.3126854;-0.07963432;0.0036186455;-0.038467173;-0.0304977;-0.06520814;-0.19724445;-0.16356571;-0.16099647;-0.28389215;-0.06029976;-0.15575998;-0.30964875;-0.05065349;0.03597258;-0.118032396;0.0708052;0.036277395;0.20712858;-0.34098077;-0.028596409;-0.031316835;0.06645896;-0.21933034;-0.042493332;-0.31940147;0.073995136;-0.051080056;-0.0031259593;0.04380972;-0.41051412;0.05818306;-0.04283419;0.15013136;-0.023434827;-0.38689676;0.010580661;-0.021801904;0.005456383;-0.10652993;0.15189117;0.05101754;-0.025508404;-0.14325657;-0.12947874;0.095419966;0.097394556;0.051974326;0.08656587;-0.0018710088;-0.26607284;0.09035711;0.044331945;0.02694946;-0.040057402;-0.20986187;-0.022508552;-0.009548923;0.08232201;0.03272558;0.14415383;-0.031069914;0.026790302;-0.001942317;-0.029790526;0.09669688;0.033755157;0.11892123;0.038405593;-0.023410028;-0.11730973;-0.23774807;-0.1149728;0.05617381;0.24380599;0.053866714;-0.19397265;-0.062133737;0.2203604;0.025164522;0.1929614;0.044137992;0.31424;-0.056809295;-0.10374696;-0.12429938;0.3252425;-0.002700967;-0.08269563;-0.016288184;-0.021076335;0.0333412;0.15885009;-0.1816056;-0.24167185;-0.012167993;0.067114376;0.039538547;0.026193844;-0.06339861;0.17312008;0.14981022;0.015063258;-0.052510552;0.07457961;-0.11912385;0.055606507;0.061365176;0.038028616;-0.3154798;0.062549725;0.043939732;0.029764002;-0.02265658;-0.077234834;0.046125855;-0.059755012;-0.24918334;-0.0075109107;-0.28683478;-0.13691802;0.33878082;-0.039152116;0.06593465;-0.057267502;0.12803419;0.19037;0.06876526;0.024355082;-0.034088563;-0.30670783
-0.015421521;-0.07614527;-0.012363419;-0.0072282464;0.06789831;0.2518319;-0.0524344;-0.057794783;-0.0787196;0.08134765;0.0100070955;0.042544864;-0.098419555;0.096648775;-0.049915995;0.00094818213;-0.18099871;-0.14231168;0.011132336;0.0413216;0.24061483;0.01361603;-0.05297058;0.06576917;0.12642354;0.084047094;-0.08755386;-0.08403228;0.033151265;-0.07890224;-0.05768933;0.25690264;-0.049962796;-0.05212105;0.004291537;-0.016193498;-0.013348181;-0.014701307;0.033592626;0.21372809;-0.02470663;-0.15504462;0.0063213743;-0.17475758;0.0285678;0.20293723;-0.00824814;-0.091088906;-0.0874065;0.035472568;0.044966456;0.0021743474;-0.05921908;-0.11217444;0.2808512;0.0499136;0.048143603;0.22065918;0.078544796;0.0067761894;-0.0981568;0.06371327;-0.11021397;0.040075477;-0.0044325604;-0.0039188657;0.2769861;0.091511786;0.10428989;-0.04981193;-0.019185865;-0.15691501;0.06202953;-0.06290295;-0.014927987;-0.059701268;0.030487562;0.02032876;-0.0038965382;-0.019492177;-0.3001757;-0.2766333;0.0022263476;0.0049977773;0.14930812;-0.119563326;-0.17531167;-0.058353014;-0.23283167;-0.04116605;0.098108225;0.15896265;0.12576632;-0.000104220846;-0.09911666;-0.0035573544;-0.031649888;0.13592222;-0.015110705;0.05379116;-0.038731307;-0.21966814;-0.1348171;0.0010868988;-0.061480794;-0.053255606;0.01153107;0.030853858;0.012004513;-0.09152534;0.023138326;0.18044567;-0.0827569;0.06140732;-0.033869095;-0.24590065;-0.05005509;0.046162073;0.047729205;0.04206187;0.02757875;0.12650742;-0.010867933;0.15742008;0.075031705;0.026308417;-0.04061572;-0.052373152;-0.034657937;0.0048421687;-0.07758618;-0.015296708;0.0914642;0.038746383;0.02415993;0.0020964162;0.17923097;-0.021375421;-0.0034489594;0.017724074;0.09417656;0.16141674;-0.026703164;-0.08276543;-0.2517771;-0.037826777;-0.045141276;0.23869954;-0.038439292;-0.0019128504;-0.17154458;0.097942226;0.01857241;0.11689527;-6.6231896e-06;0.15840434;0.30097467;-0.016825687;0.04492462;-0.011617507;-0.1280344;0.422191;-0.0001473286;-0.03502659;0.07585341;0.051944647;0.11744416;0.20711237;0.013569918;0.16521066;-0.06265701;0.14070964;0.17379354;-0.06038932;-0.056539826;-0.05592205;-0.052333467;0.045475464;-0.031977873;-0.11507255;0.019728305;0.010305248;0.068266414;0.17175753;-0.011294518;-0.019360505;-0.046876106;-0.12676294;0.0011668807;0.011702944;-0.21877702;0.24182887;-0.04405871;-0.04231024;0.045008328;0.14518318;-0.12293712;0.40949106;0.07062898;0.105336696;-0.2695359;0.14403298;-0.023878215;0.15607104;-0.00084646675;0.12787463;-0.008300356;0.12640415;0.23525198;0.043011528;-0.030253306;-0.046065215;-0.080036946;-0.040734988;-0.03144678;-0.0050492156;0.07117414;-0.05490243;0.057178244;-0.09554162;0.15083164;0.20466053;0.017446801;-0.05532245;0.04044351;0.13931806;-0.071960665;0.01986673;-0.07496155;0.02619486;0.074230805;-0.20865537;0.11684917;0.34024224;0.10831058;0.20709038;0.022530636;0.20707873;-0.019968055;-0.3591515;0.06626796;0.12388439;-0.036057528;0.22997344;-0.02129627;0.08799039;0.23772208;-0.010815798;0.06358728;-0.022635179;0.018164583;0.2818516;-0.34230688;0.13229401;-0.34952563;0.00084868964;-0.0054599517;-0.07473441;-0.13928545;-0.03994865;0.05135046;-0.30888766;0.2739527;0.024966361;-0.2526817;0.01523844;0.11613377;-0.0038325463;0.018445933;-0.009013579;0.23630574;-0.04258718;-0.005548671;0.03374673;-0.06746329;0.11220657;-0.4098688;0.011387528;0.026868545;-0.2491664;0.27048942;0.034522373;-0.027640358;-0.0097769275;-0.2167787;-0.0001458959;0.15708938;-0.26900497;0.31992614;0.10635836;0.18664803;-0.039176427;-0.07559191;-0.07035256;0.0660309;-0.032221094;-0.40263504;-0.2186924;-0.037748467;-0.04071049;0.011008634;-0.014899558;-0.042988446;0.13717927;0.0062391106;0.11067271;-0.030388588;-0.080478996;0.2927309;-0.037801377;-0.00067262223;-0.04287512;0.067669906;0.11085845;-0.009707103;-0.12138135;-0.21752281;0.058373015;0.018033087;-0.13149522;0.00055185746;0.081344925;0.08530179;0.0077632796;0.1126763;0.0695333;0.05981244;-0.06684256;0.009129983;0.01960548;0.25402412;-0.030364512;0.10620925;-0.035778955;0.35303754;-0.022138447;-0.045291483;-0.24866368;-0.053341493;-0.01769715;0.0069363355;-0.032286964;0.28676355;-0.21931459;-0.14750926;-0.2898285;0.19679905;-0.0087794885;-0.18020539;-0.08243712;-0.03821701;-0.1944624;0.03339497;0.22227456;0.19611199;-0.2894386;-0.0213649;0.0024720437;-0.09374027;-0.021674186;-0.10489247;-0.07703314;-0.03631613;-0.11751353;-0.011425362;0.026483007;-0.050424315;0.032799788;0.17985606;0.21686055;0.34380373;-0.2914627;0.041648243;0.069863535;-0.039074786;-0.035747614;0.018203393;0.24874651;0.15460877;0.0062056864;0.015518471;0.24556662;0.009328423;0.040221382;-0.23012064;0.07760432;-0.022231804;-0.3147368;-0.061000917;0.019346707;0.018659148;0.0069500003;-0.032822188;0.0034565562;0.0068977503;0.02920142;-0.102873966;0.0057318876;-0.045284744;-0.030383563;-0.34476477;-0.14262503;0.033804324;-0.018754698;0.18679346;0.022611324;0.3773862;0.12592083;0.0150740845;-0.18191226;0.24505384;-0.18687974;0.018343959;0.0054360153;0.08523108;0.06922441;-0.15874968;0.3554146;-0.024308337;-0.2217155;-0.0077123707;0.05116624;-0.0042975354;0.114220865;-0.029946104;0.019505708;-0.0006190681;0.17595103;-0.036155485;0.0047060666;0.08314841;0.17378615;-0.13275093;-0.04660069;-0.030789686;-0.039485235;-0.16509922;-0.10823881;-0.04068021;-0.044469394;-0.2095403;-0.002734127;-0.03276827;-0.08850929;0.035725586;-0.036017526;-0.21023464;-0.03906049;-0.07103383;0.024197197;0.0042583263;-0.34703043;-0.04232967;-0.05622419;-0.264667;-0.052938957;-0.004018853;-0.30597064;0.01811518;-0.037128534;-0.16670828;-0.032145508;-0.03267172;0.03572815;-0.24299507;0.012917676;0.018271558;0.09249016;-0.11747354;0.07750822;-0.15207751;-0.05593498;0.003507709;0.027559875;-0.10417907;-0.47384536;0.01733025;0.05554228;0.2349921;0.05936564;-0.3008188;-0.059279438;0.03442334;-0.05400545;-0.20157945;0.09076665;-0.017724527;-0.042940404;0.042675015;-0.115374535;0.049311757;-0.01456004;0.054788128;-0.0340164;0.03334704;-0.1323518;0.101909004;0.0064781257;0.06322861;-0.0034385019;-0.22006045;-0.043130267;-0.07640169;-0.019859085;0.0496636;0.17368445;-0.09530352;0.0014189478;0.012445257;-0.01094446;0.17014597;0.08210621;0.030257799;-0.03951484;0.055266235;-0.17922585;-0.1979396;-0.07461866;-0.06727037;0.264683;0.045190807;-0.09754216;0.04571868;0.19561622;-0.0033114767;0.29549187;-0.0374156;0.21335508;-0.29800075;0.051810466;-0.08272028;0.27895388;-0.0500998;-0.20991221;0.03773425;-0.099620655;-0.017385637;0.24886383;-0.13940628;-0.28952178;0.04440233;-0.020717686;0.0012485572;0.030038629;-0.19034943;0.21366419;0.19186042;-0.052840825;-0.014836423;0.14480594;-0.05781202;0.089384936;-0.11035941;0.007350836;-0.2789648;0.107851714;-0.061098896;0.06832848;-0.015224555;-0.11491339;-0.014577582;0.0023738712;-0.20061871;0.03756661;-0.26989892;-0.11335888;0.1419522;-0.0028273677;-0.067695245;-0.15551792;0.15240437;0.1374863;-0.03800727;-0.048612304;0.038542323;-0.33830723
-0.039695587;0.09598696;-0.056705073;0.06516403;-0.001583254;0.22703317;0.0256006;0.081841685;0.13086566;-0.025319235;0.01651764;-0.03385839;-0.107327744;-0.09185217;0.19223627;0.024189444;-0.05946018;-0.11699333;0.053485878;0.024631986;0.1788936;-0.0011897449;-0.04155725;0.014198072;0.283639;0.16807269;-0.075536;-0.08179734;-0.06159743;-0.035110164;-0.10155849;0.2974416;0.12559846;-0.1075246;0.008196274;0.06425743;0.041738737;0.028769476;0.073336095;0.06855347;-0.044614125;-0.10911792;-0.031962644;-0.068989776;0.03833049;0.23132321;0.0017084858;0.010756289;-0.102999724;-0.027914187;0.001429807;-0.0052341814;0.1160885;-0.19076425;0.20095024;-0.13011575;0.07500685;0.12454503;0.07565872;0.13161595;-0.15217699;-0.1210346;-0.16964063;-0.012190728;0.0064703934;-0.029741408;0.24375772;0.010765099;0.23758651;0.05142451;-0.008552112;-0.28310564;0.11234712;-0.09650781;-0.00010058444;0.015293739;-0.026643505;0.04143077;-0.047093395;-0.016695004;-0.40561813;-0.21867585;0.0021974077;-0.0727872;0.26822644;-0.12680477;-0.1379101;0.0637591;-0.03906081;0.096414454;0.08899241;0.16634141;0.16635637;0.105039485;0.06915913;0.027599256;0.03764214;0.21405518;0.015477849;0.18255779;0.0896723;-0.12685291;-0.15600717;-0.029337665;-0.051439293;0.033749845;-0.0087227905;0.048012864;-0.026135666;-0.14380758;0.03538129;0.19515707;-0.09057547;0.2510029;-0.00852386;-0.2656979;0.038154036;-0.034524202;0.052561104;-0.059335582;0.10334537;0.21974844;0.009421505;0.07598316;0.21739769;-0.004938321;-0.05734943;-0.058681283;-0.09497424;-0.018607156;-0.015898589;-0.07679507;0.086137936;0.03867276;0.12407818;-0.0051026787;0.1497737;0.062311698;0.043751664;-0.011452781;0.022909489;0.22547661;0.017198345;0.018866183;-0.2894506;-0.0923875;-0.0303179;0.3930057;-0.0070801983;-0.041973267;-0.04057958;0.0804017;0.02023018;0.15543817;0.014526457;0.032436226;0.17190231;0.07062674;0.031026324;0.0082267495;-0.26701462;0.3381664;0.017477239;-0.0060728267;0.06363163;-0.10211415;0.1631252;0.11209317;0.059445772;0.15432677;-0.07132663;0.10579036;0.112665035;-0.0789785;-0.04326806;-0.0083436705;0.14659303;0.0065142643;-0.1910923;-0.081918426;0.01976061;-0.0062182234;0.01967723;0.18361865;0.037441246;-0.027717292;0.094576955;-0.129801;0.09465838;0.13002282;-0.2380697;0.27649537;0.052781865;0.004812959;0.18044627;0.10681298;-0.02813234;0.45267114;0.34987935;-0.030604882;-0.09406022;0.23007078;0.16681369;0.14302225;-0.09180417;0.112282164;-0.034625832;0.027682679;0.14013101;-0.06764688;0.019336358;-0.034890894;-0.11200838;-0.049781773;0.019195154;-0.057840437;0.04116328;-0.013250691;0.12020633;-0.1794872;0.0558737;0.116674066;-0.16618446;-0.0047223982;0.013080397;0.0020138375;0.02180162;0.03792784;-0.0033654713;0.12851787;-0.063424334;-0.13692324;0.1614198;0.34317273;0.029009884;0.106580995;-0.021198986;0.34550148;0.035454098;-0.34130922;-0.013977365;0.04477542;-0.03735196;0.17944649;-0.005999717;0.105698675;0.30227685;-0.0035654805;-0.09974761;0.015398546;-0.047511186;0.25656354;-0.4464884;0.19352004;-0.42881566;-0.14100668;-0.031175096;-0.068606265;-0.10685468;0.09345876;0.0852239;-0.45904517;0.07075833;-0.07456253;-0.13396758;0.012239262;0.023431681;-0.0059638503;-0.060506675;-0.00923387;0.21704555;-0.05450662;-0.0033824663;0.10540008;0.061921533;0.01883817;-0.579373;0.018142626;0.09655178;-0.3149581;0.11521017;-0.026713297;-0.044151686;0.17048979;-0.10057618;-0.019818624;0.1021984;-0.22431418;0.2755217;0.14926402;0.04639309;-0.08360763;0.050612234;0.010063701;-0.004045332;-0.01708147;-0.32736245;-0.30418637;0.048424006;0.07147307;0.031109741;-0.008912199;-0.007468686;0.07063942;0.022484073;0.16047692;-0.13205592;-0.040096715;0.24252313;-0.01729468;-0.11189105;0.0348587;0.0035048209;0.18284892;0.00019306444;-0.26472557;-0.3288439;-0.05601926;0.028060798;-0.19177297;-0.00958085;0.010088783;-0.05997331;-0.033602707;-0.14557399;-0.055679493;-0.054371316;0.07693235;-0.02301939;-0.039156865;0.22205575;-0.059028614;0.13151467;0.037109718;0.15500744;-0.0066085323;0.03902081;-0.26927936;0.0003679264;-0.03941638;0.013045638;-0.0058648144;0.2626568;-0.23901856;0.002944029;-0.40136632;0.21840008;0.046171397;-0.14779337;0.05028177;-0.06883554;-0.2437613;0.0393002;0.25557208;0.18963513;-0.18020807;-0.011898615;0.091933414;-0.31410593;-0.056053255;-0.16233706;-0.056717083;0.032500084;-0.173591;-0.035753194;0.0053113387;0.071531124;-0.08861981;0.12085142;0.11468529;0.063948326;-0.48090184;0.020726833;0.024949897;0.017457435;0.087573595;0.02326191;0.14984964;0.17350414;-0.031530317;-0.024357604;0.32271296;0.007955416;0.0143966125;-0.20644973;-0.06167329;-0.04095403;-0.27354106;0.03704995;0.019291406;0.016952163;0.08853855;-0.0015913025;0.13410093;-0.014362153;0.008071835;-0.06834558;-0.18404318;0.024672093;0.0032810124;-0.20319904;-0.30081195;0.19021171;-0.0023879674;0.15790355;-0.13875303;0.17140378;0.07554723;-0.020738058;-0.13344048;0.09854252;-0.043726493;-0.026594553;-0.09990826;0.12794328;0.056686632;-0.013341289;0.24495411;-0.15938267;0.007615501;0.034064204;0.05387811;0.030600425;0.20501871;0.013571216;-0.0035934974;-0.042266216;0.15735082;-0.05928238;0.051001526;-0.04188865;0.21992534;-0.16566104;0.049132135;-0.022304783;0.027703663;-0.14433931;0.04450226;-0.034730285;-0.008035668;-0.2584059;0.056037404;-0.13235864;-0.20355506;-0.045858033;0.0016642131;-0.073736206;0.03248577;-0.034896046;-0.069933526;0.0032020453;-0.40373808;-0.033167668;-0.15289798;-0.108095765;-0.04074555;0.12629475;-0.37578005;-0.024956975;0.027501814;-0.06255072;-0.05243373;-0.07809688;-0.09850285;-0.28541693;0.025721908;-0.040269982;-0.017274855;-0.15393995;-0.021168293;-0.30054575;-0.05404526;-0.15667404;-0.20421082;-0.053336613;-0.51182127;0.06671613;-0.009237658;0.08601389;-0.031683225;-0.09310158;-0.10538116;-0.046893016;0.01627326;-0.21907946;0.10501289;-0.07410605;0.06322686;0.016518816;-0.1682514;-0.09449005;-0.1368371;0.038526945;-0.011136274;0.03385219;-0.012661135;-0.00417573;-0.08759096;-0.049817085;0.06306601;-0.03852338;0.018469902;-0.13768336;-0.009268588;-0.028982446;0.06959954;-0.07588512;-0.05195614;-0.05373215;0.048474018;0.106560685;0.106115565;0.059578985;0.1444008;-0.049509294;-0.2596885;-0.36424616;-0.11889585;0.0013331801;0.18995829;0.044158816;-0.10498614;-0.1092947;0.10836623;0.06023673;0.24556221;0.011168938;0.22836919;-0.2731733;0.10011437;-0.022983786;0.28789574;0.045363832;-0.24674301;-0.056689873;-0.088867545;-0.010996995;0.079521626;-0.13310243;-0.26418987;-0.03603484;-0.0018462333;-0.03440292;0.03369488;-0.10064304;0.3238392;0.107108474;0.061775655;0.032886855;0.07482638;-0.08181031;0.026735611;0.07559585;-0.033177856;-0.26055622;0.092737906;-0.099026985;-0.035662476;0.030213783;-0.022986723;-0.02179217;0.112895735;-0.05198675;0.018875238;-0.30913755;-0.15169984;0.058464967;-0.015981067;-0.0719116;-0.05686585;0.14907268;-0.0007206975;-0.06460504;0.028663583;-0.009608743;-0.34199825
0.021740748;0.14807224;-0.1560636;-0.04626072;-0.05394175;0.1297354;-0.02258712;-0.022049904;0.09505413;-0.032723337;0.0048175473;-0.123693876;0.01402736;-0.16618335;0.0441602;0.0026619316;-0.19208518;-0.19983254;-0.06358559;-0.0039769295;0.30563232;-0.0036159141;-0.023890741;0.023433978;0.34071878;0.28000712;-0.09563411;-0.010511837;0.031547815;-0.07535078;-0.039704647;0.21386981;0.12688789;-0.07678311;0.002936108;0.06044122;-0.07091393;0.07881568;0.08593029;0.13326016;-0.022461465;-0.0612964;0.119886495;0.09927891;-0.03313094;0.26194045;0.07222262;-0.059858028;-0.08372514;0.016059691;0.13967131;-0.005716454;0.19387001;-0.1354728;0.19329317;-0.07904172;0.014521855;0.31154174;-0.05897875;0.047039308;-0.16148649;-0.06222901;-0.2046095;-0.106542535;-0.003099351;0.056022506;0.1855057;0.11565337;0.24374595;-0.035999905;-0.06107195;-0.15684716;0.10768087;0.0881905;-0.037498128;0.02483962;-0.030634597;0.072471164;0.07878194;0.08560841;-0.31806493;-0.24175705;-0.016882641;0.06394571;0.24792866;-0.094916254;-0.03065716;-0.008691947;-0.1533517;0.036112074;0.10811124;0.061605047;0.10652284;0.06976953;0.106053956;-0.04176496;0.0111399405;0.12508723;0.076665394;0.16520678;0.021323815;-0.124283195;0.029521232;0.059064645;-0.22216074;-0.007993987;-0.021483056;-0.049352206;0.012282131;-0.06042691;0.022723207;0.27678993;-0.06374355;0.2286345;0.018454462;-0.14909315;0.023039414;0.04629946;-0.041321736;-0.067067996;0.023082566;0.21721171;-0.04000595;0.14204504;0.27987963;-0.017708847;0.048289355;0.0127166705;-0.01617409;0.062009446;0.053922676;0.09196227;0.1327851;-0.050141618;0.03863272;0.016692834;0.06546975;-0.04247072;-0.06454108;-0.056056865;-0.01363867;0.05792686;0.012515202;0.17706391;-0.3088277;-0.19785053;0.046742633;0.33499566;0.08311108;-0.066528246;0.1096253;0.07013703;-0.03258053;0.12979133;0.027306383;-0.10186563;0.2068107;-0.03561419;-0.05245466;-0.047251396;-0.2664341;0.2504627;0.0002707228;-0.046614543;0.11365585;0.00977262;0.13945234;0.24826418;0.034355994;0.052197687;-0.05901509;0.09128446;0.13246574;-0.13798304;0.060416266;0.010779105;0.12728222;-0.041782;-0.14486897;0.058200978;-0.01783933;-0.08556928;-0.03693092;0.26109645;0.013521491;-0.02125699;-0.046311952;-0.23457134;0.05162624;0.05449054;-0.3092158;0.04053395;-0.013118119;0.020050112;0.22016108;0.084559985;-0.011050551;0.46044555;0.26645485;-0.02691484;-0.13378955;0.12497606;0.116131894;0.022083275;-0.004558469;0.09802393;0.025366325;0.06277237;0.21296747;0.03263495;-0.026566597;0.045569878;-0.2000149;0.04387116;0.03254747;0.055635303;-0.009749245;0.0054844236;0.10607595;-0.27595946;0.19688196;0.23323555;-0.08476465;-0.029636856;-0.012925402;-0.058347065;-0.022881467;0.083819926;0.0056538777;0.10229247;0.0150595615;-0.22114052;0.0939137;0.43262273;-0.0028727683;0.119671606;-0.08270093;0.20563242;0.009749779;-0.19427167;-0.053571504;0.1551206;0.049681243;0.1027764;-0.010534265;0.03319958;0.19699785;0.09124754;-0.17727384;-0.00115908;0.024520494;0.3310335;-0.3491678;0.1546245;-0.3793149;-0.069360815;-0.07596719;-0.07595139;0.017658457;0.2520722;0.14433523;-0.5430138;0.04438514;-0.009427363;-0.18183388;-0.016394299;-0.012226554;-0.031012796;-0.17730446;0.0075924303;0.07460274;-0.022707017;-0.01286163;0.024788601;-0.004653588;0.040371988;-0.5071488;0.051122718;0.1631515;-0.43807745;0.2579508;0.13358615;0.024101393;0.196077;-0.1698796;0.1052255;0.20153749;-0.17187604;0.22776522;-0.13522907;-0.078113094;-0.018821996;0.021212801;-0.0024164268;-0.01762277;0.028715443;-0.35348472;-0.18649243;-0.020245247;0.027144164;0.02455019;0.08878745;0.010681037;0.04110725;-0.008016475;0.12666301;-0.011273437;-0.10772826;0.22282653;-0.01793941;-0.013918246;0.03289991;-0.068351276;0.017989038;0.008646287;-0.20719007;-0.30793235;0.021798054;0.0075042523;-0.3442813;-0.0591659;0.08758196;-0.047045916;-0.021308742;-0.16496506;0.07162583;-0.009028424;-0.056331318;0.08554078;0.0001054051;0.15272251;0.046807602;0.12089024;0.015136727;0.12350714;-0.11301131;0.13075674;-0.2799485;0.05669363;0.05526062;0.026250107;0.020637775;0.24249727;-0.16965991;0.25211373;-0.3695514;0.2507185;0.098420456;-0.27612713;-0.047998264;0.04063767;-0.22476111;0.0023823697;0.22078972;0.12519656;-0.087140344;0.0051372238;0.049874634;-0.16160013;-0.093045965;-0.15563592;-0.08635206;-0.0056762677;-0.18578236;0.0036118908;0.0018141553;-0.05291425;-0.08823532;0.09019521;0.17966479;0.14388086;-0.4426403;-0.13949402;0.01254919;-0.0462641;0.023021141;-0.03551872;0.20064452;0.18313798;-0.015306116;-0.022972202;0.25754532;0.025387282;-0.07567683;-0.14493313;0.016799482;0.051266182;-0.33123288;0.049174346;0.039060656;-0.040338866;0.062120203;-0.030973302;0.15703747;0.07906947;0.1621048;-0.08068058;-0.12523288;-0.0063345674;0.065033905;-0.24044499;-0.27029046;0.17144561;-0.0063472567;0.21797533;-0.12405101;0.24312423;-0.05864205;0.024979895;-0.18787116;0.26481962;-0.092469044;-0.007965023;-0.2911736;0.048858065;0.14453451;0.04917434;0.22048284;0.080955625;0.08105764;0.004250003;-0.080450706;-0.035243183;0.027890312;-0.086718515;-0.064888105;0.029269371;0.015084996;0.114111915;-0.009369982;-0.13840437;0.1008291;-0.08764211;-0.016134193;0.043327667;-0.043417983;-0.048396472;-0.10489467;0.054255232;0.02235117;0.081488505;-0.03507423;-0.08015877;-0.0562471;0.060144067;-0.006096844;-0.18887627;-0.019077232;-0.050959427;0.0077951136;-0.0060546272;-0.34128585;0.08969466;-0.0060260827;-0.13890831;-0.046748307;0.07234313;-0.22092266;-0.032339264;-0.04596996;-0.18403241;-0.109320216;-0.11060639;-0.15745468;-0.4143119;-0.0069631003;0.054238174;-0.010878885;-0.05445216;0.007497905;-0.17613325;0.04129304;-0.100300245;-0.078403644;-0.0381832;-0.5458429;-0.0055833487;0.024047231;0.19278271;-0.032440294;-0.04182806;-0.017062344;0.009202918;-0.041811354;-0.18361135;0.021470957;0.063260294;-0.021375857;-0.17345275;-0.11016297;-0.16418561;-0.24905595;0.044150483;-0.03589808;-0.0092146695;-0.06648468;0.028573606;-0.034019783;0.011542085;-0.06880094;-0.005155516;0.043740354;-0.0024984123;0.012482921;-0.017660964;0.11091759;-0.01608111;0.0007987791;0.04940509;-0.023899687;0.074703954;0.27424634;-0.06696708;0.118945144;-0.04628887;-0.11759328;-0.19025747;-0.10686827;0.031761616;0.2393315;0.06584857;0.029264804;-0.008994332;0.16819881;-0.036236174;0.2487938;0.024011923;0.40865043;-0.17093854;0.07923111;0.0017635733;0.26768208;-0.009500549;-0.29490238;0.021999458;-0.11196754;-0.056162056;0.047336858;-0.18385088;-0.1148878;-0.03320703;-0.043043643;0.03810262;-0.06754352;0.082611814;0.342466;0.06616401;0.010191001;-0.013488572;0.13883126;-0.18909909;-0.096517175;-0.046493232;-0.03358295;-0.14375056;0.08147793;-0.142069;-0.049060855;-0.028215878;-0.03373588;0.10408407;0.116609566;-0.13424133;0.033751056;-0.2189002;-0.020267745;0.032448728;-0.059279796;-0.089607246;0.04553021;0.2658811;-0.10244008;0.039838582;0.025903348;0.041134633;-0.26839918
-0.028564032;0.1384795;-0.065083064;-0.04881992;-0.034794927;0.09410889;0.016780589;0.004260085;-0.047262147;0.12751144;-0.02075988;-0.041517038;0.21445353;-0.10209241;0.068966605;-0.051904734;-0.21291739;-0.09093446;-0.047945656;0.004830527;0.33656934;0.021668674;-0.100040436;0.0037376005;0.23099108;0.2774087;0.0982419;-0.072101034;-0.0020198226;-0.052341163;-0.00041997142;0.1459241;0.105494305;0.016029973;-0.0720214;-0.040615026;0.0034445925;-0.092060134;0.033299856;0.11744779;0.06580112;-0.13268988;0.040851504;-0.037224274;-0.06656134;0.3256944;0.067531295;-0.13214514;-0.027394809;0.053442236;0.14363155;0.04567277;0.1186205;-0.14334013;0.14711028;-0.099776916;0.06532927;0.35663506;0.016286133;0.14163569;-0.13398239;0.06542773;-0.11026227;-0.028787723;-0.025278663;0.02803047;0.19506425;0.17949703;0.28784013;0.060128335;0.041116163;-0.0752917;0.0914732;0.022513442;0.021401577;0.049202714;-0.015332704;0.10380215;0.3341614;-0.12189908;-0.34254536;-0.0032865363;-0.06700286;0.003924372;0.2568435;-0.06258354;0.04874;0.05962259;-0.2750634;-0.08010946;0.038827077;0.06846112;0.009817468;0.15850115;0.056572054;0.054157935;0.00010018831;0.12456786;-0.04941185;-0.0061991513;0.09025574;0.15334919;-0.022627443;-0.028767083;-0.13613418;0.05276368;-0.00763174;-0.032616638;0.002640896;-0.06606359;0.14208226;0.27257466;-0.115438454;-0.033796344;0.032289293;-0.08226768;-0.011948688;0.11271569;-0.060864445;0.06265557;-0.017257854;0.30466193;0.012246084;0.19639237;0.19807468;0.025045732;0.04887504;0.086107746;0.017861277;-0.058371134;0.095213056;0.040309668;-0.013067846;-0.011771133;0.044823814;0.009228659;0.009116055;-0.027301684;0.07620562;0.009892339;-0.016602196;0.057976283;-0.023205133;0.1804662;-0.24964668;-0.21405877;-0.06221924;0.14877395;-0.009710412;-0.08022198;0.16661654;0.04201614;-0.014075235;0.12481799;-0.06271595;0.0098184105;0.050923124;-0.02829343;0.032206003;0.052081563;-0.22495429;0.051977757;0.02614708;0.029492661;0.13232738;-0.042028196;0.122753575;0.15252808;0.07182069;-0.0156556;-0.048514564;-0.07481151;-0.0041029877;-0.14531271;0.04246624;-0.005696811;0.107962504;0.042780954;-0.007175178;0.13535364;0.022778094;-0.0038184223;-0.013776918;0.25368732;-0.047574528;0.038659953;0.023049619;-0.05756731;0.048171524;-0.013168391;-0.103778444;0.11506844;0.060614318;0.009055533;0.29252225;0.17852958;0.075706445;0.40682375;0.3062985;0.003886072;-0.20090619;0.13696325;-0.016455192;0.109565966;-0.04975669;-0.04917055;-0.00034693218;0.19553319;0.047774542;-0.026954716;0.0341208;0.07267776;-0.10055416;0.016059829;0.014339007;-0.009970873;0.03588918;-0.020494629;0.09696543;-0.0669193;0.21193208;0.04314057;-0.11173743;-0.0877157;0.008838313;0.16247936;0.06069745;0.24118382;0.054904707;0.15022981;-0.022194002;-0.12189352;0.0021296164;0.2512393;-0.031454924;0.014656503;-0.013361359;0.21823768;-0.038768165;-0.14651278;0.006751083;0.20584486;-0.008893357;0.1311468;0.0948893;0.1574114;0.20015872;0.06202155;-0.21564591;-0.040602125;-0.018460436;0.29962862;-0.5581534;0.098093964;-0.41952118;-0.06025655;0.012591129;0.111333914;0.066185296;0.21663691;0.08487101;-0.34928596;0.12296151;0.039114796;-0.15017639;-0.011514919;0.034259636;0.048012376;-0.25625768;-0.023123428;0.1663226;-0.106527925;0.010452183;0.10207666;-0.0037556286;-0.030790538;-0.5172293;-0.05795633;0.08687401;-0.29280248;0.19338028;0.079897694;-0.0014551556;0.13918327;-0.037912823;0.04280061;0.22366747;-0.09534845;0.10085374;-0.18878168;-0.096065946;-0.1346335;-0.015343407;-0.037961777;0.07485205;0.011939859;-0.48343807;-0.022861432;-0.019372618;-0.028051982;-0.14297485;0.17571418;0.027303964;0.089917846;0.022231339;0.092555955;-0.048775643;0.043045558;0.19167148;-0.05913715;-0.04418965;-0.020687664;-0.11378596;0.06859458;0.19638819;-0.17385477;-0.45770264;0.005526158;0.0031636376;-0.24838758;-0.009019238;0.06944281;0.0012743042;0.015953459;-0.14958364;-0.026117884;-0.012071662;0.058896024;-0.029533906;0.035236396;0.04158805;0.052507725;0.15984826;-0.027539609;0.13891803;-0.077688806;0.034517772;-0.27140597;-0.059403595;0.02068909;0.031354006;0.012113696;0.12002326;-0.049972787;0.25307274;-0.26206997;0.08885281;0.1615465;-0.35557318;0.07181592;-0.0002533269;-0.13889079;-0.05049308;0.16650452;0.0030664245;-0.21803847;0.04338658;-0.11462589;-0.14139788;-0.0883153;-0.080536604;-0.11501622;0.038332567;-0.19022606;-0.020046283;0.018923309;0.0063224384;-0.053807385;0.1518657;0.13215615;0.099000685;-0.29555175;-0.17566493;-0.08019989;-0.0011984998;0.07711363;-0.038535204;0.18663797;0.012915303;0.02285651;-0.013179704;-0.014402843;0.014303225;-0.043720923;0.0217377;-0.021261288;0.08675178;-0.224475;-0.15033396;-0.030156186;-0.09969152;-0.05938761;0.07254387;0.2270267;-0.031974353;0.16432117;-0.028609483;-0.20991841;0.025482306;-0.005576351;-0.3054088;-0.15869209;-0.004912722;-0.127114;0.16675;-0.20536685;0.26179194;0.015671574;-0.060721025;-0.024694247;0.32723713;0.006799674;0.06716504;-0.21439345;0.017364744;0.13495502;-0.072999895;0.21752714;0.0013230338;0.13996816;-0.036943287;-0.0026611926;0.04413209;-0.08030519;-0.09459657;0.02482569;0.050580073;0.112907775;0.05922979;-0.01661829;-0.04498315;0.1461632;0.045012828;-0.027057724;-0.0025508164;0.05008834;-0.14121905;-0.100474015;0.042701643;0.01378031;0.07870145;0.03770389;-0.21104327;-0.072351456;-0.031525064;-0.06032447;-0.26466262;0.0054087476;-0.13858107;-0.03081262;-0.029990412;-0.23667058;0.008028664;0.029392485;-0.09260587;-0.064799204;-0.0503187;-0.24833038;0.0088538565;0.008453221;-0.31779918;-0.14894587;-0.16280147;-0.05828911;-0.26010567;0.053645737;-0.00042989975;0.07268779;-0.050206225;-0.019185994;-0.1839655;0.029433135;-0.15212752;-0.1231264;-0.11549251;-0.46036327;-0.12196039;-0.029075395;0.14053501;0.026212662;0.01093271;0.025150517;-0.0074685686;0.040517345;-0.20801227;-0.056687977;0.015290163;0.05250497;-0.19925036;-0.28530228;-0.16431074;-0.24211837;0.09668332;-0.006586163;0.020370254;0.07003884;0.047922928;-0.028330887;-0.038243182;-0.0125898225;0.07706903;-0.07544517;0.091728926;-0.04087561;0.039402917;0.11938654;0.005315444;-0.047953293;0.039781835;-0.048320938;0.14804368;0.22245249;-0.19036779;-0.018762872;-0.010546506;-0.1744931;-0.1365156;-0.051554304;0.020125763;0.14887117;0.0675056;-0.07946693;0.01035056;0.11857916;0.0037601546;0.13100126;0.020358054;0.37597692;-0.18299858;0.0194727;-0.029159937;0.18521608;0.05721177;-0.2176655;0.046785653;-0.23424496;-0.004617429;0.15847568;-0.1928868;-0.058785394;0.027225636;0.04080501;-0.0062194923;-0.038849;0.16345708;0.27023175;0.07892693;-0.02101723;-0.003365631;0.06749877;-0.18124051;-0.114325084;0.01073636;0.002986176;-0.13423567;0.095838286;-0.13970217;0.021843588;-0.012947227;0.07348971;0.09477255;0.015184096;-0.13447648;-0.037998356;-0.21349269;-0.1313568;0.048923578;-0.009269466;-0.034353912;0.10777112;0.23055713;-0.1303532;-0.05532326;-0.022840219;-0.03782232;-0.21115588
0.037086595;0.18093607;-0.019776173;-0.023859998;-0.023032514;0.104629695;-0.008331388;0.026557034;-0.050860837;0.185501;0.040185936;-0.1284557;0.11573713;0.010288327;-0.0062942305;0.057223197;-0.17073822;-0.031884883;0.08265852;0.00079816923;0.19014275;0.007371398;-0.10701668;0.0081243655;0.28731215;0.21343158;0.13397297;-0.25837085;0.062291924;-0.024851864;0.0048434734;0.15772344;0.20317665;0.03318674;0.05014647;-0.01685826;-0.10083254;-0.13129961;0.09635176;0.18265246;0.011551127;-0.09094755;0.18887548;0.09568106;0.035157282;0.23600371;-0.024783695;-0.07857052;-0.082531855;-0.0200921;0.10369872;0.035441637;0.20202163;-0.25573435;0.030563876;-0.16870947;-0.066333145;0.42555794;0.10111318;0.043539967;-0.30647224;-0.11448182;-0.164593;-0.036805294;0.01782436;-0.0021506199;0.2696671;0.23377694;0.24168475;-0.03753681;0.013839574;-0.04764042;0.057594266;-0.006534245;0.04018183;-0.07040993;0.043268077;0.040685825;0.06069573;-0.1566854;-0.32428008;-0.11967118;0.08151253;-0.074226394;0.19916838;0.12210824;0.029067757;-0.055864915;-0.23161545;0.049245525;0.16849917;0.08848459;0.11484976;0.19779491;-0.109893866;0.0077924263;0.016457992;0.031475477;-0.021545608;-0.058597855;-0.014911373;0.072091855;0.06771053;-0.029234337;-0.08359711;0.011839594;0.021085203;0.04110505;0.01442074;-0.087271474;-0.022410398;0.178846;-0.17820214;0.06541285;-0.04856391;-0.22899657;-0.0023109687;0.12587216;0.046788853;0.08554221;-0.026316168;0.22214381;0.032841727;0.17819108;0.26738253;-0.012462731;-0.024847632;0.13418987;0.09899545;0.0066034533;-0.012251152;-0.030794576;-0.18262722;0.0043404214;0.10493484;-0.05965143;-0.031271998;-0.078265466;-0.046367247;0.07471158;0.0992322;0.16073076;0.015681496;-0.06304031;-0.15853263;-0.05171182;0.1667585;0.2195094;-0.059235483;-0.0032019336;0.16738349;-0.103886634;0.021795815;-0.06056416;-0.029468736;-0.13608162;0.13316798;-0.019989057;-0.06022661;0.002924523;-0.1637573;0.1014461;-0.045720503;0.06960539;0.085280605;-0.082547724;-0.13204807;0.13141997;0.05413216;0.05721564;-0.04610959;0.07224509;0.09049231;0.069937125;-0.03211985;0.003614397;0.124703676;-0.05496901;-0.19265641;0.12866302;-0.014155604;-0.010250447;-0.06884322;0.41338566;0.04652691;0.03610276;-0.12540936;-0.14483756;-0.06502608;-0.027671302;-0.089805536;0.015281285;-0.0485837;-0.0077839512;0.2012232;0.1346778;0.05808817;0.39664677;0.14459777;-0.15762246;-0.11848078;0.048804812;-0.12006416;0.00402833;-0.17057537;-0.044282526;-0.014579839;0.1340532;-0.021633605;-0.05915428;-0.04315075;-0.026426362;-0.12228238;-0.008713879;-0.020563334;0.03546478;0.09273646;0.0012722274;-0.0041087903;-0.12981273;0.03140338;0.15910846;-0.1010057;-0.14829817;0.018923625;0.14210135;-0.0416665;0.19937347;0.009907337;0.17248315;-0.021573493;-0.2688466;-0.019565238;0.2706918;-0.057858996;0.13515171;-0.023365624;0.19187303;0.011835464;-0.0729601;-0.12799682;0.2203532;-0.035781913;0.17804398;-0.053531185;0.085210174;0.26071206;0.09100858;-0.42726573;0.03278763;0.023768827;0.1778049;-0.52265203;0.007006956;-0.3623311;0.009775546;0.039477304;-0.03689673;-0.039574046;0.36992154;0.00081904314;-0.44457048;0.15852539;-0.05487191;-0.06740684;-0.018791586;0.06925774;-0.050443377;-0.2168787;0.05707008;0.18186145;-0.082165636;0.044192895;-0.13385685;0.015908169;0.02391011;-0.41632393;-0.04974183;0.12211994;-0.44807673;0.23530862;0.018178552;0.018566623;0.23788047;-0.047202673;0.18438478;0.21188499;-0.119019136;0.11838125;-0.21978779;-0.06905273;-0.2057785;0.023321137;0.11792358;0.16716929;0.023780592;-0.44876853;-0.024729747;0.04720679;-0.013428079;-0.10937824;0.122564435;0.0061731534;0.14613275;-0.028049136;0.028659444;-0.054150246;-0.024829518;0.07055553;-0.09958208;0.021160549;-0.014792515;0.0021228923;0.022569329;0.19724165;-0.15127257;-0.41109613;0.014017218;-0.18771169;-0.20899555;0.024114707;-0.0048812237;-0.079113096;-0.01569517;0.01061227;-0.06306348;0.0484307;0.021213649;0.0156039605;0.013726209;0.16416635;-0.041006714;0.23290928;-0.06408519;0.0011572959;-0.14536777;-0.039073613;-0.24192037;0.010907363;-0.10709387;0.026296174;0.024954434;0.19480985;0.02944856;0.27365974;-0.094284296;0.20033947;0.10700366;-0.41585115;0.056976188;-0.0125067;-0.08906472;-0.061382342;0.23704742;-0.1119265;-0.21259354;0.00450154;-0.021265019;-0.14727913;-0.08753397;-0.072718225;-0.041901227;-0.04197348;0.06186401;0.014584564;0.020063361;-0.041419152;-0.0075737108;0.12728758;0.06504824;0.17215675;-0.24877618;-0.19132999;0.06267596;-0.0771391;0.24275029;0.077719785;0.13013293;0.04647868;0.006071187;-0.16577508;-0.07185194;-0.014003081;-0.044915326;-0.030450176;0.039149452;-0.059830736;-0.3749817;-0.11972191;-0.04556922;-0.114020675;-0.035463877;-0.017057981;0.21591534;-0.081758946;0.19203936;0.017097456;-0.23102733;-0.021401236;-0.008533704;-0.13828833;-0.1988838;-0.008192943;-0.0839192;0.119928256;-0.20040143;0.19420204;-0.15065178;0.0053230026;-0.032563314;0.16038936;-0.0020440973;-0.0017704128;-0.18314703;0.12059551;0.13682818;0.006447305;0.13934278;0.11575919;0.09980274;0.029112827;-0.008399516;0.024893928;-0.17003645;-0.14031947;0.013452549;-0.13334517;0.12940025;-0.101415955;0.0304923;-0.0336462;-0.025826443;0.090522684;0.008171396;-0.030033851;-0.02107619;-0.06344192;-0.17105791;-0.009918515;0.04921852;-0.043789066;0.06970084;-0.2682448;-0.03987471;-0.027494147;-0.20014341;-0.1084635;-0.0038760125;0.099308275;-0.07260931;0.057217747;-0.2677754;0.05494656;-0.024666527;-0.120677315;-0.12923284;-0.036653526;-0.17440836;0.067875184;0.013690175;-0.25203946;-0.1419261;-0.04744164;-0.009799087;-0.1407042;-0.06859408;-0.016512254;-0.028647259;0.00051061984;-0.02421575;-0.098597676;0.006647047;-0.24488468;-0.15621698;-0.118744455;-0.3222879;-0.0846358;-0.03699181;0.24150749;0.054817494;-0.10972145;-0.04229516;0.012217882;0.027715385;-0.08973531;-0.0719293;-0.0607982;-0.05574468;-0.19528311;-0.29029876;0.019585874;-0.16673818;0.1276742;-0.01907636;-0.078124836;0.23044783;0.21914025;-0.077423215;0.016095672;0.01346646;-0.033943042;0.04913429;-0.0014885581;0.0019184371;-0.016134141;0.06627844;-0.018430278;0.040257085;-0.06863213;0.03347329;-0.107216634;0.1885025;-0.1701919;0.10849547;0.05536415;-0.08272958;-0.15152164;-0.10850108;-0.0011545216;0.25903237;-0.05731722;-0.10119575;-0.04657615;0.2234519;0.0010459308;0.23537247;-0.04840367;0.26070875;-0.22801946;-0.037360758;0.1073534;0.1613249;-0.0038069934;-0.13309571;-0.05586264;-0.13045137;-0.06581328;0.014674333;-0.17747802;-0.059535094;0.03886128;0.032060362;0.022460168;0.012171896;0.30911177;0.13435449;0.02941854;0.021092057;-0.011394935;0.09086433;-0.15916596;-0.089681685;0.051680584;0.051658656;-0.002309283;0.11842062;-0.23475297;0.06162799;0.06838156;0.037555125;-0.04094326;-0.06849252;-0.12253444;-0.03997066;-0.25386488;-0.0064640963;-0.027932687;-0.0067028394;-0.0058373073;0.05746843;0.15547833;-0.16910394;-0.1073575;-0.027696768;0.018905262;-0.22753116
-0.0076533887;0.33237875;0.03633595;0.027360996;0.049131446;0.09233382;0.026311496;0.010863826;-0.0739773;0.15375105;0.0012357465;-0.23598646;0.040431954;-0.046057668;0.111164026;-0.058935117;-0.14457002;0.04210724;0.018660923;0.046049397;0.19082507;-0.006556986;-0.16192019;-0.10427454;0.15574788;0.3674211;0.35250464;-0.2497756;-0.016630568;-0.13975233;0.016182661;0.18576641;0.10574533;0.15434454;0.024833366;-0.022496382;-0.02638463;-0.08855613;0.023263833;0.3500794;0.051530804;0.0356932;0.17114756;-0.04006777;0.048815563;0.1911638;-0.14763619;-0.07125858;-0.080333665;0.007378724;0.026606277;-0.042605884;-0.01580796;-0.12266386;0.1783238;-0.10096993;-0.19135201;0.39088383;0.04671108;0.10173499;-0.41753703;-0.0991717;-0.11647805;-0.030947167;-0.048607714;-0.028735192;0.21128325;0.30702725;0.23248255;-0.025593163;-0.0023213997;-0.04863649;0.040356435;0.04249884;0.010809537;0.071347244;0.013584982;0.12260832;-0.015848747;-0.105203055;-0.29298595;-0.036733244;0.077792495;0.044467103;0.32849616;0.047872655;-0.11494134;0.059222545;-0.11856566;-0.15289345;0.045773365;0.13520315;0.20631844;0.1128688;-0.008055746;-0.020771516;-0.003167234;-0.20637599;-0.0015178751;-0.13158666;-0.010787131;-0.062530644;0.022227896;0.047807608;-0.028459316;-0.023526644;-0.029851226;-0.052994378;0.040165108;-0.13865533;-0.10680674;0.26510927;-0.22351019;-0.05210465;-0.029091695;-0.2146812;-0.046227064;0.04461511;0.06667941;0.048892327;0.05788844;0.10573995;0.03524534;0.24145228;0.424838;0.0400612;-0.0378921;0.2705097;0.04390233;-0.013099873;0.020070022;0.008094636;-0.037147637;-0.0039270013;0.014932386;0.05314475;-0.12188588;0.07581303;0.05296789;-0.04768629;0.12162882;0.067976184;-0.06305713;-0.13005553;-0.11445123;0.021721795;-0.036685396;0.25821286;-0.030521633;-0.06802185;0.20676595;-0.05343127;0.0010770876;-0.15852483;0.00055970665;-0.22162493;-0.015935358;0.00022732196;0.049064055;-0.0019238093;-0.13480148;-0.0039823344;0.003457397;-0.04943692;-0.00323391;-0.1597172;-0.003245036;0.14015326;0.04767763;-0.13281038;0.04883455;0.030398792;0.20368841;-0.13344745;0.034327675;0.019557513;0.16267408;0.029390026;-0.080430515;0.27686158;0.0039021187;0.030572345;-0.027524294;0.2756244;-0.03180304;-0.03125221;0.0196133;-0.0122838225;0.018279312;0.00549106;-0.22861859;0.1191272;-0.010271507;0.031217441;0.23388879;0.1182361;0.041505653;0.32161278;0.117611;-0.12713678;0.030640112;-0.024198687;-0.0571012;0.15400939;-0.30552155;0.08107843;0.035772596;0.19908911;0.008244767;0.04031583;0.07425035;-0.033663616;-0.115602836;0.003271545;-0.06132822;-0.017846609;-0.008055179;0.09195732;0.11179198;-0.010553754;0.042112384;0.07599086;-0.27289963;-0.26680523;-0.058389127;0.1303173;-0.027021466;0.1586306;-0.029755509;0.11236292;-0.038167834;-0.24318609;-0.021096136;0.21344241;0.03273539;0.12661184;0.0041214507;0.061522353;-0.0068219705;0.003929256;-0.1340198;0.08493225;0.00935493;0.09401163;-0.0064558024;-0.06359079;0.38390905;0.1420815;-0.44032267;0.0073659266;-0.014464578;0.18332054;-0.45448744;0.024618667;-0.5313662;-0.025405848;0.06616847;0.15166953;0.01578135;0.37382305;0.1641681;-0.019407064;0.29569143;0.055862185;-0.20257281;0.039274845;0.15540905;0.03023384;-0.34150052;-0.028663086;0.04587757;0.015499037;-0.048529465;-0.03356915;-0.049955964;0.07957176;-0.31056768;0.03979429;0.24504043;-0.2691974;0.30667835;0.005835122;-0.019463712;0.31556186;-0.1667994;0.12360287;0.16364834;-0.16462106;0.05621468;-0.00909432;0.073880725;-0.16691461;0.0064903423;0.08027101;0.18169527;-0.004675275;-0.35216376;-0.062123075;-0.047503058;0.018400867;-0.15026157;0.18814208;-0.034870032;0.06325797;0.02421273;0.026845725;-0.09702132;-0.08957327;0.028912028;-0.039772153;0.07059098;-0.047085565;-0.04476215;-0.008732145;0.2152229;-0.058269057;-0.40347537;-0.013529304;-0.2139714;-0.25477695;0.041334547;0.025683444;-0.066040106;0.080852196;-0.036461253;-0.0080805365;-0.054068964;-0.0068208533;-2.6131302e-06;0.013479057;0.10813178;0.0025566022;0.15915616;0.08537716;-0.07310214;-0.06282488;-0.00944908;-0.24858816;0.0091903405;-0.11297629;-0.059260964;0.030661523;0.14498097;0.1760655;0.38083115;-0.20169358;0.16445747;0.14431567;-0.5663851;-0.077090226;0.045409743;-0.11772533;0.07078723;0.2714394;0.01964514;-0.15439655;-0.054893438;-0.12175258;-0.26308578;-0.08063733;0.04518205;-0.09931723;0.03663293;-0.14187084;-0.017280703;0.020172425;0.026816223;0.01607928;-0.029228825;0.033378907;0.110319115;-0.26628566;-0.18020706;-0.032746915;0.046927597;0.23827752;-0.053565692;0.061457157;0.07458952;0.0064698933;-0.17816548;-0.07393434;-0.056916073;-0.1328685;0.08759353;-0.0038957542;-0.05856188;-0.0801395;0.06849317;0.0032034132;0.0010145601;-0.01765798;-0.018265113;0.2319901;0.061588433;0.13623315;-0.07009307;-0.3307688;0.011798524;-0.025917301;-0.21061842;-0.2956847;-0.07188518;-0.105921224;0.12179468;-0.18479773;0.040883902;-0.13620666;0.066735916;-0.031769685;0.22010177;-0.028918091;-0.053417742;-0.13915248;-0.051385235;0.15517984;-0.09412189;0.056873456;0.08111774;0.09491027;0.017767096;0.018445108;-0.04753027;0.047224548;-0.26801932;0.027492845;-0.10260959;-0.057959646;-0.23578246;-0.032678626;0.06624196;0.0002410814;0.18874495;0.024447896;0.032133028;0.010469151;-0.009998234;-0.36484212;-0.06294188;0.07220151;-0.11345033;0.06743919;-0.21000981;-0.06489691;-0.017011931;-0.21768337;-0.20202373;-0.011163816;0.08303787;-0.023827791;0.0327899;-0.24317975;-0.09693878;0.12738355;-0.16537474;-0.16192582;0.10311251;-0.17296647;-0.026367776;-0.005901248;-0.13119847;-0.062004365;-0.104310974;0.03455125;-0.1427575;-0.034042064;-0.0034391035;-0.006261116;-0.02475987;-0.01670495;-0.1392958;0.0044294023;-0.21926302;-0.22784355;-0.22122404;-0.3233828;-0.03163973;0.03391443;0.24619646;-0.028474811;-0.026917148;0.109734;-0.009821999;0.012671326;-0.10762607;-0.18565622;0.050862193;-0.035485376;-0.07409707;-0.22136255;0.19908623;-0.08222421;0.112873785;0.03618653;0.035722673;0.19653699;-0.0063856957;0.075302064;0.05597783;0.049281906;-0.0064109014;0.004602999;-0.02688505;0.029209873;-0.036107533;0.12507264;-0.22567125;0.0019822414;-0.013705114;0.06814082;-0.10044491;0.15637793;-0.062085215;0.095749415;0.01961928;0.06689465;-0.042466767;-0.059716422;-0.0070119593;0.11851738;-0.0110052;-0.10039132;-0.066391416;0.12163009;-0.023645492;0.15037456;-0.00326695;0.027440308;-0.14023772;0.006039429;-0.028068572;0.21954669;-0.045957748;0.13978487;0.07389645;-0.1477741;-0.09883091;-0.03860214;-0.23463492;-0.022499481;-0.026312307;-0.0074292026;-0.018299589;0.008452764;0.33259153;0.24964459;0.025962466;-0.02574943;-0.0025294311;0.18535514;-0.09963002;-0.18982431;-0.09204134;0.024517888;0.045301627;0.099102065;-0.026820896;-0.061252046;-0.021183122;-0.11296641;0.022141123;-0.0050387364;0.0004974277;0.0029348824;-0.14846799;0.095862396;-0.09138155;0.023371376;0.08016924;0.024079964;0.2275692;-0.12578136;0.0044577504;-0.03217638;-0.06837624;-0.21668364
-0.014284507;0.2823967;0.08300758;0.025947886;-0.0059672813;-0.058938358;0.00942223;-0.0628317;-0.12806392;0.24717145;-0.021821931;-0.17060508;0.20630632;0.0966285;0.13059668;-0.002088255;-0.10905791;-0.023654804;-0.034637127;0.08652067;0.30075812;-0.026742866;-0.27278817;0.061215278;0.16728005;0.3734459;0.25414813;-0.060137317;-0.06962989;-0.08140953;0.06479372;0.09736928;0.09841624;0.14367615;-0.03649671;-0.031642176;-0.14310625;-0.24246593;0.01847192;0.3959788;-0.04147943;0.0564845;0.11849151;-0.03963418;0.03388206;0.039553203;-0.113165334;0.04687847;-0.13194856;0.018990614;0.0068074376;-0.051405773;0.08045201;-0.28950784;0.18254365;-0.15420063;-0.32552978;0.099867016;0.13154113;-0.0021108622;-0.38137648;-0.08089382;-0.05877236;-0.10552943;0.037916295;-0.018082652;0.3208937;0.34762722;0.13416058;0.035657283;-0.0030469247;0.045677867;0.010323499;0.037381694;-0.052681703;-0.05750036;-0.027880076;0.14192906;-0.06944093;-0.08757475;-0.4334998;-0.031763446;0.12694754;-0.006075247;0.37227237;-0.046039667;-0.11026115;-0.06396802;-0.17140326;-0.10768173;0.08413031;0.012494236;0.024833523;0.072691485;-0.007941939;-0.07113495;0.08499692;-0.40891427;-0.008153858;-0.14065683;-0.048050266;-0.050444208;0.08890584;-0.027129646;0.019418653;0.0018322569;0.023844924;0.08067253;-0.01888128;-0.075896636;-0.024792489;0.26415285;-0.2933749;-0.106724896;0.024558;-0.09700205;0.01156401;0.009595468;-0.034168217;-0.037067067;-0.24277441;0.15368532;-0.061464194;0.3458715;0.2717556;-0.028585216;0.047015987;0.29479355;-0.15081039;0.0424441;-0.03384617;0.20168571;-0.0745891;-0.015201357;-0.0019366163;0.015436943;-0.12260064;0.047857758;-0.07458351;-0.044639993;0.003140155;0.06269508;0.041990362;-0.09366159;-0.21267508;-0.019692702;-0.023952914;0.28283682;0.031251024;-0.19931297;0.111775234;-0.112304136;-0.011191084;-0.0986974;0.06864453;-0.17162025;-0.05878971;0.025614725;-0.017202942;-0.011060295;0.0071931253;0.061206333;0.012243553;-0.01893123;-0.008761126;-0.15773422;0.090494625;0.13232104;0.0034503688;-0.16447796;0.014417762;-0.09177938;0.036914095;-0.05469637;0.0047933334;-0.0413293;0.15347429;-0.0049935393;-0.17965212;0.21667552;0.0033041723;0.026902946;0.06138467;0.33474532;0.026680524;0.02202763;-0.09077828;-0.17517552;0.032881614;-0.033862095;-0.13629022;0.23144123;0.019220948;-0.011437933;0.114901826;0.016754689;-0.086300835;0.4466191;0.09484928;0.01408902;0.039828867;-0.013390589;-0.14146747;0.067024514;-0.3009363;0.036324866;0.012454224;0.1322866;0.15218966;0.019944161;-0.05288744;0.027483422;-0.08458336;0.031022921;0.05272262;-0.022904022;-0.0092722;-0.030454274;0.12552102;0.00789723;-0.0039155004;0.03476234;-0.18951298;-0.36416346;0.031097805;0.101288676;0.022881785;0.14596133;0.006051693;-0.07408831;0.042502426;-0.2353466;0.017361127;0.22246549;0.13427533;-0.0819304;0.10161495;-0.10640702;0.0027436381;0.0796175;-0.09966338;-0.05563542;0.004757733;0.08488512;-0.027201071;0.022836654;0.41391867;0.083520584;-0.5464884;-0.055164926;-0.021936666;0.1701491;-0.36157584;-0.006534144;-0.6154706;0.024132075;-0.022037078;0.071127556;0.02084649;0.2599182;-0.038405333;-0.048062883;0.19416553;-0.028075486;-0.11773809;0.015392902;0.20358081;0.040412188;-0.23553257;0.064999;0.11131705;-0.11049421;0.03940159;0.10450603;0.034334697;0.064923875;-0.2601262;0.04207989;0.30316725;-0.09276687;0.3813639;-0.092970766;0.05635834;0.11500156;-0.18815112;0.0709989;0.014710999;-0.18085963;0.26161554;-0.11419218;0.11092578;-0.17593387;-0.041950833;0.13605876;0.16615339;0.0020436163;-0.18101902;-0.1349567;-0.023882389;-0.01882769;-0.25784355;0.093590945;0.010408202;0.033505216;-0.023588378;-0.072899744;-0.069255345;-0.03950735;0.26925156;0.032408915;0.096843645;0.05561124;-0.05947041;0.047488645;0.14839163;-0.010901306;-0.3847838;0.0072309617;-0.049121518;-0.13030565;0.011418181;0.038856067;0.15360308;-0.05442045;-0.06306732;0.04075032;0.028465498;-0.052027352;-0.09840278;-0.028409963;0.0124081075;-0.022096174;0.1923647;-0.019582884;-0.121604204;0.01614126;-0.14318758;-0.32319888;0.0055991164;-0.11265448;-0.04929073;-0.017901348;0.078058675;0.16894817;0.3662876;-0.24726431;0.06338335;0.16500182;-0.5331578;-0.033710357;-0.018429557;-0.015647577;-0.0070353295;0.008623029;-0.01707685;-0.10227305;0.030385675;-0.18721534;-0.2649754;-0.27958706;-0.05721852;0.02595916;-0.03151221;-0.08897619;0.07606925;-0.018715804;0.008845923;-0.021012701;0.0018081552;0.007187449;0.31745017;-0.15910277;-0.17782202;-0.01026322;-0.1429261;0.22842069;0.01424467;0.09527678;0.013184942;-0.0153361205;-0.1656235;-0.07776399;-0.0702625;-0.10554172;-0.01487948;-0.021442015;0.0142472945;-0.18154366;0.0153609;0.062903754;0.06178304;-0.009137513;-0.03859573;0.07117183;0.0440934;0.050561022;0.016399585;-0.26371926;-0.02692644;-0.026663981;-0.38627422;-0.43790212;-0.11629429;-0.293889;0.07812087;-0.3456468;0.108888626;-0.18994786;-0.017101696;0.037081607;0.10390491;0.07630898;-0.007279681;-0.19312754;0.091078;0.04970476;-0.056112025;0.020597214;0.01488564;0.041523308;-0.02188248;0.012467163;0.03182383;-0.02612974;-0.27731225;-0.010370383;-0.23551136;-0.0098244;-0.18812509;0.014338809;0.033871457;-0.07789864;0.25373578;0.015823444;0.008096059;-0.036919206;0.07969732;-0.3344491;0.07396827;0.06679185;-0.23062061;0.010732984;-0.31998393;-0.19147192;0.04845364;-0.14747567;-0.09083093;0.025613543;-0.04464414;-0.08690081;-0.068986334;-0.18828699;-0.21593316;0.21734348;-0.093536116;0.062292453;0.19007075;-0.18353707;0.027140006;-0.04708373;-0.123007946;-0.16644396;-0.060696438;0.028611058;-0.2018028;0.080157034;-0.068654984;-0.00505813;0.031942572;0.022547878;-0.21662134;-0.023885999;-0.20742348;-0.2662011;-0.23514287;-0.2836749;-0.08844875;-0.07012081;0.3036269;-0.022411648;0.02143533;-0.012597486;0.02374056;-0.026267005;-0.068977974;-0.023212058;-0.06989595;0.05368103;-0.025736734;-0.25200504;0.2126223;-0.18013996;0.099247545;0.0070522884;0.049764995;0.18259798;0.08131865;-0.018109739;0.017922394;-0.01306483;0.060042255;-0.021437481;0.014243265;-0.100197874;-0.02103151;0.09969444;-0.22360125;0.054537706;0.07069081;-0.084493324;-0.03535117;-0.04212262;-0.116824806;0.11598219;0.0027091776;0.04690872;0.034238607;0.14033048;-0.030761698;0.028969867;0.06833422;0.08314299;-0.03578042;0.083502986;-0.030530728;0.09836904;0.071455844;-0.09809827;-0.04529675;0.09776424;-0.051466458;0.14249706;0.004668016;0.1127766;-0.037473105;-0.39658645;-0.14570387;0.016310563;-0.20443137;-0.012153225;-0.011817145;-0.0174281;-0.036033932;0.0058518383;0.3527651;0.14570817;0.1586081;0.01212325;-0.018739723;0.069703825;-0.07474369;-0.06632529;-0.156014;-0.012993449;0.16187477;0.048172295;-0.13893512;0.0058689783;-0.04402567;-0.21345863;0.08380086;-0.15672387;-0.01888037;0.023164643;-0.087280504;0.06677049;-0.19937989;0.0033336985;0.02191604;-0.17067689;0.091635905;-0.06624091;0.011439905;0.07552641;0.017109454;-0.2319552
0.021990549;0.111219086;0.13318007;0.027941503;0.04653292;0.010628365;-0.040261794;0.042333327;-0.08923312;0.09791082;-0.051499642;-0.1348007;0.12937039;0.194087;0.018783348;0.06667543;-0.020789206;0.13373342;-0.051494136;-0.046553515;0.09171534;-0.020249434;-0.3164169;-0.048664294;0.10118636;0.4124724;0.2683129;-0.13815334;-0.04166378;0.0027004122;0.010399649;0.13668688;0.2381172;0.23566824;0.047070533;0.03391613;-0.13060777;-0.22407399;0.14729293;0.39747822;-0.056381606;-0.049351897;0.056047596;-0.01491507;-0.068537004;0.031470776;-0.15880236;0.17184441;-0.15395287;-0.02096056;0.017227562;0.039863408;0.061329104;-0.111963205;0.12940331;-0.07864875;-0.32752073;0.14882424;0.106865674;-0.14831743;-0.39793134;-0.067458324;-0.20206867;-0.032325484;0.062212527;-0.005788867;0.26122966;0.23376809;0.0039352835;-0.030413177;0.02449039;0.06428156;0.10576821;0.010184754;0.016414234;0.013743205;0.036497716;0.100759506;-0.15105833;0.007594831;-0.24504927;-0.02882402;0.0049118805;-0.01013313;0.3588213;-0.16557011;-0.09211566;-0.053202674;-0.20887467;-0.16901094;0.13470145;-0.075367816;0.10128179;-0.060877036;0.06991743;0.0939142;-0.084373355;-0.44310823;0.012924299;-0.08840653;0.009803539;0.01363423;-0.120827146;-0.065027885;-0.0094994875;-0.022228044;-0.0016520423;-0.022628577;-0.05671797;-0.12653565;-0.018954689;0.4041667;-0.18747161;-0.039482366;-0.0019499519;-0.16903152;0.04533483;0.01937252;-0.032247633;-0.053601816;-0.20188613;0.10052937;0.039741088;0.22627911;0.2607399;-0.0267214;-0.018578589;0.1106426;-0.1408558;-0.0072443415;0.09296196;0.08571008;-0.014407266;0.03356031;0.011769664;-0.031564318;-0.12795542;0.04435368;0.064163186;0.048980523;-0.07655405;-0.023297964;0.01381792;0.017361723;-0.24059173;-0.2292788;-0.09015421;0.28224486;0.045122474;-0.3647054;0.14825752;-0.0992827;0.042580195;-0.12621997;-0.07592945;-0.14527331;-0.1074307;0.0066990387;-0.011367962;-0.0025017313;0.24859688;0.14324723;0.0019746781;0.035614986;-0.05937807;-0.109578595;0.13967869;0.16079633;0.098661564;-0.2469783;0.1376134;-0.027703578;0.07681593;0.045229685;-0.010615951;0.019519739;0.27493334;-0.031898066;-0.14488727;0.24622627;-0.023285326;0.14500616;0.18379487;0.39928696;-0.005835294;-0.030560607;-0.044604614;-0.20059358;0.023130774;0.10753706;0.025612714;0.21218343;-0.043544192;-0.031924605;0.2331463;0.015310747;0.047231253;0.16891167;-0.13057067;-0.03999349;0.0132146785;0.014013994;-0.10625314;0.04862422;-0.09972637;0.077852674;-0.037380066;0.1322443;0.016775696;-0.0021906768;-0.014513651;-0.046281736;-0.32626715;-0.041926634;8.683236e-05;0.022253681;0.19379899;0.010037549;0.051375687;0.10911318;0.07911851;-0.04945665;-0.26559123;-0.2662261;0.019543752;0.0026443356;0.0035272483;0.056717243;-0.008211354;-0.17548156;0.01145475;-0.2766651;-0.059088733;0.19057156;0.14681996;-0.05076179;0.12623845;-0.09432068;-0.002858725;0.02376964;-0.21348034;0.020000992;0.02193529;0.117659874;0.027074605;0.041319866;0.20493488;-0.057110455;-0.4295552;0.063618846;0.07021293;0.08960709;-0.3366042;-0.07523047;-0.3101155;-0.14244409;0.08115637;0.15907359;0.005112239;0.23864497;0.030931808;0.08362286;0.17769204;0.027321795;-0.06592287;-0.05297395;0.24090268;-0.03998505;-0.2963766;0.0013045904;0.06834459;-0.131592;-0.050796587;0.07527867;-0.027970223;-0.041357215;-0.34513742;0.0036256688;0.25537276;-0.027889416;0.29951066;-0.08334017;0.0041805697;0.0645191;-0.3271829;0.032566834;-0.039942108;0.114726596;0.23783362;-0.21974789;0.14601395;-0.13402572;0.029726785;0.20853682;0.17049818;0.030723948;-0.25007778;0.0512233;0.04740063;0.015899787;-0.23704532;0.17394087;-0.05221187;0.016042106;-0.011482478;0.056049544;0.04399427;-0.09074558;0.14019454;0.07276987;-0.018865097;-0.039351437;-0.23145556;0.07366665;0.04667688;-0.045339614;-0.36448315;0.055365484;-0.12160463;-0.02395136;-0.026173485;0.1256184;0.063368976;0.04800475;-0.011542432;0.023308959;-0.048628263;-0.044107515;0.022207038;-0.028409664;0.02794277;0.044476163;0.23076604;-0.021999406;-0.1383728;-0.11167199;-0.031335104;-0.21359149;-0.016797295;-0.15486783;0.05717449;-0.033709556;0.2128451;0.17986466;0.18456683;-0.44201168;0.016279126;0.31049666;-0.5560898;0.00324062;0.0044264505;0.019021612;0.015651396;0.108871125;-0.13449799;-0.12344384;-0.025264299;-0.033864148;-0.27746698;-0.22926232;0.068205185;0.060558327;-0.01136961;-0.052534968;-0.043123458;-0.05527635;0.016547987;0.011261522;0.007216386;0.11226192;0.30966666;-0.19269088;-0.06380308;-0.039579816;-0.13416542;0.0803478;0.028088203;0.032179795;-0.12922789;0.017426776;-0.16602394;0.013696267;0.05460587;-0.05878158;0.04181593;0.031258713;0.026821544;-0.13392025;0.103180885;-0.014510564;0.17746888;0.008272482;0.060217977;-0.03789145;-0.03468614;0.0056941463;-0.111737914;-0.35219145;0.045373425;-0.009553963;-0.13638179;-0.20587744;-0.019851215;-0.25741172;0.11470284;-0.3240655;0.13835639;-0.09901245;-0.063919276;0.03325537;0.17525114;0.0139024295;0.085649654;-0.06795757;-0.06379025;0.050076433;-0.021493709;-0.097591035;0.08261937;0.1378575;-0.010175238;0.017982543;0.012351236;-0.034567293;-0.3051666;-0.013676373;-0.40958893;-0.010993068;-0.089939244;-0.04558409;-0.03800302;-0.004049082;0.17886183;0.011638347;-0.003623973;0.052744206;0.008578177;-0.2809283;-0.038615547;0.017452832;-0.17200518;-0.05790363;-0.16445315;-0.14191116;0.006074374;-0.30961916;0.0104521895;-0.002314104;-0.047181096;-0.047005866;0.07225681;-0.2141169;-0.11575844;0.16069381;-0.071858406;0.20063138;0.0068115126;-0.19968897;-0.05398948;0.05256561;-0.12400194;-0.16699472;-0.041286796;0.13762932;-0.1334365;0.055874094;0.07743806;0.015768766;0.1552422;0.016733663;-0.22857206;-0.02868496;-0.14434858;-0.1559111;-0.30164137;-0.2741266;0.019574596;0.04548031;0.18769655;-0.011607338;0.028982943;0.15617622;0.010286305;-0.007643902;-0.120614186;0.07428605;0.018192727;0.031641208;0.10196397;-0.39410168;0.27362892;-0.057663187;0.10675649;0.003615476;0.0012484632;0.11982519;0.13449068;0.0834734;-0.053915378;-0.050735608;0.11676008;-0.019021602;0.14199217;0.047997504;0.04295837;0.05284685;-0.039488245;-0.0016051929;-0.055427913;0.025126383;0.03887283;-0.06535774;-0.034288403;0.1568393;-0.034693785;0.13211499;-0.09638441;0.16422684;0.05078262;-0.10398209;0.04838815;0.03651339;0.025208121;0.15880868;0.020293448;0.19933106;-0.04364965;-0.10243333;-0.0031685103;0.14798436;-0.07884179;0.07831809;-0.01778003;-0.023006568;-0.006557397;-0.3587106;-0.08278443;0.025250364;-0.051488955;0.18010211;-0.025848038;-0.014407889;0.031862807;0.002796295;0.18887271;0.13764468;0.06372187;0.045123868;0.06914513;0.05546714;-0.025308428;-0.08377991;-0.16681892;0.002990893;0.26309133;0.101457156;-0.20876414;0.004181236;0.0057122568;-0.17238042;0.12766902;-0.06397107;-0.061395716;0.024985544;-0.06293902;0.08928619;-0.2855997;-0.045570973;0.041160736;-0.0843885;0.09606981;0.034245163;-0.061095294;-0.020684408;0.014755994;-0.30773833
0.029457655;-0.02700007;0.113757424;-0.070465215;-0.044200514;-0.04904223;-0.014780732;0.013787865;0.01845668;0.05061085;0.016738433;-0.15745161;-0.14772752;0.22822925;-0.08486342;-0.021508925;-0.08330263;-0.14572424;0.03767172;0.03571109;0.09879875;0.025159057;-0.16142869;0.07246466;0.23585874;0.30644006;0.18623255;-0.029044947;-0.011599921;0.0067093815;-0.060571738;0.05194334;0.28531924;0.16387942;-0.017342318;0.059640925;0.11236434;-0.061495364;0.09392871;0.30781412;-0.017561207;-0.10321268;0.07504807;-0.10076436;-0.039319035;-0.10028611;0.07313471;0.2474533;-0.19076194;-0.030811012;-0.020576613;-0.023519654;0.08889064;-0.19854802;0.09800715;-0.057846885;-0.38336068;0.03249335;0.3075718;-0.08578133;-0.25007072;-0.08588021;-0.18847336;-0.09188266;-0.03495228;-0.016101427;0.25851667;0.2328827;0.0917945;0.052909;-0.017910413;0.16636813;0.019050933;-0.036228314;-0.008073665;-0.057655413;-0.040276963;-0.008746041;-0.14930649;0.060373235;-0.3122726;0.0334839;0.039624743;0.042896193;0.34549245;-0.10311536;-0.100938715;-0.037351757;-0.15728888;-0.20642012;0.027145728;0.1051431;0.12156542;-0.014157395;0.15457858;0.0021789127;-0.09978208;-0.29647747;0.011152652;-0.11381597;0.030909443;-0.043916572;-0.1744047;0.02271345;0.025352802;-0.02866764;0.015909106;-0.0002551563;0.069350556;-0.072281465;-0.040105402;0.44558007;-0.13111621;-0.03411555;0.028894512;-0.035436098;0.019866496;0.058817886;-0.04818833;-0.14803791;-0.22301714;0.18154405;-0.044015504;0.1288966;0.10383208;-0.03277668;0.000813975;0.23810291;-0.10194607;-0.058653362;-0.05982684;0.19188327;0.102921166;-0.022268733;0.038937945;-0.005748508;-0.014420355;-0.07195696;-0.0134821115;-0.027958238;-0.08635386;-0.0057156878;0.03782213;-0.22328213;-0.21679214;-0.11863836;0.102575876;0.26165465;-0.03896153;-0.33798087;0.15505742;-0.062458932;0.07922821;-0.26844862;0.07195258;-0.0976104;-0.15863006;0.02089896;-0.039777715;0.0083416365;0.09408858;0.18993458;0.026375253;-0.064217374;-0.22429864;-0.040286575;0.041391045;-0.017954474;-0.02535951;-0.2626772;0.20681539;0.079680644;-0.05550078;-0.02749359;-0.0531589;0.008836035;0.2685717;-0.022351995;-0.1695471;0.2434698;-0.015734458;0.103683025;0.29064032;0.5365876;0.024164597;-0.023553042;0.03190105;-0.14498553;-0.1297174;0.25865322;0.04186862;0.20237516;-0.019316169;-0.03320644;0.07372317;0.12709963;0.033731177;0.16057491;-0.12225526;-0.08969482;0.21535967;-0.046006717;-0.03273197;0.05300812;-0.14431551;0.19534403;-0.009941322;0.028159907;-0.09515312;0.058290172;0.040865228;-0.052473076;-0.24720098;0.045390334;0.0065012397;-0.04168805;0.1310757;-0.045233905;0.121518396;0.037479423;0.0075302096;-0.047215503;-0.3559694;-0.36892217;0.0036018554;0.08007235;-0.016929531;0.0037286463;-0.022585966;-0.18750905;0.055548355;-0.22528091;-0.19534187;0.10748418;0.26953107;0.051559053;0.08255888;-0.12718357;-0.016009485;0.1272796;-0.15308659;0.05775996;0.013469849;0.1075871;0.04064887;0.012179463;0.13429229;0.005218715;-0.2944962;-0.051217873;-0.078910224;0.20811337;-0.36906785;0.043626215;-0.20890251;-0.033176683;0.10124807;0.14957637;0.018767986;0.03561589;0.015337157;0.11238512;0.14498128;-0.014966788;-0.101714514;0.058083117;0.3474623;-0.057385974;-0.30048263;0.06767938;0.09845986;-0.12491968;0.02152848;0.054048065;-0.02482256;-0.018808315;-0.33428434;-0.020938933;0.27476233;0.076201595;0.47551328;-0.20833302;-0.029531399;-0.050724078;-0.21340598;-0.03900986;-0.021214103;0.05175631;0.25506192;0.014324264;0.21175496;-0.0421009;0.013363627;0.16996594;0.12201016;-0.04652656;-0.38577515;-0.13246696;-0.011291805;-0.034122165;-0.14113192;0.24444513;0.030554423;-0.029646058;0.07771173;-0.012158162;0.053214967;-0.07323088;0.11466313;0.068526566;0.010563563;-0.06859522;-0.27653116;-0.012547913;0.13624668;-0.09559242;-0.33249727;-0.060750198;-0.0044999337;0.09837658;-0.01994172;0.09046788;0.086189024;-0.06606327;-0.07067455;-0.002750882;0.03932924;0.028675485;-0.04053991;-0.013310692;-0.070671536;-0.052760553;0.06403565;-0.012633319;-0.10177836;-0.1522804;0.055300534;-0.24997894;0.003212914;-0.0622263;-0.011294553;-0.05795028;0.21694782;0.18429697;0.32064638;-0.30744818;0.11513789;0.20860995;-0.4052429;0.029429141;-0.043815896;-0.030311834;-0.03287282;0.10376653;-0.08554228;-0.020311508;0.017800573;-0.09305369;-0.15100838;-0.30003646;0.08279943;0.21924706;-0.007544404;-0.05426382;-0.03469414;-0.023772338;0.026655965;-0.15850388;-0.03351794;0.0074960906;0.12472326;-0.3640618;-0.07856156;0.04139572;-0.0445671;0.13099487;-0.027605934;0.14233805;-0.024504103;-0.010216802;-0.09168666;-0.1312409;0.026578357;0.080639675;0.17983972;-0.0011955503;0.02169072;-0.18043783;0.09213929;-0.029783238;0.15003753;-0.10475025;-0.015144422;-0.069704324;-0.044023234;0.010558052;-0.16020416;-0.28479862;-0.02355248;0.02940175;-0.15744984;-0.28832147;-0.025406193;-0.121122964;0.06819694;-0.4087119;0.048471924;-0.024368683;0.03197952;-0.054324817;0.20267113;-0.0064845346;-0.030385692;-0.20349109;0.102599815;-0.066299565;-0.070965245;-0.048768602;0.0107354345;0.031169835;-0.057754207;0.04334764;-0.034143493;-0.011892149;-0.33914798;0.034783438;-0.41120943;0.14259866;0.04555877;0.05384783;-0.19016443;0.03150384;0.13057642;0.027567314;-0.026062723;-0.0024080132;-0.03653431;-0.2911806;-0.008218562;-0.034552876;-0.24383676;0.019079043;-0.017624035;-0.17284349;-0.0034605148;-0.29498458;0.004483835;-0.053184867;0.066706315;-0.12403842;-0.044790123;-0.038800795;-0.06737756;0.09384539;0.010077834;0.20381531;0.038209185;-0.13720793;0.021463914;0.009590942;-0.12553625;-0.20395325;-0.07810004;0.035647787;-0.1285649;-0.056476776;-0.032216694;0.019965945;0.117277734;0.00092691876;-0.17156005;0.036175556;-0.09656638;-0.20860736;-0.27836537;-0.26442027;-0.008553955;-0.036131788;0.010701231;0.034476195;-0.02251554;0.28760386;0.042393655;-0.031831887;-0.16893995;0.16086642;0.056429293;0.00086230866;0.03434855;-0.5452035;0.18834798;-0.11724886;0.048869975;0.029202545;-0.07581805;0.130379;0.1438037;0.06787633;-0.011034649;0.05378904;0.1936518;-0.0072300825;-0.053675245;0.053421684;0.048716787;0.042959373;-0.0128484545;-0.03164994;0.052903086;0.013224525;0.11454216;-0.24619922;-0.1432997;0.15218335;0.057826072;0.08404115;-0.167618;0.3879525;-0.018609673;-0.009904615;-0.06253695;0.10283049;-0.07189219;0.030478494;0.054052718;0.12141152;-0.019276507;-0.28563294;-0.1575512;0.123070896;-0.047124475;0.10124688;0.043687936;-0.03982527;-0.0139685925;-0.30707306;-0.16971314;-0.03746299;-0.07955374;0.09616504;0.007526267;-0.012801235;0.0069343196;0.0208026;0.13779086;0.22304104;0.0036006456;-0.07368285;-0.012038502;0.019166505;-0.0315037;-0.050157417;0.038160663;-0.07009883;0.15426761;0.036711916;-0.17974916;0.0012637476;0.02094062;-0.14141104;-0.02257184;-0.06337288;-0.00877168;-0.05199631;-0.050022043;0.07620632;-0.35499582;-0.008270889;0.21422705;-0.020653319;0.18599243;0.19573309;0.08835039;-0.03488638;0.025762687;-0.20923463
-0.03775129;-0.25003925;0.08515182;0.03359079;-0.048662942;-0.11265851;0.07087093;-0.042723026;-0.028641218;0.18032147;0.045085203;-0.009144172;-0.16805519;0.19263291;0.01664678;-0.05461632;0.07391586;-0.06929132;0.023947123;0.06794676;0.14339402;0.047712654;-0.15392774;-0.059120238;0.20321813;0.301124;0.27764988;-0.053860657;0.064497024;0.09302155;-0.0814132;0.033952877;0.17258239;0.14128509;-0.050870724;-0.031518847;0.026146019;-0.08882518;0.10463687;0.2690196;0.00060173613;-0.15710539;0.054446664;-0.09897907;0.060630273;-0.15435441;0.09695212;0.2548749;-0.17728952;0.026544662;-0.098049775;-0.02428686;0.061677035;-0.18484655;0.106227644;-0.16632019;-0.46227226;0.053307135;0.22032219;-0.10210797;-0.13846308;-0.05961118;-0.0530769;-0.028197715;-0.043195818;0.037967056;0.217021;0.26065478;0.24248669;0.017509434;-0.007448228;0.042870898;-0.10608864;-0.002485352;-0.0012497224;0.08186656;0.0593019;-0.04086536;-0.1451087;-0.03058237;-0.23228817;-0.08367974;0.033805646;-0.021127414;0.3065191;-0.14611197;0.09063214;0.056737054;-0.19914842;-0.09476867;0.12330604;0.00046292713;0.10986789;-0.06848831;0.17211573;0.050438773;-0.06110232;-0.31738427;0.0062336763;-0.07473412;-0.04855406;-0.07363478;-0.18090264;0.073801234;-0.07667029;-0.013251892;-0.03276908;-0.04365574;-0.041797232;0.18189514;-0.05361627;0.30569476;-0.13219991;-0.029217068;0.017697746;0.03443133;-0.064863995;0.0005947876;-0.020622889;-0.13610905;-0.075594224;0.24105027;0.015953284;0.0915359;0.122670695;0.06602523;-0.04243425;0.19150558;-0.18477064;0.050808292;0.058988854;0.24782641;-0.023929408;0.0332929;0.053602003;0.04044699;0.010475067;0.020941937;-0.06266602;0.0005163454;-0.12105937;0.0047662337;-0.015855499;-0.11463453;-0.07852097;-0.08697094;-0.010787369;0.2337807;0.023832325;-0.22718418;-0.04527525;-0.015322533;-0.054850023;-0.08286947;-0.06788701;-0.118245825;-0.22379091;-0.01237346;0.03010665;0.027221924;0.14506403;0.096362196;-0.066698305;0.04199066;-0.20328985;-0.013695162;0.047315326;0.02510873;-0.105530016;-0.23007439;0.30777866;0.053371336;-0.01998894;0.02628345;-0.02901528;-0.038272467;0.16202208;0.051137667;-0.237512;0.01409538;-0.020751456;0.18654098;0.3183497;0.36729667;-0.0064277067;0.06495446;-0.10547755;-0.07372992;-0.098896496;0.23522936;0.1789704;0.2170123;0.013481252;0.027566506;0.033327553;0.16371234;-0.073208675;0.2739998;-0.14996167;-0.095874794;0.09680388;0.03469866;-0.025363343;-0.04205621;-0.20997815;0.22621864;0.045453615;0.08459974;-0.1103903;-0.016651578;-0.0027866496;0.044346906;-0.20280604;-0.07647172;0.009292838;0.037703738;0.20199825;-0.0015409357;0.0736197;-0.046754893;0.0031973505;-0.07125372;-0.33278242;-0.34605756;-0.059688296;0.052184686;0.0178611;0.12317988;-0.008874997;-0.20577867;0.00786139;-0.26069343;-0.22043388;0.21983571;0.15423812;0.020409461;-0.058054745;-0.08394691;-0.020911837;0.17768331;0.019113574;-0.06275191;-0.07182567;0.012574724;-0.039618716;0.0505288;-0.06464606;-0.084377944;-0.23337011;0.018076548;-0.0563128;0.08766054;-0.37153268;0.15142421;-0.14279002;-0.04658759;0.09974345;0.0108546745;-0.06468904;-0.0010122515;-0.034415744;0.16661091;0.016775163;-0.03065177;-0.14549254;-0.042392813;0.2243854;0.05821747;-0.30842242;0.02519691;0.008785961;-0.22920221;0.0076797456;0.13659485;0.09232866;0.0058363336;-0.19998679;-0.02984115;0.3569961;-0.07357903;0.38046023;-0.2845773;-0.024012826;0.13558434;-0.062126733;-0.06053633;0.033132683;0.06147706;0.27546152;0.03490903;0.23115173;-0.0042080004;-0.009160271;0.297295;0.1412459;-0.0128026465;-0.3052775;-0.083147995;0.0012430012;0.03570745;-0.034737404;0.17852218;0.07559125;-0.053414576;-0.09585944;-0.08819905;-0.019135673;-0.04105726;0.20073964;-0.09785854;0.1311522;-0.045335643;-0.07912898;0.016689366;-0.06151494;-0.02653103;-0.25826448;-0.011728356;-0.02307488;0.09835091;0.03872945;0.029881835;0.031107217;0.023166547;-0.01901946;-0.049310636;0.009692325;0.039129008;0.1031342;-0.006871619;-0.095106006;0.03335044;0.14804463;0.06086999;-0.021236733;-0.111277856;0.14258969;-0.219448;-0.003700927;0.10266855;-0.06340072;0.009554086;0.05173047;0.15411188;0.27808946;-0.3079831;-0.027537985;0.20552842;-0.24605723;0.007609952;0.008033553;0.1623796;0.032215603;0.0037649267;-0.06709165;0.07080456;-0.035915334;0.11656252;-0.23153096;-0.17445877;0.090542324;0.21814692;0.08311506;0.05011864;0.016245574;0.049938947;-0.01942013;-0.20978586;-0.020708498;-0.03370359;0.11287942;-0.32599014;0.04600018;0.024797997;-0.10177514;0.08651774;0.040317565;0.08809933;-0.10874404;0.012782089;-0.12674686;-0.0504098;0.058461417;6.5165223e-06;0.21910292;-0.034093633;0.03532838;-0.22195314;-0.046636205;0.056280427;-0.005650302;-0.14075626;0.033101827;-0.16137232;0.005468528;0.03169868;-0.12325231;-0.38311926;-0.03836432;0.04663451;-0.2219639;-0.07305653;-0.0681525;-0.21853633;0.22923379;-0.47996026;0.05237805;-0.056138158;-0.03882239;0.050703004;0.14732122;-0.1128771;-0.025261557;-0.19790748;-0.03289041;-0.11309467;0.038895566;0.027958507;0.021582853;0.09488499;0.020123025;-0.010970691;-0.03226881;0.030331438;-0.29850933;-0.038130645;-0.51770514;0.05546864;-0.06652786;-0.017370677;-0.2261676;0.005612335;0.044831555;-0.040810347;-0.018962054;0.011065861;0.03402732;-0.11562655;0.046346508;0.053755216;0.0121361045;0.11364577;-0.07996989;0.019230528;-0.051068213;-0.28162816;0.03997694;0.067130476;0.111790285;-0.14155328;-0.0032887568;-0.13478579;0.045375;0.007669156;0.21473546;0.22708991;-0.039626215;-0.12668638;-0.039575946;0.0018885069;-0.3174842;-0.37291962;-0.013434702;-0.10480668;-0.28569788;-0.018168377;0.04260338;0.105309315;0.0901971;-0.023143237;-0.2611933;-0.08229319;-0.08770626;-0.18607229;-0.11997977;-0.45977154;0.09999701;0.07453076;0.11081994;0.025940197;-0.11797136;0.27847183;-0.049900252;0.030204875;-0.08240745;0.1702496;-0.0117880115;-0.029609019;0.009303406;-0.39310518;0.03842969;-0.21643321;-0.06283539;-0.010457193;0.026039645;0.039365206;0.01565687;0.10280026;-0.021954184;-0.05600619;0.029341174;0.044075217;-0.04632869;0.014377821;-0.04142413;0.079274386;-0.061612096;0.029397378;-0.017275922;-0.065831065;0.16531205;-0.21834356;-0.06923874;0.08991046;-0.045389917;0.3453902;-0.04910585;0.38596863;-0.03765962;0.062505454;-0.02838739;0.23601277;0.02355843;0.007614164;-0.014998047;0.17734583;-0.020715505;-0.3462299;0.047980953;0.022535171;0.06755685;0.26275456;-0.016298005;-0.22129849;-0.021318385;-0.11983683;-0.064046614;-0.0067648017;0.08619924;0.084325105;0.008467797;0.040950626;-0.0039568716;0.041029673;0.14950392;0.19110088;-0.053012498;0.0027061386;-0.02630284;0.098658286;-0.06732467;0.05521895;0.014587867;-0.02208487;0.2182451;0.17615578;-0.14063434;0.03239817;0.010135051;-0.26333353;-0.12435857;-0.09251661;-0.06804615;-0.0025129446;-0.1933439;-0.03231065;-0.3715956;-0.069042236;0.14380695;-0.0025358542;0.13175404;0.12766245;-0.047458824;0.03573045;0.033522326;-0.34493375
-0.0070053022;-0.19456343;0.03580456;-0.000718507;0.066467494;-0.18268797;-0.034232855;-0.00550079;-0.081294976;0.16746534;-0.02488978;-0.11874641;0.015821278;0.11523488;-0.12844577;0.048474174;0.12406248;-0.19771145;-0.023788955;0.0036178324;0.21419974;-0.046062004;-0.026010498;0.015499276;0.30031297;0.21149746;0.15610388;-0.120729275;0.039408635;0.12964548;-0.051176205;0.08841814;0.2857478;0.20756379;0.022920828;0.02590671;0.16501224;-0.17533621;-0.035506338;0.21355131;0.01797286;-0.24646671;0.1612421;-0.072531514;-0.05739148;-0.04366933;0.04547712;0.28531206;-0.010686211;0.005879049;-0.0901733;0.029515859;0.12453629;-0.15291587;0.13094154;0.048017688;-0.19570234;0.04431836;0.36088106;-0.09976002;0.033653412;-0.20154676;-0.0081402315;0.0105477;-0.026206255;0.02712206;0.25565946;0.09462222;0.23619708;-0.03419502;-0.033724327;-0.01986889;-0.052278373;-0.012733896;0.0054568993;0.011698541;-0.06294999;0.0403744;-0.23457608;0.14588676;-0.19991101;0.16018128;0.096415505;0.037134662;0.30383667;-0.05314292;0.0010950965;0.037437055;-0.19292536;-0.21063374;0.00089850737;0.030969098;0.096608624;0.00789539;0.11691292;0.07053777;-0.022497183;-0.27685806;-0.026164385;-0.124019235;-0.020733962;-0.19960588;-0.0934232;-0.023661815;0.009089254;0.06384401;-0.00960682;-0.022392783;-0.025268467;0.15537295;-0.12867633;0.22705714;-0.17095485;-0.026674265;-0.019494642;0.25295573;0.011447715;0.028795492;0.06492229;-0.13333943;-0.025226597;0.073796324;0.050329305;0.1140754;-0.032741718;-0.039596234;0.03893566;0.15601599;-0.2516651;-0.005931582;0.020618986;0.13060705;0.055079136;0.018374218;0.091060996;-0.0413714;-0.036105067;-0.038536422;0.0032444538;0.004542856;0.06983718;-0.09012196;0.02360281;-0.16466393;-0.16962402;-0.18550189;0.056564175;0.30384046;-0.04363121;-0.1798564;-0.013211979;-0.04030834;-0.022336707;0.077094525;0.03671316;-0.1345063;-0.17846745;-0.0300778;0.037599176;-0.0030550614;0.10319691;0.16135235;0.060824428;0.03302253;-0.23689716;0.12108973;0.05430914;-0.20360464;0.047102872;-0.23973651;0.32693803;0.015572022;-0.075106606;0.09360198;0.03740671;0.031953584;0.25200212;-0.042239778;0.0304034;0.05551572;0.05305147;0.09563647;0.19233236;0.36486748;-0.01844507;-0.009273388;0.0022010056;0.069542356;-0.040633693;0.30561942;0.10836562;0.1453934;0.05169813;0.05298623;0.1862376;-0.017561153;0.11504148;0.24942312;-0.3222035;-0.1406313;0.0303812;-0.08680248;0.09211887;-0.0032137586;-0.08221747;0.16465698;-0.053354654;0.22851521;-0.035340037;-0.022700015;0.021993836;0.08043543;-0.3171086;0.06755426;-0.024233993;-0.007274982;0.13510482;0.01583487;0.08687543;-0.009560879;0.0031392928;-0.075618125;-0.2712052;-0.26693648;0.042636484;0.14012463;0.0061855004;0.19484301;0.065267615;-0.1942074;-0.038822956;-0.19573534;-0.11693623;0.07964197;0.035970237;0.15373254;0.13966176;-0.08680308;0.010894419;0.2596267;-0.015668128;0.042127207;0.04852574;0.13141248;-0.020900412;0.04003853;-0.3206357;0.07091987;-0.16805744;-0.0045701773;0.05758692;-0.013162634;-0.2551208;0.16589823;-0.023049757;0.053386454;0.020849284;-0.07043835;-0.03042759;-0.01453445;0.16337518;0.21929193;-0.07037351;0.05913859;-0.075562276;0.05549679;0.11832865;-0.03946814;-0.16592994;-0.08901289;0.14738402;-0.24834305;0.026151424;-0.11358486;-0.0435594;-0.009225552;-0.26994887;-0.0343927;0.31836802;0.06383712;0.3540954;-0.2619397;-0.007311812;0.059168722;0.041773386;-0.008494627;-0.056335423;0.09795622;0.24411522;0.04695893;0.27894008;-0.07300182;-0.039785113;0.2407727;-0.038833465;-0.020930145;-0.417317;-0.009862509;0.020239796;-0.0021112354;-0.022990325;0.045857754;-0.047602493;0.0049222657;0.024163261;0.10368544;0.07965679;-0.024290964;0.07725251;0.051254604;0.002446992;-0.027301263;0.13715808;0.07929955;0.029272588;-0.030117365;-0.27629593;-0.004249655;-0.0064312126;0.15231349;-0.032022957;-0.017616842;-0.031650625;-0.043600332;-0.057384655;-0.024727482;0.04899599;0.036603432;0.04302285;-0.024365626;-0.08535815;0.030770598;0.061934758;0.005883131;-0.07580362;-0.10186247;0.062176924;-0.2321845;-0.03058865;0.12198913;0.044913605;0.051614515;0.08742663;0.28829592;0.15778705;-0.30794328;0.0020072341;0.13337214;-0.26041746;0.005402005;-0.029543722;0.21657501;0.00011812491;0.24029914;-0.09014568;0.2160314;0.033323403;-0.009448865;-0.05117387;-0.15978324;0.055411384;0.31502727;-0.052219708;0.17714465;0.0050810664;0.046975117;-0.05356839;-0.3624922;0.12210286;-0.018836765;0.14747277;-0.22586526;-0.028170245;-0.0013635904;-0.2006109;0.10474862;-0.049881626;0.051246498;0.061533272;-0.030021038;-0.16682667;-0.116902485;-0.024569916;0.07511458;0.093964465;0.0006023678;-0.030240772;-0.20372589;-0.057231337;-0.038188584;-0.01019111;-0.060057465;-0.041178335;-0.19027716;0.018676937;0.09190076;-0.20485282;-0.37589833;-0.0023293803;-0.027619174;-0.10686651;-0.25487122;-0.042732783;-0.15778649;0.19885762;-0.48429292;-0.012240389;-0.053715818;0.051821727;0.109455496;0.20383488;0.0092265615;0.0017505768;-0.13360564;0.20286739;0.0660514;-0.054487057;0.046268;-0.057493944;0.17077819;0.017202994;-0.039462626;0.017174799;0.07649166;-0.22150159;-0.033335995;-0.34469318;0.11059356;-0.0038036464;0.029858755;-0.034344755;-0.0076630227;0.034984473;-0.021846117;-0.00064945547;-0.062113848;-0.10700521;-0.11451492;-0.019303378;0.04290161;0.03151653;0.017109528;-0.20422076;0.0011713319;0.049959216;-0.18996878;0.04185207;0.011315104;0.14038123;-0.1306596;0.025108658;-0.106054924;-0.0970158;-0.25273052;0.047097612;0.24898012;-0.05062456;-0.011698816;-0.012329881;-0.07063664;-0.22974002;-0.3117444;0.06016975;0.04298219;-0.14096782;-0.011362649;-0.019197427;0.05408883;0.0009998381;0.010175443;-0.09055175;0.05280544;-0.19497685;0.061149;-0.12722711;-0.32249504;0.052927244;0.0088497475;0.10729987;-0.059491277;-0.2672268;0.22334284;0.00958235;-0.001373973;-0.18389544;0.24861135;-0.03530688;-0.03282849;0.1299898;-0.37062252;-0.23146681;-0.25690103;0.09308236;-0.021873405;-0.0003575977;-0.0324585;-0.10736386;0.17038353;0.017071307;0.01865403;0.07854613;-0.0065641194;-0.052350696;-0.022865588;-0.0059246556;0.01402494;0.046005994;-0.040526435;-0.029931176;0.052508116;0.06589929;-0.38117808;-0.08372001;0.09621262;-0.025517318;0.3809971;0.012507487;0.32442352;-0.027002813;0.1233985;-0.034568995;0.1605042;0.013022304;-0.047150888;0.053837493;0.011247218;0.041098;-0.31451997;0.1581523;-0.029633133;0.063828416;0.15710184;-0.030534968;-0.3215019;-0.009362151;-0.1826774;0.037758812;-0.092043705;-0.03785799;0.16536774;0.022066189;-0.04114673;-0.038977873;-0.028517753;0.26102635;0.13329431;-0.07773732;0.024621388;0.003127357;0.12743767;0.05435697;0.0079597505;-0.0038919;-0.014740432;0.18644768;0.13400733;-0.08853428;-0.027677134;0.0008281925;-0.30640888;-0.02152519;-0.08199132;0.01572589;0.026554598;-0.113205865;-0.0992579;-0.12433022;-0.07847101;0.16540484;0.045320027;0.10146643;0.16715719;0.1329915;-0.0021910982;-0.071644925;-0.23995969
0.03220376;-0.035557058;0.07378272;0.047230106;-0.06162107;-0.109157;0.01300238;-0.01672239;0.03285478;0.09835278;0.05968658;-0.10417766;-0.090355635;0.028930632;-0.11922444;-0.045222323;0.13538812;-0.18136978;0.009911673;-0.030331602;0.19272931;0.011284815;-0.027030183;0.0047640577;0.13617466;0.04888944;0.10770512;-0.18454812;0.029284954;0.12528424;-0.073942624;0.042483605;0.19067177;0.23589431;-0.01250216;-0.06672305;0.13696577;-0.096667044;-0.019154906;0.1874662;-0.03256878;-0.036532983;0.07328003;0.022876946;0.08027471;0.09642001;0.023024265;0.2391;-0.068817586;-0.024231635;-0.017521923;0.052594546;-0.001400289;-0.1434181;0.15537287;-0.07734992;-0.07840521;0.018168256;0.2904645;-0.23006901;-0.110378936;-0.13675009;0.09658062;0.083153315;0.10098667;-0.04922712;0.19003868;0.13716024;0.2532834;-0.02794634;0.022718161;-0.004803446;-0.0026718325;0.1165247;0.010334764;-0.01767739;-0.01650186;-0.058298245;-0.23728281;0.06952364;0.024192434;0.12968631;0.14758833;-0.0705611;0.18028557;-0.15976137;0.055347003;0.040342655;-0.16821723;-0.08454838;0.045000833;-0.0994806;0.08500635;0.07832333;0.15532738;-0.029761355;0.05104836;-0.17356288;0.048438936;-0.24748047;0.024151975;-0.09395727;-0.07067034;-0.0060773743;0.04421132;-0.017404683;0.030299168;0.08317003;0.0020676206;0.12589471;-0.10585574;0.20893401;-0.059996422;-0.0044450234;-0.042810325;0.24607988;-0.042736225;0.019163413;-0.021834899;-0.105514124;-0.097814605;0.11454866;-0.034218486;0.06652793;-0.03785826;0.061114516;0.019448254;0.09914024;-0.22386561;0.016620189;0.047787014;0.05918582;-0.05164151;-0.032965787;-0.017526122;-0.0062063215;-0.11432985;-0.041173927;0.042412374;0.042413957;-0.03889387;-0.06100456;-0.06351958;-0.16436593;-0.09652144;-0.013108313;0.08084959;0.25966033;0.0061286623;-0.0259599;-0.12067089;-0.02828524;-0.0039897193;-0.043969974;-0.019021953;0.0012555956;-0.1747534;0.017957725;0.023949636;-0.029915774;0.1737356;0.085257515;-0.029374612;-0.05647674;-0.13791245;0.093473494;-0.006166497;-0.19670302;0.02750591;-0.14421321;0.19263965;0.044193517;-0.13962173;0.15122685;0.062117793;-0.035719085;0.21695912;0.04672475;-0.056018695;-0.08429421;0.011932934;0.047854394;0.14920358;0.40314066;0.023622064;-0.019341215;-0.062941805;0.11062355;-0.10032297;0.24568261;0.14248703;0.10034394;0.015102373;-0.063317776;0.25001678;-0.05644846;0.13541692;0.051566888;-0.21846876;-0.099002145;-0.010376337;-0.08488237;-0.059733596;0.016623637;-0.16000897;0.32995236;0.010224121;0.17360988;-0.047088463;-0.009697755;-0.05904934;-0.040110126;-0.18713978;-0.02091811;0.04600751;0.037414093;-0.059148394;-0.061449647;0.057181783;0.13606265;-0.11704981;-0.23506951;-0.10672421;-0.28645584;-0.0016528503;0.19541556;0.052753314;0.12550522;-0.056825105;-0.2642784;-0.014124302;-0.18086849;-0.21048895;0.048308335;-0.017418949;0.15798603;0.056640618;-0.10608982;0.016796125;0.22488983;-0.07608164;0.02550082;-0.009057405;-0.015075973;-0.012619156;0.005497187;-0.30369425;0.041038062;-0.24749272;0.022937965;0.02602393;-0.043932006;-0.21497856;0.14875558;-0.14830069;0.061508797;0.0019449732;0.047368042;-0.032619044;-0.044241644;0.01188221;0.3021124;0.04811834;-0.0034302082;0.13104141;-0.02866071;0.03506679;0.02326295;-0.1712972;-0.16953349;0.2917896;-0.026979987;-0.039835207;-0.033461887;0.009813524;0.007213346;-0.22245815;0.067837805;0.24204126;0.11721894;0.20094056;-0.34334835;-0.008190369;0.07276065;0.06664922;0.1445581;-0.13326333;-0.078568146;0.04538177;0.09701049;0.21910763;0.10302834;0.019430475;0.12975004;0.10287712;-0.014735726;-0.3946501;-0.026424214;-0.047262482;-0.0625729;-0.033111986;0.1465483;-0.043808494;0.05741031;0.039161894;-0.062394332;-0.03714956;-0.03475781;-0.012002677;0.012855849;-0.048641305;-0.083136156;0.14531027;0.15135455;0.02162015;-0.17624773;-0.21195444;-0.007957728;0.08808301;0.2699923;-0.04017106;-0.06511929;0.02869758;0.04825092;0.014940191;0.07859079;-0.05658842;0.042898703;0.017466238;0.07235277;-0.033675242;0.028757285;-0.014411092;-0.055239152;-0.08151112;0.02859874;0.06774684;-0.32320145;0.03812197;0.21689849;0.080750845;-0.10066345;0.1235173;0.3425523;0.21743289;-0.2565476;0.044560492;0.20715575;-0.06206493;0.00053054513;0.04523275;0.1790289;0.017024605;0.23540078;-0.1490331;0.34747553;0.00351333;0.18151295;-0.10031611;-0.092836484;0.09404282;0.21553142;-0.017563956;0.06703494;0.012420779;-0.018432956;0.0009060925;-0.4358791;0.064854175;0.13201067;0.05217866;-0.2799679;0.07766014;0.047338113;-0.22893511;-0.04236475;-0.021650955;0.1843291;0.06820435;-0.0077335164;-0.1640347;-0.106551886;-0.034288194;0.0786934;-0.023981677;0.011028806;-0.07753624;-0.181962;0.018273577;-0.0034232272;-0.020102588;0.01575991;0.026388995;-0.24819991;0.026644658;-0.018832121;0.031885512;-0.37544507;0.021423476;-0.035962325;-0.0011145589;-0.030938765;0.10602343;-0.08208369;0.20677467;-0.30141985;-0.03923998;-0.05495344;-0.021345971;-0.06601923;0.29467788;0.01507224;0.03727653;-0.18635441;0.1611799;0.0097899195;0.037776116;0.09225731;0.018427381;0.28923932;0.043438736;-0.065671444;-0.048759084;0.19220327;-0.22888799;0.010469273;-0.24974728;-0.00047796252;-0.10668077;-0.06673131;-0.028455038;-0.066569395;-0.04403609;-0.02502927;0.004135155;0.05040785;-0.123654366;-0.16367503;-0.03593109;-0.024955215;-0.0008978603;-0.05393168;-0.12862636;0.08164874;-0.025417678;-0.35979328;0.2319625;-0.057500347;0.03296218;-0.28925472;-0.027603867;-0.0350766;-0.2868307;-0.096642375;0.036669813;0.22309683;-0.21781443;0.09206779;0.026570607;0.05984151;-0.27987105;-0.19541104;0.01710266;-0.12727684;-0.31558236;-0.045856494;0.011309115;0.16178274;-0.039013535;0.04256771;-0.15810351;0.019568816;-0.106307335;0.16012022;-0.028927712;-0.4352775;-0.036327705;-0.053523116;-0.042935565;0.036921445;-0.13267432;0.22577071;-0.032595728;0.009193596;-0.14317009;0.23110782;0.0043922164;0.022129228;0.17132829;-0.22487186;-0.23803031;-0.20188978;0.12885983;0.0038495383;-0.029036177;-0.14672907;-0.1912531;0.07025444;0.033157963;0.009741809;-0.08280047;-0.002349147;-0.09468987;0.015129443;0.002261804;-0.04189863;-0.05928188;-0.010217596;0.041479092;0.03910745;0.06281258;-0.26753592;0.070183694;0.08057299;-0.0030094835;0.29323193;-0.108002916;0.19550227;0.020953257;0.061898068;-0.11211147;0.21247736;-0.03469975;0.0027743776;-0.06364942;0.06373582;-0.006250484;-0.26367077;-0.02819329;-0.060199533;0.056441672;0.10408293;0.051990785;-0.48712355;0.04494105;-0.21833669;-0.029017951;-0.119069785;0.024477653;0.1552433;-0.01251251;0.04496729;0.058823995;-0.040144913;0.21467802;-0.04286682;-0.019878622;-0.005748482;-0.007290567;0.018019693;-0.042546794;0.25146842;0.020400422;0.083184525;0.30459267;0.21061182;-0.14016667;-0.06820726;-0.03230437;-0.35082394;0.051027935;-0.14680144;-0.10285339;-0.011163297;-0.13035832;-0.1741467;-0.17584664;0.030575385;0.13353008;0.010102447;-0.061945077;0.20754774;0.16076599;0.03480072;-0.0071325847;-0.27302778
-0.0033800646;-0.1003214;0.054660622;-0.05558809;0.048822913;-0.27837047;-0.034720264;0.01753286;-0.09480855;0.01820481;-0.05299739;-0.09109134;-0.11424519;0.23421866;0.10968664;0.042800162;0.12179109;-0.15972015;0.018329017;0.009843232;0.027770549;-0.019620253;-0.06948405;0.010438147;0.07259818;0.07355337;0.2986222;-0.044297565;0.004236999;0.12697063;-0.14970563;0.0099937;0.16440174;0.22338647;0.008232952;-0.01646399;-0.058987524;-0.16956705;-0.027023349;0.0425328;0.032801554;0.04822463;0.22295173;-0.032313544;-0.028104499;-0.0051419586;-0.06709884;0.23074685;-0.17895998;0.029680517;-0.06548123;-0.029283494;-0.11936021;-0.06924258;0.26296353;-0.06752854;-0.16509588;0.0027015537;0.1331513;-0.12985253;-0.096532255;-0.07800695;-0.16045593;0.05765557;-0.025743017;0.03351597;0.21258464;-0.082831636;0.2421942;0.016586574;0.042494684;0.1612682;0.07993311;0.17973118;0.006869358;-0.02492656;0.0049153636;-0.15082748;-0.21291932;-0.022561101;-0.1812535;0.24929991;0.06198045;0.07318855;0.14584652;-0.14703268;0.20736815;-0.063930735;-0.28229266;-0.13575783;-0.020638041;-0.22156897;0.14674419;0.1357905;0.07048807;0.045397155;0.026937718;-0.27689695;-0.07254951;-0.25747856;0.032706283;-0.2535414;-0.2071166;-0.026026491;0.0988436;-0.050836656;0.018708918;-0.026915625;0.061795264;0.12088188;-0.11692762;0.15981118;-0.013996628;-0.014533782;0.0058240984;0.26639664;0.045669522;-0.071340285;0.043058023;0.10837777;-0.30427602;0.22551613;-0.003899385;0.087616354;-0.006164213;0.004691776;-0.014775444;0.029453367;-0.30970514;-0.059065647;0.04342569;0.12363615;0.069356866;-0.010516444;0.1512957;0.033626564;-0.023529083;0.052775566;-0.025252566;-0.03918098;-0.0849792;-0.13446355;-0.034330446;-0.108211875;-0.3127476;-0.0037310692;0.015802605;-0.012336137;0.029664788;-0.16524568;-0.088117026;-0.037350763;-0.06116849;-0.020000536;0.04112791;0.038357973;-0.06066473;0.009548389;-0.05363997;-0.010090537;0.24427296;0.05070615;0.0017807808;0.029067433;-0.10962817;0.04165927;-0.047447473;-0.13843526;0.052432675;-0.3147314;0.16214189;0.10707747;0.006670104;0.11162764;-0.045024194;0.0038214151;0.14829725;-0.046324138;-0.183933;0.16826841;-0.01576725;0.11250065;0.27813366;0.19234157;-0.051622063;-0.027253842;0.042525887;-0.020353185;0.043113556;0.11767528;-0.097477004;0.17824018;-0.058602627;0.05820946;0.06648176;-0.24671225;0.28455612;0.05592332;-0.20260026;-0.031075288;0.014889855;-0.076465696;-0.051137496;0.044065386;-0.071274444;0.22142714;0.023770487;0.070512615;-0.06671291;0.015475203;0.04354572;0.0055877366;-0.19135551;-0.042793408;-0.024763295;-0.041896537;-0.014960666;0.019620683;-0.04252488;0.25310418;0.078274;-0.20618096;-0.33943886;-0.47290653;0.010434973;0.17591;-0.04528284;0.015187851;0.058856543;-0.37234262;-0.029086117;-0.03376148;-0.11506648;0.10790969;-0.05068612;0.06478776;-0.06257912;-0.120167226;0.0014350964;0.28999135;0.068856955;-0.044578522;-0.03348753;0.019243423;0.050517973;-0.023419056;-0.23294516;-0.04151582;-0.020336395;0.04057426;-0.05612012;-0.1636577;-0.11051538;0.24200816;-0.2106979;0.05956624;-0.039284855;0.0576268;-0.032885563;-0.21499906;-0.0807026;0.08763879;-0.03592706;-0.03114016;0.114333436;-0.03616191;0.03847257;0.050868183;-0.15118457;-0.07275717;0.089377016;0.08040503;-0.002332439;0.10722763;-0.047564562;-0.0964345;-0.23752765;0.0020166002;0.2543839;0.116816655;0.15415129;-0.42907533;0.0323621;0.1053644;-0.039754964;0.10474909;-0.18801242;0.05597616;0.11146492;0.10358816;0.09066493;0.18476577;0.048077382;0.14335977;-0.1299395;0.05826987;-0.36803415;0.07790839;0.041838616;0.04701467;-0.17840949;0.04015088;0.015718976;-0.06981276;0.005313569;-0.1281685;0.10225249;-0.1394281;-0.06934527;0.059359986;-0.07675245;0.123601496;0.12829632;0.10490345;0.05092281;-0.15105271;-0.16127905;0.042468328;0.14447932;0.1383429;0.043782618;-0.010991969;0.23201679;0.02303416;0.03933202;0.020538986;-0.02637394;-0.041326873;0.040267415;0.013516056;-0.06159158;-0.066856176;0.058766462;0.0038008592;-0.09469102;-0.070160255;0.0072796387;-0.32317325;0.038866345;-0.045549672;-0.044352647;0.01848509;0.14502084;0.19409303;0.23095798;-0.26242918;0.08185491;0.06110078;-0.052043393;0.039309207;0.020106984;0.26270872;-0.060584135;0.056329206;-0.17849444;0.06306806;0.018454297;0.17861006;-0.076452024;-0.23218308;0.009063172;0.10912761;0.001877099;0.089231;0.01857245;-0.057875928;0.019189091;-0.37170848;-0.034367338;0.10723554;-0.052920032;-0.38387817;0.03358711;-0.06193021;-0.16056268;0.12790705;0.04090832;-0.022443788;-0.009004394;-0.013122006;-0.071744286;0.17943177;-0.059415825;0.01512831;-0.053537067;-0.023334963;0.032548297;-0.21397512;0.0923312;-0.0041270624;0.14091575;0.04604676;-0.0042535528;-0.3603588;0.0052597304;-0.30805328;-0.11550323;-0.29850572;0.0432077;0.00088456634;0.11193043;-0.08324965;0.04996999;-0.09268682;0.19107689;-0.2746814;-0.06606982;0.01715515;0.050366435;-0.1410855;0.04454803;-0.05226594;-0.0407901;-0.19636598;0.12504882;0.083381064;0.050911237;-0.047915578;0.02687549;0.22761847;-0.0012403269;0.0515892;0.05867572;0.25215235;-0.40053448;0.055103514;-0.3640272;-0.03287041;-0.10600461;0.054078262;0.07578864;-0.111417286;0.04652279;0.058349792;0.038967475;-0.046807934;-0.23260191;-0.23246324;-0.04145455;0.09031448;-0.0068364646;0.027995389;-0.17615649;0.060400784;-0.03192874;-0.42146462;0.17701384;-0.004539585;-0.019504722;-0.2023915;-0.0025409935;0.09788352;-0.30306333;-0.11837762;0.001004338;0.26261246;-0.23686683;-0.09898127;0.028553216;0.02199311;-0.116461754;-0.081173986;0.015312804;-0.1710159;-0.19780594;0.015888568;0.0691181;0.13631171;-0.028609348;0.0112946285;-0.10689667;-0.011950571;0.085876346;0.055493843;-0.15893449;-0.3779586;-0.106214605;-0.006915978;0.03374504;0.012432132;-0.3373372;0.099789724;0.0086031705;-0.04995136;-0.24867906;0.32917488;0.02026464;-6.6734254e-05;0.11652668;-0.19794491;-0.2963129;-0.24268655;0.11436201;0.0048161326;0.074233785;-0.077450916;-0.1527422;0.07251417;0.025064832;0.055130918;-0.070499875;-0.056266733;0.056302667;-0.01825336;0.0025017627;0.041547503;-0.0016571896;0.050183926;-0.06056668;-0.052580986;0.09473399;-0.25681293;-0.12342172;0.18506268;-0.006130448;0.23376365;0.007978852;0.080776975;0.044846214;0.0040613217;0.05728545;0.18883175;0.014744953;0.0800568;0.0030419473;0.088907555;0.016591161;-0.35329574;0.03656173;-0.02753376;0.038560208;-0.033498365;-0.019799346;-0.37710583;-0.005421056;-0.26475957;0.020817416;-0.18330061;0.0671565;0.20136867;0.050258372;-0.003780278;-0.03405559;-0.013700837;0.055538017;-0.021049088;-0.034065988;-0.02905721;0.0048208814;-0.08609732;-0.18637347;0.22090086;0.11205542;0.05682452;0.2631869;0.07416907;-0.17358696;0.049559705;0.04077578;-0.41150945;-0.059292454;-0.092741586;0.077037156;0.04681493;-0.2864999;0.027345944;-0.37067363;0.014031791;-0.08604225;-0.20733882;-0.1429588;0.21613091;0.24008445;-0.019879304;0.04729939;-0.3697826
0.0014017312;-0.0275376;0.054590028;0.017004194;0.01346899;-0.2001016;-0.0074521154;0.04524475;-0.17300002;-0.082759544;0.010650032;-0.059573308;-0.051018134;0.26912957;0.014071;0.047085084;-0.03371473;-0.03202259;-0.031195128;0.020087529;-0.086479776;0.03152127;-0.042025246;0.10532485;0.1356271;0.062359817;0.16952035;-0.08155548;-0.035763662;0.12667157;-0.18693778;-0.17454033;0.019173108;0.35190624;0.02912564;0.029065099;-0.042191353;-0.13618769;-0.008525302;0.048346695;0.037832305;-0.0064352253;0.22419551;-0.1591237;-0.036020022;-0.0035605473;-0.024728186;0.2192732;-0.28533274;0.011228019;0.055639576;-0.0011036961;-0.23947707;-0.05233373;0.29731837;0.087552294;0.020199377;-0.10887297;0.24972032;-0.07997265;0.14978936;0.07595957;-0.043110408;-0.08120667;-0.033511672;-0.023416426;0.2828452;-0.16488375;0.13698073;-0.0511728;-0.022338266;0.15663952;-0.08331143;0.34384537;0.014285316;0.037829798;0.03498206;-0.15237415;-0.3217332;-0.069619365;-0.10138558;0.025022304;0.044629414;-0.023803648;0.13665657;-0.11388664;0.15206115;0.014749839;-0.11422543;0.09700118;0.12372335;-0.16187759;0.0419797;0.032785527;0.05363836;0.0034169839;-0.00341767;-0.19234546;0.0071919644;-0.15546265;-0.06167739;-0.22820112;-0.2722611;0.033507008;0.13073702;0.075252414;0.0056696297;-0.03487925;0.022495091;0.07610015;-0.062175147;0.24332036;0.021811642;-0.042265847;0.04158458;0.17724846;0.056870665;-0.30220336;0.0344574;0.1370822;-0.18228513;0.05190639;-0.008376994;0.19244044;-0.0859927;-0.047894802;0.035640914;0.1620955;-0.24009027;0.070856944;0.034638632;0.12161144;0.0287191;-0.023946125;0.050368875;-0.0125016635;-0.06425104;-0.041269798;0.023154292;-0.052381568;-0.00086073735;-0.14595261;0.021408323;0.0054794047;-0.26731083;-3.108774e-05;0.15416993;0.036424674;0.029850483;-0.0702183;-0.06373303;0.009103628;-0.017842708;-0.032077864;-0.059360743;-0.045329876;-0.092329845;-0.005016296;-0.0061255074;-0.019366631;0.109599024;0.05712148;0.015513187;-0.021330776;0.15232864;0.012915276;-0.05185033;-0.19426008;0.15787457;-0.3457369;0.15458587;-0.035939842;-0.14647698;0.13451801;-0.017216032;0.050086323;0.0868632;0.033503074;-0.26344;0.15946701;-0.016872007;0.054943867;0.10600811;0.2209947;0.020873843;0.03998101;0.016685624;-0.054965064;0.029905578;0.06381236;-0.052450392;0.24419308;0.024714176;-0.09827399;-0.017561046;-0.17354645;0.32713005;0.078455634;-0.17245409;-0.0045759045;-0.13436766;0.0006024173;-0.15092917;0.08642273;-0.0064794896;0.30061424;-0.014890853;-0.113298014;-0.22161524;-0.019595457;-0.07262614;-0.09382412;-0.20624974;0.066299036;-0.028412696;0.0144242635;-0.011313879;0.030498443;-0.05909071;0.2885575;0.04940504;-0.2420777;-0.30715764;-0.327846;0.032822166;0.23779896;-0.04705263;0.09448842;-0.06455991;-0.43667713;-0.019472018;-0.116086386;0.018965388;-0.011519075;-0.087373674;0.046582896;0.036972873;-0.21093571;0.027501144;0.18315902;0.2058693;-0.12482798;-0.005851095;-0.09501878;0.030972134;0.09067995;-0.06627712;-0.15477067;-0.055135254;-0.04310045;0.036140442;-0.13441;-0.02532407;0.08216047;-0.13990602;0.18225102;-0.021856852;0.06787418;-0.07070187;-0.21300428;0.058867183;0.16849844;-0.12899752;0.01401979;0.20218141;0.009788785;0.09774264;-0.0027059012;-0.16597699;-0.0019048546;0.0689541;-0.020278461;0.048201386;0.085670225;0.01303565;-0.026776884;-0.11975617;-0.024550455;0.19611375;0.016113708;-0.008177015;-0.21631528;-0.0146682765;-0.037710596;0.035642475;0.15240017;-0.060311325;-0.104264565;0.024086863;0.2126199;0.22032101;0.07332936;-0.03537865;0.0999851;-0.13865028;0.04576301;-0.23290063;0.014330478;-0.044305664;0.035997666;-0.043953594;0.10838059;-0.02780238;-0.0110848155;-0.021287883;-0.057892963;0.09688501;0.06717062;0.028320106;0.03279242;0.11039623;0.02525945;-0.05574297;0.2798179;0.12091201;-0.14319213;-0.059111305;0.010696818;0.12875722;0.11480966;-0.038877483;0.053468864;0.21818049;-0.023225948;-0.037105516;-0.03868052;-0.009730009;-0.075108334;-0.02114776;-0.049302764;0.0008740757;-0.04024609;0.21015702;-0.018957548;-0.16264446;-0.112313405;-0.10205616;-0.26752532;-0.0332691;-0.0142943235;0.0019622005;0.051465444;0.17349045;0.033814386;0.1424233;-0.16730581;0.11769768;0.13294461;0.07460961;-0.0979784;-0.02733342;0.14907067;-0.031728216;0.1845201;-0.06861453;0.11863874;-0.042315178;0.064279154;-0.017558867;-0.04909661;-0.030212773;0.06895459;-0.0073566926;0.12431386;-0.043549012;-0.011080811;0.012845242;-0.29497302;-0.029996539;0.19540624;0.010137228;-0.41264263;-0.020915532;-0.007891824;-0.19990432;0.04744491;0.040748835;0.05822348;-0.08637933;0.022613728;-0.20652042;0.16572873;0.023276076;0.09658711;-0.16046794;0.009829794;-0.064765565;-0.06771629;0.17096783;0.04675328;0.16307195;-0.10119519;-0.035439055;-0.3630719;0.032902613;-0.28879842;0.06465508;-0.25196126;-0.026497215;0.011664005;0.04141716;-0.11889826;0.1128537;-0.19366848;0.14838636;-0.27626422;0.07364693;0.016220115;-0.040666267;-0.15801059;0.07503276;0.048480492;-0.047866188;-0.18891428;0.25941327;0.08999371;0.11671365;-0.14024782;0.017112937;0.28408143;-0.04375583;-0.018563686;0.028783806;0.14238657;-0.33603683;-0.055741906;-0.32052585;-0.09927823;-0.19252709;-0.08022356;0.048735328;-0.15783498;0.05134153;-0.027053077;0.00457537;-0.039347608;-0.24765517;-0.32230982;0.068367995;-0.022828232;0.09605247;0.0046095042;-0.117559254;0.16533656;0.040373277;-0.32417822;0.063110895;0.03988431;-0.04261521;-0.11584558;0.0031838568;0.15763633;-0.15386003;-0.04179624;0.06667381;0.12275334;-0.12690623;-0.0064814286;0.032233026;-0.07478774;-0.20757559;-0.127337;-0.032128606;-0.03106983;-0.30207253;-0.0029979164;0.0013880646;0.16469073;0.033518754;-0.026149474;0.015817845;0.013979692;-0.04206155;0.08931535;-0.2929776;-0.47332323;-0.05230333;0.011534552;0.1432133;-0.03286908;-0.20730029;0.102381945;0.027756246;0.026055625;-0.15513518;0.33268133;0.01666479;-0.026168942;0.13403666;-0.14579114;-0.1981637;-0.20726468;0.10840138;-0.049024176;-0.021052342;-0.17561764;-0.14900832;0.035972264;-0.04254238;-0.061875314;-0.121478654;0.03781293;0.043074083;-0.013716314;-0.01825057;0.016271945;-0.09547095;3.9299186e-05;0.04625679;-0.010926656;0.00063217076;-0.26193824;-0.025216801;0.20525403;-0.0046583363;0.25802326;-0.090860695;0.037860405;0.01560762;-0.008091514;0.024588078;0.0025358703;-0.06925313;-0.08448526;-0.032978818;0.091151744;-0.059089467;-0.38579258;-0.048096705;-0.062938586;0.025586136;-0.15506965;-0.014471863;-0.37402245;-0.008665154;-0.19960618;-0.05338602;-0.19297947;-0.011276205;0.28276327;-0.041346774;-0.049046203;-0.011039866;0.0045293574;0.022855565;-0.020036;-0.047743414;0.050567698;0.017151184;-0.094901025;-0.028918188;0.207417;0.035254784;-0.088937014;0.41749266;-0.02113094;-0.08844331;0.06639748;-0.07415653;-0.2167393;-0.12681337;-0.049139816;0.08057021;-0.005985356;-0.3319155;-0.19174393;-0.42909685;-0.040422343;-0.1294142;-0.20760985;-0.26264146;0.19850115;0.18873356;-0.012962114;0.011153639;-0.45791858
0.010979346;-0.1311892;0.14995192;0.000869139;-0.05591457;-0.09815291;-0.014902356;-0.022815254;-0.05408624;-0.0023508484;-0.01483255;-0.048940156;-0.20393287;0.28840765;-0.09343438;-0.045732725;0.0017423325;-0.1890789;-0.016272448;-0.021801582;-0.036665693;-0.040297102;-0.11696534;0.09452871;-0.121464446;0.14035726;0.09957482;-0.08042716;-0.024795322;0.21347526;-0.29974228;-0.3049222;-0.18615979;0.276085;0.0024625387;0.017556306;0.056085628;-0.062123746;0.123460315;0.18620802;-0.03748303;-0.16152854;0.17704485;-0.016576365;0.0722293;-0.07367543;-0.036675397;0.21439593;-0.017650723;-0.042457927;-0.16490796;-0.055410698;-0.25953752;0.016870484;0.14302422;0.16289262;-0.05314872;0.0056771613;0.31419063;-0.016985796;0.12691645;0.030495353;0.0049876613;-0.12730902;-0.010129791;0.046686538;0.273031;-0.10145189;0.16189212;0.0642318;-0.026632162;0.15725265;0.009743695;0.39524776;0.0006030938;-0.016813062;0.01447469;-0.09692846;-0.119809866;-0.012762311;0.01985645;0.06597057;0.022734718;-0.057512112;-0.02442263;-0.036546625;0.18869503;0.014615074;-0.017375812;0.02123998;0.07042027;-0.043787926;0.20126061;0.035322987;0.14902346;-0.023342108;-0.016500533;-0.15332319;0.045074236;-0.16069323;0.051781364;-0.028005507;-0.005606375;-0.036517;0.026671052;0.023718484;-0.06782858;0.052082136;-0.04573191;0.07145036;-0.20083493;0.071205914;-0.025383998;-0.039508227;-0.04733279;0.06298015;-0.014554627;-0.21774425;-0.041205082;0.20601323;-0.28938216;0.19618835;-0.011445569;0.034585513;-0.18795152;-0.0044037485;-0.034337673;0.1631481;-0.032003287;-0.039374005;0.062480494;0.040184073;-0.008958604;0.008429149;-0.022327524;-0.039891966;-0.1329637;0.03741085;4.448238e-05;0.041318234;-0.061502952;0.016235242;0.04841853;0.06284488;-0.37794524;-0.030575106;0.06727087;0.037735537;-0.06474529;-0.0074766497;-0.089601435;-0.021432843;-0.032729164;0.08497979;0.008878744;0.06413241;-0.043626145;-0.013995926;-0.002599835;0.019086147;0.25331554;-0.08649838;0.0029134613;-0.008244476;-0.007409223;0.033995587;-0.08914489;-0.15239508;0.10146231;-0.2637641;0.23201929;-0.077859685;-0.22149533;0.2585175;0.01495561;0.0025664193;0.011713085;-0.02424329;-0.2338747;0.16707256;0.008905696;0.018698571;0.027790273;0.33369127;0.008243274;-0.012698169;-0.07499419;0.019697474;0.1558253;0.12354395;0.057021044;0.13618614;0.025828563;0.055798344;0.12677453;-0.11748607;0.26900414;-0.08272347;-0.1982501;-0.09780657;-0.088914126;-0.042985756;-0.27465564;-0.02063812;0.014432868;0.20259178;0.0023268906;-0.26060212;-0.14625615;-0.02478809;0.043928243;0.028426813;-0.14654009;-0.054208416;-0.025139807;-0.037753265;-0.07485059;-0.019964036;-0.09477254;0.22782922;0.043764595;-0.18613593;-0.3124414;-0.25370997;-0.034170303;0.13774271;0.06378393;0.05942144;-0.019382458;-0.37625185;0.06381714;-0.103752434;0.090745755;-0.12845804;-0.19404893;0.09562117;-0.033626202;-0.0790409;0.04204015;0.1625358;0.25495914;-0.09873009;0.047099404;0.048666768;-0.04786028;0.016208112;-0.13419537;-0.2741215;-0.062461186;-0.008500206;0.06322413;-0.10647814;-0.15623681;0.236505;-0.12993938;-0.035921395;-0.08538391;0.019645656;-0.027740613;-0.24272126;0.089251526;0.102911934;0.014254689;-0.054960586;0.22491178;0.0036570244;0.016769826;-0.021832744;-0.14633921;-0.06607925;0.0697027;0.08283647;-0.029139344;-0.114950895;0.04198045;0.04256068;-0.17040826;-0.020215344;0.23222904;-0.0375635;-0.08115838;-0.07638294;0.028238611;-0.09515208;-0.0073933215;-0.0029752946;0.008254534;-0.11519089;0.06296305;0.2975962;0.08290332;0.15036826;-0.009784042;0.2180056;0.009420726;-0.026608314;-0.39444304;-0.06315066;-0.005006788;-0.014144756;0.09291582;0.14970899;0.021576056;-0.09702766;-0.032624748;-0.09813348;0.13699608;0.0036308954;-0.14853927;-0.17955294;0.009940129;-0.022263408;0.018653154;0.25000903;0.10055722;-0.07031846;-0.20035085;-0.036369555;0.16077274;0.15159832;0.052247155;-0.06302723;0.074804805;0.035640694;-0.059750907;-0.054205008;0.030630717;-0.076534264;0.05421369;0.025392463;0.15880659;-0.026220862;0.075488135;0.0069068475;-0.14380649;-0.09253838;0.007929131;-0.22231011;-0.010920631;0.0136038065;-0.022316195;0.06032322;0.078474864;0.12357763;0.12880282;-0.025350228;0.09493744;0.081463866;0.21188007;0.0027401943;0.051957812;0.2538513;0.048384573;0.0041097095;-0.08060124;0.09606635;-0.036170617;0.10193253;-0.015674004;-0.17941757;-0.06359457;0.017806849;-0.043003798;0.07558178;-0.0040381;0.05420636;0.034710415;-0.32318255;-0.064624816;0.12642516;-0.10297521;-0.27164906;-0.053015325;-0.013378932;-0.2333653;-0.062410835;-0.05417715;-0.016061023;-0.15759358;0.032855105;-0.30147558;0.06727557;0.005821649;0.05663669;-0.26192987;-0.031162739;0.0048534353;-0.26471445;0.12181875;-0.050095517;0.27908412;0.11659369;-0.0035306923;-0.24913405;-0.061725833;-0.29657638;-0.15137357;-0.26329178;0.0024253626;0.021269547;-0.09641639;-0.18262744;0.08865222;-0.24106841;0.034224745;-0.35548055;-0.094550274;0.02503742;-0.008705;-0.15815704;-0.05525564;0.039718624;0.014516778;-0.31418374;0.11692114;-0.058688305;-0.014511279;-0.16168158;-0.14877461;0.22794017;0.053948745;0.071677946;-0.05121769;-0.0448881;-0.13824128;-0.0027258217;-0.3809225;0.026917953;-0.32104382;0.04079026;0.02386004;-0.08346291;-0.02466485;-0.015191589;-0.0325885;0.028446618;-0.16140437;-0.40109286;0.0049984166;0.013038697;0.012029101;0.01285593;0.007148594;0.1321332;0.015619188;-0.3184921;-0.019068994;-0.021529408;-0.04572896;-0.11448005;-0.034403183;0.1140311;-0.16251072;0.07654518;0.04694752;0.1676994;0.06714204;-0.040557034;-0.07187205;0.052013513;-0.17580421;-0.10060849;0.123938434;0.08731358;-0.23786864;0.022866879;0.062849514;0.08564099;-0.014822769;-0.034735665;0.023874922;-0.00036847068;-0.023889763;0.018461386;-0.10194679;-0.45698142;-0.039259285;-0.032682672;0.24784522;-0.017934822;-0.19253638;0.1349326;0.00084643735;0.07819697;-0.1313592;0.19756396;0.0057003954;0.074379146;-0.011359375;-0.12896968;-0.29338938;-0.33502284;0.20146807;0.054568917;0.006910136;-0.13787785;-0.23894143;-0.007949748;-0.047668774;0.010862385;-0.052766126;0.013977978;-0.09685758;-0.027591903;0.031576097;0.018937428;-0.22968853;-0.066424504;0.024760451;0.026893815;-0.08495513;-0.24265304;-0.01787886;-0.0054216264;0.0060717273;0.1591859;-0.13649648;-0.033983033;-0.03613168;0.16416249;-0.039346065;0.12783365;0.028355615;0.0042533535;0.009634031;0.09483374;0.0633162;-0.35490337;-0.1913296;-0.071974106;0.060985662;-0.17086093;-0.060761966;-0.34725377;0.018333646;-0.22709914;-0.12271967;-0.13149795;-0.16952533;0.29459444;-0.0056918357;0.06784277;-0.0032588083;0.06315108;0.22777173;-0.09952489;-0.10306251;0.020466898;-0.024980862;-0.035833493;-0.011576224;0.20510845;0.20666291;0.013108163;0.23776974;-0.078684084;0.012346947;-0.046377063;0.03659187;-0.096581325;-0.13437879;-0.067399934;-0.032841254;-0.041873816;-0.16356772;-0.24709046;-0.28700334;0.057900988;-0.056779556;0.020064373;-0.027392665;0.18622278;0.08504504;-0.020265954;-0.051037703;-0.42235026
-0.0089521;-0.009079526;0.1323985;-0.034628335;0.06761388;-0.0964465;0.066265784;0.029578451;-0.13681234;-0.047712322;-0.04429304;-0.048423834;0.0037610312;0.115083374;0.0010404817;-0.03554796;0.06603069;-0.0053942543;0.027798476;-0.008757615;-0.07734568;-0.0030697957;-0.036924284;0.11782672;-0.030881066;0.055125035;0.077045575;-0.022783231;-0.05867698;0.15127274;-0.4666537;-0.39388627;-0.14005181;0.22813036;0.025013853;-0.04331191;-0.04333687;-0.08020098;0.17731385;0.20938891;0.05081676;-0.09739457;0.21279238;-0.11553156;-0.043764938;-0.23614343;-0.076574266;0.16740488;-0.19799358;0.06305716;-0.049284875;0.022702925;-0.40508988;0.014369661;-0.04836093;0.14201427;-0.0911215;-0.059348144;0.39150295;0.00041074454;0.11571498;0.024709154;0.113649026;0.0563343;0.030857548;-0.057095546;0.2636135;-0.13315876;0.0831315;-0.024989633;0.036688562;0.15160853;0.16500087;0.35265052;-0.026481107;-0.0105602015;-0.036159333;0.071583115;-0.17948443;-0.088200174;0.11041584;0.11847256;-0.05504961;0.06087285;-0.110894315;-0.004282606;0.20280454;0.0023139403;0.062006753;0.03765557;0.13364907;-0.02813177;0.09253403;0.052170742;0.06065185;-0.017502813;0.030896634;-0.02490313;0.0046627037;-0.07859407;-0.00082366366;-0.14516702;-0.052738678;-0.0015778303;0.15990627;-0.061702654;0.065105855;0.012492294;0.0068661855;-0.024388857;-0.19573489;0.11839463;0.026052877;0.04817138;0.028515697;0.10337033;-0.01911762;-0.3068264;-0.07405826;0.17106299;-0.14704503;0.23431677;-0.054530825;0.11794755;-0.24817273;0.04014691;-0.03189952;0.26602444;-0.15981853;0.021341892;0.063386254;0.080628134;0.012210479;0.064717636;-0.06666128;0.052314874;0.087317325;-0.001537986;0.0092113735;0.039078403;-0.0543231;-0.07500608;0.018307826;-0.007989572;-0.5138005;0.07060485;0.31719303;0.05905916;-0.0017639938;-0.0025459088;-0.057943042;0.03665999;-0.011924165;0.030768258;0.018343426;0.1211945;0.03526672;0.07053829;0.015099115;0.023419013;0.15003194;-0.10000843;-0.015760178;0.027783573;0.11127479;0.17487411;0.092349544;-0.23167218;0.27390003;-0.24482697;0.20556068;-0.019398406;-0.07043121;0.21623525;0.04334998;-0.060932748;-0.049127918;0.06994929;-0.22460493;0.16526212;-0.028082082;0.058293518;0.014374362;0.18381235;0.024186846;-0.019122787;-0.072217144;-0.05280681;0.1069007;0.07326648;0.19240254;0.04680192;-0.036876325;-0.020877004;-0.013252259;-0.13597885;0.25634322;-0.06579606;-0.2987478;-0.05115127;-0.24050516;-0.09363019;-0.19647135;0.042619023;0.0247513;0.28474426;-0.028638063;-0.018446174;-0.2157926;-0.056408107;0.060993493;0.022141362;-0.1341016;-0.0006463747;0.04885504;0.08327712;0.031728182;0.021279618;-0.1569275;0.23364694;0.071404524;-0.22719532;-0.16568057;-0.09167747;-0.020857276;0.20789121;-0.057657;0.17892605;0.051071987;-0.2668606;-0.047041625;-0.039571453;0.108153254;-0.15419269;-0.19504026;0.2043611;-0.033130836;-0.25090668;-0.027170854;0.1638589;0.1583837;-0.029999126;0.008721112;-0.047978193;-0.049764533;0.061594855;-0.13901533;-0.25572953;0.23268093;-0.020347385;-0.03291768;0.093236834;0.025377523;0.08023721;-0.2489662;-0.08946951;-0.0013924611;0.10089997;-0.026910376;-0.27150512;0.14284188;0.041248653;0.07819222;0.023712788;0.24396154;0.0538892;0.094260074;-0.05832682;-0.15520424;0.112869956;-0.012547591;0.0019226798;-0.06386109;-0.041629262;-0.031372484;0.057569016;0.027478026;0.040273953;0.257547;0.028376414;-0.03310709;-0.02595344;-0.01934076;-0.20061266;0.16727056;0.14885426;-0.07892018;-0.09356457;0.04720602;0.28027332;0.1696476;0.246227;-0.03625073;0.19504459;0.049512062;-0.051480167;-0.30203506;-0.18307213;0.014018449;-0.014048892;0.04347131;0.15371364;0.056234226;-0.10260381;0.019422883;0.004895999;0.20887025;-0.10480173;-0.055071026;-0.16698955;0.1306382;-0.041010372;0.06296855;0.18747984;0.13795634;-0.02274562;-0.055998515;0.008623938;0.20637433;0.1711778;-0.0353508;-0.04155968;-0.107993625;-0.012758494;-0.05675525;-0.020066014;-0.034696817;0.03698356;0.15556775;-0.021249946;0.22527245;0.026488729;0.09460061;0.04222561;-0.20382817;-0.08610691;-0.07346366;-0.3300338;-0.06379286;0.06560585;-0.028475856;0.02827754;0.10048129;0.04167208;0.22157465;-0.053124093;-0.028037498;0.05201935;0.20656812;0.022631148;-0.031067159;0.21989854;0.0018526004;-0.16000377;0.049147524;0.09309398;0.05407944;0.07737741;0.043533448;-0.18298298;0.13837495;-0.25942904;0.047057807;0.12999332;0.0010355912;0.011908614;-0.03714794;-0.15654589;-0.03602597;0.15513502;-0.03838367;-0.12674475;-0.23568171;0.01596878;-0.1374333;-0.01839119;0.0006947907;-0.0153758675;-0.078362815;0.017312666;-0.25744677;-0.0026685193;0.020852204;-0.06462971;-0.41385257;0.08675466;0.019002995;-0.30767167;-0.05593755;-0.031538118;0.25968;0.03242195;0.021400662;-0.036326718;0.025790047;-0.17540812;-0.073688716;-0.27031076;0.021258846;0.006511506;0.023137646;-0.17616248;0.097328626;-0.21055222;0.10898956;-0.18321525;-0.09533301;-0.012314681;-0.0149057135;-0.065606244;-0.07203023;-0.07629633;0.04919455;-0.21780309;0.06376893;-0.118794516;0.0686939;-0.1971652;-0.16908656;0.14775614;-0.040856462;-0.03896487;0.08239932;0.024719935;0.027876895;0.018751457;-0.29209176;-0.23103625;-0.18092662;0.023371745;-0.16687126;-0.1722214;-0.14186604;-0.0018861747;0.014038145;0.03675894;-0.20708647;-0.4672211;-0.016024385;-0.0668014;0.10834039;-0.03108212;0.048052076;0.025054906;-0.0009590346;-0.462437;-0.020711143;-0.056117028;0.08921508;-0.22825323;0.06899972;0.1299886;-0.034641203;0.21842255;-0.16279367;0.21963511;-0.026936708;0.06683994;0.010555858;0.019378375;0.05140039;-0.0017268886;0.08502488;0.0902049;-0.14172629;0.040222596;-0.010790959;0.12857476;0.05163646;-0.038924664;0.13420342;-0.0101776505;0.008850115;-0.005465411;0.029834729;-0.44031745;-0.018285887;0.042911857;0.1440975;0.031354304;-0.176499;-0.08213111;0.0018936772;-0.045990363;-0.072205424;0.16013598;-0.0681401;-0.015258486;-0.10041352;0.0374988;-0.13889696;-0.24810259;0.13794313;0.0081117805;-0.0054380996;-0.058842797;-0.23698713;-0.14317004;0.042581502;-0.005552571;0.057536148;-0.0006840101;-0.12439273;-0.02574605;-0.042137824;-0.009073418;-0.16956344;0.0004112019;-0.070925675;-0.0039766436;0.02711611;-0.15697014;-0.079429336;0.06930837;0.01668621;0.14866659;-0.09772734;-0.1282527;0.03581002;0.13582215;-0.0887053;-0.084442645;-0.07832833;-0.05997828;0.06893817;0.21467276;-0.008735651;-0.3675775;-0.20068103;-0.02775208;0.013393359;-0.07111134;0.07373222;-0.32995713;-0.026760314;-0.046491787;-0.17868832;-0.12879446;-0.016609974;0.30776092;-0.036376484;-0.017535513;0.022277828;-0.000684434;0.28615594;0.09617698;-0.064818695;-0.05254326;-0.031702254;-0.13235529;-0.06108766;0.2306665;0.122974925;0.027084112;0.07805082;-0.18295471;-0.03964645;0.0068766153;0.029217297;0.0029368778;-0.3966895;-0.08664649;0.047725163;-0.016077094;-0.20053351;-0.2380429;-0.4354912;0.06994995;0.02123406;-0.0447267;-0.0029702298;0.061903942;0.056166444;0.015579172;0.07691793;-0.23535359
-0.017946253;-0.13014042;0.043221984;0.014004793;-0.038203456;-0.13605677;0.026341958;-0.018529559;-0.08963643;0.0023171937;0.07036059;-0.01744294;-0.026111312;0.14001504;-0.04386092;0.03695531;0.05033133;-0.037147343;-0.05104987;-0.017407306;-0.0039312625;0.06107236;0.024445765;0.18424901;-0.019169172;-0.011398;0.16504195;-0.07402364;0.07753135;0.18751368;-0.4918408;-0.42737627;-0.24327096;0.115371935;-0.07671155;0.05053508;-0.04383217;-0.08943414;0.046647843;0.32049018;0.011163827;-0.02750492;0.07534216;-0.09395613;-0.020023873;-0.20482153;0.02795136;0.21439572;-0.2041871;-0.034510285;-0.18190494;0.069535404;-0.41003954;0.0085812155;0.07590494;0.32205832;-0.36089483;-0.27962285;0.40638494;0.105431795;0.067745365;0.055610683;0.05501257;0.032218765;-0.036823753;-0.02130509;0.12190241;-0.16021204;0.21086864;0.059607264;-0.027768418;0.28724885;0.16295475;0.2181242;0.026030017;0.055660777;-0.011792737;-0.024061497;-0.19735947;0.0915003;0.054426104;0.23753679;-0.049498364;-0.027088592;-0.0759396;-0.10389663;0.251099;-0.02397127;-0.052500937;-0.020250421;0.10400208;-0.048855536;0.06685937;0.0032428186;0.17244433;-0.08554877;0.024964988;-0.24075833;0.00065545365;-0.022509685;-0.011769576;-0.0016513141;0.06700646;0.052433044;-0.014616908;-0.0066106915;-0.035300985;-0.042703364;-0.03409119;0.031415407;-0.096806765;-0.026759654;0.008130067;0.047477875;0.043305904;0.018648576;-0.045487422;-0.2847387;0.060329966;-0.1417112;-0.09993285;0.10200031;0.06971902;0.18842547;-0.12550607;-0.028686924;1.5478272e-05;0.18094274;-0.19770722;0.030463094;0.14723295;0.28013307;0.19160652;-0.047443308;0.03537298;-0.027784457;-0.09528917;0.03272011;-0.04461568;-0.057032295;-0.011202922;-0.23774618;-0.027714036;-0.07416222;-0.5378206;0.055023048;0.27842438;0.07431156;0.035508115;-0.16664393;-0.06832546;-0.048351355;0.052091643;0.0025466105;-0.011872437;0.16599992;0.0011204322;-0.04934184;0.009191564;-0.02445839;0.15629649;-0.097108;-0.022915738;0.05124737;0.09989372;0.14554241;-0.038652126;-0.099066034;0.041015886;-0.3974287;0.1893243;-0.04547424;-0.23456654;0.1081616;-0.07561333;0.008237227;0.04525621;-0.0680424;-0.18718545;0.16799952;0.016339308;0.024215009;-0.045520414;-0.023437366;0.008401193;0.022012725;-0.06868896;0.027981866;-0.04987152;0.03987026;0.19175652;0.01188579;-0.021204747;0.06762771;0.10096081;-0.100021504;0.30658552;-0.09381017;-0.28754056;-0.19990851;0.01640209;-0.06760909;-0.18419084;-0.02340558;-0.017900357;0.23819605;0.05415355;-0.14300278;-0.069448575;0.06709598;-0.049499772;0.0556333;-0.005199515;0.002502586;-0.020675354;-0.040049173;0.037795138;0.017625608;-0.029707137;-0.048971064;0.09212798;-0.17555399;0.004452668;-0.27271274;-0.03750276;0.19804314;0.037371088;0.14743243;0.011619572;-0.23924883;0.032584995;0.14747481;0.10771722;-0.113823116;-0.1416628;0.1392082;0.041970488;-0.11606574;-0.048663806;0.17735565;0.15680657;0.031936686;-0.036413558;-0.062901296;-0.013435529;0.014391213;-0.15353432;-0.211445;0.12733239;-0.0016382283;0.029121447;0.10893733;-0.04633046;0.15264794;-0.110215865;-0.03853625;-0.09188869;0.1606173;-0.0900457;-0.10416697;-0.0072116484;-0.08722749;-0.0015523338;0.07671317;0.21042475;-0.031845916;-0.031270612;0.01965004;-0.2017548;0.1350955;-0.17140584;-0.097470336;0.058238585;-0.10835624;-0.0011007625;-0.018672962;0.022413881;-0.011961319;0.18620573;0.031008055;-0.10376184;0.04863412;-0.0150108775;-0.08837639;0.0155579215;0.114896424;-0.09180814;-0.07249007;0.092648454;0.14723407;0.05824149;0.08735493;0.03740855;0.077181116;0.021386353;0.017565055;-0.2984447;-0.18200423;0.0040237526;0.0070610424;0.1128506;0.16756433;-0.018950185;-0.15665826;0.022354918;0.022595305;0.11587344;-0.037319187;0.07044629;-0.123618424;0.03103124;0.054364763;0.016113127;0.28649268;0.009197719;0.12467596;-0.0911079;-0.021055847;0.2049765;0.31489426;0.046714287;-0.01603334;-0.05449691;-0.024387807;-0.07798645;0.07192398;0.03531364;-0.00053165026;0.1947005;0.064306945;0.24064343;0.030776585;0.04997917;-0.020010738;-0.09144606;-0.07229403;-0.11637216;-0.21305142;0.06008157;0.039404146;0.027593764;-0.055465575;-0.073558405;0.06452329;0.12138748;-0.07507008;-0.08723911;-0.029085213;0.2652635;0.009726982;0.01511438;0.04025242;0.035454877;-0.20988512;0.0042957035;0.11818208;0.003225665;-0.015214518;-0.03876032;-0.12462868;0.01626792;-0.31895098;0.061149966;0.1812738;0.04237234;-0.062087834;-0.042546064;-0.2946113;-0.11924293;0.08097528;-0.020318385;-0.17854185;-0.26798072;0.026398884;-0.16904907;-0.06579277;0.009877175;-0.12955149;-0.06791874;-0.05843721;-0.28400624;-0.023509165;-0.0026434471;0.017857336;-0.33830068;0.0021071248;0.014516794;-0.097949706;-0.069706835;0.01444018;0.3578463;0.096189454;0.036537655;-0.031936638;-0.03703207;-0.22589909;-0.033939414;-0.17635007;-0.015797481;0.020919602;-0.1640899;-0.10190832;0.15511301;-0.06842007;-0.042931277;0.081585184;-0.1682422;0.047189485;-0.011188413;-0.18044804;-0.031501357;-0.049258847;0.07073424;-0.20261838;0.15630655;-0.11737453;0.16617917;-0.5146722;-0.09392579;0.2258113;-0.028845984;-0.008604494;-0.061681975;0.14588246;-0.039005842;0.06375206;-0.05235257;-0.21894974;-0.28931245;0.06558738;-0.03854637;-0.09737357;-0.0114630135;-0.030790156;0.019179735;0.050695535;-0.06563799;-0.65840775;0.015082331;-0.017556945;-0.13810757;0.06264874;0.031549845;0.051755887;0.020501738;-0.41256478;0.09553906;0.03332351;0.06970093;-0.091449104;-0.024092522;0.14988217;-0.004174908;0.31316468;-0.07918371;0.09243647;-0.07794445;-0.03635314;-0.019580606;0.0033699027;0.18134743;-0.05775695;0.09885114;0.05638471;-0.15809701;-0.0018559636;0.03532517;0.14389892;0.15805888;0.026538663;0.08678398;-0.05661777;0.13426626;-0.074785426;0.090651646;-0.5735618;0.055849753;-0.018358922;0.07762352;-0.015237504;-0.12875152;0.043027125;-0.028419254;-0.024770215;-0.118111804;0.15484792;0.027727826;-0.035582058;-0.17256863;0.11927382;-0.13452114;-0.13118634;0.09704343;-0.010825163;-0.050917797;0.102339596;-0.26281667;-0.15025258;0.031068783;-0.049672328;0.13339482;-0.015574499;-0.101216145;0.06791965;0.012202825;0.026960151;-0.22690916;0.026118752;0.066187955;0.07563576;0.037092857;-0.21148227;-0.035391387;0.16107081;0.04590891;0.059360728;-0.0929325;-0.23337628;-0.061797474;0.02670973;-0.08316834;0.06605237;-3.2740332e-05;-0.0684733;-0.043292776;0.33600056;-0.003516943;-0.330571;-0.25416946;0.17858335;0.10323064;-0.06349057;0.051154226;-0.36142474;-0.00087300123;0.013297447;-0.15912405;0.02637303;-0.012590302;0.33751908;-0.021778429;-0.03931883;0.01693355;-0.030535635;0.26012453;0.16756234;0.10811558;-0.02826463;0.042759467;0.0011414564;-0.048948452;0.10799633;0.21530403;-0.016236467;0.057785556;-0.24635203;-0.0326821;-0.013493512;0.0016081498;0.07132748;-0.26059407;-0.12868632;0.045083772;-0.061528776;0.06530476;-0.28244102;-0.3220683;0.018245796;-0.15874603;-0.13151422;0.11970054;0.0267437;-0.040300556;0.023186488;-0.060538538;-0.22604395
0.02700946;-0.22507581;0.036500197;0.058662403;0.00014575559;-0.04199886;-0.0123080015;-0.002428523;-0.09011189;0.07591111;-0.01670632;-0.048654348;0.03559301;-0.012594729;-0.11381532;-0.011236279;0.004064473;0.011647657;-0.004642285;-0.010265066;0.03812811;-0.05140755;-0.016897747;0.11456705;-0.07004179;-0.117974654;0.024912024;-0.1386043;-0.043700717;0.10144103;-0.4983131;-0.42903662;-0.2980775;0.086506225;0.008451106;0.010795177;0.03897035;-0.0629152;0.06348107;0.3097014;0.009955253;-0.05170485;-0.02925811;-0.03378674;0.020938424;-0.13953948;0.012855852;0.11846165;0.06479195;-0.05107474;-0.09337451;-0.042728078;-0.21427187;0.017170181;0.10227496;0.16536967;-0.3903174;-0.18811683;0.34235883;0.0063569443;-0.11861286;0.14594363;-0.04016221;0.08539193;0.019580761;0.027716747;0.21018726;-0.07198804;0.2680735;-0.040367555;0.010390344;0.22828808;0.2552184;0.39873108;-0.049345363;-0.07275087;0.07011051;0.039101195;-0.1401069;0.06481597;0.073956996;0.20454815;-0.18091148;-0.044854335;-0.062605485;-0.083270244;0.1749872;-0.01160793;0.018622363;0.044718027;0.08279556;0.025359478;0.042332675;-0.068204276;0.23949814;-0.0023573877;-0.060218107;-0.10407844;-0.032837886;0.026080495;0.02615208;-0.09477845;0.10801166;-0.052280378;0.033784673;0.028090617;-0.044682458;-0.05001597;-0.0017278477;0.094298735;-0.040602442;-0.14683345;-0.0016670219;0.033887323;-0.07118847;-0.049816243;-0.0013251384;-0.19636582;0.02468104;-0.22205235;-0.056597512;-0.12785518;0.024325704;0.08825902;0.0906136;0.028289137;0.041090317;-0.07791411;-0.12951732;-0.041365854;-0.00865305;0.22229236;0.0682877;-0.037080355;0.15659806;0.010527824;-0.029146682;-0.06629059;0.005300988;0.041822493;0.22133784;-0.30606636;-0.008983534;-0.03386358;-0.4457201;0.12199739;0.2099585;0.044801958;0.029752487;-0.13739361;0.03352218;-0.004250301;0.0633975;0.08842042;0.039726168;0.16121845;-0.019166658;-0.020002205;-0.04619701;-0.027266257;0.16766787;-0.18903401;-0.01162636;-0.063998446;0.041755784;0.17041211;-0.047007408;-0.03591884;-0.07438058;-0.45806953;0.14411235;0.044472508;-0.06671489;0.09096187;0.059518155;-0.0041320864;0.14712092;-0.009034329;-0.21228693;-0.034432624;0.014349466;0.0638194;0.010411388;-0.045786563;-0.04148487;0.025529057;0.007994828;0.09314709;-0.050830875;0.044722058;0.31465334;0.12590136;0.06662341;-0.00893474;-0.017782742;-0.1794302;0.098077305;-0.08465466;-0.20645702;-0.16270174;-0.06578305;-0.09390628;-0.314439;0.11030202;0.010976768;0.28678134;-0.019076003;-0.084035106;-0.30062556;-0.00038828084;-0.016373271;-0.05767823;0.087830395;0.027368162;0.013883184;-0.010311614;0.08851384;0.003238909;-0.0929244;-0.025303788;0.10379562;-0.25006348;0.07219269;-0.17021249;0.047386073;0.2670008;0.0009870448;0.16455366;-0.025863962;-0.20730446;0.03615174;0.22976252;0.17102547;-0.05022809;-0.05870422;0.20071772;0.071336366;-0.016314518;0.009617757;0.26405305;0.17191479;-0.052185513;8.63972e-06;0.10096351;0.08450571;0.07922834;0.0029932433;-0.20975997;0.18023321;-0.015857916;-0.038506612;0.04774125;-0.055966757;0.07465553;-0.172692;-0.077817045;-0.080025285;-0.022411041;-0.06507764;0.056695186;-0.018964086;-0.15393738;0.02065091;-0.029392233;0.25642076;-0.032318395;-0.07342673;-0.0065961466;-0.25871047;0.043769684;-0.107666776;0.02330947;0.043109674;-0.25113025;0.039308984;-0.03289676;-0.0011531448;-0.015508455;0.09898549;0.041495945;0.0073417146;0.116324306;0.030514576;-0.27721792;0.026448678;0.16983774;-0.10254114;-0.09654724;0.061401386;0.055459272;-0.0058801635;0.082263425;0.052304424;0.06904065;0.035595607;-0.05613146;-0.21416421;-0.1277325;0.011054211;-0.018070042;0.06434999;0.24145356;0.021883871;-0.18913703;-0.03807616;0.18481287;0.049667202;-0.0675677;0.03764469;-0.061426263;0.054589756;0.023342088;-0.1409923;0.19788027;0.009397361;0.12665129;-0.057660986;-0.026900258;0.07572381;0.33592373;-0.024498686;-0.112057;0.11098698;-0.030349506;-0.2181482;0.030638756;0.036214128;0.026633274;0.09383101;-0.04000151;0.27256042;0.007972878;0.2178503;0.0021977453;-0.06077492;-0.06449936;-0.3322028;-0.21081178;-0.017164817;0.078377716;-0.034212735;-0.027838627;-0.091043495;0.08099295;0.1608484;-0.067789316;0.0926106;0.0020921193;0.300313;0.04575585;-0.054098558;-0.02929043;-0.007822878;-0.25225148;0.04237273;0.13877249;-0.04098753;-0.015039737;0.07913439;-0.036938928;0.009843666;-0.3856193;-0.08084623;0.26278752;-0.054420393;0.030746205;0.057210434;-0.3512514;-0.054055884;0.081093356;-0.039960764;-0.15851833;-0.2630607;-0.0023951726;-0.053699948;-0.0993842;0.039234024;-0.118637756;0.042744152;-0.035196498;-0.2404524;0.121409565;0.037613567;-0.025815114;-0.20146397;-0.030858492;0.007684323;-0.028077453;-0.3082605;0.046444148;0.3437274;0.036128454;-0.07279704;-0.05997594;0.04894305;-0.2020441;-0.08509384;-0.062321052;-0.01674742;-0.012380885;0.028683223;-0.20191878;0.062361002;-0.07837415;-0.14702508;0.06350443;-0.20305936;0.040211413;0.043517277;-0.1772426;-0.124145;0.024191724;-0.08288824;-0.24818486;0.045334093;-0.08577022;-0.030970484;-0.37307137;-0.18551388;0.2230881;0.055279538;-0.0019159209;-0.06718957;0.09304978;-0.022465182;-0.04688808;-0.072112955;-0.0400458;-0.18042444;-0.041767344;-0.08225413;-0.12358573;-0.09587077;0.06547172;-0.008484913;-0.055694457;-0.079173364;-0.6054334;-0.0013436796;-0.09042008;-0.23648879;0.11332166;0.039427426;-0.01703821;-0.05619741;-0.3235308;0.007362124;0.058510397;-0.019315384;-0.07065432;0.032147758;0.26802483;-0.07030904;0.33140442;-0.103602156;0.08684686;0.106298916;0.050728034;-0.014825267;-0.06005539;0.18386693;0.03496327;0.06852382;0.0075539052;-0.25104895;0.034134377;-0.07360938;0.122047216;0.11674455;0.056304004;-0.005686422;0.06020586;-0.0026356576;-0.04215058;0.12861224;-0.5484194;0.068245254;0.001826129;0.0686345;0.03960903;0.061563928;-0.10323529;0.038160607;0.02067803;-0.11923862;0.03624538;0.005891433;0.02971387;-0.15043229;0.052144967;-0.25084844;-0.25804678;0.053940397;-0.041122377;0.028361775;0.071067564;-0.24620661;-0.16460079;-0.03795482;0.051601827;0.08455536;0.06520405;0.033088513;-0.0570464;0.041828644;-0.004444013;-0.31283453;0.023500517;-0.0023540251;-0.071106;-0.12576532;-0.11692733;0.116688;0.14268157;-0.00090822537;0.12614022;0.005718149;-0.23221917;0.058316957;0.06917052;-0.022267472;0.20053224;-0.005102112;-0.13380228;-0.038037833;0.27610064;-0.011674778;-0.2695548;-0.39455336;0.13661581;-0.099770285;-0.009240601;-0.010955816;-0.31495985;0.019989634;0.08064928;-0.10670147;-0.0026417281;-0.03043153;0.254297;0.052460082;0.03137912;-0.03504616;-0.008664004;0.27889392;0.0832895;0.16521001;0.07365686;-0.0051721367;-0.08327092;-0.15442021;-0.08387143;0.214656;0.044392195;-0.16587535;-0.16323969;-0.12986666;0.0029142632;-0.011627661;0.11945451;-0.23173696;-0.16445124;0.048614163;0.04563506;0.08121911;-0.32681197;-0.45604962;0.056539994;-0.07218536;-0.17384918;0.20345987;-0.044430114;-0.029812017;-0.023557732;-0.030395523;-0.14445972
-0.053406335;-0.3414344;0.13420749;-0.027979922;-0.06139527;-0.015288411;-0.06609985;-0.066591345;-0.103101455;-0.00045354315;0.025606627;-0.12573066;-0.09085134;0.021963421;-0.26507345;-0.03208331;0.1350303;-0.013395884;0.02116004;-0.04903838;-0.087510206;-0.05507655;-0.12165487;0.14437796;-0.18273222;-0.03370748;0.17162986;-0.19932425;-0.06052947;0.1985204;-0.34100622;-0.41117907;-0.26642528;-0.11699518;0.03174102;-0.005433256;0.030028934;-0.11678652;-0.1485006;0.22714846;0.003510963;-0.11346488;-0.17234707;-0.16467021;-0.037420917;-0.15736525;0.0011102811;0.08018518;-0.072980486;0.058646504;-0.09645875;0.0634142;-0.20786303;-0.104538105;-0.012365765;0.19692358;-0.32865354;-0.372861;0.3124035;-0.13890682;-0.27274925;0.16519044;-0.018914865;0.060850266;-0.012180578;0.049112756;0.043787565;-0.091792606;0.16613765;0.009763351;-0.0032837098;0.21987587;0.26737967;0.2373131;0.024277918;0.06750512;-0.010342268;0.022423122;-0.039178636;0.13375871;-0.09757779;0.2284544;0.0017116434;0.042884294;0.060274616;-0.16651879;0.17616892;-0.001685763;0.20492376;0.03422817;0.17079979;0.071938634;0.17897464;0.039080307;0.20577484;0.054342195;0.081271395;0.013764408;-0.005168049;0.13451308;-0.00048481618;-0.07420083;0.22003649;-0.015979141;0.26687068;1.44017295e-05;0.08332994;0.0805653;0.05075384;0.023863675;-0.130752;-0.19489604;0.014931361;0.077163644;-0.022852248;-0.061574634;-0.0032978752;-0.23924656;-0.021877423;-0.26088464;-0.1377342;-0.033760305;-0.061594136;0.038159646;-0.114602;-0.012143217;-0.013809576;-0.038924657;-0.2582004;0.01735037;0.02963377;0.23674735;0.14850906;-0.011454602;0.1786452;0.020952191;-0.15364414;0.040143937;0.008863763;0.0076243863;0.051316004;-0.23701565;-0.041442648;0.027222397;-0.44268015;0.15142284;0.12490667;0.062197763;-0.0064938017;-0.12891808;0.10038658;-0.13171859;-0.030526586;0.055809777;0.0072763986;-0.024628686;-0.043977365;0.0016716416;-0.022364134;0.05223784;0.12857315;-0.11604093;0.08056157;-0.04857217;0.033137813;0.06599046;-0.07349291;-0.066442244;-0.119285025;-0.19385888;0.20216374;-0.010548101;0.11621497;-0.01548849;0.0011634425;0.060872983;0.081910565;0.04149586;-0.23691659;0.09640519;0.024311844;0.026243169;-0.06797483;-0.08411318;-0.025185395;-0.047443748;-0.0020791718;0.14477688;0.006617088;0.03262899;0.13417901;0.04630175;-0.029366273;-0.051920373;0.027753053;-0.15970178;-0.045597434;-0.16935319;-0.16667235;-0.2578795;-0.04117732;-0.16952424;-0.21096464;0.18064144;0.1064079;0.14229484;0.03922875;-0.19737463;-0.1488622;0.013006589;-0.011785982;0.04797857;0.09340109;-0.027541313;0.062093485;-0.047034394;0.028310379;-0.012437033;0.041993916;0.18735948;-0.0052170013;-0.25226447;-0.03908753;-0.19033267;-0.04686888;0.13700864;-0.017785134;0.1644254;0.02854612;-0.13123293;-0.04755655;0.19730964;0.07250049;-0.010903903;0.0967601;0.17440207;0.063696146;0.06251479;-0.063280426;0.15695046;0.26293042;0.15805188;0.009548283;0.08061382;0.049779665;0.09303161;-0.076694846;-0.07955477;0.12648687;0.0069978726;-0.03730821;0.0667362;-0.1274157;0.14534196;-0.20203471;0.0010588448;0.06839935;-0.08530981;-0.0759948;-0.020790089;0.009800514;-0.08611638;0.06072886;-0.042847373;0.2427234;0.058158733;-0.017693404;0.057704747;-0.18812305;0.10929677;-0.06682762;0.027372215;-0.031557206;-0.23907644;-0.05452642;-0.09389475;0.20706612;-0.011691632;0.104270406;0.09783338;-0.1342217;0.18222159;-0.065448016;-0.14137;-0.05297216;0.3771802;-0.0949732;-0.052740913;-0.049798764;0.15687732;-0.032728687;0.17442289;-0.030170348;-0.017436627;0.09523081;0.061305698;-0.032217685;0.0082690455;0.008363623;0.0039865244;0.074129514;0.15585499;-0.047075372;-0.09919098;0.0029552553;0.13283516;-0.02711809;-0.12572183;0.12099052;-0.17552772;-0.055261023;0.010989885;-0.23849428;0.15405878;-0.0442471;0.021557486;-0.19847922;0.072945714;0.16818978;0.16802165;0.009296752;0.01453513;-0.040360935;0.047105875;-0.13862075;-0.021656003;-0.03616386;0.022541903;0.053317625;-0.037805315;0.18611813;-0.005051441;0.03697094;0.004939925;0.008181631;-0.13863891;-0.27439904;-0.24880853;0.008874264;-0.15456833;0.052819915;-0.031827603;-0.055523567;0.074594304;0.093365155;0.09716729;0.03233534;0.0322359;0.14468627;0.0034712553;-0.018612906;0.056222953;-0.057330046;-0.14349654;-0.066680826;0.019288529;-0.0049837525;-0.00038934266;-0.014033906;-0.10285948;0.11127842;-0.30728087;0.025536688;0.1461276;0.055056725;0.03423527;-0.018789751;-0.17769532;-0.11502342;-0.07197524;-0.03991737;-0.100710265;-0.16521007;-0.08697632;-0.041768342;0.022663722;-0.040807627;-0.2365994;0.02275648;0.03425888;-0.34189633;0.04387437;-0.06557201;-0.055040013;-0.23917632;-0.043001413;-0.04356101;-0.06494726;-0.36185956;-0.0037431563;0.2952585;0.13372391;0.021960884;-0.03683798;-0.014809835;-0.16066211;0.022962669;0.029558668;-0.02101562;-0.047868416;0.046031117;-0.23343702;0.049393024;-0.0441423;-0.0029761223;0.12595502;-0.08665098;-0.0030176544;0.016316405;-0.16012791;-0.10918234;0.03240465;-0.011464461;-0.22931756;0.039285455;0.091201805;0.07065617;-0.49089396;0.010530509;0.17766173;-0.04948251;0.01875095;-0.004535565;0.020340603;-0.12114714;-0.024179973;0.04631378;-0.02352165;-0.2886568;-0.011707402;0.04302899;-0.17891395;-0.05993878;0.0060069445;-0.006991617;0.0047268285;0.07276118;-0.54702955;-0.028570944;-0.109153345;-0.18832676;0.16026495;-0.16802476;-0.22759593;-0.0068551516;-0.17919983;0.1414838;-0.0067440183;0.068881914;-0.118223034;-0.05047218;0.16983594;0.010837088;0.24163936;-0.17817982;0.1741374;-0.00849162;0.0043011727;0.04495408;-0.030907081;0.33972916;0.04524227;0.13953166;0.01158516;-0.26206398;-0.06633956;0.014053579;0.20105104;-0.022854017;-0.02530934;-0.018057415;-0.01409905;-0.02492282;-0.18486266;0.15373257;-0.6764774;-0.09718486;0.02261538;-0.01035255;-0.06432328;0.1747913;0.09377789;-0.07780394;-0.015468288;-0.2092868;0.06997118;-0.0119044185;-0.004641998;-0.07913911;-0.06153665;-0.3041912;-0.27861166;0.14817217;-0.0014439987;-0.02838757;-0.036559045;-0.0916454;-0.1302466;0.031374164;0.02204057;0.053553917;-0.025964014;0.07245542;0.051488828;0.010120802;0.03206847;-0.21520378;-0.00094003306;-0.0076447525;-0.036695518;-0.1751401;-0.05258859;0.08434769;0.04516132;-0.0035363645;0.107956536;0.05876052;-0.040281776;0.013174354;0.079124205;-0.06397348;0.040887978;-0.040081307;-0.08475634;0.052851494;0.21024875;-0.012277932;-0.14771257;-0.2866162;0.18801929;-0.14000142;0.004015307;-0.05852075;-0.39663997;0.018006867;0.040509656;-0.10290321;0.015817834;0.020573778;0.32754907;-0.021524938;0.018556893;0.060383692;-0.026628524;0.36446345;0.07287004;0.20616041;-0.04155607;0.04379358;-0.07699908;-0.21828806;-0.14740029;0.21505827;-0.04822053;-0.13177034;-0.117018774;-0.1994182;-0.07400306;-0.011013112;-0.007216981;-0.2387741;-0.12717079;0.035571486;0.042512488;0.13055213;-0.475367;-0.28115588;-0.0020239213;-0.11463942;-0.20569003;0.003397065;-0.1435706;-0.18100221;-0.04552063;0.046832994;-0.12867154
0.03372083;-0.29716936;0.10730658;-0.023006877;0.07925972;0.09150622;0.03821206;0.008388025;0.0031490822;-0.048380516;-0.03619879;-0.07606232;-0.02989132;-0.050241355;-0.37326807;0.018775275;-0.0030508966;-0.11557008;0.0564958;0.005663202;0.0067939386;0.060838025;-0.17705996;-0.026857058;-0.2844418;0.0054896884;0.06832921;-0.08052336;-0.017283354;0.07705829;-0.37051165;-0.25232643;-0.2556424;0.0044234544;0.021097178;-0.02331666;0.11873513;-0.13660198;-0.16794899;0.27282125;0.016320761;-0.17040946;-0.07618262;-0.10918433;0.076223016;-0.015014522;0.020736635;-0.064030945;0.088784836;-0.045492847;0.022238942;-0.047773648;-0.19805159;-0.21646158;-0.0077879475;0.22060704;-0.4015271;-0.29443237;0.32443577;-0.008926074;-0.25648558;0.10557856;0.22316241;-0.03818315;0.003030834;-0.03962155;0.029589333;-0.15050912;0.19374615;-0.02313638;0.02731095;0.23070979;0.37052852;0.115590386;-0.04103382;-0.04879083;-0.054531947;-0.019463398;-0.12016364;0.08146007;0.0057639307;0.12003599;-0.063272215;0.02129538;0.09016176;-0.11211006;0.1240873;0.040809244;0.05930004;0.017570479;0.077245176;-0.15921225;0.2507379;0.0581985;0.25351632;-0.09103825;0.03730385;0.08367964;0.0074943346;0.036228634;-0.06984286;-0.05079637;0.15953185;0.06911521;0.22201398;-0.0026322675;-0.025589125;-0.017084097;-0.04825907;0.0028148943;-0.16235621;-0.096505195;-0.061161015;-0.10490921;0.02483008;0.03669348;0.018937966;-0.21106339;-0.023195984;-0.1579584;-0.18443435;0.023497025;0.008527303;0.20750602;0.0906116;-0.05393238;0.050590135;0.021978954;-0.12279794;-0.033828396;0.089795545;0.15544632;0.07456183;0.039485365;0.14182024;-0.05433361;-0.23441331;-0.02979395;-0.018475043;-0.038996346;0.11108831;-0.14348549;0.027771123;-0.13822433;-0.52378404;0.036093153;0.10065465;0.09097377;-0.033234157;-0.10100009;0.023828162;-0.058204245;0.0046954164;-0.0123829935;-0.042025402;0.025560686;0.006554531;0.004709573;0.036592875;0.03459051;0.24220529;-0.14140908;-0.055967852;0.03514093;0.014350787;0.051794276;0.0047559114;-0.27382594;-0.053055547;-0.10490537;0.25645086;-0.03261856;0.2054044;0.08396239;-0.013863188;-0.027710995;-0.006030008;-0.0353594;-0.27703768;0.14764541;-0.06389316;0.020032987;-0.1386306;-0.14336097;0.058088172;-0.02091721;-0.035943095;0.12321123;0.12122129;-0.025159461;0.2971696;0.12739445;-0.0013902211;-0.023331212;-0.0044670384;-0.20229669;-0.03995858;-0.27374068;-0.18007955;-0.0579109;0.18596834;-0.174843;-0.24197029;-0.02449938;0.092003465;0.24888045;-0.042142592;-0.10160276;-0.062043555;0.051320016;-0.01613961;-0.006970333;0.06261076;0.037981432;-0.07030476;-0.011526334;-0.10565288;0.004740598;0.034792107;0.25420457;0.075929955;-0.22023083;0.109631285;-0.218516;0.029135663;0.05775562;-0.0064371014;0.3233782;-0.018234752;-0.21500814;0.008371473;0.15224203;0.23062734;-0.06549037;0.074950695;0.069937736;0.050664626;-0.12708305;0.020477492;-0.0952946;0.16914582;0.14064895;-0.0017721151;0.12018229;-0.028182816;-0.022153229;-0.24852347;-0.09810166;0.084864974;0.021803346;-0.029866261;0.10577766;-0.08425989;0.15715058;-0.3456654;-0.033417452;-0.024696361;-0.10489297;-0.018040618;-9.530225e-06;0.014332183;0.079042986;0.1978083;0.02045145;0.268525;-0.011472908;-0.0801998;-0.009048359;-0.15774597;0.04038564;-0.005247316;0.05869004;-0.011005223;-0.17994075;0.063414395;-0.00062575424;0.24338894;0.057380266;0.036991127;0.17063291;-0.12563357;0.24210913;0.07420322;-0.117053665;0.03545536;0.4873982;-0.08650711;-0.06269319;-0.03582355;0.13527964;-0.13423102;0.013969057;-0.041391008;0.04982505;0.16469148;-0.033311985;-0.16572858;-0.14389005;-0.02936114;0.042168763;-0.050000116;0.16308051;-0.023277098;-0.013532676;0.060943734;0.039536778;-0.037405014;-0.01737595;-0.061877497;-0.142758;-0.08916199;0.03273414;-0.072889045;0.2185822;-0.14555739;-0.0017481642;-0.11445093;-0.008107737;0.11159649;0.13761202;-0.0056618303;0.0031686544;0.11619478;-0.035870522;-0.18864878;-0.01967645;0.0029207382;-0.060237903;0.041033212;-0.041996073;0.14495258;0.01887538;0.028923454;0.019665964;-0.12328657;-0.15527146;-0.37041497;-0.19537441;0.03302152;-0.20574051;-0.0036539934;-0.015283748;-0.031288352;0.1558063;0.2218601;0.07597148;0.0806633;-0.009975825;0.23114116;-0.027528772;0.041511934;0.013129706;0.018178554;-0.30408773;-0.13882396;0.12342689;0.044199537;0.03579871;-0.123233035;0.09353071;0.039592292;-0.28907382;0.04378609;0.18208805;-0.012278727;-0.0033719463;0.008376898;-0.17057624;-0.17703013;0.009212766;-0.13567209;-0.08135652;-0.008183987;0.04037679;-0.024392981;0.0633702;0.016663676;-0.20633318;0.04789502;0.050314013;-0.51649135;0.13889244;0.033893973;0.08658198;-0.10243708;-0.048305154;0.004433484;-0.012752333;-0.4467619;0.010207714;0.38332683;0.05343827;0.051935706;0.12173651;-0.03538572;-0.06610754;-0.09677149;-0.099208176;0.041788857;0.024424069;-0.03160048;-0.0846805;0.042591326;-0.10315891;0.08808423;0.3129521;-0.04184987;-0.067346886;-0.02203397;-0.115677;-0.044629082;0.046528403;-0.0045193587;-0.25425312;-0.0072129234;0.1350968;0.21501417;-0.4176649;-0.019597737;0.2060461;-0.0065069995;-0.05608097;0.021176547;0.15916531;-0.016153315;-0.0101280045;0.017685305;-0.0835491;-0.4144599;-0.028254265;0.016074179;-0.14422087;0.0139449285;-0.00916831;-0.008510208;0.013306187;0.015488522;-0.3246907;0.06485532;0.0052587073;-0.066154525;0.012419184;-0.20817642;-0.21644183;0.039627466;-0.1911116;0.10891453;0.025157973;0.051718652;-0.09191738;-0.015933787;0.08061578;0.04669204;0.4928647;-0.23337737;0.15287705;-0.028060226;0.102461904;0.04665751;0.010772491;0.20525539;0.08930718;0.08595316;-0.073582366;-0.015871823;-0.054390054;-0.05130574;0.12092019;0.0026616515;-0.04007674;0.006296912;-0.015503014;-0.0034407934;-0.07111714;-0.04067949;-0.6042013;-0.07258177;-0.04109038;-0.035739493;0.06912994;0.19835818;0.03498001;0.05060251;-0.036414675;0.024804339;-0.019001288;0.026047837;0.0051848073;-0.118164614;-0.0107215885;-0.39047632;-0.16317087;0.08449358;0.031139234;-0.0012380598;-0.00011154709;-0.15728;-0.1265463;0.022728961;0.01773216;0.041977808;-0.06834609;-0.041821327;-0.002552182;-0.069889285;-0.005682703;-0.16293962;0.018220296;-0.011003131;-0.00023740054;-0.04438989;-0.2109504;0.047068886;0.07506792;-0.049865276;0.084417574;0.19081892;0.049191207;-0.057407677;-0.09713586;0.011673232;-0.08650312;0.023033494;-0.22874929;-0.043641873;0.3519828;0.03066959;-0.054687902;-0.27967766;0.1889839;-0.17835882;-0.1016253;0.0033695546;-0.5034262;-0.055629205;0.09135173;-0.03407167;0.07258555;0.23662826;0.3006787;0.06851079;-0.07380723;-0.058246303;0.07897156;0.2314429;0.024392221;0.040088695;-0.07029336;-0.05893718;0.026502479;-0.107831754;-0.15461703;0.2728609;0.0038739757;-0.10153531;0.01037094;-0.071169764;0.066800326;-0.0004978822;-0.055322457;-0.065879196;-0.039927285;0.237983;0.008570781;0.06481418;-0.47093746;-0.26544097;-0.0032915368;-0.105950765;-0.14477172;-0.04884869;-0.09681986;-0.24500012;0.025284017;-0.017325236;-0.21950221
0.016379973;-0.3625604;0.098641165;0.036162034;0.028235773;0.06849971;-0.042698666;0.02784486;0.06781423;-0.02851271;0.035521835;-0.008022813;-0.029616475;0.024399677;-0.3787467;0.03057974;0.010688287;-0.12263343;-0.07628674;0.037935395;0.052026335;0.024274189;-0.13024884;0.07190701;-0.26663202;0.13794586;-0.12458821;-0.09871748;0.07555194;0.083647445;-0.34907413;-0.27609292;-0.13596559;-0.023806637;-0.00031982234;0.004948401;0.17414905;-0.07304749;-0.13198179;0.19099715;-0.072986044;-0.13539512;-0.18347536;-0.17334922;-0.04295464;-0.13525827;-0.062963225;-0.100421265;0.14761429;0.040430784;0.017355038;-0.050600022;-0.2106399;-0.1713726;0.0728411;0.21099165;-0.43392724;-0.35715932;0.27939853;-0.09164949;-0.3593088;0.14246401;0.128683;-0.02254634;0.0068002096;-0.04943222;0.012543055;-0.13798878;0.12167894;-0.045113612;-0.015980305;0.16936284;0.22265553;0.099698834;0.029318284;-0.014597982;0.02571333;0.04467712;-0.013299416;0.21560335;-0.090928435;0.105021484;0.019553667;-0.043411948;-0.01832688;0.0051013716;-0.024707623;-0.033955224;-0.010649367;0.22806977;0.118161745;-0.22179423;0.112887345;0.05252527;0.10282355;0.009356438;-0.045161486;-0.0052141068;-0.02841321;0.117690235;0.07254879;0.12303951;0.028420448;0.005716577;0.014357708;-0.060147226;-0.052901056;-0.008372999;0.052135974;-0.13172531;-0.1962677;-0.2305648;-0.09111296;0.009863422;0.055886492;-0.030827232;0.052384857;-0.08274323;-0.028245779;-0.3134908;0.022539198;0.12949699;0.052094433;0.15121198;-0.020264307;0.06354605;-0.07555902;0.007834373;-0.1636827;0.017465763;0.09769608;0.17364116;0.021327421;-0.0030683186;0.052173212;0.036348347;-0.16379663;0.0032731716;-0.000684847;0.021701854;0.16002965;-0.18005146;0.050092574;0.0864495;-0.38953784;-0.052537356;0.01486097;0.20011234;-0.0308589;-0.058359515;-0.09458377;-0.027819578;0.052267414;-0.15686835;-0.011791188;-0.06238694;0.19846563;0.017079322;0.023364346;-0.05266022;0.2515235;-0.1246643;0.012828805;0.043925043;0.010103534;0.015524203;-0.058286823;-0.047183186;-0.17877725;-0.064489104;0.27201968;-0.05992827;0.1910907;0.18550429;0.018839464;-0.04791008;0.054105163;0.00428725;-0.20327128;-0.0025704496;0.016309503;0.0683951;-0.20534399;-0.20472199;-0.07135961;0.017612636;-0.134738;0.19778112;0.10008618;0.051478453;0.16420503;-0.065370165;-0.04212745;0.035001315;0.021250486;-0.15809616;-0.050370336;-0.09772499;-0.10542043;-0.20467956;0.15910885;-0.040413886;-0.09742055;0.07777398;-0.07153179;0.17543156;-0.024083093;-0.18672122;0.14792179;0.0049581304;0.066821694;-0.032731105;-0.094197825;0.0022094648;0.021913527;0.07645668;-0.005431216;-0.048894398;0.050604854;0.004536685;0.016192699;-0.2473349;0.22482285;-0.12751555;0.019758657;0.123243704;-0.020832768;0.37857306;0.056181848;-0.18707804;0.013471589;0.20714594;0.12499523;-0.045237277;0.044261;0.15988196;0.033445492;-0.13887645;0.01979574;-0.04833027;0.04822509;0.19195564;0.016259208;0.13647117;-0.037243806;-0.01768554;-0.26814103;-0.105467886;-0.062275413;0.04960596;-0.0049300496;0.039524753;0.010062776;0.026421726;-0.29498842;-0.092857696;0.06202426;-0.10378737;0.09495609;-0.13649105;0.07068836;-0.028155971;0.08054296;0.0054421327;0.21764474;-0.02220128;0.039701365;-0.034023885;-0.12809655;0.091677636;-0.009371247;0.0121521605;0.0191677;-0.22355333;-0.05251115;-0.035537727;0.1747296;-0.051743016;0.012640707;0.06788573;-0.2662323;0.36271948;-0.045273464;-0.20000046;-0.022684159;0.42108682;-0.09395973;-0.08039257;-0.050509375;0.08828595;-0.19442198;0.103609316;-0.0149228545;0.09012372;0.068570994;0.07266253;-0.08572796;-0.3242895;0.027872335;-0.02468642;-0.12791969;0.047943685;0.054772582;0.08064941;-0.07462456;0.11569581;0.032685712;0.054160327;-0.15594888;-0.12722391;0.08107735;-0.04026821;-0.0955564;0.17705974;-0.049229033;0.02266188;0.017320538;-0.055077106;-0.0023638818;-0.08089041;-0.018102072;-0.024506887;-0.015112204;0.010622433;-0.07119204;0.0059529734;0.01786596;-0.024391942;0.014126768;0.038752425;0.2527934;0.0081009185;-0.062442563;0.0015747156;-0.1730993;-0.07553002;-0.21707772;-0.21462718;-0.029739223;-0.013514319;0.028354062;-0.028868062;0.0072988016;0.134216;0.1588141;0.07041709;0.07569931;0.042950608;0.09900836;-0.051647566;0.0028164133;0.14534193;0.03069007;-0.20885426;-0.03131543;0.066605;-0.012020851;0.10685586;0.08686462;0.14606535;0.10440665;-0.29705802;-0.037232563;0.20617379;-0.004186745;-0.03513384;0.024933739;-0.17615548;-0.23577122;0.052904855;-0.31944215;-0.02928905;0.09827126;0.053162497;-0.047852967;0.14905031;0.021874782;-0.25884447;-0.09031528;-0.03510781;-0.54956996;0.06917778;0.047133576;-0.10000565;-0.02101893;0.08510094;0.047411576;0.04680723;-0.42415515;-0.050797276;0.37936476;-0.104640886;-0.06361075;0.11267689;-0.015860572;0.09972847;0.04655638;-0.13828179;-0.0098877065;-0.0052727195;0.029599497;-0.1675438;0.18958326;-0.08456177;0.11877242;0.3705846;-0.15728402;0.010541356;0.0068460675;-0.21897867;-0.13376543;-0.012566268;0.033551898;-0.15302174;-0.1134136;-0.0052508083;0.17178683;-0.4222844;-0.106573805;0.15505463;0.050684;0.056582544;0.03199229;-0.0018524092;0.21826811;-0.016420495;0.14509812;0.08302587;-0.24874601;0.0243078;-0.10610952;-0.22233665;-0.05633258;-0.021255583;-0.016419876;-0.031355914;0.06306648;-0.40912536;-0.042705294;-0.017517865;0.032137416;0.07512812;-0.27049628;-0.12478186;0.013041001;-0.22740482;-0.024614051;-0.048816238;0.14863472;-0.051688496;-0.001372802;0.16635285;0.15256217;0.4673848;-0.22072953;0.0966426;0.012255278;0.1673672;-0.04889018;0.013933545;0.17400365;0.05916918;0.021169243;-0.0039864806;-0.09923665;0.0767838;0.06560537;0.09444425;0.06371851;0.090028636;-0.012046296;0.036982924;0.025536507;-0.0003805858;0.072291054;-0.54191244;0.07292646;0.048627958;-0.100774005;-0.061578542;0.13365516;0.15476361;0.010243111;-0.0045629246;0.014850472;0.020052725;-0.0067146486;-0.018260418;-0.11248503;-0.025784256;-0.42541906;-0.032772746;0.13303636;0.060469788;0.053708117;-0.10093832;-0.13567032;-0.09630265;-0.035386898;-0.07239227;0.1453442;-0.039651677;0.008059005;-0.022807214;-0.012545299;0.12334631;-0.07946384;-0.039853357;-0.04043659;0.05278262;-0.011074823;-0.18793583;-0.038834807;0.04566559;0.012017927;0.06320393;0.14068063;0.011369326;0.05796177;-0.012841423;-0.06810559;-0.16368827;-0.0129581485;-0.16961019;-0.005678817;0.15367758;-0.024424352;-0.06513716;-0.23097585;0.11321083;-0.044174567;-0.12483012;-0.017681811;-0.47946262;-0.0028436168;0.15640616;-0.012004004;-0.06894148;0.3397955;0.39988214;-0.047486514;0.012356495;-0.0402527;-0.072728746;0.24843809;0.034731627;0.031033788;0.049071375;0.037017357;-0.07186181;-0.092233896;0.00048298694;0.31134975;-0.053447008;0.08494568;0.13274866;-0.15401585;0.036873404;-0.012422708;-0.023063948;-0.09645156;-0.061108176;0.15545416;-0.004661387;-0.023976719;-0.31776896;-0.18424203;-0.048918158;-0.16713366;-0.20739515;-0.14931706;-0.21465509;-0.27513048;0.02238943;0.014619558;-0.42798123
-0.0105767185;-0.24806248;-0.047262885;-0.044208825;0.012134303;0.16511233;-0.008593079;0.04159549;0.061077833;-0.13901834;-0.056121644;-0.0437224;-0.0597562;0.105677016;-0.31399697;-0.019500876;0.042784482;-0.19715896;0.00831258;-0.057585433;0.055341315;0.021047544;-0.14159401;-0.012836477;-0.3971179;0.22663169;-0.1251486;-0.057810504;0.07564053;0.21885101;-0.2764525;-0.32271948;-0.15141201;0.037217908;-0.041664645;-0.05126571;0.14776795;-0.04656322;-0.097315274;0.27841097;-0.060296256;-0.14940687;-0.1483233;-0.039423596;-0.05978791;-0.043909114;-0.050069608;-0.07537388;0.22574368;-0.035169266;0.024793476;-0.033579506;-0.10376313;0.019102458;0.07486484;0.21842882;-0.3563291;-0.27691615;0.26231405;0.008508899;-0.28997618;0.12725988;0.26552755;-0.022707215;-0.0021140964;0.07241429;0.13984111;-0.1263858;0.10651855;0.042552877;0.037157536;0.4471566;0.3406639;0.17293406;0.027511617;0.02854694;0.050476227;0.003635197;-0.040381305;0.23841844;-0.15592296;0.1720924;-0.008565776;0.04140403;-0.19892631;0.07657298;-0.06196457;-0.04855632;-0.13500446;0.35941616;0.19125612;-0.14048462;0.12433634;0.16024336;0.04849332;0.038766652;0.027648764;-0.010162051;0.062403277;0.19969179;0.08093931;0.018745175;-0.049366966;-0.01000198;0.09251075;0.026181692;0.044036884;0.038256034;-0.044687163;-0.04961517;-0.24763227;-0.26026678;-0.0923891;-0.031231362;-0.0064841253;-0.09325013;-0.04230998;-0.09182752;0.050607227;-0.18880561;-0.04824473;0.09506786;0.0013141865;0.093260184;0.045687083;-0.04558061;0.024224691;0.069236;-0.19068113;-0.015662907;0.08700037;0.083907895;0.09223208;0.030199613;-0.028402979;0.03300827;-0.34511143;0.04774694;0.069796294;0.019587653;0.22568932;-0.09128393;-0.022302577;0.076472096;-0.31352836;0.05057287;-0.3081134;0.24686238;0.014787101;-0.047635876;0.10197912;-0.008497668;-0.015825521;-0.20665973;0.05911941;-0.09829046;0.253046;-0.05773927;-0.033230722;0.017580383;0.19805448;-0.20564109;0.004294223;-0.054548565;-0.025754668;0.29433706;-0.11157776;-0.17296539;-0.17494309;-0.23583348;0.2666583;-0.032744568;0.17591108;0.1513371;-0.065956116;0.02008167;-0.0020917526;0.047324125;0.07826588;-0.044763554;0.07366977;-0.007920606;-0.17280799;-0.16331017;0.043836474;0.02638242;0.03227172;0.10738719;0.105574585;0.07239909;-0.02677466;-0.062490482;0.040332995;-0.0009743046;-0.042552993;-0.34702218;0.0038588084;-0.12231926;-0.07808254;-0.14586665;0.3257267;-0.06979446;-0.078300565;0.016775735;-0.047204226;0.17228812;0.004077278;0.040112767;0.17941284;-0.040692355;-0.039571896;-0.004844709;0.0024880762;-0.04585457;-0.05849571;-0.00023708418;-0.11222153;-0.0044250824;0.16749984;0.18089707;-0.14434204;-0.12425046;0.025629615;-0.1736905;0.00036265212;0.13591725;0.08852976;0.3109734;-0.043869134;-0.18161874;0.0028712063;0.14621437;0.16034894;-0.06840121;0.04462749;0.18665627;-0.04979229;-0.198767;0.02303997;-0.09223609;0.16352017;0.069447376;0.013505958;0.15384427;-0.012332333;0.024670683;-0.261633;0.067087375;-0.1353556;-0.054038476;0.058181133;0.09974364;-0.14637597;0.00035022886;-0.15630192;-0.102164134;0.0067317183;-0.06943195;0.13719769;-0.05326635;0.10299706;0.0066684503;0.09536649;-0.012187311;0.1509686;-0.020629693;0.16246751;-0.00833332;-0.15692566;0.15369491;-0.025359556;0.16766906;0.009578202;-0.23459177;0.02223442;0.029569188;0.10647997;-0.006252225;0.06079156;0.06745647;-0.25379103;0.16243768;-0.043014683;-0.18192916;0.11448763;0.40359113;-0.20257917;-0.0010834732;0.025183842;0.08751142;-0.24440928;0.021257726;0.0383989;0.15026414;0.022713596;-0.048485946;-0.089983374;-0.4042093;-0.003849082;0.013308057;-0.16623023;0.0881721;-0.07302149;0.07494239;0.015835907;0.25612578;-0.014404123;-0.049114265;-0.02576178;-0.004551928;-0.11871435;0.063356355;0.08670399;0.09337269;-0.015099708;0.051110663;0.18591355;0.027564064;0.07909114;-0.11940829;-0.045050494;0.03430605;-0.033821598;0.0117548;0.035407282;-0.0100247925;-0.026794977;0.00015413311;0.0064416546;0.033917174;0.2779526;-0.050088614;-0.12610947;-0.07386003;-0.26863927;0.03057858;-0.3463927;-0.18033145;-0.0036631885;-0.07826347;0.05245683;0.053759497;0.027341956;0.19780956;0.10697021;0.017118594;0.06235738;-0.048941217;0.07722485;0.05728568;-0.039899208;0.18678701;0.023318572;-0.27783674;0.018883009;-0.05356198;0.012034824;0.03294818;0.06795121;0.06257644;0.25151852;-0.2648677;-0.044940468;0.1480573;-0.048657604;0.03481642;-0.034102783;0.0020096248;-0.23269531;0.16525255;-0.24391739;-0.068854526;0.09982864;0.021592258;-0.14772595;0.18952091;-0.04926506;-0.09082308;0.005008691;-0.0035465958;-0.5419535;0.099367134;-0.07087536;-0.081318945;-0.07450588;-0.014810407;-0.0023820703;0.11556137;-0.38334498;0.03786978;0.37632054;-0.023463747;0.044170268;0.24358664;0.040491853;-0.06438015;0.04289452;-0.30632225;-0.021907998;0.013977743;-0.067181334;-0.14912863;0.1716481;-0.14168626;0.034970265;0.1672741;-0.328858;-0.070593454;-0.032708716;-0.16330637;-0.11532893;0.049894996;-0.031131981;-0.09509505;-0.19556521;0.03050602;0.16291153;-0.17481317;-0.03318242;0.14891031;0.033708815;-0.016621107;0.026451057;-0.078709155;0.17003335;0.020814465;-0.001678898;0.0055821543;-0.23672974;-0.031157067;-0.09163949;-0.21252187;-0.06869656;0.025068656;-0.003890293;0.02686542;0.1258677;-0.3424233;-0.038479988;-0.061475996;-0.14022021;-0.009107144;-0.2922837;-0.06849749;-0.073979266;-0.25893104;-0.018993545;-0.049667846;0.33990103;0.008439807;0.03962159;0.33342353;-0.012166002;0.25001878;-0.027058009;0.06527645;-0.0032192245;0.083256945;0.019560216;0.032702982;0.017132547;-0.11532285;0.0673871;-0.007868183;0.119417116;-0.046345532;-0.007022296;0.075990774;-0.009015658;-0.056088828;-0.081680566;-0.011721722;-0.08909486;-0.0886625;0.01291335;-0.3861187;-0.01201574;-0.0015596356;0.022418953;0.050852243;0.22561131;0.36871547;-0.027419737;0.038555373;-0.11116189;0.01724385;0.027884092;-0.031481616;-0.07324065;0.03266686;-0.57497036;0.08148456;-0.04508787;-0.027353046;-0.037899356;-0.05148446;-0.23120494;0.030759376;-0.033806086;0.004831355;0.23469362;0.054502424;-0.079151794;0.0571187;0.029299673;0.067158274;-0.054778032;-0.0010636508;0.0023394416;-0.071750596;0.013503552;-0.12869155;0.011220557;0.1213302;0.008845896;0.11692993;0.3023621;0.11005663;-0.04086495;0.012379913;-0.07690363;-0.17728998;0.05124572;-0.14649437;0.030644154;0.17093134;-0.0058356486;0.04201207;-0.12755142;0.13740396;-0.10043183;-0.13648643;0.03307853;-0.3728387;0.05833952;0.15917638;-0.0017294888;-0.23122557;0.2733345;0.43329877;-0.01581089;0.029094836;0.030875018;0.050827276;0.12033387;-0.075483814;-0.13312753;0.07119149;-0.04923201;-0.19005373;-0.078710616;0.04571462;0.15578477;0.031243645;-0.0060611083;0.20412399;-0.12609519;0.002874988;-0.017830834;0.13305339;-0.007178914;-0.14495301;0.30696312;0.033927076;-0.032852426;-0.27646306;-0.059135947;-0.01337833;-0.026455695;-0.23983143;-0.17327029;-0.28468853;-0.20546332;0.0323091;-0.04054103;-0.40687725
0.04017324;-0.254801;-0.062084716;0.03108666;-0.068245165;0.0109215425;0.046684083;0.034848854;-0.0051378747;-0.11612003;0.04314521;-0.17715994;-0.113969974;0.0043644705;-0.18228109;-0.003135464;0.09865847;0.09297025;0.014876827;0.03926011;-0.019401863;-0.05618832;-0.10164333;-0.057164624;-0.2795065;0.09063663;-0.07042757;-0.06402466;0.020980451;0.19490062;-0.080045134;-0.23333097;-0.15849575;-0.03248191;-0.070685856;0.045552224;0.039012782;-0.06278281;-0.13604966;0.25810272;0.0191041;-0.06766026;-0.04016625;0.105361216;0.08026264;-0.07993244;0.041957032;-0.21523672;0.23533428;0.032657713;0.019233147;0.0697505;-0.14528643;-0.13432233;-0.018536054;0.2713524;-0.39381072;-0.33889708;0.35885376;-0.13893642;-0.5080953;0.06521199;0.10577574;-0.061077934;-0.016296063;-0.079452276;0.024924949;-0.07000754;0.08600191;0.023149122;-0.075453535;0.32443464;0.25285947;0.11898898;0.019074079;-0.021804297;-0.04632103;0.028913762;0.026347708;0.35526216;-0.12935947;0.13591512;0.03973753;0.0035361757;-0.26448843;0.10584761;-0.029462872;0.06391812;-0.019639596;0.35765293;0.13413754;-0.14351034;0.13088769;0.13376601;0.1661955;-0.03579178;-0.09186247;-0.0053915367;-0.03827188;0.11169342;0.109980665;-0.072632745;-0.26619476;-0.038589317;0.15035503;0.008804628;-0.05327542;-0.04344547;0.024299327;0.06643446;-0.22138444;-0.1495738;-0.06483145;0.1058662;-0.028083932;-0.119469196;-0.014470702;-0.10494652;-0.019978642;-0.016307259;0.047609475;0.16486573;-0.049678408;0.17010692;0.06597162;0.04988698;0.011251337;0.05215811;-0.16221263;0.03348678;0.07741262;0.24192397;0.090643905;0.00058366015;-0.04054835;-0.060143728;-0.20481057;-0.05655357;-0.035178248;-0.027278207;-0.03230486;-0.0472249;-0.0073138564;0.25583518;-0.3458277;-0.06442675;-0.42977116;0.15288638;-0.02619942;-0.18774424;0.08835798;0.041579444;-0.053619597;-0.1464277;-0.027853899;-0.1078707;0.09892136;0.030425273;0.019015264;-0.051224437;0.12599191;-0.18123323;-0.058393568;0.028426915;0.065843016;0.26291838;-0.1559014;-0.049847193;-0.20919654;-0.2359896;0.11668468;-0.03840681;0.09146333;0.22615111;-0.012514841;0.051740568;-0.15915401;-0.02210048;0.30225506;-0.29964942;-0.07159855;-0.06299542;-0.15211551;-0.1161886;0.023302173;0.023699528;0.05606169;0.055411175;0.021508764;0.06958795;0.06869626;-0.07301241;0.011651031;0.01120656;-0.0036458727;-0.29998964;-0.10858748;-0.109665066;0.07347835;-0.029281361;0.4886692;0.08584592;-0.09645633;-0.077802375;-0.082321815;0.1752929;0.04558708;-0.12159598;0.251678;-0.020485865;-0.0008836674;-0.02117066;0.004270311;0.042119343;0.053758334;-0.03449841;0.1054431;0.07900461;0.07684326;0.04748151;0.048283238;-0.101004936;0.11604273;-0.17730126;0.043021526;0.010636389;-0.034269586;0.25318617;-0.011217333;-0.17861047;-0.03187371;0.15805645;0.14895974;-0.01135506;-0.026450995;0.16418076;-0.18917333;-0.2939807;0.044068996;-0.05385622;0.26910475;0.20446932;-0.03451922;0.11217894;0.012401392;-0.04002663;-0.14155002;0.10414544;-0.17341702;0.0020671634;0.06552441;0.034035835;-0.14581493;-0.13082764;-0.055611398;0.030063251;-0.010284468;-0.1536123;-0.03695917;-0.036232725;-0.063226156;0.10149093;-0.04053642;0.040417437;0.05167415;0.041672524;0.09436451;0.020319177;-0.06372568;0.18872069;-0.06136237;0.02715979;0.012842944;-0.20911221;0.0206037;0.058644723;0.16768932;0.03754513;0.13343844;-0.015701614;-0.19274913;-0.042284694;0.019243065;-0.15270606;0.0502395;0.35436302;-0.15531065;0.04941961;-0.025437921;0.20843412;-0.21970509;-0.17355011;0.034714527;0.20318818;0.01730137;-0.026085619;-0.06334512;-0.4725682;0.016926222;-0.030354995;-0.07127147;0.01817526;0.05435861;-0.04604807;0.036371652;0.23072593;0.011641321;-0.10517969;-0.020390779;-0.058108408;-0.03285445;-0.05362994;0.011436743;0.17873384;0.042686865;0.02102317;0.19850156;0.004392051;0.013160186;-0.004202676;0.09047878;-0.081411935;0.029913614;0.024414059;0.12437862;-0.015839146;0.056535013;0.0830303;-0.069673665;0.033387017;0.39095452;0.009699211;-0.13127607;0.030943163;-0.14205395;0.073356435;-0.29060596;-0.21982597;0.0414177;0.057345316;-0.07168378;-0.00045543458;0.010776338;0.11076756;0.056575157;-0.022297515;0.13084348;-0.033542093;-0.0038039803;-0.011426195;0.030362505;0.2396215;-0.039903946;-0.23026714;-0.09770992;-0.07032985;-0.019561445;-0.08777585;0.07093252;0.19340363;0.15649273;-0.165565;0.013045339;0.22817273;-0.0010064681;-0.048226774;-0.042624548;-0.08439716;-0.19695808;0.013399653;-0.23923345;-0.1025833;0.17480014;-0.08645844;-0.13563292;0.08349023;-0.02564845;-0.10952476;0.033315424;-0.020952567;-0.36910635;0.10502077;-0.00080835074;-0.1899486;-0.07245076;0.011838743;0.04905637;0.011422441;-0.35403368;0.001982842;0.33432922;0.01095688;-0.00091409753;0.057071514;0.015398558;0.010032975;0.028674563;-0.26363108;0.05621572;-0.01557607;-0.0060938755;-0.1453714;0.17477326;-0.0850092;0.18640536;0.058728654;-0.27478507;-0.06653111;-0.027694639;-0.21161093;-0.117927484;0.09864615;0.05054686;0.003051309;-0.13814886;-0.072112866;0.16183506;-0.06941529;0.058332562;0.22582969;-0.036348328;-0.056165036;0.04125593;0.15059061;0.059944056;0.019986058;0.13136588;-0.075870894;-0.19696988;0.00046088503;0.06611699;-0.22659273;-0.0071446015;-0.02732464;0.060590245;0.002804967;0.22585934;-0.3275436;-0.02521744;-0.028494462;0.034848068;-0.07513199;-0.32648042;-0.03994054;0.040218763;-0.3006702;-0.09337725;0.014836063;0.32357246;-0.027664559;0.024415914;0.15780172;0.027088512;0.1954231;0.024668787;0.15869406;0.18610163;0.003172173;-0.049507055;-0.060338236;0.06474911;0.025694055;0.06158184;0.15045418;0.124839194;-0.031536635;-0.10630551;0.17831169;0.10340332;0.003277884;0.09185408;-0.005987718;-0.0019993945;0.02301136;0.06561489;-0.41847703;0.048244473;0.03536412;-0.01578342;0.00991539;0.31759167;0.37146977;0.02999504;0.01974655;-0.029742002;-0.08345912;-0.07308702;-0.030134711;0.15115604;-0.0029360603;-0.5772768;-0.05906966;0.024856424;-0.08013679;0.04415424;-0.07029617;-0.16779248;-0.0622223;-0.0146378465;-0.02031842;0.15001185;0.023075543;-0.09244377;-0.042702917;0.0029687318;-0.010461328;-0.02448047;0.0045682583;0.03434191;0.028677272;0.035455104;-0.090478696;0.019942358;0.15332483;-0.029136864;-0.003704348;0.35252327;0.13885824;0.031864427;0.10926031;-0.03317537;-0.36458197;0.020766024;-0.16412471;0.025327407;0.08368151;-0.03630734;-0.040006332;-0.10449482;0.11986656;-0.0002494653;-0.21170862;-0.022943731;-0.37921083;-0.020980371;0.044558022;0.08396164;-0.43981078;0.18352793;0.086533025;-0.029799474;0.03487047;0.036579262;-0.039538402;0.09884491;-0.014882268;-0.16732237;0.0038049452;0.0036843605;-0.076942116;-0.029501459;0.050599117;0.18859196;0.009365677;0.19448377;0.018514007;-0.14547057;-0.048425823;-0.0057590073;0.06560374;-0.13104826;-0.054155037;0.21427341;-0.02689486;0.05474734;-0.023399638;-0.18502365;-0.018668946;0.100425884;-0.2312637;-0.13293181;-0.31578472;-0.17466676;-0.026118275;0.041051295;-0.25251204
-0.021616226;-0.31612295;-0.103104435;-0.059172343;-0.00553721;0.031454686;-0.004288329;-0.063837975;-0.100699484;-0.27225256;-0.06086616;-0.057169054;-0.2944423;-0.0859504;-0.2029944;0.024724767;0.05758489;0.06965187;0.04825725;-0.12061366;0.10895064;-0.027959399;0.01996027;0.09296419;-0.33606043;0.054827318;-0.13701133;0.0029225643;-0.061266217;0.16653964;-0.1002974;-0.4461885;0.0045951996;-0.05657444;0.053866263;0.013995136;-0.022232978;-0.15216313;-0.058013313;0.2982228;0.01730249;-0.11888314;-0.11025049;0.21100226;0.0026757286;0.0027289041;-0.043359306;-0.16726428;0.2118583;0.039524984;-0.03465599;0.05187732;-0.06766612;-0.09722907;-0.007449196;0.3002949;-0.17302416;-0.18238562;0.26102293;-0.162772;-0.39946803;0.26723322;0.1475883;0.110269934;0.03179945;0.018590817;0.038871396;0.013617232;0.07970672;0.08209489;0.00042393387;0.24202633;0.15563945;-0.034729768;-0.011169909;0.047323797;-0.008026681;-0.121813715;0.12126069;0.26635224;-0.17907259;0.22780629;-0.12056835;-0.03650577;-0.08180298;0.10221866;-0.27554086;0.06729872;0.016129889;0.23418002;0.042764556;-0.270176;0.13764839;0.22351195;0.019342722;-0.034754742;0.014191308;0.0561753;0.020364517;0.012829875;0.20877267;-0.10563231;-0.11033566;-0.0020485262;0.14199838;0.004566991;0.024213452;-0.008707246;-0.0037610265;-0.0036303855;-0.1326068;-0.32811603;-0.20005791;0.12251894;0.01619372;0.055895705;0.055872276;-0.060072467;0.06534381;-0.22299372;-0.05775899;0.2814334;0.0004565607;0.25383565;-0.009225538;-0.05425775;0.016082054;0.044621434;-0.14776081;-0.01844947;-0.00803635;0.09757305;-0.100462615;-0.06545512;-0.06439208;0.013908074;-0.24172054;0.049707346;-0.040151656;0.047027282;0.0131978225;-0.15124889;-0.01278022;0.085045576;-0.36270285;-0.12348219;-0.48717326;-0.04445701;0.05700617;-0.12688391;0.16803429;0.023483567;0.05428935;-0.09535773;-0.028982205;0.0016154015;-0.014393666;0.01526449;-0.01644957;0.08273484;-0.04657265;-0.06946003;0.023262782;-0.048634093;-0.019164953;0.13380274;-0.03209527;-0.018820513;-0.26153412;-0.2730202;0.21228507;0.04667975;-0.104015425;0.17631921;0.041252814;0.0005527116;-0.010083386;-0.004240435;0.32733798;-0.2375729;-0.013705759;-0.06299396;-0.22820318;-0.16600032;0.047041815;-0.027905708;-0.074909344;0.09098648;0.07437797;0.102340624;0.13114144;-0.00032147559;0.062299233;-0.04014778;0.10388782;-0.2576371;-0.21507896;-0.09036201;0.09841961;-0.0069897575;0.23050798;0.14677133;-0.2539017;0.03148869;-0.22728176;0.0047092764;-0.045406274;-0.034036003;0.13619262;0.002067223;-0.0006830845;0.029580912;0.0387351;0.037696104;0.01028966;0.0062056044;0.020794464;-0.055184007;0.21198663;0.14287953;0.017921869;-0.026575334;0.08005973;-0.08481007;-0.023900246;0.025430568;-0.06610261;0.2746435;-0.02413681;-0.26989576;0.018595546;0.20574014;0.13470177;-0.074387476;0.019951582;0.1803241;-0.122537114;-0.3181101;-0.013637909;-0.0102650495;0.21130373;0.18448536;-0.010802834;0.17496948;-0.04922488;0.045098066;-0.0029800893;0.05186039;-0.15769742;0.0049850466;0.0043368917;0.007626116;-0.18311475;-0.14991905;-0.4023825;-0.04476208;0.07424857;-0.2607208;-0.03840678;0.21989098;-0.015498797;-0.19683684;0.07859487;0.020662818;-0.040346503;-0.032203473;0.03451136;0.034875963;-0.034855843;0.30595258;-0.1165777;0.055352513;-0.04722946;-0.07194923;-0.06565071;-0.067217454;0.044487953;-0.01133678;0.04279517;-0.023874793;-0.18269688;0.036932863;0.082656056;-0.16526864;0.048008993;0.31297594;-0.11288114;0.11889334;-0.0036612148;0.12357851;-0.13608344;-0.12802696;-0.014885086;0.21418113;0.009850069;0.07752815;0.04416773;-0.64077276;-0.02641711;-0.0040903348;-0.1965369;0.03927825;0.05649125;-0.04505665;-0.032299276;0.3792513;0.04249461;-0.048914216;0.0049907183;-0.049658895;-0.16889852;0.07303564;0.014735967;0.19885631;0.12315336;0.1157981;0.16119187;-0.011183887;-0.14838529;-0.024017403;-0.036268268;4.455491e-05;0.079578325;-0.011074441;-0.028730083;0.0464518;-0.0524278;0.04815274;-0.1716433;-0.012494117;0.08507677;0.023856089;-0.012188196;0.0049994015;-0.09379371;0.03018638;-0.18362825;-0.1950762;-0.03275144;-0.14316837;-0.047763754;0.0011397919;0.04290817;0.19713958;-0.011852513;-0.037242185;-0.054549694;-0.29293808;-0.032700777;-0.05379851;0.004767784;0.13417464;-0.025523668;-0.3251261;-0.04185408;-0.06534562;0.027833847;-0.0033118997;-0.016353026;0.15706405;0.24498056;-0.054069012;-0.023427585;0.045824952;0.07142454;0.025048463;0.0029763049;-0.15018784;-0.1782098;0.0710254;-0.028790524;0.013472931;0.15194231;0.03661104;-0.1359784;0.11488267;0.041303255;-0.17156976;0.03615225;0.048817012;-0.49999803;-0.011551937;0.027472006;-0.1278444;-0.1887276;-0.042970918;0.029641656;0.019527175;-0.18335389;-0.030395085;0.3399024;0.031235453;0.0020028083;-0.025971282;0.009617575;0.17641395;0.037703305;-0.32130635;-0.046606384;0.023314087;0.0790275;-0.35470375;0.24934672;-0.18077822;0.049905606;0.23210657;-0.08619786;-0.026346201;0.07417488;-0.16383678;-0.1291595;0.0010857502;0.02355886;-0.018975325;-0.0909232;0.043692537;0.036542095;-0.078570865;-0.107069835;0.3442477;-0.033783037;0.05100126;0.020885436;0.08873037;-0.035573382;0.01503309;0.10563324;-0.061309446;-0.22842355;-0.0023135138;0.0740652;-0.06498678;-0.1515662;0.005577124;-0.039144326;-0.0031620802;0.11352414;-0.2652932;0.0815509;-0.06638496;-0.17743467;-0.03302314;-0.45128676;-0.11173419;-0.009873586;-0.13015643;-0.06932952;0.037674587;0.18149868;-0.032156475;-0.027612776;0.10440545;0.06677164;0.112404495;0.03783618;0.106831595;0.08938535;0.11669789;0.00915833;0.054165117;-0.021189854;-0.02959685;0.10152942;0.093262754;0.027385982;0.06723088;0.06943258;0.040106703;0.16079836;-0.011155526;0.051886857;0.020488266;0.009704614;-0.086860605;0.15112273;-0.3034138;-0.026925156;-0.067995414;-0.02804894;-0.051431973;0.21073939;0.408678;0.028632116;0.018557971;-0.2050062;-0.08474782;0.05934791;0.0682471;0.17010054;-0.045303687;-0.5200139;0.061112687;0.08630688;0.012141804;-0.048412535;-0.07859742;-0.14829329;-0.025932414;0.0029377986;0.0398533;0.08714373;-0.0027062937;-0.17970328;0.06358412;0.032380655;-0.042450342;-0.12553641;-0.02281626;-0.051526908;0.019382484;-0.09273083;-0.21632613;-0.06308651;0.078911684;0.019481597;0.1382239;0.08797914;0.15954961;-0.010918227;0.1780869;-0.05681523;-0.31006235;0.04802636;-0.13777405;-0.04214483;0.09891634;0.05211792;-0.13207865;0.18183535;0.020406997;-0.09460233;-0.29320067;-0.0073095616;-0.3225352;-0.032046378;-0.017281765;0.119745076;-0.31705785;0.21071391;0.09710036;0.027859015;-0.036526885;-0.047202382;0.030271454;0.10273547;0.035533033;-0.08357434;-0.07506864;0.07744197;-0.036627058;0.10681148;-0.06523763;-0.11103897;0.06345233;0.028668586;-0.07991074;-0.030954616;0.030359877;0.062338702;0.037941232;-0.059609108;-0.03154732;0.13956957;-0.0058451626;0.19092056;-0.15802616;-0.15559043;0.048574034;0.12192456;-0.20967099;-0.0472094;-0.35804906;-0.20371152;-0.0036016922;0.01090238;-0.16468143
-0.030637152;-0.05844567;-0.035786625;0.040896773;-0.00705905;0.13118026;-0.026520174;-0.0048829853;-0.055389505;-0.27059928;0.032955837;-0.24853773;-0.2823021;0.057552297;-0.18425028;-0.0020425692;0.12399213;0.02291894;-0.05074489;0.0019805662;0.15702657;0.03989627;0.111538336;-0.0630568;-0.32905257;-0.0021362547;-0.1681715;-0.026859716;-0.022224616;0.023265898;-0.13350907;-0.266267;0.05563672;-0.07066865;0.05249469;0.010773038;0.03986211;-0.110836774;-0.014963377;0.33531114;-0.006112892;-0.16460149;-0.113541104;0.24060045;-0.003305517;-0.15399869;-0.16978072;-0.24170537;0.29933682;-0.038732912;-0.013460565;-0.064826585;-0.049749535;0.0041540302;-0.0103451945;0.23456846;-0.4109607;-0.14575565;0.27112603;0.035740253;-0.43848845;0.10779715;0.2569664;-0.011636447;0.01260694;0.00819521;0.05936845;-0.053863667;0.15046579;-0.04748272;0.030040767;0.06477726;0.09176184;-0.044552993;-0.024105866;-0.04594341;0.028473224;-0.2145729;0.024573596;0.0860049;-0.103917636;0.18497024;-0.111243784;0.039736632;-0.1332587;-0.084093705;-0.18586792;-0.036702607;-0.18806158;0.0797341;0.042038392;-0.23263049;0.08713554;0.085017286;-0.025497237;-0.07234818;0.061021976;0.26142204;-0.017853316;0.15093099;0.19178464;-0.06258049;-0.31765637;-0.022226077;0.24470727;0.03090202;0.042571068;0.019422187;-0.024538701;0.024176462;-0.07954837;-0.36720836;-0.17215022;0.024087423;-0.064109534;0.09509772;-0.05934479;-0.17304401;-0.05836147;-0.22108905;-0.1272977;0.27806416;-0.014882472;0.2110652;0.05591605;0.051839277;-0.03921919;0.053066265;-0.19083896;-0.013785337;-0.009739841;0.11366579;-0.115373954;0.009395278;0.025302764;-0.021518381;-0.22365993;-0.06803807;-0.01844842;-0.044159714;-0.16672257;-0.17818925;0.0268453;0.14623012;-0.18420254;-0.08595959;-0.6630149;-0.044396542;0.013120911;-0.1645434;0.14174424;0.11659762;-0.03092603;-0.091944955;0.036123842;-0.0043565254;-0.17997572;0.05683673;0.02316569;-0.03241716;-0.0295747;-0.02882902;0.003248261;0.045554925;-0.043205895;0.22089323;-0.13560133;-0.04503922;-0.31517133;-0.24993303;0.22150356;0.03972397;-0.071147114;0.13491309;0.012619681;-0.022053523;-0.025708722;-0.02541774;0.21469495;-0.2955422;-0.008326296;0.040505867;-0.1554474;-0.2662165;-0.07795473;0.004183378;-0.023128148;0.0688646;0.077906035;0.09800634;-0.003978954;-0.10653261;-0.05084981;0.05177727;0.1810642;-0.33264887;-0.108989246;-0.14205426;0.13616681;-0.13168328;0.29148436;0.090540946;-0.33696795;0.00072662387;-0.33728117;-0.10069349;0.032697372;-0.09176225;0.19018295;0.01897222;-0.017777022;-0.0066500255;0.041312292;-0.054198604;-0.0010501256;-0.0056576994;0.08693976;-0.04334326;0.078723386;0.05297003;-0.050196603;-0.09747688;0.15629871;-0.17958207;-0.015593996;-0.100900844;-0.011548735;0.19331579;-0.00096963235;-0.19868647;-0.011241785;0.065802366;0.054567806;-0.0633211;-0.06888806;0.07985541;-0.13283089;-0.18818411;-0.049163077;-0.024809226;0.08720564;0.085887626;-0.03470454;-0.0077885;0.039017685;-0.0115123;-0.06700195;0.06727749;-0.23370647;0.0013940854;-0.035968844;-0.0411647;-0.2546443;-0.10963932;-0.28634346;0.047411695;-0.002549007;-0.1651366;-0.09013443;0.1596056;-0.0008788326;-0.17379157;-0.03439029;-0.00067875645;0.026260352;0.0042198203;0.0792803;-0.042977665;-0.046334267;0.23176692;-0.11193344;-0.098120406;0.05437407;-0.12611674;0.007265853;-0.021669962;-0.08716209;-0.011048315;0.022121947;-0.11553975;-0.20091055;-0.16450869;-0.053767785;-0.23905508;-0.0076052616;0.28077686;-0.062061314;0.13808717;0.029448591;0.10524858;-0.07914835;-0.19474792;-0.063043304;0.16697536;0.025260337;-0.0548181;0.019646028;-0.58070713;0.0059574153;0.0330797;-0.1457342;0.07348047;-0.06555848;0.116855495;-0.021560624;0.35665324;-0.022691226;-0.039354518;0.07931302;-0.028144976;-0.18065242;0.07754272;-0.1508649;0.15127358;0.18625177;0.3102367;0.28715825;-0.06413899;-0.14063986;-0.004361159;-0.0073402044;-0.056118492;-0.0057908767;-0.058498412;0.010235011;-0.06982848;-0.053199746;-0.06331366;-0.22308142;-0.049299147;0.10296237;-0.02532014;-0.029345363;0.053541224;-0.10292558;-0.08820412;-0.22655177;-0.17885157;-0.0017643245;0.0267689;0.013118707;0.01682341;-0.047305573;0.1338312;-0.007758156;-0.12731114;0.070432276;-0.20149587;0.10395575;0.045265403;0.015746687;0.18152794;0.031646978;-0.1075285;-0.042466253;-0.045133773;-0.013021477;-0.0861534;-0.09649944;0.095949106;0.31934303;0.020006953;0.062256005;0.16397536;-0.03376762;-0.060998704;0.039681047;-0.013678654;-0.04513877;-0.076527916;-0.046158105;0.028921213;0.3053809;0.026487703;-0.09480524;0.0042364607;0.011353843;-0.04586715;-0.20157348;-0.013778541;-0.4504042;-0.14474915;-0.059884183;-0.37896737;-0.13019845;0.008929227;-0.036007326;0.0052173026;-0.0771314;0.012530954;0.12327933;0.1310665;-0.0015052134;0.10635252;0.008470826;0.14920312;-0.10335332;-0.13733341;0.05155835;-0.058891978;0.2269724;-0.26370487;0.29417917;-0.17687322;-0.009874237;0.16371799;-0.19386998;0.053343076;-0.031943426;-0.03733072;-0.034753725;0.069533594;-0.05056437;0.1017552;-0.11184299;0.07906251;-0.0056247762;0.026335878;-0.036538765;0.24649963;-0.02113564;0.060277123;-0.060105912;0.13376532;0.023632262;-0.029578658;0.1530762;-0.124891296;-0.25717893;0.043095253;-0.011364011;-0.1844938;-0.13071655;0.01744375;0.050943315;-0.0037872358;0.29452658;-0.2905047;-0.061118323;0.0338557;-0.15112802;0.053227544;-0.30939078;-0.16928259;0.01010588;0.006295761;-0.010951848;0.028321583;0.068570346;-0.13737601;0.00036281612;0.27655768;0.12237178;0.06851728;0.121457614;0.08597216;-0.036995742;0.13070211;0.013115017;0.042703547;0.11205417;-0.016190793;0.045811776;0.0587189;-0.04025631;-0.012418698;0.018511428;0.070843056;0.17138372;0.062932365;0.08731133;-0.043900784;0.0075600315;-0.1638136;0.051007237;-0.33319733;-0.13139723;-0.011059731;0.032868396;-0.013987717;0.10834497;0.17595883;-0.014349162;-0.063033246;-0.08639786;-0.05918408;0.007148353;0.014988176;0.109035246;-0.03993457;-0.3360689;0.090208106;0.03475361;0.027786905;-0.03192235;-0.04741008;-0.03329418;-0.15471683;0.062186103;0.0076163267;0.32936132;0.03756473;-0.17110181;-0.052733313;0.008377653;-0.096173696;-0.09462789;0.042864088;0.06067565;-0.0067221797;-0.15378374;-0.30963224;-0.14300844;-0.04210973;0.024922498;0.23168792;-0.14299454;0.14124303;-0.028749062;0.24664374;-0.03238392;-0.29167473;0.0012357443;-0.11605123;0.012822366;-0.027275788;0.041624296;-0.16697334;0.22596116;0.08937835;-0.08844453;-0.26587856;0.030835308;-0.45580864;-0.0025506206;-0.08960836;0.047190953;-0.4216218;0.19745108;0.15392433;0.05421842;-0.0108487485;0.010770395;0.017293517;0.038690627;-0.009838946;-0.09218819;0.047391463;-0.042397045;-0.074659035;0.054731064;-0.15025656;-0.1066776;-0.05772082;0.07732749;-0.10479328;-0.20886284;0.003924741;0.014552832;0.09879955;-0.08007955;0.0313459;0.23258486;0.015023383;0.20234449;-0.10750227;-0.1234669;0.020898566;-0.03757167;-0.12968814;0.058213197;-0.4573011;-0.14332645;-0.014730334;-0.031125288;-0.13111234
0.029211579;0.023153517;-0.0454752;0.010180436;0.00083905354;0.0065174634;0.05807932;0.0552963;0.07276013;-0.24354674;0.06733458;-0.112602875;-0.12539378;0.010951215;-0.034744997;0.0012711477;0.012143533;-0.07947619;0.054542854;0.038770515;0.1415873;0.027008282;0.20646445;-0.3320429;-0.11771179;0.13168578;-0.15116373;0.06970851;0.0047334447;0.06359905;-0.0923543;-0.20271488;-0.00019093863;-0.06810876;0.00071522914;-0.044876955;0.056606494;-0.11344982;-0.08743436;0.17075342;0.012071862;-0.04116987;-0.17312786;0.2218951;-0.036519635;0.14046147;-0.027647043;-0.14819148;0.29781437;-0.025072617;-0.14453721;-0.024977706;0.039790202;0.12227487;-0.07856457;0.21263629;-0.40359184;0.026119808;0.12010664;-0.003183687;-0.3889514;0.1073925;0.19788586;-0.0022877052;-0.03233578;0.019184025;0.036600713;-0.02547206;0.027178805;-0.02389996;0.03608511;-0.09616725;0.15149245;-0.1154281;-0.033701602;0.0043924735;-0.0073879003;-0.034088783;-0.058535416;0.007945573;-0.15215133;0.15058318;-0.031595256;-0.00974369;-0.091399096;0.057405625;-0.23473555;-0.017828487;-0.061271925;0.16279274;0.082159124;-0.19628866;0.031916425;0.016342627;0.035591904;-0.09143136;0.021002775;0.16052288;2.714332e-05;0.0143292835;0.04460382;-0.086465396;-0.22739607;0.079882525;0.16278264;-0.03355363;-0.067688726;-0.0060146004;0.020624027;0.090790235;-0.1208021;-0.3717908;-0.15043862;-0.03490176;0.031052828;0.006988117;0.031899426;-0.08673276;0.023587309;-0.1400755;-0.047186956;0.37792066;0.02540167;0.22190374;-0.08282377;-0.06819706;0.04270961;0.073016346;-0.22373599;0.014176848;-0.025607478;-0.0038529441;-0.06628484;0.0077100843;-0.03486151;0.024367457;-0.33054405;0.024934646;0.042831138;-0.04121059;-0.1084687;-0.16225907;-0.010791711;0.08301728;-0.19941227;-0.20105;-0.5925556;0.13672747;-0.03993767;-0.13023219;0.047712445;-0.09120757;0.0032270388;0.0144778425;-0.011820752;0.04100496;-0.23922174;-0.0481598;0.009109155;-0.051078532;0.032105014;-0.103402436;0.050778568;-0.033173956;0.023261357;0.12317598;-0.18857381;-0.14876795;-0.3827817;-0.05535077;0.16236459;0.19044779;-0.14463966;0.14815006;0.02150306;-0.040894367;-0.07931544;0.046799038;0.1635732;-0.2841022;0.010997279;-0.058411382;-0.22266057;-0.28509504;-0.030928222;-0.021900984;-0.01648514;0.14321044;0.085030325;0.16798985;-0.05289665;-0.15223594;-0.03336237;0.032050963;0.04607938;-0.2911687;-0.081949644;-0.17224666;0.14716795;-0.103903234;0.31454754;-0.02815087;-0.13757497;-0.027960433;-0.39382297;0.026342977;-0.019144807;-0.17193513;0.12439717;-0.027963957;0.036837418;0.081770234;-0.075012036;-0.04745315;-0.055204406;0.014897766;-0.03651063;0.045798127;0.11899145;0.044709027;-0.051915538;-0.04870215;0.00860001;-0.064039074;-0.02866916;-0.05020065;0.053028677;0.007605255;0.00081605854;-0.19360821;0.013173425;0.106469356;0.016716866;0.111920655;-0.1469166;0.03423666;-0.16061205;-0.1828003;0.01776445;-0.207542;0.109319836;0.0058944155;0.00233985;-0.0066826437;0.05848013;0.029336426;-0.09222694;0.23528561;-0.25930676;-0.003624951;-0.020905703;-0.02513221;-0.25707;-0.106818594;-0.28527907;0.12418137;0.04248596;-0.18519872;-0.13901517;0.094719976;-0.036150493;0.03737899;-0.097816914;-0.03179503;-0.020387683;0.033417825;0.108274035;0.031200197;0.039003342;0.26247185;-0.13710545;0.049368884;-0.05401314;0.021691443;0.053985108;-0.048633456;-0.13399598;-0.035250854;0.13819374;-0.024919387;-0.14862683;-0.3061529;0.027520139;-0.25251958;-0.095281504;0.24039987;-0.16906251;0.1957402;-0.039227743;0.077552915;-0.20110813;-0.23423679;0.053905163;0.20951661;-0.07316428;-0.022900637;-0.07247898;-0.5581202;-0.044472337;-0.018758528;-0.019478576;-0.017645491;-0.0070189894;-0.02050875;0.07703872;0.22580129;-0.06993976;0.05600561;0.08697249;-0.09352583;-0.12210038;0.04614471;-0.12454936;0.14068805;0.0563546;0.11331202;0.32502732;0.06307909;-0.23204076;-0.006770548;0.03573969;0.017877297;0.077789396;0.049860712;0.035703976;0.035832852;0.06849988;0.021467132;-0.1577267;0.05084922;0.26186308;-0.032185532;0.025812319;-0.030080073;-0.21676211;-0.039726637;-0.37923202;-0.15588738;-0.041237324;0.17923898;0.03372502;0.06822093;-0.061053846;0.010531572;0.104360975;-0.14391704;0.07441449;-0.13602729;0.0015363019;-0.012676553;-0.024009114;0.21460311;-0.023499785;-0.18997416;-0.06845112;-0.017810673;0.0077114496;-0.010941792;-0.34474224;0.10073638;0.17644729;0.070133634;-0.028136194;0.0691085;0.029142335;0.053426877;-0.0027396586;-0.07004534;-0.16083051;0.012393823;0.20318364;-0.018893883;0.23264238;0.006793713;-0.087776005;-0.0638391;-0.014333517;-0.15593137;-0.1793346;-0.045712847;-0.29600275;-0.17222835;0.045541283;-0.36049944;-0.09375548;0.024753623;-0.038430106;0.06712195;-0.129815;-0.028023366;0.35650337;0.19451754;-0.058358666;-0.106634475;-0.012650738;0.106493935;-0.15400228;-0.299115;-0.090334915;0.054376137;0.2154532;-0.18450888;0.17788984;0.029237928;-0.09364597;0.05924973;-0.26593855;0.039196428;-0.0094049955;-0.0466509;-0.16098318;0.21828951;-0.01306528;0.21553034;-0.10577799;0.06995347;0.03626574;-0.060421452;-0.040770393;0.2946077;0.017252244;-0.035030216;-0.011457082;0.07298481;0.111192174;0.0050718295;0.07105462;0.021059241;-0.18212226;0.0119743515;-0.021384405;-0.16387525;-0.14547944;-0.038443293;-0.019176062;-0.07329702;0.42650518;-0.29175925;0.04022021;0.057267398;-0.22494687;-0.038648;-0.25577933;-0.09024026;-0.0314337;0.039958883;0.10100388;-0.06866864;0.20307507;0.04735021;0.027939636;0.116826005;0.26758114;-0.00018785702;0.22884305;0.2762042;0.0053899693;0.1074044;-0.009043072;0.02203633;0.14236505;0.06541581;0.0023043402;0.03877991;0.08576468;0.038780175;0.030011516;0.025207365;0.20810188;-0.01061261;0.039963245;-0.0036342605;0.077779494;-0.13393787;0.034198236;-0.2553182;0.036009837;0.037821904;-0.07587942;0.009166867;-0.06178117;0.24184917;-0.029379183;0.043126736;-0.20184538;-0.040725898;-0.028719865;0.0066029243;0.17422445;-0.10627541;-0.45159468;0.3015825;-0.05295151;0.0329814;0.031819284;-0.049741555;-0.07631433;-0.10738324;0.011108566;0.0015779816;0.2826564;-0.029472906;-0.12308289;-0.055226598;-0.023547629;-0.052106794;-0.020341974;0.0007740441;-0.012587272;0.03567688;-0.18059829;-0.16229247;0.04260885;0.11013387;-0.040791534;0.06919364;-0.10196638;0.018464651;-0.015798528;0.20585781;0.056489725;-0.32534635;0.037973966;-0.16765952;0.026253266;-0.05036754;-0.018255431;-0.048467223;0.03412083;0.058799934;-0.101815596;-0.264152;0.0031218333;-0.28047526;0.028076261;-0.08732208;0.07523364;-0.26007244;0.19056907;0.083101854;-0.057177823;0.038953286;0.035359357;-0.021533743;-0.10677397;-0.011235248;-0.16038789;0.012025683;0.020362802;-0.07987312;-0.11726084;-0.13386273;-0.15322909;0.01511267;0.09548944;-0.20297681;-0.20701022;-0.042031646;-0.02378252;0.27113792;-0.007909678;-0.026954336;0.20634061;-0.04091978;0.22685723;-0.09422731;-0.2388452;0.06531279;0.1296462;-0.21746479;0.10331467;-0.40412614;-0.092114136;0.021925885;-0.019432295;-0.087784365
-0.013668649;-0.030160762;-0.05498125;0.00324032;0.0076428056;-0.034541536;-0.04308299;-0.067769475;0.02096427;-0.092955835;-0.043520335;-0.12152257;-0.026115015;0.0029218274;-0.09184076;0.015658733;0.10580653;-0.0038520647;-0.033738337;-0.006346985;0.14361095;-0.08575484;0.19064133;-0.36258474;0.05548059;0.064960636;-0.09767908;-0.09338409;0.03626955;0.08813178;-0.13296965;-0.09276915;0.07430961;-0.11374516;-0.06523198;-0.007862069;0.086355165;-0.07500045;0.13659096;0.303839;0.047668234;-0.08361291;-0.09286131;0.10059536;-0.0162409;0.31341606;-0.100362085;-0.25144854;0.25481096;0.0043327766;-0.14409453;0.06132458;0.043526422;0.18814944;-0.029312707;0.22513299;-0.44385287;0.10277841;-0.0022624345;-0.04344474;-0.07896704;0.09800027;0.047010187;0.07160649;-0.021464767;-0.006364423;0.08063609;-0.07022919;-0.025678776;-0.012459289;-0.0435111;0.0036450159;0.09467604;-0.21244778;0.04273166;0.013300486;-0.026311489;-0.14310579;-0.0031308879;-0.049618497;0.012440431;0.023884276;-0.024124295;-0.009402737;-0.09614331;-0.021723086;-0.13361359;-0.06572963;-0.25826257;0.18329531;0.100352615;-0.20140938;-0.021241967;-0.07721274;2.868623e-05;-0.016651034;0.008368153;0.20967755;0.009780123;-0.01934497;0.062096763;-0.20942031;-0.18742445;-0.041876756;0.035551988;0.015307659;0.04881332;-0.03636676;-0.0030015325;0.05063483;-0.024651166;-0.38511166;-0.20418401;-0.05921092;0.031796012;0.048078474;0.02479589;-0.22537878;0.017468102;-0.17925929;-0.050731808;0.24513167;0.032080133;0.18848647;0.016824208;0.059186988;-0.06797738;0.20199127;-0.07757587;-0.013275418;-0.060234588;0.04693472;-0.15150332;0.010255357;-0.009870185;0.012293808;-0.22891942;0.05082086;0.038468987;0.035828546;-0.10997381;-0.047868308;-0.05030415;0.03991878;-0.11011082;-0.20680955;-0.48975396;0.08370146;-0.0015964578;-0.014742507;0.113467686;0.014460602;-0.04180392;0.031136164;-0.023016173;-0.0481351;-0.2351281;-0.048010956;0.03091592;0.040146135;-0.011601413;-0.24021003;-0.035962377;0.03903041;-0.044098932;0.030376526;-0.23640905;-0.17061989;-0.31504905;-0.20899528;0.163249;0.21037571;-0.24038303;0.05395641;-0.048336346;0.04720315;-0.14355554;-0.010953682;0.15155625;-0.16957296;0.04257458;0.055437606;-0.20720847;-0.32025534;0.048383366;-0.015376647;-0.027065253;0.27628466;0.036142047;0.0011067186;-0.05411927;-0.10758107;0.033873864;0.0048070177;0.06581307;-0.33391306;-0.003045551;-0.115374275;0.1396806;-0.2518547;0.23844376;-0.027276168;-0.19542927;-0.09730717;-0.38004985;0.09833123;-0.017304093;-0.0072830836;0.028044669;-0.0065809307;0.03867702;-0.06260331;-0.095641635;-0.01892476;0.075224034;-0.040058803;0.1359485;0.008702499;0.12816806;-0.08422563;-0.05338945;-0.03546141;0.049226966;-0.005783968;0.0051079877;0.043032933;0.0467201;0.14383645;0.032970134;-0.16221221;-0.001001906;0.10556378;0.069408864;0.08735439;-0.09382571;0.17545219;-0.11830416;-0.23530245;0.010189604;-0.13787328;0.06922828;-0.048687223;0.040858824;0.030680124;-0.036685627;0.0015890388;-0.28751135;0.26389155;-0.1561247;-0.0061430493;-0.026285466;-0.08831924;-0.2698189;-0.21318257;-0.35829005;0.067842804;0.024106205;-0.20052849;-0.016705828;0.17086004;-0.037844673;0.15766823;-0.08957201;-0.048645318;0.060617372;0.028508056;0.0825146;-0.040488657;0.16047142;0.1782029;0.06517628;-0.10938846;0.009877288;-0.06282014;0.0026942163;0.10232401;-0.26052737;0.047675468;0.15589936;-0.114400305;-0.14984877;-0.4490731;-0.041732565;-0.15685634;-0.17954572;0.22133464;-0.20294736;0.038527858;0.017777845;0.041886173;-0.18832418;-0.1129954;-0.004381712;0.06937467;0.08873546;0.03636792;-0.0011824678;-0.56222683;0.06053366;-0.012365154;0.0037226176;-0.23455538;-0.018143151;-0.13478957;-0.04140748;0.28165662;0.008542175;-0.075615086;-0.06534244;-0.029322082;-0.14882468;0.056657597;-0.30792543;0.09327968;0.02780498;0.14393157;0.08231289;0.020448022;-0.13034917;0.035044707;-0.02252439;-0.10141517;0.055677548;0.009081747;-0.07054601;-0.013844307;0.007957932;-0.032566927;-0.08892754;-0.041723147;0.18498491;0.075477235;-0.031857986;-0.040970486;-0.22684273;-0.0018971508;-0.3014143;-0.059026353;0.028032549;0.2335258;-0.021440838;-0.063703634;-0.14465368;-0.011399127;0.04084573;0.01226393;-0.043643367;-0.1521249;-0.083535366;0.030806422;-0.03195203;0.07600697;0.023785649;-0.12837718;-0.09667861;-0.01648836;-0.016308839;-0.069875576;-0.40446556;0.20597059;0.28273633;0.11725813;0.018110953;0.123559095;0.008641773;0.044554006;0.022320554;-0.13023736;-0.053741816;0.036078975;0.16433664;0.21604249;0.2417711;-0.021909142;-0.04234039;-0.04980749;-0.026908096;-0.18752693;-0.07297582;-0.004392045;-0.37258473;-0.101570934;0.020862177;-0.30367398;-0.14379393;-0.0428764;0.010050552;0.12956165;-0.19051285;0.070268236;0.2821197;0.006507997;0.029238094;-0.1453336;0.02341826;0.20734671;-0.13257788;-0.20860152;0.0486152;-0.0042836117;0.1882009;-0.084942;0.16135418;0.0065680514;-0.22941135;-0.01600792;-0.20344248;-0.041807447;0.008404583;0.13623036;-0.17481221;0.12224878;-0.03826999;0.24053189;-0.13393056;0.18631798;0.081319824;0.03199621;-0.11862394;0.20510803;0.08243217;-0.0066411933;0.00752188;0.10680529;0.15756291;-0.008980956;0.12806848;-0.008615244;-0.18745658;0.037144996;-0.07229534;-0.24431403;0.03623351;0.023017334;0.0034366853;0.02229834;0.32877955;-0.070588425;0.052945208;0.01406165;-0.1274152;-0.07183284;-0.19822538;0.0060603437;0.017406112;0.12498157;0.027695125;0.011993775;0.3417945;0.14568545;-0.060232535;0.18207923;0.2881239;0.042210374;0.28449774;0.2653667;0.047006134;0.04106048;0.028930908;-0.049427725;0.059814375;-0.08035645;-0.005396387;0.1211673;0.01478242;0.021633971;0.056551754;0.020668343;0.01881715;-0.028799327;0.04800873;0.037415978;0.027609874;0.011860685;0.037326172;-0.38295516;0.04088985;0.016898695;-0.004097108;0.006054395;0.12618412;0.13543758;0.032339167;0.039983977;-0.07564618;-0.20729648;0.0007604148;-0.019897278;0.21012864;0.058371507;-0.3050114;0.26964933;-0.018264797;-0.07635508;0.027172903;-0.03281209;0.026132775;-0.13694203;-0.050246023;0.00060266786;0.2010798;0.0035601296;-0.15525904;0.05964986;-0.054160472;-0.016659997;0.13098828;-0.020640953;0.00918917;0.044571318;-0.08948619;-0.13779268;0.07488384;0.026673207;0.060692117;0.16949345;-0.13946573;0.072981015;0.071976036;0.26327887;0.013052038;-0.23148713;0.0065280865;-0.20326266;-0.03589062;-0.06599277;-0.0045362078;-0.021269137;0.03581365;0.057915308;-0.18926497;-0.22049004;-0.031346273;-0.30920848;-0.040221628;-0.15222293;0.08755795;-0.17439955;0.120820954;0.11230936;0.018792884;-0.047538303;0.013941999;-0.06489766;-0.29228288;-0.03440497;-0.16634396;-0.06125846;-0.015359412;-0.062517785;0.15057153;-0.08176238;-0.18482794;-0.058375873;-0.039739974;-0.17362382;-0.09764251;0.026014503;-0.040173218;0.18748865;-0.110063784;-0.08851616;0.1733114;-0.00801375;0.2016539;-0.0078819;-0.2090742;-0.030288791;0.26255074;-0.18226986;-0.02538546;-0.36266178;-0.08382512;-0.03076047;0.040647317;-0.009018295
0.0050194403;-0.05734739;0.02851007;0.0065229814;0.046496697;0.025195982;-0.027331349;0.011436399;0.00022439202;-0.19221129;-0.050955463;-0.21873835;-0.02830543;-0.21588586;0.044717636;-0.033076283;-0.035678398;-0.16266404;-0.04570623;-0.034501825;0.11632478;0.041311283;0.10420213;-0.44626492;-0.018851327;0.08053643;-0.10332571;-0.13494447;-0.033104602;-0.056292273;-0.056845184;-0.035647295;0.17945854;-0.007703605;0.0024995033;-0.021975877;-0.06056148;-0.13970782;0.07051907;0.18112229;-0.08421633;0.14259945;-0.048175626;0.1584979;0.011527326;0.26326877;-0.027970877;-0.13816395;0.15650271;-0.021882186;-0.014063643;-0.07612149;-0.053940672;0.10798658;-0.12578748;0.03579717;-0.42614624;0.1797754;0.09906632;-0.053276684;-0.1062096;0.21477133;0.077621475;0.0007631633;0.04153643;0.025001202;0.13453947;0.095429756;-0.13007602;-0.047217533;0.019790296;-0.14211999;-0.08237811;-0.16735181;-0.009453851;0.009856378;-0.021266641;-0.20152046;0.028018346;-0.016243646;0.104411416;-0.004125125;-0.14842382;0.0011756065;-0.07762685;0.09117542;-0.116955556;0.02032097;-0.13890515;0.12375308;0.09833906;-0.21250203;-0.03950008;-0.1156407;-0.08935357;-0.017806862;0.00037180338;0.11170068;-0.025196396;-0.065596744;-0.0065284516;-0.23280501;-0.2786736;0.04149531;-0.06287402;0.044622485;0.030652625;0.051953726;0.027400376;0.11311393;-0.04391977;-0.2199127;-0.04884165;-0.037768036;0.01705561;-0.08912108;0.02065273;-0.15654632;-0.01931522;-0.25977665;-0.06519191;0.3028146;-0.010822001;0.09593728;-0.012655859;-0.0065492187;0.0634985;0.0009954488;0.058214076;0.017310284;-0.08811123;0.040471576;0.021067379;0.01190634;-0.035905257;0.0031819835;-0.23187715;-0.037729483;-0.034693636;0.033749465;-0.2824968;0.0258114;0.08325412;-0.0069460142;-0.057239085;-0.10319724;-0.31620046;-0.054816633;0.028792493;-0.0056426306;-0.074482225;0.08446654;0.0054568597;-0.05853772;-0.059674732;-0.061490595;-0.14639376;0.016383842;-0.02088829;0.023997726;0.12279715;-0.27358252;-0.010559485;-0.02450143;0.052726425;-0.08851561;-0.16014923;-0.324913;-0.27905262;-0.11361118;0.16896671;0.16819891;-0.12671278;0.036039278;0.07824494;-0.052165687;0.04222354;-0.009080763;0.16088957;-0.29206488;-0.03085316;0.24893321;-0.103871554;-0.19418916;-0.029621666;0.012723863;0.04917346;0.06848898;0.017423451;-0.11662994;0.077367604;0.039085425;-0.056749366;-0.057147622;0.00872948;-0.27634776;-0.13242933;-0.22401047;0.18409313;-0.31774253;0.27710843;-0.08348426;-0.2917032;-0.24908267;-0.3991052;-0.1130517;0.023865044;-0.022517385;0.087408006;0.015919294;-0.060861904;-0.011603498;-0.10562881;0.05704651;-0.046742532;0.060651883;-0.07617596;-0.0038529353;0.018695645;-0.09392482;0.0029704587;-0.024265667;0.07584016;-0.122190446;-0.018954724;-0.02379167;-0.02346378;0.10844821;-0.03533714;-0.10897621;0.0038757806;0.15159656;-0.004409356;0.17870355;0.0168937;-0.065592244;-0.1494565;-0.2277179;0.010684633;-0.18304509;-0.034987822;-0.053289216;0.038849797;-0.100506;-0.00044334706;-0.049550578;-0.22072875;0.2501278;-0.10085129;0.03539459;0.019214623;-0.23022833;-0.20554918;-0.46885172;-0.28664935;0.13485864;-0.0037618033;-0.08644836;0.0725325;0.08229961;-0.12480119;0.2309212;-0.018209502;0.034561638;-0.017373743;-0.041607954;-0.18176162;0.010207973;0.20634341;0.18723345;0.13094637;-0.17598368;0.04169965;0.08837562;-0.03704744;-0.028086254;-0.2696982;0.017255625;0.19059564;-0.013551074;-0.1746432;-0.5632266;-0.0064601176;-0.11280006;-0.23934686;0.1517624;-0.21970923;-0.10117944;0.04332577;0.074789286;-0.191991;-0.24413288;0.002892942;0.19193542;-0.060177818;0.009655726;-0.08905384;-0.51454186;-0.048528574;-0.017577404;0.105460115;-0.32506967;0.044892047;0.006760403;0.020242566;0.13165687;-0.05149939;0.0440198;-0.09665466;0.11101755;-0.124349706;-0.024026377;-0.44476247;0.02370838;-0.15271655;0.13497059;0.011509814;0.024923274;0.08099592;0.027103757;-0.037190814;-0.01127178;0.031525243;0.020577777;-0.026689429;0.03511523;0.0052507953;0.009384852;0.062481165;-0.01519923;0.057671454;0.035994936;-0.053011384;-0.012924224;-0.11980203;-0.027947154;-0.23148954;-0.19828983;0.027593812;0.18470035;-0.002569325;-0.014637447;-0.29517415;-0.2028182;0.025544789;-0.018596899;-0.0066546467;-0.07051296;-0.11307135;-0.0540174;0.038076926;0.11188669;0.027586883;-0.08526576;-0.058130622;0.04887401;0.019839458;-0.083805405;-0.4164453;0.14949033;0.2629061;0.16304833;-0.0073393034;-0.016446998;-0.038290404;-0.06479142;-0.024114262;-0.070604876;-0.021182125;-0.020926954;0.08554505;0.10476735;0.19949903;-0.03164109;-0.055167746;-0.06651228;0.011091694;-0.071328185;-0.047396585;0.040081035;-0.42493248;-0.23839068;0.009383533;-0.2848599;-0.02611239;0.046066772;-0.056732226;0.027820032;-0.12912895;-0.048200253;0.17669211;0.001981049;0.0045548766;-0.06320297;-0.05939096;0.117301516;0.048346564;-0.1721286;-0.006473808;0.0054876814;0.26528797;-0.07929307;0.1950115;-0.16739886;-0.35110804;0.11675285;-0.13856786;-0.15448608;-0.030504532;0.1496588;-0.09468172;0.14566757;0.054767083;0.16200893;-0.04359047;0.042748205;-0.046277814;0.037457686;-0.09871091;0.16605859;-0.05305552;-0.03622779;0.021962078;0.14112058;0.0041834926;0.028606215;0.0032116806;0.0907484;-0.16603379;-0.061087452;0.059813317;-0.21331257;0.07553397;-0.041014187;-0.020361392;0.07270102;0.25037196;0.012672541;-0.051051524;0.014397947;-0.015654508;-0.11636972;-0.16222207;-0.057092074;0.020604445;-0.011035976;-0.01746008;0.044957124;0.31097513;0.05446042;-0.023967825;0.19975911;0.2852314;-0.15482077;0.23631117;0.23676942;-0.03986131;0.11137392;-0.010375911;-0.027899818;0.047091406;0.011434023;0.021910772;-0.064352445;0.115383685;-0.056031317;-0.043750312;-0.0137882205;0.15940651;-0.019344393;0.13651267;-0.067274995;0.04662175;-0.08068264;-0.045007735;-0.33155003;-0.09129196;-0.026102263;-0.016434474;-0.004887664;0.05932659;0.17096813;-0.028407913;-0.08360509;-0.15216258;-0.20353858;-0.02315619;-0.02767581;0.15532635;0.12744857;-0.27315688;0.33429366;-0.0047822986;0.036295544;0.006974416;-0.10899062;0.12533043;-0.036627267;-0.0005998215;-0.036207445;0.023308752;-0.04688682;-0.08517706;0.000166737;0.005157131;-0.0066184024;0.14961544;-0.011010459;0.014222738;-0.0949918;0.096427895;-0.24170616;0.14804882;0.24680507;-0.025779532;-0.050425556;-0.23319994;0.2578403;-0.040514447;0.32552284;0.12509441;-0.15261063;-0.027659658;-0.19361296;0.051678743;-0.07033184;-0.048547626;0.0034826042;0.16813074;0.047522776;-0.21600233;-0.2608535;0.0021789232;-0.2527039;0.0308275;-0.12763284;0.13510928;-0.15416695;0.15740494;0.22279136;-0.025251739;0.062416654;-0.033399366;0.08744293;-0.14413913;0.00035417927;-0.21357025;-0.021704298;-0.0019177906;-0.081569254;0.09120473;-0.026692953;-0.118124835;0.051627543;-0.06897506;-0.017135175;-0.27268627;0.015223522;0.030736502;0.19149025;0.106925584;-0.008853121;0.21645829;0.041682083;0.1366335;-0.06100372;-0.17034166;-0.013116727;0.24753031;-0.13051368;0.08555925;-0.2620183;-0.047827344;-0.017360114;-0.030316085;0.020267323
-0.0385781;-0.07960022;-0.023092378;-0.036582626;0.05022634;-0.050612815;0.027030077;0.016520102;-0.0054444703;-0.0668564;0.061714213;-0.15131064;0.013802123;-0.3252133;-0.041258316;-0.018562596;-0.018953139;-0.0044384887;0.0172818;-0.04484742;0.05633771;0.009285528;-0.10413338;-0.40511253;0.12989564;0.054242007;-0.14201169;-0.17213455;-0.06981905;-0.0005508622;-0.12550832;0.053707004;0.30634445;-0.02666128;0.017888311;0.06645346;-0.086697325;-0.08911833;0.1451133;0.24947622;-0.0006156499;0.18085766;0.007821118;0.17507127;0.01698838;0.24871719;-0.052739393;-0.19286413;0.06863553;0.0392722;-0.1869927;0.08497236;0.010378936;0.13482954;-0.05577266;0.2728127;-0.26766095;0.18775491;-0.071863785;-0.040542252;0.07870595;0.20314074;-0.064063504;0.037775744;-0.010059397;0.042593993;0.16668944;0.10326621;-0.15088566;0.010673811;-0.024915587;-0.119423926;-0.17860664;-0.17782462;-0.011895226;-0.0033329444;-0.0011629623;-0.08713552;-0.008140218;-0.03014778;0.084726304;0.08857493;-0.08629926;-0.017834328;0.11658717;0.10075529;-0.18502223;-0.0068636923;-0.17049785;0.13972086;0.04779499;-0.21181715;-0.08106529;-0.1930615;-0.14280726;0.0037094972;-0.037773382;0.22096953;0.04305157;0.013678398;-0.097204804;-0.0544361;-0.3536727;-0.0039342525;0.004397032;-0.0358485;-0.07256702;0.040422168;-0.042106386;-0.10862139;-0.013786128;-0.17524402;-0.0075591425;-0.046810716;-0.03954341;-0.023507766;-0.052660767;-0.23094487;0.0022453878;-0.24410369;-0.024850959;0.3070613;0.020446805;0.028934618;-0.10371023;0.00088954635;-0.049318444;-0.021426959;-0.0005008979;0.0379026;-0.095723785;0.1431618;0.08275552;0.054447748;0.07826194;-0.04931289;-0.15122668;-0.005359479;-0.03753334;-0.033189707;-0.13226332;-0.018276406;-0.058062576;-0.06995108;0.019028252;0.11713637;-0.09588375;-0.05166179;-0.044252023;-0.06373911;0.022097971;0.09916353;0.028484002;-0.15364733;0.070509866;-0.027315395;-0.15024655;0.0861728;-0.0050447937;-0.05337456;0.23705088;-0.30212185;-0.026285587;0.019089554;-0.028225238;-0.19175152;-0.1310911;-0.2587565;-0.31203857;0.059837703;0.055099662;0.10192827;-0.16447929;0.0738166;-0.06627085;0.063227236;0.010099952;-0.021301366;0.1223943;-0.1977143;0.004281721;0.11942133;0.019932233;0.056402657;0.06650911;0.015359158;0.069546275;0.078165695;0.06759988;-0.15335633;0.25768572;0.11394401;-0.0009566684;-0.012260515;0.095511034;-0.19180869;-0.10384234;-0.23056374;0.07921795;-0.35066015;0.31477848;-0.036665034;-0.15685214;-0.20210683;-0.33764458;-0.02267243;0.054992355;-0.00079617795;0.24345331;-0.0065551642;0.020119736;-0.050586093;-0.019227488;0.01765369;0.03466996;-0.003876221;-0.12043208;0.033404518;-0.05365573;-0.053715523;0.021754766;0.00693771;0.04519118;-0.07860603;0.003664862;-0.066427045;0.0061998656;0.09846879;0.021448372;-0.24557123;-0.006329075;0.046905536;0.010935133;0.02230104;0.022541683;-0.19982697;-0.066253275;-0.09866596;-0.023750704;-0.21937564;0.13305956;-0.006122226;-0.03535675;-0.057041515;-0.053330213;0.015215023;-0.17851822;0.2207151;-0.27579722;-0.04179945;-0.016087377;-0.25443313;-0.29285094;-0.3643209;-0.31836867;0.09685048;0.023348954;0.06407576;0.04606462;0.08029685;-0.203635;0.22441186;-0.15828168;-0.028154377;0.048938055;-0.010187338;0.018368898;-0.020496797;-0.0218083;0.22151561;0.0860217;0.04558712;-0.0006368003;0.18985225;-0.03054294;0.009156337;-0.17058517;-0.030486979;0.109116025;0.06185129;-0.15161262;-0.51977223;0.0026243285;-0.09838337;-0.10118424;0.088814445;-0.2240356;-0.0141334785;-0.07110823;0.08786716;-0.24433035;-0.10975464;-0.03247485;0.17580685;0.039497916;-0.0047982484;-0.16580161;-0.434062;0.010990721;0.0375557;0.17358781;-0.35654292;-0.031949405;0.0076525216;-0.009011272;0.1570239;0.031556014;-0.029358014;-0.06812691;0.24095297;-0.23138565;0.020246232;-0.46488246;0.07843543;-0.070589006;0.11046906;-0.13726676;-0.03394387;-0.042500492;-0.04267904;0.026045058;0.07561437;0.15807939;-0.036354207;-0.07077946;0.024737457;-0.047920622;-0.011234033;0.10275285;0.00023801494;0.07909176;-0.07023112;-0.04185022;0.0424982;-0.13700394;0.069847755;-0.29519466;-0.25942522;-0.029571095;0.050657187;0.011474276;-0.016372193;-0.26996514;-0.04702612;0.12261947;0.09037908;0.11048905;-0.11939772;0.007869703;-0.02032198;-0.004779081;0.13774407;-0.046911404;0.112016186;-0.066810325;-0.012303368;-0.0037856682;-0.014517905;-0.18953577;0.025732113;0.15373091;0.058762047;0.014190653;-0.28218594;-0.026583483;0.013075783;-0.044405103;-0.054781172;0.05407162;0.12405173;0.15947552;0.061991934;0.1685598;-0.04380433;-0.10083461;-0.14419681;0.009758651;-0.007823574;0.02950458;-0.0265751;-0.33567727;-0.1991195;-0.012818622;-0.16083874;0.09805074;0.012165593;-0.036741197;0.1223759;-0.15526581;-0.05321619;0.22269136;0.1019568;0.011642469;-0.07360601;0.031394508;-0.045832537;-0.08386021;-0.18476525;0.011603646;-0.009454501;0.40991655;-0.06841103;0.2698577;-0.25046426;-0.40656433;0.14612539;-0.13471934;-0.096520066;0.060149997;0.0007539171;-0.13133307;0.15258263;0.0034914282;0.08697758;-0.07732259;0.007731006;0.08875136;-0.058160935;0.101563506;0.24571845;-0.027903736;0.013258364;-0.055786084;0.16072609;-0.096756265;-0.019206893;-0.039424367;0.073223166;-0.16755942;-0.03982853;0.0008651557;-0.21599858;0.1839528;0.062397722;-0.066832855;-0.0098224925;0.2771127;0.009858096;-0.019831248;-0.020022318;0.18991143;-0.042688616;-0.010899234;-0.043350685;-0.027159246;-0.112358466;0.11518763;0.014984043;0.11294336;0.19151028;0.03341529;0.22809412;0.18760471;-0.332243;0.1380678;0.30131274;0.033981223;0.003793982;0.06412453;-0.022522416;0.07299468;0.22114243;-0.048508503;-0.013619164;0.18306431;-0.016203417;0.0031057969;0.070347436;0.029380906;0.021908015;0.052448813;0.03225421;0.109253466;-0.19952562;-0.041978087;-0.43674058;-0.024306249;-0.014619242;0.03934275;0.016864628;0.0630807;0.11594573;-0.046168752;0.052718617;0.09561191;-0.31864634;0.02656809;0.017592669;-0.12886205;0.07293441;-0.42468676;0.19660553;-0.08943338;0.0024926485;-0.0023181194;-0.049834218;0.12957242;-0.13270135;0.0038447254;0.013055986;0.007122743;0.061488252;-0.040475026;-0.033797182;0.0014241888;0.097115554;0.042545695;0.015064138;-0.04339966;-0.014088289;0.0953757;-0.20661189;0.15577409;0.27018493;-0.02959529;-0.030230347;0.019247264;0.2673859;-0.049957406;0.24113211;0.10760923;-0.13438794;0.04282336;-0.14236395;-0.050276592;-0.0018715878;-0.046908796;-0.07409857;0.001625677;0.10361528;-0.17227823;-0.17220433;-0.025823828;-0.15971129;-0.018831052;-0.021090657;0.0021725453;-0.27384993;0.14539456;0.083129585;-0.014829478;-0.059015196;-0.00112039;-0.06978085;-0.021462755;-0.18531694;-0.1499605;0.034910526;-0.041319836;-0.13654874;-0.012078568;0.060660385;0.007968979;0.018244673;-0.009503216;0.031200118;-0.24517737;-0.045597643;-0.0040918943;0.27394238;0.005911776;0.054087825;0.088465475;0.024205074;0.14907023;0.07762926;-0.19677953;0.06497684;0.30157477;-0.15466037;0.119561754;-0.11855506;-0.06344185;0.026447028;0.046046823;0.117755696
0.03208726;-0.054978758;0.0155397765;0.041544285;-0.05754534;-0.24071965;-0.052051213;0.02300162;-0.021057779;0.03135034;-0.08245012;-0.09327037;0.14131919;-0.3023028;0.046540804;0.022971155;0.024218254;-0.07955407;-0.029655745;-0.062434994;0.059201606;0.0071481597;-0.15529338;-0.24808784;0.104751416;-0.14395298;-0.061398245;-0.11725619;0.062846184;0.0842104;0.054522123;-0.011824239;0.18133242;0.11843449;0.0035775176;-0.03315949;-0.006856815;-0.00570509;0.06518536;0.23836026;0.0012242199;0.24603716;-0.097285934;0.24927571;0.007926382;0.32885808;0.06826899;-0.07556283;0.043559417;0.0018188455;-0.18726118;-0.040451203;0.031213388;0.15438437;-0.13555141;0.27368802;-0.35926524;0.15391292;-0.26216358;0.037948843;-0.06865986;0.2341245;0.13670953;0.0512481;-0.017417189;-0.08469997;0.13124052;0.10866278;-0.24016793;0.0666269;0.046861734;-0.114125766;-0.1371875;-0.06311996;-0.021819107;-0.074939705;0.04882758;-0.15019253;-0.114748634;0.06963297;0.1972219;0.13839737;-0.1844047;0.009158613;-0.019267201;0.022292469;-0.2973389;-0.00418738;-0.36304033;-0.018056221;0.048156682;-0.090122476;-0.04211203;-0.08237444;0.012906077;0.054848347;0.0014465643;0.29253265;-0.010554532;0.016199183;0.12667777;0.06371827;-0.26352656;-0.015934361;-0.05499643;-0.056746177;0.015182496;-0.05214709;0.0134871965;0.010601784;0.041549936;-0.17992204;-0.07828036;-0.20397472;0.025933532;-0.04688346;-0.012706536;-0.2535416;0.0056438544;-0.13767934;0.0153027;0.27318314;-0.04369587;0.038379632;-0.13873367;0.027546847;0.020967575;-0.14537063;0.14784445;-0.040093627;-0.16571857;0.13795312;0.12866151;-0.032957908;0.10223283;0.06467262;-0.16095574;0.034241717;0.021032877;0.016836697;-0.27624387;0.07173263;0.050094377;-0.1558341;0.061117686;0.17864701;-0.023105964;-0.057871882;0.05278327;0.12408108;-0.2538512;0.13644248;0.047158815;-0.14299451;0.058299944;-0.034662094;-0.12510015;-0.058703948;-0.04902273;0.058747392;0.1545824;-0.1939141;0.06543542;-0.02165165;-0.09596226;-0.20227465;-0.2480057;-0.16767582;-0.29566446;0.034361064;0.19245194;0.09148409;0.013382217;0.117227994;-0.042294733;-0.019232282;0.26273215;0.023626115;-0.01593517;-0.25826097;-0.017088484;0.23866235;-0.014506447;0.16249722;-0.026713992;0.038699314;0.08529719;0.30559272;-0.027880898;-0.16272898;0.37747967;0.037140492;0.03344279;-0.0434338;0.15088432;-0.12944868;0.13681768;-0.094753146;0.0241593;-0.20803867;0.24226241;-0.023701381;-0.16317262;-0.15556231;-0.16504107;0.0650286;-0.067239664;0.07132725;0.20458184;0.027320154;0.011732386;0.043575343;-0.09214795;0.045098133;0.011837542;-0.07473488;-0.028072357;-0.06149787;-0.13344914;-0.10851971;-0.04564014;-0.044889428;0.10004901;0.016195131;-0.028568506;-0.023297975;-0.024392704;0.1765512;0.017535357;-0.055205513;-0.055821683;0.027717218;0.100913286;0.044963505;0.07047894;-0.1427713;0.03216467;-0.21758571;-0.034223504;-0.11380956;-0.011370062;-0.03474167;-0.014707132;-0.024921108;-0.049218893;-0.031739;-0.3977186;0.15622155;-0.2048423;-0.0130531145;0.013028089;-0.36556458;-0.17824262;-0.2525549;-0.3803893;0.22582497;-0.022373935;0.16385762;0.15172057;0.25191483;-0.14136235;0.22943951;-0.06897071;0.03804239;0.009318314;-0.007979829;-0.06142874;-0.018219505;0.18495508;0.25718808;-0.047390882;0.0046865055;-0.039770983;0.23463178;0.056871127;0.022431742;-0.29323304;-0.012489346;-0.014053162;-0.01573174;-0.018194497;-0.49640915;-0.02049943;-0.07007234;-0.16691348;0.1234449;-0.24304344;-0.025108138;-0.05546521;0.1106954;-0.16927984;-0.06626693;0.008315612;0.040201154;0.10830824;0.02248046;-0.17582387;-0.4033218;0.03342711;-0.027582074;0.18453987;-0.5565215;-0.0072906106;0.086310714;-0.010985039;0.0075954376;-0.11918309;0.017891074;-0.20123668;0.10768114;-0.18874644;-0.032577645;-0.39505497;-0.075639434;-0.020040797;0.05376582;-0.3603649;-0.027149333;0.06948376;0.13587107;0.035477564;-0.032710712;0.12114521;-0.0041947067;-0.08204806;-0.06410623;0.0705582;0.004529231;0.12129607;-0.010320724;0.04333106;0.02177166;-0.050974973;0.008999706;-0.057661377;0.10739311;-0.1846043;-0.28287068;0.018655933;0.041441888;0.028257996;-0.022401635;-0.17968597;-0.24933149;0.026782911;0.22326231;-0.024008842;-0.05938048;0.12573558;-0.024385873;-0.010912501;0.24822025;-0.027426753;-0.06709768;0.055811267;0.14284031;-0.0071911416;-0.14091936;-0.08432858;0.04201099;0.06892557;0.027173616;-0.012407319;-0.266742;0.047381464;0.0069928435;0.053218063;-0.06549111;-0.014468407;0.04928927;0.10117255;-0.057408296;0.17870241;0.07682132;0.0953398;-0.0943261;-0.0042205784;0.04141556;-0.019973675;-0.0002357745;-0.36460716;-0.27985042;-0.002536035;-0.088432826;0.177494;0.0027679587;0.057450745;-0.10619715;-0.30655557;0.06168993;0.120571345;0.09305203;-0.015768843;-0.0074294154;-0.010453742;0.04593388;-0.07397714;-0.21425463;0.006575021;-0.013820261;0.32022902;0.12119797;0.10381099;-0.20890053;-0.3104474;0.16422977;-0.27985764;-0.08297125;-0.061475333;-0.064907625;-0.13362995;0.102205664;0.03750542;-0.02708105;-0.061490633;0.044550132;0.069278665;-0.17026892;0.0077316654;0.16259024;-0.035520464;0.009324851;-0.030738028;0.13362956;-0.12103705;-0.018386997;0.034649234;-0.030367175;-0.061310805;0.03256555;-0.04379364;-0.38787836;0.17052107;0.022496;0.042101763;-0.016542247;0.08808973;0.14370626;0.01731997;-0.06682849;0.21521242;-0.17810959;-0.014728789;-0.019452337;0.031395994;-0.052197263;0.120044366;-0.04789209;0.12524326;0.1950646;0.03744736;0.15758488;0.07574531;-0.22812846;0.22485033;0.121662416;-0.14551672;-0.076069385;-0.031224754;-0.0024294602;-0.042429253;0.09800765;-0.06184499;-0.08156331;0.099741906;-0.05917896;-0.024645329;0.067907594;0.14353186;-0.021428267;0.050642762;0.022767207;0.13573974;-0.09254903;-0.12958002;-0.30557775;0.0946304;0.020109285;0.039694734;0.041909873;0.06854325;-0.053261984;0.0104182875;-0.04301608;0.034291822;-0.3011992;0.014493878;-0.012265952;-0.21496142;0.28026006;-0.4005692;0.098595776;-0.006675283;0.0076265386;-0.03207574;0.024881357;0.017960414;-0.09043394;0.0056891553;0.010006946;-0.02799157;-0.036739785;-0.08160399;-0.004043132;0.043636713;0.14284693;0.13315693;0.0019270916;-0.008154376;0.023675276;-0.028724682;-0.16607055;0.020767668;0.22258879;0.023149963;-0.11407282;-0.038567897;0.10861622;0.033437654;0.13875066;0.028705917;-0.10411759;-0.04866884;-0.21392669;-0.030992316;-0.09366337;0.03975319;-0.20662534;0.013753607;0.2963916;-0.20655009;-0.06186496;0.07060366;-0.23954225;0.06308234;-0.21464366;-0.06288593;-0.22229154;0.23843683;0.10733386;0.09082094;-0.02669632;-0.05111409;0.024193535;-0.055048283;-0.17625634;-0.14424807;0.02647483;0.06666365;-0.047122043;-0.06810994;0.15275729;0.06081771;-0.05826819;-0.20692237;-0.012063157;-0.091125995;0.06333824;-0.014183039;0.2303231;0.16556127;0.15138686;0.09672419;-0.029437711;0.29103348;-0.05454714;-0.06929645;-0.10132712;0.37461194;-0.07909342;0.19612557;-0.13633244;0.08219775;-0.0019662122;-0.015953204;0.22717151
0.039787218;-0.020853665;0.16709383;-0.0045351163;-0.0369386;-0.17052414;0.060246773;-0.05931125;0.09106213;-0.10171488;0.07134455;0.024246354;0.11326611;-0.3027586;0.07996125;-0.008347266;-0.040840372;0.077501625;0.04578681;-0.037716135;0.11510654;-0.0013903889;-0.20763846;-0.26179796;0.05381126;-0.1617767;-0.23936947;-0.11502212;-0.035195965;-0.04421719;-0.08393593;-0.0032378423;0.18934442;0.17470238;0.043264043;-0.0017407961;-0.03807851;-0.018416906;0.10093506;0.20929076;0.02271345;0.22431387;0.024298232;0.11603054;0.025550192;0.25928038;-0.112548545;-0.14479037;0.07355787;-0.028425561;-0.24156222;0.0011300349;-0.0807239;0.16351902;-0.24256966;-0.061668463;-0.5027095;0.25480402;-0.21572386;0.1630671;-0.14997846;0.223652;0.023739723;0.07096065;-0.021082139;-0.019689089;0.15355796;-0.04767446;-0.276949;0.03328201;-0.026352126;-0.10203918;-0.29015917;-0.14319883;0.06440574;0.047875285;0.0025144664;-0.16190241;-0.21922147;0.14489625;0.19056049;0.11662314;-0.19715561;0.04943835;-0.17005534;0.023325019;-0.4385391;0.06269698;-0.21472077;0.04799324;0.09910317;-0.08254567;-0.12588184;-0.21425743;-0.09927863;-0.046866167;-0.020680433;0.14844869;-0.028952619;-0.05096085;0.024450934;0.14187272;-0.23511548;-0.00497186;-0.077620976;-0.04508594;-0.029209048;0.025248758;-0.03891651;-0.04390219;-0.020212732;-0.2753465;-0.0761414;-0.3844083;-0.008602441;0.003314945;0.06497374;-0.10571354;-0.031768307;-0.09211729;-0.048710134;0.2526628;0.035904627;-0.09587392;-0.269852;-0.043387223;0.0012096146;-0.061762583;0.11178916;-0.036172178;-0.09559925;0.09170582;0.17033488;-0.04348351;0.0493019;-0.025742956;-0.1738108;-0.03321471;0.06523222;0.010370213;-0.19631813;-0.13679847;-0.06096695;0.005453807;0.035091553;0.26189646;-0.03912671;0.07894619;-0.021394555;-0.035812125;-0.36424208;0.013486896;-0.035491984;0.025241211;-0.04781607;-0.039910756;-0.22647224;0.026831774;0.028141605;-0.021018839;0.21803732;-0.085891604;-0.042535663;-0.01569417;-0.01405213;-0.25898695;-0.033442568;-0.18703498;-0.27927506;-0.12843767;0.059221316;0.046806894;-0.0909617;-0.013235857;0.047910754;-0.03740408;0.1789435;0.018979987;0.06876473;-0.23785423;0.022725714;0.19637634;0.04618529;0.042617545;0.005910979;-0.020861937;0.081582256;0.06740103;-0.052950386;-0.060635485;0.41876963;0.014852067;0.03546821;0.06736169;-0.07920602;-0.042068724;-0.039368782;-0.26777026;-0.08404587;-0.1725505;0.25596452;-0.04479865;-0.00028028683;-0.09062427;-0.27833378;0.0719581;0.01913465;-0.016578281;0.28991982;-0.052182015;-0.022691367;0.04139772;-0.10613069;-0.08524107;-0.014549385;0.029503599;-0.1609502;0.04408072;0.0046498543;-0.1292484;0.047742583;0.07543386;0.17871906;0.046345413;0.100329414;0.15123832;-0.027968496;0.17394254;0.0058431937;-0.11001829;0.05392787;0.08291504;-0.031096874;0.040836122;0.12461975;-0.12526801;0.12955934;-0.1276236;0.05201677;-0.12202485;0.055759683;-0.040096313;0.011980183;-0.068621464;0.06410646;0.005953434;-0.2613037;0.09370938;0.017075531;0.09435699;-0.014565513;-0.26972356;-0.16782199;-0.101893745;-0.2350195;0.18681641;0.023898844;0.21444115;0.05105736;0.14336213;-0.21901709;0.3048409;-0.058515415;0.026949506;-0.050781894;-0.026750654;-0.025312427;0.015366603;0.070768006;0.23507045;-0.010236825;0.01811411;-0.025293538;0.19315729;-0.027923606;0.050542235;-0.354406;0.033179153;0.007709415;0.18084548;-0.009351983;-0.3713258;0.034833718;-0.15014246;0.09115677;0.056353934;-0.1596998;0.0070532826;-0.047840632;0.07897604;-0.12237683;-0.040292937;-0.039775196;0.1334351;0.07777366;-0.07132206;0.042264886;-0.22562467;-0.0019531832;0.04396131;0.12340169;-0.26855445;-0.021515561;0.065875664;-0.023102969;-0.023003459;-0.0027995075;-0.04935515;-0.2223466;0.095801055;-0.20625906;-0.07575086;-0.20708737;0.010308153;-0.08189146;0.1524901;-0.16828303;0.017003316;0.08533572;-0.009984176;0.025349325;-0.017626902;-0.09246118;-0.039968856;0.007596545;0.062688254;-0.032451108;-0.025158945;0.056851916;0.02180719;0.04255703;-0.046320774;0.021920124;0.0040024146;-0.12105867;0.056199227;-0.397436;-0.2742113;0.0057224995;-0.026699286;-0.021161998;-0.015558643;-0.083984144;-0.2334673;0.022270793;0.06408768;0.009899496;-0.06811042;0.0998743;0.06896042;0.013452239;0.31056198;0.07125405;-0.068518035;0.0230815;0.14763632;-0.01871646;-0.19204047;0.016974175;0.11323446;0.27603328;0.014768364;-0.03242017;-0.25990617;-0.05308532;0.04953817;-0.0129864095;-0.03458466;-0.075936124;-0.13010989;0.09930453;-0.19804007;-0.0045537762;-0.03557183;-0.103692345;-0.19189934;0.0028656798;0.044911213;-0.13807328;-0.02773475;-0.2892985;-0.27876845;-0.044432767;-0.056337543;-0.018650055;-0.054288846;0.033865023;0.08227707;-0.25662434;-0.016582238;0.0071264557;0.1225673;0.01049548;-0.07603308;-0.012093334;-0.056527935;0.0059120795;-0.25280714;-0.05943615;0.02548231;0.4609577;0.06623602;0.049620386;-0.27314;-0.24275796;0.17906357;-0.17872922;-0.1177489;0.08098903;-0.06927558;-0.05683798;0.057570294;-0.05859709;0.15078115;0.023110049;-0.004560346;-0.084754534;-0.06381506;0.15202497;0.20598364;0.07313262;-0.016042521;0.06615201;0.055399194;0.050921604;0.04572484;0.14736184;0.018064573;0.26305425;0.02603938;0.0068393964;-0.18701757;0.08983318;-0.06640821;0.02215578;-0.04626077;0.19422108;-0.14336748;-0.04515496;-0.0435356;0.17094308;-0.11300711;0.037808828;0.08821085;0.0013576378;-0.09257844;0.07154624;0.03193171;0.0497871;0.25995803;0.0073002726;0.2168263;0.032759666;-0.23981442;0.08131554;-0.037592124;-0.10176845;-0.049865082;-0.07772434;0.04275519;0.022907723;0.12202997;-0.1064685;-0.12182348;0.033795454;0.06418555;-0.06239907;0.0025085257;-0.05470983;0.024838047;0.12879075;0.04763054;0.10491224;-0.19865958;-0.37949648;-0.4062986;-0.10560202;-0.006773102;0.2255708;-0.02068818;-0.084722824;0.00866768;0.06259829;-0.014578274;-0.031792723;-0.27415857;-0.029958555;0.0011678985;-0.2263852;0.20665258;-0.3589958;0.28792813;-0.11615364;0.038610276;0.0045582955;0.14804816;0.065739065;-0.2947501;-0.05411649;-0.00704947;-0.032525316;-0.04013389;-0.019468881;0.03634211;-0.016816856;0.038748298;0.14378503;-0.026279606;-0.016468132;0.028015262;0.065646276;-0.14884251;0.07723841;0.24511272;-0.021342548;-0.023532243;-0.077499814;0.21490268;0.040069625;0.038344342;0.047505643;-0.03410568;-0.08823688;-0.2403057;0.0606209;-0.010032649;0.021943303;-0.24352312;-0.0017439063;0.29087198;-0.122136675;-0.2738867;-0.043466438;-0.11022004;-0.053377148;-0.09234445;0.05900354;-0.1752636;0.28522658;0.1718153;-0.04258104;0.055332523;0.024381643;0.028133562;0.07285404;-0.20728171;-0.13147247;-0.015538775;0.0054935617;0.060109403;-0.1219849;0.07778994;-0.12622482;0.08731799;-0.06432584;0.08502893;-0.03906753;-0.03347025;-0.014069897;0.24173114;0.084500216;0.16947535;0.029128954;-0.02312262;0.2708326;-0.0062414813;-0.1600481;0.03414778;0.16344558;0.038809475;0.09757137;-0.099010825;0.122458056;0.03242303;-0.06538217;0.14755493
-0.012079255;0.034850407;-0.021951571;-0.0475328;-0.03769634;-0.137402;0.02488997;-0.02111812;0.3786323;-0.114271775;0.044850856;-0.006372257;0.10744151;-0.058827426;0.23897666;0.020588184;0.2708151;0.117701374;0.06799202;-0.06585359;0.094677046;-0.02548592;-0.26077434;-0.37194812;0.008536589;-0.15559298;-0.1473956;-0.11767142;0.01779656;-0.18147036;-0.18354954;0.037050165;0.2980532;0.16345479;-0.021760553;-0.043442857;0.08853169;0.10364202;0.03513036;0.19854659;-0.05841989;0.27388167;-0.053488266;0.14099017;-0.0034594035;0.05951455;-0.14851908;-0.122302845;0.0016138983;0.05733027;-0.113353804;-0.0026372664;-0.06680224;0.22366048;-0.28282917;0.046704996;-0.515351;0.11249963;-0.22420721;0.20302576;0.009447925;0.15234761;0.012140148;0.012905358;0.0030215043;0.05421067;0.14231206;-0.1410515;-0.2897675;-0.049257938;-0.0037038731;-0.20515935;-0.16227435;-0.089042045;-0.08262264;0.0641714;-0.007548753;-0.04162463;-0.16933292;0.28235057;0.12494272;-0.033718422;-0.20759304;-0.033477504;-0.16788939;0.05434996;-0.40581775;-0.037502978;-0.16727382;0.28296563;0.00055708195;0.07459359;-0.1278384;-0.06553914;0.012463501;-0.0014748535;0.026229573;0.08368685;0.011204272;-0.12144355;0.020347564;0.08564536;-0.16767995;-0.02911241;-0.089269675;0.05557247;0.036160044;-0.020903334;0.0162286;0.115147255;-0.021489859;-0.1861498;0.011710211;-0.3785899;-0.004066394;0.050448235;-0.051693358;-0.09313829;0.022519011;-0.18451713;-0.07048176;0.22994564;-0.03485055;-0.09143313;-0.2641585;0.019876523;0.009516183;-0.07601539;0.09650916;0.0013165473;-0.16085596;0.30280602;0.09558454;-0.011177647;0.17609769;-0.031650074;-0.021486988;-0.030867808;-0.08122685;0.03193685;-0.26362196;-0.26719716;0.051130395;0.057439916;0.15997332;0.1662828;-0.0074749663;0.045872014;0.008293873;-0.12959814;-0.3949835;0.0983217;-0.0696864;-0.0998408;0.009061105;-0.04433429;-0.17416596;-0.07097714;-0.034211084;-0.0071585444;0.02696422;-0.13528861;0.0030232787;0.008985513;0.0052219653;-0.3394098;0.0002515239;-0.19594839;-0.18341318;-0.08202815;0.114362374;0.16859913;-0.16772054;-0.032056;0.0033599394;0.004118279;0.18496683;-0.03382822;-0.13939841;-0.37276477;0.0099619245;0.1180612;-0.02967018;0.10729919;-0.052323457;-0.027172055;0.11681401;-0.010692575;-0.027251301;-0.08607497;0.39988485;-0.0108344015;-0.014547185;0.048876554;-0.08362447;-0.022189092;-0.052809805;-0.32102215;-0.085087165;-0.01018795;0.14114365;-0.07261771;0.102167316;-0.0781927;-0.14414607;0.21458668;-0.048317935;-0.06269783;0.44524375;0.06994836;0.037759427;-0.03396566;0.019250646;-0.018998075;-0.061815873;0.02622982;-0.03754022;0.015997745;-0.010989086;-0.02286566;0.091652095;0.025218297;0.1367674;0.017876657;-0.018059349;0.14444444;-0.016915988;0.16891173;-0.03165276;-0.14879264;0.017848209;0.042571053;-0.055121306;-0.14342827;0.08465187;-0.21607609;0.11967838;-0.06882058;0.002709534;-0.13584481;0.028732525;-0.15110458;-0.028611766;-0.11735858;0.011354458;-0.0031150503;-0.27918097;-0.019752799;-0.0845515;-0.03860201;0.031350154;-0.09682623;-0.10088834;-0.04602503;-0.14267573;0.073944874;-0.055818137;0.25289324;0.021991797;0.028126512;-0.17940944;0.27460888;-0.101675734;-0.015722191;-0.14305227;0.0030187075;0.094226584;0.045818716;0.09668718;0.2517449;0.0019287698;-0.007971329;0.03533331;0.048899792;0.020916475;-0.065195955;-0.31092766;-0.059345543;0.06633621;0.04454388;0.094980955;-0.34737206;0.052777063;-0.2230603;0.10193545;0.05623384;-0.30036917;0.10924103;0.01096856;0.03532755;-0.13544673;-0.025314424;0.025471978;0.13412447;0.07235676;0.038540915;0.075915195;-0.124608606;-0.012365121;-0.03046918;0.12569785;-0.3271286;-0.002480334;0.03710047;-0.01500198;-0.010557059;0.16190661;-0.12541765;-0.13599011;0.026026081;-0.16046669;-0.051388282;-0.14965652;-0.10610894;-0.02662573;0.12529771;-0.09542067;-0.050420295;0.2043651;0.07406756;-0.04972357;-0.0012051528;-0.084582776;0.04606982;-0.016733957;-0.005124377;-0.000935437;0.01653487;0.13035016;0.021495322;0.0065516047;0.06232976;-0.011124599;-0.022014178;0.02112717;0.07229709;-0.5198165;-0.22005928;-0.0041731447;-0.059511602;0.0063793175;0.06661384;0.021159455;-0.33500403;-0.08061832;-0.08679781;0.052821327;0.10016416;-0.07601771;0.07693639;-0.049033124;0.32499072;-0.02668216;0.01791958;0.015955852;-0.012005885;-0.011304327;-0.24293941;0.16226286;0.026248638;0.11413435;0.0712812;-0.034196638;-0.14886542;0.058688737;2.2336117e-05;-0.0035206357;-0.08171317;0.08323649;-0.22078204;0.226173;-0.059727132;0.0659175;0.033510044;0.13257314;-0.24740854;-0.00032778783;0.048886634;0.0014428709;0.017705072;-0.281421;-0.3554296;0.05397682;-0.047845826;-0.076233864;0.023407174;-0.07794444;0.10836101;-0.23117761;0.011169924;0.13162912;0.17689796;0.022549812;-0.018739164;0.018515429;0.059271153;-0.13921785;-0.3923636;0.030429259;-0.037727725;0.50370234;0.16824444;0.11123836;-0.14004247;-0.054574955;0.1819251;-0.046269026;-0.16896757;-0.017728152;-0.046386156;-0.018176002;0.0015565415;0.007251831;0.059063345;0.008959925;-0.13572505;-0.012916782;-0.03237746;0.18539771;0.20509449;-0.011881491;0.029162679;0.020091798;0.21646649;0.0727238;-0.043336973;0.02386397;0.02029361;0.34480977;-0.03701329;-0.0265307;-0.22668126;0.19033512;0.006261046;0.033402905;0.010591564;0.23371637;-0.10852923;0.009796342;0.043179847;0.21096805;-0.031758074;0.059985768;0.037487336;-0.005527852;-0.27071512;0.04797007;-0.022706233;-0.02311909;0.2161727;-0.008089324;0.30301335;0.32825652;-0.21098804;-0.0032076894;-0.038234584;-0.12294985;0.039180044;-0.016455783;-0.0046566883;0.076560736;0.18995826;0.013031297;0.011946051;0.107640274;-0.0077687385;0.025677333;1.818149e-06;-0.0909487;0.029694907;0.014255947;-0.083407186;0.25367215;-0.11833253;-0.2529957;-0.40129173;-0.14739826;-0.015836347;0.16913329;-0.03663016;-0.03621831;-0.019307757;-0.033854026;0.056252815;-0.01747913;-0.033905745;0.029634036;0.03356519;-0.19475119;0.33107477;-0.24941954;0.20814842;-0.103089266;-0.085300766;-0.032616306;0.21040446;0.101688266;-0.22203079;0.04191375;-0.010227078;-0.112472884;0.07269802;-0.0120903645;0.05339337;0.00053216424;-0.081597105;0.16406304;0.05827172;0.022818504;-0.03604169;0.019739697;-0.09724195;0.14174712;0.37221834;0.006007093;-0.083740406;-0.068889506;0.18887925;-0.03878641;0.002807685;-0.020503802;0.015901636;0.05326433;-0.13795893;0.0012651308;-0.068985134;0.03388211;-0.14350109;0.04673627;0.25589398;-0.11959614;-0.21373446;-0.0072904583;0.078571685;-0.03869572;-0.1670375;0.08958023;-0.042228583;0.26932842;-0.016527815;-0.0057183653;-0.03250278;-0.035931654;-0.04308673;-0.03125378;-0.24105665;-0.012408954;0.019529743;-0.04548421;0.12996326;-0.09120633;0.08416105;-0.18767676;-0.057441622;-0.09340694;-0.016418666;0.01815049;0.010629022;-0.010789378;0.15786941;0.04830606;0.06565468;0.022609174;-0.03886278;0.13738668;0.047572177;-0.22577967;-0.04948431;0.1327096;0.010926426;0.20624804;-0.08823503;0.064958945;0.013674571;0.032017138;0.03701756
-0.07638574;-0.018240687;-0.102376714;0.0439472;0.05084275;-0.22573063;-0.04559767;0.048680775;0.33444765;0.027827283;-0.047892135;-0.02099268;-0.06530276;-0.16416794;0.22034329;-0.040335514;0.337352;-0.05805228;-0.06629348;0.049047638;0.013806414;-0.015515646;-0.11579622;-0.4039227;0.14600894;-0.15953319;-0.1130798;0.060875002;0.05439688;-0.016059058;-0.056021664;0.07684166;0.336144;-0.016012102;-0.04614262;0.03048931;0.12615715;0.11046543;0.060273863;0.16775961;0.031114565;0.09929939;-6.643972e-05;0.124589145;-0.06953606;-0.06889568;-0.057389032;-0.053426392;0.033406053;0.00342569;-0.15948392;-0.02989278;0.08413398;0.15664588;-0.10330767;-0.0046933326;-0.46101487;0.044118036;-0.4042842;0.052890897;-0.043435592;-0.038823742;0.11942803;0.07891098;0.07090216;-0.04727163;0.12321272;-0.036645275;-0.05205812;0.016748281;-0.012537474;-0.0035828673;-0.13766119;-0.02911332;0.035776276;-0.034652773;-0.04877777;-0.098201;-0.09563751;0.35484093;0.12719546;0.08286277;-0.26023;-0.039691944;-0.25551382;0.07511468;-0.300829;0.030391134;-0.267454;0.116229415;-0.0006612117;0.14660333;-0.11455792;0.0498347;0.09540639;0.0882569;0.03492268;0.120579444;0.020736791;-0.07640955;0.032979194;0.1322812;0.020529427;0.013882008;-0.006425528;0.026404291;0.04141742;0.014754625;0.01310622;0.054075744;-0.069827475;-0.15328147;0.029011197;-0.42852038;-0.0024655021;0.105434485;-0.05084646;0.04893943;-0.055557992;-0.20509417;-0.044492222;0.29552865;-0.0052569136;-0.03251954;-0.28581282;-0.036222603;-0.010185787;-0.12154618;0.04963948;0.047393724;-0.024127174;0.32990867;0.04986517;0.004779728;0.15831918;0.03236975;-0.07968984;0.024902731;0.04691673;-0.05604567;-0.04470787;-0.27879986;-0.029922597;-0.13476293;0.12752423;0.22580355;0.04776479;-0.08554988;0.013621389;-0.07567979;-0.23501858;-0.062076807;0.08554338;0.19778599;0.052217226;-0.19588152;-0.11593362;0.003143738;0.02455003;0.010790665;-0.13854897;-0.111033365;0.026535677;0.029881094;-0.23062286;-0.2668927;0.039467856;-0.10802119;-0.177606;-0.089040145;0.029633244;0.1717299;-0.13382408;-0.20512973;-0.020484436;0.014013211;0.00039298675;0.065614365;-0.35421124;-0.2541135;-0.04818485;0.12877026;-0.00028871495;0.122659884;0.0020560897;-0.023940206;0.009099726;0.033487853;-0.10420901;-0.074563794;0.4567485;0.11244781;-0.03087933;-0.04969742;-0.27011028;0.0061166184;-0.016586017;-0.22441956;-0.00077519176;-0.023677573;0.30104324;-0.04768069;0.05580835;0.03647584;-0.23868288;0.19069071;0.003774316;0.06059615;0.45561904;0.022808023;-0.01812831;0.0069887755;-0.045581464;0.071332626;0.08546483;0.021256136;0.0066775028;-0.045254383;-0.035315983;-0.03604438;-0.084812;0.04755585;0.2413606;0.16781998;-0.037162665;0.06525549;0.082265146;0.17130958;0.026125114;-0.037786543;0.010944876;-0.10386969;0.028863695;-0.07295022;0.0061322134;-0.06312464;0.17487024;-0.025290532;0.03845396;-0.049805075;0.02801226;-0.2008794;-0.010064806;-0.060706235;0.06311665;0.0286913;-0.1504958;0.007626469;0.008218464;-0.020289961;0.03954818;-0.20229656;-0.07417777;-0.0046659713;-0.17463575;0.124781154;0.0199269;0.2189947;0.014359444;0.098479934;-0.21618415;0.33033094;-0.3263453;-0.0041908124;-0.06791559;0.051819876;0.15471348;0.0029538532;0.00191013;0.13234471;-0.009063139;0.030418683;0.017985359;0.031530302;0.021046693;-0.008301146;-0.4517451;0.080167435;0.06663029;0.111257486;-0.01095993;-0.31322047;-0.031824447;-0.30570418;0.2709264;-0.09365385;-0.24703565;0.15762845;0.06815469;-0.04665472;-0.15498878;0.056625433;0.048929915;0.28589496;0.10757771;0.022178888;-0.049945895;-0.11993775;0.02361179;0.03902013;0.27833256;-0.3332739;0.08349599;-0.12187151;0.007896855;-0.074986786;0.049331713;-0.06845794;-0.26769364;-0.030701915;0.034388766;-0.043620497;0.020965686;-0.0067093265;-0.010397247;0.14219311;-0.14068577;0.0063532493;0.2612297;0.1526209;0.021914277;0.0026914424;-0.051044434;-0.013943469;0.02712456;-0.010744677;0.010573397;0.0351047;0.17759301;-0.011775536;0.07338457;-0.013922768;-0.02871586;-0.01888739;0.07969052;0.16139036;-0.3955496;-0.24316801;-0.039326128;0.20290966;0.0054827346;-0.009290225;0.0276731;-0.2186052;-0.13091542;0.044597153;0.045065336;-0.023099246;-0.1623419;-0.07195258;0.06438807;0.32061324;-0.033768583;0.025950436;0.065165326;0.03160294;0.0151688885;-0.071403615;0.09583524;-0.02706583;0.13048205;0.1501769;0.02382664;-0.009185249;-0.015659554;-0.05375287;-0.040894154;-0.10014154;0.14089352;-0.12220835;0.17119591;-0.00891608;0.08032058;-0.011128531;0.11019285;-0.14164282;0.0030225653;0.18977092;0.040342644;0.047068883;-0.2090633;-0.34814155;0.04257888;0.072775595;0.04472746;-0.06927076;0.012708046;0.038655095;-0.16310862;0.03489112;0.14884923;-0.027035052;-0.008327217;-0.067415185;-0.03129981;0.23160237;-0.03943153;-0.2536315;0.026403211;0.03412634;0.33977088;0.03872825;0.12825052;-0.122204885;0.06789881;0.06716679;-0.01812068;-0.09699937;-0.029612042;0.06865944;0.03700733;-0.04024928;0.014035918;0.08531619;0.11494347;-0.17787619;-0.055879395;-0.019122345;0.1719517;0.06670581;-0.031025056;-0.044011157;0.011391533;0.14007837;0.010033991;0.0507678;0.15770032;-0.015841946;0.26118848;0.03810287;-0.007051852;-0.15837838;0.14488035;-0.013519182;-0.009697696;0.08203459;0.3078761;0.116479635;0.026390309;-0.0058738575;0.2652159;-0.043018077;-0.09171575;0.29697037;0.009763659;-0.12359461;0.2097729;-0.05344214;0.02942104;0.31680787;-0.06033518;0.17318887;0.19532278;-0.4346819;0.10528632;-0.092576124;-0.060873315;-0.09955302;0.015201367;0.022532364;-0.11512568;0.11746226;-0.08837744;0.11769446;0.111912906;0.013050587;-0.012743954;-0.09983102;-0.08821882;-0.054840356;-0.00469223;0.035158634;0.2528384;-0.08912746;-0.3413272;-0.3320666;-0.1699818;-0.015364733;0.18301125;0.002579146;-0.131665;0.068322025;0.015849728;-0.060166966;0.0201992;-0.06267861;0.005633252;-0.015464115;0.040176168;0.33313814;-0.16309471;0.1516263;-0.09469615;-0.023975067;-0.0012601906;0.28306082;0.18254322;-0.23237117;0.06881074;0.060464107;-0.09416378;0.013018659;-0.047677226;-0.043408677;0.043935645;-0.0371601;0.09641094;-0.035435915;0.023128854;0.015161273;-0.1475537;-0.035885118;0.06320875;0.20976639;0.057780962;-0.109058924;0.013578647;0.02721808;0.021343507;-0.07744486;-0.016214216;0.17928863;0.0104943905;-0.14225507;-0.02594119;-0.117925;0.047809895;-0.13871919;0.14055374;0.23854397;-0.019712832;-0.1130091;-0.021223525;-0.0054072225;0.013889442;-0.07650416;0.07406158;-0.21550433;0.2358774;-0.041161463;-0.048460566;0.019400774;0.08509127;0.014368302;0.053762283;-0.1709316;-0.013891723;-0.006116879;0.02646297;0.12131381;-0.14404462;0.0076584467;-0.11910957;-0.030875022;-0.03611938;0.099112675;-0.14736134;0.008524999;0.03849057;0.21554531;-0.1150496;0.11007622;0.018011566;0.006872021;0.14798261;0.026561009;-0.12805389;0.054870658;0.019321749;-0.033371855;0.28742748;-0.043007236;0.08466661;-0.01953142;0.033588197;0.093587
0.023097845;0.073022604;-0.18382783;-0.025319826;-0.020906508;-0.33087918;-0.021440547;0.024405055;0.3540689;-0.13573866;0.01788483;-0.114283204;0.022778004;-0.18858774;0.17044477;0.04649868;0.1529383;-0.026761971;0.031863;-0.031911206;0.006440809;-0.028392442;0.014907616;-0.29264992;0.1160679;-0.15980266;-0.15750311;-0.005655154;-0.041557994;0.06326866;-0.07638774;0.1657057;0.18907599;-0.10337444;0.03361765;0.021568947;0.11905972;0.20605677;0.0029531913;0.23459415;0.046327163;-0.065007254;0.01919416;0.11482178;0.052491974;-0.145113;-0.12274637;-0.23266461;-0.114745505;-0.026821261;-0.1802913;-0.0019946378;-0.06970106;0.19475111;-0.1051649;-0.057772364;-0.24690065;-0.010973649;-0.29909027;0.13433504;0.07440196;0.04344778;0.03177258;-0.057667438;-0.023948327;0.051888328;0.14545909;-0.20979476;-0.05976504;-0.046179138;0.04939684;-0.08306135;-0.16957076;-0.004922317;0.01708401;-0.060546026;0.025827494;-0.14314139;-0.089103535;0.25934947;0.085141994;0.12479674;-0.16855323;-0.012568983;-0.29051796;0.033882253;-0.3535959;-0.04047117;-0.37115097;0.050018266;0.065114625;0.11338364;-0.13320653;0.20704299;-0.040724784;0.049131908;-0.013796522;0.2546789;-0.056268457;0.0901845;-0.08617819;0.11529845;0.1768909;0.025541503;0.120951846;0.05682592;-0.021627333;-0.061214168;0.05571097;0.083267845;-0.10561966;-0.24747266;0.025552012;-0.31016725;-0.011690492;0.07930704;0.040839896;0.09655414;0.030696198;-0.21220137;-0.16784374;0.052511223;-0.015196058;-0.24089225;-0.17688207;0.0007616028;0.020692369;-0.042910818;-0.028155012;0.0022136876;-0.072540455;0.093800925;0.10239761;0.054830976;0.13233027;0.007999143;0.17306653;0.030797575;-0.04092126;-0.015621832;-0.040256057;-0.19425388;-0.05640435;0.01679555;0.008269604;0.04358154;-0.09840762;-0.12217648;-0.039553545;-0.13309368;-0.19495517;0.023256348;0.0048370007;0.17863773;-0.030162588;-0.21731946;-0.16258861;0.018266901;0.05478511;-0.058006093;-0.16960236;-0.054418698;-0.057194665;-0.055586312;-0.21960725;-0.2492622;-0.07334054;-0.12742054;-0.06656131;-0.23024765;0.11565138;0.23114482;-0.093588345;-0.122969665;0.04342294;0.044238236;-0.0018855961;-0.019650562;-0.41184184;-0.2739517;0.041561525;0.25400814;-0.1619012;0.0027551171;0.016380098;-0.0034579928;0.10424911;-0.09985448;-0.118735366;0.056080677;0.45332417;0.11796398;0.022855481;-0.03756725;-0.15844773;0.0806705;-0.016472884;-0.28023267;-0.15597485;-0.07797897;0.14814296;-0.19908528;-0.0590752;0.08387324;-0.06202083;0.11163998;0.011509572;0.043253385;0.29008904;-0.05278552;-0.011458618;-0.012620579;-0.12634347;-0.0061423504;-0.055123456;-0.0329736;0.085788146;0.008800164;-0.066041805;0.0062048207;-0.04114601;0.05854915;0.2090279;0.2148624;0.009811101;0.009182837;-0.036031194;0.18598759;-0.03544133;-0.0061711604;-0.0049220175;-0.2225596;0.10728339;-0.10580317;-0.023912936;-0.07218184;0.18221119;0.09556089;-0.05162133;-0.1533337;0.04825235;-0.21334502;-0.024987271;0.008204231;-0.0065003945;-0.06424277;-0.1614399;-0.049298596;0.0077249142;-0.028421456;0.055545453;-0.1231577;-0.04246056;0.11128516;-0.030973362;0.32281938;-0.05062969;0.21853969;-0.017444637;0.021134796;-0.14071548;0.5030183;-0.18286976;0.02300695;-0.047726173;0.01088077;0.18853334;0.008586934;0.19885768;-0.09371864;-0.04855152;-0.18656048;-0.000521386;0.14714457;0.006762275;-0.028726554;-0.54608005;-0.06815637;0.11347954;0.042831868;0.054248944;-0.3249734;0.0044887234;-0.2871952;0.27501124;-0.095325515;-0.0751827;-0.16129218;0.20521368;-0.045645263;-0.13686788;0.07714706;-0.04924616;0.24595492;0.06954056;-0.028674187;-0.19493067;0.1976024;-0.043064132;-0.053117678;0.13342772;-0.22762516;-0.04032425;-0.08352309;0.06483874;-0.00020678365;0.03949911;-0.11962453;-0.35352883;0.12469129;-0.10601339;-0.020308236;-0.007101023;-0.06574663;0.15521327;0.2994817;-0.21501616;0.040127598;0.24225977;0.07604072;-0.039615143;0.0076024006;0.006299557;0.010195888;-0.07146586;-0.0443291;-0.018433975;-0.05579395;0.27190706;-0.015148282;-0.08291706;-0.02889266;0.04902923;-0.013470647;0.08528272;0.17335968;-0.25294492;-0.33855397;0.04273566;0.17684564;-0.042700157;0.0016217944;-0.0029937448;-0.1368809;-0.08613684;0.11942167;-0.05280996;-0.04358222;-0.08669955;-0.004644904;-0.06726528;0.26547948;0.021269731;-0.09508415;0.020638729;0.07766344;0.05728691;-0.09114045;0.17548189;0.07496879;0.15222923;0.1842714;0.038213782;0.072150104;0.01949298;-0.04622699;0.06618719;0.035001777;-0.05582769;-0.17097475;0.1389245;0.022438047;-0.09046297;0.030639775;0.07541882;-0.010051867;-0.0024068996;0.23011291;0.2152803;0.019460445;-0.090048924;-0.2710681;-0.039064042;0.18111564;0.09051252;0.02580018;0.045556758;0.17147702;-0.18033628;-0.034751974;0.1837215;0.14576128;-0.011920162;-0.02400256;-0.010128255;0.21478115;-0.043413628;-0.253515;0.010835868;-0.0190316;0.5202318;0.022040684;0.071219586;-0.07178801;0.074449584;0.010674008;0.022754228;-0.048062798;-0.00988465;0.093833774;0.01555573;0.01434198;-0.015322749;-0.02410034;0.015538949;-0.107871346;-0.17623748;-0.016331492;0.0334879;0.103782214;-0.020194393;0.009142549;-0.034576405;0.077004075;0.11361125;-0.021314478;0.010360468;0.006140201;0.17788738;-0.025585959;-0.055982903;-0.22011532;0.23673038;0.042923663;-0.034614757;-0.07808437;0.14550643;0.14493237;0.002549488;0.034334973;0.113241576;0.062809944;-0.021255886;0.08625966;-0.03967863;-0.046428498;0.221869;0.068755575;-0.007856475;0.17588168;0.038081177;0.10657423;0.106880434;-0.3149796;-0.108094566;-0.19069883;0.036041893;-0.12495073;0.046099614;0.006587979;-0.28720132;0.29022843;-0.10978373;0.07199397;0.22135882;0.038913976;0.07440746;0.014215889;-0.1472963;0.048808362;0.23110704;-0.05117164;0.26965508;-0.32077852;-0.23385416;-0.37406322;-0.42289153;0.07108129;0.105497874;-0.044800498;0.09897357;-0.08114983;0.00019551726;0.026686255;0.030319663;-0.14751725;-0.022247408;-0.020913597;0.041199856;0.34428436;-0.24750356;-0.014642455;0.062915824;0.040144615;0.036732003;0.27442154;-0.0031911877;-0.05624346;-0.027664397;-0.07254479;-0.19636707;-0.03140093;-0.20930845;-0.021724613;-0.03711191;0.029779611;-0.05779526;-0.00983622;-0.0150218755;0.030242568;-0.085886486;-0.0071065584;0.12386729;0.32610664;-0.052780125;-0.15326937;0.105099015;0.06571939;0.030553805;-0.08358726;0.060260713;0.099394135;0.08209871;-0.083546594;-0.044110563;0.064948365;-0.036828395;-0.08062425;0.13732728;0.1429964;-0.0691493;-0.15654004;0.031551845;-0.0017509216;0.08441478;-0.21721886;0.07475093;-0.15245302;0.23534448;-0.1997265;0.046022076;-0.009430908;0.027008435;-0.008770611;0.24928378;-0.022716379;-0.045735117;-0.051038545;-0.02790768;0.04169365;-0.048025675;0.08323192;-0.05891218;0.049142208;-0.05424055;0.013327327;0.012201407;-0.024344595;0.055659004;0.22775793;-0.22859636;0.14284988;0.097757205;0.03424799;0.14642645;0.051794827;-0.10540467;0.071352154;0.040890034;-0.034585115;0.21335833;-0.06750785;0.14472136;-0.005524231;-0.034743033;-0.09710991
0.01747229;-0.020859614;-0.054680776;0.072707154;0.039256323;-0.31728736;0.045649607;0.020221835;0.23963939;-0.03175469;-0.06791446;-0.19254082;-0.0037733063;-0.08678206;0.16197146;-0.00055712543;0.16891514;-0.046668522;-0.051095325;0.070811264;0.15100953;0.05162026;-0.04335902;-0.10512875;0.19342308;-0.09691618;-0.12780264;-0.019133449;0.03257194;0.07266051;-0.05442768;0.21519329;0.019100204;-0.099660225;0.04456881;0.054400455;0.08642101;0.23923218;0.051111277;0.26459658;0.020100147;-0.0019264758;-0.02076493;0.08956303;-0.05121881;-0.21315537;-0.002021855;-0.23090598;0.10181633;-0.04460971;-0.05077503;0.032650154;-0.1257609;0.1060999;-0.034310635;-0.15400003;-0.31298912;0.020696722;-0.37102693;-0.072982736;0.13123307;0.100291714;-0.02983759;0.06466361;-0.040356018;-0.04470754;0.13714506;-0.1778745;-0.009833511;-0.049068708;-0.0059936163;-0.13589947;-0.2945714;0.098543525;0.044059362;0.0571234;0.0068560336;0.023082437;0.011278446;0.16963133;0.1068508;0.014669683;-0.015453149;0.0034355845;-0.29282504;0.20149557;-0.17929704;-0.020988459;-0.20387946;-0.028687114;0.14319739;0.21318483;-0.14012897;0.17681368;-0.009134651;0.020016635;-0.0060819383;0.064496;0.01793252;0.04197055;-0.07355553;0.1333537;0.11609814;0.035987895;0.06119904;-0.015664121;-0.022383278;0.039609727;-0.07284052;0.20031251;-0.066943616;-0.18316337;0.06361966;-0.38937327;0.010830925;0.053084575;0.0549861;0.14271383;0.03634562;-0.15462622;0.014667923;0.10687542;0.031967685;-0.23933455;-0.31255656;0.02628863;-0.02324952;-0.102071606;-0.02564408;-0.051379807;0.061143078;0.21718605;-0.034090493;-0.046050407;-0.005794617;-0.07106553;0.19013447;-0.07213073;-0.0095105935;0.0054688808;0.09357029;-0.056105338;0.039243884;-0.0019216452;0.035956334;0.21295784;-0.10769231;-0.20980775;0.027070342;-0.12295514;-0.13341743;0.07078832;-0.07433949;0.19222863;0.010911478;-0.026526487;-0.17460749;0.04015512;-0.0044473596;0.04818461;-0.10857042;-0.009908344;0.054178853;-0.005943093;-0.11213482;-0.1136032;0.067680374;-0.053439677;0.019862667;-0.12634873;0.029599497;0.118950196;-0.06715788;-0.06535404;0.0059360964;-0.028889924;0.069292314;-0.038956795;-0.33226457;-0.22702634;0.039537314;0.16500372;-0.16214515;-0.09197867;-0.0471086;0.036035612;-0.024697294;-0.056205638;-0.07364763;-0.009077283;0.3041891;0.09060141;0.0084375525;0.019872002;-0.06312558;0.05484095;-0.0025513181;0.012493561;-0.032661732;-0.05943379;0.055399783;-0.04071591;-0.04707335;-0.125732;0.05680731;0.0012552576;0.05996209;0.16441436;0.2905734;0.00012571135;0.007855372;-0.022200156;-0.124779776;-0.044951905;0.024513379;0.015214203;0.06490439;0.041116156;0.024525866;-0.121238954;-0.039406806;-0.02105573;0.13621362;0.19111271;-0.012006647;0.17006968;-0.042883087;0.07935958;0.033065543;0.019592138;0.002245629;-0.16041051;-0.03615073;-0.033548895;-0.0708422;-0.13128397;0.13040394;0.2493678;-0.060900804;-0.08514827;0.1282378;-0.105552025;0.09540915;0.017048078;-0.06863944;0.015558221;-0.19671415;-0.029394258;0.07515701;-0.019939963;-0.08205578;-0.14762835;0.020398749;0.21625105;-0.017764933;0.25626424;0.020398939;0.26881117;0.14265339;-0.036835928;-0.087968715;0.3315784;-0.18226953;-0.018012842;-0.12180417;-0.03330159;0.14662404;-0.0031208158;0.14010224;-0.14261003;0.07187553;-0.14315951;-0.056764916;0.32629192;-0.053597875;-0.0029023811;-0.30826154;0.019554086;0.1258174;0.06577974;0.1426229;-0.36277243;-0.040205255;-0.18356079;0.14716409;-0.19649678;-0.1650376;-0.17600167;0.1546128;-0.0964018;-0.00632645;0.011405864;0.023849169;0.27554077;0.13339213;-0.01572232;-0.1484086;0.2852278;-0.02808247;-0.009122915;0.32649457;-0.23760565;-0.03766218;-0.001804862;-0.04497613;-0.07152482;-0.106230885;0.04536374;-0.33665323;0.28206193;-0.06663223;-0.01637702;-0.0536224;0.08045649;0.14278798;0.2855244;0.025951829;-0.032334358;0.18228532;0.15896384;-0.0038203208;-0.02689243;-0.10487647;0.026286548;-0.02883029;-0.036131658;-0.013287961;-0.003155389;0.22015594;0.06490885;0.03751883;-0.0038443839;0.13382961;0.040620793;0.07796319;-0.035647042;-0.42104447;-0.27386677;-0.05959092;0.1481612;0.009283465;-0.03893338;0.123604655;-0.12072014;-0.095082074;0.13865034;-0.15142493;0.08339041;-0.13546142;0.008044725;0.04223635;0.27712747;-0.034759592;-0.20251885;0.19852906;0.09041153;-0.058962792;-0.12532485;0.10670394;0.08796272;0.06570317;0.18862875;0.017851856;0.2972766;-0.011825293;0.025165502;-0.0516642;0.023252677;0.022567231;-0.06492354;0.0024202846;0.21890415;0.037243985;-0.0444258;0.0430706;-0.14828467;0.04333424;-0.008264658;0.18953933;-0.048969205;-0.00090989517;-0.17122327;-0.061159413;0.11340992;0.13486357;0.05016604;0.017156439;0.08940636;-0.18578634;0.032332655;0.23674707;0.1467354;-0.051087294;-0.060523737;0.0510091;0.11193425;0.0153341945;-0.10905778;-0.033039514;0.00038651412;0.44770956;-0.106507115;0.0366143;0.071190685;0.0564831;-0.0063979477;-0.05634195;-0.08798819;-0.0016852709;0.21309899;-0.08043078;-0.17942366;0.034607902;-0.026191587;-0.055337362;-0.18174934;-0.07520178;0.023718145;0.18595082;-0.028281689;0.04086658;0.0024055308;-0.050501265;0.09593789;0.24265221;-0.00039161474;-0.009822941;-0.027065586;0.13560626;0.03544109;0.16833578;-0.162632;0.22805896;-0.003875705;-0.022698719;0.0012646925;0.11559124;0.042326093;0.02817991;0.10288475;0.029585723;-0.029861758;0.06637698;0.13188432;-0.058739122;-0.13187638;0.19764693;0.00033784105;-0.021930903;0.19476695;0.029429005;0.19041169;0.11579975;-0.602723;-0.07074818;-0.24906354;0.043169435;-0.13748528;0.03514731;-0.027490303;-0.20909506;0.26808792;-0.017933538;-0.09586788;0.3492252;0.011621836;0.0020599219;0.03975077;-0.21794184;-0.027537381;0.23030867;0.021307394;0.099803634;-0.23143403;-0.12334744;-0.36858565;-0.4496818;-0.06119432;-0.00077101256;0.05820292;0.05812188;-0.0305384;-0.027203733;-0.008790999;-0.025863267;-0.040066283;-0.007866254;0.02169652;0.10358112;0.26508513;-0.09772696;0.092188455;0.20003644;-0.0072928295;-0.018467572;0.32760793;0.087901846;0.052277368;-0.014618668;0.047376398;-0.18402384;-0.053333957;-0.15635312;0.014611393;-0.07121379;-0.013639146;-0.08469693;0.03210566;-0.002999233;-0.04559904;-0.037699196;0.07302975;0.13211708;0.24945405;-0.029320728;-0.26521555;0.12399836;0.16386308;0.0057720235;-0.1537827;-0.014446258;0.044772048;0.018519891;0.058393627;0.07852536;0.020972315;-0.03247137;-0.08304087;0.24253401;0.23121871;0.0103213005;-0.08914329;-0.015637526;-0.11204852;-0.04033934;-0.23411013;0.14567249;-0.034437682;0.23104236;-0.20732911;-0.0338502;0.01136845;-0.046570722;0.026757244;0.20758194;-0.008718703;0.059698094;0.025906581;0.014490605;-0.028829744;-0.0163675;0.0542223;0.016434046;-0.005281539;-0.07879963;0.14095294;-0.12113869;-0.0363685;-0.058504056;0.15274757;0.061836712;0.09901941;0.21253999;0.0470256;0.19040842;0.009162769;0.07904604;0.018558726;0.13749625;-0.06201552;0.29099095;-0.037794106;0.17891936;-0.015665438;0.0003505877;-0.13395688
0.025025805;0.01155415;0.047562405;-0.036587086;-0.045991194;-0.2420243;-0.013871087;-0.024463702;0.13080339;0.0035469094;0.04288112;-0.21748908;-0.034521397;-0.10277005;0.075391285;-0.053258784;-0.03028496;0.12486163;0.023881149;0.040414322;0.241659;-0.026701352;-0.023380881;-0.19564244;0.17821364;-0.06363909;-0.07940572;-0.25535747;-0.04024689;0.13093364;0.0027852731;0.17313975;-0.15934557;0.030401593;-0.045318168;-0.047225732;0.008438974;0.074989974;-0.051967185;0.096979395;-0.052139692;-0.0146909375;-0.008438502;0.00460415;0.038133837;-0.18898806;0.11610213;-0.27628905;0.10953044;0.017982151;-0.17329375;0.0174954;-0.1800921;-0.043580465;-0.07903983;-0.09249188;-0.43981025;-0.011525469;-0.4421042;-0.08647976;0.33841652;0.21356662;-0.069746956;0.08593901;-0.021056272;0.02229557;0.08395457;-0.1790938;-0.11148472;0.024677064;-0.0033606153;-0.10256969;-0.23098856;0.06174475;-0.05590435;-0.05171664;0.050932005;-0.09077817;0.094721556;0.11194162;0.18372667;0.16892208;-0.06805922;0.026983159;-0.22055225;0.22771406;-0.30979314;0.053802658;-0.25033814;-0.091425195;0.16797832;0.06380773;-0.12059997;0.08074866;-0.026788212;0.045502935;-0.032588497;0.03326093;0.0149163995;0.10895476;-0.07181035;0.14373988;0.13636284;-0.042304937;0.07772529;-0.09540995;0.01893191;0.0015391837;0.013388503;0.10646366;-0.09748435;-0.19134974;0.06583745;-0.3581394;0.013414651;0.22959451;-0.057614032;0.095309526;0.04556246;-0.19632056;-0.058404528;-0.004220485;-0.011041431;-0.26376826;-0.10676351;-0.014647207;0.020492395;-0.18397297;0.09408476;-0.025154296;0.054006584;0.20633416;0.086977474;0.004881386;-0.09543728;0.061563328;0.3039859;0.067319706;0.022639161;0.050430793;0.051526237;-0.039375268;0.043308146;0.09008398;-0.110565804;0.13687284;-0.0814608;-0.24785672;0.0023876633;-0.02463148;-0.2995604;0.014114188;0.052945007;0.05659078;-0.032166336;0.07659424;-0.28278625;0.03903577;-0.031868856;-5.959096e-05;0.055119365;-0.117569745;-0.006136378;0.023319034;-0.0955258;-0.08880688;0.17566675;0.015068;0.13265118;-0.04097176;0.11103206;0.15462193;-0.05949191;-0.0822264;-0.0414422;-0.02797936;0.06414408;0.05777554;-0.25499254;-0.17037779;-0.01970305;0.30660382;-0.18352501;-0.21800913;0.041758746;0.03277372;0.01132457;-0.0555145;0.14864448;-0.08899965;0.39073882;0.2700681;-0.0070248693;0.054146092;0.04671435;0.23101662;0.08228311;-0.0038977284;-0.1369178;-0.066936776;0.021953054;0.10740033;-0.07413434;0.06427207;0.075903445;-0.0019699011;0.034074087;0.05263114;0.3407645;-0.027927445;-0.03784179;-0.03187632;-0.07457651;0.027782666;-0.050889533;-0.017369596;0.02018415;-0.046625398;0.066415936;0.041783046;0.0951439;-0.026552433;0.17945674;0.18321574;-0.011667254;0.12428046;-0.0436759;0.059083045;-0.020800944;0.18768921;-0.0051495195;-0.08131739;-0.10326931;-0.20861483;0.053544413;-0.16801453;-0.028778682;0.32420564;0.05540806;-0.10295554;0.04396187;-0.05578401;-0.037436165;-0.0009008148;-0.04526254;0.016892677;-0.28101856;-0.09470729;0.04043534;0.05167046;-0.06058342;-0.11462417;-0.020781782;0.2058493;0.07525895;0.28739232;-0.11536425;0.3180985;0.07058638;-0.05587035;-0.0658961;0.1049672;-0.13954113;-0.015264107;-0.14175443;0.021262344;-0.07153396;-0.046014152;0.27142164;-0.06943918;0.15902622;0.011711569;0.07726098;0.21679235;0.04202561;-0.029246101;-0.3333995;0.01749443;0.10250975;0.2622404;0.11608329;-0.40625986;0.012832507;-0.200168;0.029591601;-0.16814949;0.09230076;-0.21382752;0.23209417;-0.1142966;0.035289038;-0.066566214;0.015403102;0.28575203;0.07929365;0.04773177;-0.08616855;0.12543559;0.014880599;0.0572654;0.24827026;-0.28894782;0.016425408;-0.045232896;0.04098596;0.0021288837;0.009186917;0.09428947;-0.38307932;0.27421385;-0.017706092;0.061205916;0.06371233;0.11942567;0.017023137;0.21777935;-0.16859859;0.051926296;0.17907555;0.23881283;0.06801158;0.031500548;-0.107857354;-0.0018225228;-0.19584624;0.06272856;-0.02145708;0.0416171;0.27798554;-0.064009346;0.13399528;0.00045638243;0.058839902;-0.021167496;0.19707315;-0.056178834;-0.43026632;-0.4146261;0.03002044;0.06225394;0.026594985;0.06214545;0.17317964;-0.16466443;-0.24385971;0.07436006;-0.13492858;0.019576149;-0.21424125;-0.026125193;-0.035002176;0.3413501;0.059097946;-0.24123761;0.24312672;0.020231668;0.025027933;-0.07454696;0.13368124;-0.17426202;-0.061788004;0.3473477;-0.031242127;0.1816772;-0.033490434;0.026090633;-0.016430754;0.09149514;-0.079816274;-0.28503966;0.099124506;0.3461868;-0.037490733;0.036333617;0.1521956;-0.15369383;-0.05788066;-0.13435131;-0.023084894;-0.04360052;-0.06205924;-0.044784788;-0.04532213;-0.06026651;0.18637705;0.002917446;-0.011214207;0.18187761;-0.05436301;-0.04055591;0.23046233;0.11529089;0.03269264;-0.12706695;0.034797527;0.04047987;-0.050981134;-0.10251907;0.0062443144;0.06743739;0.38868883;-0.33592692;-0.002755164;0.08384657;0.051666085;0.036481664;-0.07812863;-0.100245476;-0.013237771;0.17896432;-0.21603507;-0.15758553;-0.047884446;-0.055369683;-0.057249147;-0.038303386;0.11616709;0.0200569;0.12423918;-0.14252561;-0.0088680405;0.026900444;0.07312889;0.06107031;0.13190882;-0.043217756;0.123007365;0.038079806;-0.057945717;0.017097244;0.2111684;-0.0746433;0.10924531;-0.01759286;0.012539723;0.03858377;-0.080587305;0.049605906;-0.053789426;0.09653751;-0.14234701;0.039092973;0.023387779;-0.11068408;0.08156662;-0.02171849;-0.046435874;-0.018568328;0.0548755;0.23646216;-0.066701405;0.32622743;-0.032517828;-0.5529726;0.04290802;-0.32496333;0.058896665;-0.069526546;0.012357125;-0.049014036;-0.09619818;0.19707261;0.00042640854;-0.009897821;0.3702034;-0.056963068;-0.011265091;0.18503946;-0.1658149;-0.043211628;0.26517135;0.036864128;0.15176658;-0.08807773;-0.12803389;-0.2631847;-0.32068565;-0.03428935;0.16602151;0.02465555;0.114911206;-0.09220375;-0.037570365;-0.035243254;-0.07930442;-0.08840715;0.03633954;-0.008197782;-0.018255342;0.3001713;-0.24009448;-0.1080373;0.2761494;0.07146913;0.010730726;0.2983831;0.018774303;0.11742029;0.011618128;-0.049605254;-0.048703894;0.016936842;-0.2422479;-0.05417756;0.06818614;0.08194603;-0.10950835;0.009428158;0.004082735;0.07990327;-8.331616e-05;0.09348109;0.14272887;0.3063396;0.006863129;-0.185726;0.07529867;0.18891488;-0.025962597;-0.041314974;0.026090784;-0.18486568;0.0064769154;0.08496862;-0.041059148;-0.011025536;-0.039797693;-0.007415687;0.14907525;0.10793703;-0.04439008;-0.061484538;0.05136787;-0.15216349;-0.024962233;-0.11528422;0.19009961;-0.016358973;0.071274556;-0.11313293;0.05896101;0.021572802;-0.015760493;0.028797682;0.18922341;-0.13277382;-0.0655693;0.0067100395;0.007386222;0.1457572;-0.113352515;0.08711906;-0.0176665;-0.035624895;0.012693987;0.17657992;0.14472483;-0.00080882886;-0.011821632;0.076231316;0.030693697;0.1260184;0.19930108;-0.046719257;0.037255377;-0.052909307;0.06336221;-0.019531306;0.09997908;-0.037906304;0.26393268;-0.07033217;0.15396003;-0.040798195;-0.006754462;-0.1016253
-0.034897733;0.094850615;0.04999543;-0.022908691;0.035385914;-0.2555367;-0.030041147;-0.038556527;0.13303818;0.016731894;-0.015049688;-0.20350361;-0.09574435;-0.0280951;-0.09058026;0.036420833;0.062092695;0.12767135;-0.015312165;-0.054032665;0.2281245;0.033862878;0.077469714;-0.2285428;0.24690826;-0.13283397;-0.22263302;-0.16795915;-0.060266912;0.044463463;-0.021117553;0.12199163;-0.10923879;0.03299171;0.014641314;-0.0250194;0.121790424;0.16799939;-0.055236347;0.21647;-0.017300108;0.050582226;-0.0038997082;-0.08403117;-0.012571829;-0.23009174;0.2199295;-0.13088259;0.033956736;0.033444237;-0.22753066;-0.06809277;0.011416718;0.020039616;-0.20640193;-0.0941312;-0.45849678;0.013576616;-0.36931968;-0.15821035;0.25412437;0.14392546;-0.0053402474;-0.07014087;0.016271317;0.036204364;0.10462897;-0.075673826;-0.0028054256;0.031302255;-0.052776482;0.08690819;-0.1862181;0.08273237;-0.00759452;-0.025203943;-0.066259235;0.03572881;0.08256162;-0.03423844;0.3149997;0.14121531;-0.061395783;-0.027160754;-0.09468337;0.25362313;-0.1388872;0.067552924;-0.07645769;-0.13948742;0.10608143;0.03350969;-0.165236;-0.061084088;-0.03512325;-0.0471838;0.031516787;0.020982627;0.004680308;-0.044369534;0.0207581;0.13267715;-0.023093574;-0.030374274;-0.07459281;0.05732943;-0.01488721;0.0038668998;0.0076858597;0.1294996;-0.16325518;0.013202672;-0.0023977377;-0.07932571;0.01848937;0.22007897;-0.011364557;0.028872967;-0.056678608;-0.08726221;0.09797394;-0.020844495;-0.030399453;-0.28252387;-0.16830842;0.030507408;-0.0047755395;-0.1363914;0.18075147;0.0657908;0.004657362;0.2759268;-0.0040710205;-0.019904621;0.04480373;0.039950266;0.27553403;0.04295579;0.02569796;-0.06810128;0.14432435;-0.08869235;-0.010427989;-0.0891201;-0.255399;0.16063255;-0.13214111;-0.08208207;-0.01131111;-0.14042248;-0.17638206;-0.0107681705;0.002580534;0.062339004;-0.02416936;0.0670032;-0.138306;-0.047526244;-0.019887393;0.006618634;-0.026112257;-0.18570049;-0.0033730653;0.070495665;-0.06462937;-0.091220684;0.051426467;-0.06546424;0.13497773;-0.012765023;0.20055301;-0.037027314;0.04295862;-0.028166901;0.0009657182;0.012096077;-0.079577096;-0.050896224;-0.14640814;-0.000292728;-0.053356074;0.2993529;-0.07160859;-0.26981393;0.042960778;-0.055519428;0.049052954;-0.051130403;0.1707757;-0.071996324;0.32813162;0.106058866;-0.02547387;-0.03447551;0.0018561787;0.13543358;0.10458611;0.02756108;-0.11060076;-0.08034164;0.053271886;0.033901937;0.1070909;-0.030389562;0.29818;-0.071780086;-0.06351593;0.09002941;0.24693581;0.039196663;0.050387584;0.07277698;-0.09124015;0.018523341;0.028968398;-0.036132243;0.08268535;0.0086728;0.0639253;0.10315381;0.012307711;0.042497575;0.1420037;0.39763978;0.02629959;0.027220422;0.06246316;0.10581435;0.03796831;0.10287074;-0.058247764;-0.1385964;-0.043064546;-0.2862561;-0.117318735;-0.08761507;0.06793154;0.29184273;-0.0052217706;0.011901946;0.0033477345;-0.11194678;0.016348979;0.008541725;0.081776634;-0.030485373;-0.39789623;-0.13624054;0.031077703;0.032920465;0.06172089;-0.23104055;0.0036659448;0.24595687;0.19767153;0.19726318;-0.044401266;0.19145827;0.01370076;0.04021739;0.040773742;0.08492667;-0.10961428;-0.013176367;-0.1586374;-0.024769917;-0.054662034;-0.051784508;0.17531797;0.14344448;0.12013536;0.038281947;-0.0108574;0.16366756;-0.04148954;-0.024550436;-0.24763063;5.603112e-05;0.1314123;0.2572716;-0.062474404;-0.32562107;-0.05779575;-0.1808521;-0.020995745;-0.13683899;-0.023995057;-0.13386923;0.23006791;-0.02174372;0.010762678;-0.0076049897;0.007451682;0.19378039;0.08200252;-0.006596945;0.049650252;0.17818736;-0.0043985858;-0.03995339;0.37230814;-0.33234867;-0.009054741;-0.080823615;-0.012775818;-0.13568605;-0.07517177;0.14641751;-0.3765043;0.14044863;0.01485291;-0.06281138;0.12892683;0.14161271;0.05976369;0.0740479;-0.059312645;-0.033685938;0.059306685;0.19387317;-0.008755165;-0.05515892;-0.26839727;-0.0033101223;-0.24337831;0.056708463;0.06227818;0.06769347;0.14663433;0.007024209;0.11464844;0.026626566;-0.11021128;-0.0002882998;0.14293663;-0.017474778;-0.4081312;-0.5146102;0.063012004;-0.032723498;-0.047647644;-0.027388271;0.30869633;-0.22215083;-0.14270565;0.11115975;-0.15713657;0.21978709;-0.31930342;0.03685352;0.03156916;0.2911757;0.0024091243;-0.2386237;0.15039894;-0.06501962;-0.017360058;-0.02224625;0.20343152;-0.06586206;0.14229444;0.14981478;-0.040840372;0.08989696;0.019490322;0.028067017;0.06364231;0.22593509;-0.21501336;-0.1411161;-0.04024363;0.23919338;0.0006300103;-0.04716303;0.089368746;-0.07453233;-0.0018778917;-0.19515945;0.037590276;0.02099814;0.015840864;-0.12320816;0.07932579;0.026089275;0.1266063;0.04126371;0.0049910843;0.03152256;0.0030976033;-0.026612123;0.1989911;0.03373124;0.012684134;-0.042337313;-0.01720595;-0.07485119;-0.044891287;-0.096175924;-0.004748369;-0.039407317;0.44264;-0.28060532;-0.0991274;0.0859748;0.1652422;0.12297261;-0.065255046;0.079062305;-0.010488351;0.14705905;-0.1307645;-0.19055828;0.032854207;-0.004158374;-0.07106894;0.0046268073;0.11313815;-0.059792567;0.058860607;-0.15335386;0.045361236;0.0100095365;0.018718801;0.069682926;0.07454572;0.048875734;0.14665167;0.036795635;0.09813524;-0.0042620935;0.12944685;-0.01643739;0.09377628;0.0053169006;0.037558727;-0.059648708;-0.2108267;0.0073178066;-0.04166702;-0.030536339;-0.11718975;-0.054799832;0.2614779;-0.086021304;-0.010573366;-0.13395554;0.1126077;-0.042195022;0.055851415;0.12761118;0.040897936;0.27482125;-0.009223385;-0.48510635;0.05347027;-0.35943735;0.19483697;-0.1421328;-0.0031351915;0.04632965;-0.15763289;0.14103155;0.03674629;0.05390622;0.35917458;0.05103252;0.023368515;0.2001781;0.11575913;0.023554482;0.34493288;-0.028534943;0.08443163;0.010356626;-0.08959011;-0.32072273;-0.2750792;0.07259243;0.0058917203;-0.045078088;0.1530302;-0.10329567;0.06788493;0.07347852;-0.03798404;-0.08281357;-0.06585734;0.022067657;0.09543393;0.21485531;-0.34625846;-0.04369403;0.26568878;0.013259409;0.0030218654;0.26261595;0.027997233;0.123144;-0.032146625;0.039742813;0.10278375;0.041986067;-0.212303;0.024483956;0.002336408;0.017709205;-0.14960124;-0.03147244;-0.028466837;-0.0628544;-0.04473313;-0.06600793;0.036837544;0.31188917;0.0050199428;-0.126371;0.28038782;0.27190986;0.003692774;-0.06290113;-0.019457646;-0.14655016;-0.030044274;0.09602253;-0.02039433;-0.004929162;0.051063523;-0.0065956945;0.20066698;0.08462398;0.09157393;0.058397137;-0.04644062;-0.24351747;0.011551662;-0.07001815;0.12713483;-0.07708752;0.07837241;-0.1499446;0.041417085;-0.046871446;0.03676243;-0.07065972;0.04289029;-0.024025332;-0.066275395;0.07101121;-0.00159081;0.11658716;-0.24478443;0.124174796;-0.22055808;0.020425104;0.06453778;0.10722581;0.2683261;0.046493925;-0.033298958;0.07728381;0.008813211;0.15501498;0.15919651;0.033500787;0.009080665;0.020770928;0.111360446;-0.038827125;-0.0082604615;-0.075835295;0.22578603;-0.034671094;0.26557845;0.026134938;-0.035960644;0.06612074
0.023093358;0.045594726;0.0136256935;-0.016691947;-0.01008242;-0.09286099;0.029652935;0.006692004;0.21848302;0.05957968;0.062671274;-0.2120371;0.0051947646;-0.087971255;-0.19217879;-0.047175553;0.18940939;0.13967755;-0.035831325;0.03331038;0.24361505;-0.024811497;0.1316835;-0.25745454;0.25503966;-0.32664183;-0.14359103;-0.2359031;0.02875572;0.022237964;-0.06569799;0.10937681;-0.11981806;-0.06336146;-0.02814778;0.026647156;0.13866872;0.18181883;0.052431542;0.03950024;0.040328078;0.00882028;-0.026093617;-0.0011277708;-0.0041725645;-0.18845017;0.17453979;0.039665088;0.034607362;-0.04894133;-0.12338077;0.038590807;-0.0945586;0.09757101;-0.12839878;-0.16177629;-0.48255786;0.1313712;-0.31910285;0.020610789;0.27583063;0.071425825;0.014361924;0.007160289;0.033454254;-0.032125052;0.26096836;-0.22465609;-0.043210793;0.029680649;0.05629161;0.025790134;-0.1682427;-0.07005582;-0.043663587;0.0030909956;0.011906502;-0.074848995;0.07933271;0.10236631;0.11629848;0.04890879;-0.2482725;0.013073363;-0.0008205542;0.24128841;-0.20192818;-0.050517466;-0.07991143;-0.012277401;0.07857738;0.028627051;-0.025041163;0.04592781;-0.018859265;-0.041461416;-0.08182903;0.030436356;0.01303607;-0.020410234;-0.07372014;0.0044194614;0.009044873;0.05237272;0.102078564;0.019933263;-0.022027986;-0.04295264;0.02306474;-0.07268385;-0.1845645;-0.024863048;-0.018812243;-0.15990177;-0.045437668;0.040978532;0.03464379;0.26115307;-0.045885455;0.007028347;0.08406697;-0.2291546;0.03378252;-0.2816282;-0.04091387;-0.0024128894;-0.028113121;0.061299272;0.10035154;-0.0118019115;-0.014180388;0.18002467;-0.019171784;0.06445413;-0.14103901;-0.018432839;0.20310527;-0.052174672;-0.024147429;0.033516437;0.31058893;-0.001156591;0.013039942;-0.08117576;-0.19611993;-0.0076559405;-0.1196446;-0.09749618;-0.012631928;0.07769812;0.025153173;-0.17909418;-0.026839497;0.10857369;-0.026542006;-0.010843043;-0.12268877;0.0005664631;-0.017387819;0.06555321;-0.09808507;-0.2646624;-0.0087788105;-0.044450592;-0.001074217;-0.016070686;0.2512845;-0.07521302;0.17460115;-0.040747963;0.06302298;-0.04027397;0.050666895;0.05187964;0.013445441;0.031742044;-0.0006930361;0.025247643;-0.3077142;0.07602277;0.032031674;0.40359196;-0.0053024944;-0.22476767;0.0005670152;0.06834167;0.04267941;0.044198655;0.2632495;-0.10123033;0.03056402;0.19231196;0.021478595;-0.062447272;-0.15536352;0.011139212;-0.021149218;0.19465533;-0.022768188;-0.06755844;0.14037438;-0.028207315;0.14481717;0.06783381;0.21609668;-0.052148946;-0.008079569;-0.1085079;0.11018239;-0.058958292;0.011841494;-0.056135546;0.08161449;-0.055743184;0.06047188;0.032902393;-0.099239185;-0.0029523578;0.07281586;0.037461463;0.035454858;0.08461999;0.122188374;0.2914602;0.005000548;0.023675712;0.04745483;-0.059436318;-0.025074106;0.2520211;0.02487218;-0.18332924;-0.05078621;-0.27962545;-0.049607325;-0.0674752;0.07386957;0.34510347;0.054421198;-0.0492344;0.04440358;-0.08480382;0.0022449996;-0.05286508;-0.045366943;-0.105201475;-0.43454337;-0.07609339;0.14726287;-0.05864729;-0.04434431;-0.13034508;-0.020461734;0.28733727;0.09340733;0.26701373;0.058039915;0.089751;0.014658601;-0.10988807;-0.017694814;0.18335137;-0.13701567;0.025138963;-0.16131207;-0.022631507;-0.0013241727;0.07159385;0.32502338;-0.03910014;0.0037972266;0.033459127;-0.035328776;0.010151866;0.039130367;0.02368306;-0.17455412;-0.0003805734;0.18787837;0.12417012;-0.037045952;-0.2611272;0.061002582;-0.23522447;0.009062876;-0.12611115;0.110678986;-0.15507156;0.16831519;-0.0164698;-0.03361365;0.15826744;-0.01557474;0.22186221;0.019955454;-0.049156953;0.048753504;0.17729767;-0.0064417627;0.011108878;0.33591804;-0.27032775;0.032892797;-0.23347256;-0.031472836;-0.050111953;-0.067615435;0.12916645;-0.45250416;0.026843863;0.11122857;0.01902292;0.23892668;0.13687658;0.00031543808;-0.03134217;-0.027703196;-0.052747026;0.039231334;0.22377689;-0.054866582;0.036610868;-0.15835582;-0.050285034;-0.2875845;-0.047204;0.017826024;0.00051753264;0.09574775;-0.04270581;0.053015515;0.035591867;-0.055129405;0.026102453;0.14812668;0.062365238;-0.41400126;-0.4366277;-0.045730717;0.008225649;0.035343505;-0.06958504;0.3223371;-0.06189039;-0.18076165;0.17618762;0.041001227;0.083606966;-0.37061578;-0.05183521;-0.014585501;0.28009358;-0.03377583;-0.14592737;0.11902933;-0.06581908;-0.031148933;0.25318336;0.21204595;-0.032459665;0.21979737;0.04822518;0.05551435;0.07125553;-0.025753789;-0.021216488;-0.031239333;0.32780617;-0.10133069;-0.28554717;0.07317603;0.11568381;0.084453695;0.029655509;0.20250824;0.032945633;0.042765826;-0.24670595;0.028915988;-0.018308258;0.115478955;-0.060784232;0.06462029;0.00031415865;-0.007595332;-0.07362107;-0.04820145;-0.066359;-0.02170226;0.060075987;0.29385397;-0.06558671;0.0033538584;-0.03434178;-0.043916084;-0.10574543;-0.05262236;-0.18529123;-0.028536748;-0.03914657;0.33107263;-0.32365054;-0.09647774;0.042311057;0.13573548;0.21876983;-0.014938999;0.21900691;0.08171728;0.16729838;-0.42766327;-0.10234557;-0.0066237687;0.016265882;0.034141626;0.08957148;0.110495724;0.018052692;-0.019322375;-0.0318431;-0.045971826;-0.019389091;-0.05345522;0.04792714;0.059870154;-0.06448855;0.12629147;0.25209686;0.04009804;-0.04598141;0.19093601;0.012580413;0.032039743;-0.039487604;0.0031120474;0.0045510153;-0.19702037;0.037329152;0.09602828;0.025026396;-0.11144952;-0.022267427;0.45093426;-0.009662288;0.014503579;-0.26153535;0.18037416;0.040589944;-0.02200158;0.18263495;0.036709964;0.3200035;0.067102656;-0.45301414;0.023837304;-0.41899523;0.09411795;-0.2150409;-0.04076638;-0.028021978;-0.07683471;0.015301365;-0.005665972;0.016679052;0.20250937;-0.05995223;-0.04625555;0.09706523;0.0026102138;0.05694358;0.21651086;-0.050949328;-0.10648735;0.066478685;-0.023157144;-0.20378529;-0.29135793;0.03653769;-0.10568756;0.027315514;0.04229541;-0.18524766;-0.048516694;0.013769708;-0.1737938;-0.0318864;0.024408596;-0.021075828;0.21227898;0.23803116;-0.34298918;0.08889921;0.28864977;-0.030875446;0.026864605;0.11867634;-0.045580607;-0.0019972255;-0.0028694766;0.024482476;0.09821549;0.019713938;-0.094732955;0.034031462;0.041317284;-0.039189357;-0.15556261;-0.00691501;0.019192703;-0.057046648;-0.0644102;0.0975798;0.163832;0.42706168;0.037247673;-0.19232093;0.17490646;0.14995646;-0.021341706;0.03522016;0.027806852;-0.13151714;0.04310778;0.22959451;0.010544847;0.06210287;-0.009206066;-0.11342942;0.12747729;-0.017369285;0.1375462;0.18668807;0.021741366;-0.18128625;0.0127258;0.10756017;0.0108287;-0.121356376;-0.1451247;-0.07465133;-0.04959026;0.046432383;-0.04737073;0.031090368;-0.040210847;0.12974994;-0.099933654;-0.024121512;0.0036707073;0.16737449;-0.23713699;-0.0050926115;-0.23217991;-0.0040273992;-0.037339125;0.12266694;0.20275575;0.032303326;0.031348635;0.10426991;-0.02151705;0.10921173;0.16323102;-0.026892416;0.050183635;-0.0752008;0.2033551;0.017415024;-0.13067141;-0.08957301;0.31670848;0.15582941;0.2914282;0.0022765754;0.046127487;0.10973454
0.029434424;0.23537941;-0.014968406;-0.025775677;0.015275314;-0.19209254;-0.016888702;0.025798108;0.13328427;0.008393608;-0.03362158;-0.10768261;0.02894313;-0.29924664;-0.108779386;0.045255832;0.11067668;0.11624766;0.058526315;-0.07645657;0.30882788;0.021351887;0.23138566;-0.12513979;0.10866189;-0.30106795;-0.07029642;-0.020572685;-0.0074505406;0.15190051;-0.061018445;0.011626225;-0.094492435;-0.20603547;0.033033416;-0.043632355;0.076514035;0.11366341;0.008286535;0.1210967;-0.014732879;0.04394261;0.056422792;-0.06672191;0.0054178555;-0.23726715;0.15570612;0.18480456;0.028856093;0.02593912;-0.15852734;-0.020634115;-0.0040357667;0.012988092;-0.22216001;-0.05956857;-0.34070182;0.11472441;-0.1870992;0.09656828;0.22869809;0.09488498;-0.11477711;0.03387619;0.001611179;-0.010010746;0.1897898;-0.15962382;0.11937435;0.017024394;-0.022606207;-0.0019093982;-0.14868471;-0.021124108;0.080212794;0.04252427;0.023116663;-0.09533184;0.21148127;0.05722292;0.096022874;0.057803307;-0.24352004;-0.0051792716;-0.2177462;0.2900348;-0.12954685;-0.03290486;-0.16495664;-0.33847573;0.06987968;-0.005704192;-0.15088585;-0.12335827;0.13721254;0.046623126;0.0008919402;0.039285157;-0.02754636;-0.09000168;-0.038300097;0.06890008;-0.020054618;-0.04991363;0.029140769;-0.073995866;-0.016767785;0.07274581;-0.018138502;0.13213733;-0.15779565;-0.02534425;-0.01134106;-0.11039835;0.0180732;0.15728578;0.02491962;-0.009195723;0.04299531;-0.16330843;0.08216257;-0.02559812;0.0093301395;-0.26071143;-0.23675424;0.010510365;-0.03221775;0.07939073;0.13820298;0.0378493;-0.07528704;0.123138264;-0.1824645;-0.06670091;0.05684207;-0.062411945;0.220766;-0.022436786;-0.031124504;0.001960768;0.26051137;-0.035753444;-0.014102701;0.020485763;-0.17251012;-0.0828507;-0.20619941;-0.18585111;-0.050146118;0.067566864;-0.060313467;-0.33005738;-0.0064268224;0.04144631;-0.009304646;0.052151833;-0.2015672;-0.048574388;0.06496479;-0.047610976;-0.07779978;-0.06602261;-0.017845413;-0.024139524;-0.060144227;0.029687608;0.19922245;-0.012119632;-0.024653794;-0.11088627;-0.030989882;-0.1547386;0.056209702;-0.0021456885;0.044756282;-0.0055713872;-0.12468272;0.022279358;-0.31401506;0.091535844;0.023560472;0.35398737;-0.11859924;-0.24512844;-0.08775893;-0.04785986;-0.06990776;0.122214146;0.24972749;-0.24369119;0.03913904;0.10288695;-0.04220769;0.05745368;-0.0969645;-0.09357851;0.09418238;0.21529402;-0.2309945;-0.107211344;0.14382729;0.10859514;-0.045702156;-0.09524866;0.19243048;-0.08066012;-0.038590383;-0.10734413;-0.02673251;0.06795186;-0.021455677;0.059688058;0.03256609;0.021825805;-0.040728517;0.015522439;-0.13314867;-0.009790607;0.07310438;0.113172375;0.17694439;0.10657218;0.20975631;0.23285079;-0.030510975;-0.17218675;-0.054725256;0.04077463;-0.04020657;0.23753615;0.015932703;-0.016803069;-0.047854923;-0.087144;-0.10789673;-0.13509905;0.14713393;0.30228192;-0.033057105;0.012992424;-0.07122604;0.023073299;-0.031127231;0.13317418;0.0278265;-0.0649232;-0.423307;-0.07331071;0.034665555;0.0003654263;0.10734385;-0.17051728;-0.047596037;0.33196098;0.15692626;0.18074164;-0.0023065975;0.2198102;-0.05088278;-0.0863281;-0.13177726;-0.0017776394;-0.17800005;-0.046892356;-0.17036611;0.011510456;-0.09578539;-0.011308599;0.27156985;-0.0004256792;0.072751135;0.10287208;-0.033194266;0.0049818405;-0.034259073;0.026128061;0.0061771064;-0.034907635;0.19356142;0.11893073;-0.028416062;-0.0979877;0.046834484;-0.2666117;0.039227337;-0.259173;0.19503593;-0.18194316;0.2193997;-0.040590663;0.005541182;0.15677147;-0.044647228;0.26721042;0.070246994;0.036284123;0.027892787;0.23374572;0.059822906;0.04570787;0.32032302;-0.26333648;0.009044214;-0.23742408;0.007137218;-0.09430821;0.06970522;0.27434295;-0.50360346;-0.027750757;-0.0513817;0.07556432;0.18677738;0.12768282;0.06424011;0.08873238;-0.178084;0.03575299;-0.11260547;0.2608544;-0.006980214;-0.086216226;-0.028293855;-0.021146601;-0.13947111;0.0023205935;-0.038354978;-0.058652896;0.11623531;0.028588446;0.08855169;0.0052858526;0.036987342;0.017425152;0.031069234;0.021580977;-0.35142037;-0.439977;-0.06425712;0.016531102;0.031272307;0.055758424;0.2455963;0.14742774;-0.33376113;0.07574448;-0.08665196;0.2638658;-0.29305086;0.029286299;-0.043363143;0.28176612;0.018577773;-0.0010104361;0.108590685;-0.056211434;0.07354577;0.18486844;0.2602306;-0.08634043;0.17346253;0.09074697;-0.038626544;-0.092877924;0.012017625;-0.014606209;0.010990384;0.35065418;-0.2846197;-0.20940536;0.0111192195;0.17103219;0.06709505;-0.026412586;0.2828807;-0.05859844;-0.029947866;-0.31527027;-0.08852889;0.0008524259;0.07633486;-0.11338139;-0.05801202;0.08609432;0.090341404;0.023900812;0.026909102;-0.062214054;0.10677155;0.008455101;0.21712627;-0.08415413;-0.0030819287;-0.082816966;-0.015897833;0.047573242;-0.06568112;-0.108658105;0.0119366385;-0.011014625;0.2219998;-0.21574612;-0.14038329;-0.042081848;0.14615205;0.2425628;-0.05208237;0.24815337;-0.030908791;0.21159287;-0.47163728;-0.098382376;-0.048179135;-0.04833225;0.0035205353;-0.033034332;0.21048406;0.20800503;-0.05801129;-0.08887776;0.0251515;-0.02796314;-0.012601023;0.19937578;0.115200184;0.038719803;0.22975451;0.28456393;0.01653323;-0.022258718;0.042720247;0.2378047;0.0028554047;0.03526713;-0.018112317;0.027687108;-0.22590694;-0.008525193;-0.034985762;0.007341117;-0.018066129;-0.0600509;0.59037644;0.01597507;0.026443958;-0.17660217;0.1782531;-0.022683024;0.15040079;0.14727648;-0.01713944;0.28175938;-0.02553023;-0.44952968;0.14085595;-0.49240673;-0.0956068;-0.14622019;-0.037274227;-0.035621323;-0.19797927;-0.035381876;-0.034066062;0.17147157;0.088454716;0.019783624;-0.03929245;0.19034965;-0.022945011;-0.050809134;0.2700307;0.03364144;-0.040112913;0.036595702;0.030896628;-0.18297394;-0.35599187;-0.035389982;-0.23964283;-0.0016925152;0.03954278;-0.03695302;-0.03346866;-0.05365728;0.029255359;-0.13409057;0.069315575;0.011837867;0.27513096;0.21011125;-0.35888562;-0.09524931;0.18405446;-0.050631095;-0.055530537;0.11243351;-0.055523712;-0.15247384;-0.005202894;-0.024994178;0.04599236;-0.013929471;-0.1811211;-0.040162187;-0.039744847;-0.046975765;-0.2345751;0.00417858;0.0050653624;0.03317203;0.08468114;-0.013477732;0.10512497;0.32798654;0.030203233;-0.13629617;0.10162561;0.1766515;-0.040905114;0.026475286;0.064389355;-0.15310179;-0.05492659;0.2122042;0.055145945;0.031457175;0.007042034;-0.21628292;0.2191457;-0.008857372;0.20567395;0.26211306;0.010742801;-0.16684099;0.020927005;0.06498706;0.10026738;-0.28787252;-0.040080696;-0.16737852;-0.036160324;-0.0144707775;0.027469862;0.014325999;0.0022056566;0.08706242;-0.07771238;-0.04482475;-0.042621367;0.108244255;-0.27117196;0.074697904;-0.16458757;0.037936848;-0.21901876;-0.0031592094;0.295145;-0.035232555;-0.0037663942;0.009597991;0.061160006;0.06398251;0.021820042;0.034112345;0.11744997;-0.12722927;0.2537612;-0.02058559;-0.18883272;0.028792132;0.25698832;0.12377833;0.30331263;-0.024060013;0.026111655;0.24742879
-0.04702456;0.30700698;-0.054919105;0.05638262;0.009292509;-0.21631548;-0.028283097;-0.020916747;-0.06474343;0.0044920677;-0.049533077;-0.015004869;-0.0477654;-0.20047179;-0.06227061;0.039257005;0.26149672;0.15796044;0.02860264;0.07169877;0.22733435;-0.0021885235;0.25047144;-0.13854593;0.16636544;-0.27968365;-0.18412517;0.0141731715;0.04019288;0.1452455;0.09072115;-0.041925102;-0.050401017;-0.14344165;-0.017607315;0.0017050618;0.06354921;0.06334756;0.09692805;-0.01845527;-0.016331377;0.030981736;-0.20049267;-0.034106575;0.036904525;-0.26276222;0.11096135;0.106758855;0.20447877;0.04276329;-0.15142363;0.077600546;0.12815717;0.23700596;-0.24147846;-0.04236618;-0.25669467;0.1544363;-0.22622985;-0.06746221;0.094599254;0.27587914;0.010535149;0.006303387;0.029373467;-0.002809165;0.22618449;-0.07847355;0.0150815;-0.022256337;0.016080502;0.08234767;-0.038526032;0.016810855;-0.03233028;0.065782234;-0.05702906;0.074565515;0.24594484;0.030513963;0.09611172;0.002749201;-0.31473053;0.026537359;-0.32466838;0.13471922;0.06524595;-0.020429952;-0.085896;-0.17704897;0.13684243;0.059131905;-0.1252244;0.06272905;0.05513875;-0.054784477;0.030086823;-0.08704765;0.047950923;-0.057784125;0.012097665;0.15075737;-0.033734813;0.036558468;0.09801755;0.04720152;0.06671405;-0.041760717;-0.038164403;0.07401696;-0.18616186;-0.058653973;0.012340314;-0.01826841;-0.015684832;0.0845555;-0.015604581;0.15742832;-0.02748174;-0.06392716;-0.047644854;0.17271686;0.03949256;-0.17141154;-0.19621621;0.0007869095;0.040595103;-0.026735198;0.27793345;-0.023873163;-0.09345867;0.1772537;-0.19006671;0.02483359;0.08443481;0.03599505;0.092887454;0.015607981;0.007950204;0.023397813;0.292812;-0.033225115;-0.02991959;0.036922693;-0.3114456;-0.19064085;-0.03797932;-0.15099773;0.055482768;0.06387881;-0.20463103;-0.28186324;-0.00022437601;0.100557365;0.07238656;0.16734816;-0.13916537;0.047657896;-0.03463376;-0.03645652;-0.05873062;-0.0536018;0.04934041;-0.000452193;-0.073533386;-0.004150184;0.22146676;0.045089055;0.013075951;-0.0011735649;0.15813062;-0.20327467;-0.124345675;0.008295057;-0.06310352;-0.021697538;-0.032682177;-0.06160397;-0.10454924;0.19513036;-0.04160604;0.25229454;-0.046989407;-0.22435829;0.04566189;-0.017449679;0.0651445;0.056372125;0.1461144;-0.29526576;0.17420772;0.10248554;0.06490813;-0.0027789774;-0.1837068;-0.1697758;0.14754602;0.18909505;-0.065926045;-0.041831445;0.2038116;0.064334065;-0.14830044;0.015700916;0.1830243;-0.07846984;-0.013555283;-0.10925884;-0.052129775;-0.010899826;-0.06255184;0.008356523;0.04076757;0.033961587;0.032429207;0.031146932;-0.17194533;0.054726932;0.049500175;-0.03190089;0.13661045;0.19110593;0.3003322;0.07800717;0.051631242;-0.090503536;0.01482111;0.0057941275;0.016798604;0.25884566;0.0047024866;0.1644455;-0.19035308;0.013647741;-0.012185631;-0.22661068;0.026694354;0.20218663;-0.028912129;0.14027473;0.017136736;0.0641585;-0.033417877;0.02782547;-0.0053497036;-0.06904323;-0.17741491;-0.014496624;-0.097593404;0.046309695;-0.053645704;-0.17923538;0.037190128;0.32561123;0.01404519;0.21067102;-0.019559903;0.14473389;-0.021264812;-0.069895096;0.0077664447;0.059111957;-0.26404455;0.07463082;-0.25301537;0.0019458461;-0.044716224;0.0057617743;0.24283005;-0.09138632;0.082122296;0.07569588;0.061518226;-0.09885842;0.045489516;0.09676789;0.10008025;0.015274296;0.27677733;-0.06442823;-0.087179735;-0.12004218;-0.03968499;-0.13544439;-0.027743652;-0.1340257;0.20445605;-0.08358427;0.19136596;0.03705303;-0.041126374;0.25417274;0.02484628;0.27119377;0.09105439;-0.040007863;0.0590646;0.052999325;-0.020819383;-0.07576497;0.22181591;-0.27891207;-0.005130179;-0.27207267;-0.0043811398;-0.025563553;-0.0078953;0.25666088;-0.30539918;-0.022182407;-0.07939771;-0.0143742915;0.20167978;0.038264893;-0.04895553;0.056056563;-0.016064089;0.056032006;-0.067724615;0.25468695;0.059323218;0.014459998;0.019372843;0.1010389;-0.0530792;-0.0051716007;0.0036415423;0.007925747;-0.001096975;0.043501537;-0.010989471;-0.059770107;0.11259999;0.015251001;0.082992196;-0.015440765;-0.50304335;-0.4790866;0.068738066;0.12886006;0.014270221;0.022216432;0.2571741;0.16618873;-0.46783412;0.007051724;0.013015962;0.32004678;-0.42755032;0.04603404;0.022972802;0.2574364;-0.029035186;-0.14385206;0.22152337;-0.09131073;-0.027723731;0.17380442;0.4605749;0.0055796746;0.19645445;0.0838749;0.06477664;-0.04121981;0.053714436;-0.0073711183;-0.005180426;0.25327358;-0.27338526;-0.2526282;-0.11771521;0.17067316;0.047426645;0.023579014;0.20903468;-0.16058506;0.023388311;-0.17821053;-0.08520691;0.034800954;0.107110694;-0.087878175;-0.049293123;-0.11291764;-0.05230289;-0.03847684;0.030953342;0.13645801;0.13851187;-0.030268557;0.31260097;-0.023163162;-0.045780137;-0.033697154;0.014192976;0.165498;-0.12525901;-0.14014432;0.020801563;0.06154193;0.12202905;-0.14445303;-0.1210712;-0.13290966;0.0037073882;0.376773;-0.16113143;0.12635624;0.001741745;0.10768078;-0.3398715;-0.100879565;0.06665509;-0.011694266;0.08408923;-0.02427575;0.20570303;0.3832778;0.051255696;0.10734769;-0.03437905;0.024043782;0.018810991;0.29799566;0.17179586;0.052477553;0.41866815;0.16806753;0.025296448;0.022104966;0.10888287;0.25043294;-0.021213032;-0.00435982;-0.030911336;0.025708737;-0.18860836;0.011919159;-0.007292234;0.027598577;0.05625445;-0.05291659;0.59358066;-0.09965768;-0.012883059;-0.28092504;0.11534122;0.05479595;0.14908463;0.18935646;0.0022035032;0.42413726;-0.006731322;-0.27182773;0.20968895;-0.26435223;0.057448335;-0.20072614;0.029681975;0.04605744;-0.06809943;-0.07822889;0.05561663;0.029215464;0.052446824;-0.06755897;-0.034325253;0.13696323;-0.09343582;0.008402513;0.23083997;-0.012166758;-0.054386865;-0.0014681873;0.102646425;-0.007560742;-0.20637648;-0.066726364;-0.25282297;0.0145256845;0.04820327;-0.03040134;0.060637422;-0.056851655;-0.10493611;-0.11815568;-0.034996085;-0.015410583;0.13370366;0.27445596;-0.23529768;-0.031184675;0.1595144;-0.008769191;0.041448385;0.015898269;0.07319357;-0.21585214;0.00545678;-0.06604247;-0.00033122278;0.016591676;-0.27802095;0.03127986;-0.04522763;-0.01877288;-0.30624577;-0.015449369;0.021252006;0.010299851;0.088010244;0.028980382;0.17349286;0.27684194;0.0005967739;-0.08003191;0.23087223;0.1523919;-0.014400006;-0.09841856;0.07251693;-0.14788581;-0.004055323;0.32633865;-0.0044767293;0.060561087;-0.05782777;-0.26162097;0.30306;0.074033804;0.13603182;0.14465825;-0.04482886;-0.18991256;-0.022551082;0.07766671;0.04026582;-0.4563061;-0.038479112;-0.16852815;0.03875598;-0.019276815;-0.026957434;0.00065193087;-0.10914921;0.2105296;-0.0685694;-0.03534083;0.06662943;0.11477362;-0.44046026;-0.10521181;-0.12958734;0.0020606136;-0.15317318;-0.11718133;0.34311384;-0.024877071;0.010165816;0.1538242;0.07590024;0.22614977;0.06367137;-0.018911073;0.09328114;-0.1007594;0.26312482;-0.010175186;-0.14199571;0.08840744;0.2753538;0.1342771;0.22642656;0.035470624;0.0061043217;0.26381364
-0.013220138;0.2552709;-0.026724601;0.041149504;-0.033011165;-0.11411366;0.01632109;-0.051014602;-0.10732737;-0.12871005;0.019182693;-0.16459826;0.03992343;0.04902271;-0.033241887;-0.030947004;0.17886275;0.12414827;-0.09101782;0.0102677755;0.2279999;-0.020819766;0.14540008;0.048041105;0.25788528;-0.24997324;0.0047938796;0.06950816;-0.0025514222;0.16138443;-0.12811866;-0.009572825;-0.062286332;0.030235665;0.013190195;0.022560943;0.05306993;-0.066790074;0.09594606;-0.04236204;-0.041830625;0.0013225927;-0.32815164;-0.00855973;-0.034608014;-0.12511003;0.061343513;0.10636105;0.18221498;-0.0143912155;-0.100803934;-0.064440586;-0.0021650256;0.23581928;-0.35930508;-0.10646859;-0.23770162;0.06017733;-0.1686752;-0.19265792;0.050197657;0.07807317;0.070186645;-0.12222757;-0.036745276;0.032947633;0.22868809;-0.27905086;0.040571067;-0.010706554;-0.06991422;0.07618035;-0.180094;-0.2261436;0.009714025;-0.054497764;0.06445753;0.060385466;0.26017416;0.042008948;0.104528025;0.10009411;-0.29090816;0.03368207;-0.42391923;0.024284445;0.038691282;-0.02804907;0.0632704;-0.19428203;0.1270691;0.14595978;0.058089826;0.0077039986;0.29073304;0.016405419;0.039292876;-0.029656587;-0.04765298;-0.044505734;0.09021188;0.024498332;0.0034069435;-0.006227887;0.14595602;0.011381542;-0.041185457;-0.008064336;-0.0028792683;0.10172129;-0.07691777;0.03084783;0.2189391;0.044736806;-0.0010648934;0.123796865;-0.002980244;0.07406992;0.034140673;-0.06746882;0.049583163;-0.038274016;-0.029081786;-0.095457375;-0.39139575;-0.041525453;-0.060403742;-0.026141776;0.24099769;-0.0011547408;-0.116938554;0.22053602;-0.04362577;0.029315319;0.059853394;-0.0047506434;0.027577912;0.0076022446;0.07571339;-0.024906253;0.17949235;-0.055422425;-0.016349277;0.06791431;-0.25140512;-0.17404181;0.010316887;-0.28945372;0.05127984;0.06280308;-0.08660959;-0.20491466;0.037155375;0.05346088;0.01768802;0.12854221;-0.17138474;-0.022912612;-0.043941453;-0.022773487;-0.05496126;-0.06412733;-0.043902263;-0.040916394;-0.10214726;0.031193875;0.10838666;0.13718943;0.10205764;-0.103271775;0.14915778;-0.15892255;-0.15383528;0.0056828875;0.018757226;0.02206201;-0.027446324;0.06238389;-0.07529083;0.11043602;0.071332246;0.15751092;-0.073352106;-0.25468898;0.036259785;0.0035944735;-0.0096276635;0.13883963;0.24666582;-0.10805501;0.14131972;-0.033665173;-0.029558372;-0.034322634;-0.11528052;-0.19463533;0.080759786;0.22187236;-0.1615653;0.052023754;0.007108246;0.027468996;-0.06937904;0.032121528;0.07077469;-0.0846195;0.053604625;-0.20946732;-0.12599337;-0.05981013;0.05666442;-0.0028378686;-0.011996769;-0.03195313;-0.011703719;-0.037406307;-0.14253968;-0.0052114576;0.09842916;-0.043470606;0.16738556;0.22045875;0.438279;0.09201607;-0.04337599;-0.096994236;-0.01812962;0.015576076;-0.039482076;0.33376622;0.010328516;0.24209538;-0.08013057;-0.03622716;-0.23107085;-0.17794855;0.16864331;0.21745206;-0.00047122908;0.07671804;-0.022159949;-0.041337468;0.005295085;0.12838861;-0.033400442;0.017044801;0.01451323;0.0072760773;0.09290349;-0.04074652;-0.008583578;-0.1141978;0.06922673;0.25912526;0.12065421;0.27067778;0.023667619;0.21854788;-0.012807672;-0.15975578;0.120281875;-0.034158237;-0.12755764;-0.07199548;-0.102778465;0.055001426;-0.13827822;0.021419544;0.23124196;-0.025796259;-0.045752905;-0.023503082;-0.06396252;-0.08601866;-0.08033649;0.0057629375;0.21173294;0.028026236;0.3069182;-0.121954985;-0.22861195;-0.17641842;-0.062504746;-0.16692403;-0.09933445;-0.120442435;0.16917588;-0.20186855;0.15004148;0.20644993;-0.15337339;0.11099393;0.010447716;0.2750618;0.041540384;0.046600904;-0.028778324;0.14275134;0.02300089;0.03055293;0.25289223;-0.22649011;-0.027120756;-0.16458614;0.05428606;-0.14283735;-0.0553693;0.16358867;-0.17478034;0.051276576;-0.24580078;-0.09090896;0.2049541;0.106513396;-0.052690174;0.026037905;0.01879498;-0.04368947;-0.11774305;0.1724208;-0.011518202;-0.030330945;0.13271597;-0.026107874;-0.08138316;-0.042184055;0.017282216;-0.060916733;0.010281002;-0.009905383;0.050161716;0.018598681;0.060574837;-0.05372185;-0.03843516;0.019689051;-0.39947295;-0.40130335;0.023308065;0.038962428;-0.027018096;-0.035106417;0.2352628;0.24634115;-0.3720848;0.0025869783;0.0035255698;0.17120284;-0.22552212;0.009585295;0.03111437;0.2681726;0.010283825;-0.08188119;0.088059776;0.015309822;-0.03516982;0.12438009;0.27606452;-0.1531071;0.2160665;-0.00470306;-0.07909226;-0.13761126;-0.01368147;0.041350316;-0.009216616;0.18659377;-0.35968104;-0.27224615;0.00028784346;0.21271864;0.07975912;0.031192403;0.113718465;-0.09730493;0.0051868986;-0.41022956;-0.0043454072;-0.007909098;0.064473726;-0.10897009;0.062431753;0.011267342;0.079796426;-0.018841371;-0.003976146;0.21213509;0.2690484;0.013902219;0.21207245;-0.044820886;0.06444083;-0.03686937;-0.018159492;0.19234227;-0.12448733;-0.22833392;0.0077670678;-0.019692719;-0.02110319;-0.086873665;-0.06296654;-0.12916565;-0.039905787;0.41590324;-0.0117347;-0.15412979;-0.013472134;0.02926501;-0.23413698;0.06667251;0.039526097;-0.020833325;0.06566558;-0.014207675;0.33585262;0.34475228;0.011523194;0.093382925;0.0055123437;0.026990205;-0.062428046;0.13664307;0.01632736;-0.046353355;0.3317587;-0.04013349;0.033205908;0.021388624;0.19966158;0.21181351;-0.031096566;0.04601116;0.06175019;-0.0351154;-0.15717466;0.056113947;0.037215628;0.016883735;0.095390804;-0.03256444;0.43508235;-0.18531874;-0.028770838;-0.4157515;0.23142807;-0.0476829;-0.04705277;0.22065938;-0.024973137;0.37424302;0.060688056;-0.17095686;0.16367798;-0.27708557;0.05285225;-0.10771608;-0.038329076;0.028288264;-0.097931355;-0.11670448;0.02398911;-0.10466679;-0.13742267;0.055033587;0.008757508;0.09772693;-0.025746169;0.049820513;0.21495746;0.017688699;0.040242232;0.07561577;0.09362145;-0.0720112;-0.2556276;0.022524234;-0.20359261;0.0079689;0.08888653;-0.024003407;-4.1668067e-05;0.05115056;-0.05128212;-0.07639301;-0.024829706;-0.003702079;0.13762587;0.21980776;-0.02029524;-0.14284587;0.22880383;-2.3434095e-06;-0.051665094;-0.023840308;-0.0806811;-0.13344307;0.011415158;0.0564716;-0.12630688;-0.0584441;-0.2414708;-0.019405086;0.0069934214;-0.09650543;-0.14000557;0.07224592;-0.014329469;0.02630575;0.117732204;-0.025812041;0.21753721;0.12728125;-0.073930524;0.009375308;0.18083085;-0.0029760338;0.079890504;-0.0019499894;0.06821382;-0.09616446;-0.006192733;0.17171735;-0.032790273;-0.01034005;0.07411492;-0.44797537;0.2262639;0.047950745;0.12104311;0.05987755;-0.030634098;-0.020873392;-0.024429826;0.19580998;0.039817706;-0.4422874;-0.0377517;-0.13782986;-0.050688073;-0.008720749;0.028023306;-0.019688545;-0.2667988;0.22945364;-0.10066201;0.00017648861;0.0006882474;0.28698292;-0.46360672;-0.07676522;-0.32433122;0.00038593853;-0.08608938;-0.035226714;0.27539676;0.042454317;-0.042637993;0.04687117;-0.21375132;0.15853827;-0.046971954;0.00893993;0.05321116;0.061662562;0.22981526;-0.044613697;-0.09722807;0.13280487;0.46768662;0.20416307;0.08506936;0.031556528;-0.025547389;0.23342207
0.017025905;0.11040473;0.014063089;-0.06632789;-0.022589816;-0.08232191;0.039063048;0.0500279;-0.10616145;-0.06492523;0.084118135;-0.23120637;0.063036226;0.067852646;0.0075836857;-0.035837397;0.18279567;0.04806561;0.051584892;-0.0009011773;0.21988824;-0.015602184;0.17162956;0.061881486;0.2221584;-0.031633675;-0.024385389;0.12753512;0.023201922;0.09981718;-0.122657135;-0.21985951;-0.14651024;-0.15046118;0.0047385264;-0.005812103;0.06431463;-0.1172885;0.01287468;0.067304365;-0.06048818;-0.083474085;-0.3234432;0.025522051;-0.033182893;0.07236879;0.04227874;0.18034683;0.25232622;0.009861481;0.05500736;-0.014612424;0.01999526;0.29412976;-0.34828848;-0.071971744;-0.26586348;-0.022095002;-0.21022065;-0.062314276;0.011840796;-0.020159177;0.024054972;-0.087879464;-0.026780521;0.001755188;0.31985125;-0.24049641;0.03385498;-0.01072611;0.052142672;0.050189815;-0.15628844;0.0061810836;-0.037201907;0.00020969039;-0.032540135;-0.047150724;0.14053792;-0.060009174;0.21706799;0.122634016;-0.22648647;-0.033905175;-0.40020776;0.09141071;0.006926145;0.05919122;0.16642706;-0.22555122;0.049082957;0.2701816;0.01755769;0.057072345;0.1157718;0.057812933;0.03523911;-0.06885027;0.00457564;-0.08879146;0.091084294;0.05867232;-0.08696726;0.0097382795;0.19434395;-0.027279152;0.02465382;0.010027584;0.045784105;0.035763267;-0.06332003;-0.057947855;0.23159988;-0.049990766;0.014250983;0.07527274;0.009442955;-0.000580925;0.023914004;-0.04690496;0.0074934606;0.118321925;0.009485762;0.018347941;-0.34375274;0.025197035;0.04804786;-0.076579064;0.28320217;-0.022793379;-0.035364665;0.084336184;0.012536602;-0.012680449;0.034416623;0.01586195;0.071676396;0.031945415;-0.082725585;-0.027359495;0.11227448;-0.046832304;0.02972664;0.09264834;-0.25299114;-0.16687775;0.03882681;-0.25961432;-0.0153278755;0.039594434;-0.049303144;-0.34274188;-0.041643914;0.13191235;0.033503283;0.11798553;-0.23366529;0.0061508827;0.030023033;0.051603444;-0.15099233;-0.18677478;0.044001743;0.0820786;0.04224402;-0.059863664;0.18864962;0.18230419;0.15055397;-0.1422732;0.056952924;-0.075049534;-0.04806765;0.012832709;-0.044395123;0.012560221;0.115827866;-0.025490284;-0.1939395;0.24377605;-0.07315035;0.2516694;0.009190336;-0.28479168;-0.0081976345;0.053936135;0.08018517;0.017615298;0.197679;-0.019911077;0.09231385;-0.04112675;0.009159008;0.018013127;-0.19083878;-0.19619307;-0.07672749;0.21012841;-0.022593025;0.0052992823;0.07628124;0.04846636;-0.06860502;0.099835664;-0.014134633;0.06731395;0.04405447;-0.22266836;-0.14258265;0.059786454;0.028779894;-0.041478574;0.05902082;0.056629416;-0.04713253;-0.024021266;-0.06869942;-0.026942657;0.14044844;-0.1606155;0.14053893;0.14611204;0.35973462;0.054774314;-0.013023469;-0.17930733;0.029210133;0.07264083;0.051257536;0.37000656;0.00986316;0.24785563;-0.042489644;-0.10952352;-0.2067484;-0.106069714;0.059824284;0.13442762;0.02086768;0.16532677;-0.073865466;-0.13163571;0.0320747;0.034146037;0.04838696;-0.08039655;-0.10478688;-0.021750806;0.008535168;0.059899956;-0.07555043;-0.026064279;-0.21394786;0.2750396;0.12171317;0.08209632;0.032546535;0.24004805;0.05932068;-0.107917085;0.06875127;-0.11740274;-0.104313254;0.044101898;-0.16899268;-0.04380543;-0.107649885;0.016196784;0.19758318;-0.048638523;-0.20695661;0.12974852;0.042000864;0.074408665;0.059535637;0.032584596;0.22704926;-0.010699468;0.21538973;-0.171129;-0.25390682;-0.068514705;0.0722012;-0.0064932895;-0.046064198;-0.13410975;0.32767665;-0.24429366;0.15724315;0.017954934;-0.07410934;-0.11496926;-0.03296779;0.25479293;-0.013036985;-0.041941456;0.110969976;0.20862627;-0.012805653;-0.0024924225;0.25935948;-0.22131124;-0.041183162;-0.18556437;-0.02024839;-0.20277962;-0.09432558;0.08339389;-0.25669423;-0.17978282;-0.17453654;0.012891427;0.05833855;0.13132022;0.0061232606;0.009937854;0.022388756;-0.010117423;-0.23787698;0.107316084;-0.016447766;0.02305058;0.062086236;-0.06685951;-0.07997034;0.052314438;-0.065502696;-0.042185064;0.100416206;-0.031345557;0.035954844;0.045356706;-0.045062825;-0.00749932;0.082749054;0.16698302;-0.4271218;-0.39289242;-0.044729408;0.07011427;-0.00031980843;0.04341632;0.17813845;0.27443263;-0.40556538;-0.041456524;-0.012098775;0.15007676;-0.20964868;-0.05456115;-0.0035243265;0.19363941;-0.016967295;-0.013900821;0.08569458;0.02302669;0.050738018;0.16881013;0.2750899;-0.19895647;0.35833532;0.07779794;0.030618418;-0.07122418;-0.03895656;-0.034588713;-0.0023764314;0.30220547;-0.42705208;-0.11638294;-0.12183381;0.18420076;-0.069074355;-0.03462236;0.04010657;-0.10122342;-0.037943467;-0.50231713;0.09201907;0.0011458702;-0.25006035;-0.079424925;-0.04847695;-0.14116606;0.054392137;0.043290474;-0.07998317;0.06950159;0.31068364;-0.05549422;0.06753151;0.004980006;-0.022119828;0.083095804;0.0070202043;0.13866189;-0.13573493;-0.12465216;0.00015153884;0.0475452;-0.10156156;-0.113910496;-0.09777062;-0.11789529;0.0014748601;0.38219857;-0.05002013;-0.016700953;-0.0035838983;0.09969425;-0.045735423;0.052102078;-0.0550552;-0.0415679;-0.15066503;0.08794763;0.29928064;0.25089628;-0.09296885;0.19152158;-0.024796192;-0.07204666;0.06096619;0.16883881;0.056878258;-0.00090349995;0.27032888;-0.011264783;-0.0042740414;0.003917213;0.12975524;0.22893998;0.06477099;-0.044341333;-0.021859786;0.014400766;-0.11199369;0.08596578;-0.022638435;-0.022453427;0.072819024;0.0024992735;0.4766752;-0.20795213;0.01637376;-0.30738673;0.12377169;-0.009690547;0.02479736;0.22922477;0.0010570269;0.17933926;0.12039326;-0.14786322;0.08311373;-0.2646372;-0.04314413;-0.18860896;0.0593024;-0.01468583;0.0291493;-0.06583228;0.03844823;-0.046422638;-0.14532155;0.046476435;-0.0067993337;0.08986658;-0.055014174;-0.02740897;0.30327243;0.05924183;-0.06029053;0.019810336;-0.043635134;0.025972465;-0.10154033;0.0025139526;-0.19597915;0.012126314;0.16406782;-0.030085055;0.002851654;-0.0039216643;0.07568477;0.0924773;0.0069192033;-0.018011207;0.104516394;0.14691141;-0.021275682;-0.06771425;0.08020837;0.07042678;0.06460745;-0.10504381;-0.07140572;-0.05976865;0.0055865785;0.0215437;0.013304413;0.01839353;-0.11914475;0.013482421;0.026747016;-0.0011169149;-0.21752484;-0.07021524;0.0059559555;0.014513312;0.09239244;0.062899016;0.2950294;0.21775153;0.059506137;0.06111111;-0.027858872;0.101568826;-0.0012534191;-0.108290605;-0.031664036;-0.019961985;-0.009058982;0.13540454;-0.0047667553;0.111307755;-0.011851649;-0.36989793;0.107690215;-0.010623762;0.089344166;0.30412638;0.070983626;-0.05762898;-0.036229655;0.14934252;0.06259094;-0.31691942;-0.18401812;-0.14915065;0.049999833;-0.04041951;-0.030890046;0.012739112;-0.39518145;0.27582863;-0.104032435;0.054438088;-0.06650691;0.2579183;-0.5031195;-0.17461261;-0.37852427;-0.050786484;-0.158481;0.04331488;0.2889369;-0.039043285;0.063228965;0.11415434;-0.09530997;0.112120226;-0.15298575;-0.04926499;-0.03451018;-0.059045967;0.3451046;-0.020413496;-0.12056509;0.06422886;0.49571612;0.37275276;0.08556577;0.024299907;-0.014832638;0.077738896
-0.022056112;-0.013520172;0.071983874;-0.012997762;0.04464588;-0.11576871;0.0120081045;0.039118495;-0.016475072;-0.019140508;-0.06044242;-0.12079349;0.19571397;0.20156157;-0.0021702028;-0.04033286;0.14001772;0.03190533;0.005755933;0.068092234;0.15345775;-0.0071520163;0.3011783;0.124357335;0.1654129;-0.039432157;0.02741872;0.046313487;0.0020744922;0.13539217;-0.09791064;-0.23516315;-0.14650102;-0.3200181;-0.04146215;-0.013015551;0.100760356;-0.06252669;0.042491183;0.012078114;-0.03006149;-0.039566465;-0.26560327;-0.011660246;0.022321396;0.16923343;0.09128165;0.14429994;0.26657626;-0.009696509;0.021513363;0.050571963;0.01155162;0.096220024;-0.14594598;-0.17925158;-0.2361677;0.0092664575;-0.19203971;-0.091637336;0.010548024;0.0025651667;0.09281921;-0.026346872;0.064128175;-0.022636568;0.24445496;-0.23595357;0.038138118;0.018213706;0.019641515;0.13301027;-0.18361261;-0.00495703;0.03760594;-0.03834352;-0.025390657;-0.011452591;0.08655613;-0.03144278;0.2891984;0.095904924;-0.21925528;-0.02291916;-0.27410573;0.02894989;0.11058027;0.049166378;0.24295874;-0.21227464;0.20449875;0.28853053;0.15637916;0.15665117;0.20654947;0.03763586;-0.03406359;0.017768325;-0.026135435;-0.16488105;0.032398634;0.11601532;-0.09800587;0.05047687;0.21751268;0.021677155;0.035296775;-0.067145;-0.034058537;0.16179368;0.07765945;-0.07339241;0.18705848;-0.21853484;0.029144933;0.07647714;-0.018920245;-0.0001945241;-0.023598667;-0.011960482;0.0068344586;0.11312525;-0.035558566;0.15847273;-0.15543787;-0.036283094;0.07152599;0.14023821;0.29542825;-0.019724477;0.06050994;0.09548252;0.06065633;-0.030349677;0.11160018;0.0014695579;0.10548769;-0.05017489;0.052219667;0.054343905;0.19900197;-0.05464877;0.020544989;0.010345348;-0.24205512;-0.0469816;0.16916965;-0.10894643;-0.063070275;-0.08503513;-0.16819894;-0.20335147;0.02493259;0.005124935;-0.098042995;-0.1397249;-0.148516;-0.003956324;0.038870506;-0.022586348;-0.09693919;-0.13037531;-0.018284278;-0.0057917503;-0.036911134;-0.20628367;0.2297982;0.05895249;0.02603429;-0.16595389;0.12166299;-0.1069642;-0.13188303;0.23476318;0.0193799;-0.07489952;0.01270106;-0.054603156;-0.19301139;0.014810711;-0.004172833;0.22219577;0.06941379;-0.35757554;-0.043554563;-0.037043974;0.0029680957;0.14397758;0.09860577;0.018619498;0.18806198;-0.04304456;-0.016857047;0.01832447;-0.19453664;-0.14439268;-0.08785649;0.13471009;-0.14935972;-0.044214476;0.021619381;0.18214114;-0.111469336;-0.17535919;0.13235933;0.16117024;0.008827235;-0.17254856;-0.15086482;-0.010651742;-0.036725033;0.04812534;-0.056611173;-0.02615482;0.061813664;-0.03287856;0.03208583;-0.04557409;0.1961692;-0.17966177;-0.084436335;0.25192586;0.15748176;0.15987305;0.019159647;-0.05620576;0.011190938;0.059191868;0.0027246953;0.16505349;-0.015814502;0.10726022;-0.15920618;-0.07092736;-0.18973298;-0.11260533;0.11416739;0.08193566;0.0056144274;0.17030688;0.021822145;0.123038895;0.055459995;0.118608944;-0.020230833;-0.010504007;-0.039137464;0.030968875;-0.00871935;-0.040312592;0.0356586;-0.10941799;-0.18236239;0.24648121;0.11793269;0.14265388;0.05049114;0.25462946;-0.017919274;-0.0147889545;0.12892696;0.025070792;-0.15384643;0.03341606;-0.08374923;0.022028482;-0.20141193;-0.039637137;0.14351195;0.001683561;-0.20559539;-0.032538503;0.06337686;0.09906075;-0.0050630784;0.05212097;0.3215039;0.032408036;0.25950864;-0.10779237;-0.24206543;-0.10427988;-0.007304401;0.044881802;0.110404566;-0.090442955;0.2349567;-0.35110626;0.12863877;0.045975666;-0.17040661;-0.16096602;0.06161471;0.21812168;0.0547198;0.042466655;-0.031029081;0.3129844;-0.086842336;0.04316184;0.35621044;-0.19314052;0.026778461;-0.21447256;-0.005808302;-0.077347845;-0.03735186;0.12826835;-0.076963075;-0.04257784;-0.067572616;0.011331349;-0.006257515;-0.16358352;0.0982245;0.05505626;-0.07697317;0.018076759;-0.20189795;0.154556;0.0141157815;0.008396642;0.124827124;0.05785494;-0.09716708;-0.07008416;0.055307776;0.029067252;0.009349273;-0.0032072645;-0.07104342;-0.07948107;-0.053925328;-0.002261044;0.04027335;0.06396527;-0.4066908;-0.37081912;0.0038571632;-0.011791765;-0.0015724568;0.010339865;0.2098601;0.2131313;-0.23969394;0.13494223;0.20421414;0.14171976;-0.27059215;-0.009224075;-0.0158319;0.07406767;0.018273827;-0.064161755;0.028774267;0.19492386;0.016907947;0.1745688;0.1773464;-0.11610547;0.4249474;0.14977123;0.022295931;-0.090422295;-0.020427609;-0.0286789;-0.044962678;0.13473298;-0.38410687;0.0011254695;-0.10688967;0.09470381;-0.096082315;-0.02591589;0.20747168;0.010240602;0.0036497978;-0.40473327;0.08410819;0.043492183;-0.35593742;-0.08068788;-0.055601913;-0.18828206;0.044485763;0.04119693;0.042435028;-0.0056886193;0.124538064;0.008311877;-0.023000622;-0.055072084;-0.0314197;0.1694877;0.024721194;0.18481079;0.034439877;-0.13226646;-0.049625948;-0.08588068;-0.1447631;-0.13490081;-0.093841866;-0.18531369;0.12938674;0.3340403;-0.07953371;-0.08864797;-0.026356824;0.15717916;-0.0051180995;0.18347096;-0.04288804;-0.021406813;-0.09462839;0.12478595;0.35602432;0.21474497;-0.18722099;0.15616705;0.060615648;0.03448589;0.007063428;-0.025312848;0.121913195;-0.0036813691;0.22404875;-0.06686844;-0.15915392;-0.055446446;0.0048404285;0.059994534;-0.004436631;0.031040415;-0.026162;-0.034985352;-0.08237196;-0.046637297;-0.039286282;-0.043640472;0.07038853;-0.014292696;0.3226447;-0.22517587;-0.0075668516;-0.3526617;0.2664041;-0.026411807;-0.12305957;0.29291523;-0.054005824;0.06851789;-0.024292532;-0.10835582;0.12512119;-0.20708376;-0.035036657;-0.054634433;-0.038811535;0.030312419;-0.0048504537;0.04881963;-0.039631434;-0.05021495;0.12488953;-0.0056448085;0.035466515;0.12007533;-0.075620875;-0.028281976;0.3403301;0.00014645429;0.1092554;0.13939779;0.1685805;0.023093617;-0.093992434;0.032852806;-0.19883715;-0.039390776;0.13981071;-0.24134351;0.0031641736;0.023184717;0.284657;0.13632138;0.048447862;0.041105643;0.055629592;0.24916352;-0.0641362;-0.18628177;0.059760854;0.008899831;-0.047557972;-0.16738819;-0.06761912;-0.041621342;0.022921266;-0.06573136;0.13548297;0.009642432;-0.062185366;0.04441495;-0.012539396;-0.022267709;-0.33261773;0.03885696;-0.04180404;0.0056602126;-0.07802611;0.10626689;0.2403904;0.10622905;-0.066637866;-0.08720619;0.020337585;-0.16151763;-0.03942188;0.07746039;-0.032545388;-0.031765483;-0.015377963;0.17242785;-0.02357466;0.053540576;0.01565419;-0.14767087;0.18411106;0.07506903;0.13973005;0.23160988;-0.050581533;-0.016952066;0.06576054;0.16652215;-0.06109101;-0.3364911;-0.21777166;-0.3182366;0.016665645;0.03344164;0.03259704;0.020117007;-0.413521;0.10910766;-0.091976464;-0.021152375;0.024978278;0.09812528;-0.4208945;-0.27296484;-0.3508548;-0.0031900662;-0.03506022;-0.20331156;0.25843304;0.01328702;-0.027919037;-0.0035996577;-0.1557377;0.32646424;-0.072678;0.040165;0.029017003;-0.18649647;0.34060192;0.0679031;-0.39851636;0.052890234;0.29436556;0.3639873;0.27263895;-0.00052237266;-0.016092397;0.16903089
-0.010122058;0.13250965;0.021428932;0.07230066;-0.0008369306;-0.060867205;0.020356415;0.021802265;-0.10318378;0.03877731;-0.065227315;0.062223785;0.0418007;0.16231449;-0.05017905;0.051754292;-0.029042557;-0.036870517;-0.012794567;0.05614362;0.23376775;-0.01790225;0.2183791;0.37459618;0.11712659;-0.061807636;-0.15992196;0.14025776;-0.050799046;0.1502622;-0.16903362;-0.25356063;-0.09606223;-0.023444518;0.028067503;-0.0135640055;0.037279893;-0.016814051;-0.19089046;-0.13120905;0.07550609;0.04053226;-0.117190324;0.20138708;0.023481537;0.018162893;0.027008547;0.26131877;0.1672176;-0.06288248;-0.007524021;0.006676695;0.011510242;0.19006795;0.0043797926;-0.12670203;-0.058673043;0.0054478785;-0.23756903;-0.14963302;-0.1272911;-0.09368506;0.06193091;0.0027804985;-0.053641353;0.037694473;0.17603704;-0.12111844;-0.07748035;-0.0014547135;0.004208085;0.093041375;-0.20148332;-0.01318375;0.039745;0.054044407;0.04599519;-0.16265304;0.04045864;-0.013878491;0.1915799;0.1688217;-0.11877877;-0.007591305;-0.29358265;0.024403285;-0.14541976;-0.07813718;0.3030835;-0.19046827;0.18828525;0.058863256;0.10778207;0.0044722087;0.015970243;-0.04713922;-0.10776499;0.13312624;0.031472377;-0.051441588;0.07969392;0.227332;-0.19261304;-0.073859364;0.11847385;-0.030603334;-0.07952743;0.05739758;0.014541832;0.1813996;-0.068361185;0.112106495;0.27813846;-0.13103491;0.02285278;0.088688806;-0.0007282266;-0.08166762;-0.032830838;0.011862611;0.09490695;0.118394576;-0.016284525;0.015268423;-0.058646172;0.038600586;-0.022136271;-0.035939794;0.2560888;0.025093086;0.17643675;0.047551118;-0.049585313;-0.017413847;0.055020526;-0.045125596;0.19499475;0.020064894;0.028053125;-0.052218027;0.111986965;-0.09377566;0.014641025;-0.011016452;-0.077542335;-0.124287136;0.24180011;-0.029290594;-0.0077460282;-0.007463717;-0.16656029;-0.07292725;0.0069714636;-0.03913584;0.0018167557;-0.012625833;-0.11721208;-0.005226923;-0.0756472;0.0027671682;-0.043594047;0.034885164;-0.014254529;-0.06183404;-0.049343083;-0.29483533;0.16874251;0.13975576;-0.031897984;0.025261188;0.100654006;-0.0835691;-0.043614134;0.14846875;0.030807177;0.06490282;0.07015336;0.02670296;-0.36946014;0.045762274;0.013062202;0.18195762;-0.047421362;-0.36979997;-0.02417014;0.0145842545;-0.023562072;0.17971873;0.17473407;0.122500606;0.11026059;-0.0018513306;0.060384467;0.045192227;-0.19975983;-0.15390608;-0.047764964;-0.0044036503;-0.00019800427;-0.021911222;0.040306386;0.08196502;-0.117397375;-0.06655045;0.02693231;-0.0122306;-0.06650866;-0.13857695;-0.19201025;0.03690345;0.025105992;0.0060519604;-0.014283732;-0.037950583;-0.046176367;0.022366256;-0.09007241;0.0018073387;0.047596745;-0.080161706;0.13295756;0.21522419;0.20493461;0.14101662;0.056287482;-0.14101563;-0.012288059;0.05542602;-0.016965974;0.1481077;-0.048129212;0.22243738;-0.19231012;-0.079315394;0.027599595;0.06108916;0.21376248;0.1940757;0.010950354;0.055971086;-0.11634486;0.16866325;-0.022468824;0.04730492;-0.02867201;0.013564056;-0.10754649;0.13852412;-0.16062205;-0.0053529646;0.01997967;-0.09749947;-0.29243952;0.21515507;0.008639113;0.30967525;0.06728322;0.21855314;0.0763623;-0.09568498;0.15862527;-0.026653174;-0.18990096;-0.034743853;-0.023973476;-0.032142766;-0.06831715;0.020377701;0.040637113;0.04153784;-0.24997923;-0.0949666;-0.0669195;-0.13827704;0.03492031;0.04001816;0.22514623;-0.031854652;0.18426876;-0.11717996;-0.17533764;0.057184353;-0.027995443;0.093728445;0.090360485;0.011545732;0.14879997;-0.22952908;0.10154085;-0.014408249;-0.21136133;-0.4399954;-0.0063091135;0.17051837;-0.058818005;0.0015596262;-0.064713426;0.50177574;0.037278038;-0.07139867;0.33505508;-0.18574838;0.045594923;-0.026240364;-0.06581147;-0.10606495;0.033040497;0.022123672;-0.17565481;0.009771042;0.04544883;-0.03816122;0.0019332202;-0.07439973;0.009769985;-0.0411606;-0.28376326;0.020102281;-0.20687479;-0.106128775;0.035573587;-0.030492287;0.07909033;0.009674787;-0.06727622;0.058303937;0.033804305;0.029520651;0.037762295;0.008168222;-0.08061664;-0.01496858;-0.00667497;-0.016206192;0.028055642;0.05383687;-0.2883776;-0.34049925;0.03307438;0.057833616;-0.039505646;-0.05334834;0.1774085;0.18286502;-0.25654486;0.22388825;0.17323048;0.21680582;-0.04597215;-0.0029756797;0.006797946;0.11380959;0.011679171;-0.13769516;0.031194726;0.14794612;-0.056267183;0.1957953;-0.046484526;-0.27484602;0.2996133;0.05566932;-0.030281452;-0.05797881;0.054367032;0.06211125;0.08432425;0.121713676;-0.408179;-0.0060585;-0.112735264;0.28628406;-0.088801906;0.047813643;0.19641753;0.0783072;-0.03707865;-0.43673036;0.07580812;-0.08404981;-0.29761916;-0.07447688;-0.00024915018;-0.21194208;0.10886204;-0.035075672;-0.0030431224;-0.060213324;0.06906177;-0.005076966;-0.007237152;-0.0018266003;0.051971074;0.04776317;0.052194126;0.14957362;-0.013485098;0.11137519;0.033827666;0.011123648;-0.062208176;-0.10268582;-0.0204942;-0.17185724;0.063277416;0.37368822;-0.068802044;-0.09355731;0.00403133;0.25358218;0.09967339;0.116067514;0.03539964;-0.11667051;-0.11881455;0.09258167;0.1530672;0.20249955;-0.23199113;0.26708716;-0.045966633;0.024587069;0.031917088;-0.056281943;0.056993626;0.017746398;0.29360268;-0.07259372;-0.08103903;0.037802942;-0.065132715;0.11397926;0.05299966;0.001114967;0.039092008;0.0026193238;-0.15384768;0.092102334;-0.027649691;-0.05402033;0.075311735;-0.01663537;0.30669332;-0.18573922;-0.0289981;-0.20365459;0.18207477;0.044624634;-0.22008182;0.31664452;0.060407296;0.080779515;0.028146422;0.03796891;0.03468667;-0.2268647;-0.20428894;-0.05307322;0.033033937;0.004589778;-0.05127228;0.098197736;-0.012493134;-0.07974235;0.09820651;-0.06359256;0.020074295;0.079389244;0.12323148;-0.0040151863;0.2342775;-0.09712166;0.082802944;0.09449367;0.15211384;0.09874558;-0.0009010039;0.05221474;-0.19215207;-0.028799858;0.07820814;-0.06233008;0.035244577;0.05659861;0.35571596;0.10984113;-0.04336342;-0.05740506;-0.008816397;0.14978613;-0.03969608;-0.27193907;-0.006963481;-0.04072906;-0.0037921574;-0.030110165;0.06375067;-0.20410444;-0.013219933;0.045899417;0.17894872;0.062289994;-0.029057518;-0.036312;0.041217487;-0.07046003;-0.32979998;0.0052918545;-0.0023988406;-0.05059357;-0.1918585;0.2720618;0.07925206;0.12302603;0.020911703;-0.18536314;-0.12711824;-0.13695803;0.0100729205;-0.037026152;-0.08170758;0.07584406;0.037105773;0.098569006;0.017638555;0.09034831;-0.013705785;-0.14702187;0.14198229;0.016025903;0.23867755;0.18275686;0.039638206;-0.16459015;0.057748217;-0.018252019;-0.018121341;-0.20665981;-0.06807295;-0.4031943;0.018783158;0.058855396;-0.005331982;0.014668471;-0.45880288;-0.08949744;0.09520512;0.055995636;-0.014113944;0.033538066;-0.21057303;-0.21844214;-0.21855232;0.008487471;0.0051925536;-0.044031173;0.18541072;-0.05552437;0.010400369;0.095026754;-0.031399153;0.23306592;-0.2045356;-0.04796085;0.023670174;-0.31636995;0.22871663;0.023819355;-0.37206846;0.13281572;0.30589342;0.5161756;0.15893212;-0.0729444;0.0052876836;0.13406353
0.06591068;-0.03329923;0.11378584;-0.010970238;0.024641799;0.021074245;-0.03768361;-0.012587396;-0.11370563;0.10884595;0.067898415;0.19888821;-0.08216967;0.25112095;-0.09561044;0.03285728;-0.06672185;-0.025289392;0.044071138;-0.014365356;0.18915728;0.06617814;0.1725186;0.23948017;-0.012928524;-0.07250714;0.026161268;0.058879826;0.0072942246;0.12653299;-0.2292503;-0.14666578;-0.084242865;-0.012113998;0.025940595;0.051653862;-0.040319633;-0.044453036;-0.18732074;-0.06670401;0.074555874;0.08008365;-0.077913076;0.1270589;-0.025582071;0.042548656;-0.08136575;0.2820889;0.07709945;0.0286838;-0.060599554;-0.027299907;-0.0036128203;0.10908025;0.04035959;-0.05354372;-0.1225666;-0.056256205;-0.12350313;-0.0782956;-0.07990254;0.060009316;0.080164105;-0.0080631375;-0.021369694;-0.03353855;0.20926064;-0.1796084;0.023635134;-0.07329867;-0.048639778;0.24138603;-0.080245316;0.0066730864;-0.019762607;-0.016486099;0.0026904778;-0.15383099;0.049446903;-0.15075266;0.07192601;0.16653277;-0.07953777;0.023924649;-0.2801918;0.022661649;0.02531882;-0.019082263;0.3667432;-0.24520159;0.18598083;0.12311799;0.06936914;-0.014655613;-0.057548143;0.001861521;0.04374186;0.19193868;-0.046396617;-0.12524451;0.13556416;0.14727472;-0.18072002;-0.01443489;0.18922205;0.03493009;0.019473085;0.033975918;0.009555368;0.031919174;-0.105502166;0.095592365;0.17571111;-0.22182326;-0.025014803;0.23459522;0.015337292;-0.01719043;-0.009579368;0.056298606;0.02356413;0.03416832;0.031288065;-0.023918314;-0.22546354;-0.024538685;-0.011443775;0.052812684;0.21253219;0.027057149;0.06787808;0.21056926;-0.023964448;0.05419993;-0.09244379;0.027662424;0.124983415;0.008424576;-0.060812682;0.029923843;0.059525922;-0.085942686;0.0013325362;-0.0061293226;-0.1341115;-0.03926708;0.22482535;-0.004429355;0.039599895;-0.005434587;-0.22395626;-0.112696186;0.055926263;-0.124192216;-0.00012149221;0.034698058;-0.06506773;0.016872872;0.06665767;-0.02272801;-0.21226504;0.028861748;-0.011516438;0.028907953;-0.01327156;-0.17786843;0.17717907;0.11534437;-0.018224504;-0.010808577;0.08865563;-0.03843646;-0.14343105;0.09321592;-0.011109743;-0.03520907;0.061267637;0.054374415;-0.32256207;-0.14648359;0.018546518;0.23342441;0.0063838833;-0.3166756;0.048480302;0.012987241;0.050013624;0.18537821;0.01369773;0.0013035677;-0.11069521;-0.03881146;-0.035043035;-0.063890465;-0.13076153;-0.16613553;-0.008508887;0.122212365;0.10439101;0.07774112;-0.00018520615;0.07155909;0.03289727;-0.063494965;0.24454962;-0.09514235;0.0026824079;-0.08148628;-0.14610335;0.013666592;-0.012122261;-0.03337464;-0.21219482;-0.025150253;-0.040280983;0.016578548;-0.11822156;0.029274393;0.09643566;-0.13848393;0.14140643;0.19269966;0.14903289;0.21842101;-0.017858002;-0.20866746;0.014026628;-0.08448806;-0.009463921;0.09345884;0.06790801;0.1895045;-0.038889088;0.071446136;0.1604743;0.10712565;0.050481223;-0.17005397;0.0019415143;0.02166093;-0.09523309;0.22335958;-0.044642366;-0.014524852;0.05677525;0.011401468;-0.068461;0.016967978;-0.18179263;0.010100095;0.050238214;-0.012743802;-0.13284636;0.23932403;0.12563714;0.26545328;0.027287664;0.21201164;-0.041879293;-0.1830866;0.0058311606;-0.11969941;-0.09156781;-0.034431268;0.035370626;0.021374667;-0.2041687;-0.062388897;-0.04742044;0.001304185;-0.2443181;-0.12585703;-0.02619475;-0.017483704;-0.03546801;0.036788963;0.33084133;-0.030861888;0.26987845;-0.108371116;-0.13066106;0.13184953;0.048500042;0.16854098;0.01178941;0.13973196;0.10482526;-0.1277906;0.1483386;-0.1605675;-0.291425;-0.36934036;-0.016210215;0.2768615;-0.17971972;-0.04257294;0.019265339;0.6364706;0.03654128;0.038083337;0.29492718;-0.30435362;-0.015435877;-0.05410038;0.010449475;-0.13436854;-0.0130762;-0.0051651774;-0.060634267;0.09556358;-0.004913717;0.015460462;0.11342931;-0.018499698;0.055087686;0.03977258;-0.24645188;-0.054083463;-0.086644635;0.0002904615;-0.048985314;-0.011402821;0.078707434;0.011134249;0.06576641;0.010309275;-0.056903195;0.06993315;0.00018500813;0.034432855;-0.23158354;0.050967325;-0.19197822;0.044212785;-0.01984779;0.048349656;-0.41526127;-0.4283075;-0.057865843;-0.049140327;-0.00046592264;-0.046864036;0.10221018;0.2148814;-0.10796666;0.39546072;0.14579256;0.24017967;-0.10770922;0.0636784;-0.021293106;0.14382723;0.040522266;-0.15545723;0.11493374;0.2359677;0.048177868;0.20341083;0.04260985;-0.2787911;0.2244586;-0.083013624;-0.011030258;0.10160295;0.001986652;-0.06110144;-0.08300267;0.12858444;-0.28497767;0.054570105;-0.11594728;0.1434096;-0.15107022;0.000647179;0.123097405;0.12938133;0.0259803;-0.36047277;-0.016272455;-0.02578844;-0.34730014;-0.043739375;0.07594876;-0.29395643;0.12367127;-0.0074463296;0.0060550435;-0.027659558;-0.08754668;0.012403275;-0.12012194;-0.0042148298;-0.038995337;0.10028177;-0.012745172;-0.032247882;-0.08494334;0.038893495;0.04427208;0.046886787;-0.14826538;0.0075803543;-0.05857113;0.02434535;0.15060584;0.22950503;-0.0008012448;-0.040613562;0.026405776;0.22229277;-0.19812067;0.11734224;0.009919076;-0.20002092;-0.12704411;0.12479942;-0.036815524;0.10772229;-0.065841325;0.30768877;-0.02467254;0.020805417;-0.002699114;-0.1317348;0.022814054;0.0036956868;0.2217823;-0.08747148;0.09097412;0.021749968;0.038339138;0.12160165;0.020581683;-0.01545907;-0.023028586;0.056698646;-0.19335061;-0.074190214;0.02655481;0.0147279315;0.0029650358;0.11471982;0.3084323;-0.020943584;0.027401527;-0.3277356;0.21251172;0.014427597;-0.18628454;0.10296553;9.379914e-05;0.055079706;0.016498515;0.04156379;0.0982531;-0.12165933;-0.13357858;0.022949135;-0.022263153;-0.06680443;-0.03355689;0.097334825;-0.014863346;-0.058452662;0.20974821;0.09063287;-0.040615547;0.067679584;0.18900874;0.039783526;0.17817895;0.019453874;0.200426;0.18221076;0.20788525;-0.027274545;0.014669172;-0.033206254;-0.14107615;0.0015879462;0.11749582;-0.07258893;-0.04509532;-0.06955032;0.2562969;0.28382206;-0.009142634;0.039130863;0.08114895;0.13101216;-0.010872187;-0.27970716;-0.018142285;0.007887074;-0.004296838;-0.109348565;0.03369112;-0.07047402;0.007668234;0.011816158;0.026431147;-0.024661712;0.03166508;-0.037104115;-0.016678344;0.026605744;-0.18553104;-0.052569423;-0.011469705;0.043954194;-0.098552406;0.29598197;0.050189346;0.13012919;0.010776544;-0.17980058;0.07378732;-0.17129986;0.010405072;-0.1369425;-0.12523893;0.02352311;-0.003561842;0.090275474;0.014213108;0.03237734;0.03283335;-0.057511173;0.1247002;0.10101024;0.1750997;0.2326223;-0.062323015;-0.21695425;-0.029707398;0.117701195;0.05241494;-0.1874117;-0.22308241;-0.30249134;-0.019961432;-0.024176264;0.04629188;-0.062096704;-0.3973569;-0.15327193;0.08655073;-0.010658718;0.023362711;0.016714495;-0.22011775;-0.14650181;-0.19570741;0.036789518;-0.039932366;-0.062090978;0.20072126;0.0022850283;0.012343051;0.15061828;0.13217303;0.20835586;0.002659195;0.0541487;-0.021299088;-0.20281726;0.1815391;-0.013149362;-0.5203621;0.047877852;0.34805232;0.4096679;0.31013525;0.017647414;-0.017931858;0.17937924
-0.0059871674;0.0933367;-0.037102353;0.006486506;-0.046738114;-0.05657223;-0.064618774;-0.031582348;-0.11413011;0.084691875;0.036623355;-0.013450614;-0.039837398;0.3082521;-0.086434074;-0.07456825;0.04297313;0.041905615;0.024766587;-0.022279806;0.205868;0.014561671;0.163852;0.23093334;-0.071791746;-0.021980202;0.080047294;-0.056323018;-0.0109413415;0.13810824;-0.28521284;-0.10769444;-0.20093404;-0.09635337;-0.051484678;0.006913445;0.1022632;-0.028835641;-0.22203012;-0.01833863;0.06477167;0.16738276;-0.092958115;0.06931942;0.019645607;0.078831114;-0.118074685;0.15664664;0.11238806;-0.027018378;-0.04847192;-0.026265161;0.0804057;0.06884514;0.06335901;-0.08141687;-0.13857073;-0.17624141;-0.019705707;0.0039511546;-0.10359031;-0.08712824;0.0739552;-0.033230394;0.06543653;0.013382931;0.08934894;-0.0069097737;-0.07687726;0.029520942;0.039943177;0.18979238;0.01826813;0.07791404;-0.031277608;-0.061641537;-0.021613793;-0.23779598;0.080141224;0.0035322874;0.15548497;0.12010914;-0.06558489;-0.0038864096;-0.19256926;-0.00087503804;-0.09931987;0.058020737;0.28095144;-0.099941656;0.1568857;0.15153952;-0.05038806;-0.09428667;-0.2132117;0.04949534;0.015189667;0.08776981;0.06003937;-0.08200446;0.0012340036;-0.064094655;-0.016950151;0.029911404;0.27689382;-0.017576529;0.03325868;-0.07194046;0.020986693;0.017818933;0.033468843;-0.02324062;0.24121028;-0.10023661;-0.039505463;0.066053666;-0.014203514;-0.056209162;0.049888726;0.062359843;0.008240454;-0.10322929;-0.019069653;-0.058135305;-0.11679667;0.050750192;-0.06499398;0.15341207;0.24763253;0.0085352855;0.08933654;-0.15701906;-0.04770485;0.035943545;-0.08304053;0.05155957;0.21147828;0.005033986;-0.00991836;-0.01981626;0.14126298;-0.0750171;-0.027618404;-0.006073827;-0.06253484;-0.10461051;-0.033285975;-0.112593785;0.029044079;0.000415939;-0.20072903;0.15739447;-0.0070148413;-0.20026638;0.039206736;0.061620608;-0.09988755;0.03251359;0.05647738;-0.031163258;-0.01600767;0.17764853;-0.041974213;0.03340078;0.041050933;-0.28332227;0.28768912;0.14288305;-0.0044937553;0.16689318;0.015335803;-0.16350766;-0.32730097;-0.024063664;0.03673836;0.034390353;0.0125877075;7.869275e-05;-0.16814363;-0.08740666;0.019861786;0.28306702;-0.00040957207;-0.18798544;0.025623035;-0.0045074485;0.0004221235;0.080797225;-0.0350561;0.008892512;-0.1377358;-0.105833925;-0.034726057;-0.036738448;-0.075686686;-0.23540881;0.108670115;-0.059966736;-0.0114716925;0.034991167;-0.015262744;0.091802046;0.0011405997;-0.09251375;0.45039085;-0.04955597;0.034548268;0.020117812;-0.04543478;-0.07991294;0.038666945;-0.033940103;-0.17194112;-0.014069574;0.05689873;0.014931778;-0.01946385;0.02563099;0.13924901;0.03606341;0.23373558;0.25988054;0.13717778;0.2678377;-0.04165337;-0.13320509;-0.021243112;-0.15933551;0.03479429;0.07605731;-0.04760203;0.13902707;-0.10485752;-0.02821787;0.0570335;-0.019254928;0.1264881;-0.14181997;0.047399167;0.04465892;-0.0668353;0.09657201;0.043355547;-0.01814877;-0.05371187;-0.003910415;-0.003465643;0.04536616;0.054145873;-0.025509471;-0.003456466;-0.013890728;-0.08770459;0.2315468;0.17298897;0.14713676;-0.0014673064;0.121019945;0.055652678;-0.03561486;0.05455029;-0.08880462;0.0083902925;0.0461607;-0.13038982;-0.015404582;-0.19506215;0.08244038;-0.08136817;0.07934788;-0.33684412;-0.028083729;0.009625255;-0.06018126;0.025152976;-0.02762317;0.2605403;0.025685346;0.25123397;-0.098481566;-0.09077736;0.13423355;-0.04973519;0.39947873;-0.046298396;0.18943867;0.20206815;-0.026253955;0.25936168;-0.07954694;-0.13898797;-0.33008716;-0.054142997;0.24490058;0.0042805504;0.04131794;0.09283154;0.49818707;-0.0117884725;0.02131319;0.3660988;-0.09140273;0.0011411209;-0.022306819;0.033130806;-0.09487064;-0.016522009;-0.13240093;-0.07656679;-0.117070265;-0.03935099;0.03679218;0.20880918;0.051845107;-0.029066456;0.08097143;-0.19016486;0.013692005;-0.055609945;-0.09518526;0.03567236;-0.045554567;-0.011771778;-0.035967432;0.3132569;-0.012317101;0.02671977;0.08579283;0.055408407;-0.014011711;-0.23731257;-0.016783426;-0.095532045;0.0045056553;-0.040366348;0.16376303;-0.45646372;-0.2934165;0.029256351;-0.13324672;0.054280397;-0.009760754;0.006705418;0.19764803;-0.13057469;0.22774726;0.10358228;0.11820561;-0.0059203748;-0.04846827;-0.011614665;0.14045735;-0.011975536;-0.053177193;-0.005125699;0.33511505;-0.04888291;0.1596028;0.035199724;-0.22565168;0.15952474;-0.22372034;-0.0039917645;0.12458951;-0.025934983;0.067241944;0.018062538;0.20573042;-0.18426973;0.03038458;-0.04574904;0.21236391;-0.0087710675;-0.026947059;0.26007447;0.1634877;0.0066006472;-0.21489194;-0.0037557236;0.024640715;-0.22146685;-0.04531699;0.047917064;-0.19814947;0.14091653;-0.016972743;0.057779673;0.1227067;-0.1707598;0.00547785;-0.21702932;0.07379071;0.0012872481;0.10236146;-0.044591714;-0.032438237;0.045256834;-0.040693738;-0.020094424;-0.0060025286;-0.29137623;-0.12246321;-0.055449747;-0.13635261;0.15387793;0.15755227;0.0150953205;0.07291369;0.007929684;0.32040504;-0.15547581;0.05761964;-0.04858647;-0.21622285;0.02323019;0.01978595;0.031903177;0.061919767;-0.08429692;0.105126016;0.03176714;-0.04499162;-0.047717217;-0.05871177;0.14316395;-0.013760204;0.045993444;-0.10937064;0.051948663;0.035763875;-0.05184066;0.1701038;0.12530085;-0.020809695;-0.013770399;-0.03517041;-0.27136904;-0.1135313;0.06251311;0.029197399;-0.12964691;-0.016895574;0.29779235;0.009268808;-0.0119453715;-0.14231001;0.02816028;0.018793378;-0.10611792;0.016376076;0.02367838;0.050056998;0.07835005;0.0057814303;0.07893322;-0.1627234;-0.046782676;0.038350917;0.033823427;0.028361745;-0.017663278;0.102626786;0.12189264;-0.07048282;0.19898504;-0.041213002;0.0019639407;0.12313271;0.17582603;-0.018481465;0.029996453;0.013288241;0.19960356;0.18763374;0.078270674;-0.113468476;0.054838415;-0.001801102;-0.07540321;0.014172733;0.082754;0.09121245;-0.011569875;-0.007924383;0.082571626;0.13234067;-0.042510144;0.048934355;0.04252231;0.19584338;-0.036984984;-0.24294356;0.079972796;-0.03755865;0.025929946;-0.079987474;-0.0144354645;-0.08791883;-0.026595393;-0.0024762356;0.13195688;0.008961613;-0.065526925;-0.011184022;0.037939534;0.0034243432;-0.09361612;0.00075775216;0.055930823;-0.01823214;-0.122791916;0.34180954;-0.122561894;0.11549524;0.029420247;-0.13352776;0.33005527;-0.15897562;0.0053584143;-0.18612398;0.06921096;0.013457219;-0.013314375;0.12929222;0.042974196;0.06034272;-0.053617224;0.002000596;0.13630593;-0.00037040294;0.14503455;-0.048667386;0.05398669;-0.11810464;-0.045549016;0.10950186;0.092643075;-0.20285952;-0.31543893;-0.30579397;-0.045451887;0.009467179;-0.02114028;0.054166682;-0.187133;-0.25007877;-0.07771696;-0.05363402;-0.017596269;0.088947445;-0.15521364;-0.109866925;-0.20394896;-0.01620102;0.013409618;0.09983241;0.23035371;0.07023003;-0.060394235;0.18737994;0.034061097;0.23042741;0.014750339;-0.05325394;-0.0010365484;-0.08211611;0.16772445;-0.052050352;-0.36262485;0.093046166;0.4609086;0.3808954;0.13235886;-0.030841354;0.05947548;0.110815644
-0.033369835;0.28777763;0.047448758;-0.009008408;0.03428792;0.01516915;0.031531505;0.0061474787;-0.14368814;0.08353406;0.008278166;0.16452931;-0.0788111;0.19459671;-0.036054228;0.06464215;0.23295487;0.15220925;-0.053135876;-0.014645366;0.22939229;-0.04370306;0.17007741;0.16155143;-0.09256126;0.1267901;0.05461441;0.079129025;0.01438064;0.2009848;-0.29667652;-0.102660276;-0.1269326;-0.04245106;0.021873983;-0.035267718;0.113751456;-0.03655899;-0.19548434;-0.13525288;-0.0444894;0.14922976;-0.04830309;0.07936582;-0.02414639;-0.015226738;-0.02104822;0.1768985;0.009443473;0.021924805;0.04845201;-0.009519829;0.12597978;0.17255957;0.008249888;-0.2633869;-0.004289741;-0.08764168;0.050465927;0.01552968;-0.13646658;-0.104819186;-0.038423374;-0.017549705;-0.06616807;-0.040990625;0.098116644;-0.084149495;-0.0033679493;0.04329179;-0.033451743;0.18237016;0.12361725;-0.098566376;-0.017432354;0.004741971;-0.0041135387;-0.22461331;0.058185462;0.04573729;0.13649304;0.030941954;0.02191297;0.0033653786;-0.24251004;0.14413254;-0.05482744;0.004744501;0.19500585;-0.18606895;0.15419413;0.045798767;0.08947976;-0.09247082;-0.12328287;-0.04126459;0.008024801;0.17269768;-0.04368161;-0.15280674;0.04540912;-0.052389152;-0.040962912;0.044392113;0.2850109;-0.0051008924;-0.011621268;0.003618996;-0.022228815;0.15662636;0.023467379;-0.05929705;0.17833342;-0.029590672;0.025430232;0.13084766;-0.034758303;-0.024535066;-0.019263102;0.07666031;-0.0011558008;-0.10333418;0.061039455;-0.10009914;-0.12332324;-0.020947902;0.056493185;0.12613331;0.28147814;-0.011222345;0.0795237;-0.14627261;-0.058011014;-0.0482091;-0.10133235;-0.028083187;0.085415065;-0.029640932;-0.045338754;0.03094349;-0.0055425116;-0.07869166;-0.010614407;0.11602264;-0.07082924;-0.25283998;-0.04659333;-0.08201851;-0.004717771;-0.020513432;-0.21666084;0.117535695;-0.0362549;-0.20799786;0.0027170507;-0.057662174;0.037761264;-0.028768796;-0.09536366;0.05580059;-0.16216813;0.20913756;0.03619475;-0.044118624;-0.020479226;-0.18876755;0.25234795;0.10339661;-0.14216703;0.061862193;0.09820503;-0.065360345;-0.3496121;0.10252102;-0.02462603;-0.02858557;0.056375265;-0.03897183;-0.060681257;-0.16695203;-0.039181136;0.31038067;-0.16812655;-0.07198078;-0.015190315;-0.032922193;0.045021392;0.077698484;-0.016522761;-0.03488506;-0.33257008;-0.14354667;0.051966105;0.03780769;-0.005928246;-0.21774578;-0.004696016;-0.14998893;0.055481307;0.19009882;0.034668896;0.12738588;0.07882862;0.040036272;0.5613048;-0.07591772;-0.057479125;-0.0077444254;-0.080068976;0.01341541;-0.036541633;0.023748659;-0.03654729;0.039055634;0.0037787848;0.029253304;-0.0784727;0.015433321;0.019705161;-0.06791625;0.26641408;0.1813099;0.12551336;0.27903223;-0.034803666;-0.029545419;0.028369343;-0.2442062;-0.0404337;-0.042677566;0.0029721563;0.06908563;-0.008610125;0.21993724;-0.006311861;-0.17832457;0.18760985;-0.13244736;-0.08319406;0.028523486;-0.08233883;0.026095837;0.009259139;-0.057561547;0.052790895;-0.0040294095;0.040498637;-0.008874506;0.07305496;-0.0019223313;0.04303512;0.03411495;-0.23277022;0.11198951;0.24708064;0.11437056;-0.074390106;0.04005628;0.064507246;-0.18092711;-0.091358975;0.07282477;-0.11229468;0.0010578647;-0.13072428;-0.025544131;-0.092491716;-0.038985804;-0.010645151;0.26404563;-0.21003987;-0.14732166;-0.03695335;-0.03067011;-0.006391867;-0.022381684;0.15858187;0.023150358;0.17091967;0.05674878;-0.08743023;0.06558162;-0.018580832;0.33017218;0.1633918;0.13972917;0.2359836;0.15290959;0.18221335;-0.09964314;-0.13605013;-0.48123485;-0.016465819;0.22825654;-0.054927796;-0.0047185957;0.1302664;0.3796141;-3.1000905e-05;0.0047359667;0.33533648;0.083646;0.012987061;0.12549782;0.035886165;0.036314048;0.08591108;-0.07659132;-0.063002676;-0.19335303;-0.008372383;-0.08064495;0.20751746;-0.06743027;-0.12811019;-0.035475407;-0.37050527;-0.0030280298;0.023218838;-0.17557499;-0.0348454;-0.023378447;-0.18242459;0.01543828;0.3573122;0.026716795;-0.059375007;-0.057153445;-0.12720908;-0.015387086;-0.18268895;0.03022389;-0.06815101;-0.016025627;0.0350919;-0.022790931;-0.26756418;-0.44318235;0.020187117;-0.1465022;-0.057224683;0.05630423;0.055021964;0.24213813;-0.061954014;0.091090105;0.17761168;-0.10067881;-0.19144341;0.044941016;0.056181237;0.1426019;-0.060904395;-0.05443968;0.06728747;0.41085216;-0.012859267;0.003331196;-0.01424374;-0.32207218;0.13982251;-0.25445116;-0.00032523685;0.12515607;-0.002532135;-0.038075462;0.057191763;0.09623055;-0.0038459275;-0.038745068;-0.10718198;0.07937425;0.10437151;-0.029314572;0.14599794;0.2647629;-0.0062490525;-0.23962533;-0.080147006;0.07952323;-0.40912566;-0.07087946;-0.0048061023;-0.10475647;0.080004446;0.016400341;0.0015133666;-0.037677277;-0.09260815;0.057402283;-0.2153766;0.13685903;0.023935545;-0.026232185;-0.017124666;0.035763092;0.045930367;-0.0070064208;-0.028109735;-0.043452226;-0.4332684;-0.11766661;-0.019478478;0.030566575;0.15144551;0.1122942;-0.07843671;0.048483606;0.024009615;0.23711815;-0.051776685;0.06679536;0.02892164;-0.32457346;0.009971607;-0.026689118;0.08968766;0.059002303;-0.10905231;0.1989371;0.05570054;-0.008232672;-0.02663461;-0.18512474;-0.07050243;-0.050037213;0.052518785;-0.22375292;0.0044507426;-0.025689442;-0.08042898;0.059961215;0.036641374;-0.00824019;0.062716864;-0.026035361;-0.19125171;0.08809169;-0.009156998;0.00074787263;-0.1657755;-0.019510053;0.3326665;-0.2029055;0.006539217;-0.10244189;0.09846665;-0.028057557;-0.24814612;0.01834493;-0.068863235;0.1576357;0.27870822;0.02869366;0.028576462;-0.1717411;0.115288004;0.13976972;0.0070062005;-0.021192722;-0.080472074;-0.020649264;0.034134984;-0.07204077;0.15237805;-0.052774824;0.010738572;0.12355492;0.20670049;-0.025813948;0.07831515;0.016392298;0.17921732;0.24589287;0.21074729;-0.106412075;0.10918793;-0.06372821;-0.1145456;0.033263702;0.0614669;0.062344894;-0.01690757;-0.03485825;0.15154998;0.22901821;0.05567103;-0.062809736;-0.06858538;0.13908209;-0.013845571;-0.45004484;0.047273986;0.023512991;0.027822468;-0.13435233;-0.006721476;-0.08840251;-0.06792469;-0.00078818016;0.18929614;0.0019693333;-0.2213542;0.034725327;-0.06725221;-0.05252078;0.14104453;-0.002158417;0.025139103;-0.038941853;-0.094083;0.31254467;-0.05063042;0.007851636;0.028756373;-0.12995617;0.18551587;-0.2836918;0.012511399;-0.18955475;-0.12706336;0.121297546;-0.03306322;0.27306744;0.012360201;0.008085508;-0.025295574;0.005796083;0.09675514;0.07780212;-0.007792342;-0.0719757;-0.031836007;-0.2015401;-0.05037012;0.14491916;-0.032658167;-0.12347035;-0.25381634;-0.16861509;-0.018730745;-0.031558115;-0.069079004;-0.0073167677;-0.2719607;-0.1363781;-0.15590478;0.013337679;0.0055895555;0.069621824;-0.21151908;0.06372097;-0.12326438;0.011484803;-0.12591225;0.11635968;0.22515494;0.001982856;0.0606432;0.1643498;0.005273507;0.167067;0.07285789;0.032620102;-0.0909315;0.13105534;0.15846476;0.04924231;-0.35227478;0.0027004194;0.4525306;0.26227048;0.15394989;0.04968666;-0.016321372;0.10375985
-0.03825578;0.15312323;-0.003233853;-0.024646768;-0.08000096;0.0663883;0.022151422;-0.04696388;-0.068005964;0.06383019;-0.025575742;0.15955447;-0.07993431;0.09878402;-0.06855682;0.008648628;0.18547669;0.15403491;0.005800618;-0.019254284;0.2363334;-0.01772319;0.09795076;0.19842492;-0.23368551;-0.00077847886;0.009569169;0.06853811;-0.0023743082;0.14929269;-0.24973801;-0.18602128;-0.11191144;-0.20272925;0.018643726;0.016967911;0.08422615;0.010138907;-0.23490892;-0.020693798;0.026782716;0.0034012888;0.0013234303;0.15994747;0.02053114;-0.10122907;-0.060264125;0.10769565;0.14542556;0.032624617;0.06754743;0.07938533;0.13401;0.15900289;0.11250171;-0.26235175;0.13163906;-0.12278835;0.019953446;0.0694025;-0.12649189;-0.10220439;-0.059330728;0.1277487;0.063443914;0.059241187;0.08135431;-0.20476511;0.020947468;0.047256786;0.041035105;0.102700226;-0.061821446;-0.012547594;-0.013366836;0.057541974;-0.0071249804;-0.16727275;0.07296866;-0.01248645;-0.018692851;0.07911757;0.0018598256;-0.024782868;-0.16621608;0.21106043;-0.011762652;0.036061414;0.16213775;-0.25913832;0.15929405;0.027638206;0.048774738;-0.19626588;-0.23356701;-0.053888265;-0.05560179;0.094918765;0.05787655;-0.051205188;-0.01540474;-0.13079263;-0.12980302;-0.08574835;0.28230506;-0.030017711;-0.046787456;0.0068938313;-0.015138109;0.15105733;-0.018107995;0.070762366;0.30808374;-0.01929272;0.0045771124;0.14656037;0.022577744;0.03951884;0.021535248;0.006149094;0.24594209;-0.0791936;-0.040383395;-0.12733053;-0.15782735;0.00532169;-0.054705657;0.2543357;0.1397433;-0.038021933;0.16428065;-0.17661594;-0.055344135;0.014022088;-0.032011624;-0.015893232;0.26749852;-0.00660068;0.093225874;0.04773146;-0.0077560144;0.0023730418;0.01817998;0.06549992;0.12795559;-0.21359408;-0.07651434;-0.019950412;-0.028304517;0.13763951;-0.33294547;0.013816189;-0.041998528;-0.23149881;0.03504665;0.10274504;-0.0470188;0.036442406;0.013311387;0.0011487353;-0.23646955;0.34555188;0.052266948;0.01276172;0.037372306;-0.20795232;0.24215515;0.036296055;-0.08003199;0.20482087;0.089199245;-0.1303594;-0.2589818;0.10291688;-0.051658634;0.029812256;0.003807022;0.052161615;0.011581761;-0.18465358;-0.03679932;0.3119635;-0.16789617;-0.07940008;-0.008035109;0.04603417;0.017987255;0.11951091;-0.13717918;0.022132946;-0.2972966;-0.23973967;-0.05215386;0.03887899;-0.041598942;-0.10013382;-0.007643929;-0.07141201;0.22463183;0.10344751;0.019352594;0.16511822;-0.118741885;-0.009719869;0.40520543;-0.059843257;0.014710186;-0.20470409;-0.04811669;-0.03207602;0.026730213;-0.03703649;0.19363678;0.034276366;0.053452447;0.015168478;0.010454552;-0.022365568;0.1895304;-0.13446656;0.31124774;0.1971238;0.108421795;0.38194475;0.06437875;-0.005857856;-0.047319356;-0.06975832;0.055405866;-0.04577708;0.023410574;0.052317616;-0.0023206612;0.22123586;0.15080267;-0.011112241;0.26629084;-0.014107112;0.0016016489;0.040326197;-0.01428918;-0.15816572;-0.04197792;-0.035104815;-0.036820665;-0.07009611;0.013643781;0.10051357;0.15707861;0.06172571;-0.06847832;-0.017873622;-0.32972518;-0.047221106;0.32186422;0.013822328;0.018616326;0.05420516;-0.06971608;-0.03886426;-0.12126542;0.14527725;-0.16752304;-0.03702137;-0.09592837;0.02860825;0.046686135;0.008477963;-0.080903806;0.17523353;-0.3047061;-0.13361184;0.06776919;-0.018002616;-0.043484144;-0.058304783;-0.0663742;-0.030326685;0.16559991;0.13568237;0.039308745;0.20409612;0.058708142;0.26998666;0.15317573;0.11254745;0.27240857;0.13359237;0.11799659;0.051303558;-0.05274104;-0.3534887;0.049347803;0.26310062;0.033457913;-0.031119358;0.018437097;0.3300423;0.035250127;-0.043790307;0.20456523;0.029059958;-0.028124243;0.031053267;0.049594752;0.0038838852;0.067075595;-0.09588063;-0.19092676;-0.15887748;0.0798346;-0.023905477;0.24499807;0.06192485;-0.07293187;0.08116181;-0.39030382;0.010928859;-0.021774182;0.020900186;-0.028864702;-0.10846562;-0.30565327;-0.031352334;0.31648546;-0.019902933;0.097036675;-0.088331304;-0.11375388;-0.029670047;-0.15757294;0.02147052;-0.07980049;0.011158549;0.041447785;0.11167525;-0.25309122;-0.35234168;-0.0118798725;-0.20918515;0.080600776;0.035403598;0.037145037;0.12328023;-0.17051055;0.14232029;0.09655572;-0.16030034;-0.0046307584;-0.043295395;-0.07180863;0.08084369;-0.031226583;0.08882735;0.124017484;0.2547992;0.03897059;-0.019039763;-0.05176745;-0.2525409;0.19233952;-0.36443517;0.0197526;-0.014575703;0.010074537;0.027421882;0.0040449137;0.046839163;-0.11997241;-0.066530176;-0.19447155;0.13281357;0.1405362;-0.001915135;0.223894;0.056144062;0.026243221;0.033621464;0.03822539;-0.07423842;-0.4052279;0.022002904;0.030400813;-0.17898235;0.085484564;0.044688817;0.01380561;0.10994783;0.031994503;0.017891206;-0.1777865;0.25687158;-0.0055451384;-0.016136283;0.025235372;0.05803444;0.14244221;0.046362184;-0.035772335;0.0032606584;-0.30275983;-0.08863642;0.12609904;0.12654594;0.29602188;0.27198395;-0.17381077;0.087294705;0.0024519844;0.098657444;-0.053369384;0.17949122;0.051718596;-0.40619043;0.11301382;-0.02947825;0.0068439897;0.036256347;-0.16297847;0.04365391;-0.02087637;0.03254392;-0.0060170535;0.008080582;-0.16068238;0.026266888;0.22972324;-0.10544796;0.06479937;-0.06523761;-0.023898367;0.14040548;0.023736848;0.043108694;-0.056200285;0.023787482;-0.11265384;0.15235005;0.016432349;-0.093678616;-0.24098232;0.054593515;0.15905343;-0.12755425;0.057663698;0.14280342;0.23310816;0.008373371;-0.07405907;0.02436874;0.006740181;0.18092412;0.24352951;0.033289116;0.111828126;-0.11231218;0.16771944;0.23470096;-0.049920764;-0.041825105;-0.12348172;-0.07752726;-0.014257405;-0.017555147;0.14421916;0.03195858;-0.018360674;0.06057652;0.24659063;-0.022969693;-0.012064772;-0.008072309;0.13856158;0.06648857;0.18031576;-0.044638198;0.12381423;0.00383784;-0.14220732;-0.0016880753;0.12251325;0.112137236;0.02491572;0.0842882;0.14620678;0.11245777;0.006565441;-0.004383981;-0.08653425;0.045004886;-0.0314164;-0.5700525;-0.060495496;0.020933645;-0.01790073;-0.30199435;0.012972214;0.051963158;0.056718893;0.01329499;0.096210435;-0.034441262;-0.19667311;0.0134484805;-0.008130653;-0.13299417;0.25409812;0.066321194;-0.058552187;0.039157104;-0.13570409;0.21399286;-0.17571606;-0.04833229;-0.04815185;-0.032807633;0.28973377;-0.24956284;0.05979938;-0.08219411;-0.03897137;-0.09224957;-0.016796922;0.22039205;-0.10150287;-0.17284036;-0.00523534;-0.053519644;0.035278603;0.046369776;0.08379957;-0.14415574;0.076222196;-0.23250012;0.06898065;-0.041238453;0.042780004;-0.09011759;-0.30826348;-0.12352068;0.03497156;0.017812135;0.019483838;-0.03499773;-0.24263282;-0.057294093;-0.05459451;-0.037379857;0.025340892;0.097048394;-0.11116421;0.20964985;-0.2822564;0.032782342;9.617918e-05;0.07739884;0.32071608;0.050880585;-0.05421975;0.22873953;0.025906721;0.24960071;0.11098334;0.07000862;-0.005574109;0.06949961;0.20720947;0.0022515005;-0.20572756;0.19539838;0.37212908;0.2725677;0.0718997;0.025243485;-0.024805484;0.18679425
0.023857223;0.20724273;-0.017350947;-0.014818707;0.04798737;0.05932151;-0.0034818093;0.030724633;-0.16068332;0.121619985;-0.016964328;-0.043602582;-0.028967561;0.0010666428;0.053963732;-0.015351726;0.085324705;0.040854435;-0.025469432;0.059607834;0.27310413;0.0065936195;0.20750825;0.102722205;-0.22616707;0.07056757;-0.09683128;0.11606677;0.06406728;0.111171484;-0.2512986;-0.13031156;-0.13298331;-0.21554546;0.011538819;0.017277235;0.0891555;0.10618594;-0.16492534;-0.01963165;-0.10436993;0.0090307975;0.1477441;-0.036348738;-0.062323555;0.016321324;0.0134685375;0.19348244;0.080958076;0.01521061;0.086777166;-0.035793964;-0.034111857;0.049849533;0.0011966717;-0.2733828;0.04606319;-0.19589952;0.050900012;0.1228097;-0.02884639;-0.17986281;-0.02153311;0.03641359;-0.037962593;-0.07637801;0.10612073;-0.21245718;0.0028302101;-0.023946509;-0.05257737;0.08483831;0.12690422;-0.009928563;0.060716182;0.035851516;0.031262096;-0.077250205;0.06421056;-0.058027353;0.08436041;0.054439187;0.024736153;-0.008197754;-0.10845765;0.09909888;0.1405883;-0.07826884;0.09260731;-0.11127772;0.21081795;-0.04840294;0.042136855;-0.1880622;0.020030335;0.0070770048;-0.075412326;0.07987897;-0.019339336;-0.12639153;0.056975946;-0.17176968;-0.080949984;0.06173339;0.25426975;0.044910643;0.039951444;0.025993798;0.023803886;0.07155694;0.084776826;0.10459785;0.3291077;0.095241316;-0.037351873;0.14245418;-0.013516503;0.013286458;0.03693011;-0.12139787;0.14447407;-0.2744488;-0.0112648;-0.08656511;-0.212271;-0.012960686;-0.025782906;0.16660063;0.22910854;-0.009188544;0.1328867;0.025965352;0.10527021;-0.027874384;0.09723098;-0.016868746;0.19460988;-0.017135838;-0.02319768;-0.07850898;-0.11257169;-0.06454088;-0.02242245;0.07592689;0.21729557;-0.22915843;-0.067169696;-0.005356203;0.048933957;-0.023376986;-0.21241756;0.16203497;-0.04413985;-0.09348994;-0.046951313;0.058513217;-0.17895478;-0.017757423;-0.017236149;0.012796339;-0.2021019;0.15954947;-0.07940292;-0.035846338;0.22180426;-0.05105687;0.23958175;0.10335981;-0.09089665;0.23652855;0.032853168;-0.015899222;-0.3170055;-0.077467665;0.042269167;0.029064326;-0.02387997;-0.070389956;-0.009227845;-0.03130129;0.011411418;0.2998906;-0.19782044;-0.1861255;0.0038557956;-0.000786479;0.04155132;-0.0047702943;-0.189244;-0.1563065;-0.3285165;-0.21954077;0.013208168;-0.011135329;-0.120538905;0.013119277;-0.15848076;-0.11013104;0.16832963;0.23236875;0.04962522;0.14984281;-0.051511124;0.026266236;0.36535963;-0.15885545;0.06371015;-0.2563965;-0.10176712;0.06159922;-0.034138184;0.027575778;0.14180258;0.019770961;-0.043641657;-0.057002988;-0.12887116;-0.039071348;0.17439249;-0.16335163;0.19818003;0.12402255;0.034007773;0.312443;-0.02879044;-0.07135169;0.038612016;-0.069959305;-0.009854952;-0.23825885;0.0092617525;0.12067374;-0.039418474;0.12679611;-0.019334052;-0.031798523;0.35411248;0.006912653;-0.0050126417;0.058446415;-0.12734716;-0.12040822;-0.019784022;0.026322361;-0.005116728;0.023712834;0.22319172;0.002477326;0.253213;-0.03761895;-0.022592355;-0.029065207;-0.1862648;0.014088373;0.40589476;-0.1689696;-0.02340666;-0.04708739;-0.052894715;-0.056496523;-0.09570299;0.08301018;-0.0812282;-0.0363057;-0.09129983;0.036014162;-0.058403675;-0.061929237;0.0047684303;0.10840401;-0.48688123;-0.002189646;-0.0031040648;-0.03420318;-0.011683771;0.014480649;-0.0060080052;0.040091254;0.16590878;0.2617757;-0.01433026;0.1163688;-0.051952437;-0.030588146;0.07611437;-0.06371412;0.25796095;0.22971778;0.13533698;0.021031972;-0.17690438;-0.30006406;0.05295991;0.2472843;-0.011328485;0.029477853;0.14538364;0.19914709;-0.03003095;0.0034099948;0.09307006;0.14800979;0.01307302;0.109101415;-0.07438062;0.049417533;-0.034549363;-0.023940079;-0.16074419;-0.18019791;0.28327918;-0.032815147;0.229177;0.08722842;-0.16964605;0.10540789;-0.2947775;-0.018923534;0.14792754;-0.03703687;0.01387338;0.019954225;-0.0832945;0.016553797;0.29199228;0.045021847;-0.03435635;0.029689835;-0.19584823;0.05457633;-0.10285805;-0.015336622;-0.014463702;0.029609097;0.102111794;0.1048915;-0.22007038;-0.23432691;0.034480654;-0.058748353;-0.012818244;0.047525078;0.11319236;0.21871391;-0.11171181;0.058104746;0.086340174;-0.1242288;-0.16997729;0.014417513;0.029963974;0.063379936;0.07033108;0.112707935;-0.046044048;0.27850986;0.027433233;0.069876;-0.099358656;-0.16826901;0.16868564;-0.3219143;-0.0019834347;-0.14386293;0.018647544;-0.00816738;0.046294447;0.028003084;-0.12058334;-0.21375291;-0.12054875;0.20958395;0.086623244;0.041331176;0.15955094;-0.08962601;0.00048608478;0.01225624;-0.0586312;0.0628517;-0.45141524;0.17744502;-0.048426367;-0.1828959;-0.024414584;-0.014741624;-0.06944647;-0.12103554;-0.061793134;-0.027345825;-0.07985259;0.19455138;-0.006820628;-0.057916224;-0.026482211;0.08469684;0.13713117;-0.1264613;0.020137135;0.04469126;-0.29115298;-0.12115377;0.06331535;0.13313194;0.2098311;0.08034487;-0.039104663;0.12628128;-0.06991417;0.004893614;-0.104429685;0.17489232;-0.037303325;-0.48478872;-0.033749398;0.031507578;-0.14011027;-0.026507182;0.09850294;0.12058054;0.0023119617;-0.0347976;0.021598233;-0.16174601;-0.3065471;0.015731512;0.20100497;-0.033504236;-0.08206307;0.04504689;-0.09836137;0.027557861;0.01781339;-0.038296223;-0.008821895;0.011771839;-0.14976662;0.029283153;-0.023564065;0.011637674;-0.22566488;-0.02728568;0.2231742;-0.10583957;-0.059961967;0.24076228;0.18878442;-0.026498828;-0.36393273;0.088856384;0.032044657;0.12727767;0.21851507;-0.3137005;0.012079328;-0.19369519;-0.06763163;0.16678785;0.019203542;0.04840121;-0.06966161;-0.08587142;-0.017947681;0.04418994;0.12828825;0.048031386;-0.031889334;0.0463326;0.14630152;0.08091679;0.0017224725;0.006154777;0.13710485;-0.12740487;0.26448902;-0.10355986;0.26297748;0.0310729;-0.24570218;-0.036901683;0.034783494;-0.0327587;0.053583812;-0.068996504;0.02783797;0.12636086;0.03452302;-0.017182115;-0.14469776;0.11945317;-0.15580401;-0.4736366;-0.07198732;-0.021454044;0.018144164;-0.22370616;-0.058635443;0.031710107;0.009437732;-0.0676808;-0.17810032;-0.06338354;-0.17520839;0.029848669;-0.029519413;-0.042855132;0.21013278;-0.06478213;0.037674;-0.0054644104;-0.097214825;0.0034436006;-0.25907007;-0.06529138;0.0040430976;0.05297637;0.14860456;-0.27742472;-0.088016056;-0.12588213;-0.0023773636;0.03343848;-0.03515352;0.2494878;0.02761986;-0.20378913;0.03840538;-0.03070054;-0.13554986;0.16408929;0.14546676;-0.17069504;-0.041796986;-0.29529557;0.03688635;0.08044044;0.018845046;0.09239466;-0.5701607;-0.16979642;0.038994666;-0.03866653;0.0035052197;0.03660168;-0.22544098;-0.17600496;0.14561449;0.0457923;0.015739217;0.12234155;-0.0026028687;0.1663308;-0.18774642;-0.054972243;0.071505964;0.047837146;0.2502409;-0.04807034;0.019481335;0.16720167;-0.12757142;0.10031151;0.0548541;-0.057693053;-0.029189246;0.09178951;0.05652266;-0.019476287;-0.27299556;-0.06847106;0.40855277;0.24552475;0.07430714;-0.05281245;0.0043794103;0.12113362
0.003259686;0.055417683;-0.16607906;-0.046599578;0.04883013;0.2359304;-0.027728222;-0.003340636;-0.1164552;0.032346334;-0.04589808;0.02183087;-0.025556296;-0.036516353;-0.07611557;-0.0010647724;0.16396987;0.11171572;0.024091039;0.029266214;-0.0092345225;0.028492017;0.2798705;0.11654428;-0.16489582;-0.026004761;-0.09464329;0.17672503;-0.0628258;0.17345877;-0.38311914;-0.27568567;-0.22166064;-0.13476807;-0.011785735;-0.04083022;0.06682392;0.015294539;-0.05732609;-0.13663846;0.0040783905;0.16096993;0.1987765;0.001351404;0.05055959;0.11112214;0.045290083;0.30331203;0.16215573;0.020178592;0.06795076;-0.0068579176;0.06523575;0.06322302;0.113105446;-0.20841004;-0.060495917;-0.058596626;0.0055475393;0.051235493;0.036634322;-0.15491499;-0.050000604;0.11425484;-0.025916442;0.054185018;0.23606265;-0.07952055;0.015583072;-0.049621053;0.0046620867;0.046967298;0.15775798;-0.11811212;-0.051504154;-0.016285421;-0.026672447;-0.22828557;0.07771764;-0.15385324;-0.023892686;0.17145433;0.19120258;0.058868747;0.0013332625;0.1492971;0.00484178;0.047589272;0.17819841;-0.26531819;0.07752726;0.054520134;0.19359018;-0.11646939;-0.08538666;-0.029970214;0.073218256;0.052384105;-0.0030046073;-0.18284532;0.00089872954;-0.15032381;-0.06554336;-0.034264985;0.21185172;0.017662179;0.026926111;0.0051688817;-0.0015419176;0.040417444;0.23115313;0.025058765;0.25832057;0.05295624;0.022533327;0.2538531;0.052789517;-0.043395534;-0.04470183;-0.07106177;0.08884915;-0.26215196;0.009543476;-0.21626475;-0.2199382;-0.024772724;0.045382332;0.051634267;0.1851131;0.021642907;0.24242496;-0.0971587;0.02348045;0.03067973;0.17897907;-0.017799322;0.059855714;0.08159407;0.022990184;-0.0055854125;0.12903021;-0.11742399;-0.023022275;0.03263682;0.122916125;-0.039312076;-0.02965227;0.06633458;-0.040205527;0.09140404;-0.06976421;0.024301914;0.06688962;0.14163834;-0.0090587335;0.07786524;-0.0027480642;-0.04164888;0.03477431;0.023109077;-0.018256124;0.06988778;0.041414626;0.07121553;0.17758939;0.005525097;0.18937749;0.16813597;-0.21481496;0.28599298;-0.04283898;0.08869752;-0.39144358;0.010539616;0.05182322;-0.048910953;-0.22426958;0.019656094;0.08878096;-0.049459215;0.07125126;0.11642024;-0.1947221;-0.26797152;-0.010283809;-0.046350304;0.05711241;0.09602288;-0.21971269;-0.18269297;-0.08690498;-0.19326483;0.050423257;-0.05405382;-0.03797657;0.025603635;-0.10443266;-0.028499419;0.20426911;0.19311273;-0.016956517;0.19487484;0.048757885;0.007998576;0.32090798;-0.1493011;-0.049138706;-0.15669006;-0.03533994;-0.06275133;0.008526052;0.023949621;0.24299651;0.0073188613;-0.060333878;0.0023392304;-0.039777756;0.039194144;0.2177265;-0.1824898;0.2638293;0.28622773;0.06307738;0.03698618;0.04847782;-0.056488644;-0.048708692;-0.187654;-0.0322014;-0.11191198;-0.04590952;0.13671689;-0.07582314;-0.10952545;0.035075754;-0.05943306;0.25520816;-0.03895298;0.0047070966;-0.061364625;-0.09715954;-0.017310927;0.024234708;0.043369655;-0.016187226;-0.09729061;0.06857796;0.09044374;0.23691595;0.03873568;0.0045274873;0.09157204;-0.1682356;-0.07907948;0.25706056;-0.22768076;-0.039430264;-0.087979704;-0.008518409;-0.039467074;0.016528267;0.15413019;-0.17152214;0.072261974;-0.11299176;-0.027615575;0.10665692;0.0476562;0.07755986;-0.02905051;-0.34392542;-0.015406399;-0.0037641693;-0.0421726;0.07802385;0.024533702;0.12644537;-0.06381775;0.1330865;0.10282283;0.04429246;0.15162338;0.029359568;0.04324683;0.05186269;-0.07077393;0.054068577;0.24965774;-0.021555027;-0.0132956235;-0.20780705;-0.3817423;-0.03968042;0.23227216;-0.05080801;-0.03073789;-0.015540677;0.26433772;-0.00034167978;0.05550754;0.057105917;0.10239781;-0.03459482;0.08290411;-0.051203366;0.0799897;-0.051271018;0.052530155;-0.07570255;-0.22510216;0.17635871;0.018519342;0.20202662;0.001592248;-0.06574958;0.15503572;-0.3883671;0.024042416;0.16519633;0.07271613;0.019905403;-0.018014869;-0.09738504;-0.029140139;0.23863916;-0.03631226;-0.012752927;-0.021017063;-0.09821964;-0.032777153;-0.023290882;-0.04217701;-0.23095958;-0.04480117;0.095256284;-0.0049159876;-0.32914892;-0.21639521;-0.05258902;-0.06527278;-0.054448616;-0.09247836;-0.013358381;0.086042404;-0.22871004;0.095476925;-0.0357663;-0.13559824;-0.10662188;0.0042459373;0.014062264;0.13236775;-0.030893577;-0.06678026;-0.05484221;0.32760236;0.0048273304;0.09744694;-0.120043725;-0.10951473;0.25548682;-0.1283089;0.053700812;-0.0017087903;-0.04767083;0.012748299;-0.07902866;0.088647254;-0.17508669;-0.088126875;-0.09861057;0.19068447;-0.08176446;0.03578447;0.06776832;-0.04053753;0.002033383;0.116937;-0.026140781;-0.05901078;-0.4693388;0.12550698;-0.0066863257;-0.0582102;-0.05322527;-0.0046738237;0.0018154533;-0.049888294;-0.09689895;-0.050809164;-0.16250862;0.17255875;-0.026042063;-0.019286932;0.034292787;0.08928303;0.25850576;0.01897925;0.056368347;-0.037633438;-0.29944882;-0.09504605;-0.01682251;0.18269813;0.27791488;0.011714612;-0.07310996;0.09247351;0.05459838;0.12421254;-0.17329797;0.031682298;0.025582137;-0.525517;-0.07156742;-0.013854616;-0.10690474;0.05470783;0.0342131;0.17835237;-0.06844901;-0.0134251965;-0.035363007;-0.13036446;-0.23428506;0.0048260796;0.17789155;0.007996909;-0.11413777;-0.026595302;-0.17379032;0.12909605;0.040224507;0.018145934;0.030039387;-0.05425197;-0.10641917;0.09458833;-0.032928396;-0.0812085;-0.2975357;0.057995163;0.13288745;-0.14022806;-0.008226833;0.3352437;0.1957482;0.015906999;-0.35428035;0.10029674;0.060245506;0.12727189;0.2453398;-0.30540112;0.004817526;-0.06857302;0.017534314;0.108036056;-0.005929687;0.066345625;-0.0318415;0.01662648;-0.0048531764;-0.0042589675;0.14248125;-0.015556071;0.113507785;0.1505875;0.15467556;-0.047908016;-0.012432535;0.019458044;-0.068979986;-0.1483245;0.044110924;-0.22167349;0.15529653;0.03404126;-0.17505683;0.07061597;-0.09112191;-0.045091435;0.004359575;0.041663922;0.071367316;0.20649888;-0.015151801;0.054584518;-0.13543572;0.13515846;-0.11781183;-0.50253713;0.037239186;-0.00014148207;-0.02477337;-0.14459597;-0.098196305;0.26590034;0.03658926;0.057174534;-0.12109406;-0.0089577045;-0.103322394;-0.059364107;0.056588903;0.0021002616;0.19815291;0.081503615;-0.032024138;-0.014270447;0.06987852;-0.004586377;-0.09859841;-0.15016939;-0.03154259;0.03052765;-0.083153196;-0.33008236;-0.024315678;-0.07134515;0.020163396;-0.091943406;-0.047732078;0.2741543;0.016553693;-0.17807777;0.0055856146;0.10651906;0.055390365;0.13435763;-0.02938574;-0.11290881;-0.036553986;-0.40124667;-0.029431261;0.081130445;0.008186667;0.116661996;-0.4965761;-0.03422089;-0.01980472;0.013104686;0.041188117;-0.044034895;-0.2291035;0.0058358773;0.1591882;0.018046925;-0.06699729;0.097366124;-0.11682483;0.23859364;-0.0433274;0.07979378;-0.035252545;0.21777749;0.0908392;-0.029361341;0.018739918;0.23631325;-0.081302;0.15145995;0.14098339;-0.034625117;-0.0025913415;0.022685664;0.028968798;-0.03368441;-0.1987117;0.03329764;0.47485667;0.21929666;0.1269804;-0.017857881;0.0025064764;0.20337018
-0.017472496;-0.03260277;-0.07010044;0.05502972;-0.04660067;0.0028768363;0.026542483;0.0031085617;-0.1393993;0.08820999;0.0031479087;0.13857868;0.016767228;-0.07018828;-0.031886484;-0.009381605;0.012802441;-0.065783;-0.036331624;0.0543968;0.0015825893;-0.05730348;0.2032882;-0.028344518;-0.22384551;0.07601955;-0.087937064;0.20651686;-0.023877105;0.043686565;-0.38329944;-0.16963305;-0.034320395;0.061788086;-0.012640968;-0.02143473;0.111382596;0.0045134374;-0.15465428;-0.13642164;0.03599416;0.17489505;0.16533487;-0.05302504;-0.0049167518;0.13587375;0.047062308;0.19104463;0.040041324;-0.10041985;0.15474245;-0.021743458;0.13352759;0.011442972;0.10478533;-0.14825514;-0.1460488;-0.068883516;0.04728418;-0.11941159;0.10208553;-0.12263474;-0.20185484;-0.023243226;0.054503284;0.045131773;0.015803782;-0.1475201;-0.18416375;-0.060602725;0.0144823715;0.17396176;0.0970065;-0.0091433255;0.051500853;-0.04096229;-0.019073255;-0.087349445;-0.03166575;-0.30958644;-0.04819744;0.12520379;0.02847671;-0.011256608;-0.015284253;0.085846156;-0.123440064;-0.052583452;0.18118623;-0.2641101;0.13542049;0.08611271;0.22763479;-0.09664258;-0.10878413;-0.010019498;0.032637365;0.15742081;0.023655456;-0.10240854;-0.10596742;-0.12740639;-0.08866472;0.018911896;0.21108475;-0.050197173;0.0033507943;0.030699303;-0.065318555;0.195779;0.30860156;0.06276152;0.2441686;-0.0524376;-0.007921763;0.32748738;0.030662505;-0.033661503;-0.00052368373;0.060609024;0.07561281;-0.32853472;-0.043975767;-0.12906606;-0.04522434;0.024919473;0.01921806;-0.056069903;0.09421024;0.048850223;0.149746;-0.072761625;0.00036249313;-0.05953145;0.10685296;0.014333182;0.12064431;-0.0350668;-0.032234073;0.033450045;0.15055926;-0.22206;0.04865544;0.025291653;0.13850942;-0.022690317;0.105120696;0.06488375;-0.042260986;0.18757097;0.019824268;0.13015038;-0.046633504;0.01758283;-0.034704875;0.10419343;-0.050786797;0.018083245;-0.026506254;-0.02608778;-0.15385126;-0.01179186;0.060130887;-0.06915479;0.25855666;-0.05279502;0.10948514;0.2208565;-0.11212217;0.34373125;0.052487172;0.117541775;-0.2049581;0.032609962;-0.012174368;-0.04484406;-0.09903925;-0.010929562;0.15280943;-0.117317416;0.01748006;0.12115348;-0.17893897;-0.124645166;0.010671817;-0.012561647;-0.047716215;0.08490522;-0.15624082;-0.23997624;-0.2685618;-0.13815033;-0.04554325;0.020381076;-0.067904145;-0.052640606;-0.095696315;-0.03894143;0.09656898;0.06599447;-0.15935086;0.2333435;0.057749934;-0.087911665;0.16586201;-0.29216173;0.0036377376;-0.20172969;-0.11805941;0.08155693;-0.027568365;0.009540456;0.3000083;-0.031059142;0.018532757;-0.041505598;-0.0944485;-0.003988194;0.059077792;-0.033213243;0.15624261;0.2119464;-0.23927723;-0.00045548644;-0.007603698;-0.039443422;-0.022940857;-0.07966847;-0.016194684;-0.064949565;0.05137485;0.18979299;0.036108635;-0.08587817;0.120973386;-0.13371713;0.107977524;-0.059768666;0.045197845;-0.18336575;-0.14261773;0.052565563;-0.029933712;0.093529806;0.038783744;-0.10329508;0.108752534;0.25077197;0.27422467;-0.040111233;-0.023560492;-0.10175848;0.019637115;0.0038250491;0.1690342;-0.2619206;-0.0052176025;-0.028212965;-0.17024519;-0.105866194;-0.057820678;0.18474413;-0.00024899156;-0.059230205;0.055533107;-0.029612249;-0.009017665;0.017388502;0.04321379;-0.12590265;-0.22018264;0.1283852;0.019037109;0.028204363;0.004103321;0.01041665;0.11259504;0.024069376;0.086004734;0.07322852;0.11379771;0.05116759;-0.021952426;0.014798008;-0.06901572;0.047092136;-0.06321362;0.012918382;0.077408195;0.049727995;-0.27482867;-0.18708935;0.069482334;0.16602688;-0.07402149;0.02336749;0.09591947;0.14925751;0.013764357;-0.05276198;-0.11794576;0.08872548;-0.038959134;0.05926152;0.041388955;0.10892218;-0.08795869;-0.14041436;-0.036214124;-0.14178988;0.17755935;-0.017186731;0.024617558;-0.060781267;0.017202038;0.14339696;-0.30798262;-0.020168876;0.10290161;-0.06850934;0.032374077;-0.046103172;-0.034336854;0.056994647;0.1825874;-0.010802912;0.011960831;-0.07382162;-0.06291918;0.038318213;-0.10088597;-0.010893474;-0.2213756;0.006697235;0.15686125;0.11625894;-0.2324681;-0.3173943;0.01959528;-0.0017689238;0.025392367;-0.016198937;-0.024746599;0.10618591;-0.29833025;0.027267307;0.010682851;-0.051092807;-0.21250302;-0.012050537;0.0033499128;0.19002268;0.044109277;0.027029324;0.03459806;0.2944128;-0.029525682;0.16931428;-0.080150425;-0.05786533;0.2622587;-0.20740914;-0.04080684;-0.030827628;-0.052703753;0.0017483466;-0.016502455;0.19064006;-0.04717382;0.009084501;-0.12629145;0.3575645;-0.027000548;-0.04322758;0.108909085;-0.12805247;0.015848666;-0.069114335;-0.016678806;0.060086444;-0.5021486;0.14457387;-0.005521911;-0.021857612;-0.12169523;-0.015588333;0.03263553;-0.08424407;0.089087695;-0.03463194;-0.17055008;0.22589514;-0.028339019;0.071428314;-0.043134395;-0.08713463;0.2302887;-0.06124417;-0.045829322;-0.013043382;-0.25290754;-0.10050488;-0.1992855;0.16220455;0.27002808;-0.07958623;-0.23292014;0.14688727;0.04511743;0.04538329;-0.12241689;0.09788632;0.0007329995;-0.46801162;-0.061726253;0.052660618;-0.20032229;-0.13883255;0.10731939;0.09788228;0.031581007;0.012050975;0.05239389;-0.22980762;-0.1810422;0.02621577;0.06394953;-0.066228814;-0.21103935;0.026449816;-0.18211983;0.19628982;0.10610082;0.0002497083;-0.06761298;0.03163991;-0.12752867;0.040633332;0.01829641;-0.04176969;-0.35835302;0.120061055;0.09794076;-0.2632343;-0.0020767504;0.23851368;0.12719093;0.0025050517;-0.40517086;0.12834866;-0.071634255;0.121110596;0.11093964;-0.24646653;-0.11730247;0.04276631;0.089099064;-0.12970135;0.027653215;-0.03263387;-0.027443968;-0.02332125;-0.04358753;-0.033264793;0.2419242;-0.04180073;0.004663827;0.052840408;0.119576365;-0.003299679;0.11688468;-0.0158779;-0.058739815;-0.26067343;0.07968305;-0.13355438;0.25784877;0.016733913;-0.23849142;-0.055712756;-0.0827432;-0.14546141;-0.013694745;0.03302686;0.24221604;0.12461617;-0.056951914;-0.048772722;0.014579115;0.105789095;-0.14217718;-0.526025;-0.0487385;0.007881756;0.010032898;0.13348074;-0.015871936;0.40173054;-0.044438396;0.0009476688;-0.12455487;0.06099889;-0.027752707;-0.04539184;0.022828305;-0.004955612;0.11349791;-0.042763777;0.025426773;0.05948667;0.101582445;0.14936633;-0.10465442;-0.025949389;0.059854258;0.0005438553;-0.04142252;-0.42102468;-0.004569822;-0.12534331;-0.008086654;-0.2770285;-0.0042511327;0.07622394;-0.037275787;-0.05067885;0.04225043;0.12785836;-0.04232982;0.032339793;0.09398024;-0.31630364;-0.021678122;-0.41670194;-0.008972326;0.011306543;-0.07002888;0.027449511;-0.35064846;-0.15972811;-0.050134223;-0.024850724;0.015110485;0.007553943;-0.124747984;-0.087085575;0.08984985;0.023924818;0.030289238;-0.09107858;-0.14067173;0.20802028;-0.13390909;-0.081543684;-0.08452498;0.24638395;0.079267055;-0.00045266084;-0.0043311035;-0.021119343;-0.071769476;0.14409554;0.09234968;-0.0036793717;-0.11134936;0.039177243;0.096132174;0.090069786;-0.28393313;0.09144072;0.39437494;0.10778479;0.20299692;0.02847442;0.0001309707;0.20900989
0.002382298;-0.112284854;-0.15588956;0.03939725;0.016519375;-0.07982683;0.009936747;-0.01943921;-0.06327175;0.04964155;0.020130789;0.2824541;-0.03183759;-0.16005473;0.09928999;-0.025413532;-0.12965317;-0.10863984;0.049860157;-0.06651102;-0.023649663;0.022994034;0.11151604;-0.012845353;-0.26257524;0.14001505;-0.19348763;0.15048525;0.013893674;0.13244209;-0.45999596;-0.12314563;-0.04068594;0.20119414;0.014173426;0.003989854;0.23236045;-0.078386;-0.06686949;-0.14915888;0.058693696;0.17145099;0.014363483;-0.07503128;0.026336163;-0.06820076;0.028081898;0.093202524;-0.0691555;0.01098629;0.116138585;-0.02407155;0.25707185;0.041774686;-0.015310246;0.0848402;-0.34288916;-0.09988948;-0.007724757;0.0056361416;0.033672426;-0.186689;-0.09258723;-0.050435968;-0.008752709;-0.047497813;0.17283978;-0.20077795;-0.2960273;0.07572099;0.00037476717;0.2109838;0.08394787;-0.05166437;0.007856291;-0.03021267;0.02927815;-0.01294345;0.018626796;-0.19359209;-0.020157987;0.1399532;0.0003413893;-0.063618906;0.0294237;0.09408261;-0.023802754;0.043453414;0.15687807;-0.20711859;0.14144851;0.0793454;0.23111407;0.04954438;-0.15541902;0.0019156048;-0.032829057;-0.002503464;0.0009556333;-0.16975357;-0.1311727;-0.19999214;-0.079680085;-0.013822981;0.10954109;0.009422589;-0.042835787;-0.057808958;0.07402463;0.1172487;0.2922033;0.10739576;0.28467137;0.071558096;0.006320848;0.27162597;-0.06075622;0.01907196;-0.023795297;-0.061058488;0.028302468;-0.14822307;0.0699787;-0.014069235;0.06940306;0.022788942;0.02148851;-0.067720495;0.16319488;-0.069310285;0.23092134;-0.043833736;0.07759747;0.043528207;0.1170935;0.04155808;0.09604519;-0.030535534;0.012608545;0.023639293;0.18732572;-0.053522293;-0.035262477;-0.14319427;0.2923663;-0.028657023;0.110175215;0.155576;0.006595078;0.14974417;0.13168007;0.27266487;0.051145528;0.073533416;0.009951091;0.20685773;-0.13484664;-0.02014649;0.01710696;0.016817503;-0.19263199;0.036728356;-0.057658646;0.0360578;0.35493258;0.08098998;0.1372632;0.20521022;-0.05472247;0.33472034;0.07396165;0.1573036;-0.1356003;-0.029894348;-0.048090782;0.044459708;-0.30235738;0.031115798;0.17664468;0.019929973;-0.06272955;0.15666856;-0.13392915;-0.1341721;-0.022893226;0.009543071;-0.010794589;0.1660716;-0.20908484;-0.2510604;-0.2218284;-0.24419665;-0.008728932;-0.043629102;-0.14683563;0.024828102;-0.09328427;-0.18666518;-0.024208052;0.14901441;-0.18930538;0.19747002;0.21894997;-0.07272645;0.058162462;-0.24027903;0.035131447;-0.1977086;-0.079558216;0.0071233623;0.017351713;-0.06346632;0.32302895;-0.048621006;-0.041309766;0.05247591;-0.09853011;0.0027175387;-0.0026665882;-0.099924415;0.10715588;0.22755472;-0.1524145;0.15146308;-0.020457834;-0.04646832;0.029793156;-0.20723614;0.07224981;0.09609794;-0.0131701715;0.08501689;-0.04444091;-0.0014086819;0.03579628;0.039655123;-0.14328969;-0.017429344;-0.0101845395;-0.02503789;-0.11312534;-0.0007517947;0.040120635;0.025098955;0.0029013578;0.008181906;0.029749675;0.18031642;0.1374925;-0.026071044;0.05494147;-0.029070443;0.18909538;0.06258817;0.36169127;0.02566055;-0.07293289;-0.13949513;-0.013814764;-0.22379836;-0.23887055;0.21876979;0.035959307;0.041827694;-0.0020056753;-0.0027672688;0.11530859;0.012634905;0.045984007;-0.2285893;-0.2707357;0.14975765;-0.0508017;0.010237531;-0.030069152;-0.07477089;0.1947114;0.013658711;0.14410987;0.04176185;0.0742384;0.12336895;0.013324654;0.037337877;-0.17760219;0.09660038;0.0077781645;0.07609896;0.026835095;0.025948877;-0.21353284;-0.18488906;-0.02085343;0.0836843;-0.029780442;0.072688214;0.219207;0.19745228;0.008818258;-0.01071461;-0.26540512;0.047716912;0.019221399;0.055838585;0.028147519;0.13156056;0.0736916;-0.15869336;0.05235946;-0.059450127;0.07585722;0.036358856;0.113062136;0.013703738;-0.13443145;-0.02343729;-0.26367998;0.035160266;0.014889609;-0.012468625;-0.03201879;-0.042120863;0.04719458;-0.016461799;0.03861628;-0.0337812;-0.051108275;0.010422055;-0.09241031;0.0054865014;-0.1193351;0.04708209;-0.22831795;-0.05915334;0.29533786;0.13391611;-0.34128594;-0.22183694;-0.04138299;-0.14943543;-0.055953935;0.0053778524;-0.038712066;0.018167533;-0.091742575;0.01706374;-0.0012075352;0.076909795;-0.16885343;-0.038848646;-0.0021242881;0.11247032;-0.04947541;0.1548879;0.038376056;0.2656223;-0.01810994;0.0473386;-0.07042127;0.10721492;0.23429973;-0.21250647;-0.06453071;0.035092615;0.04684428;-0.021562517;-0.013639907;0.2576383;-0.06969044;0.008288967;-0.25592968;0.40091553;-0.09653004;0.049986422;0.1148057;-0.02206354;-0.031232022;-0.013959734;0.024071628;-0.03545267;-0.5090093;0.024425354;-0.02352098;-0.11605635;-0.1334498;-0.035520677;-0.032197133;0.13225752;0.083264574;0.09351544;-0.16257516;0.22001353;0.09471346;-0.015750974;0.002629703;-0.039484307;0.101908974;-0.045761622;-0.017174369;0.014512753;-0.26160684;0.023269188;-0.009965753;0.079238445;0.11336103;-0.050362352;-0.13377686;0.13561676;-0.06808867;0.089662544;-0.081865594;-0.14804314;-0.0641851;-0.45773357;-0.1304962;0.0796666;-0.16912681;-0.100604676;0.075323105;0.15177652;0.035733074;0.027043875;0.025234003;-0.24294056;-0.17977099;0.005562023;0.078718044;0.13666306;-0.04145469;0.027904846;-0.16625613;0.2481686;0.2131798;0.016335651;0.02863273;0.03692966;0.11544096;0.11654651;-0.04914738;0.017521424;-0.16702338;0.062202193;0.15323225;-0.36599112;-0.012540006;0.22096188;0.16068807;-0.036080062;-0.24868512;0.23109217;-0.010557696;0.13629994;-0.034383032;-0.049365643;-0.045397896;0.01767194;0.052611098;-0.15377799;-0.057113126;-0.07006044;0.067833394;-0.17644653;-0.06809427;0.0942061;0.15874183;-0.014789258;-0.026889607;0.10839975;0.30860466;0.008242799;0.016353391;0.054887783;-0.113380104;-0.23167345;0.16369775;-0.06781489;0.19058195;-0.07083204;-0.06464265;0.0028726216;-0.13822415;-0.1219324;-0.04066576;-0.05324145;0.09339824;0.02596119;0.012893177;0.008040053;0.08991141;0.107678905;-0.2222706;-0.4306362;-0.035126798;-0.0060911383;-0.013440933;0.033628263;-0.053723235;0.3151282;0.04373905;0.0100846;-0.09595828;0.009308232;-0.037876774;0.08438199;0.021723198;0.0025475766;0.26138076;-0.030030362;-0.07216578;-0.07755845;0.20142886;0.17693235;-0.10920016;0.02931273;-0.03101024;0.018981285;0.08514201;-0.2207785;0.039756462;-0.17546925;0.0567488;-0.13125058;0.08554403;0.2108635;0.05436759;-0.051950164;-0.041722227;0.13798565;0.018750234;0.053852845;0.13779873;-0.30667654;0.009009352;-0.3007926;-0.003742094;0.06772966;-0.123180956;-0.013568516;-0.30476594;-0.14800891;0.06523092;0.035998624;-0.03673495;0.007907961;-0.15554437;-0.0047946214;0.05532865;-0.07970943;0.031006224;-0.010585122;-0.1259901;0.12815575;0.0038040455;0.063780844;-0.15375711;0.22831038;-0.06694702;-0.0016577755;0.025829587;-0.104582295;0.07249549;0.21984778;-0.03950069;0.0014076096;-0.10736794;0.10656708;0.14038119;-0.028571352;-0.174244;0.0908013;0.1853302;0.26627654;0.047736112;0.0100768125;0.033688083;0.26126817
0.036373448;-0.048816033;-0.20721662;-0.0016692099;-0.049294956;-0.09497093;0.032321025;0.07095415;-0.017460555;-0.1252968;-0.0070101954;0.14555088;0.026862098;-0.20210953;0.03323228;-0.038521267;-0.23419218;-0.046762247;0.034086484;0.024166133;0.028840305;0.031947162;0.035943046;0.0026603346;-0.24026443;0.009168497;-0.2428921;0.053019613;0.05053962;0.19457963;-0.36305746;-0.04324602;0.09172296;0.22631414;0.020830844;-0.006600742;0.33139625;0.06250361;0.081483856;-0.254792;0.0031700614;0.05377645;0.06110693;-0.040324632;0.024444968;0.13003348;0.13772881;0.16610828;-0.17115103;0.026008155;0.050066996;0.0669402;0.3141149;0.08434516;0.13465741;0.044750776;-0.23745248;-0.20241214;-0.26246735;-0.1240874;0.20225342;-0.16563566;-0.08172735;-0.114387594;0.009125725;-0.017676096;0.008359484;-0.1815392;-0.33163348;0.039763313;0.0006802638;0.18354894;0.20386402;-0.0015677293;-0.021876298;0.0064971964;0.023904093;-0.10572071;0.018170174;-0.16851777;-0.12335392;0.09844794;-0.008727382;0.061117098;0.2791923;0.05516826;0.0073785963;0.00883262;0.18961173;-0.16355681;0.14282604;0.0809643;0.25826526;0.09410661;-0.2356804;-0.021673217;0.0070471587;-0.04730576;-0.047441565;0.076606564;-0.04479713;-0.11696327;-0.088862166;0.0032694698;0.2819641;-0.0062321913;-0.022342488;-0.009337146;-0.0207016;0.09124545;0.13677038;0.034978118;0.18394618;0.12670141;0.018837383;0.24889497;-0.018623251;0.21768928;-0.019504588;-0.12883891;-0.03528106;-0.21412846;0.005467776;-0.12258141;0.09257986;-0.06414826;0.047312737;-0.17344272;0.11316432;0.044787142;0.3178498;0.079444006;-0.0016348908;0.016185567;-0.011184583;-0.025623217;0.049270414;-0.019397764;0.018571133;0.031969395;0.08814259;-0.22443873;0.03685694;-0.038270533;0.1996885;-0.092727065;0.16084681;0.0029448408;0.04157216;0.09435079;0.05665498;0.19337724;0.029011736;0.1570605;0.029708963;0.18467727;-0.04138757;0.04125911;-0.013347377;-0.04455362;-0.03750323;0.025824076;-0.036550175;0.036108334;0.23999031;0.0834814;0.021633765;0.06359429;-0.13884605;0.37854832;0.15155533;0.05858109;-0.15066175;-0.14961281;0.022493336;0.009734613;-0.15387301;-0.015655039;0.31801677;-0.07660981;0.035310876;0.030072926;-0.047622252;0.00013839277;0.015984738;0.079876676;0.026269754;0.15306428;-0.19371636;-0.25148168;-0.23654588;-0.11962495;0.028320039;0.0831321;-0.20342623;0.14015862;-0.14206152;-0.30026692;-0.022136249;0.21470791;-0.13575722;0.20103396;0.16942492;-0.16848852;-0.122312255;-0.33508936;-0.031243153;-0.05444693;-0.12903541;-0.033992685;0.011256889;0.060441997;0.2882892;-0.031748425;0.05916168;0.030254763;-0.09122209;-0.020800622;-0.076184966;-0.19276318;0.017801126;0.07989414;-0.16689107;0.23001894;0.01986181;-0.015059952;0.052796263;-0.15848207;-0.06308227;0.07185771;-0.0044197775;0.15239957;-0.06960752;-0.12505263;-0.08850688;-0.11284239;-0.16777828;-0.097668834;0.033314668;-0.09042004;-0.17969416;0.050807368;0.019109692;0.09246999;-0.04286724;0.074063875;-0.1560354;0.25031924;0.106276125;-0.014421743;-0.045273375;-0.23323709;0.113389105;0.06602985;0.17095822;-0.007993387;-0.018273883;-0.13821706;0.03060927;-0.12408646;-0.24337766;0.042595062;0.01441819;0.039305985;-0.1680253;0.07756996;0.08571428;-0.03231467;-0.11659565;-0.25122112;-0.17631842;-0.041657068;0.03453328;0.0032692598;-0.024779623;-0.047226634;0.11540753;-0.026642809;0.08581253;0.032446023;-0.062406804;0.14557907;0.021759784;-0.06877347;-0.15311933;0.043327358;-0.1942568;0.07587153;-0.12168408;0.17488867;-0.07072878;-0.06377372;-0.04036854;0.023781793;-0.13871963;-0.041614413;0.1211169;0.16608237;-0.06595356;0.025387848;-0.30055213;0.017684784;0.03323528;0.08694343;-0.013454172;0.11976344;0.057095237;-0.014645272;-0.04090021;0.0876459;0.08674698;-0.005582702;0.18435343;0.003128298;-0.10730476;-0.16928203;-0.33788428;0.016650727;0.08315958;0.028173752;0.023201842;0.053223938;-0.05677888;-0.0017730215;0.114416465;-0.032519262;0.046229687;-0.02609797;-0.305963;-0.052610636;-0.2212678;-0.041699912;-0.17622305;0.03146945;0.3026467;0.021419303;-0.281295;-0.21695566;0.057676446;-0.00045733416;0.042016942;0.03568518;0.013254412;0.06262856;-0.03709814;0.03946907;0.08727657;0.0049310955;-0.28462514;0.048081;-0.02258906;0.17780586;-0.011493074;0.28679562;-0.038370702;0.1195155;-0.061058316;0.14901601;0.06263486;0.041392777;0.15938483;-0.123655505;0.008055995;0.012413553;0.028902529;-0.0042336886;0.04310998;0.24449787;0.022413984;-0.05513129;-0.21873233;0.35879096;0.0904414;-0.08661653;0.05191781;-0.11684494;0.041615345;-0.114579976;0.029466309;-0.02444196;-0.42228478;0.053377617;-0.027707621;-0.31866476;-0.055259947;0.0026704343;0.049381666;0.087460265;0.04090115;-0.010092404;0.08002026;0.3744723;0.026554419;0.13125779;-0.009863926;0.06318705;0.18015698;-0.089268245;0.027128296;-0.022331113;0.037216045;0.04494988;-0.020752588;0.05068917;0.03972582;-0.078953825;-0.03840502;0.12867555;-0.0070136446;-0.0120708;-0.14868473;-0.19628368;0.06046892;-0.51184994;0.00089589885;0.0031300741;0.02848696;-0.20146084;0.13909799;0.34422293;-0.03949621;0.03514991;0.021186052;-0.15480267;-0.1954875;-0.012903886;-0.0040406156;0.20465086;-0.0130589185;-0.01324044;-0.13589719;0.16310063;0.33414918;0.05408997;0.005275902;0.047293182;0.21814957;0.113070615;0.044531632;0.09392223;-0.022889629;-0.12006189;0.044338852;-0.35262215;0.040229112;0.24473578;0.11219083;0.034225002;-0.33004802;0.23578274;-0.07038825;0.25249863;0.090337366;-0.09027706;-0.167081;-0.049975306;-0.060648948;-0.020641163;0.055432007;0.05358287;-0.021869453;-0.15741709;-0.007105613;0.09494014;0.086822584;0.0152679235;-0.02693256;0.0019915162;0.12686008;-0.010733769;-0.09719722;-0.047663745;-0.002764808;-0.18116033;0.1100067;0.053168107;0.17849152;0.018468006;-0.03311428;0.022947604;-0.20821616;-0.09417797;0.028450752;-0.04035941;0.018827986;0.09434934;-0.00993682;-0.005184414;-0.09238423;0.044089142;-0.2567159;-0.6255486;0.051783655;-0.012426724;-0.045781184;0.08223378;0.10252607;0.28843218;-0.0466185;-0.04557437;-0.16589224;-0.010325777;0.18122745;-0.0010557624;-0.02961908;0.015807988;0.09409045;0.01586548;0.07992469;0.0512166;0.014785875;0.25877342;-0.14022714;-0.11131821;-0.023098988;-0.03960802;-0.009329247;-0.3299242;0.0027235562;-0.09472704;0.06557417;-0.08634697;0.065177;0.14719665;0.019945491;-0.03130701;0.04063267;0.16108851;0.048285004;-0.011173199;0.027488437;-0.24569656;0.021298718;-0.22644477;-0.01241694;0.19352932;-0.061395127;0.019165825;-0.34472623;-0.031497825;-0.045544654;-0.0361919;0.0074599227;0.025867699;-0.12768236;-0.065748006;0.04878713;-0.022408888;-0.01667901;-0.17996083;-0.25451744;0.2059729;-0.018318424;-0.050268322;-0.1645977;0.19894974;-0.10159748;-0.03270585;-0.075279064;-0.09318719;0.12689216;0.2010444;0.0072750873;0.052527744;-0.087863855;0.0068937684;-0.06823754;0.018482862;-0.14834565;0.018893411;0.25935027;0.09930411;0.20212734;0.018486185;-0.044372723;0.15866043
0.017922934;0.08299389;-0.07779966;-0.08026055;0.023745328;-0.026459025;-0.041920424;-0.063350305;-0.024108646;-0.057291675;0.001911465;0.18662825;0.18887311;-0.26422617;-0.037896905;0.072242014;-0.20243631;-0.066057526;-0.014511132;0.003637429;-0.029021975;-0.02522837;0.060572162;0.13454142;-0.29461056;0.027325155;-0.21950291;0.21804248;0.010093742;0.087008186;-0.24683502;0.102992855;0.09161992;0.2825643;-0.005681704;0.03251807;0.17452627;-0.07953508;0.071838975;-0.21150179;-0.036232833;0.13870119;-0.010386872;-0.14433016;-0.05291212;-0.06906343;0.0019283141;0.14380364;-0.19157577;0.022709254;0.08337809;-0.009865115;0.2060266;0.18394645;0.1628059;0.07439278;-0.28523624;-0.31692472;-0.20505518;-0.056285247;0.22273076;-0.07251142;0.050994385;-0.04887992;-0.015005024;0.05891759;0.019602302;-0.18123189;-0.24317463;-0.024131645;-0.056222044;0.15995538;0.28385088;0.05403101;-0.061911494;0.033441678;0.03668534;-0.09141731;-0.18019365;-0.108457506;0.18289538;0.023077898;-0.084551625;-0.034730386;0.15837757;0.06118627;-0.03488765;0.032690078;0.21742941;-0.37050453;0.17158607;-0.052694622;0.17743447;0.17206216;-0.14883384;0.10326126;0.03908088;-0.1045474;-0.022669215;-0.05342022;0.16801718;-0.05800414;0.105269425;0.007559311;0.28753477;0.017496942;0.0030901567;-0.015157239;-0.045035325;0.09036213;0.09856188;0.012885127;0.18782756;0.28128442;0.049077544;0.18650323;0.012571395;0.1562858;-0.021355592;-0.13506997;0.14395826;-0.26916707;-0.059654646;-0.18092486;0.16240653;0.0069656037;-0.042561386;0.047565985;0.08779021;0.0141443135;0.22649576;-0.007842299;0.100556135;-0.031535003;0.06612392;0.021123854;0.0006096428;0.008871381;-0.013727975;-0.08217227;0.0038221048;-0.12524927;-0.027122142;-0.21239652;0.27521878;0.029948888;0.12999704;0.08858162;0.0045973603;0.038831167;0.0073511773;0.101568356;-0.026254676;0.07088623;0.052316274;0.18729627;-0.047618467;-0.03199523;-0.027552614;-0.025792537;-0.08628153;0.077747166;0.018208524;-0.05672791;0.23682006;0.077727854;0.25806245;0.035752803;0.008616501;0.24289331;0.094590984;-0.015927315;-0.17445765;-0.21028219;-0.00091954274;0.02866809;0.0024211765;0.023947284;0.44097233;-0.04291493;-0.022318024;-0.016171234;-0.06223782;-0.088039145;-0.029798066;-0.037938703;0.008267126;0.0039864853;-0.082807735;-0.29897952;0.094501;-0.23103897;0.019323215;-0.07556768;-0.2525788;0.17380819;-0.1027304;-0.18948992;-0.109047145;0.253056;-0.07766697;0.0442248;0.14048897;-0.12045768;-0.05014647;-0.18984133;-0.046701137;-0.04377075;-0.17803179;-0.0034286045;-0.014918515;-0.010045956;0.25394985;0.07707905;-0.009463009;-0.051623657;-0.15998012;0.040563144;-0.1792449;-0.15172787;-0.074469335;0.23129386;-0.2926224;0.05634796;0.0051855217;-0.044876307;-0.058115646;-0.17652859;-0.043009575;-0.024172138;-0.021614807;0.20650767;0.0126096215;-0.036401913;-0.06668558;-0.09123079;-0.16285455;-0.031778764;-0.02304759;0.013623837;-0.4188244;-0.08255044;-0.011974602;0.014788309;0.059821554;0.06335362;-0.17860676;0.20962052;0.18768327;0.0125023415;0.035185877;-0.12489783;0.20727062;0.09652315;0.18530795;-0.022052722;-0.046771646;0.009895797;0.030878112;-0.010572648;-0.39696288;0.1932494;0.09032411;-0.037960663;-0.13805301;-0.05899264;0.18821374;0.028516568;-0.26722708;-0.033502653;-0.13230717;0.07137543;-0.0011118953;-0.08004067;-0.016196385;-0.0522972;0.2494004;0.028861705;0.04306238;0.06831275;-0.10170131;0.37708518;0.020459544;-0.16653723;-0.26248744;0.087987386;-0.101345636;-0.10650369;-0.020309808;0.23674448;-0.07431421;-0.11578083;-0.054804917;0.09920435;0.033983886;-0.06885057;0.19076006;0.08239049;0.060023095;9.4160365e-05;-0.27612284;0.018315341;0.013725216;0.23149633;-0.07405011;0.039911833;0.12491271;-0.046202928;-0.057933927;-0.06757896;0.07356029;-0.039707087;0.23695008;-0.17414576;-0.033579227;-0.07870828;-0.46133152;-0.07194559;0.04423971;0.030439304;-0.05854289;0.0043684947;0.03899247;-0.0025595003;0.16708763;0.057321545;-0.024796207;0.04503451;-0.2927616;-0.022047216;-0.19760168;0.03205493;-0.11865283;0.049186572;0.2970025;0.014088708;-0.14907905;-0.22356781;-0.022785049;-0.17733939;0.011522037;0.009308086;-0.03615834;-0.0500194;-0.024288082;0.11534788;0.0668542;0.01304268;-0.26814282;-0.029560886;0.04017461;0.08823929;0.03617441;0.18451151;0.14171343;0.11740771;0.06648993;0.02767479;0.09541944;-0.018320508;0.1476809;-0.01622187;0.028151575;-0.18084367;0.009000062;-0.043233328;-0.07448839;0.15574585;0.042853158;-0.11155316;-0.15909967;0.2612591;0.018744593;0.010922993;0.04469801;0.1264415;-0.056452226;0.09076824;0.10440407;0.038702678;-0.45665604;-0.009738464;-0.03541549;-0.16382909;-0.16874497;-0.034098577;-0.0094504785;0.06802916;0.028935973;-0.011631713;0.05445663;0.38073298;-0.02640263;0.10173219;0.022155264;0.051414434;0.299162;-0.09013819;0.037781402;0.04661414;-0.028103264;0.16599181;0.03436501;0.0055998852;-0.07984287;-0.057329636;-0.05967707;0.029608646;-0.006663847;0.012955236;-0.17242482;-0.033384472;-0.055329517;-0.5430329;-0.03771471;-0.08422453;-0.034309484;-0.17006643;0.049757633;0.2563543;0.036268346;-0.052199416;-0.0041775783;-0.17346933;-0.025918338;-0.059711196;0.031690426;0.22293925;-0.018321097;-0.032573614;-0.13726424;0.21518418;0.3137203;-0.075995535;-0.006633359;-0.019380832;0.26308367;0.13560879;0.040670883;-0.0004913184;0.13903017;0.04194173;0.026423061;-0.2565624;-0.0073468797;0.4555057;0.054325316;0.0077708135;-0.28226584;0.23620678;0.06233255;0.230197;-0.06826305;-0.10432463;-0.2349152;-0.15883236;-0.059137013;0.010099046;0.041210096;-0.013247437;0.04334845;-0.10785686;0.016199527;-0.033774704;0.18831724;0.05939312;0.02734588;0.14252585;0.12107372;0.016990358;-0.1211566;-0.025984235;0.007980172;-0.25820157;0.0146585135;0.14321388;0.06860271;0.034864713;-0.14131415;-0.048805624;-0.21907075;-0.06816213;-0.07385014;0.035870768;0.0913511;-0.01895166;0.01504417;0.038906414;0.047533553;-0.004932137;-0.19133878;-0.615261;0.24860682;0.07163789;0.029886896;0.12164102;-0.028133953;0.16399945;-0.014313854;0.045005154;-0.07120488;0.006162581;0.14621644;-0.019700356;-0.007464738;-0.17159726;0.035394132;0.055275034;-0.014774734;-0.012029391;0.08799559;0.062275942;-0.23260435;-0.05581828;-0.024982462;-0.00887011;0.0086348;-0.38725418;0.054745495;-0.23795246;-0.023203937;-0.079212174;0.014133889;0.050440017;-0.05187687;-0.036765955;-0.059260227;-0.0591144;-0.0035910837;-0.121186;0.13057472;-0.36792582;0.027419565;-0.24930447;0.01790046;0.011352539;-0.07707829;0.0699623;-0.2621574;-0.07244248;0.042601626;0.0022003336;-0.042415075;-0.007882935;-0.17576596;-0.1601987;0.20221218;0.06457625;-0.022749782;-0.07541852;-0.30627182;0.18037386;-0.0708334;-0.028311098;-0.10687655;0.09204484;-0.23128988;0.044775154;0.026935654;-0.062645234;0.2104086;0.24128276;0.005008127;-0.08188209;-0.028700728;-0.15144412;-0.19711383;0.026569806;-0.23767649;0.035576433;0.1506169;0.1057072;0.15639919;-0.023070855;0.051465463;0.10752806
-0.019229064;0.121942304;-0.10813622;0.043518063;0.026655044;0.04215194;0.00089061435;-0.027041774;0.06941701;-0.06597194;0.041692033;0.30158475;0.2396243;-0.25048894;-0.0041997954;-0.0067438674;-0.3262589;-0.109202184;-0.05950356;-0.11797699;0.009489881;0.04658624;-0.115818776;0.11422448;-0.30730698;-0.07669304;-0.39194462;0.16826287;-0.048331946;0.207779;-0.21826738;-0.017496713;0.13500059;0.14948396;-0.04963013;0.040142417;0.04488072;0.0770104;0.14715272;-0.21977714;0.000864415;0.03833618;-0.026119906;-0.010452007;-0.011846813;0.027488146;0.15896793;0.07664512;-0.13912639;-0.028835716;0.07893863;-0.015910638;0.13147554;0.010073882;-0.09726178;-0.055286482;-0.24400344;-0.26800293;-0.27880937;-0.076278456;0.2727453;-0.2124943;0.16109759;-0.046193734;0.0012221013;-0.043321833;-0.05252953;-0.25764614;-0.45925203;-0.011441745;0.07593805;0.16011433;0.33150873;-0.040042497;0.055468295;0.021922098;-0.028333668;0.02658116;-0.12044911;-0.0024325668;0.2040907;0.042388976;-0.018592237;0.04092428;-0.05834961;0.19077846;0.08642212;-0.08684447;0.31522056;-0.35422242;0.2021319;0.114948764;0.17988932;0.012989749;-0.16540307;-0.069761515;-0.03714965;-0.12115631;-0.025103375;-0.05729942;0.24965368;-0.13647705;0.21272047;-0.004167156;0.27757397;0.03447276;0.0055004517;0.06782575;0.003653414;0.05636844;0.15112576;-0.111198775;0.2054583;0.2832268;-0.083103;0.096115746;0.01880377;0.010508385;0.0043103774;-0.15662783;0.10908234;-0.15445803;0.04037661;-0.1963358;0.14368588;0.036919784;-0.074494176;0.07402625;0.06538939;-0.02124972;0.32285053;0.032714013;-0.016154755;0.05073716;0.14913973;-0.016557643;0.038180992;0.0025905652;-0.053098194;-0.03949865;-0.019212862;-0.16124964;0.023896089;-0.19705068;0.2827578;-0.09433474;0.09353309;0.24478802;-0.011656874;0.109182775;0.078233264;0.17007701;-0.025621967;-0.01244846;-0.05056163;0.24202216;0.09375656;0.016281754;0.047861993;0.010041419;-0.27154815;-0.06129879;0.028228119;0.01956475;0.26755238;0.07586975;0.16214557;0.1564695;-0.017504444;0.37631753;0.09153115;0.11027209;-0.107593685;-0.1516947;-0.013150669;-0.0155715225;-0.071344644;-0.0042499676;0.29307386;-0.059083633;-0.04465145;0.21213244;-0.2028912;-0.13070172;0.043975364;0.0051471214;0.014977122;-0.036445767;-0.10916611;-0.2052783;0.11011847;-0.30570593;-0.040728107;0.039685465;-0.19077782;-0.029894613;-0.14729984;-0.296879;-0.19260941;0.2837554;-0.13002315;0.21154852;0.16558929;-0.0430083;-0.17906238;-0.28363654;0.046902653;0.15429129;-0.20943096;-0.0001947275;0.03341152;0.0011156626;0.40124032;-0.044025607;0.047384575;-0.05114316;-0.117473915;-0.045722317;-0.015415689;-0.15560086;-0.13607103;0.07402335;-0.21705486;-0.048925854;-0.01319682;-0.15440305;0.05707325;-0.0601096;0.060486946;0.14626166;-0.0003766914;0.0762542;0.022825211;-0.14914988;-0.20135507;-0.08976079;-0.1774028;-0.065217845;-0.05448648;0.10505624;-0.41446012;-0.01366208;0.010125449;0.15310623;-0.025970075;0.019363131;-0.074511714;0.2977142;0.1589196;0.010268487;-0.062327348;-0.06747547;0.34513047;0.021074258;0.0006605925;0.050546627;0.035991713;-0.031151846;-0.020146832;0.019962478;-0.3596925;0.18394405;0.017838774;-0.021993686;-0.09970144;0.009087371;0.1870385;0.0063920477;-0.19987397;-0.07565227;-0.010237557;-0.052690543;-0.048655596;-0.023350924;0.02734913;0.045549378;0.2361908;0.032161113;-0.025963468;0.022379536;-0.015667621;0.21392702;-0.0061618634;-0.194418;-0.21120895;0.06117898;-0.036168806;-0.07014673;-0.0026034457;0.14037015;0.0020584885;0.0712813;0.04075621;0.08304475;0.08316208;-0.012022833;0.256146;-0.09725361;0.023948524;0.022073185;-0.33855715;0.0015677284;0.009403529;0.1684055;0.031606417;0.09587535;0.11703853;0.043394852;0.0743185;-0.014695273;0.08803323;0.063102305;0.14564504;-0.22667202;-0.038411025;-0.021801574;-0.4111195;0.022351103;0.10388489;0.06849717;0.0026149547;-0.09628596;-0.18977572;-0.04932238;0.14592429;0.029690096;0.019768553;0.017835112;-0.37965998;0.066600315;-0.24292384;0.055144046;-0.048292454;0.030317213;0.30666918;0.05511389;-0.1700087;-0.117288746;-0.00047299132;-0.20376885;0.0024885954;-0.075997666;0.061254833;0.05725944;0.06821909;0.06403135;0.026225835;-0.08535743;-0.28239754;-0.049452435;-0.052775014;0.1897699;-0.0082971845;0.17612484;0.18291478;0.22377646;0.0006551087;0.007033219;0.2069415;0.116090804;0.17645393;-0.1338762;0.017703652;-0.19650285;0.0048122485;0.03968854;0.059275627;-0.09601483;-0.016295353;-0.036418114;0.0050606886;0.16549177;-0.095143;0.046309702;0.07587824;0.13092121;0.002808259;0.12873025;0.07058028;-0.016814943;-0.41569918;0.019530835;0.036533274;-0.20764694;-0.24573676;0.029910067;-0.020766899;-0.03165111;0.05581389;-0.047113296;0.10719016;0.19578849;-0.03642887;0.17910187;0.008017878;0.053038355;0.27770507;-0.18622619;-0.0018546213;-0.037320826;0.0544939;0.20472921;0.06184817;0.080411375;-0.09474394;-0.017822651;-0.018686447;0.14548126;0.009850368;0.03106763;-0.19374663;-0.16226609;0.035918307;-0.6042123;-0.025829338;-0.09831257;0.02028805;-0.08884519;0.032700446;0.25994542;-0.021556139;-0.046920575;-0.04406313;-0.14831308;-0.05527304;-0.021878907;-0.06668721;-0.0009506253;0.049012516;-0.0035128866;-0.23081623;0.062182344;0.08939275;-0.015548381;0.016290396;-0.04237259;0.2746488;0.1297169;-0.04713973;0.030633574;0.098990485;0.15229896;-0.09102737;-0.29112494;-0.042193867;0.4033405;0.06036341;-0.00048971514;-0.19285135;0.15794085;0.05293812;0.21914363;-0.16527425;0.071233444;-0.23490745;-0.13213919;-0.10516698;0.029989883;-0.03464857;-0.0033488814;0.0670775;-0.10917941;0.016927743;0.07444388;0.2537292;-0.023762899;-0.013429593;0.0920057;0.1688266;-0.020176971;-0.16710924;-0.046656914;-0.26128614;-0.15413415;-0.13542613;0.14867675;0.13253519;-0.024506995;0.0052429843;0.03662865;-0.12475995;-0.1421559;0.015883548;0.04098246;0.14954898;0.059903003;-0.00783844;-0.0038033365;-0.075164884;-0.051938355;-0.20391014;-0.54846144;0.27875748;-0.009488511;0.0028186354;0.06384137;0.08700925;0.16512205;0.016419228;-0.0605049;-0.09297812;-0.026788767;0.07669716;0.051646333;-0.05972833;-0.13718282;-0.020473888;-0.03120463;0.0051827524;0.024840435;0.011228952;0.048531763;-0.0740854;-0.20679876;0.055884954;0.023118382;0.2448165;-0.2981784;0.0037082222;-0.22187823;0.0053368886;-0.012683944;-0.05531376;0.0178559;0.05708958;-0.044698235;0.01810827;-0.14677781;0.02068054;0.09554067;0.14559628;-0.16060431;0.02458667;-0.304201;-0.020210365;0.050257206;-0.09778336;-0.105839506;-0.24559781;-0.016960895;-0.03982523;0.034986183;0.025545403;-0.042055342;-0.055328757;-0.27126998;0.21242645;-0.028907256;0.0007574725;-0.15738346;-0.24040467;0.14397915;-0.1761971;0.047919355;-0.15543213;-0.028669981;0.04725998;-0.050544504;0.010501129;0.04246714;0.034018975;0.31982395;-0.075008474;0.04028936;-0.083721526;-0.03655675;-0.11581156;-0.003629747;-0.22499323;-0.02778455;0.00013357306;-0.056624115;0.28536493;-0.011314887;-0.029975936;0.09306552
0.015817953;0.078511685;-0.013560554;0.07280299;-0.0056302417;0.085386276;0.02240261;0.013806954;0.032989945;-0.037907008;-0.0206248;0.30367368;0.2672992;-0.24834058;-0.016745163;0.0129868295;-0.28500995;-0.013936956;-0.038713086;0.051987793;-0.09102154;-0.053593237;-0.0023996048;0.11132357;-0.14701806;-0.16722153;-0.23166661;0.27955484;-0.024369018;0.34232464;-0.21339183;0.010639714;-0.091802955;0.11317162;-0.038285986;0.0072978684;0.00014605663;0.0937893;0.106456704;-0.04644142;0.020031327;-0.15709727;0.03252939;0.06478642;0.012989832;-0.0468079;0.20017827;-0.043984912;-0.010000297;-0.018288977;0.13881975;0.061447307;0.18689942;-0.1252446;-0.066531666;-0.01973766;-0.098873526;-0.43710756;-0.31680155;-0.002957232;0.07453375;-0.26618817;0.3279511;0.0023175292;0.021894919;-0.005749437;-0.014002346;-0.26886004;-0.29320842;0.001434164;0.029984;0.13370998;0.19620177;-0.15041149;-0.01834964;-0.0028054211;-0.057865616;0.023722779;-0.09026167;0.17510366;0.11396896;0.12493381;-0.039641764;-0.032553446;-0.060547397;0.16662133;-0.033946723;0.016551415;0.3313342;-0.4849238;0.13776797;0.09487931;0.13094358;0.13382472;-0.1291582;0.0071939616;-0.009290404;-0.08589384;0.074304394;0.047076225;0.13582368;-0.15422611;0.37532613;0.025087934;0.21628612;-0.049282756;-0.0072345953;-0.017560327;0.035123177;0.063749276;0.19442283;0.097557075;0.22740547;0.5085204;0.0717989;0.05971356;-0.021219296;-0.21412022;0.06052132;-0.022987714;-0.014895256;-0.143029;-0.06214413;-0.35619673;0.25549322;-0.024075584;-0.025448764;0.13387333;0.14468297;-0.026378525;0.22816093;0.071546875;0.032902393;-0.051964838;0.032380354;0.0010293425;-0.02827973;0.054020826;0.045375768;0.049264923;0.050625037;-0.12910308;-0.032546263;-0.14243756;0.12736571;-0.02212759;0.07306637;0.30010355;-0.0035252173;0.063760884;0.25655168;0.2118596;-0.018297726;-0.05751146;0.043862425;0.07125478;0.14354306;-0.04112654;-0.009776842;0.08182837;-0.17197862;-0.17163475;0.020418074;-0.0075362395;0.25542906;0.039132606;0.15832523;0.17329904;0.24010624;0.38394955;0.120734885;0.045297496;0.055942755;-0.3613507;-0.013240781;-0.023315804;-0.003935115;0.012857188;0.3036984;-0.09005397;0.012429175;0.26060718;-0.1043507;-0.08061038;-0.067051366;-0.0768436;-0.09446436;-0.12697926;-0.036621828;-0.1568541;0.2102331;-0.20116234;0.051438767;-0.006274324;-0.08817417;0.0635168;-0.014703426;-0.22336645;-0.16674748;0.21688254;-0.012061117;0.15876968;0.012809529;0.033609867;-0.13125913;-0.354356;0.006707571;0.0046637068;-0.22778551;-0.01906848;0.014000146;-0.01811445;0.31487235;0.03286951;-0.048253767;0.058845248;0.07512202;-0.0034502316;-0.07358039;-0.076843485;-0.19974014;0.18699536;-0.082807206;-0.032613046;-0.059414297;-0.109567106;-0.011299461;-0.118093655;-0.0031149664;0.18992214;-0.008378544;-0.0037251585;0.04553005;-0.06620611;-0.23572578;-0.09899594;-0.07205646;-0.16307424;0.046091788;0.13645071;-0.513873;0.005177305;-0.022877485;0.18862477;-0.013749781;0.09122758;-0.0033508297;0.21792865;0.16051142;-0.03793573;0.01593482;-0.034335405;0.28576446;0.022774888;-0.061048873;-0.083378725;0.029806888;-0.052210227;0.133328;-0.033498812;-0.3010597;0.040966142;0.039129324;-0.012340185;-0.007499771;0.021911995;0.08592251;-0.029165909;-0.13975416;-0.0818949;0.017662134;-0.089250065;0.07964134;-0.08240276;0.024295066;-0.026790537;0.11774016;-0.083943285;-0.0060372776;0.12917826;0.059335217;0.27489415;-0.06974267;-0.05817488;-0.12962157;0.0053731543;-0.040461503;-0.05179751;0.15496783;0.16538416;-0.017960086;0.12212821;0.03186893;0.1000462;0.00373957;0.03139204;0.17407265;-0.013511223;-0.05360915;-0.054443397;-0.291277;-0.020274775;-0.025337638;0.045389865;0.04173715;0.04044566;0.0122137;0.1377216;-0.006599415;0.10092379;0.18083788;0.013969946;0.097742446;-0.2253308;-0.07202034;0.11595234;-0.2838358;-0.009110566;0.07583782;-0.16083027;0.001977948;-0.034633446;-0.05369476;0.048712537;0.17014097;-0.056196295;0.017470675;-0.0025505188;-0.37596068;0.0044965083;-0.3415497;-0.032125257;-0.074614406;-0.063475356;0.23962602;-0.023516629;-0.021919541;-0.20844674;-0.044595182;-0.018800277;-0.0009099444;0.060127355;-0.048558827;-0.0058921683;0.07512179;0.16466406;-0.095552415;-0.0400713;-0.055512596;0.05509712;0.01723933;0.14127229;0.016380532;0.1610462;0.16489856;0.13015239;0.025337644;-0.0075124786;0.3476635;0.121835925;0.16880368;0.06822972;-0.00858391;-0.13360044;-0.0063617835;0.015422262;0.01331195;-0.15019278;0.07436019;0.21392435;-0.20740572;0.074475795;-0.10784719;-0.005473648;0.14196399;0.15715772;0.019835623;0.00063916465;0.03288426;0.007999433;-0.4700371;-0.19347218;0.0867655;0.073749356;-0.1221998;0.028474223;0.047142606;-0.014079043;0.13095279;0.030541785;0.15645863;0.16149099;-0.018724365;0.24065512;0.056166906;0.014933583;0.19105943;-0.16786575;-0.031388175;-0.0007664231;0.1229578;0.33423048;0.17582451;0.095599525;0.012845658;-0.120030195;-0.12329511;0.015731758;-0.00087629474;0.13184811;0.06817406;-0.164641;0.03205587;-0.5235299;0.05993637;0.06817442;-0.17011671;-0.2483584;0.049161546;0.24327447;-0.017036166;0.049013086;-0.043228716;-0.15286233;-0.039989054;0.028500743;-0.1110983;-0.12831974;0.06429495;0.041338097;-0.2336529;0.24371295;0.046335306;0.020464087;-0.005922292;-0.0575686;0.17435901;0.285936;-0.031280726;-0.0838009;0.03702909;0.02798628;-0.15209357;-0.25946406;0.043918643;0.47494158;-0.112096585;-0.033576228;-0.1239035;0.18258809;-0.020087818;0.16384482;-0.09888655;-0.061435606;-0.077117994;-0.03505136;0.050548583;0.0008024243;-0.014540866;0.046384797;0.23130882;-0.16763653;0.17337048;0.067030065;0.253444;-0.0034082315;0.014757692;0.13898636;0.18238336;0.010482982;-0.17602782;0.025558837;-0.30779827;-0.26101157;0.06571718;0.14219409;0.08195169;0.0070505026;-0.015131441;0.00075956574;-0.16835904;-0.036055624;0.0542249;-0.018894041;0.12441571;0.0025004481;-0.008848452;-0.010627548;-0.15172578;-0.04368842;-0.17628437;-0.5947484;0.24430647;-0.045215007;0.01786067;0.02317509;0.036297794;0.038924143;-0.02398334;0.0531806;0.06553386;0.021156186;0.1475384;-0.05697244;0.060532536;-0.108260415;-0.14692144;-0.045053065;0.023646075;-0.0154599305;-0.15532598;-0.0673012;0.0459091;-0.24881004;-0.046691187;-0.0064743436;0.075757936;-0.42568922;-0.037238207;-0.32768667;-0.002422647;0.07500521;-0.008997501;0.13435896;-0.05230686;0.007429425;-0.047492404;-0.26842824;-0.10114951;0.10159241;0.15585415;-0.10499748;-0.0396535;-0.33649936;0.02387406;-0.040994678;-0.05695257;-0.10118148;-0.1760958;0.12463802;0.029946782;-0.00664065;-0.021231674;0.011743893;-0.023292532;-0.2421058;-0.048733894;0.030373074;0.001757781;-0.2423749;-0.17084672;0.15552858;-0.15209652;-0.028784454;0.02595443;-0.043693434;0.07345871;0.064043835;0.032021876;0.06293551;0.15762499;0.37865752;-0.25911483;0.025530899;-0.09684763;-0.046182536;-0.04049323;-0.059040662;-0.10039747;0.085016906;0.1633745;-0.019576313;0.38279602;-0.034345377;0.032260135;0.024349071
-0.04037951;-0.017013181;-0.04057904;-0.059747852;-0.021620905;0.032388546;-0.04665403;0.019182686;0.21605067;-0.1662291;-0.031079331;0.34408364;0.08538819;-0.25237998;0.060508538;-0.00045166572;-0.34731895;0.06483934;0.037150998;-0.0815895;-0.02864341;-0.038620703;0.057954248;-0.055954937;-0.22833782;-0.16270044;-0.17629969;0.34875137;0.06276812;0.30656213;-0.11164149;-0.11721198;-0.05727014;-0.09526735;0.06263794;-0.036595978;-0.011870842;0.09432387;0.13475586;0.04359775;-0.07132748;-0.07205434;0.07880709;0.022797404;0.006245501;-0.15901451;0.17951225;0.102866165;-0.06678202;0.04726252;0.10952852;-0.029684404;0.2998358;-0.18934731;-0.116021946;-0.1478559;-0.07437954;-0.43545932;-0.33726722;-0.046873003;0.06172125;-0.30049536;0.17627716;0.0004141558;-0.020693136;0.03927442;-0.10655092;-0.12167204;-0.12383299;-0.039124876;-0.031951793;0.22871137;0.19695133;-0.14680588;-0.0056676427;0.00045586762;0.030984318;0.023434715;0.08570819;0.16387677;-0.0006617732;0.23081803;0.091335006;0.036766306;-0.009373538;0.19597226;0.14021707;0.029844118;0.4006785;-0.49028203;0.10184701;-0.030444743;0.11928481;-0.024584299;0.017002067;-0.059553366;0.086846575;-0.26015967;-0.030737694;0.050860528;-0.013582675;-0.1978472;0.3140708;-0.04841999;0.23496309;0.033829045;0.03243791;-0.057370212;-0.031205518;-0.011050687;0.13329223;0.19217324;0.17231093;0.34943107;-0.039967086;0.011558262;-0.009564336;-0.3499015;-0.011642187;0.115467295;-0.075374536;-0.11352705;0.030003116;-0.35533634;0.07485219;0.055590816;0.057980087;0.03284322;0.04555863;-0.015511814;0.29260507;0.019576538;-0.044605125;0.009212552;0.06574379;-0.008922295;0.007958707;-0.0095574865;0.01741234;0.04799349;-0.049702674;-0.15222092;0.03555686;-0.11642781;0.18730195;0.0042971107;-0.0015729789;0.033835925;-0.022131382;-0.100099094;0.24517955;0.16459471;0.0050092693;0.08042008;-0.040150806;0.2109643;0.21451044;0.039682712;0.02193254;-0.05623769;-0.04032839;-0.046136275;-0.06030426;0.01204619;0.03902165;0.0007874826;0.08615281;0.17697577;0.31143636;0.41228434;0.17342177;0.054053888;0.062545046;-0.33183149;0.023689592;-0.009621264;0.07131211;-0.020566257;0.2601098;-0.05207766;0.034092624;0.38196436;-0.0032248853;-0.03317405;0.07970339;0.035572626;-0.040965132;0.038939677;-0.045490824;0.036273222;0.17985402;-0.05069113;-0.06269249;-0.0054313163;-0.14084648;0.0597312;0.06081258;-0.19708803;-0.09527982;0.11741959;-0.030281164;0.0701876;0.019964898;0.20530404;-0.10581556;-0.3883653;-0.02788252;-0.08920059;-0.042624608;-0.034642227;0.0036050635;0.02964006;0.2587644;-0.0023677843;0.024343377;0.050183546;0.034826748;0.03821939;-0.1293274;-0.040199805;-0.16695343;0.21772395;-0.018547418;-0.097692475;0.025992835;-0.14945567;-0.0004473078;0.0053198286;-0.008293307;0.23341803;0.022481274;-0.07693627;0.09340427;-0.041314796;0.07635073;-0.18256614;-0.1390374;-0.19689168;-0.037747912;0.108046986;-0.41675603;0.045053374;-0.01023593;0.2060859;-0.0444725;-0.017277325;-0.07438499;0.1543632;0.23299988;0.030663822;0.047774304;-0.024382709;0.173638;-0.009918963;-0.013138279;-0.21179992;0.03910639;0.09425132;0.017905748;0.109866746;-0.30040732;-0.00818657;0.0045682937;-0.029499767;-0.032549765;-0.038450114;-0.047060553;-0.038039956;-0.27591014;-0.08606;0.07572141;-0.1289531;-0.025443593;-0.19196126;-0.062638044;-0.019368663;0.19479164;0.07234249;-0.008306273;0.17886971;-0.078127705;0.28451002;0.0163033;-0.2380815;-0.07081382;-0.06567534;-0.046405684;-0.27854103;0.13914394;0.103990704;-0.03729873;0.048607007;-0.038917065;0.06814182;0.11642849;-0.007515022;0.18639895;0.0040840404;-0.04072889;0.06318274;-0.18725829;0.09741995;-0.028575093;0.06067052;-0.012317869;-0.054508053;-0.072141334;0.07706679;-0.09992146;0.097892985;0.07788256;0.027154056;0.12288985;-0.09632823;-0.06476432;0.014135721;0.004657915;-0.012573329;-0.013565;0.05661308;0.026943652;0.011770233;-0.1487822;0.040053904;0.18458061;0.02977943;-0.024825517;0.034661397;-0.3353836;-0.05327365;-0.31248635;-0.06840773;0.0056457953;-0.035236206;0.18377061;-0.04916394;-0.133711;-0.17515522;0.02098064;-0.013241313;-0.034162197;-0.003978701;-0.06875123;0.065074086;0.15032688;0.10850456;-0.06495355;0.052655995;-0.1443944;0.027016966;0.03040632;0.11842616;-0.013936243;0.119662434;0.10663115;0.07586501;-0.029013013;-0.0034375058;0.24764626;0.155444;0.029374255;0.06884456;0.039515592;0.06490546;-0.023987325;0.026382336;0.009985434;-0.10313509;-0.01599238;0.23052381;-0.3219405;0.08154639;0.07102867;-0.073125646;0.1568773;0.020732295;-0.012159087;0.025772696;0.029630205;0.015162897;-0.5454277;-0.107999936;-0.01683139;0.16989611;0.009853183;0.025436826;-0.095320866;0.03982935;0.35867506;0.06281788;0.08200629;0.018807631;0.013434359;0.10150015;-0.045290414;0.06100129;0.32158387;-0.31521294;-0.027712755;0.037138853;0.20424432;0.35765314;0.08962431;0.12601681;0.0155244125;-0.089182205;-0.18213883;0.020602964;0.028761124;0.035552092;-0.016338846;-0.0777906;0.0033849624;-0.27152374;0.088865235;0.04455088;-0.17951098;-0.1826661;0.0736318;0.13807932;0.06742469;0.028856682;0.04146208;-0.16402839;0.012564444;0.05712016;-0.19425303;-0.11721937;0.06093782;-0.027415367;-0.024329728;0.29267704;-0.044212956;-0.027812427;0.032412034;-0.02738289;0.13069357;0.1639465;0.042172488;0.04278382;0.06869221;-0.05943814;-0.062437434;-0.24074681;-0.03558612;0.36523685;-0.041527055;0.050854277;-0.28437135;0.032684196;-0.012238216;0.068991914;-0.2542674;-0.07229335;0.08847181;-0.07601155;-0.02812492;-0.029888472;-0.058534153;0.0052731354;0.27877352;-0.06922237;-0.054290917;-0.074396156;0.14811823;-0.03203379;-0.024052517;0.15898259;0.09307078;0.014587625;-0.09743898;0.03977471;-0.1421496;-0.18656741;0.04129252;0.2903332;-0.073759794;0.03705373;-0.06102384;-0.00026947088;-0.09960125;-0.14582586;0.032941498;0.009371098;0.17347758;0.13400258;0.06633148;-0.013335818;0.017601399;-0.056094848;-0.14873196;-0.39762387;0.39556584;-0.042719904;0.04280042;-0.03405143;0.19376597;0.062167466;-0.0101548;-0.010779058;0.02911329;0.00017126728;0.15364267;-0.029523091;-0.012555194;-0.0716658;-0.12996599;-0.010694743;-0.013697834;-0.012712322;-0.01767256;-0.09201172;-0.0847585;-0.1831534;0.047245536;0.059978254;0.30948305;-0.39714116;-0.00094241794;-0.36231068;-0.040017124;0.102319464;0.09496549;0.15948486;-0.04869386;-0.089556575;0.07472019;-0.14726904;-0.10200313;0.10159436;-0.05562063;-0.04280561;-0.05543253;-0.42529723;0.041261688;-0.05951841;-0.05173542;0.02435842;-0.21489973;0.13340668;0.021630565;0.036640983;0.056904852;0.010210679;0.09944568;-0.093788534;-0.106344454;-0.047236998;0.0034717564;-0.10435438;-0.09991329;0.008645794;0.045511167;-0.011714858;-0.00989663;-0.09452505;0.11925225;0.018028373;-0.04974524;0.1539863;0.0136363655;0.34917957;-0.19713874;-0.018090436;-0.06784961;-0.011544564;0.0087903505;0.014464783;-0.20192167;0.17697012;0.1222563;-0.22599691;0.21274011;0.04172538;-0.047520816;-0.047245875
-0.042237785;0.03615323;0.019977113;0.0009450457;-0.0055007436;0.076648585;0.054603912;0.030179294;0.19029696;-0.10534914;0.05530632;0.37313208;0.10217284;-0.013737826;0.18794489;0.024082152;-0.2411752;-0.05468848;0.050646335;-0.009324898;-0.022807261;0.07903969;-0.026541093;-0.12071001;-0.33064654;-0.07199028;0.008789217;0.3129341;-0.021187425;0.25423053;-0.17980686;-0.07740327;0.0035094158;-0.15986264;0.06422731;-0.06422874;-0.053843476;0.08268495;0.027299555;0.03716294;0.008994873;-0.081597395;-0.048857216;0.040386;0.0008746121;-0.014383153;0.2189959;0.13345022;0.076735325;-0.00760681;0.18899697;-0.053968664;0.21373361;-0.18960989;0.09758166;-0.09136613;-0.23675363;-0.29350573;-0.3795718;0.08929271;-0.046775542;-0.21158035;0.27027157;-0.061103713;-0.0033308365;-0.0618054;0.0064126826;-0.17705618;-0.041787967;0.05541192;-0.04209198;0.20760547;0.22961266;-0.17833151;0.009378556;-0.033882357;-0.044561308;-0.027157286;-0.06736168;0.26524672;-0.084367886;0.13311411;-0.025136087;-0.031291485;-0.13030428;0.16901895;0.16881067;-0.05293159;0.5107563;-0.40958816;0.1680825;-0.06209477;0.1438025;0.086718164;0.044502355;-0.057952773;-0.0121419635;-0.17931865;0.0612476;-0.098866045;-0.06538078;-0.32463968;0.4315067;0.008406604;0.21028419;-0.027370647;-0.004165088;0.042168684;0.025971564;0.0020518552;0.05719043;0.25842118;0.12483242;0.43423656;-0.042601537;-0.20786525;0.043242726;-0.34663615;0.007454073;0.08134168;-0.050846998;-0.22994004;0.029305212;-0.37060913;0.21362658;-0.0732862;0.0076664914;-0.027690167;0.004733983;0.060423452;0.13699731;0.027229127;-0.054232053;0.03727054;-0.07951624;0.026677953;0.072532386;-0.01674803;-0.08034913;-0.030231424;-0.0851675;-0.12863828;-0.0068800533;-0.107498944;0.0302857;-0.14004803;-0.1298807;0.2182874;0.046849314;-0.19159357;0.25614753;-0.054363072;-0.04970617;0.06263334;0.0131840175;0.04055089;0.25602832;0.027991258;-0.023801837;-0.039373636;-0.10176827;-0.06633387;0.044234164;-0.008971081;-0.13542268;-0.014118737;-0.024700683;0.12545016;0.3150922;0.569858;0.07942962;0.053355444;0.10856425;-0.4070875;-0.003362662;-0.044089857;0.16717796;-0.02660799;0.19259232;0.011953118;-0.001886441;0.38111246;-0.005860117;-0.24305022;-0.018158056;0.04641775;0.017830843;0.014569297;-0.09602712;0.08710391;0.10038024;-0.09056055;0.02740676;0.02784492;-0.112463914;-0.025077404;0.09030611;-0.105702356;-0.029091787;0.18313037;0.087636866;-0.0029023297;0.03893314;0.3324553;-0.09510477;-0.2159616;0.042050116;0.09728845;-0.26841587;0.06422625;-0.015220664;-0.01848573;0.07489034;-0.010334474;-0.041985936;-0.037815023;0.0920216;-0.053729054;-0.07149287;-0.082063965;-0.20350498;0.35971648;0.05712539;-0.14635909;0.029832343;-0.1887812;0.009968273;-0.061515406;0.015198531;0.251831;0.005817794;0.01037885;0.117163375;0.07788334;0.09500775;-0.2321053;-0.07145442;-0.38814488;0.0037078764;0.03003402;-0.28976083;-0.095683515;0.010092977;0.16391203;0.07010821;-0.021203442;-0.086243406;0.23327105;0.36366445;0.050971232;0.035576005;0.19482735;0.08427798;-0.010501683;-0.10726068;-0.29557118;-0.021580067;0.015065947;0.07558445;0.11629471;-0.27014863;-0.07297067;-0.050919767;0.055341054;0.0067161545;-0.02370772;-0.17130953;0.018427901;-0.17077698;-0.028355429;0.13631405;-0.043284886;-0.03926477;-0.16665648;0.07653585;0.002560509;0.06851872;-0.026690025;0.12064384;0.21442445;-0.019245904;0.23137291;0.041815944;-0.09440222;0.13669817;0.027451973;0.14875244;-0.10482725;0.17394094;-0.10774286;-0.019228134;0.13502063;0.02444522;0.18629742;0.05868835;0.036817286;0.26488423;0.017626636;0.0475583;-0.025493607;-0.03957126;0.012830839;0.022866692;0.018079845;0.017142545;-0.04120506;-0.025262773;0.1888514;-0.01903749;-0.06778195;0.081022784;-0.021642191;0.25728065;-0.05411538;0.0890895;-0.064043544;0.053294536;0.016499292;-0.24107133;-0.1338261;-0.0029227377;-0.056757677;-0.100310944;-0.04686059;0.13518248;0.05104526;-0.02536415;0.03431421;-0.29792047;0.025252558;-0.26470086;0.041590802;-0.07247985;0.015489088;0.08851786;0.07200394;-0.043195214;-0.17386617;0.041399166;0.068028614;0.06665826;-0.0356136;-0.030627854;0.06610193;0.12925386;0.16032283;0.091449656;0.003961404;-0.24151094;0.005897291;-0.009425679;0.17763652;-0.029041125;0.07112716;0.064023614;-0.021451674;0.045328513;0.08942232;0.2380308;0.122748636;0.0752138;-0.1024977;-0.048696287;0.023407567;-0.0182316;-0.025201164;0.0013257926;-0.047895707;0.20027623;0.2641946;-0.23568407;0.104141414;0.11629882;0.026701149;0.004720772;-0.058622986;-0.01099866;-0.22649164;0.0805695;-0.03168788;-0.51951885;-0.17941166;-0.06391553;0.29870182;0.044230897;0.016667146;0.03871109;0.045003813;0.25859255;-0.042738333;0.09226593;0.017010832;-0.029753959;-0.030635066;0.013706795;-0.16950767;0.3074122;-0.39346108;-0.015606782;0.036001883;0.11089037;0.39755327;0.19544761;0.18551154;0.08415991;-0.015398845;-0.06467227;-0.049359147;0.03903695;0.08245015;0.090364106;-0.035625238;-0.039631326;-0.18452232;0.13417518;0.05813248;-0.1307951;-0.3046364;0.0822735;0.20614201;-0.046266567;-0.075571075;-0.03191581;0.009690105;-0.109352075;-0.005431466;-0.11350114;-0.19744764;0.21929185;-0.0042818366;0.047431845;0.25589383;-0.07793823;0.003050996;-0.009979174;0.06664765;0.13110068;0.2594321;0.052017067;0.009959228;0.15547068;-0.06985299;-0.024500467;-0.19005078;0.016872456;0.31783032;-0.08390558;0.0079549365;-0.2541162;0.080986455;-0.0020255034;0.073868856;-0.2529405;-0.1536442;0.0077977264;-0.12319363;0.023678185;-0.07112559;0.010218217;-0.06385628;0.21869853;-0.078405656;0.058544096;-0.006680603;0.21201529;0.04936321;-0.047859948;0.12757225;0.1269455;-0.03339026;-0.034271866;-0.0047213216;-0.19290552;-0.13299543;0.026302313;0.32501364;-0.050714407;-0.06527888;0.030003687;0.023675643;0.12804933;-0.15382417;-0.024073768;-0.019943297;-0.0022618212;0.19382761;-0.021171052;-0.027025206;0.027683627;-0.07848265;-0.18828662;-0.29345652;0.356128;0.05414421;-0.043688137;-0.032020763;0.3331733;0.24402675;0.029872598;0.00812916;-0.038096577;-0.0038477732;0.19740593;0.06789862;-0.015889134;-0.09241771;-0.20094632;0.06810222;-0.052172158;-0.022934085;-0.022678748;-0.045755386;-0.064532444;-0.098528616;0.013291237;-0.05688354;0.31772313;-0.4584303;-0.030180406;-0.6326057;-0.033657253;-0.06818972;-0.03239018;0.13923168;0.056500997;0.14833938;-0.008068919;-0.13156654;-0.07289166;0.09548046;0.03988126;0.12809922;0.093526445;-0.35632995;-0.036870178;-0.017280495;-0.06297116;-0.08354353;-0.20527394;0.22479579;-0.018072248;-0.049722344;0.01587866;-0.018149983;0.2159506;-0.09924861;-0.07537373;0.008034573;0.030997705;-0.06338901;-0.21613011;0.1281618;0.11920177;0.030278161;-0.22403395;0.06080055;0.09168183;-0.050016653;0.048323642;0.11666215;-0.0081590805;0.34690073;-0.15150577;0.018696219;-0.09974626;0.00013920624;0.05662407;-0.009621163;-0.09303698;-0.004319792;0.12658544;-0.10432228;0.10439609;-0.01622764;-0.044866588;0.0033276414
0.08431202;-0.11448245;-0.057088416;-0.013447472;-0.006349892;0.10944736;-0.017688986;-0.022231296;0.03715233;-0.12539878;-0.029889863;0.4164078;-0.020332765;-0.1952561;0.26917425;-0.059914984;-0.18635643;0.09482501;0.010288739;-0.020554386;0.21478686;-0.023448462;-0.11168943;-0.12882711;-0.2019246;0.05688967;0.20243976;0.3530265;-0.032235503;0.2929088;-0.18481098;-0.16776304;-0.032439202;-0.25746578;-0.043558475;0.04588291;-0.14969592;0.0026246381;-0.10387256;-0.051496405;-0.018054722;0.026029762;0.1448188;-0.013812534;0.028064078;-0.043609485;0.07688653;0.20685224;0.017785234;-0.025703013;0.10701143;0.016027525;0.18466233;-0.17489453;-0.013724735;-0.044217896;-0.27518836;-0.211405;-0.1895877;0.010430419;-0.2547831;-0.21595804;0.31893545;0.025065152;0.013411557;0.034960438;0.037090648;-0.33086124;-0.034899745;0.0038242922;-0.037942853;0.1366039;0.34988642;-0.24886827;0.018153101;0.021289429;0.03176952;0.012655021;-0.023233248;0.083457485;0.01842249;0.11132604;-0.14192298;-0.033647686;-0.0755223;0.2250673;-0.038286887;0.012994091;0.3146046;-0.45842865;0.04283844;0.0436499;0.27783322;0.05170298;-0.007341414;-0.05645245;0.04065787;-0.1719449;-0.009982997;0.009719614;-0.06220335;-0.279935;0.3187966;0.0048339944;0.07470295;-0.018244052;0.022900388;-0.065788485;0.046352923;0.12558818;0.20970005;0.16687138;0.22262114;0.36841106;0.02616271;-0.08533242;-0.04103703;-0.32199687;0.015280187;0.22524437;-0.06402162;-0.16712734;0.047242727;-0.23973532;0.04155553;0.010483834;0.043480508;-0.16530393;0.10539098;-0.034649484;0.24831238;0.07050946;-0.18566865;-0.05537469;-0.10745477;-0.016880965;0.17375234;-0.0292961;0.04115671;-0.013298838;0.051689327;-0.19825646;-0.06482966;0.023284385;0.08026033;-0.19345266;-0.12178095;0.115287654;-0.009698915;-0.22463976;0.28583968;-0.11839735;0.023277577;0.00990219;-0.09137393;0.1369951;0.21057287;-0.01411953;-0.07278424;0.060649723;-0.21627161;0.029614974;-0.025299571;-0.0014900703;-0.13540503;0.07418052;0.020664174;0.19294678;0.12985156;0.59567004;0.059775315;0.018075446;0.13780199;-0.33116236;0.013822568;0.06368157;0.22007453;-0.03412341;0.17027228;0.110942625;-0.044770546;0.39330158;0.010475155;-0.22178292;-0.035181075;-0.0325242;-0.037322167;0.00062139414;-0.06428713;0.2672083;0.03789397;-0.21719283;-0.024698056;0.0026990587;0.015036384;-0.23603916;0.04598867;-0.041774113;-0.050707012;0.19869569;0.14433087;-0.079620734;-0.11848485;0.38215446;-0.08945554;-0.30600184;0.004840699;-0.024141835;-0.34836686;-0.027660115;-0.053856928;0.004823582;0.041010607;0.02597774;0.014296866;0.012763312;0.12898861;0.036029022;-0.18920013;-0.09442486;-0.12527622;0.32654735;0.15075715;-0.0020668798;-0.018651046;-0.15928307;-0.037135962;-0.090148285;0.063038;0.26495966;-0.005009351;-0.030917674;0.07258796;-0.010882132;-0.042398773;0.0055553205;-0.110715926;-0.3900779;0.030573219;0.06535185;-0.4266874;0.0011356466;-0.002603774;0.15982153;0.012479091;0.061016757;-0.11555119;0.15954617;0.3865174;0.04399472;0.013405002;0.31330007;0.047540188;0.0148585485;-0.083491415;-0.260354;-0.053438872;-0.035999708;0.024920207;0.029055199;-0.29810622;-0.16796984;-0.026196584;0.030661752;0.07056207;0.056710847;-0.15212287;0.038865857;-0.09682218;-0.11366936;-0.096297696;-0.11752117;-0.044588678;-0.2598128;-0.035526533;-0.02560968;-0.1224377;-0.025749218;0.12822388;0.16942279;0.021840237;0.14895812;-0.03231937;-0.037130304;0.04879209;0.016211594;0.22107245;-0.17324884;0.13483782;-0.012041476;-0.0812901;0.15856566;0.035113584;0.08143469;0.021658339;0.036879424;0.19237466;-0.06826812;0.018046824;-0.030359274;-0.064004496;-0.0621875;0.034129202;0.023187803;0.03560744;-0.058429293;-0.10077524;0.078840576;0.026866077;0.010500624;-0.070616625;-0.03326891;0.26128343;-0.015843045;0.025567403;-0.057676636;0.22574145;0.017344056;-0.20837118;-0.064615674;-0.034212522;-0.048654422;0.03724759;0.0057463865;0.032414597;-0.022174897;0.0560536;-0.059609573;-0.45921624;-0.056975495;-0.21097545;0.015524791;-0.14274283;0.031133572;0.1574656;-0.0074055414;-0.23556086;-0.12282432;-0.008564988;-0.041981746;0.0010573806;0.009763411;0.072387196;0.07946177;0.13151154;0.09601043;0.02466375;-0.0041279257;-0.083102345;0.0066150436;-0.020110564;0.13509092;0.058331367;0.012180498;-0.03720127;0.11247161;-0.029737562;0.26043874;0.19585524;-0.062992156;0.103280045;-0.087748356;0.002060241;0.06543209;-0.011348392;0.02758662;-0.0025784457;-0.069066286;0.112543546;0.30460933;-0.2469538;0.090944916;0.014991041;0.029421207;0.039308507;-0.18126366;-0.0074388045;-0.2313344;0.064836994;-0.0466216;-0.53407365;-0.12757;-0.025672566;0.15236494;-0.022216782;-0.033715483;-0.05648461;0.035985555;0.4006511;1.3321304e-05;0.1061497;-0.08625114;0.03145904;-0.13390476;-0.038039926;-0.17909698;0.15805648;-0.40738592;0.033535097;-0.081119224;0.04007179;0.37938854;0.252819;0.15358813;0.0012745667;0.034858774;0.084044844;-0.005863734;-0.012649361;0.1500352;-0.032585755;-0.077543356;0.04415808;-0.22714935;0.039496973;0.1586794;-0.10323518;0.0338479;0.02632257;0.14752772;-0.071605146;0.054797333;0.03700076;0.03080265;0.12831609;-0.04597946;-0.107588515;-0.07221853;0.39865085;-0.016293107;0.12555665;0.31256065;-0.12783936;0.019830106;0.00659831;0.04125469;0.22413567;0.019003274;-0.03675788;0.062191393;-0.0040150555;0.062548764;-0.12982215;0.0163652;0.00032007645;0.26352394;-0.19579802;-0.035073582;-0.1878125;-0.06553603;-0.02043656;0.052001685;-0.22922207;-0.16830902;0.06924903;-0.092141844;0.019661427;-0.10234819;0.06255715;0.011476441;0.15362239;-0.07857976;0.046533193;-0.14218093;0.19377156;-0.057076637;-0.0038755427;0.19987299;0.21898994;-0.0052392413;0.07249534;0.0723901;-0.14840776;-0.024464138;0.008057158;0.22784908;0.0005800653;0.0009974127;-0.04790252;-0.06377386;0.09318832;-0.23560551;-0.056022234;0.011429419;-0.033207525;0.19488013;-0.022610739;0.09060923;-0.022806931;-0.16462357;0.029165402;-0.09264616;0.31013244;-0.018423947;0.048613474;-0.040525388;0.34930432;0.20508468;0.024811847;0.008169107;-0.037227616;-0.016909437;0.08207148;-0.07671449;0.034799628;-0.30350906;-0.044230267;-0.044862054;0.019945867;0.003321251;0.11090719;0.032272223;-0.1798492;-0.040504113;-0.03370448;0.09648144;0.27826932;-0.47014767;0.03838895;-0.5956008;-0.13167141;0.0062572956;-0.064310804;0.27350223;0.04558629;0.23145998;-0.065869264;-0.22026029;-0.1477738;0.040236928;0.05025089;0.03595541;-0.047054872;-0.22475564;-0.04164701;-0.20950988;0.0034732523;-0.0033158157;-0.274577;0.33188677;-0.034286957;0.0069231982;-0.06054157;-0.018732179;0.2423354;-0.1454526;-0.119273886;0.044566277;-0.017465685;-0.18962537;-0.28519174;0.13342828;0.07262432;0.050749276;-0.1688678;-0.01734058;0.26520178;-0.004943376;-0.0057996265;0.06466557;-0.05163673;0.20492533;-0.12065547;0.031526748;-0.0904046;0.07676057;0.20138718;-0.06484442;-0.086019605;0.071892776;0.29291207;-0.14658874;0.17454351;0.0035822564;0.05199825;-0.063229755
-0.0332937;-0.09836949;0.040869385;-0.046182156;0.02597508;0.0368299;-0.034898628;-0.013529843;0.15274909;-0.19298203;-0.060969047;0.36220118;-0.05349821;-0.1441576;0.29178077;0.031847984;-0.21535417;-0.06272615;-0.07540038;0.009593396;0.13187192;-0.0076041995;-0.07593413;-0.052395266;-0.25181267;-0.008553154;0.093976304;0.08676208;-0.038071204;0.31056952;-0.19779763;-0.1647235;-0.11018068;-0.47083703;-0.0062461584;0.017106779;0.050375197;0.14013296;0.08546329;-0.15736093;0.030441327;0.0365013;0.24138364;-0.08756229;-0.06381094;-0.007923838;0.1286169;0.19185501;-0.049041677;-0.032918975;0.09348414;0.0371555;0.10958665;-0.22269394;-0.031201918;-0.124033436;-0.24281496;-0.07631432;-0.21954404;0.13513778;-0.19158836;-0.3255161;0.2461193;0.012141901;-0.011171765;0.053116154;-0.0026908556;-0.2679498;0.1500368;-0.006633929;0.022241669;0.098280475;0.3655679;-0.042608127;0.046802502;0.013029393;-3.447617e-05;-0.02040657;-0.071778506;0.16949539;0.007270943;0.03166871;-0.18831988;0.016708802;0.05910206;0.20629169;-0.07999119;0.051331077;0.41069898;-0.42902336;0.044395275;-0.037197713;0.102242514;0.1441913;-0.0033385896;0.047511086;-0.050930724;-0.0050224583;-0.045894388;-0.09305173;-0.05758174;-0.052443925;0.20836501;0.049556997;0.24139284;0.070922375;-0.023731317;0.034798414;-0.04698515;-0.049570877;0.24359445;0.3279113;0.19613326;0.3501311;-0.0141884135;-0.18953732;0.03978662;-0.53773725;-0.0599563;0.23953918;-0.10050697;-0.12932372;-0.0318161;-0.39671338;-0.045239788;0.019860173;-0.0350328;-0.021218246;0.040525258;-0.0069204397;0.26946118;0.16722365;-0.109849244;0.019545646;0.0028327885;-0.058025166;0.092969656;0.041211188;0.076002754;0.009565009;-0.10632275;-0.116581105;0.06014223;0.183102;-0.053466555;-0.23640504;-0.11394114;0.10678327;-0.002763111;-0.20496224;0.029532997;-0.15333684;0.084437445;-0.07021477;0.048390064;0.25933444;0.3119273;-0.017533207;0.010715136;-0.013624704;-0.07718493;0.25367603;0.011925333;-0.031919234;-0.20285536;0.17482844;0.028298978;0.024233207;0.041562025;0.66176754;0.19917904;0.0011162981;0.3029445;-0.51007766;-0.048914313;-0.014283255;0.10104419;0.059479784;0.024929726;0.27368498;0.059587263;0.5416612;-0.13965079;-0.30173317;0.060836487;-0.012215114;0.012731833;0.07180849;-0.06777913;0.22405036;-0.05755059;-0.20406294;0.0024170114;-0.026835043;0.024973607;-0.24277048;-0.047392935;-0.031792577;-0.08326353;0.089459375;0.102365404;-0.117917106;-0.013209013;0.25430012;-0.02149689;-0.3512259;-0.0028603883;-0.048573233;-0.29133585;-0.0069665276;0.067394935;-0.04006077;-0.0883414;0.013145176;-0.006130547;-0.012539326;-0.002240199;-0.013771428;-0.22463377;-0.1548015;-0.052173667;0.33561906;0.07708536;-0.013766685;0.048015904;-0.07993068;-0.026630042;-0.1493897;-0.05768443;0.15342088;0.010421394;-0.05038627;0.14552301;-0.075037785;0.10804685;-0.07233822;0.09874118;-0.27340475;-0.037091207;-0.109675504;-0.46143213;-0.05783595;-0.019934462;0.15818456;-0.015514145;0.063571066;-0.06643828;0.36510015;0.44352502;-0.07988883;-0.05966375;0.33709365;-0.040186778;0.0714445;-0.12535504;-0.2787586;0.052667204;0.01224445;-0.03043049;-0.11383946;-0.22413562;-0.14552647;0.12392559;-0.0333465;0.00038900116;-0.02736483;-0.31954175;-0.018836048;-0.18682462;-0.18076007;-0.22895984;-0.11180855;0.04918177;-0.16132216;0.024700884;-0.04052828;-0.21086895;0.04062686;0.046430815;0.06129153;0.032821227;0.13960068;-0.029945813;0.07908512;0.055249304;-0.041836966;0.19397385;-0.23451467;0.065234154;-0.015215566;-0.06899895;0.10252309;-0.051092148;-0.022383235;0.08198965;-0.012468681;0.1966424;-0.14584742;0.05648067;0.0053189155;-0.068887636;-0.056855388;-0.061253235;0.11620812;-0.027180577;-0.11090602;-0.15873246;0.12343771;-0.23759934;-0.06958824;-0.094085634;0.034760427;0.37669465;0.02025104;0.11759916;-0.14830628;0.029295653;-0.034993216;-0.21502759;-0.1488982;0.060108043;-0.03330134;0.035237692;0.007078797;0.14113446;-0.0219633;-0.04071198;0.042693634;-0.21505183;0.040515073;-0.22975981;0.009342378;-0.1663016;0.021076422;0.03938783;0.012388625;-0.20100237;-0.23641013;-0.030075153;0.026215242;-0.02233003;0.0107749095;0.14656246;0.1653641;0.06688321;-0.12249368;0.09508754;0.069894545;-0.035833128;0.0062094517;0.021844085;0.039345734;-0.032350343;0.054941945;-0.016971637;0.14721817;-0.059889343;0.36171287;0.20734164;-0.08437113;-0.017674502;-0.2576635;-0.0049174065;0.24501242;0.07926331;-0.013559666;-0.046499774;-0.04933924;0.09413817;0.42881146;-0.34575614;0.11962094;-0.021746978;0.021835085;0.053049784;-0.012605675;0.022919407;-0.23914489;0.055362582;0.07530539;-0.56124496;-0.1766792;0.031242201;0.10679003;0.11379323;-0.00017768033;0.038482156;-0.1307788;0.45236698;-0.03557289;0.07619353;-0.049701698;0.026271777;-0.25221917;-0.030260341;-0.19658594;0.30690366;-0.37311825;0.009495519;-0.01730512;0.05109938;0.24811296;0.29028523;0.19242634;0.051669706;-0.112066805;0.06721383;0.09054963;-0.0846574;0.21009803;0.052726816;-0.054267526;-0.05577706;-0.39479673;0.071635805;-0.021111302;-0.019188024;0.054638155;-0.15512003;0.16434018;0.03761076;-0.006120664;0.029299235;-0.11204778;0.25285938;-0.0019997405;-0.07033269;-0.22381908;0.5094612;-0.0011413043;0.19230562;0.31920636;-0.060980987;-0.010370533;-0.041172415;0.02950164;0.45037943;0.1414498;0.0022768006;-0.038506586;-0.024202237;0.009146209;-0.2847264;-0.0525893;0.011402625;0.1392163;-0.2065293;0.030138057;-0.23653343;-0.048006862;-0.03910184;0.117384374;-0.2859159;-0.16727774;0.24311486;-0.25928086;-0.06997047;0.06608648;0.04317484;-0.011487984;0.16296135;-0.3004822;-0.13724524;-0.16706915;0.0010422681;0.05146888;0.018603832;0.240701;0.12131952;0.017239546;0.012211421;-0.04325384;-0.06368955;0.0048412294;0.079446316;0.11423764;-0.008232008;0.00031619382;-0.11377774;0.04039711;0.094257854;-0.15767871;0.011617471;-0.015512126;-0.17014743;0.07613634;-0.026062056;-0.035290394;0.060920104;-0.110050604;0.02790711;-0.27544656;0.5454453;0.031096322;-0.044930674;0.0722019;0.4771788;0.14316922;-0.06654779;-0.049732737;0.074347444;0.0066527864;0.08027649;-0.006965606;-0.047806047;-0.31696618;0.19914983;0.016408967;-0.037993584;0.06879106;0.07889128;0.06746211;-0.09622253;-0.2129365;0.04695107;0.008663084;0.19745184;-0.44297284;-0.06722572;-0.51966566;0.012313389;0.058280375;-0.026326645;0.21845536;-0.016594805;0.2526312;0.04832681;-0.09796063;-0.022210812;-0.001787448;0.058135517;0.074221246;-0.00583499;-0.20316255;-0.0009641117;-0.02187675;-0.006653905;-0.058402114;-0.07312206;0.52651864;0.023734868;-0.019577703;0.0134125035;0.058043987;0.18242776;0.056149185;-0.23115903;-0.05085647;0.013421857;-0.19684717;-0.23384075;0.104959436;0.09373296;-0.0024408745;-0.18095733;-0.032995198;0.13626595;-0.01045839;-0.03937061;0.18958865;0.018204393;0.37126303;0.048828084;-0.02783591;-0.20360346;-0.18149988;0.09732052;0.03041551;-0.19878334;-0.0057351436;0.33381313;0.09052932;0.29254407;0.0023782866;0.023144498;-0.2028631
0.0041612308;0.11330208;0.07903233;0.050769627;-0.011669917;0.076821625;0.029487865;-0.000120077835;0.10665344;-0.11126371;0.049894117;0.42879543;-0.01752427;-0.16192767;0.075911865;-0.00884736;-0.2951963;0.080421604;0.03241043;0.042849515;0.014163453;-0.0020792056;-0.06447371;-0.08420426;-0.24573444;0.015611049;0.10735699;0.0324506;0.053812824;0.32415694;-0.15788858;-0.08826132;0.06952117;-0.3592302;-0.010873444;-0.006704938;-0.053300567;0.042795822;0.06228397;-0.08418644;0.010119561;0.2571915;0.3656746;-0.23237735;0.035473894;-0.059440423;0.107108444;0.05867184;-0.06728128;0.045262933;-0.012892451;-0.021472719;0.07685853;-0.17337465;0.047021255;-0.19429831;-0.13299651;-0.025824063;-0.1538985;0.22065304;-0.32334915;-0.3387569;0.4160367;0.20214094;0.00829007;-0.052778903;-0.0105315205;-0.29936796;0.22116736;-0.0074710688;0.035364427;0.07208149;0.33260614;0.18208851;-0.062658615;-0.018792547;0.009340357;-0.063930765;-0.12320207;0.012548387;-0.017181009;0.124108836;-0.22069743;0.016959747;-0.069551215;0.27101177;-0.010418334;-0.02950189;0.17936566;-0.44719464;0.14601348;-0.072366625;0.24180809;-0.09851085;-0.10470063;-0.020013101;-0.044007134;0.032313697;0.017231312;0.008316416;-0.05427398;-0.064574465;0.11473873;-0.041379146;0.07371327;-0.03800946;0.0012365988;0.01779385;-0.006049942;-0.19699925;0.23327732;0.14033388;0.20674059;0.45505196;0.026130151;-0.028156064;-0.023554087;-0.47240534;0.029366584;0.18552773;-0.009847123;-0.13580836;-0.03488675;-0.3645485;-0.08069097;-0.010417199;-0.012457056;0.009720437;0.28649095;0.0020042774;0.2837649;0.00010070395;-0.23666151;0.005592321;0.012123453;0.0476183;0.31684694;-0.026006136;-0.06675448;-0.008269389;-0.013344813;-0.21126655;-0.014329695;0.28655913;-0.13707224;-0.09274185;-0.119481094;-0.026292354;-0.013029444;-0.16323966;0.14227155;-0.10572597;-0.05200093;-0.16212101;0.026924016;0.18423252;0.35681516;0.0058601806;0.058997188;-0.0054987776;-0.07552988;0.28140235;-0.0032281622;0.037700593;-0.39002335;0.22156687;0.06806467;0.063740015;0.027707985;0.56631535;0.21765402;0.05393619;0.25792447;-0.6143191;0.035321053;0.007561761;-0.006785612;-0.0121828765;0.010753771;0.11023562;-0.023352;0.5652618;-0.18369624;-0.49555588;-0.032907765;0.009973881;0.06526685;-0.014626602;0.011434194;0.24067466;-0.27379245;-0.089413345;0.015871378;0.007121832;0.084064215;-0.26582703;-0.05089452;-0.06765078;-0.011095531;0.19045325;0.111099035;-0.12297948;-0.10219584;0.31410047;0.09250088;-0.36721414;-0.022286722;-0.08771182;-0.418447;0.018716903;-0.029701447;0.041588843;0.023468325;-0.032140758;0.015639938;-0.00930967;-0.041726153;0.01100468;-0.067170195;-0.02722586;-0.09824312;0.40457454;-0.07150761;-0.04914766;-0.03687949;-0.14305644;0.042048004;-0.26858565;-0.0072328304;0.28864732;-0.018081743;0.066630095;0.16600089;-0.072869204;0.1448057;0.19512768;-0.060025312;-0.4172738;0.02052549;-0.2687357;-0.27711698;0.045577392;0.02400797;-0.032598536;-0.01967058;0.06344254;0.019878354;0.38890728;0.5768813;0.00019191483;-0.010440503;0.2698178;-0.17090234;0.12755585;-0.14539617;-0.23064755;0.09087885;-0.055167157;0.06755695;-0.21732219;-0.13966492;-0.0070127803;0.12948956;-0.0036099008;0.14200214;0.015006844;-0.27502966;-0.0012432892;-0.083213754;-0.09154179;-0.34301963;-0.10012605;0.015425878;-0.10522849;-0.019036897;0.09722542;-0.16352409;-0.014511087;0.22184733;0.12595476;0.072838895;0.18226321;0.041799564;0.15333144;-0.002590582;0.022987306;0.24114002;-0.13300447;0.07620298;0.1312164;-0.15878743;0.20200238;0.013759174;0.022044282;0.042152293;-0.028326837;0.16875191;-0.04642878;-0.06941067;0.017089128;0.07850866;-0.052523848;0.016116533;0.18469381;-0.026284263;0.0025691744;0.008798672;0.14406231;-0.25574052;-0.082118474;0.04249408;-0.006109907;0.24789615;0.049910802;0.015242221;-0.28226593;0.083951;0.012523268;-0.108226195;-0.10529996;-0.035880238;0.01641573;0.062700324;-0.008591459;-0.09754588;-0.00051669596;0.0017832752;-0.053462792;-0.27304292;0.0058519067;-0.0948644;-0.01954621;-0.18014991;-0.031433858;-0.01839945;0.06320922;-0.20198414;-0.19022912;0.019601585;-0.17217433;-0.006489019;0.0002736919;0.032119684;0.1244356;-0.15678698;0.021558147;0.04872017;0.019418962;0.07295241;-0.039797917;-0.036184717;0.18764281;0.0034071386;0.12038241;-0.1447963;0.10304693;0.0456534;0.29602084;0.36886328;0.00025448308;0.14439826;-0.381212;0.0041401056;0.21776107;-0.045320954;-0.018187327;0.021652997;0.06643686;0.12580901;0.35448626;-0.3927146;0.18549524;-0.17574558;-0.029962618;-0.122470416;0.03515742;0.0044725277;-0.20032133;-0.013358127;-0.015900603;-0.66682047;-0.17048012;0.021337133;0.04794645;0.24045026;-0.019008478;0.013269268;-0.08155857;0.3880874;0.024848793;0.17695092;-0.0955108;-0.015818283;-0.21319222;0.045930356;-0.21598646;0.18648879;-0.24867465;-0.009861147;0.032549407;-0.072323725;0.24329363;0.12297676;0.15075664;0.046756305;-0.15698451;0.019282479;0.18166882;0.043790948;0.08637138;0.007975402;0.03143134;0.026402256;-0.30250043;0.03636106;0.010841174;0.05097853;0.013739015;-0.22136928;0.011374288;0.034051433;-0.0022522532;-0.021336583;-0.22641477;0.47361;0.011976614;-0.12873222;-0.06491951;0.40380788;0.015883336;0.25278735;0.25855348;-0.16661517;0.02169474;0.012951244;-0.052999035;0.46580288;0.02118368;-0.011138813;-0.043957822;-0.016346887;-0.046076506;-0.14617467;0.080120414;-0.0031194442;-0.012163618;-0.040216144;-0.025628623;-0.060695913;-0.12773451;0.05012513;0.12884544;-0.39279652;-0.15020694;0.24225381;-0.40561086;-0.037762064;0.2662351;-0.0740022;0.023927571;0.12535605;-0.37934554;-0.060135894;-0.10954659;-0.045613978;-0.024598444;0.05606059;0.27606073;0.04774105;0.003848481;-0.0063380157;-0.021800864;-0.09829429;0.08424005;0.18335551;0.17235872;0.080206946;0.030787647;0.057850976;-0.0014718614;0.18446591;-0.15256791;0.008732343;0.009101136;-0.26958779;0.059316084;0.014908228;-0.021823024;0.09129672;-0.0906798;-0.024089752;-0.3851016;0.50514907;-0.009453778;-0.008162421;-0.004992911;0.3471829;0.021560492;0.045009;0.03159141;-0.053405236;-0.00440882;-0.15022741;0.040551417;0.030440088;-0.24181822;0.006171671;-0.0026433785;0.049908273;-0.04604483;-0.0569204;0.10103688;0.051517382;-0.04394476;-0.0436678;0.20855857;0.16386598;-0.2628179;0.052841257;-0.32795072;-0.07018434;-0.08888202;0.046982694;0.23432285;-0.02518275;0.3298245;-0.00883872;-0.01794401;-0.06093258;-0.006561263;0.13975453;0.17877577;0.009844976;-0.29915473;0.026833689;-0.07185142;-0.1296283;-0.055466935;-0.080812894;0.6082206;-0.000492177;0.01189634;0.0043897103;-0.03031266;0.013272493;0.15366098;-0.14634627;0.027362952;-0.024985382;-0.2810514;-0.16406159;0.2303732;0.1795041;-0.050347567;-0.13256568;-0.017489225;0.16789162;0.018786423;0.020686425;0.15437801;-0.0884658;0.3866181;0.063676976;-0.029158123;-0.5136382;-0.27153736;0.26271513;0.05106042;-0.1939165;0.030806907;0.45804095;0.11440974;0.31184426;0.009687255;-0.025337175;-0.107989624
-0.0067134365;0.0731921;0.27828333;0.008036701;0.012141997;0.36939082;0.0005083268;0.00030747196;-0.21433257;0.022237724;0.00096933224;0.12625995;-0.19316742;-0.033681612;-0.5360325;0.0072322697;0.20442267;-0.2963728;0.0005302102;-0.0001963605;-0.499091;0.008919936;-0.07543943;-0.05711225;0.29684454;0.16586368;-0.26376534;0.5292561;0.0011841418;0.07612211;-0.25129595;0.03871129;-0.180823;-0.31847015;0.0033495154;0.012328846;-0.1879732;0.017124133;0.0077594067;-0.50752836;-0.01207431;-0.2979076;-0.075561136;-0.16344737;0.004015858;-0.11192538;-0.1884211;-0.50157094;-0.5577726;-0.0066213845;-0.24037123;-0.0030293344;0.0804956;0.21802558;-0.32119375;-0.138545;0.42850566;0.09463197;-0.049387395;-0.25033018;0.21933213;0.042743348;-0.32137337;0.0066325013;0.0007434009;-0.0019223763;0.0989859;0.21705121;-0.40131345;-0.007912983;-0.008091752;-0.03645328;-0.07654298;0.07005036;-0.0004419193;-0.0014172579;0.005367749;0.2988651;-0.030092696;0.32901055;-0.518588;-0.24789461;0.08273419;-0.0009624723;-0.2767997;-0.19153677;-0.29916412;0.006059394;0.05685484;0.033359747;0.34725916;0.25856158;-0.19719511;0.22793496;-0.5778049;0.08870586;-0.0024190862;-0.20070378;0.011630993;-0.18326177;-0.018662665;-0.19396709;-0.26589814;0.00021935928;-0.1170206;-0.006773624;-0.0067759333;-0.0058558807;0.0115989465;-0.14906101;-0.30271304;0.57591367;0.0073089506;0.33082926;0.00470383;0.29808566;0.0017697574;-0.033383977;-0.0031677089;-0.050973188;-0.3091911;0.15682644;0.0007833759;-0.55131567;-0.45226058;0.014930141;-0.012224782;0.33930692;0.21441658;-0.0027371664;-0.04206473;0.0049742954;0.40707457;0.004328597;-0.19120795;0.0003010167;0.32574803;0.009320891;0.0013582084;0.015212869;0.3659763;0.0997201;0.0047323196;0.09182311;0.3425111;0.22708723;0.21150586;0.196477;-0.0014960226;-0.052264895;-0.12445993;0.27825186;0.023728734;0.18463326;0.002606898;-0.015602642;-0.582311;-0.0035122046;0.00090249244;-0.0010307122;-0.2501044;-0.09156958;-0.0030254147;-0.0033714417;-0.38584456;-0.29148507;-0.033861496;0.14403337;-0.2710191;-0.00027311992;-0.20440708;-0.3838915;-0.47497338;-0.08567149;-0.0013000559;0.013756084;-0.43482447;0.0060136165;-0.38347313;-0.15993941;0.0024772314;0.41515392;0.28903508;0.15325952;-0.0029925785;-0.01156398;0.027539069;-0.22771668;-0.021107793;-0.000438219;-0.24452935;0.049598742;-0.010206242;0.0019327834;-0.2535411;0.21995951;0.2236238;-0.24975629;-0.17543;-0.24069922;0.09611638;-0.3090347;0.37276164;0.55784136;0.075010225;0.04635528;-0.001344898;0.26761177;-0.04606276;-0.0026107547;0.010128464;-0.0007794746;0.3918225;-0.00087790895;-0.003241792;0.0037072115;0.020025944;0.010763601;0.31157476;0.033244953;0.023294786;-0.37699485;-0.33998492;-0.3985633;0.0035949342;-0.11976919;0.007546459;-0.058826763;-0.009515593;-0.14558455;-0.005944921;-0.08328844;0.023560379;-0.73437446;-0.044455517;0.04951039;-0.0058458704;0.18893781;0.0020656402;0.02289862;0.06695069;0.19719099;-0.010741563;0.09355918;0.014916975;-0.17695531;0.5456373;-0.13624746;-0.14254852;0.009277336;0.025134657;-0.06408458;0.46984813;0.46284387;-0.51494724;-0.16191788;-0.033740744;0.2214222;-0.28443202;-0.4508387;-0.36863044;0.15565588;-0.46851453;0.0026099323;-0.18473265;-0.0067121023;-0.0020412344;0.013233046;-0.5123948;0.27133438;0.17753677;0.017393647;-0.0011270219;-0.065311916;0.009426936;0.09037074;0.31312987;-9.8628865e-05;-0.12325143;0.029798923;-0.74390143;0.47881177;0.00074724486;-0.13614386;-0.83858246;-0.29224655;0.12021522;-0.3481415;0.091638096;-0.13840303;0.14673598;-0.06897439;0.003197561;-0.374515;0.28396377;-0.0017357899;-0.0027031687;-0.19685997;0.0054330034;0.009813519;-0.2595567;0.6673383;0.0101997405;0.18725508;-0.0097270105;-0.07566179;0.13150036;0.1312325;-0.39237204;-0.13759546;0.34118402;0.01822562;0.2373346;-0.20299754;0.12396011;-0.16969231;0.1916654;0.006567071;-0.07006934;-0.38720417;0.009843631;0.045942437;-0.38328296;0.011182084;-0.28867412;-0.005946408;0.012869639;-0.024834683;-0.6927109;-0.00414002;0.103296004;0.0011194581;-0.028465752;-0.007216486;0.12903038;0.051481172;-0.414344;0.08044985;0.009270833;0.2954124;0.007375897;-0.0062066717;0.11432187;-0.15446146;0.053086463;-0.14773524;0.20773527;-0.4362407;-0.15778063;-0.008647769;-0.005733304;-0.5003044;-0.0021672973;-0.011841758;0.2670295;0.30220512;0.0035793355;-0.013517699;-0.42156667;-0.2732703;0.42191222;-0.08504536;0.0036349732;-0.027569488;-0.003626439;-0.00038340833;-0.013194043;0.33812565;0.20431782;0.034995947;0.2320165;-0.3131532;-0.28948107;0.009643067;-0.04421466;0.2394239;0.005660868;-0.36426955;-0.39150164;0.003347354;0.15312347;-0.48786753;0.017365757;-0.22111826;-0.20231396;-0.0026963442;-0.005483539;0.20812643;0.008461218;-0.012143876;-0.4776442;0.034372076;0.012121042;0.026782885;0.0029546903;-0.21170788;-0.04676113;0.21912482;0.009722018;0.011265808;-0.9820491;0.02853458;-0.32749274;0.035016146;-0.28755578;-0.7291342;-0.3451834;0.5804749;-0.012021486;-0.8845129;-0.17821841;0.017665608;-0.0047664847;0.19049267;-0.33275077;0.6061702;-0.032193806;-0.1614352;-0.022306617;0.28977853;0.0070742182;-0.0034970022;0.0041642785;-0.40134418;-0.08882825;0.0097022895;-0.35973036;-0.21137585;0.023458198;0.0059537366;-0.08118373;0.100098915;0.37754253;0.004444199;0.014344379;0.0075789187;-0.040337715;0.48337838;0.0025998424;0.027038846;-0.7189312;0.08909798;-0.19095872;-0.20193087;0.0006109845;0.14810418;-0.49716935;0.0024521258;0.40601793;-0.086196154;0.0048065027;-0.13331343;-0.2600652;-0.408475;0.15100582;-0.066291906;0.2770686;0.611812;-0.009785096;0.005341064;0.22628716;0.09404765;0.04099733;-0.37392074;-0.28728646;0.011909908;-0.042172503;-0.07966233;0.7198881;-0.0070821964;0.301508;-0.013605188;-0.05581738;0.12308475;0.5381723;0.023763925;-0.15394284;0.0019165883;0.18854007;-0.013223276;-0.39416915;0.18743697;-0.002742;0.0014793647;-0.16859944;-0.22732984;0.0047549675;0.011065382;-0.5023024;-0.3066401;0.23505849;0.017923258;-0.18581603;-0.012721163;-0.0065380456;0.038330495;0.09353241;0.23408227;-0.0029970866;-0.003922789;0.19204639;0.0135923335;0.09938551;0.0059279767;-0.0023045281;0.27626;-0.24887502;-0.0021562332;0.0058598183;-0.0006126154;0.2061607;0.21105567;-0.12488466;0.13242005;0.008240246;-0.53248566;-0.0048548467;-0.09385071;0.0049845353;-0.037919503;0.12036305;0.9578922;0.014415611;-0.10864141;-0.0047382563;0.2738839;0.0032624165;-0.18105268;0.28934714;-0.16601111;-0.067234114;0.02873403;0.0019355451;0.19421522;0.0010385874;0.21578819;0.13068523;0.22578473;-0.19446126;0.10431365;-0.009902371;-0.0014631632;0.0016233845;-0.0061139744;-0.3463281;0.04889696;0.08126957;-0.0035209958;-0.0030449515;-0.10207231;-0.13875027;-0.11990973;0.06729592;-0.006502296;-0.12252271;0.072592065;0.12257574;-0.008333081;-0.004892936;0.35693562;-0.018622793;0.20595413;-0.06404413;-0.016723363;-0.2790229;-0.4912333;0.052487433;0.005555916;0.3658937;0.0441989;0.32526442;0.16299309;0.30360597;-0.0010954667;-0.005000995;0.182949
0.0011644441;0.20805436;0.3371022;-0.00234011;-0.008233207;0.22597554;0.0061985394;-0.0006636676;-0.17747551;0.090462185;0.0033447137;-0.059986923;-0.25345376;-0.1470114;-0.40273908;0.0040029506;0.07495151;-0.28343254;0.0053689326;0.010772215;-0.6671144;0.0014213611;-0.05064811;0.11766204;0.08177649;-0.057672482;0.085455;0.35849246;0.003997933;0.13290472;-0.16125198;0.018495567;-0.21611094;-0.39494202;0.009575449;-0.026192607;0.0908758;-0.025931502;-0.13936515;-0.1362912;0.01070299;-0.092341356;-0.13996956;-0.28966057;-0.009070661;0.02583265;-0.023839355;-0.34066004;-0.21284737;0.01723401;-0.05157624;0.009947439;0.19867568;0.18933229;-0.46346065;-0.19545384;0.1823856;0.31609413;-0.1152449;-0.25362885;-0.17128795;0.10856203;-0.027125286;-0.053044505;-0.002585978;-0.0052272715;0.068153456;0.21884838;-0.20026061;0.0026806733;0.006761485;0.04444888;-0.12300578;-0.114187114;-0.0010366517;-0.025173686;-0.01654256;0.3325164;-0.23819758;0.046473622;-0.35370767;-0.21710883;0.103753515;-0.0008814073;-0.35259855;-0.23065716;-0.30470926;0.017142294;-0.06417769;-0.06065963;0.27270398;-0.0038935784;-0.10843296;-0.051887922;-0.6922099;0.06521779;0.019409215;-0.26433244;-0.019732788;-0.0645927;-0.0023651763;-0.36821783;-0.36701396;-0.01172573;0.08363657;-0.0010418419;-0.00332468;0.010157773;-0.016412446;-0.102494024;-0.5842216;0.17154928;-0.052143786;0.0034297698;-0.0007636473;-0.048991952;0.00038499772;-0.019254627;0.020695955;0.008737883;-0.12079028;0.06469023;0.0008426676;-0.16262108;-0.41128147;-0.013083857;0.006654603;0.2360416;0.051166654;0.0050008968;-0.10715189;0.009338698;0.23789611;-0.012889364;-0.09060883;-0.002463388;0.21421817;-0.0019083715;0.0014648918;-0.012463585;0.13683711;0.13155423;-0.0031371813;0.06629609;0.15695721;0.0109484205;0.2451319;0.19476745;-0.0055418457;-0.06010817;0.069021225;0.3439963;-0.018311685;0.11478265;-0.01709237;0.007902884;-0.47582877;0.024815159;0.013358517;0.0024419802;-0.28839427;-0.27038345;0.0004321069;0.0112182405;-0.30234793;-0.054747567;0.077699244;0.05960067;-0.15841013;-0.12419705;-0.1861921;0.12472835;-0.517023;0.19310293;0.013688757;-0.004106164;-0.03011054;0.0028568946;-0.22814897;0.0796703;-0.008910028;0.26268077;0.077561095;0.06605008;-0.0053226254;0.009095945;-0.0060132216;0.0077775232;-0.34642687;0.19945669;-0.22955994;0.17384906;0.015588611;0.0009542812;-0.19905064;0.08068444;0.36108533;0.08516633;0.016110187;-0.2591185;-0.03726322;-0.2830193;0.059120197;0.42218783;-0.05095664;0.19330704;0.00033461617;0.123355456;0.019078083;-0.0021862725;-0.011017247;-0.0060616145;0.032187052;-0.0137053905;0.003019784;0.004191677;-0.03384076;-0.010004844;0.24600768;0.39062387;0.043235242;-0.21842882;-0.30089933;-0.23425788;0.0022003674;0.34839332;0.0021887;0.08794041;-0.00054148847;0.03189262;0.014536272;-0.11267902;-0.14452589;-0.4654071;0.06048947;0.24267274;0.06977402;0.17938723;0.0013779827;-0.18722004;0.03335228;-0.0037696385;0.01013473;0.16186051;-0.015241237;-0.05522553;0.4265369;-0.07535494;-0.04932157;-0.008070641;-0.008860804;-0.12389054;0.3395141;0.40934643;-0.19552489;0.024063677;-0.019847339;0.26763254;0.18286677;-0.13776854;-0.1827738;0.1681887;0.048527315;1.4980384e-05;0.056120258;0.021908829;-0.055062097;-0.011356575;-0.36082116;0.17694539;-0.12229132;-0.05317272;0.00591247;0.29186684;-0.011866163;-0.028092345;0.018364921;-0.01611384;-0.12364631;-0.2642917;-0.35569572;0.6052708;0.004798121;-0.18592115;-0.8155512;-0.1713742;-0.06034411;-0.30185214;-0.012136474;-0.37300813;-0.023258664;0.089152075;-0.0022302016;-0.20481507;0.24042124;-0.00016030337;0.08216803;-0.14484887;0.0009793387;-0.004423307;-0.018750306;0.47506493;-7.30132e-05;0.18863451;0.014643115;0.032285757;0.122238934;-0.020893347;-0.1652861;-0.013300783;0.3159358;-0.01606401;0.2812843;-0.089807585;0.2997727;-0.2959116;0.22595705;-0.000467587;0.080228254;-0.19406839;-0.0046328465;0.020580396;-0.028348593;-0.023724634;-0.35544145;0.007637058;-0.020452779;0.06381102;-0.64290816;0.006763043;-0.19370818;-0.0068805427;-0.12685345;0.0109776845;0.22549793;0.25229615;-0.23791583;-0.048212685;-0.0015451547;0.057157066;-0.019524379;0.026627457;0.22746861;-0.03369449;-0.022797888;0.10257329;0.14903677;-0.09728396;0.10772299;0.007836795;-0.0046527144;-0.38835356;-0.0078407135;-0.03306286;0.38463014;0.17457516;0.000850075;0.21530637;0.016889617;-0.11258685;0.23638791;0.14876352;0.0013412441;-0.14170128;0.0148195615;0.009908419;0.015951632;0.46036434;-0.068465255;-0.02531797;-0.10520747;-0.18765898;-0.43264404;-0.0099289855;0.085054055;0.19483122;0.0025421004;-0.26977175;-0.029737256;0.00516176;0.3125437;-0.2955774;-0.009123572;-0.17727044;-0.39083096;0.0062443023;0.054614794;0.2148374;0.014852965;0.019428832;-0.17946908;-0.15101239;-0.011823189;-0.073245086;0.004583269;-0.33973247;0.038169425;0.26450753;-0.0190816;-0.009976391;-0.4219305;-0.033523418;-0.3218609;-0.06712896;-0.08717132;-0.45015532;-0.04253862;0.35405037;0.011615336;-0.50162834;-0.27319384;0.005026258;0.009620307;0.0160966;-0.2034306;0.36646232;-0.038363714;-0.2518928;-0.08390677;0.5144398;0.0019914184;0.004227791;-0.01261551;-0.2957881;0.2168009;-0.017564856;-0.14908318;-0.18222158;0.0060034087;-0.01895102;-0.012914751;0.13351096;0.34486812;-0.0039631873;-0.0114726955;-0.0062081213;-0.084704936;0.24167307;-0.00075423275;0.022667585;-0.29616696;-0.15041769;0.10382782;-0.10095374;0.0018526624;0.050021976;-0.10600658;-0.004717024;0.4689811;-0.14238156;-0.004203542;0.049596548;-0.28571627;-0.5370724;-0.11450741;-0.31215975;0.032934945;0.38229868;0.017339062;3.2213415e-05;0.36705405;0.27699918;0.009743134;-0.21615335;0.062464025;0.00017294554;0.011244987;0.099702656;0.2862194;-0.010847423;0.051621854;0.018449228;-0.110982195;-0.0807565;0.13530803;0.016373312;0.13615969;-0.00076140906;0.19819352;0.020038078;-0.53849095;0.17813656;-0.0037219652;0.0065937988;-0.02993705;-0.13207321;0.0025787242;-0.011583377;-0.24736781;-0.11700797;0.09211581;0.10040287;-0.27767164;0.011218581;0.0057857186;-0.13753515;-0.039310545;0.38226706;-0.0014742798;-0.0038868953;-0.03285633;-0.01931988;-0.027884053;-0.014178693;-0.013452937;0.25956127;0.042498987;0.005289818;-0.011956471;-0.0021652144;0.1861036;-0.008960824;0.2068626;0.06976921;-0.010029234;-0.14046009;0.015717248;0.044756528;-0.01863409;0.020623932;0.051552948;0.6839231;0.004986022;-0.03448344;-0.006313631;-0.017323218;-0.007230019;-0.0026108194;0.20899601;-0.23157932;-0.012176274;0.14869869;-0.0013837081;0.23098658;0.011674714;0.1259264;0.14378026;0.28961357;-0.25968665;-0.059743077;0.0072118347;2.987688e-05;-0.0034594121;0.00061976054;-0.20055681;-0.122504145;0.18461923;0.0069711544;-0.019957786;-0.43299407;-0.022032298;0.09760895;0.048669312;0.021805907;-0.028838156;-0.17226182;-0.000606597;0.025027307;-0.0033170728;0.27751857;-0.08421445;0.15063046;-0.054033842;0.017112957;-0.2316997;-0.36606032;-0.06753429;-0.0050994307;0.10224494;0.12115413;0.24210642;-0.16943255;0.23261525;-0.011018966;0.0033665218;0.28928912
-0.008397196;0.12176406;0.40309715;0.009911113;-0.00050432794;-0.07830202;0.007314601;-0.010860835;-0.156342;0.15715204;-0.0013548782;-0.13459796;-0.21389812;0.015088532;-0.106400006;0.00023849182;0.05992663;-0.21155082;-0.009229871;6.147675e-05;-0.5222119;-0.0077235284;-0.0186428;-0.01763369;0.04678354;-0.23058333;0.27261645;0.30657694;-0.00087204034;0.21500264;-0.09864681;0.13597403;0.032841258;-0.6459797;-0.015691053;0.018116502;-0.039457582;0.093450494;0.12162534;-0.13655421;0.053363804;0.087314114;-0.07525513;-0.2876962;0.0068259183;0.04261124;0.083325475;-0.18806598;0.19680126;-0.008108337;-0.09954812;0.0014671799;0.19614372;0.056776218;-0.4334255;0.008434385;0.11649753;0.3231705;-0.11177425;-0.071419224;-0.18355021;0.2291058;-0.015784662;0.10783513;0.013405797;0.0120378025;0.12462731;0.11777125;0.076893784;0.0101004755;0.00045788958;0.0016529957;-0.015363143;-0.03987011;-0.01109736;0.023384338;0.022225093;0.18210767;-0.4403776;0.035836015;-0.42477334;0.023599368;-0.20721726;-0.0079467585;-0.33918023;-0.34790677;-0.17440411;-0.052080795;0.0943186;-0.08522694;0.21801576;-0.24441683;-0.25884232;0.0044624163;-0.37470743;-0.052494463;-0.007142149;-0.04800999;0.0025834735;0.036477845;0.13418484;-0.3396449;-0.25443855;0.014964711;-0.16625491;-0.0016017329;0.015231189;-0.012027673;0.010465508;-0.12667626;-0.57566345;0.09004044;-0.15044196;-0.23973258;-0.008443794;0.06764631;-0.011834747;-0.33718988;-0.016209874;0.0007637538;-0.030764163;-0.12688674;0.0038998225;-0.1326566;-0.19479996;-0.0027145483;-0.0055450816;-0.26696426;-0.13884443;0.0030841993;-0.24938698;-0.041396115;0.23688118;0.003498142;-0.0010899048;-0.0031935996;0.1092716;-0.013263736;-0.009607431;0.013162575;-0.041869603;0.060328677;-0.0076744216;-0.2785645;0.11032545;-0.18548106;0.35625088;0.11920673;0.010552831;-0.051392388;0.33179072;0.2119018;-0.015899291;-0.023465661;0.013638704;0.27821615;-0.4736858;-0.017084979;-0.012725831;0.010787668;-0.091596596;-0.38968173;0.021460151;0.0007049424;-0.19149733;-0.15274404;-0.0048158756;-0.09665855;-0.17640206;-0.3757988;-0.038452007;0.080530345;-0.34384018;0.011214875;-0.019786175;-0.0015967124;0.2924895;-0.012768717;-0.30528277;0.19472557;0.009262544;-0.009383152;0.13786602;-0.11181053;-0.0007836213;-0.0051100026;0.1497982;-0.35812297;-0.5161;0.19558784;-0.10888043;-0.15864642;0.0012636462;0.0018956293;-0.029119939;0.063270934;0.16785373;0.08409951;0.006692418;-0.29415745;-0.08828048;-0.36624065;0.10922467;0.3297053;-0.11817594;0.031940892;0.011256514;-0.013175005;0.047191706;0.0045950287;-0.007473044;0.0010985588;-0.09755092;-0.0039213314;-0.008859482;-0.011684279;0.29113463;-0.0007436343;0.05385621;0.40812206;0.09244319;-0.13292749;-0.17118955;-0.45110336;-0.009677701;0.121286474;-0.0034045258;0.093812615;0.01452617;-0.16018689;-0.0046650986;-0.0057204096;-0.104495324;-0.5024779;0.17254919;0.04963152;0.032903712;0.25108376;0.00049580296;-0.1328754;-0.1083735;0.0133864675;0.004099052;-0.19929612;-0.0012940397;-0.16245262;0.3162673;-0.15572369;0.49479604;0.005985851;-0.011661182;-0.18139336;0.37192184;0.38297755;-0.23025432;0.2672137;0.02001693;0.15090732;0.20205024;-0.2121416;-0.12451072;0.08229868;0.0993861;-0.008618373;0.09733181;-0.012789289;-0.17577974;-0.004713966;-0.2377764;-0.05975237;-0.13366388;0.04426925;-0.00597829;0.44725567;-0.0028317114;-0.08180396;0.216668;0.012445258;0.04306832;0.02594706;-0.4150904;0.23135826;-0.0057412754;-0.25259474;-0.5476472;-0.22009547;-0.32317352;-0.43703187;-0.016284842;0.014670678;0.26263252;0.27351937;0.00017719464;0.054660697;-0.07856281;-0.0012288137;0.07932453;-0.018655615;-0.019261623;-0.007557613;0.12700006;0.240896;-0.017666914;0.11726482;0.0008648449;-0.02298832;0.049626574;0.061630733;-0.094055004;0.15129973;0.26585448;0.02160781;0.16768421;0.21569791;0.07173474;-0.12502803;0.35640526;-0.006317405;-0.032710034;-0.102577;0.01531051;0.009747144;0.16806611;0.020376865;-0.24282493;-0.0038902431;0.026330354;-0.031362627;-0.7592817;-0.008542853;-0.080708966;0.007123532;-0.28990334;0.0035524876;0.25801703;0.1593804;-0.07790441;-0.021010395;0.006275133;-0.16972415;0.006936655;-0.025354149;-0.10721688;0.1603041;0.045395207;0.21490192;0.4068556;-0.08953071;-0.030124413;-0.008561025;0.015156688;-0.26823458;0.0039056153;0.1117092;0.2762547;-0.18579672;-0.0056343717;0.3687812;0.25247136;-0.17559794;0.119360216;0.19751403;-0.008233673;-0.18353234;-0.0045195594;-0.013360244;-0.0059423856;0.32020387;0.1078419;-0.074065216;-0.24699275;-0.3903092;-0.20845835;0.012326535;-0.01403871;0.14056411;-0.011928147;-0.034195982;0.20530845;-0.008617634;0.2928503;-0.1759521;-0.008657102;-0.18850093;-0.35764116;0.001972885;-0.03511794;0.14722355;0.16723965;-0.0056176945;0.024490945;-0.14838989;0.006059428;0.0015994167;-0.020387556;-0.2175546;0.22894599;0.32211876;0.002425596;0.006932824;-0.14240536;0.0473603;-0.18439335;-0.16223352;-0.055818614;0.023118751;0.04744354;-0.051096022;-0.010737232;-0.23897421;-0.1463184;-0.00755459;-0.013920592;0.03235428;-0.022488762;0.14852694;-0.040705252;-0.50965035;0.10124314;0.19382946;0.0017718399;-0.010954631;0.0019819068;-0.10397433;0.43210068;0.01615586;-0.21356449;-0.18850014;0.02880151;0.013638878;-0.16439815;0.072323844;0.29298717;0.00249035;0.006196079;0.0064305332;-0.17206481;0.17953135;-0.001981868;0.0062739863;0.051420044;0.013057538;-0.13525598;-0.1206628;0.0015259606;-0.27616262;-0.13619114;-0.0015999435;0.21034284;-0.03560377;0.0013940483;-0.14002731;-0.0077782567;-0.35161966;-0.13167377;-0.20223793;-0.15811354;0.21550018;-0.021884307;-0.00016295849;0.11100136;0.0796871;-0.040494196;-0.23107591;-0.1532845;-0.017828565;0.008216245;0.07630751;0.18584855;0.02163802;-0.123448916;-0.015275224;-0.15747711;0.17401671;0.017371645;-0.21786845;0.18755849;-0.007719594;0.6511506;-0.012172674;-0.32885265;-0.12134024;0.012121416;-0.0071490873;0.04973805;-0.24398428;0.005065517;-0.0067702746;-0.25494123;0.006006976;0.11265463;0.06001976;-0.33350173;0.005985374;0.0003580743;-0.08286274;-0.18427548;0.042510267;-0.005585974;0.0055653024;-0.19306806;0.009933663;-0.002089741;0.0076138955;0.023793552;0.0020723636;-0.011101961;0.0031349044;0.002308509;-0.009227348;0.24375919;-0.062629275;0.08478191;0.096739054;-0.0022746914;-0.06445552;-0.039222803;-0.16941145;0.0088554835;-0.00016245298;0.0026763927;0.53188604;0.0036480923;-0.025091847;0.014877046;-0.098675184;-0.003911464;-0.09909914;0.09893373;-0.1976139;-0.18479921;0.19247992;-0.006281124;0.1597135;-0.01173058;0.20663974;-0.039133724;0.12558062;-0.111790724;-0.27820766;0.012483208;0.018027699;0.0005099427;0.011957488;-0.03415688;0.1362054;0.04881386;-0.008516468;0.017991634;-0.24974906;-0.26695865;0.24829917;0.035339102;-0.041804004;-0.105292454;-0.05467709;-0.026152166;-0.012129083;0.010521818;-0.02746074;-0.04494051;0.14939441;-0.027155012;-0.0018006661;-0.045888945;-0.1431777;-0.059578005;0.0002876076;-0.1338992;-0.21061291;-0.1456162;-0.11850893;0.10899804;0.014962027;-0.027488764;0.025712937
0.014825373;0.35716942;0.35717362;-0.016286585;-0.0096934615;0.11173967;-0.02624179;0.0012814389;-0.053766735;0.049148377;-0.010585742;0.04401135;-0.24533114;0.14339991;-0.08340605;-0.00058051094;0.07886592;-0.07331302;0.0019561562;-0.036864433;-0.36413655;-0.0063679256;0.14223005;0.021675749;-0.024358796;-0.30084252;0.3199599;0.1979397;-0.008522029;0.2582529;-0.22534917;-0.08359468;0.2734143;-0.2715091;0.003313582;-0.009376473;-0.08603053;-0.026942195;0.18112065;-0.10191723;0.018926296;0.15608826;0.09882679;-0.32702324;-0.0017972415;0.15158583;0.1578403;-0.1545775;0.63291436;-0.0011540609;-0.3520816;-0.012063111;0.20554386;0.1398688;-0.53621316;0.061307903;0.20801724;0.3470893;-0.1041886;0.24055254;-0.052231558;0.31260014;-0.0065476615;0.10620585;-0.015483494;0.0108010415;0.027678262;0.052307244;0.11305608;-0.01284066;-0.0007938799;-0.0463284;-0.13816793;-0.15614364;0.019018898;0.0038543516;-0.008905567;0.18174706;-0.3843074;0.063592665;-0.21751666;-0.343047;-0.28433803;0.0044745137;0.039932888;-0.32413012;-0.031757526;0.022874933;-0.05358479;-0.0294149;0.1519688;-0.32007456;-0.022929005;0.110633634;-0.22697368;-0.02796574;0.029927865;0.099620074;-0.0019979328;0.014128038;0.1869462;-0.009749057;-0.010050077;0.0040291;-0.17962097;0.005117159;0.00044136526;0.007505571;-0.007723269;-0.035308033;-0.65329194;0.09757949;-0.018501675;-0.2737679;-0.0012462186;-0.235032;0.0056765657;-0.33158264;-0.01580391;0.27950618;-0.046541527;-0.010483701;-0.0047347606;0.031665426;-0.18051308;0.0030624114;0.016596409;-0.044246443;0.06710426;-0.00829709;-0.24313518;-0.026966339;0.365309;-0.00016834702;0.068830945;-0.004664316;-0.082586385;0.0053319638;0.012712388;-0.012011419;-0.014318353;0.19716263;-0.0061547887;-0.23566747;0.13527033;-0.19695136;0.47840866;0.19212997;0.004024677;0.061274268;0.22857377;0.3170514;0.02259122;0.17114641;-0.015562351;0.082618095;-0.41632825;-0.0076938323;-0.0018598756;-0.004300115;0.062231798;-0.3364593;-0.015802333;-0.010108747;-0.09320585;-0.07467424;-0.029554717;-0.42774278;0.0870203;-0.30703673;-0.043757338;0.10705358;-0.37010595;0.14144485;0.01315019;-0.0051897923;-0.05191246;0.021178184;-0.0437887;-0.0401866;-0.0026740707;-0.07191891;0.073557466;-0.2567706;0.014349524;-0.0008281849;-0.054269496;0.011092677;-0.23029342;-0.07808989;0.10933764;-0.052180957;-0.004249931;0.0011582003;0.03809547;-0.104700565;0.1719885;0.30737242;-0.06478257;-0.05914944;-0.10519089;-0.31636938;0.089116074;0.20110239;-0.019556237;0.020287452;-0.015647745;-0.30279234;-0.09031649;-0.0069167437;0.0005298351;-0.0087413695;-0.08275629;0.018934095;0.00911516;-0.006706746;0.061421577;-0.00091808924;-0.06888225;0.46109968;0.15728414;-0.2476836;-0.073080316;-0.32811835;0.018245466;0.35124007;-0.011600884;0.044727456;-1.3222454e-05;-0.29664624;-0.0031961226;0.06775967;-0.0035829875;-0.7640552;0.39371586;-0.22561389;-0.13581297;0.17974284;-0.0108378725;-0.28945634;0.07876243;0.020263106;-0.011249306;-0.35610875;0.0069486997;-0.18787374;0.0035893407;-0.19499925;0.46474895;-0.010359324;-0.012505107;0.036142357;0.3518755;0.07666624;-0.16954082;0.37780437;-0.05165786;-0.11626054;0.083352186;-0.09471542;-0.045784578;0.04459868;0.048037685;0.003464327;0.19385646;-0.0037020836;-0.1852685;0.0041636317;-0.2779533;-0.07494543;-0.10025553;0.17820364;-0.012592781;0.37107855;-0.0037233476;0.0084000295;0.34621245;-0.0018878608;0.018747333;-0.019344289;-0.39472932;0.060810894;-0.002012803;-0.19463827;-0.29590484;-0.08527243;-0.034021202;-0.29953846;-0.15231462;0.19941422;0.33324197;0.2530565;-0.0052111764;0.036624122;-0.025191879;0.0024113539;-0.06000337;-0.013806981;0.0028809067;0.0019206632;0.020751609;-0.1740079;0.013465875;0.1076626;-0.012039025;-0.15513988;-0.072473526;-0.014464482;-0.17211093;0.036587887;0.14005509;0.027320554;0.14068156;0.018780943;0.020354643;-0.02860302;0.3317233;-0.015646614;-0.028308611;-0.09153695;-0.021802656;-0.030547675;0.24424602;-0.019478424;-0.058884446;0.0080270665;-0.025627641;0.00043847537;-0.5497786;0.009105365;0.018780809;-0.0125326505;-0.15268336;-0.008243442;0.22691663;0.077472195;0.11743138;0.07846235;-0.008960225;-0.25888747;0.00769386;0.022286933;-0.10985174;0.29852185;-0.11965477;0.22549763;0.26960024;0.28117824;-0.054868814;0.0021628058;-0.018608745;-0.22922836;0.005575675;0.27976543;0.21743283;-0.114499636;-0.0055217366;0.16638292;0.24691437;-0.104710795;0.18694083;0.17244264;0.010992369;-0.17432806;-0.004975153;-0.0039170873;-0.011610463;0.2690872;0.24434634;0.08053991;-0.25908408;-0.3796668;-0.06058124;-0.0045158607;0.028142052;0.006187823;-0.0031070607;-0.2060548;0.061432455;0.0018000499;0.4178505;-0.08373328;0.01601371;0.037012994;-0.24923338;0.003663613;-0.030745588;-0.05902795;0.1733329;0.005075019;0.2370859;-0.22597617;-0.010510353;-0.05466652;0.013824407;-0.27074403;0.1292553;0.30269724;-0.0035145225;-0.012165682;-0.15933086;0.07896005;-0.07500809;-0.052664608;0.16973846;-0.11121609;0.13707587;0.053968336;0.022871837;-0.19602808;-0.04178908;-0.1944629;0.01420095;-0.08213362;-0.29714108;0.2504697;-0.11514255;-0.39607966;0.089648634;0.34558386;-0.008766122;0.017508691;0.012593133;-0.29870602;0.4340904;-0.009338329;-0.079354726;-0.07265313;-0.05431776;-0.010375405;0.2130144;0.023076449;0.24379249;0.01251365;-0.015486868;-0.014809054;-0.060717065;0.09974636;0.00087118737;0.021692948;0.04652339;-0.10420242;-0.18953823;0.12620711;0.0063447426;-0.38415077;-0.14637655;-0.021443948;0.027114632;-0.13610598;-0.010988426;-0.22797179;-0.11002085;-0.23105295;0.043619778;-0.25743014;-0.015630923;0.0733771;0.014613923;-0.013879431;-0.06875173;0.31621316;-0.03901391;0.0037258896;-0.3260158;0.005469461;0.010857449;0.29541045;0.19244124;-0.0110491235;0.122836456;0.022902453;-0.051547937;0.22849678;-0.20187445;-0.18693148;0.016375221;-0.0015798293;0.42721713;0.006142767;0.11398592;-0.33009693;-0.009082634;-0.007555434;0.109542914;-0.041165534;-0.008819374;-0.0038268093;-0.50388724;-0.0078057027;-0.17739017;-0.01158025;-0.43372467;-0.024260301;0.0070322026;-0.014532109;-0.29537368;-0.064752616;0.031490855;0.00038584022;-0.12099384;-0.008539121;-0.025841175;0.009245275;-0.021223156;-0.06760506;-0.1336596;0.010827225;0.004838501;0.0077492213;0.5902066;0.13861941;0.17942795;0.02672681;0.002013773;-0.10697076;0.03243282;-0.015269247;-0.0039054044;0.167709;0.0089468565;0.5093483;0.01952218;-0.044497475;0.0028047047;-0.20826243;0.0039925324;0.24012825;0.16445537;-0.39136863;-0.17496885;-0.19634415;0.007287496;0.043715157;0.011813253;0.12053638;-0.26676673;0.066941515;-0.10454839;-0.25057605;-0.0059010372;-0.013862775;0.0012389353;0.0034131382;-0.057194263;0.11529411;0.04479588;0.005991765;-0.0016453788;0.026073603;-0.036425218;0.2891801;0.15503761;0.019916037;-0.17122371;-0.006194796;-0.18796669;-0.009370664;0.0029107796;-0.03854127;0.014364137;0.00013703667;-0.024590282;0.0063768495;-0.02258558;-0.11702628;0.14953849;0.047694407;-0.28966308;-0.17488706;-0.11517019;-0.039409243;0.021275861;0.0011793292;0.025259187;0.026941651
0.0062090983;0.38198116;0.3068542;-0.009221334;-0.0035983066;0.01006818;0.0062596267;-0.0049027754;0.07023089;0.029948376;0.0037980985;0.12325468;-0.37087506;0.28312948;-0.021154385;-0.007364969;0.105807744;-0.005250333;-0.012816287;0.015639234;-0.29693976;-0.0032290893;0.17761062;-0.05059049;-0.046202753;-0.23919421;0.4410207;-0.037449475;0.013385868;0.14261408;-0.30878767;-0.4243315;0.26070878;-0.33699244;-0.009719917;-0.0048310193;-0.14814359;-0.022800878;0.2875052;-0.0316493;-0.04849185;-0.081157;-0.19888687;-0.29050723;-0.00010820354;-0.04522029;0.055565998;0.0009754631;0.39626798;-0.0129547985;-0.2962452;0.010738195;0.104200654;-0.04570587;-0.22651328;0.04207705;-0.01622429;0.3683889;-0.010445312;0.23208016;-0.056505848;0.15982233;-0.028365266;-0.06021238;0.0095375;-0.011326663;-0.04402656;0.23115341;-0.13247737;0.0067816023;0.00068499136;-0.27664906;-0.08460715;-0.019123739;-0.01145421;-0.012125086;0.0035676;0.092507675;-0.14303163;0.119067766;-0.26424223;-0.22495854;-0.2289941;0.00020451687;-0.13750584;-0.20208247;-0.059378125;-0.00035402106;-0.03259605;0.020808646;0.22708736;-0.6824638;-0.0073435064;0.22550945;-0.119376265;0.02043833;-0.022738097;-0.050504662;0.0036451153;-0.15259434;-0.012273452;-0.03295909;-0.028360084;-0.0019928687;-0.16515341;0.0079093;-0.0072802575;0.0037673237;-0.0015753224;0.061793122;-0.66301507;-0.2018862;0.07299668;-0.39885372;0.006114499;-0.15271425;-0.013654386;-0.29631078;0.016885104;0.2891957;-0.081850715;-0.11708294;0.0047903927;0.08339325;-0.088658966;-0.0032699436;0.0091755465;-0.2985708;-0.019080024;0.0064888145;-0.07019147;-0.04406988;0.18535487;0.00046445214;0.13879538;-0.00027361806;0.19789088;0.003574345;-0.010277832;0.0018227169;-0.17308703;0.014057518;0.011909926;-0.1300258;0.05960055;-0.10178922;0.20485409;0.18373555;-0.0021315103;0.212259;0.25866958;0.32224488;0.022415925;0.33882168;0.034690853;0.07448212;-0.21867345;0.013075771;0.0075154426;-0.0075244694;0.21511671;-0.3247029;0.013726984;-0.0087553775;0.034613077;-0.108192645;-0.2520162;-0.24754918;0.038890418;-0.06864528;-0.07083274;0.13614585;-0.2786207;-0.10371088;-0.010188925;-0.009717661;0.10560817;-0.02344869;-0.1336543;-0.23096214;-0.0010102397;0.12474017;0.25527763;-0.14839752;-0.014596923;-0.008133861;-0.035307404;-0.04978673;-0.363191;-0.11201972;0.10500879;0.048861254;-0.0074314605;-0.018430028;0.19235386;-0.0715101;0.092842735;0.27022508;-0.28838998;0.0379005;-0.33490828;-0.15692684;0.06747709;0.084516004;-0.07734833;0.015946835;0.019769607;-0.26931617;-0.03308157;-0.0029383653;-0.002205724;0.0003157676;0.07242129;-0.0051091514;-0.0013215737;0.010851992;0.024122892;0.0053124665;-0.051660202;0.15975413;0.2841018;-0.071378894;0.01455822;-0.3892828;-0.007047849;0.06227706;0.010102112;0.06679028;0.01271215;-0.22292349;-0.008991896;-0.3356647;-0.03992131;-0.49911463;0.38743904;0.08293865;-0.09713976;0.18173718;0.01161646;-0.029214526;0.045532387;-0.04370532;0.0063453754;-0.2613596;-0.0039900676;-0.23190276;0.0019425771;-0.22095926;0.39422;0.0017527277;0.008622684;0.034403775;0.2898489;-0.24624035;-0.17515133;0.20622899;0.015484395;0.10751143;-0.02832246;-0.14710467;-0.21685731;0.15123409;-0.06280383;-9.818738e-06;0.1506625;-0.00084816857;-0.23102182;-0.008791764;-0.2111346;0.06823109;-0.11586979;0.09982626;0.011783727;0.3355062;0.010447602;0.0037882454;0.37319726;-0.0012929125;-0.18389553;-0.20465907;-0.13148381;0.04481879;-0.0008238536;0.06165202;-0.35501686;0.05432932;-0.0729142;-0.19553104;-0.18844236;0.21514247;0.17680351;0.029206017;-0.016037196;-0.1581077;-0.14057334;0.009744379;0.17907208;0.035420705;0.0027329978;-0.008330451;0.10825968;0.20513505;-0.0021991325;-0.010321608;0.009144331;-0.058995448;-0.15204388;-0.15784417;-0.12709643;-0.11813491;0.10876837;-0.022409298;0.10843058;0.034839112;-0.13525051;-0.13497363;0.24164753;0.005283836;-0.23299888;0.2367748;0.0069106086;-0.03603363;0.09774109;-0.005431039;0.042667117;-0.015942955;0.018720845;-0.045920614;-0.359456;-0.0003874299;-0.15220185;0.0076997997;-0.13212179;0.0003683253;0.11175444;0.13709205;0.08689978;-0.0363766;0.0010009727;-0.20064709;0.010789489;-0.0515589;-0.14466697;0.4056983;-0.0726239;-0.007851478;0.12375374;0.26815885;-0.18769656;0.018607773;0.016673464;-0.1427861;0.008487671;0.22398856;-0.055094816;-0.16495058;0.008140044;0.22298583;0.21571836;-0.2114666;0.22882703;-0.016217161;-0.015493926;-0.21130428;-0.0033762725;-4.653738e-05;0.017110115;0.040580694;-0.007290722;0.05462581;-0.11458674;-0.27847153;-0.12541205;-0.010729123;-0.0006466389;-0.096055865;0.0037679174;-0.09441042;-0.049177296;-0.0013674243;0.43874258;0.068407334;-0.011400418;0.08233992;-0.21186729;-0.013152319;0.017659971;0.052363034;0.07521556;-0.012231469;0.08120428;-0.06405341;0.004228396;-0.1032634;0.011479068;-0.19862221;0.09464669;0.34007138;0.005349165;-0.011324696;-0.02469237;0.05028637;-0.19834077;-0.074904405;0.10899858;-0.2607047;-0.12594047;0.08076177;-0.0022798658;-0.22061038;0.025379889;-0.21608159;-0.00022340877;0.16646999;-0.2924744;0.39316595;0.060459234;-0.4091707;0.16396864;0.14759025;0.0055103637;-0.0036508152;0.0041385274;0.00059921853;0.38033155;0.0068514454;-0.16818528;-0.02899502;0.117250875;0.019536903;0.05654609;0.01027261;0.19826187;-0.018600985;0.01564962;0.02438953;-0.13362023;-0.110433444;-0.0028656248;-0.06965488;0.05311566;0.186346;0.02110158;0.08172229;-0.0058266297;0.009547266;-0.1358861;0.014916723;0.22548734;-0.002978018;-0.0030563595;-0.20206739;0.108262695;-0.37723473;-0.0454408;-0.10236119;0.094471805;0.20641173;0.0076996027;0.021979047;0.12447704;0.03041679;0.14128558;0.045393564;-0.15920702;0.001926718;-0.04598427;0.22045526;0.095649295;0.0116099715;-0.010019247;-0.018145679;0.24052033;0.010471251;-0.1837072;-0.049929716;0.1050681;-0.0011197389;0.27239797;0.009980332;0.14905465;-0.1202453;0.022477744;0.015381834;0.045519218;-0.14760344;-0.001863065;0.0025325269;-0.16857758;0.018738635;0.051459417;0.14954981;-0.38374454;0.015862959;0.006713654;0.022652704;-0.4517859;0.17286251;-0.014145456;0.004580865;-0.28683764;-0.009439281;-0.1694526;-0.036832467;0.024867931;-0.25169778;-0.14797328;-0.015497983;-0.009743282;0.00538671;0.31743824;-0.05540105;0.01257534;-0.1594704;0.0008368662;0.18338893;0.09198458;0.23554084;-0.005881719;0.064354986;-0.024990607;0.3776951;0.0044011446;-0.03937323;-0.001964273;-0.28532946;-0.006701911;0.20497178;0.07669318;-0.42162046;-0.24082217;-0.0147735;0.0041296585;-0.19808081;-0.011347518;-0.06267906;-0.14994007;0.14959261;0.08590205;-0.17897065;0.0068843323;0.002023669;-0.0010631566;0.0019143592;-0.1045718;-0.090434186;0.06625257;-0.0011134525;0.017252956;0.15685575;0.24800034;0.20966211;-0.13530886;0.0021784264;0.078642756;0.0747825;-0.047889385;0.0070224106;-0.0058765407;-0.3176251;0.15196283;-0.2749882;-0.03198706;-0.01394409;-0.03590088;0.062724054;-0.043786045;-0.039826117;-0.17924632;-0.18357581;-0.3995546;0.043903425;-0.16231771;-0.009608418;0.0057480372;0.07638864
-0.0050984705;0.19287767;0.11915147;0.0137439305;0.019382678;0.26276833;-0.008222886;-0.008993127;0.066760935;0.17876385;0.0020777164;0.14063168;-0.13976815;0.09255797;0.012755558;0.002013434;-0.076776914;0.38721347;0.010643035;-0.052499164;-0.2958181;0.009487927;0.25442585;0.037611246;-0.062358957;0.14986274;0.2775183;-0.26798084;-0.019638212;0.13942729;-0.25201824;-0.51166415;0.4434409;-0.4190188;0.015365313;0.01180067;0.04019501;0.054835152;-0.12856978;-0.027581375;-0.03508346;-0.04351255;-0.30057344;-0.095195636;0.0013070359;-0.0831577;0.100164674;0.1160268;0.28677145;0.028420974;-0.2175098;-0.003785465;0.11557967;0.06744355;0.021609012;0.25911507;-0.09394238;0.1417253;0.01856647;0.2765219;-0.03566116;0.07803411;0.12052334;0.062701374;-0.0056289607;0.0062200204;-0.032391347;0.3529599;0.0698319;0.0054970197;-0.012389458;-0.21459304;0.007084908;0.08500798;0.01832719;0.010130849;-0.015124699;0.13979468;-0.076203935;0.35298234;-0.050869152;-0.043107785;-0.5830013;-0.0024208748;0.04840062;0.037827644;-0.1853697;-0.001815822;-0.2275272;0.046716347;0.1799914;-0.61692333;-0.15063296;-0.097282;0.008227244;0.057386667;0.00034769764;0.3386482;-0.01031494;-0.019617626;0.0684466;0.07660651;0.29536662;-0.013845788;0.0011001858;-0.00907371;0.00030203964;-0.0021754357;0.007419467;0.2599806;-0.35606846;-0.10850954;0.018853556;-0.42867643;-0.0051846397;-0.22198115;0.01385666;-0.369241;0.0024159919;0.26948917;0.028961763;-0.10807325;-0.005000661;0.048117176;-0.22178072;-0.0053161453;-0.013251035;-0.304049;-0.025684832;-0.0056305886;-0.12835562;0.12572987;0.047547303;0.00096939784;0.06991319;-0.0016468519;-0.080197066;-0.0032338938;0.011969674;-0.001244904;-0.0987325;-0.15036786;-0.00422579;-0.27720773;-0.03924261;-0.25505313;0.065973006;-0.12641922;-0.016036607;0.1806203;0.097469814;0.07707149;-0.051268693;0.49484208;-0.029114744;-0.09020535;-0.17353769;-0.012843755;0.0025376796;-0.006192031;-0.1458131;-0.5338207;-0.02633198;0.006095549;0.09104088;-0.13935867;-0.30770642;-0.25134695;-0.19219437;-0.20658478;-0.16053955;-0.09780176;-0.16878429;0.15014663;0.0039018134;0.0075128865;-0.07506216;0.005917909;-0.39077422;-0.18402106;0.016447926;0.2882497;0.29917166;-0.09234507;0.022820212;0.017429218;0.0030478407;-0.28742817;-0.09121976;0.02194371;0.07871727;-0.008734423;-0.004556894;0.013253521;0.21414436;-0.072718315;-0.13759059;0.16496451;-0.2543429;0.35426688;-0.49323082;-0.3924745;-0.02478109;-0.06467911;-0.08696276;-0.30775324;-0.009099988;-0.24462786;0.029610058;-0.0036277627;0.008686626;0.0030108406;-0.20515993;0.00021664883;-0.010057934;-0.0076770014;-0.032652248;-0.019289674;-0.35287014;0.13827768;0.09398079;0.15491468;-0.05261772;-0.14387739;-0.019956492;0.095250696;-0.0034063952;-0.21176088;-0.021403879;-0.21557033;0.0060458435;-0.46758047;0.122912146;-0.4699633;0.2292682;0.2134247;-0.07195193;0.051675405;-0.0107009355;0.07948889;-0.08998335;0.014482919;0.014291706;-0.45390046;0.004420596;-0.18455312;0.06306663;-0.14878488;0.30418587;-0.011012945;-0.01576534;-0.027766284;0.37182793;-0.38369387;-0.15562049;-0.016893346;-0.01041359;-0.027931912;-0.13774863;0.008411448;-0.3831959;0.29751715;-0.05441759;0.0022516258;-0.0018145208;0.016282395;-0.06068556;-0.008502931;-0.21660781;0.15341048;-0.013793276;-0.010573723;0.009600308;0.35937893;0.0026291579;0.06254482;0.26962492;0.00090238027;-0.122960344;-0.33292252;-0.2830559;-0.041638214;-0.008905974;0.037362665;-0.1389987;-0.10644159;-0.24478239;-0.18216465;-0.0063044536;0.1914383;0.16253082;0.08604817;0.02625732;-0.18100126;-0.39411756;0.0014006079;0.09097758;0.14244978;-0.003188509;0.011269901;-0.029791676;0.24871735;-0.009732776;-0.04992816;-0.013176965;-0.20187284;-0.084684946;-0.21337725;-0.024590978;-0.027483579;0.08098068;-0.0010806238;0.03696481;-0.28498924;0.038593493;-0.28409842;0.19730853;0.008320486;-0.032477863;0.1541328;-0.015606745;-0.06210728;0.109545946;0.011881356;0.12678796;0.01205092;-0.0025381038;0.039132282;-0.2169912;0.010760182;-0.4021209;-0.009331093;-0.20884429;0.001997394;0.11433376;0.118649505;-0.033897042;0.1397674;0.0009392558;0.052911982;-0.0061016474;0.059681915;0.024448883;0.24955809;-0.103344314;-0.21271005;0.1514398;0.25968534;-0.2517728;-0.020058973;0.008401767;-0.09511609;-0.01640765;-0.19196747;-0.099652626;0.10457071;-0.0023461038;0.23413625;0.38680494;-0.06384762;0.219805;0.1321319;0.028122742;-0.23515739;0.004009639;-0.0009781297;-0.0012676351;0.18121527;-0.06388102;0.08250754;-0.076600656;-0.29566294;-0.052778557;-0.009794887;0.05187757;0.05502909;-0.0016668225;-0.16086537;0.13887994;-0.014918024;0.40698925;0.14936048;-0.04315221;0.0004560873;-0.107682705;0.0055849706;0.0026688897;0.07922727;-0.28363454;0.008381937;0.2773079;0.13207301;-0.01010328;-0.17404997;-0.0033917504;-0.13064672;-0.21705619;0.264432;0.00066516316;0.014075282;-0.099861465;0.19971308;-0.20044112;-0.29144022;0.0020617908;-0.30055594;-0.19807237;-0.1270892;0.0049146884;-0.35066622;0.018527046;0.095112346;0.0006197014;0.016724829;-0.27601033;0.19482794;0.19273262;-0.413887;0.099560365;0.17341657;-0.014641492;-0.0011949271;-0.0004844175;-0.37682426;0.29933962;0.0022407055;-0.21606247;0.19568984;0.25906143;-0.01854376;0.05947737;0.10516369;0.15297848;-0.001903206;-0.001458696;-0.0035163306;-0.27489573;-0.24574657;0.015474224;-0.06420149;0.32898995;-0.046432275;0.08540688;0.27409643;-0.006643278;-0.21411724;-0.18624482;0.012418803;0.078469686;0.14553694;0.0049113184;-0.14538017;0.04961827;0.07086078;-0.20096493;-0.1864339;-0.14240447;0.16395444;-0.016503826;-0.040431473;0.27488554;0.02587807;-0.039208777;-0.1347196;-0.25512928;-0.0020381843;-0.0018817936;0.100609615;0.028492209;-0.011743971;0.14587086;-0.007220829;0.17355509;-0.120510384;-0.36532417;0.06448366;0.20860368;0.011545802;0.1822848;-0.008148469;0.22296536;-0.11599001;-0.00879517;-0.016941115;-0.112077266;0.04651288;0.008862053;0.003257713;0.08027658;-0.052309573;-0.07624309;0.047489755;-0.47551498;0.018262833;-0.01769027;-0.14964648;-0.51621914;0.21683313;-0.0033072408;0.021217562;0.10500689;0.024574477;-0.28148806;0.037457637;-0.01023209;-0.1961233;-0.43093225;-0.0011664717;0.009574963;0.007451856;0.19038774;-0.17986701;0.23484105;-0.16625217;-0.008834485;0.16678733;0.11625083;0.048664268;0.011241041;0.3672994;0.051355578;0.45414647;0.00966544;-0.04965598;-0.017974934;-0.32169682;0.012164413;0.030881608;-0.024358202;-0.3939317;-0.15254052;0.010775159;-0.001907469;-0.2039928;0.024507234;-0.16730258;-0.17127821;0.15965015;0.21352218;-0.009491053;-0.015097391;0.016298234;0.013119925;-0.018492889;-0.0558977;0.0065865647;-0.28126866;0.009701523;-0.017101021;-0.17600125;0.3087254;0.23437871;0.06073314;-0.001403017;-0.06025816;-0.041585594;-0.015230038;0.016487384;-0.010422664;-0.31970704;0.14289945;-0.084023654;0.03959165;-0.0009292359;-0.14820337;0.18028806;-0.15748222;-0.016146887;-0.1531907;-0.088268705;-0.13789853;0.1224368;-0.27696884;0.0026421759;-0.009090224;-0.09389452
-0.0016552943;0.20306161;0.14624463;-0.017301701;-0.011497729;0.36779913;0.02118283;0.015174605;-0.0575735;0.022113787;0.0020065967;-0.058123495;-0.39462742;-0.13797408;0.07327593;0.0035021396;-0.28576624;0.24915376;-0.002862984;0.032613058;-0.18526532;-0.0048583066;0.12788837;-0.016980506;0.014106486;-0.11054;0.3066227;-0.35740787;-0.02762181;-0.05713499;-0.10180767;-0.38163814;0.45152888;-0.1820767;-0.009104573;-0.014546159;-0.08683439;0.1317874;-0.1941516;-0.058173936;0.04333801;-0.116734974;-0.0710071;-0.22141331;-0.006527123;0.067910306;0.120232865;0.1383382;0.28137025;-0.013904853;0.07873884;0.0050371164;-0.22292593;0.059393473;-0.029382244;0.19409701;-0.06898886;-0.027884189;-0.2055755;0.24631721;0.10641375;-0.010076128;0.44734505;0.016702274;-0.0007462567;-0.013870844;-0.113993555;0.4054973;0.020026386;0.002109344;-0.0002978067;-0.16638029;-0.29405114;0.28001213;-0.023694249;-0.0023283446;0.013469396;0.0102444235;-0.029505996;0.32240617;0.16573334;0.48060256;-0.37223622;-0.0031362087;0.084840104;-0.07808331;-0.18969999;-0.008645685;-0.41411948;0.04065798;0.14644247;-0.3625867;-0.4280401;-0.040066276;-0.15560566;-0.023711676;0.008500476;0.24150191;0.010177061;-0.049241442;-0.16091606;0.4505638;0.36436424;0.012713702;0.15748733;0.01031519;-0.0011698757;0.018876113;0.0004346161;0.24245839;-0.27761182;-0.30683228;-0.13362487;-0.0116325505;0.007925849;-0.07133509;-0.001833208;-0.03922444;-0.0061623864;-0.017331902;-0.03156205;0.12228527;0.020337306;0.28594458;-0.062970504;-0.005564443;0.0031018625;-0.20695011;-0.111009896;-0.0030047589;-0.20770516;0.30334163;0.16674887;0.0021365783;0.3200319;0.0018567228;-0.12668476;-0.002086116;-0.008844471;0.0015685892;-0.15756254;-0.4135906;0.0022079777;0.06109456;-0.23628403;0.08006803;0.010408703;-0.052972104;0.014070899;0.034652997;0.06379768;0.15724307;0.027641125;0.26603904;-0.00023467011;-0.0020121078;-0.12205577;0.02621361;-0.022982884;0.0057590245;-0.031504273;-0.42402405;0.02184345;0.009265915;0.23477712;-0.1353249;-0.22792923;-0.3532232;-0.29203424;-0.22710828;-0.30946937;-0.39879513;-0.25647295;0.03273359;-0.01428899;0.0042763283;-0.22070101;0.016157603;0.1791191;-0.067933016;-0.00881392;0.13521472;0.09959292;-0.14905849;-0.012921907;-0.01019308;-0.038044658;0.044065855;-0.17609906;0.063936956;0.0033214013;0.22505301;0.0017591035;-0.008023644;0.23156525;-0.016869342;0.03345911;0.27336;-0.017454328;0.4007533;-0.4372117;-0.3685707;-0.14363188;-0.09359247;0.039492518;0.23501115;5.135501e-05;-0.26681122;-0.0130227525;-0.005738065;0.0049524005;-0.011872388;-0.104539745;0.008256563;-0.00092549;0.011486784;0.024694884;0.009610373;-0.21139234;0.073017605;-0.024259675;-0.01740806;-0.119560346;-0.0969696;0.019164408;-0.16675949;-0.013029099;-0.33364204;0.0025584593;-0.38290402;-0.009981769;-0.5189698;0.012522069;-0.29488072;-0.021491421;0.123228945;-0.22141576;0.04466933;0.011377193;0.107440285;0.009194305;0.19354224;-0.0073339874;-0.4148686;-0.0050511225;-0.13311459;0.027655553;-0.05254795;0.15523686;0.028235098;-0.0071502086;0.13140562;0.36826068;-0.4658269;-0.14416365;-0.07623924;-0.028880548;-0.096423596;-0.09061432;0.17969216;-0.13632001;0.31096813;-0.07237204;-0.002334976;0.026516443;-0.00514805;0.13572691;-0.00065852975;-0.3851866;-0.25611904;-0.18239789;0.05394212;0.016546214;0.35685024;-0.0009806012;-0.047551464;0.34255564;0.0070530656;-0.26987776;-0.42251867;-0.16010697;-0.1140425;-0.004276712;0.13275819;-0.26765764;-0.30769685;0.020896994;-0.09072537;-0.0015973862;0.19140862;-0.05079632;0.20679104;-0.0077752033;-0.21167512;-0.35594997;-0.0156069035;-0.01792234;0.0423325;0.01594661;0.0062693325;-0.0010442896;0.047742967;0.002869174;-0.07671013;0.013197627;-0.109928265;-0.20890698;-0.36202294;0.2734796;0.096432365;-0.12180251;0.013351372;-0.050995;-0.25274828;0.052408926;-0.2394458;0.017662289;4.7617097e-05;-0.02915116;0.041003495;-0.004554354;-0.044180136;0.0114013925;-0.0116691245;-0.06533789;-0.0027359016;-0.0014302455;0.027682224;-0.14428227;-0.026493875;-0.30164647;0.0028970817;-0.5019903;0.0011807577;0.13196963;0.033626474;0.093216285;0.103975445;0.0036799454;0.24159798;0.0021987748;-0.021657083;-0.2275233;0.11057047;-0.028570252;0.014578335;0.13335831;0.06894803;-0.3036352;0.005792487;-0.024806462;-0.07447963;0.0026313409;-0.32521734;-0.2517494;0.05066313;-0.0052310387;0.2330351;0.06522116;-0.028781965;0.21269356;0.20160192;-0.027461272;-0.0071143587;-0.012689823;0.0014692384;-0.0055817957;0.18572003;0.004888144;-0.0742442;-0.19678861;-0.17500176;-0.09860916;0.0098938905;0.04927833;-0.082341135;-0.0053476137;-0.16944075;-0.0509443;-0.008455519;0.4705788;0.040653333;0.055590685;0.0344828;-0.23361462;-0.00505604;-0.030204225;0.021614945;-0.15247989;0.005836376;0.18369511;0.1383949;0.0009298642;-0.3383839;-0.0037472157;-0.07352212;-0.218711;0.26550785;-0.005195013;0.002843618;-0.18192205;0.23499647;-0.011590819;-0.44532272;0.051419538;-0.2618826;0.045899123;-0.0059616324;-0.011446042;-0.3432945;-0.002890003;0.21253264;-0.023020674;0.053244516;-0.28472796;0.10775352;0.28598493;-0.048164375;0.037670176;-0.036352605;0.016448805;-0.013083111;-0.020338519;-0.20811462;0.090935156;-0.016019335;-0.2759741;0.29238877;0.23085482;0.015825365;0.07636437;-0.0349394;0.14114293;0.007903167;-0.0074774907;-0.008252048;-0.28381827;-0.106396176;-0.022129951;-0.008676496;0.1565677;-0.057947267;0.107759275;0.26157832;0.011500498;-0.1713801;-0.067711815;-0.0038054276;0.15957683;0.15550134;-0.002376049;0.10449577;0.015862001;0.109390736;-0.33826274;-0.022044418;-0.088274226;-0.02941191;-0.0032987818;0.018511152;0.41257912;-0.09070351;-0.07812243;-0.14785855;-0.05724595;0.011214989;0.026315065;0.07887453;-0.023769801;-0.00010272837;0.09985813;0.0041201953;0.07216628;-0.28932002;-0.20492493;0.20983656;-0.03345494;-0.0018859219;0.29762203;-0.01778086;0.42217657;0.1735586;-0.005073948;-4.3087573e-05;-0.017095044;0.010295084;-0.018436573;0.007426317;0.07731621;-0.1699859;-0.029508635;0.02074963;-0.29552996;-0.032133576;0.009037184;-0.055159356;-0.1631129;0.39734706;-0.0033336931;-0.025030712;0.0812313;-0.034575302;-0.43729302;-0.031066861;0.0033945816;-0.24590744;-0.4587019;-0.0010038324;-0.0028152647;-0.01684424;0.048718806;-0.019931896;0.22395821;-0.20364034;0.0021038197;0.05343552;0.05666642;0.019097093;-0.002824948;0.44704923;0.046231642;0.3993475;0.02963033;-0.10342819;0.019375328;-0.35427284;-0.0016197447;0.042745255;-0.0124071855;-0.41244468;-0.27375126;0.08479975;-0.010571813;-0.16215856;-0.021369759;-0.13948388;-0.12195831;-0.04860611;0.41741568;-0.12698257;0.0020391417;-0.005490545;-0.002927225;0.008871021;0.02671973;-0.060654517;-0.117081776;0.0004919369;0.012964195;-0.001941052;0.28355676;0.43921697;0.21201472;-0.008207894;0.2437515;-0.047009002;-0.10550059;-0.016918456;0.010289297;-0.23275715;-0.002384037;-0.08996767;-0.05395719;0.011297872;-0.24732144;0.19799736;0.011302911;-0.043545812;-0.10301051;0.029648596;-0.03942563;-0.20267954;-0.07234263;0.004346404;0.00047958287;-0.24434604
-0.015271938;0.17618273;-0.02415859;0.009071135;-0.00025152325;0.011474796;-0.0014728933;0.0004909507;-0.13897198;0.11465755;0.00864579;-0.20308822;-0.21696083;-0.08168908;0.07041777;0.0014700543;-0.05906918;0.051968887;0.009211616;-0.02452826;-0.2650178;0.015327893;0.117560185;0.12420086;-0.076358415;-0.099135004;0.1022808;-0.11140553;0.03614538;-0.028433116;0.002174381;0.107857235;0.2376462;-0.29178268;0.009130589;0.02249219;0.26184228;0.05340726;-0.06629063;-0.12751059;0.036231946;-0.0059169144;0.018245412;-0.16159493;-0.0017915356;-0.08054594;0.023918325;0.32835186;0.055141166;-0.0046589933;0.29873478;-0.009466799;-0.10926427;-0.04850965;0.1481378;0.1650616;-0.15026759;-0.04422476;-0.051674012;-0.21766672;0.06785367;0.08559169;0.24027602;-0.032545216;-0.012111522;-0.0013538414;-0.22262071;0.4090565;-0.14389537;-0.01569017;-0.008594288;0.07300093;-0.5154414;0.19540054;0.012990676;0.006527809;-0.0049997433;0.024607709;-0.11103252;0.06036189;-0.0032428342;0.18532781;-0.3837822;0.018950034;0.12589353;0.046053838;0.023943001;0.015275555;-0.33683404;0.020732889;0.17778102;-0.2189504;-0.45787108;0.0696137;0.15413672;0.0174591;0.008275504;-0.20669135;-0.009420198;-0.049240418;-0.21021962;0.47524425;-0.009611568;-0.006894613;0.026162712;-0.0073217456;-2.9201665e-05;-0.025832478;-0.0076785884;-0.07966759;-0.09304882;-0.27192888;-0.3210709;0.13268863;0.0044327127;-0.3535476;0.0045674043;-0.11601828;-0.0035897337;0.060761515;-0.018097935;-0.004443464;-0.019883435;-0.09032966;-0.050535325;0.017880693;-0.011723288;-0.12515497;-0.12060565;-0.0021963494;-0.16634338;0.09173186;0.22495534;0.010811561;0.38453335;0.004812201;0.09162818;-0.005063246;0.011947272;-0.014148956;-0.2101182;-0.51722765;0.0010872161;-0.073101394;-0.5644858;0.07542133;-0.24052617;0.057814263;-0.021120643;0.15598589;0.25688586;0.26398006;-0.014157186;0.12755692;0.018415278;0.083486825;-0.11614134;-0.030829271;0.020403408;0.014962223;0.12687133;-0.14085986;-0.029713964;-0.015742317;0.42940235;-0.22843666;-0.20016919;-0.24580464;-0.1971936;-0.07953629;-0.12694293;-0.62658554;-0.3446444;0.03865847;0.0135491965;-0.008745467;-0.038926926;-0.010276404;0.38137;0.046952456;-0.011889772;0.47190306;0.1153232;-0.09554473;-0.001627609;0.0068072933;-0.1093112;0.040096603;-0.07678326;0.24798977;0.00041593474;-0.1039092;-0.011410993;0.0121592125;0.19719456;0.20415235;0.0056274273;0.23969635;0.3083242;0.08010836;-0.16188952;-0.43995047;0.12536705;-0.17763737;0.11883627;0.016237637;-0.005495618;-0.056934655;0.049594928;0.019404544;0.0069933604;0.016509322;-0.13982518;-0.019903863;0.014935766;-0.0036885266;0.029423174;0.008718002;-0.33089936;0.16931523;-0.11181618;0.025728716;-0.10703306;-0.061282855;0.0002974835;0.02379467;0.0070636855;-0.26592797;-0.008461106;-0.27021727;-0.0069716843;-0.39828837;-0.10784346;0.013313154;-0.03901207;-0.024193909;-0.1964351;0.25062796;-0.02258256;0.08177934;0.020748189;-0.08618506;-0.009879467;-0.18791416;8.121136e-05;-0.100568004;-0.3551987;-0.050175857;0.23178564;-0.024013247;0.020387659;0.08086136;0.2685246;-0.15282285;0.12319085;-0.16988985;0.058477554;-0.101249024;-0.09053391;0.22650617;-0.057278205;0.07143585;-0.122315906;-0.011111974;-0.016808376;-0.008353988;0.13669868;0.0010200101;-0.46311918;-0.24682042;-0.13439418;0.1188024;-0.023515735;0.15821154;-0.014731044;-0.035516877;0.23441519;-0.010321583;-0.257857;-0.7192849;-0.1500691;-0.22845311;0.00865705;0.1538153;-0.0065381047;-0.32346064;-0.13045412;-0.07072331;0.10839305;0.28705832;-0.240701;0.30991247;-0.008636397;-0.17687379;-0.42238882;0.0060734465;-0.19644578;0.029260503;-0.011052425;-0.0034781378;0.03765581;-0.17278253;-0.010278437;0.08549267;-0.0052569676;-0.1974672;-0.12569578;-0.31126174;0.21540041;0.01831997;-0.44961295;0.00069018616;0.09309901;-0.26135862;-0.0076457476;-0.084178686;-0.051731322;0.008594682;0.013422625;-0.07124709;0.021016788;-0.079676956;-0.25554696;0.010940178;0.11019503;0.00073850114;-0.011316457;-0.0458069;0.021935105;0.019990671;-0.17894606;0.019873668;-0.3907716;-0.0044731367;0.35379395;0.20756477;-0.13525026;0.00026830132;-0.014586905;0.2745938;0.0052331;-0.007577345;-0.12624188;0.17325014;-0.29306522;0.16429684;0.09101991;0.04258271;-0.018551791;0.0010390225;0.0075709946;-0.11257895;-0.0029610044;-0.47178444;-0.19747268;0.07826066;-0.01051529;0.39412475;0.31505007;0.104738936;0.43682608;0.028895946;0.0153634865;-0.19022344;0.011379124;0.012644007;0.017151775;0.073151104;0.122255355;-0.21156085;-0.4070531;-0.3227965;0.100167036;0.017101876;0.14289355;0.10365895;0.013026913;-0.032352194;-0.14072587;0.014207391;0.5622167;-0.16840649;-0.038289174;0.076735266;-0.33634102;0.0075749024;0.053888146;0.10734387;0.036050532;-0.0014064878;0.014081709;0.023300113;0.007915732;-0.32938558;-0.0073877447;-0.052453876;-0.077521935;0.22566274;-0.0045820563;-0.023840852;-0.26160625;0.044969507;0.09114344;-0.42728668;0.22127317;0.13028759;0.010235227;0.17382626;0.0119617395;-0.3925915;-0.03432364;-0.0045636264;0.023071894;-0.073757075;-0.330854;0.16044793;0.1283011;0.09859654;0.11251124;-0.14785239;-0.014692693;0.0122268805;0.01941549;-0.07487376;0.15733299;0.014704682;-0.22417203;0.3157398;0.17734683;-0.003718805;0.05443509;0.04430484;0.15328452;-0.012735186;-0.0025938633;0.014286171;-0.14833581;0.07943708;0.018456178;0.041449714;0.06929892;-0.004008986;0.27222344;0.1851339;-0.0022147074;0.041141033;0.27104938;-0.010036347;0.19811131;0.27921587;0.010603945;-0.034467597;-0.09625308;-0.05218029;-0.051368225;-0.17194887;-0.06899033;0.09679529;0.0086665545;-0.0030191564;0.37159234;-0.025453843;0.17272279;-0.05639851;-0.24710381;0.00607936;-0.03664221;-0.017285312;0.04838035;-0.0033135654;-0.013416557;0.008842768;-0.25991428;-0.047029592;-0.14649385;0.12864414;0.13153052;-0.013115298;-0.08527244;0.0145593;0.13797246;0.22793576;-0.012865017;0.0077917622;-0.1550228;0.08698388;0.015158597;0.0017133165;-0.06952871;-0.014716247;-0.1117028;-0.05839702;-0.19780612;-0.0054501453;0.0061372146;0.13653067;-0.12937617;0.33598676;0.0013468127;-0.0009413558;0.08015372;0.028396323;-0.34533048;0.010968566;-0.0082156705;-0.23112561;-0.4540359;0.00048277844;-0.0047633788;0.011701822;-0.036412258;-0.112697095;-0.0107829105;-0.16785896;-0.0006699898;0.09669896;-0.07653523;-0.017225508;-0.0123873595;0.22660728;-0.032197244;0.33104086;0.010423911;-0.11169268;-0.009297834;-0.114771836;0.015661096;0.10452129;-0.1255509;-0.21771848;-0.18308935;0.30762938;0.013645455;0.0059820316;-0.010812055;0.30738884;-0.16961092;0.0031511337;0.02626286;-0.26918024;-0.0023805187;-0.018390639;-0.0057230154;-0.011397064;0.05936046;0.027551476;-0.27114642;-0.005038382;-0.024382524;-0.014127058;0.2528163;0.5216067;0.027033394;0.0019257976;0.14412715;-0.08286796;-0.15226874;0.0058982805;-0.0028504129;0.034514364;-0.14453901;-0.13521694;-0.116689995;-0.023314904;-0.00047040032;0.059960525;-0.053622425;-0.0058077206;-0.24938814;-0.044787314;0.0844238;0.23979683;-0.09360611;-0.009816811;0.0025139083;-0.28650096
0.020086601;-0.034427118;-0.098118514;-0.00067663233;-0.0030123317;0.025265075;-0.0021959506;0.0030230833;-0.18415909;0.08050804;7.163701e-05;-0.15246649;0.10709043;-0.085185155;0.16062015;-0.014100415;-0.055725306;0.25238678;-0.000999976;0.032596756;-0.19715393;0.009202557;0.22589387;0.11202575;-0.17686546;0.024925513;0.2523152;-0.01704673;-0.014888828;-0.12701876;-0.096918374;-0.13756758;0.30415097;-0.030696725;-0.005572025;0.0005019031;0.2973724;-0.116619654;-0.18792942;-0.19074938;-0.04298572;-0.00533772;0.0141836535;-0.11894918;0.0043686964;-0.04008593;0.09380568;-0.00635695;-0.36418158;0.007350194;0.30520287;0.01492194;-0.2452287;-0.09099843;0.22810663;0.1749537;-0.16712591;-0.07079148;-0.15374158;-0.3027125;0.051061664;-0.025538865;0.21886906;-0.07287328;-0.0012603867;-0.0040793666;-0.2885705;0.3236888;-0.011713815;0.015620674;0.01208987;0.11752916;-0.29319656;0.20089433;-0.01509015;0.0017175291;0.0049374797;0.005906283;0.15473512;0.27992526;0.34238124;0.39572972;-0.17025727;-0.027457234;0.1234602;0.1751264;0.039896242;-0.015385458;-0.37891406;0.09432922;0.11881307;-0.056881085;-0.24879314;-0.1905799;0.018254742;-0.0239429;0.009084015;-0.15527013;0.021753574;-0.012134507;-0.16423668;0.43064702;0.032707743;0.009536704;0.32193556;0.007938946;0.00028949862;0.009372785;0.0098830275;-0.2666291;-0.11436136;-0.4155872;-0.32661486;0.29908356;-0.007083461;-0.22513612;-0.019958789;-0.20441604;-0.0062632402;0.16871324;-0.0066299886;0.011081695;0.01412911;0.061162353;-0.20710416;-0.006344142;0.004297562;-0.3480415;0.06986008;0.010480836;0.14308186;-0.00311922;0.15899657;-0.019243794;0.21268295;-0.0036706205;-0.118190244;0.018227957;-0.015534972;0.01160397;-0.060967732;-0.38888314;-0.01270014;0.08584098;-0.5564839;0.13521653;-0.39849854;0.12549491;0.022031013;0.08362242;0.20451258;-0.22302802;-0.020539807;0.16216953;-0.007687292;0.060447827;-0.10436758;0.012187606;-0.041714236;-0.014368943;0.19747077;-0.30406094;0.02818241;0.011878526;0.47508436;-0.077325575;-0.2711259;0.050841976;-0.19710387;-0.11079349;-0.02386431;-0.47328827;-0.30340657;0.15315409;-0.0052369824;0.01647884;-0.37625462;0.0037495447;0.07482762;0.11839594;0.02230343;0.3779067;0.032423127;-0.101705626;0.00483166;-0.018992255;-0.017153565;-0.05923538;0.18927588;0.1513977;0.1508659;-0.06160986;0.015927117;0.001862685;-0.09636014;0.13491847;0.045159917;0.26307714;0.25298947;0.29567567;-0.18942265;-0.41214782;0.08011066;-0.13669552;0.25138217;0.05283237;-0.0045099147;-0.14202608;-0.17313854;-0.020420002;-0.0077932216;0.0048965444;0.014004352;0.015262489;-0.006559654;-0.012788152;0.13243398;-0.016007852;-0.34181982;0.21847561;-0.065438315;0.10322919;-0.1747533;0.06459175;0.012870233;0.07522903;-0.012546834;0.21782534;0.014186764;-0.114273384;-0.0029939257;-0.2511305;-0.08465161;-0.053909265;-0.31739566;-0.0537547;-0.1036239;0.14138354;0.020316476;-0.03431027;0.2722057;-0.16431567;-0.0061712093;-0.16400738;-0.0005048632;-0.055002667;-0.2537484;-0.12767506;0.04192502;0.018906845;-0.0018408798;0.116056;0.012356585;0.13019669;-0.156264;-0.17926995;-0.005228418;-0.48065838;0.06699331;-0.11294617;0.020817142;-0.14013785;-0.11144496;0.005768582;-0.23025171;0.0076011424;-0.0010971039;0.015902419;-0.36011294;-0.11409082;-0.23355067;-0.05760047;0.0021202709;-0.15058763;0.011195406;-0.029526269;-0.009419242;0.01451748;-0.2514973;-0.6156122;-0.05772857;-0.21763219;0.010977901;0.24385484;0.3000745;-0.238551;0.030029485;-0.1467368;0.011691485;0.21200877;-0.38168946;0.15329477;0.008422855;-0.12890767;-0.32188585;0.019438885;-0.3992013;0.22186886;0.011543524;-0.0059978743;0.10534983;0.22925627;0.001454525;0.047481712;-0.0022452706;0.078824215;-0.038147584;-0.24928965;0.12275142;0.019059043;-0.55087656;0.054913104;-0.059199914;-0.18859987;0.030066159;-0.15283354;0.007999194;-0.0031056951;-0.048177674;0.1706571;-0.00907052;-0.13507676;-0.28615454;0.0029957823;0.23085822;0.0017461745;0.00686745;0.017624991;-0.047086954;-0.004259178;0.058505405;-0.006468057;-0.15604788;0.0071452134;0.2637215;0.167816;-0.04689003;0.03199217;-0.006800653;-0.10598129;-0.01699612;-0.0047711986;0.0036026766;0.045440722;-0.12654716;0.19718449;0.19383372;-0.13739955;-0.04981761;4.5385532e-05;0.009835546;-0.17204861;-0.0141868675;-0.12558205;-0.15749776;-0.02962984;0.0043120994;0.3965505;0.012391606;0.025321772;0.5072302;-0.07759475;-0.0061069694;-0.3251875;0.011290322;-0.00720161;-0.006987796;-0.13735236;-0.03799345;-0.28975838;-0.41840184;-0.26542166;0.057418436;-0.012623224;0.13979396;-0.15586644;-0.0130915055;-0.02933192;-0.21044226;0.003186457;0.5361434;-0.32525164;0.011210562;0.013786545;-0.24357194;-0.00039408624;-0.062697455;0.09224294;-0.08155907;-0.026460856;-0.050985478;-0.21554002;-0.0020529763;-0.31238887;0.0020415797;0.115024574;-0.20323433;0.29713705;-0.0046859276;0.036672153;-0.3944525;0.30172348;0.08234941;-0.45275384;0.1899623;0.017546779;0.12953448;-0.2689646;-0.026803428;-0.48260537;0.105139315;-0.05728712;-0.0034498482;-0.1643194;-0.48789304;0.24444027;-0.1541787;0.1415501;0.1332048;-0.207872;-0.008653432;-0.009595512;0.0037965705;0.05235566;0.015144097;-0.0049385396;-0.022360059;0.07518314;0.28316858;-0.012767813;-0.14238945;0.13904968;-0.073038906;0.02103602;0.014652061;-0.024344165;-0.44022846;0.1790522;-0.005739603;-0.05805262;0.13026465;0.036083125;0.17806765;0.08469255;-0.024357267;0.1602399;0.26665238;0.00051610696;0.014084148;0.21054278;0.001155491;0.06710272;0.12925886;-0.39893493;-0.02619703;-0.28516644;0.014681984;0.14166354;0.0021777705;0.019963242;0.06281111;-0.07846094;0.025244355;-0.078081794;-0.1646057;-0.0069945646;-0.020376615;-0.003603379;0.19072293;0.000889615;-0.13078257;-0.021298064;-0.40287465;0.1568013;0.059076346;-0.011623294;-0.2535142;0.011067242;-0.13587172;0.014909111;0.12690851;-0.14089578;0.004368307;-0.0034199522;0.06787796;0.39105913;-0.018417452;0.0064800335;-0.02546395;-0.19138311;-0.028865246;-0.22442101;0.028422013;0.0040315753;-0.007783622;0.09610488;-0.2307655;0.18517792;-0.004662925;0.018584168;0.1899917;-0.011302723;-0.07494289;-0.007985695;0.0056968667;-0.12885475;-0.23310618;0.0031754607;0.009848016;0.0034066094;-0.03892788;0.005980513;-0.23863739;-0.19490339;0.0020389564;0.13247229;-0.024749381;-0.17609565;0.014622264;0.0069097634;0.040699203;0.29402655;-0.011662506;-0.15982723;0.016047865;-0.40165415;-0.021323131;0.037437312;-0.10953462;-0.20047669;0.13279942;0.047083642;0.008741994;0.044201586;0.0059360005;0.011317348;-0.13893537;-0.13485216;0.10833337;-0.03404136;-0.021555623;0.009839093;-0.0042687976;-0.0018664078;-0.20140237;0.10847335;-0.16780178;-0.005840865;0.023887128;-0.0060058376;0.2462789;0.2643035;-0.39481503;-0.0012940823;0.09141092;-0.10494576;0.1377997;0.0142732235;0.0012729199;0.24869664;-0.32621783;-0.08172629;-0.16525382;0.02264574;0.014623931;-0.01845195;-0.20067376;0.0129742585;0.2007953;-0.083607934;-0.11671871;0.29562253;-0.19440733;0.008256092;-0.011502418;-0.049285613
-0.013323586;0.17800683;-0.11318442;-0.0014308245;0.0037049423;0.024344726;-0.016315177;-0.013844444;-0.21202457;0.08561647;-0.014568181;-0.12160407;0.1508887;-0.06308315;-0.036180113;-0.008727336;0.10818182;0.08314622;0.0067598773;0.0198241;-0.24164462;-0.008601787;0.19794118;-0.018323801;-0.10258568;0.017142784;0.43394694;0.1602529;-0.008112538;-0.10167778;0.16074537;-0.40693223;0.06914509;0.21817935;-0.016962035;-0.02597556;-0.12126206;-0.028206108;0.050926384;-0.19213492;0.0063118404;-0.056123737;0.05849326;-0.09384178;-0.004351522;0.38687763;-0.028723571;0.23511672;-0.2903216;-0.0021310563;0.31878665;-0.011541085;-0.2740269;-0.014954786;0.027633589;0.089739114;-0.050486147;-0.016670145;-0.3205503;-0.34793776;-0.16355938;-0.08711515;0.16512023;0.052179057;0.012716624;0.014536888;-0.21770851;0.31734022;-0.18168712;-0.023609392;0.00826808;0.07401291;-0.33406687;-0.2172023;0.005179235;0.0035207982;-0.0034434812;0.1126406;-0.09523788;0.0877015;0.26709133;0.24294351;-0.042645138;0.013723584;0.10605397;0.04929144;-0.08078313;0.025815107;-0.14469892;0.21056788;0.1410066;-0.19622152;-0.037984844;-0.056835447;-0.18713135;-0.06965654;0.009478432;-0.17846903;-0.023149846;0.024135424;0.03229684;0.16511375;0.0071209893;-0.0037424127;0.1655077;-0.008534807;-0.0040589576;-0.002224642;-0.017371409;-0.11905237;0.006873737;-0.2058279;-0.27357754;0.024363497;-0.006456944;-0.13219133;0.0017649283;-0.23743111;-0.0019385194;0.054529786;0.12890722;0.045838356;0.0035588248;0.10413736;-0.16768095;-0.0035627575;0.0017749956;-0.014168273;0.12003449;-0.009096253;0.08802026;0.19609462;-0.09476794;0.0035229083;0.16754378;0.005387799;-0.041639;-0.010474333;0.011623683;0.010251125;-0.18224074;-0.22901386;0.015091831;-0.0007013444;-0.6795097;0.09260659;-0.33555943;0.042516522;0.007097861;-0.0042386204;0.1617681;-0.22087105;0.036568224;-0.17097726;-0.010606866;0.09059588;-0.14636454;-0.015697312;0.033359785;0.012192471;0.12426855;-0.39471936;-0.00085137394;-0.010229867;0.29830694;-0.137105;-0.12930585;0.041521743;-0.5293771;-0.12807228;0.14911264;-0.5597869;-0.31011638;0.16161014;0.012917094;-0.01071366;-0.23627067;0.0013373068;-0.13338485;0.096843585;-0.008180771;-0.017644353;-0.20859784;-0.08053238;0.007539425;0.023810035;-0.0026719884;0.058828957;0.1026294;0.21466325;0.014950746;-0.20384666;-0.0032604337;-0.00055238476;-0.14904012;0.17108251;0.20861188;0.008211475;0.3920751;-0.21536541;-0.19257303;-0.37589762;0.035095938;-0.41531348;-0.077344015;0.0030906182;0.013866626;-0.19000179;-0.4340077;0.006580143;-0.00029117396;0.0037811538;-0.001823507;0.0048471102;-0.01853454;0.0023928345;0.07509079;0.021794623;-0.23038177;0.11462926;-0.03380137;-0.041177172;-0.4964263;-0.054595377;-0.012346382;-0.06869881;0.017126791;0.23922494;0.011991158;-0.2949118;0.009267819;-0.3431295;0.074726865;-0.04696781;-0.5014272;0.030837933;-0.07196597;-0.024054544;-0.016160978;0.07968997;-0.14936024;-0.112512894;0.016832052;-0.21367955;-0.0114650335;-0.06676933;-0.27852705;-0.18149911;-0.05448159;-0.0073323306;-0.01229909;0.03965944;-0.08205659;0.025633862;-0.23532693;-0.10049638;-0.027083889;-0.5860715;-0.13551612;-0.13641797;0.05018146;0.034096383;-0.03573514;0.004423669;0.001805725;0.0033229406;0.044311274;-0.01598904;-0.16222686;-0.06889709;-0.10733014;-0.17181705;-0.003883083;-0.41538164;0.0057620676;0.029578611;0.11769659;-0.015145456;-0.31873733;-0.5670182;-0.033333924;-0.18795297;-0.0012533711;0.11582547;0.18793319;-0.3579754;0.16363184;-0.20162934;-0.26424837;0.42752907;-0.3035565;-0.07893565;-0.00410786;-0.3057729;-0.28378278;-0.0057594697;-0.2578926;0.15755501;-0.017664684;0.0027533097;-0.14566031;0.26044378;0.021631204;0.0721119;0.015183295;0.26737612;-0.029527994;-0.07623256;0.03625154;-0.020537307;-0.40296766;-0.03201576;-0.21776871;-0.08353966;0.037433833;-0.23441444;-0.08607035;-0.009460375;0.04885136;0.02765139;0.008558315;-0.06420913;-0.124897264;-0.008246994;0.10651111;-0.004064856;-0.007331404;0.007771603;-0.2045618;-0.0054750843;-0.22103599;0.005296551;0.0472301;-0.006211014;0.0038089538;0.24227309;-0.002981525;0.015079309;0.021799775;-0.2832075;-0.00288804;0.013472805;-0.032170665;0.036603466;-0.29354286;0.169519;0.110504806;-0.3378779;-0.07437078;-0.00508877;-0.0035444056;-0.28744033;0.01310362;0.04303149;0.19683899;0.09436416;0.0049431114;0.31525087;-0.096981265;0.3290651;0.22876339;-0.060683995;0.00912897;-0.2079802;-0.007806454;0.00013534188;0.005681794;-0.09661591;0.18552247;-0.1764818;-0.25829896;-0.16849965;-0.012275789;-0.022470538;-0.020850804;-0.21194957;-0.005391255;-0.061340336;-0.23070817;0.003246474;0.24351594;0.03004344;0.02802558;0.12507129;-0.17194219;-0.006601974;0.026080547;0.006323606;-0.20837612;0.019754212;-0.23048967;-0.07280286;-0.004643297;-0.0054269857;-0.0064726407;0.14400972;-0.014832603;0.35144493;0.011016108;-0.019322049;-0.41560146;0.0129023325;-0.04674891;-0.2894105;-0.04107038;-0.112078406;-0.07403098;-0.16736077;0.017340096;-0.25607592;-0.038494293;-0.08887309;-0.017155692;-0.29424378;-0.36159176;0.3865705;-0.2680638;0.08865788;0.15639672;-0.09809389;-0.004667274;-0.0002958892;-0.016779795;-0.28759298;0.01088513;0.013466579;-0.36947715;0.109487675;0.19899505;0.015723081;0.02260251;0.007581916;-0.16419469;0.0014544753;-0.003703099;0.011173128;-0.42448556;0.058519207;-0.0070755705;-0.011936798;0.3016002;0.0029707737;-0.011901082;0.33963582;0.0038396905;0.2682991;0.405452;0.016499406;0.3265257;0.22667849;0.000869086;-0.036734067;0.089704245;-0.25830194;-0.09299471;-0.039543513;0.124716684;0.03021446;0.015367654;-0.020603083;0.1905523;-0.033853516;-0.091227844;0.02493458;-0.24123926;-0.0062228385;0.03018131;0.051784493;0.110576704;0.00594881;0.012224245;0.011423264;-0.36511505;-0.08620908;-0.0802057;-0.03372922;-0.1439488;-0.003701377;0.0032485474;-0.017802078;0.17423514;-0.11752609;0.011683578;0.0021359315;-0.1130723;0.25510663;0.016268682;-0.015404644;0.019744696;-0.26940003;-0.26190168;-0.22619288;-0.04084022;-0.0063067707;0.0043423176;0.17193076;-0.098660804;-0.022525374;-0.0060283057;-0.016623937;0.08733941;0.0019421178;0.023980193;0.008407049;-0.008626367;0.013890171;0.07637088;0.0015551365;-0.0059872917;-0.0105400095;-0.09903758;-0.090279594;-0.14023851;-0.10021402;0.0043085907;0.2662948;0.11389676;-0.21834588;-0.012577096;0.093216576;0.031262804;0.4617976;0.0053945538;-0.08951917;-0.028622583;-0.21080478;-0.008635225;0.11051718;-0.29831123;-0.021696433;0.1162865;-0.034625165;-0.007838479;-0.010310736;0.004202505;-0.04335577;-0.23156956;-0.01670417;0.3602463;-0.066575065;0.020143365;0.008894892;0.005491203;0.008278298;-0.22214799;-0.10939707;-0.16199802;0.014714278;-0.004102057;-0.09738159;0.2114051;0.17900851;-0.37863928;0.009655956;0.3092534;0.25064203;-0.11013353;-0.026295159;0.0033689968;0.35733774;-0.3467664;-0.089189574;-0.21233924;-0.0153096495;-0.09399712;0.06459708;-0.28865296;0.012730966;0.037982702;-0.23110855;-0.042836152;0.04704552;-0.124826595;0.008176227;0.005968178;0.064564325
0.021466114;-0.0071566277;-0.21206382;0.011981003;-0.002290673;0.023724036;0.012700799;0.004401431;-0.2703491;0.068048075;0.00035369326;-0.106681764;0.3223139;0.26148763;-0.09710869;0.021645973;0.19064318;-0.18234186;-0.017718317;0.0027572487;-0.21120507;-0.0016417677;0.27098623;0.06608381;0.08834514;0.13333955;0.27357915;-0.08140741;0.018374166;-0.01540026;0.10423704;-0.21403706;-0.16223677;0.2735942;0.026017569;0.0075502666;-0.19897716;-0.005200624;0.079907484;-0.21814603;-0.06557437;-0.040872358;-0.058187623;0.15940006;0.0035546257;0.40564382;0.078823045;0.14593245;-0.5570455;-0.013762463;0.3131766;0.007932563;-0.48636863;-0.084473275;-0.20537701;0.02926884;0.009054607;-0.010163388;-0.24133788;-0.07886708;-0.27806664;-0.10575266;-0.071858585;0.14476916;9.734495e-05;-0.022069633;-0.16985255;0.2434914;0.12307702;0.023789704;-0.0033528535;-0.09228677;-0.3319878;-0.3858339;0.005592594;-0.010585469;0.00067171874;0.2157738;0.022294031;-0.10176436;0.33413085;-0.04183173;0.12989832;-0.0007783899;-0.058837242;-0.08921062;-0.16590413;-0.041374974;-0.15234062;0.11536718;0.17704844;-0.14405361;0.044456713;0.069037825;-0.26232913;0.001441775;-0.015912488;-0.120799124;0.0051601003;0.07280617;0.064108975;0.22897951;0.24694262;-0.00019132602;0.07765064;0.0016661761;0.003372082;-0.007785585;0.008813835;-0.041851725;-0.041769933;0.07345714;-0.33130243;0.013291221;0.015034094;-0.14060338;-0.0012099964;-0.20097446;-0.015650483;0.19087118;0.3759535;-0.06695441;-0.020422094;0.089682706;0.110480346;0.0016579969;0.016880963;0.0111037195;0.19209377;0.0074914275;-0.060586795;0.11349552;-0.0009027868;0.009274824;0.06528137;-0.013969219;-0.06665346;-0.009534171;-0.012310787;-0.0015827871;-0.22273022;-0.10760423;-0.007000084;0.055524033;-0.5505727;-0.111874476;-0.37691718;0.08804998;-0.011130809;0.13989589;0.24609108;-0.12804933;-0.035648692;-0.24931669;0.009789785;-0.09190969;-0.14762546;0.015460578;-0.015337092;-0.012696947;0.1403887;-0.49257305;-0.011787234;0.009892792;0.11204467;0.0023804202;-0.082139336;0.051154237;-0.17760763;-0.2764943;-0.020848488;-0.41971025;-0.1809921;0.026208559;-0.0060440255;0.02460301;-0.28250635;-0.0068729366;0.03781448;-0.010228136;0.001857075;-0.13896695;-0.3163212;-0.1312528;-0.009094659;-0.016438054;0.07382191;0.15799335;0.16395004;0.3271544;0.0250252;-0.26845172;-0.009397376;-0.00891135;0.131215;0.03336382;0.1648924;-0.012825891;0.33996472;-0.27306798;0.052111726;-0.355338;0.007935127;-0.5505626;0.050498303;-0.07675088;0.0036540027;-0.10521678;-0.12148918;1.4137115e-05;-0.0006724115;-0.018078823;0.09236409;-0.00075229467;0.013922986;0.01202394;0.19419865;-0.0009760158;-0.07193828;-0.050352704;-0.04695013;-0.17900714;-0.492755;-0.17499176;-0.010989511;0.1990727;0.012854296;0.15530881;-0.0044035413;-0.27583572;-0.004479787;-0.45194754;0.07024619;-0.1508045;-0.3610874;-0.0023108746;-0.04202769;0.04539429;0.018610297;-0.030717319;0.04443582;-0.003570333;0.0034809678;-0.22843106;0.012126445;-0.051092967;-0.13104205;-0.080631614;0.06032334;-0.0032307338;0.024061592;-0.06589751;0.15839136;0.05589909;-0.06772185;-0.13833126;-0.024730027;-0.35207072;-0.052094508;0.06398125;-0.047569163;-0.24007845;0.044394556;0.009803585;0.004735328;-0.009428687;-0.04733285;0.0048352173;-0.279658;-0.072119266;0.008745915;-0.1279145;-0.0050541535;-0.25075385;-0.005413531;0.016762478;0.13315156;0.0015599467;-0.2974019;-0.49724153;-0.13413532;-0.03781559;0.009778427;0.04988952;-0.025929432;-0.38081115;0.06742883;-0.09002575;-0.24379307;0.18834434;-0.27201813;-0.18154532;0.013601663;-0.24677892;-0.09305884;-0.012755126;-0.039052162;0.14339636;0.017450036;-0.009843267;0.10889444;0.2462835;-0.007567779;0.068124;-0.017345224;0.27894396;0.054681923;0.0053356374;0.04407908;0.019549193;-0.3400101;-0.018927643;-0.10700654;-0.16753544;-0.05502207;-0.35493922;0.05060435;-0.0019204665;-0.18148284;-0.18039824;0.0041383132;-0.05988982;-0.01995591;0.013906914;0.24757554;0.0053848657;0.01636887;0.0041445107;-0.26375327;0.014963414;0.01896329;-0.0016093926;0.23738179;0.01720444;-0.3412601;0.28754354;0.007654663;-0.06262527;-0.002901733;-0.1494034;0.003013683;0.0032680447;-0.02284827;0.0467541;-0.16404699;-0.022151869;0.09502992;-0.26641625;-0.2622372;0.010043523;-0.00059446297;-0.12087994;-0.00019097548;-0.20837435;0.26042295;0.24891932;-0.0007021887;0.28705066;-0.27768418;0.36710337;0.09415097;0.07679014;-0.014383135;0.026043212;0.016670497;-0.02869973;-0.01290941;0.08935752;0.06357231;-0.10945479;-0.22716406;-0.26854452;0.025955806;0.022362035;0.11437786;-0.11533771;0.0071435403;-0.11232145;0.04686487;0.011392946;0.3050398;-0.25906685;-0.043988567;0.14047627;-0.0956612;-0.013234204;0.044567905;-0.07675891;-0.0858887;-0.007458358;-0.16539183;-0.11309675;0.006438744;-0.051738556;-0.007949322;0.23685919;0.0024929438;0.3942903;-0.009658558;-0.016629413;-0.3226387;-0.092993654;0.025274746;-0.11074468;-0.0024747152;-0.33480728;-0.058798667;-0.21525563;0.001416865;-0.18990014;-0.05311274;0.021309597;0.010459539;-0.12096626;-0.525032;0.29795277;0.0045396765;0.1518324;-0.020510728;-0.1510852;0.011034352;-0.011294693;0.0030506828;-0.24837568;0.1716108;-0.005454686;-0.24547619;0.27565512;0.11092965;-0.021819405;-0.039538637;-0.11083809;0.15087284;0.002756862;0.0054222126;-0.0018700712;-0.0828852;0.14033161;0.0018476815;-0.06528533;0.11611776;0.037582524;-0.117121935;0.34276173;-0.0044240756;0.24367078;0.2994946;-0.01715835;0.28864115;0.35547203;-0.005459593;-0.2667575;0.017603451;-0.41151452;-0.009315679;0.08332945;0.36002725;0.11060149;-0.017553315;0.030942375;0.11145852;0.120850906;-0.058451355;-0.043969255;-0.14036156;-0.004005622;-0.024719846;-0.108440414;0.116677985;-0.0071925586;-0.01540955;0.009827584;-0.13780257;0.103742525;-0.18225822;-0.0027597183;0.048688926;-0.012781493;-0.1398557;-0.014499302;0.21818838;-0.07574279;0.0013211626;0.0052993097;-0.19619782;0.14686045;0.0025440082;-0.0012681297;0.16810764;-0.31877288;-0.096620135;-0.15463153;-0.14505652;0.025365626;-0.018503409;0.094210625;-0.15912858;-0.13489027;0.013162957;0.008182765;0.15362571;-0.006674615;0.0023225097;0.017980209;0.0030829152;-0.03995634;0.33392942;0.011309884;0.0056826854;0.010246027;0.055489488;0.22540832;0.005843252;0.06478798;-0.0014920435;0.080469;0.36629722;0.06342019;0.01404842;-0.113945894;-0.009369133;0.38730514;-0.023020875;-0.25955734;0.012877182;-0.19640155;0.01295193;0.14672229;-0.23176382;-0.048549257;-0.027051307;-0.018523337;-0.007008583;-0.15202439;-0.012175121;-0.002020747;-0.021409674;0.15562674;0.16631524;-0.10921754;-0.009575908;-0.007192239;-0.00029039907;-0.00073354796;-0.10344612;-0.06367948;0.06152361;-0.014470559;0.004629244;-0.1370073;0.022994326;-0.11075403;-0.23968129;-0.014760114;0.20754652;0.041641112;0.03686079;0.017210482;-0.0015021903;0.35963538;-0.24598143;-0.11345575;0.013025526;0.0018411728;-0.16642943;0.104094975;-0.041939232;-0.045616582;0.1997643;-0.2997401;0.11237229;-0.029377496;-0.0561625;0.0035611857;-0.0041836747;0.11033758
-0.0007448854;0.091624655;-0.11066697;-0.008005824;0.02158723;0.12953657;-0.0062824106;-0.01306865;-0.14567542;0.06327599;0.0077270167;0.09774311;0.19058062;0.024372019;-0.055653982;-0.01620691;0.27480224;-0.28395304;0.01691699;0.043743197;0.15576713;-0.0079515325;-0.0066352156;-0.008758623;-0.024998562;0.31057644;0.18647991;-0.004645883;0.0067290375;-0.10433723;0.0920455;-0.15891251;-0.2721944;0.12804672;-0.0070503484;-0.008693545;0.011519061;-0.044217642;-0.082729116;-0.25412318;-0.019936923;-0.07443917;0.049436998;0.187118;-0.0018144073;0.17341012;-0.13451453;0.07416214;-0.5157683;0.008179799;0.117064424;-0.0052678473;-0.16801259;0.046119988;-0.12407223;-0.11600936;0.07439612;-0.07320731;0.02772567;0.16320758;-0.45205292;0.079074495;0.23606409;-0.054869868;-0.0050263093;0.00920492;-0.08395526;0.21820061;0.19283547;-0.02938053;0.005223327;0.1061376;-0.40705377;-0.15034667;-0.0065746065;-0.0013611146;0.008261964;0.05610448;-0.018782033;-0.122402154;0.28755388;0.09593496;0.27134913;-0.0017184614;-0.20064661;-0.030946236;-0.16709624;-0.0125927515;-0.2992572;0.20968087;0.1295291;-0.14190303;0.06045644;-0.09106734;-0.26209366;0.0672573;0.019820753;0.16087563;-0.0011759553;0.014847376;-0.034824148;0.09201484;0.31711906;0.0021119753;-0.054660264;-0.003308819;0.006025611;0.03128499;0.0017114176;-0.13161153;-0.0047482816;-0.067526095;-0.34416527;-0.14097828;-0.008187981;0.0051351036;-0.001206473;-0.15944467;0.043846052;0.20288052;0.2307415;-0.052038807;0.010254924;0.024557063;0.04117897;-0.013603482;-0.015603952;-0.23866336;0.04362344;-0.012015602;-0.015606173;0.06501419;-0.1773941;-0.006989957;0.071685016;0.0068993014;-0.039488178;0.0020178831;-0.0022836206;-0.004667338;-0.020290736;-0.033152446;0.009194492;0.2730264;-0.31167868;0.01903388;0.18468751;0.001274944;0.0041694515;0.0744349;0.32718036;-0.06670621;0.02440305;-0.48615938;0.0031227395;0.08403295;0.11048192;-0.012492222;0.023665776;0.012528702;0.2029738;-0.33876613;0.0029448236;-0.013970426;-0.12344623;-0.2793664;-0.08100289;-0.07298459;-0.2814836;-0.53820896;0.009971769;-0.27293554;-0.109617665;-0.10408458;-0.00571241;-0.023001423;-0.38587797;0.013376733;-0.007209009;0.3599702;0.006623808;-0.10846434;-0.25448456;-0.11082201;-0.0049143215;0.00574979;0.048486963;0.24316292;-0.026111286;0.272156;-0.16691208;-0.14361113;0.0042794007;0.005491509;0.07870673;0.088769145;0.14321987;-0.10848254;0.4928593;0.047517236;-0.06832076;-0.4899108;-0.07172919;-0.4010138;0.034022883;-0.17055683;-0.010047811;-0.0062506706;0.032623414;0.018645452;-0.0068935896;-0.012094855;0.03184032;-0.009927398;-0.019149005;-0.020999005;-0.041954696;-0.0136643825;-0.02493346;-0.011956213;0.29904976;-0.02197993;-0.09392233;-0.11023893;0.0015101817;0.16449009;-0.023116374;0.01695771;-0.0011116612;-0.2928421;0.016469225;0.056451783;0.09169583;0.15976314;-0.5233048;0.08040746;-0.035756815;0.1054216;-0.020893285;-0.005244366;0.098622434;-0.11245021;-0.00495547;-0.15290907;-0.014953088;-0.0031205113;-0.41239125;-0.24510874;-0.13698617;-0.0050407047;-0.01838335;-0.042292893;0.07059726;-0.15223622;0.24697994;-0.3073243;0.031993236;0.10088065;-0.18848397;-0.09675825;-0.10891572;-0.28474075;0.005507358;0.006481951;-0.047423147;0.009919119;0.008395888;0.003203282;-0.22265248;0.093775034;-0.15532048;0.10100502;0.0036949075;-0.40616435;-0.009473487;0.047466606;0.1363975;0.0038371065;-0.15454169;-0.3387118;-0.12380865;0.18706763;-0.013422577;0.20678003;-0.04525764;-0.28637642;0.16634016;-0.070556335;-0.24059708;-0.16838077;-0.28747922;-0.13841408;-0.03103942;-0.27665484;-0.18236937;-0.0083844345;-0.009839256;0.16307986;-0.011058543;-0.01064653;-0.016250916;0.2889307;-0.005958047;0.10471724;0.012762323;0.18451892;-0.132422;0.06522556;-0.18675695;-0.015802365;0.018137954;0.0006782139;-0.019899001;-0.09775343;-0.110313974;-0.29533023;0.16795826;0.012725341;-0.04195607;-0.04233219;-0.015603823;-0.032583125;-0.09528285;-0.016605016;0.031661794;0.0006634416;0.0036702133;-0.034407523;-0.24219407;-0.009278431;-0.105766095;-0.002666698;0.11372304;-0.02022811;-0.16676114;0.2689594;-0.19960405;0.100372866;-0.0009880611;0.014049543;-0.008765875;-0.019300375;-0.14089003;0.103764616;-0.16020623;0.14112437;0.0454042;-0.22192642;0.003949212;-0.019935478;0.0079638455;-0.18086219;0.007508431;-0.049698085;0.40039137;0.04918331;-0.008615639;0.2602944;0.039378192;0.24347846;0.3521337;0.20545404;0.0037497943;-0.15640229;-0.0062906956;0.027470652;0.004846985;-0.15987822;-0.06674631;-0.13558441;-0.21697876;-0.3335505;-0.032854915;-0.00043608077;0.102757014;0.014355714;-0.004468732;-0.10772873;-0.06343394;-0.01604043;0.22363101;-0.3069931;0.017157122;0.08485993;-0.17532921;0.017954027;-0.07159796;0.103796065;-0.27370116;-0.008531895;-0.4239721;-0.07109327;-0.012678933;-0.13527492;0.0033460588;0.12421515;0.15316932;0.22706823;0.013413662;0.008816573;0.06912139;0.10484857;-0.018699575;0.030527946;0.02153291;-0.21393165;-0.19993177;-0.31915426;0.00858659;-0.2503835;-0.21149422;0.08153991;-0.0043111998;-0.16563757;-0.637139;0.34744355;0.15303814;0.04350257;-0.05229515;-0.16891168;-0.0070271324;0.006156045;-0.0100992145;-0.056713354;0.03256038;0.0022150206;-0.041661415;0.45724326;0.06392907;0.008487422;0.020180508;0.033061087;0.2004716;-0.03227048;-0.009093501;0.008749185;-0.030609043;-0.007288729;-0.0052133086;-0.039550524;0.11413071;-0.016939554;-0.02525931;0.26991373;0.0158616;0.20693459;0.17656255;-0.0025327066;0.16031489;0.22752558;0.00070006;-0.29657412;-0.0114211105;-0.21120206;0.059279498;-0.3163895;-0.11699895;0.22726175;0.00076760445;-0.01199644;0.030335385;0.08096824;-0.0917179;0.1883302;0.0951211;0.0080203265;-0.033832613;-0.094709404;0.22168325;0.005344472;-0.17404847;-0.023255123;-0.107114874;0.10303722;0.044813033;0.002768476;0.20062482;0.022335906;0.010322168;0.02359885;0.22156;-0.110322125;0.0051507405;-0.0011478214;0.06110477;-0.2670272;0.0053888904;-0.010932517;0.10826062;-0.27993205;-0.1417581;-0.10568295;-0.17934807;-0.006861977;0.018199882;0.03269147;-0.18706587;-0.04490026;0.005882348;0.0025352063;0.17660855;0.007821193;-0.15849708;-0.022019709;0.011834442;0.04052255;0.5166028;-0.002763915;-0.0010368712;-0.010427769;0.3147331;0.2247276;-0.008408829;0.09969209;0.011261542;0.11396086;0.05921337;0.009978804;-0.008846746;-0.18287192;0.0417821;0.14109382;-0.024406644;-0.23900472;-0.0009945594;-0.056963842;-0.01567412;0.16645788;-0.039858192;-0.22042097;-0.121341445;-0.20893659;0.0024200878;0.07005196;0.023089187;-0.10157162;-0.022885105;0.13725793;0.100902826;-0.13139002;0.010623744;0.009769136;0.0069160745;0.008134417;0.22412966;0.031047245;-0.17483152;0.0037855862;-0.0059726248;-0.17514643;-0.06882266;-0.1860573;0.15065317;0.018501332;0.23451793;0.093529336;0.25092417;0.004008882;-0.011498028;0.30836985;-0.0677884;-0.0014694467;-0.09066139;0.018180126;-0.1430515;0.117754444;0.024440996;-0.016670622;-0.009658044;-0.28507054;0.081657216;0.1276309;-0.085637674;-0.012559318;0.0073579582;0.11522383
-0.013310082;-0.053841334;0.080385216;0.016204998;-0.0017576197;0.032077607;0.009884882;0.026382215;-0.2978152;0.15204556;-0.0063672615;0.03944309;0.101140246;-0.03049128;-0.2972824;0.012385065;0.021553876;-0.0623597;-0.0025587936;-0.030219896;0.10529155;0.009018091;-0.0647432;-0.012647218;-0.14007686;0.14602047;0.12172223;0.0063260486;-0.028017905;-0.082474895;0.07252169;-0.1625929;-0.32636306;0.2433383;-0.0055545107;0.020881131;-0.08258544;0.01333868;0.05209686;0.0036349457;0.021708786;-0.21003191;0.12084694;0.2931233;0.004346194;0.024488287;0.06533105;0.10069036;-0.57182586;-0.00817815;-0.11688498;-0.007576759;-0.11524273;0.2373276;0.17373557;0.13525659;0.0972569;-0.08150038;0.18892036;0.1600632;-0.18328074;0.10467903;0.029135952;-0.09956474;0.011711716;-0.0057180487;-0.012059808;0.11732105;0.13710709;0.026871596;-9.671707e-06;0.1475181;-0.3413261;-0.024511635;0.011137288;-0.016761333;-0.0035568438;0.12642747;0.096953936;-0.15048458;0.078437425;-0.32248414;0.19289486;-0.011049701;-0.098473355;0.24131164;-0.35074452;0.045884755;-0.36142233;0.038483974;0.12084429;-0.091980636;-0.09530624;-0.053748142;-0.21375018;0.039927285;-0.0029692324;0.24072382;-0.0012373994;0.2959307;-0.13726848;0.12333998;0.18180725;-0.013936665;0.15717985;-0.0033615606;0.0010484164;-0.013553915;-0.0026625195;0.18466645;0.12979072;-0.1616413;-0.31241855;-0.14449024;-0.0011780254;0.09137321;0.012252062;-0.07122845;-0.019164085;0.25262487;0.33972505;-0.13334252;-0.010833748;0.102492906;0.10284841;0.015867613;-0.017940413;-0.13312724;-0.11874275;0.009103897;0.035874445;0.0720473;-0.19306487;0.020674128;-0.1475672;-0.003969762;-0.23083891;0.009365553;0.013196776;0.011465928;-0.018828345;0.025676373;-0.005049871;0.10631203;-0.1329759;-0.20277403;-0.084759936;-0.17672391;-0.017812045;0.038649246;-0.011417863;0.03205335;0.0013399511;-0.5981462;-0.013733505;-0.16456449;0.3052238;0.014285063;-0.0017278467;-0.017132547;0.35281655;-0.4487274;0.017284712;0.00765031;-0.03349681;-0.18662497;-0.060233403;0.10135858;-0.26645312;-0.39676815;-0.058586482;-0.011705261;0.23298739;0.013758082;-0.005887917;5.4417396e-05;-0.093637146;-0.0072298157;0.26912588;0.27033377;-0.0044748466;-0.1144757;0.072560206;0.0024290762;0.0147860525;-0.0043781167;-0.0833864;0.15927972;-0.17379633;0.047432337;-0.039571658;-0.2366991;0.012520973;-0.023848265;-0.02345608;0.08547249;0.08699302;-0.039595958;0.31442848;-0.17552984;-0.10473124;-0.42764682;-0.2776259;-0.36057335;0.11204003;-0.053506467;-0.011920597;0.17042163;0.048116367;-0.015925732;0.01018935;0.015530183;0.2044448;-0.00096156966;0.016175857;0.00801585;0.089058496;0.0035034942;0.029904855;0.039899085;0.10714206;-0.0147755155;0.14588624;-0.017622061;0.0009943283;0.1384308;-0.002917779;0.041296218;-0.017354622;-0.3327146;-0.013786507;0.29641357;-0.085965425;-0.07680964;-0.42503542;0.22534505;-0.13292685;-0.114712216;0.028565798;0.17150767;0.06258539;0.18209249;-0.013371529;-0.020162778;0.008200908;-0.065732025;-0.26609504;-0.37876454;-0.1200421;-0.0016970491;0.008662896;-0.2243427;0.0011373681;-0.29291928;0.20763217;-0.09191263;-0.03658053;0.14074792;-0.3338061;0.13820207;-0.12823652;-0.05900402;0.0075937607;-0.01589492;0.03062598;-0.0036276376;-0.029954437;-0.009669126;-0.14863779;-0.12296858;-0.0058237016;0.025093932;0.0034761042;-0.37577584;0.012779185;-0.049179528;-0.0008605274;0.0018396032;-0.1847525;-0.3453404;-0.14748573;0.1529148;-0.0096425945;0.18639514;-0.39508206;-0.10836073;0.1154387;-0.027494412;-0.23385204;-0.47187054;-0.2538376;-0.16288196;0.019541139;-0.24263488;0.10674915;-0.004618192;0.031346172;0.16509539;0.0118329385;0.014877396;0.1827564;0.10681205;0.0016146946;-0.062944025;-0.0054021683;0.070197396;-0.10788284;-0.01735976;-0.08729442;-0.0029362775;0.09496526;0.032255687;-0.003330323;-0.31524855;-0.09645345;-0.26392052;0.05256823;-0.011119982;-0.16507548;0.07431021;0.012161769;-0.015786659;-0.042496487;0.010194746;-0.07661803;-0.0054345718;-0.0063510174;0.046575148;-0.09182357;0.002807155;0.0043455437;-0.0137170805;-0.09360566;0.019730162;-0.24014886;0.18778683;-0.14555505;0.018670697;-0.007166494;-0.007373799;0.012189087;-0.006523594;-0.44629857;-0.06606008;-0.020023411;0.1897901;-0.043998353;-0.20638664;0.0056162598;0.011102847;-0.02634677;-0.17395191;0.016065799;0.097263254;0.03942474;0.044289384;-0.009075237;0.05504762;0.026332043;0.3296777;0.08286012;0.16445845;-0.001734229;-0.1422932;-0.0015133602;-0.020046609;0.008824901;0.16148496;-0.0374946;0.12062446;0.08599556;-0.22460933;0.2619177;0.010919884;0.24127668;0.116568364;0.0097861625;-0.28677255;0.123246334;0.00639292;0.09093732;-0.42644453;0.01215553;-0.07805579;-0.13164485;-0.0092810225;0.0023761275;-0.16862504;-0.28644845;0.023976156;-0.18104759;0.25806746;0.010620537;-0.20005156;0.0032572364;0.020724365;0.058273204;0.14464544;-0.015769396;0.000466285;-0.15193798;0.009348247;-0.048004188;-0.08762435;-0.052488342;-0.043262176;-0.013650978;-0.10532476;-0.011662426;-0.25499028;-0.31272963;-0.09711053;0.0046810145;-0.038988136;-0.22791506;0.4490845;-0.13892907;-0.191946;-0.03297248;-0.015903605;0.013153227;0.016894715;0.01743224;-0.1993296;-0.23408182;-0.003366664;0.1159227;0.3933896;-0.006983465;0.011767712;-0.20442115;0.036503453;0.3472151;0.022553595;-0.0173279;-0.008602779;-0.08495479;-0.043684807;-0.014398944;-0.016414402;-0.029403238;-0.0028878597;0.021454142;0.13817726;-0.003915178;0.16921441;0.2182647;0.005123855;-0.12113312;0.21317346;0.002345736;-0.13854612;0.17279483;-0.00671927;-0.058361456;-0.5142432;0.0041952347;0.09004198;-0.012146784;-0.008523096;0.07212303;0.18514147;0.041828413;0.12101914;0.2830074;-0.00084233884;0.03412107;-0.15024342;-0.13332136;0.0009014214;0.1802602;0.0035545721;0.050998665;0.32148725;-0.08994959;-0.00937006;0.028442556;-0.014670155;0.24978808;-0.009756264;0.2809473;-0.0686823;-0.020259973;-0.013857562;0.00077598495;-0.32456142;-0.022817662;0.01017089;0.32255208;-0.20374963;0.20177574;-0.087569125;-0.0817391;-0.0024032847;-0.0059666634;-0.10228377;-0.12463889;0.22316538;-0.00050540175;-0.004486519;-0.0032684922;-0.01682461;-0.17553452;0.012116795;-0.009191823;-0.012945122;0.40369;-0.016604798;-0.015539637;0.022764953;-0.0888323;0.26730654;0.11488402;-0.0025663185;-0.008697644;0.05224843;-0.11733061;-0.08124563;-0.006020972;-0.23286103;0.07102651;0.22103788;-0.058493827;-0.17185703;0.0040395358;-0.0036227307;0.0047114096;0.0028393823;0.008106558;-0.0755523;0.003186769;-0.08574111;0.005230108;0.09155699;-0.021903966;-0.26025444;-0.016123397;0.12051483;0.020370662;-0.19964236;-0.010814207;-0.009656609;-0.0044765435;0.01139744;0.35548362;-0.024963362;-0.066439934;0.0022252775;-0.002401498;-0.0059253126;0.12685089;-0.29931512;-0.06744837;-0.020921513;0.08792091;0.119239576;0.484902;-0.0075538587;0.024286278;0.2625438;0.026568325;-0.059260793;0.16451915;-0.029307086;-0.10131897;0.20795797;-0.0411289;-0.0062169465;0.008452339;-0.3199771;0.28867745;0.30254918;-0.10441612;0.0072688255;-0.006018495;-0.0012630798
0.010162756;-0.051526412;0.05759888;-0.0132269105;-0.018948704;-0.29732677;-0.0056649414;-0.015422953;-0.23319595;0.14128801;0.008149827;-0.008395238;-0.06418095;0.0767941;-0.2341212;0.0050291647;0.09182215;0.049428713;-0.009886607;0.03643324;-0.087339096;-0.013189251;-0.13851956;-0.011844988;-0.13600634;0.23791781;0.32744187;0.058922146;0.0080237705;-0.120177634;0.020097045;-0.19929075;-0.22364546;0.04451127;-0.0016879318;0.009846234;-0.041145828;-0.014650235;-0.10916521;-0.1580631;0.078116424;-0.17874119;-0.1531793;0.08038235;-0.00035638388;-0.46208483;-1.0673311e-05;0.12940244;-0.3327234;0.007286468;-0.50614554;0.009005849;-0.030090591;0.0320956;0.13849477;0.11929978;0.27677503;-0.118280366;0.27283078;0.11187937;-0.294744;-0.11119224;0.102949694;0.023742879;-0.006696138;0.012546031;0.00035897136;0.2580378;0.043531347;-0.018471034;-0.013373747;-0.07050237;-0.25426608;-0.24256317;-0.018024197;0.023476724;-0.02150541;0.1700353;-0.05857735;-0.107622616;-0.058829315;-0.3040568;0.13355054;0.010803542;-0.15049478;0.08147936;-0.23575532;-0.013691762;-0.17609148;-0.044724077;0.13349386;-0.03515351;-0.07338553;-0.13893586;-0.39664716;0.009148863;0.0075264107;0.3195407;0.016152717;0.38469142;-0.0695202;0.02407737;0.16035534;0.015687194;0.27532458;0.005055824;-0.010724352;-0.009759753;-0.0061034323;0.14150776;-0.096920215;-0.081015766;-0.20803574;0.0072762338;0.005948369;0.085275166;-9.1773225e-05;-0.075283684;0.006295601;0.018280385;0.14760078;-0.17129165;-0.0085043125;0.13942099;-0.03860103;-0.010279473;0.015958589;0.13827153;-0.24479938;0.0025282633;-0.07628431;0.19273464;-0.24691002;-0.024706531;0.03916135;0.0131986365;-0.15210027;-0.0065588723;-0.020916125;-0.02513496;-0.05299406;0.009950032;0.014089509;-0.10457253;0.054760743;-0.09158015;-0.054850895;0.059027296;0.03720067;-0.17179528;-0.2640671;-0.08373251;-0.013260752;-0.55490583;0.017464979;-0.1622888;0.18983482;-0.0042325477;-0.008640354;0.0041931286;-0.031025711;-0.23084994;-0.008677521;-0.012394499;-0.28818282;-0.32273188;-0.033420775;-0.039217703;-0.1703905;-0.30162802;-0.076891705;0.26507995;0.27955317;-0.08318302;0.0041175084;0.008794399;0.03425192;-0.00033143902;0.29521936;0.064260736;0.015681388;0.046600167;-0.013597746;0.12756257;-0.008156266;-0.0014406735;0.03241935;0.27296272;-0.28686652;0.12085108;0.099250436;-0.19942422;-0.00913785;0.01607923;-0.22644542;0.041075565;-0.11265127;-0.09407873;0.20342962;-0.14409985;-0.07229482;-0.19054718;-0.14555252;-0.046819273;0.4063519;0.040552266;0.0075959573;0.24683958;0.19050702;0.017329352;-0.013910888;-0.01687624;0.080198735;0.00023150485;0.0038660113;0.004885514;0.18306035;-0.0011857472;0.058803633;-0.0049531804;0.02074744;-0.0542018;0.09532795;-0.03199032;0.005066024;0.074438855;0.013706014;-0.0018268543;0.0057290555;-0.40709955;0.006980854;0.03910798;0.08181927;-0.18257323;-0.14179079;0.6020178;-0.03896297;0.03793887;-0.017455647;-0.085672885;0.116357535;-0.1466409;0.020264626;-0.12090956;-0.0033515622;-0.051544826;-0.08709266;-0.5752218;-0.23394655;-0.010880632;0.0038862142;-0.366938;-0.20977448;-0.175488;0.322122;0.22178622;-0.005168844;0.03691877;-0.44482207;-0.09216405;-0.42048508;0.21743086;0.1277143;0.0019993987;0.15072371;-0.0028983108;0.11724345;-0.00424139;-0.02529697;-0.049915873;0.10937906;0.106048554;-0.010793443;0.080475084;-4.234962e-05;0.01701606;0.13999937;0.0021601606;-0.19303294;0.1783618;-0.15957838;-0.019606348;0.0030400648;-0.014226878;-0.29994726;-0.12970454;-0.091386676;0.124886155;-0.065416135;-0.31505254;-0.02678463;-0.2596253;-0.0034249397;-0.31160134;-0.020899242;0.014967606;-0.044791147;0.11475188;-0.011273359;0.009700444;0.033319265;-0.009179395;-0.0047228113;0.00040420846;0.004180976;0.234334;-0.17981341;-0.08173396;-0.2776946;0.25838107;0.028682878;-0.02350121;0.030778615;-0.30183515;-0.05205117;-0.17817539;-0.06764728;0.0069895117;-0.21657825;0.08495074;-0.023792397;0.05491755;-0.030529609;-0.016125137;0.07413573;0.017858269;-0.011821101;-0.011858395;-0.15321223;-0.0037670196;0.068135396;0.015033769;-0.121207915;-0.0093501825;-0.13092956;0.02060088;0.033845406;0.10174421;0.008688597;0.13654795;-0.009984724;0.032688517;-0.25178957;0.18901515;0.016509486;-0.18845057;-0.17309254;-0.10267144;-0.12498936;-0.001508553;0.02076155;-0.25012994;-0.007920797;0.06959476;-0.058451783;0.1376823;0.0010368526;-0.09058265;-0.16846061;0.30574405;-0.1248073;0.061180543;0.006339085;-0.4407965;-0.019244127;0.01932581;-0.015481938;0.0481832;-0.08695141;0.038473684;0.17612548;0.023287537;0.116395175;-0.0059458464;0.31774405;0.30406657;-0.015733277;-0.3531771;0.23572634;-0.010932214;0.22728866;-0.38434204;0.010849916;0.013839358;-0.23744383;0.0064725685;0.048676334;-0.28652683;-0.04820842;-0.013728985;-0.23438938;0.2534588;-0.01774495;-0.29363227;0.0063903676;-0.17921928;0.04420935;0.121103056;0.01220097;0.017610129;-0.21948901;-0.19943625;-0.008599917;-0.07558118;-0.075809486;0.14469643;-0.25807488;0.04152746;0.0126085775;-0.18600881;-0.1476439;-0.02936026;-0.010037549;0.0016260787;-0.22115642;0.5243511;-0.06434724;0.1382016;-0.23400256;-0.356875;-0.0032887503;-0.01884592;-0.020793896;-0.058056112;-0.1628748;-0.0039028605;0.059766445;0.35868472;-0.09111149;-0.0050250445;-0.13205639;0.1445088;0.19960603;-0.009112605;0.02690291;-0.014454927;-0.021972787;0.00266376;0.019343602;-0.00082346145;-0.13124096;-0.017021867;0.16123597;-0.055212393;0.005486478;-0.016906021;0.2823938;-0.0043121562;-0.06834141;-0.036877252;0.0003764304;-0.23268251;0.12889153;-0.104071654;-0.23091283;-0.41065907;-0.07713204;0.103955634;0.007104695;0.0075528566;0.24836133;0.14576927;-0.037663106;0.055273417;0.4092803;-0.009616458;0.0127416765;-0.10780088;-0.15804015;-0.0096778665;0.15892379;0.0065384824;-0.2541399;0.056101225;-0.1366722;0.0018366934;0.07391039;0.016536674;0.12969133;-0.01719745;-0.011053472;-0.16670918;0.016709568;-1.7020029e-06;-0.007555822;-0.25808865;0.0193618;0.005672466;0.5100012;-0.14650162;0.33588263;0.039645284;-0.22586186;-0.023671532;-9.569717e-05;-0.0520735;-0.07322454;0.09455759;-0.00025980535;-0.01007547;-0.12946135;0.0279412;-0.2547804;-0.0028539367;-0.0026207825;-0.008798813;0.15346617;0.0067318305;0.01174207;-0.015857518;-0.24930353;0.030670939;-0.02261378;0.010458618;-0.014266823;0.11188747;-0.07659544;0.1745266;0.010280033;-0.18886144;0.023220489;0.11168678;0.0026927309;-0.07961645;0.0030940755;-0.07408895;0.012534377;-0.014120968;-0.11076946;0.03656805;-0.050045963;-0.05967369;-0.0017581978;0.20302197;0.0071532214;-0.24546987;-0.030945353;0.04022621;0.054431744;-0.20851685;0.000938559;-0.008759242;0.007604282;-0.018640101;0.06650947;0.015617382;0.041325428;0.012551776;0.015506651;0.05929;0.11012222;-0.34878427;0.019313456;0.00096182985;-0.20150082;0.06346737;0.003914528;-0.0012115436;-0.019732634;0.2796215;0.19272858;-0.17804003;-0.1207;0.025812067;-0.22971453;0.21035111;-0.07122418;0.002749305;0.24216142;-0.3171779;-0.00243967;0.20742494;-0.19581623;-0.0071967454;0.0045472644;-0.08108002
-0.001784032;-0.017760405;0.05455586;-0.006448329;-0.0007392182;-0.24928926;-0.0006925268;0.017131438;0.060522437;0.030544305;-0.011550102;-0.011932108;-0.37057084;-0.075903885;-0.033824842;-0.011243537;0.09056542;-0.023302808;-0.0071973987;-0.02436159;-0.23269197;0.02475679;-0.20140535;0.12437853;-0.17144765;0.18977429;0.20298351;0.15485172;0.010560001;0.021279683;0.30100513;0.15672633;-0.07173594;0.13156138;-0.010457365;-0.009311369;0.12175053;0.1288816;0.11689326;-0.23369382;-0.030341178;-0.14717571;0.007953584;0.2668404;-0.023196436;-0.2654546;-0.04282334;0.20367853;-0.23294468;0.008205512;-0.56615454;0.0033549955;0.13889506;0.041338142;0.28239602;0.30661714;0.31363216;-0.09327483;0.21336354;-0.11726612;-0.26368192;-0.12077052;-0.01168564;0.0029383628;-0.012754876;0.0009343627;0.01929149;0.14426671;-0.021214742;0.01774249;0.008840395;-0.12885484;-0.293395;-0.049486846;0.011092878;0.0031108907;0.022892678;0.012410192;-0.23308782;-0.056224495;0.21521942;-0.3882199;0.13362509;0.0029026344;0.001400988;0.053260185;-0.3591897;0.008102384;0.118475154;-0.14148822;0.22329766;-0.078008555;0.0049650962;-0.21133988;-0.19300197;-0.046756987;-0.014123103;0.2508286;-0.01560346;0.43473846;-0.16294968;-0.33153188;-0.10738189;-0.00993715;0.4147925;0.004750643;0.0076869032;0.0086928;0.009343803;0.1566498;-0.19838913;-0.08635939;-0.27215886;-0.054448407;-0.0050501204;-0.054452162;0.002939055;-0.18015674;-0.015840173;-0.09043794;0.09406873;-0.09119522;0.018478448;0.06236273;0.09501818;0.0049558217;0.012696043;0.2186113;-0.17418718;-0.008692022;-0.053142227;0.1506684;-0.0039047007;0.008287753;0.17430563;-0.014407284;-0.44809127;-0.008896125;0.022898417;0.013592617;-0.06840082;0.18468714;-0.01443895;-0.0027889798;0.008276978;-0.08740935;-0.0696584;0.1268627;-0.01447781;-0.3442037;-0.31197634;-0.0535701;0.0063394173;-0.49953455;-0.020782916;-0.18284406;0.33253396;-0.012521937;-0.01277468;0.0011448608;0.047164086;-0.014620087;0.0133862905;0.016561892;-0.37772486;-0.20431858;0.072759345;-0.12597193;0.00603368;-0.1069044;-0.21199232;0.15046309;0.08250147;-0.0641403;0.0044333604;-0.0058070365;0.027778659;0.0031931156;-0.14978793;-0.14944752;-0.016978985;0.040763237;-0.061132237;0.03084069;-0.0008607068;0.009857188;-0.046510603;0.075065814;-0.4594848;0.027888449;-0.23564059;-0.120901346;0.014234188;-0.0017251325;0.07234856;-0.05640259;-0.18018141;-0.0132402275;0.18666373;-0.15425518;-0.021742761;-0.04667348;-0.018645024;-0.1343036;0.3278425;0.068634175;0.00015828051;0.36853015;-0.00025926353;-0.016807962;0.013482819;0.03376568;0.02591504;-0.00033637474;-0.010391733;-0.00049962837;0.14590615;-0.012535812;0.16341305;0.14995885;0.053890813;0.009530277;-0.03725728;0.051136192;0.005707846;-0.1536685;0.0075593144;-0.16999534;0.008828634;-0.35108724;-0.0072665866;0.059410598;0.06630166;-0.19223912;0.16452391;0.39529163;-0.23301703;-0.10872354;0.0043887068;0.124952145;-0.0717303;0.11382524;-0.01433287;-0.09751295;0.021000259;-0.011065913;-0.24169788;-0.40727147;-0.08531089;0.00742523;-0.010636819;-0.18559822;-0.051846694;-0.16839348;0.28292173;0.26951477;-0.06866156;0.41633022;-0.11486887;0.4248243;-0.41160306;0.20776123;-0.02481073;0.0038289097;0.041921735;-0.0016817698;0.25199327;0.017442368;-0.0416161;-0.18058269;0.26268396;0.15807863;0.00818015;-0.0824423;-0.006430593;-0.025677633;-0.106436834;-0.015815407;-0.11967614;0.42408437;-0.16080995;0.12183325;-0.0044638678;0.13915701;-0.2388919;-0.14368825;-0.26835886;-0.034125984;-0.08224493;-0.35030475;0.064514495;-0.15510206;0.006672836;-0.2302291;-0.04811447;-0.0067046336;0.017325519;0.1431756;0.008802863;-0.01437911;0.0899617;-0.42724696;0.013167326;-0.03229384;0.0010903234;0.59432095;0.024679882;-0.19543801;-0.27328438;0.033865776;0.07961892;0.0016613848;0.08260414;-0.225411;0.014565233;0.0040154248;-0.010973669;0.0027233178;-0.038043372;-0.10617797;0.0046914425;0.048479833;0.12158411;0.01645993;0.010454848;-0.014572621;0.004952863;-0.011973047;-0.14411163;0.01574231;0.27783957;0.009824938;-0.030004743;0.0044765063;-0.049760647;0.007958759;0.044487596;0.015828611;-0.010358277;0.11734041;0.016299143;-0.019060131;-0.1385034;0.16349547;-0.03709369;-0.4281504;-0.23269919;-0.13110511;-0.00775525;0.009828637;-4.3387e-05;-0.20647556;-0.0074505056;0.12259136;-0.24275301;0.20236102;0.014171082;0.13366096;-0.06762877;-0.018347684;-0.28861666;0.29127932;-0.0035344406;-0.3546634;0.019429829;-0.010069731;0.00836473;-0.036842678;0.041515686;0.07090556;0.24736275;0.054636568;0.041573253;-0.014130061;0.39949378;-0.17226866;0.0012963057;-0.25030681;0.11902301;0.008046642;0.20630898;-0.14887233;0.014169304;0.12742047;-0.24650145;-0.00592964;5.9415186e-05;-0.039214082;0.038442962;0.004877448;-0.18525968;0.38613224;0.0313107;-0.16804494;-0.010522463;0.120637454;0.09637613;0.1813062;0.003028281;-0.017275063;-0.13846351;-0.19245337;0.1242704;-0.0656869;-0.1424693;-0.032777574;-0.301116;-0.0808531;-0.019791067;-0.14668101;-0.34033585;-0.041913006;0.012698165;-0.060835797;-0.20953737;0.24940686;0.10233906;-0.00862214;0.23072286;-0.52294654;-0.00053563545;0.0017306504;0.034808956;-0.02264522;-0.2778641;-0.006770534;-0.01928366;0.069834106;-0.07852166;-0.00092349737;-0.07002507;0.12984858;0.09022461;0.0035264862;-0.020873625;0.023884341;-0.09427576;0.18587168;0.0053986823;0.0101822475;0.08542837;0.0534044;0.03132375;0.08439338;0.0054688524;0.09645138;0.23483992;0.007506797;0.2635163;0.020185716;-0.014258709;-0.37827224;0.02159835;-0.17097023;-0.22213952;-0.34399295;0.22002177;0.15343758;-0.009524113;-0.014677931;0.42457196;0.005909078;-0.07708333;0.05789214;0.22052434;0.018024972;0.0028420738;0.12371172;-0.14262398;0.001633247;-0.19362858;-0.0057372614;-0.45358363;-0.109966174;-0.055514738;-0.053333197;0.2318873;-0.0147870425;0.34861296;0.02418607;-0.083852895;-0.24688181;-0.014885166;0.007228087;0.10001898;-0.13759322;-0.0033090485;-0.0018583245;0.51452625;-0.14533108;0.17122918;0.077414446;-0.12285914;0.017908545;0.012737693;-0.07602134;-0.05005006;-0.0960658;-0.012022842;0.009143029;-0.28343067;-0.014680838;-0.4208663;-0.006003948;0.0070115738;-0.012252589;0.058266077;-0.014870339;0.013582155;0.0049869907;0.019315982;-0.057197664;-0.14605449;0.030087551;0.00689972;0.15048231;0.004178704;0.3132847;0.006950901;-0.09598579;0.009035303;-0.052860256;-0.016687913;-0.13721077;-0.010348887;-0.17900953;0.0004999309;0.0068064923;-0.11419795;-0.018173467;-0.013531121;0.11308745;0.008110235;0.11250926;0.015373156;-0.09419293;-0.19778454;0.08519487;-0.054181308;-0.27517667;-0.007937116;0.011780697;-0.00619375;0.0021060533;0.2687078;-0.019359518;0.060150236;-0.012509797;-0.023166593;-0.060361896;0.20467217;-0.3616939;0.08484687;-0.0076893433;-0.090393364;0.105358005;0.063500546;-0.006385382;0.0026893793;0.17510438;0.13122846;-0.17510724;0.044770446;-0.0010061603;-0.09624985;0.047575932;-0.061455123;-0.013020737;0.12396337;-0.40263975;0.054803226;0.22039731;-0.24851148;0.004399811;-0.0104064215;0.0052861217
-0.00016477163;0.105201185;-0.17059338;-0.0040104743;-0.002833854;-0.2955853;0.0043380307;-0.012895703;-0.097025044;0.14120656;0.009014487;0.0057758354;0.04271265;-0.06992438;0.11248365;0.0120492345;0.08118369;0.09977123;0.026750367;0.013429581;0.17208388;-0.017636426;-0.31047502;0.06101929;-0.02320131;0.15171729;0.22402133;0.16091597;0.0033144625;-0.03282333;0.23687422;0.19051237;0.19097279;0.18374375;-0.0021175048;0.0005734168;-0.1388292;0.11710714;0.090992175;-0.3179727;-0.0423561;-0.12675874;-0.004129937;0.19175571;0.015894553;0.07079551;-0.10169058;0.07705564;-0.22311138;-0.011508019;-0.4464627;0.014431207;0.13438095;0.0010843626;0.24945463;0.10562246;0.35946128;0.016791515;0.106521234;0.028306484;-0.055367835;-0.21277095;-0.33923873;-0.041185725;0.014424916;0.0048172143;0.092918485;0.09301245;-0.07064079;-0.009197007;0.0056579714;-0.00537218;-0.3011583;0.054281544;0.0036412599;-0.02069687;-0.001282332;-0.15075704;0.06703104;0.05902133;0.16620606;-0.3830637;0.002084331;-0.019791756;0.19549665;-0.019630894;-0.25014713;-0.017407479;-0.19634148;-0.09380119;0.29772732;-0.27959606;-0.13193378;0.024129959;0.09381309;-0.021970317;-0.0005437364;0.0027057196;-0.0030003823;0.41532624;0.10301225;-0.12957269;-0.20072992;-0.0021515046;-0.05099155;0.01081086;0.000769546;-0.009149327;-0.0036685646;0.12172697;-0.09300101;-0.08517711;-0.06622548;0.104491584;-0.0076746996;0.067869335;-0.005828688;0.083630055;0.02751849;-0.18136236;0.046915412;-0.014572806;-0.0051091765;-0.05603742;0.011245116;0.0035138845;-0.015988695;0.041405797;-0.22489987;0.0023188305;-0.13095301;0.30187133;0.061731502;-0.0049585104;0.0860485;0.0028593456;-0.34515932;-0.021244027;-0.021468926;0.006548571;-0.42504284;0.026989065;0.015430118;-0.12373615;-0.065920755;-0.4287871;-0.32783264;0.124942355;-0.0031972495;-0.47408813;-0.2810503;0.17393054;-0.009210153;-0.2765907;0.008590028;-0.3197171;0.28898862;0.005175908;0.005407295;0.002051376;0.077899866;-0.034501687;-0.016691448;0.006926282;-0.2203043;-0.19843194;0.08863635;-0.06093633;0.05484956;-0.13749519;-0.23283805;0.2825911;-0.20180751;-0.13997312;0.003162602;-0.00039556136;0.1493044;-0.014839088;-0.014225011;-0.09722633;0.0121020535;0.12397843;-0.089268304;-0.122093;0.012402395;0.011543254;-0.027831925;-0.050245572;-0.18824156;0.076969735;-0.08966973;-0.18975173;-0.013442132;-8.638002e-05;0.0865565;-0.07089951;0.0749668;0.0030137768;0.25076085;-0.07629942;0.07987684;-0.1819879;-0.110906355;-0.11233274;0.32756916;0.2325626;-0.00050026283;0.4587662;-0.21536706;-0.0029707653;-0.016565662;-0.01741089;0.014851753;0.0010528074;-0.0039622593;-0.005424803;0.18104184;0.010267308;-0.06896971;-0.07315971;-0.039250717;0.06503045;-0.11015416;0.09054732;-0.009628037;-0.21129636;-0.021389067;-0.2667464;0.0057990486;-0.3656722;0.004601917;0.16389017;0.0013564586;-0.23014957;0.223689;0.16125429;-0.22825031;-0.070192635;-0.0034836938;0.21582824;0.017660525;0.039619766;-0.00027055896;-0.20031214;-0.012181106;-0.013366816;-0.09025914;-0.2916535;0.06700842;-0.00880631;0.0044469624;-0.27022716;0.091014594;-0.20092317;0.33107123;0.12204911;-0.003405695;0.26661056;-0.47319892;0.28212136;-0.1316156;0.10284202;-0.0074761542;-0.012180668;-0.024608886;-0.005948431;0.18894073;-0.021505518;-0.07215398;-0.1984663;0.037926365;0.035567064;-0.004358882;-0.099456124;0.004514788;0.044606034;-0.1697475;-0.0034052825;-0.09711564;0.24224043;-0.014883613;0.2970057;0.007308163;0.19449899;-0.22411805;0.008540837;-0.38574946;0.09128181;-0.051211465;-0.3489374;-0.035069715;-0.1492365;-0.010549942;-0.15955141;-0.12695765;0.008012403;0.04063983;0.1446208;-0.0013135298;0.0037523864;0.3501031;-0.31085548;-0.006593669;-0.13428521;-0.007012195;0.4694894;-0.1624276;-0.23518327;-0.1715387;0.09420213;0.18166673;-0.01685723;0.0126674;-0.35121134;-0.06925801;-0.013422696;0.16354264;-0.006013113;0.054921377;-0.39805305;0.009915146;-0.014377402;0.17320462;-0.0034788912;-0.14095962;-0.0019634718;0.009841717;-0.013780144;-0.085738875;-0.0076789516;0.10704726;0.00013288646;-0.037367426;-0.018943153;-0.18652095;-0.07884186;0.17766196;0.080651395;-0.0017439388;0.093724675;-0.0060379286;-0.0042732037;-0.12408571;0.2887814;-0.16614623;-0.27373844;-0.2781521;-0.13780865;0.08426866;0.01813222;-0.0020283589;-0.21205264;-0.019995289;-0.15776977;-0.2865182;0.33523732;-0.008738248;0.013580513;-0.045602527;-0.13688602;-0.2744666;0.11561592;0.005294518;-0.32507876;-0.018945495;0.021218825;-0.010629484;-0.16133855;-0.15698764;0.05466732;-0.1565873;0.054600935;0.22425461;0.014365951;0.42781413;-0.24477895;0.013392947;-0.403307;0.02185243;0.0010243469;0.29432037;-0.34377113;-0.009953236;0.14898425;-0.051573895;0.016858285;-0.008890443;-0.010067199;-0.17471083;-0.0032169935;-0.19848265;0.6248662;-0.021834057;-0.26111323;-0.010581612;0.032139495;0.022995882;-0.020653209;-0.011063254;0.025873639;-0.32112262;0.09904245;0.08932946;-0.028131563;-0.1831332;-0.27464315;-0.2657495;-0.110646434;-0.00031922892;-0.12515911;-0.013708458;0.0093541825;0.011112995;0.028498292;-0.26721585;0.23543581;0.108957365;-0.0425459;0.09023713;-0.29782933;-0.0021944658;-0.004911515;-0.024887403;-0.3212034;-0.27737638;0.009486784;-0.12107347;0.012860814;-0.033042934;0.012205795;-0.0781761;0.22780423;-0.067918524;-0.009132502;0.00948813;-0.003067894;0.035960384;0.24529205;-0.0053680376;0.08342132;-0.014420326;0.057903975;0.0896453;0.1020309;-0.013741287;0.2322966;0.09259048;0.0077723614;0.037102234;-0.14759403;0.01970679;-0.19529308;0.109579615;0.09121339;-0.37734634;-0.24935493;0.19203104;0.031226816;0.00903807;0.0035780424;0.3711437;0.02553983;-0.15259589;-0.05144527;0.07438957;-0.019734992;-0.01892935;0.022666106;-0.3354936;-0.008861458;-0.3796714;0.009554224;-0.34619442;0.041319057;-0.09439052;-0.20416336;0.19031766;-0.0017635744;0.33268315;-0.008574763;-0.047323924;-0.09551967;-0.0041654953;0.009396153;-0.037688315;0.24969763;-0.003492589;-0.012358761;0.4946325;-0.049381547;0.15848264;0.012235993;-0.29381898;-0.015988763;-0.019081952;-0.1549594;-0.14500548;0.00077408296;0.008199599;-0.018015714;-0.16407625;-0.0016688822;-0.17345679;0.01028225;-0.00392994;0.073443495;-0.12425156;0.0076978006;-0.023217848;-0.0024525437;0.102974996;-0.22121117;-0.17080747;0.0054653585;0.0012354668;0.0632626;-0.17522867;0.16352268;0.0037625337;0.0043884027;-0.03925011;0.15279551;0.007131914;-0.17773573;0.004685629;-0.09152688;-0.013158691;0.19718859;-0.06838963;0.026187386;0.097840354;0.16176522;0.0090650115;0.052753244;-0.019117236;0.10393471;-0.36629295;0.18049134;0.10112692;-0.02744252;0.027116025;0.0018238045;0.00721813;-0.0035661752;0.21583717;0.16633466;0.16474104;0.011151362;0.012773454;-0.23969291;0.097548805;-0.35885316;0.11073034;0.028265903;-0.220823;0.29819453;-0.011135545;0.013412224;0.019996364;0.037895657;0.43367684;-0.27620086;0.17523645;-0.025328994;-0.0047593084;-0.058170266;-0.14223649;-0.02016604;0.18378012;-0.14849447;0.10914149;0.16955118;-0.38293675;-0.0082231425;0.0083293775;0.015435298
0.0034191578;-0.09260258;0.07971024;-0.003936498;0.0062167333;-0.037138965;0.008293404;0.008889066;0.039729442;0.13882118;0.0036385567;0.041740213;0.049051363;-0.030990947;-0.10098951;-0.017779771;-3.095661e-05;0.06894402;-0.0118413735;0.0047708014;-0.041132323;0.010604234;-0.051281635;0.012729778;-0.2007931;-0.11794974;0.028923566;0.13099715;0.017403971;0.024971332;0.21313946;0.15463264;0.20949908;0.040485185;0.008611924;-0.002566472;-0.025697926;0.08006524;0.32025596;-0.3594898;0.042960003;-0.119301766;-0.030592736;-0.07719894;0.0029575701;0.30139032;-0.11186015;0.030082665;-0.26520237;0.0135726975;-0.37522635;-0.012563616;0.34245864;0.11754682;-0.03981609;0.027657133;0.15272354;0.0033021385;-0.16946925;-0.10002506;0.0017961975;-0.15059686;-0.048193;-0.011929252;-0.019505566;-0.014851068;0.15662746;0.0013254014;0.10414074;-0.0067472337;-0.012168447;-0.26169586;-0.2839522;0.2201419;0.0013921963;0.026515033;-0.0033711581;-0.12491083;0.24405253;-0.002057563;-0.0128351;-0.20719445;-0.17462997;0.017949358;0.15075198;-0.022544762;-0.16536312;0.03191784;-0.12128034;0.06475018;0.23804289;-0.21488559;-0.09955881;-0.10095287;0.15395452;-0.042454876;-0.002266;0.06392624;0.0055312435;0.5258384;-0.006043379;-0.23771487;-0.32678235;0.011262013;-0.22662333;-0.016529262;-0.008156203;-0.0075290105;0.0018308071;0.32214117;-0.043167345;0.0266773;-0.16301295;0.12539816;-0.0057715145;0.04740958;-0.0060399645;0.10798999;-0.016623711;-0.13144633;-0.14849629;-0.21557315;-0.0014236091;0.04750923;-0.018058015;0.00035953283;0.0024674204;0.050563782;-0.40877306;-0.0067692534;-0.23948173;-0.05286512;0.20170352;-0.0042520394;0.32792604;-0.004803101;-0.29202017;0.016316721;0.020277979;-0.001182696;-0.32895872;0.09593057;-0.021054182;-0.045168657;-0.08193566;-0.31675705;-0.23813568;0.06344749;-0.012710716;-0.48794484;-0.12382422;-0.05275497;-0.008691251;-0.32705587;-0.019760631;0.008413945;0.23818706;-0.0018717246;0.031207629;0.0018709573;0.12821698;0.11061628;0.005630696;-0.0007094203;-0.3287561;-0.36788613;-0.036086123;0.13705757;0.0843787;0.2315835;-0.22518799;0.26366684;-0.23234163;0.028020425;-0.0011578404;0.0045239395;0.12705557;0.012769846;-0.26279104;-0.1937805;-0.016697846;0.042966176;-0.17059861;0.13178936;-0.014217928;-0.019666635;-0.035218194;-0.0015025662;-0.29458866;0.07470034;0.23114452;-0.064462565;0.009460929;0.017823696;0.28362498;-0.0983253;-0.12551443;-0.113380425;0.21914905;-0.25214747;-0.04557325;-0.03212845;-0.1639669;-0.17671071;0.1547203;-0.10677024;0.0047571855;0.2298566;0.11887024;0.0072356034;0.024760045;0.0074890116;-0.029023837;0.00010622853;-0.0006396295;0.007462835;0.2643633;0.019753687;-0.045867104;0.10407575;-0.14440632;0.20270105;-0.24857366;0.32413423;-0.0012512932;-0.02170492;0.010669019;-0.32453915;-0.010165562;-0.23190632;-0.02160761;0.080344535;-0.2145727;0.04029382;0.071043365;0.058733035;0.093841776;0.015127196;0.0038484624;0.38734537;-0.055120304;-0.048515104;-0.0063895304;-0.15068121;-0.009057781;-0.016070526;-0.38742855;-0.2979457;0.14625634;0.0046662674;0.005242128;-0.1697943;-0.13896643;-0.21142036;0.63619983;-0.22833619;0.055454157;0.22366062;-0.13204838;-0.027709212;0.07398986;-0.11476494;-0.06693478;0.013301595;0.15253824;0.014664266;0.1915992;0.017611701;-0.12253099;0.06733406;0.11612378;0.23216826;0.0024050737;-0.10067671;-0.0070629953;0.03978356;-0.33422613;0.0015629056;0.041236345;-0.025200518;-0.09858982;0.33645976;-0.0113015305;-0.15784451;-0.14498238;0.09141593;-0.4615067;0.100985296;-0.13179228;-0.38258156;-0.5026231;-0.07111908;0.0152651435;-0.021741286;0.046741817;0.005753412;-0.16399941;0.13582507;-0.01019114;0.0059742834;0.5271174;-0.26401252;0.0021590223;0.18638168;0.00440892;0.21745457;0.027676566;-0.1468457;-0.32521504;-0.22891565;-0.30742905;0.011708353;-0.03152017;-0.23779958;-0.08707433;-0.15650074;0.1572999;0.0044401446;0.1058465;-0.29720178;0.0015286057;-0.056198735;0.09804111;0.019904777;-0.039722487;-0.006247439;-0.016505953;0.0017035925;-0.15974799;0.014559458;-0.06285411;-0.019653447;-0.25738996;0.019301621;-0.0867381;-0.18982339;0.1167643;0.07314837;0.0019698825;0.1148812;-0.006911168;0.038320605;-0.08253773;0.19599451;-0.08160159;-0.29192546;-0.24751684;-0.07162312;0.12314387;-0.023977509;0.006979906;-0.023456808;0.021059081;-0.056207556;-0.23797914;0.11680392;0.0046615223;-0.0019218324;0.15464297;-0.11191696;-0.034917034;0.15343376;-0.0034706108;-0.12708952;0.010812075;-0.010553746;0.00987877;-0.0011164056;-0.13213465;-0.08720193;-0.15946163;0.16234127;0.06861821;-0.011563987;0.38848683;-0.3140816;-0.012068528;-0.1661868;-0.017919682;0.0048060096;0.31117103;-0.33055773;-0.043690026;0.21608002;-0.3293404;-0.011682061;-0.023816494;-0.18076655;-0.016585678;-0.01664956;-0.42704427;0.5083309;0.0009850409;-0.42153293;0.017930346;0.018065277;0.18533397;0.04309001;0.0125649255;-0.024175791;-0.102696374;0.00011742123;0.048650168;0.08519733;-0.26299492;-0.47436392;-0.010291875;0.09861595;0.02869894;-0.06038915;0.067264505;-0.06481146;-0.030276222;0.08590357;-0.034251913;0.17746007;0.112402245;0.24924812;0.079207964;-0.102596976;0.010655005;0.0010694789;0.0020599572;-0.47132534;-0.022244198;0.00269058;-0.29007646;0.071312495;0.023988973;-0.019572768;-0.3181652;0.124850124;0.023336055;0.015983937;0.0036659066;-0.0074479626;-0.024161182;0.09066476;-0.010227434;-0.076907925;0.16010784;0.022779418;0.19707337;0.27906078;-0.00496083;0.277964;0.17436433;-0.03123919;-0.10507162;-0.12047895;-0.009066642;-0.3441371;-0.11779885;0.095527284;-0.39443672;-0.16495289;0.11282798;-0.097043306;0.005272999;0.013430758;0.28750154;0.1707624;0.08976334;0.15296455;0.17151122;-0.007783446;-0.023496984;0.14903194;-0.38294494;0.005357731;-0.16905087;-0.011399348;-0.10120249;0.34397775;-0.084761165;-0.16549881;0.22645502;-0.0047465237;0.18165885;0.007134308;-0.15519978;-0.08781932;0.0039804718;-0.012471521;-0.0239988;0.089752205;0.0061894297;0.0016852396;0.33226943;-0.021419648;0.047327224;0.13831995;-0.32197717;-0.002939763;-0.00041969193;-0.16564563;-0.22586295;0.0017213726;-0.0014623657;0.01753927;-0.0822858;0.016700272;-0.21330005;-0.0035459348;-0.011050142;0.10351873;0.0005264972;0.0025962119;0.002538241;0.006509121;0.094594926;-0.23662293;-0.41089648;-0.009087318;0.0101634525;-0.05689989;-0.38498697;0.22243446;-0.014015478;-0.19788072;-0.07694193;-0.22441989;-0.062178828;-0.05861361;-0.008404719;-0.16834575;0.00044338897;0.38773102;0.03468823;0.0666862;-0.06671349;0.016558217;-0.019753918;0.18668523;0.009902255;-0.15102467;-0.20238353;0.12893389;0.033636294;0.0687419;-0.0313045;-0.0068789255;-0.008111197;-0.008042033;0.05403194;0.0746148;-0.20909488;-0.017536547;-0.009675033;-0.16367869;0.060940374;-0.15950797;0.13682248;-0.021887843;-0.29052877;0.047521528;-0.23939778;-0.011508925;-0.017315775;-0.0652063;-0.010352318;-0.17472711;-0.07656123;0.013554808;-0.18572822;-0.11450159;-0.08768519;0.025375757;-0.024781058;-0.010239635;-0.075311214;0.009265253;-0.43372983;-0.008633791;-0.01855782;0.1252413
-0.0077545634;-0.30943206;-0.18768363;0.013113111;-0.0031848273;0.05255639;-0.008372588;-0.0155308815;0.084836856;-0.030035807;-0.011882359;-0.083430834;-0.21290332;-0.019990759;-0.13421984;0.010174844;-0.092555255;-0.21781135;0.009836703;0.029646756;-0.3921838;-0.0020002902;-0.08681632;-0.12274259;-0.122520834;-0.16066374;-0.07993816;0.008467707;-0.049276162;-0.13652505;0.1745728;0.2435161;0.06778024;-0.047318157;0.00026678323;-0.012051241;0.17302223;0.13772814;0.29884598;-0.4161512;-0.046063866;0.05089057;-0.081227064;-0.10897146;0.017339034;0.30686954;-0.027460897;0.044070363;-0.11769786;-0.0059987134;-0.073197685;-0.008092318;0.14050353;-0.16146658;-0.16098872;0.17763972;0.4233159;0.24207012;-0.3662906;-0.009981929;0.008259938;0.054928165;-0.29541546;0.06385824;0.01585385;-0.006932234;-0.022722142;0.06669078;0.20852442;0.006551716;0.009792637;0.044616602;-0.21598561;0.123507634;-0.012581409;-0.015289115;0.011037893;-0.22945921;0.2920652;-0.024680039;-0.054402057;0.0631374;-0.40003833;-0.009562392;-0.0795639;0.016641801;0.01738758;-0.008523921;-0.39378953;0.14530669;0.3684222;-0.03683173;-0.1321398;-0.19096318;0.027445354;0.020294674;0.010863833;-0.031227117;-0.003395834;0.43075547;0.191926;-0.18102483;-0.40644744;-0.0063213883;-0.18310808;0.0015678479;0.017279172;0.024464913;0.0053016115;0.16329585;-0.15302487;-0.17822704;-0.14257611;0.098149925;0.0042257383;0.058488484;0.0029911154;0.120962314;0.016519932;-0.017345378;-0.046251807;-0.106660366;0.002293575;-0.06233839;0.22027011;-0.011028775;0.012159719;-0.029841907;-0.15407638;0.0148159955;-0.32223174;-0.055870827;0.06456021;0.0022543536;0.09921357;0.0037719472;-0.20940048;0.013139259;-0.03630456;-0.012342099;-0.009387602;-0.21535492;0.010594737;0.08971188;-0.06499817;-0.44823468;-0.07304917;-0.042298835;0.008321857;-0.24477342;-0.31809878;0.038755707;0.047744658;-0.15306678;0.03505838;0.011583681;0.1311324;0.003056183;-0.03279396;-0.008878127;0.24622162;0.021339351;0.0029570383;-0.0128039345;-0.16191505;-0.23571555;-0.17323709;0.07069639;0.13541235;-0.010409711;-0.12747215;0.041371696;-0.11437502;-0.040327746;-0.00031564207;-0.0032706847;0.17058222;-0.009134429;-0.087109774;-0.18848068;0.014076918;-0.0026227161;-0.007107701;0.022914344;0.0140985595;0.024463974;0.06792848;0.17773765;-0.22241013;-0.18601374;-0.13117598;-0.033669274;-0.018124294;-0.0107610915;0.042561367;0.05870737;0.14806852;-0.20310897;0.28615388;-0.12191744;0.12193895;0.09392756;0.13128622;-0.17596178;0.019006357;0.21331188;0.012475516;0.20364028;0.026689228;-0.0018208829;-0.020878786;-0.01001269;-0.16089803;0.007795889;-0.0002478271;-0.016526803;0.17293054;-0.023346437;-0.06422944;0.1711358;-0.15775648;0.24144357;-0.14376408;0.27478546;0.007966497;0.13024156;0.0011515014;-0.30798686;-0.009963495;-0.06431724;0.02185099;0.012180482;-0.24094933;-0.09539014;-0.08770745;-0.042695157;0.018819626;0.11451199;-0.016043825;0.12375912;-0.010221655;0.17430113;0.010173988;-0.15145777;-0.0113472985;0.04640416;-0.44551432;-0.18816411;0.03854696;-0.01035449;-0.0048757945;-0.15791655;-0.08704674;0.0041448316;0.5143756;-0.09297925;0.108335786;-0.090406425;-0.1952805;0.17307997;0.10419306;-0.08404763;-0.06647059;-0.0032125707;-0.027179657;-0.008917683;0.12439852;0.0038464414;-0.14964323;-0.0726986;0.047529757;0.19002105;-0.0049872966;0.050430685;-0.0039998544;-0.04823753;0.046302557;0.019845981;-0.05752159;-0.21604145;-0.30834153;0.12597977;0.017131923;0.059662305;0.19554318;0.31374225;-0.43347526;0.070652455;-0.11057917;-0.14549357;-0.56872356;0.0456106;-0.029461114;-0.0084350975;-0.10487412;-0.014325076;-0.2951409;0.097884014;-0.0060769473;-0.0057552904;0.6472004;-0.112089604;0.0050599216;0.085095935;-0.011586138;0.20421746;0.07282662;0.028662162;-0.3480246;0.008562733;-0.046936866;0.007954895;-0.030036025;-0.21552578;0.092660986;-0.17006232;0.24684519;-0.00253229;0.033906426;-0.44151938;0.0032972558;-0.027961535;0.32612786;-0.0075438754;0.1266074;0.007871874;0.006828965;0.052045047;-0.21150549;-0.006410591;-0.013750381;0.005047095;-0.19669197;0.005806422;-0.108578116;-0.17499395;0.09314184;0.0337041;0.0054390132;0.0074083693;-0.011098913;-0.020465815;-0.117235534;0.019020773;0.25134286;-0.28392535;-0.24502335;-0.21931937;0.013975606;-0.0032662677;0.0010002389;0.06911424;-0.0044850037;0.08635809;-0.15899576;0.24231787;-0.0033728457;-0.1578361;0.22860898;0.30331486;-0.0222904;0.09524485;0.004471955;-0.127424;0.0056116157;0.0058820117;0.0032652814;-0.016654337;0.07886861;0.009257833;-0.29935944;0.12430382;0.13567466;-0.005805833;0.17025597;-0.23199241;0.007742002;-0.14428884;-0.016965095;-0.0044849063;0.29371417;-0.2421101;0.018967282;0.025883762;-0.4486025;0.0043486757;0.026660034;-0.2918543;0.07476522;0.026016826;-0.38453928;0.32130712;-0.010144833;-0.5219745;0.0023215648;0.012040445;0.16011168;-0.07207538;-0.005624855;-0.0106959995;0.017529078;0.011492398;0.06340273;0.113295466;-0.41327256;-0.35713673;-0.05045361;0.23049945;-0.022440124;0.03376929;0.047264393;-0.053643443;0.012750455;0.0005361842;0.11593129;0.2352344;0.0026640624;0.3016173;0.082238756;-0.23149051;-0.014066884;0.010482324;0.024794873;0.056881852;-0.14411384;0.0017392482;-0.25865725;-0.140704;-0.18704909;0.012245363;-0.24298686;0.2589126;-0.16549276;-0.014227582;0.0055423;-0.0010002439;-0.2644331;0.1736869;0.018450543;-0.056096412;0.26438802;-0.017786274;0.07423783;0.22697085;0.012700004;0.44297615;0.16582072;0.023704715;0.10050398;-0.06638706;-0.00049069925;-0.043525424;-0.07095184;-0.008043807;-0.36843678;-0.1708813;-0.01994231;-0.026126845;-0.00268014;-0.024205206;0.32713085;-0.01583528;0.060863316;-0.04842565;0.13804024;0.01267574;-0.004677348;0.031755116;-0.3834736;0.0046599656;-0.10182997;-0.0029798453;-0.0049689966;0.052708935;0.027984153;-0.053573817;0.009434111;0.0075933496;0.20898917;-0.023208087;-0.17712939;0.028141199;0.0057286946;0.012188065;0.06791747;0.054296028;-0.014564386;0.004086221;0.19156373;0.006573018;-0.06927953;0.09375233;-0.086191185;0.011012353;0.019359328;0.10021529;-0.05789769;0.18920244;0.015416197;-0.009866053;0.12309368;-0.011226853;-0.12650543;-0.014221357;0.0040582204;0.007715124;-0.044835094;0.0037150197;0.012898269;-0.010238056;-0.005427662;-0.263659;-0.442566;-0.024640199;-0.0069280383;-0.07752913;-0.20510231;0.15013015;0.015385921;-0.112995744;-0.013114543;-0.123263106;0.016528854;0.0036458888;-0.012549177;-0.2763213;0.012915005;0.24352257;0.13007452;-0.24532266;0.008525675;0.12961632;0.006483538;0.027403042;-0.0084310705;0.09607398;-0.07540346;0.2170618;0.02497595;0.42490962;0.0064104446;0.0025181754;0.00185382;0.015087871;0.066624686;0.0020518077;-0.21193358;0.0103623355;-0.008278823;-0.06322988;0.12437752;-0.0596402;0.25474513;0.023530027;-0.37741658;-0.003800158;-0.23825325;-0.00045092494;0.013692113;-0.07274034;-0.043143068;-0.17915407;-0.1993117;0.015956951;-0.025652532;-0.14872126;-0.06833402;0.0052864575;0.11367651;-0.089036584;0.26672563;0.25376612;-0.42065245;0.011115114;0.009852731;0.08758857
0.007469243;-0.20307602;-0.24504682;0.0005328912;0.022347307;0.09560325;0.0028291892;0.0106218355;-0.06739582;0.032523822;-0.0018684894;-0.054520942;-0.3159937;-0.042273257;-0.04289938;0.0026538556;-0.047105595;-0.16749798;-0.022027306;-0.0078919465;-0.15084973;-0.007126626;0.059281603;-0.08298218;0.06930022;-0.33124387;-0.15798074;0.18799965;0.00029450931;-0.012174871;0.16332145;0.13628837;-0.14941695;-0.077488735;0.0024355685;0.017178962;0.2742515;0.076889224;-0.159565;-0.43344334;0.011302147;-0.021963686;0.033680163;-0.24529631;-0.022278422;0.10858644;-0.05788917;-0.03520594;-0.2833223;0.004105735;0.18023658;0.00025846052;-0.20644805;-0.29335353;-0.0731016;-0.02072046;0.31295952;-0.06955185;-0.1830784;0.39424026;0.11962118;0.016473012;-0.17438814;-0.07182819;0.0081945015;0.0072018867;-0.029272508;-0.03272499;0.006057961;0.00492747;-0.008589185;-0.095272705;-0.116439946;-0.053413812;0.0060410686;-0.003598975;-0.003981565;-0.0956827;-0.05397544;0.006290097;-0.049925078;0.0733947;-0.24539572;0.019207476;0.09059459;0.12706098;0.1209315;-0.03626002;-0.10036071;0.028600229;0.3667446;0.2009596;-0.20421007;0.26663047;-0.16142067;0.011276174;-0.03995057;-0.054780293;-0.003291002;0.43054137;0.068185605;-0.30840224;-0.17333183;-0.013795851;-0.0632217;-0.0069891014;-0.021653686;-0.00789233;-0.016338274;0.20054545;-0.14449221;-0.33022246;0.0018540812;0.19231753;0.0066577666;0.21725915;0.010712686;0.12502939;0.0018216558;0.18390234;-0.13221726;-0.088566944;-0.009871082;-0.060461458;0.071638085;-0.0063626175;-0.020099241;0.15665096;-0.10021183;-0.009544485;-0.25969172;-0.012749322;-0.08695078;0.011103534;-0.13108371;0.0042400653;-0.30998796;0.0030973852;0.03406721;0.0108564375;0.19438142;-0.11443864;0.002782533;-0.10537394;-0.06843994;-0.1751557;-0.08642163;-0.114272244;-0.002044115;-0.23324485;-0.32330242;-0.05514374;-0.016905261;-0.0067927153;-0.03717474;0.07683581;0.04982982;0.0051393895;0.0035425222;0.00855698;0.09329821;-0.23677817;-0.0024081108;0.014781109;0.49315542;-0.2523455;-0.22961038;0.21750993;0.04442642;0.28675058;-0.13766995;-0.075130634;0.12210488;-0.02247118;0.0047887545;0.0049577467;0.018785574;-0.006712797;-0.04920203;-0.025923444;-0.01730768;-0.19275603;-0.1277294;0.067594;-0.008126282;-0.02869051;0.0151872905;0.20940824;-0.32728258;-0.2997612;0.02936007;-0.1430432;0.009566354;-0.0044050473;0.13703236;-0.06383384;-0.039545894;0.08918493;0.26183245;-0.22982506;-0.28859174;-0.029479954;0.0976487;-0.19378865;0.12640132;0.08388367;-0.013998737;-0.007195194;-0.19590855;0.012000172;0.015878128;0.012052784;0.076835945;-0.013353586;0.0076421713;0.012896246;-0.055225965;0.01821731;-0.12645265;0.008179253;-0.27546158;0.26931623;0.018756337;-0.036563277;-0.0063712723;0.2817645;-0.0021746492;-0.31811824;0.010448279;-0.040935677;-0.004755871;0.112820625;-0.13909459;-0.26005122;-0.16098075;0.014413737;0.12174093;-0.10645924;0.014625624;0.2986094;0.25483197;0.049191598;-0.0021458797;-0.25213712;0.014724431;0.08802642;-0.2674778;-0.19354966;-0.3359086;0.017814236;0.020531235;-0.3088927;-0.03343366;-0.11594717;0.20860562;-0.09252587;0.05151832;-0.65514135;-0.19027269;0.025113152;0.16603422;-0.1497685;0.010658785;-0.0028410954;-0.15218773;-0.0060896752;0.17869216;-0.005516185;-0.1015672;-0.012080432;0.027917795;0.23377925;-0.011172907;-0.066995256;0.0040694564;0.018622007;0.060435865;-0.0040318295;-0.15423998;-0.44154045;-0.1695191;-0.021007031;-0.007096235;0.0077361986;0.2882211;-0.0017411083;-0.43878093;-0.08079996;-0.20603701;0.041273616;-0.515957;0.06503604;0.016678113;-0.07988267;-0.26591057;0.01766982;-0.15961985;0.26446086;0.02492061;0.0030700995;0.6797986;-0.30150306;-0.017215408;0.106396616;0.00071471126;-0.096390985;0.1640762;0.059078883;-0.05581972;-0.09991088;-0.05757333;0.003118591;-0.08553369;-0.34415805;0.0352963;-0.25242123;0.25865698;0.012176614;-0.043671772;-0.0947831;0.002356731;-0.061936345;0.1638757;-0.004474661;-0.04161167;0.011806213;-0.006897101;-0.04367343;-0.17231807;-0.00770434;0.07645907;0.0041035446;-0.14886098;-0.01826711;0.17661953;0.06879878;-0.007405129;-0.10942233;-0.00018113524;0.017169708;0.010388728;-0.006680563;-0.4166987;-0.16395712;0.23295443;-0.11265139;-0.29858756;-0.24353659;0.078763805;0.004704635;-0.0031382777;0.0628227;0.008110565;0.3197834;-0.16852273;0.2833267;0.0060384395;-0.27718878;0.2308428;-0.054877874;-0.17121665;-0.020210167;-0.0092083225;0.07724024;0.002791064;-0.026293214;0.0036499968;0.03226226;0.072959125;-0.20445803;-0.17796837;0.22338763;-0.063900635;0.00379904;0.17437449;0.29315266;-0.0009975553;-0.006035639;0.0020798382;0.011237538;0.28454596;-0.12561905;-0.022234349;0.27430546;-0.31450054;0.0020343815;-0.020648042;-0.23478557;0.34908897;-0.008760678;-0.52017105;0.26938295;0.01590901;-0.22675559;0.0039573815;0.10185683;0.23975383;-0.15785101;0.006380262;0.013535865;-0.04649997;0.15714183;0.068263866;0.1592143;-0.42593768;-0.25622863;0.1289783;0.27939153;-0.009804517;0.08174768;-0.009654079;-0.06327707;0.0031716728;0.14961359;0.25242102;0.2921005;-0.3395003;0.4146534;0.0014418043;-0.2883539;0.005065518;0.0024320756;-0.028478194;0.046780948;-0.37876537;7.343392e-05;-0.094345436;-0.16990614;-0.007830371;-0.009855296;-0.19843005;-0.0024072647;-0.057882745;0.01493572;-0.0029561715;-0.000106427535;-0.011571612;-0.008772556;-0.015136468;-0.08910622;0.15524477;0.017218206;0.033230223;0.10461543;-0.0033638163;0.31423354;-0.043318514;0.0036881564;0.15787254;-0.11059525;0.009747311;0.07931214;-0.1225555;-0.064569585;-0.52458394;-0.48235136;-0.3016746;0.016033607;-0.010027687;0.026563652;0.15426524;0.039328646;0.13622032;0.021757105;-0.054441847;0.023534007;-0.02589542;-0.056612875;-0.2924499;-0.0014358293;-0.2508116;-0.000305685;-0.05437213;-0.08571983;-0.027230222;-0.023987904;0.07762514;0.0016412938;0.19507162;0.011153808;-0.42967832;0.17011188;-0.0084463805;-0.029251318;0.19552112;-0.052248128;0.0138952695;0.007369932;-0.01474577;0.17771082;0.05414744;0.18621741;0.04185343;-0.013406735;-0.007460505;0.12068226;0.11270704;-0.013009693;-0.021259988;0.0029162348;0.28267622;-0.011919853;-0.057458013;0.010823513;0.011305365;-0.03419337;0.07201681;0.0072700107;-0.0097983675;0.0053138365;0.009466628;-0.025093498;-0.29409063;-0.01038642;-0.0016052595;0.046203803;-0.13802399;0.07657356;-0.016590623;-0.11310912;0.024093963;0.011216384;-0.020860158;-0.1052621;0.016310249;-0.07420651;0.0039825155;0.44009325;0.2638122;-0.50936705;0.021967346;0.23239893;-3.3166875e-06;0.08800428;-0.0051769246;0.20506966;-0.02715262;0.13082708;0.07022044;0.38192424;0.002457626;-0.015464969;0.00021994965;-0.014464417;0.2742715;-0.097437404;-0.1808305;-0.006686719;0.02235982;-0.21960004;0.19339795;0.016039029;0.15247314;-0.007671078;-0.12626964;-0.050245583;-0.17760104;0.0038324576;-0.010806944;-0.13937147;0.06797925;-0.1511632;-0.15753794;-0.018625494;0.032674555;-0.10692053;-0.19158483;-0.02383507;-0.19272698;-0.4045253;0.11578408;0.19872768;-0.26394448;-0.0026473142;-0.0037834446;0.16154677
0.0027330841;-0.027402379;-0.25497282;-0.012977593;-0.025587393;-0.053689826;-0.003481565;-0.0026634717;-0.45258915;0.16853681;-0.0057522696;-0.078035;-0.00048314565;-0.18311273;0.057932988;-0.0014221709;-0.019728638;-0.16779205;0.020356089;0.010824353;-0.099199794;0.00035045366;-0.025025863;-0.17148909;-0.055683285;-0.038240433;-0.31424212;0.22288282;0.019893784;-0.11366613;0.0326006;0.14950824;-0.34066278;0.026783453;-0.009200042;-0.0046938662;0.21175322;-0.01085749;-0.0880777;-0.17181854;-0.01820651;-0.04007848;0.25161827;-0.080813795;0.0002772827;0.2826171;-0.05957817;-0.17957105;-0.057411805;-0.013149668;0.014675917;-0.002397202;-0.30981335;0.088189684;0.17226739;-0.056063507;0.21058951;0.15387347;-0.31918195;0.34161514;0.0083945645;-0.18945844;-0.04344957;0.022565542;-0.00464011;-0.0057492154;0.007094759;-0.022598967;-0.01491309;0.0076430654;0.0013311647;-0.12176208;-0.11666177;-0.06921984;-0.006235862;0.0016040192;0.000268094;0.04172338;-0.27942953;0.05722489;-0.0510189;-0.055537757;-0.054536812;-0.014713654;0.06449717;0.21643898;-0.07169065;-0.015316003;-0.15997915;0.07753985;0.3229926;0.17815799;-0.22303113;0.3360984;-0.04668402;-0.029316422;-0.037843585;0.22721165;0.015282118;0.27821526;0.042302996;-0.14157943;-0.14687335;0.006887814;0.10276938;-0.006811217;0.01526949;-0.0019545858;0.011004421;0.11818751;-0.06855343;-0.2367071;-0.10815962;0.19834593;0.00034192475;0.1386307;0.0064880946;0.1701156;-0.02675892;0.009405413;0.016848138;-0.05895193;0.004977714;-0.16487373;0.23914006;0.0012656918;0.025873221;0.20134011;0.03292255;-0.0050065964;-0.17462654;-0.033839367;-0.08914257;-0.008055273;-0.2955415;-0.016070705;-0.3238635;0.0076237414;-0.019058574;-0.010638724;-0.021241916;0.03794385;-0.00064112217;-0.08338676;-0.25825545;-0.19304964;-0.2564688;-0.039326765;-0.000121546895;-0.1304274;-0.25755382;-0.19039342;-0.021269795;0.21520723;0.033616107;-0.30848926;0.13370582;-0.0033557408;0.000451081;-0.0047572516;0.34364188;-0.28913718;-0.0006945913;-0.010691424;0.5159851;-0.2766047;-0.26867068;0.22742431;0.29269764;-0.11401807;-0.2103072;-0.2975466;0.09412279;0.06214101;-0.038257424;-0.0034294957;-0.09302352;0.004656033;0.0482383;0.1488239;0.003320584;-0.31771344;-0.38980606;-0.10641078;0.005759979;0.015847534;0.03515395;0.22958636;-0.14811578;-0.2211236;-0.1150042;-0.10059006;-0.018166795;0.0019601888;-0.13220552;-0.12761202;0.03447289;0.18544963;0.1779236;-0.13205534;-0.23617314;0.14690942;0.042553958;-0.2219025;0.13593002;0.10643346;0.0066776606;-0.01631142;-0.017582359;0.0062131453;0.00023694917;-0.025324874;0.040472645;0.011313393;-0.0014684759;-0.019567551;-0.06136969;-0.015954737;-0.03416572;-0.14392148;-0.2719511;0.24924807;-0.0017775024;-0.1382387;0.0135884015;0.12501325;0.00931964;-0.25806588;-0.007136688;0.017855616;0.023968592;0.15036742;0.15794514;-0.21559791;-0.043824222;0.037422787;0.10265287;0.06286562;-0.0029181056;0.142028;0.025619842;0.065354355;0.008008506;-0.22795002;-0.0027151208;0.020170357;0.07223425;-0.2318746;-0.5106563;-0.0051112995;-0.041071933;-0.33491957;0.18257529;-0.17604665;0.1679404;-0.08838493;-0.02984586;-0.41126502;-0.12731247;0.16914158;0.25670475;-0.033115152;-0.122089475;0.0016025112;-0.08202781;0.02005532;0.15601741;-0.018090721;-0.017111985;0.18299538;-0.06451219;0.24761845;0.016341245;-0.11962627;-0.003326625;-0.022086803;-0.015135819;-0.0034589083;-0.12818137;-0.34066457;-0.09081856;-0.16859609;0.0004988356;-0.068999685;0.12783843;0.15040833;-0.7245261;-0.08981911;-0.13627025;-0.01426935;-0.38406628;0.03786797;0.0025857969;-0.1349238;-0.18447787;-0.01768012;-0.116352215;0.21483594;-0.020005519;0.0016622549;0.56553364;-0.108625464;0.016136574;-0.095565595;0.020657372;0.029200537;0.07504732;0.15296336;-0.12960137;-0.11862916;-0.04155091;0.005980862;0.15157373;-0.17891963;0.061569076;-0.15029797;0.21166699;-0.016602384;0.24328758;0.034578465;-0.012277949;0.0069539836;0.15092334;-0.0016867018;-0.2016775;-0.008064581;-0.0017392786;-0.014662904;-0.27284932;-0.0042559817;0.036952656;-0.0107112145;0.120111115;0.000195236;-0.017283142;-0.024705604;0.0035756945;-0.088670984;-0.008778129;0.0035334572;0.0057795704;-0.004991455;-0.31855384;0.14778513;0.16087805;-0.34569627;-0.021791197;-0.38902545;-0.07555074;0.008388761;-0.013554858;0.011868221;-0.011036137;0.3866172;-0.054124564;0.071136825;-0.013033124;-0.34697935;0.051015586;0.08877369;-0.21040624;-0.15896888;0.007419284;0.03007823;-0.020594876;0.008669644;0.018599607;0.10009214;-0.18928176;0.0921823;-0.14666416;0.04860033;-0.04547903;-0.009204578;-0.021303693;0.45138115;0.0053139585;-0.09621173;-0.2328786;-0.003327777;0.32789072;-0.00017146362;0.033820923;0.14023982;-0.3366764;0.002867667;0.03307002;-0.2534719;0.31643197;-0.005425062;-0.36723995;0.18454278;-0.006010292;-0.26905778;-0.018789534;0.081625625;0.2809513;-0.052309398;7.243852e-05;0.00023207457;0.103667825;0.033066995;-0.05262169;0.057976045;-0.2571183;-0.05157651;-0.1552492;0.42810646;0.009120762;0.19430497;0.17263006;0.032281183;-0.00032722775;0.007835975;0.16296141;0.4036357;0.11360916;0.3897437;0.05449515;-0.13506223;-0.020666918;0.0096416;0.0036109032;-0.119609915;-0.24418141;0.0031089943;0.034111626;-0.440572;0.058077812;0.0063914866;-0.084794365;0.07059378;0.032339264;0.008199677;0.006668389;0.01733986;-0.22060494;-0.024282193;0.0100598065;-0.021003826;0.059255973;0.048997745;-0.035330743;0.04231788;0.004682958;0.22140484;0.035688918;-0.031162824;-0.12986265;-0.018146813;-0.011013944;0.050179355;-0.106989235;-0.11710727;-0.37100127;-0.44682688;-0.27357978;-0.03603581;0.0058462173;-0.013480611;0.09410314;0.11898568;-0.06028759;0.040127438;-0.015464222;-0.027555319;0.022906356;-0.100427955;0.0029601157;0.012093697;-0.102391526;-0.0029371162;0.09583783;0.035534002;-0.08170015;-0.23925439;0.113229066;-0.0036710692;0.2455979;0.00044434174;-0.37633634;-0.07837902;0.01799786;0.02035721;0.0037346075;-0.13937926;0.002331298;0.0075981813;-0.03755583;0.07421103;0.054283347;0.0028070211;0.04148825;0.01619804;-0.0109215;-0.010476608;-0.0730794;-0.09063842;-0.003851791;0.0051467507;-0.100018956;0.015126908;0.07313406;0.003818721;-0.0005054081;0.05729888;0.025724225;-0.007032039;0.0043298197;-0.00079123105;-0.04542635;0.06490108;-0.13194561;-0.051836144;0.005471632;-0.08023511;0.050828468;-0.10478882;0.008853613;-0.38326052;-0.073084235;-0.08857704;0.015959831;0.08291233;-0.0031477958;-0.32489654;-0.012868527;0.362298;0.2765525;-0.5270493;0.08291646;0.25149864;-0.0016684963;0.25417596;0.010256727;-0.040159144;-0.07573818;0.23060077;0.10328005;0.29888204;-0.0148900915;0.009249318;-0.001902769;0.019598912;0.19733894;-0.13815786;0.029386858;0.0050037773;-0.02463619;-0.32675898;0.20287305;-0.101629734;-0.15665928;-0.021429922;0.16160373;-0.008273795;-0.38170886;-0.0010300213;0.015190115;-0.18091546;0.04956654;-0.06531511;-0.012258788;0.0071033267;0.06641434;-0.10151152;-0.040059768;0.009249378;-0.22983229;-0.20299307;0.22917598;0.06391744;-0.3568677;0.0014482455;0.009780165;0.22763006
-0.011276224;-0.04180194;-0.24562463;0.0067691975;0.009770538;-0.050363008;-0.001829733;0.00022377339;-0.48835713;-0.0013804191;0.01242472;-0.018658286;-0.1817334;-0.02848914;-0.07321055;-0.0015801907;-0.273925;-0.18798055;-0.0015340095;-0.0001958532;-0.14064784;0.029468853;-0.3433391;-0.06923432;0.08442525;0.06327098;-0.35726893;0.10474956;-0.026333429;-0.1110761;0.0061036684;0.18454203;-0.23612767;-0.11121689;0.0020041168;0.0091518;0.097986795;0.11831113;0.03110523;-0.18114749;0.010445993;0.03208828;0.38799536;0.00827999;0.009653058;0.22707364;-0.12635721;-0.3823885;0.023896905;0.011387403;0.0074956366;-0.0046957037;-0.54372483;0.108075395;0.285811;5.3830314e-05;0.2762248;0.11185121;-0.17252496;-0.06262703;-0.08033061;-0.036176264;-0.31706515;-0.10806936;-0.0065495158;0.007893409;0.0375865;-0.055604834;-0.21556272;-0.007368948;0.0033700482;-0.13279946;-0.11872777;0.07669134;0.011104438;0.0017082624;0.0123670995;-0.038071327;-0.2554541;-0.1323259;0.034610245;-0.033501673;-0.12124641;0.012366895;0.10131984;0.18199863;-0.03722278;0.010825023;-0.05988647;-0.08252561;0.2568704;-0.06442559;-0.13355505;0.25643262;-0.03950601;-0.055634428;0.028265255;0.08648582;-0.011640073;0.2196593;-0.043995652;-0.23738194;0.072313;0.013935256;-0.11031793;0.002993243;-0.006774321;-0.003351854;-0.0045341593;-0.08049603;-0.02568464;-0.1758287;-0.040685017;0.11538288;0.014041735;0.118615195;-0.01728443;0.16395795;-0.008328968;0.0633474;-0.012257623;-0.15251838;-0.0050166114;-0.25103343;0.20343979;-0.0018376332;-0.024405926;0.34386373;0.06578988;0.007670127;-0.11297687;-0.41911787;-0.057910185;0.011623035;-0.19874333;0.014237197;-0.49491334;-0.01023128;0.0059252665;0.01761444;-0.015982583;-0.01999749;0.002909924;-0.2927339;-0.13152474;0.022119964;-0.1338584;-0.21830708;-0.0035795744;0.14150314;-0.19339742;-0.38838723;0.045307998;-0.12669118;-0.030180002;-0.15153046;0.29114252;0.007617257;0.013899661;0.008459608;0.081319205;-0.29713142;0.006853932;0.011499951;0.36471012;-0.15843983;-0.11586766;0.00935834;0.39544117;-0.071407594;-0.16169941;-0.3360648;0.121914804;0.008339565;0.015546827;0.0065916404;0.13012972;0.0015233889;-0.08999927;0.29158437;-0.012655467;-0.18323278;-0.4730993;-0.012350978;-0.007142968;-0.0036252278;-0.09301298;0.1765517;-0.059422623;-0.29250956;-0.2616395;-0.18085112;0.01913598;0.006023149;-0.020446103;-0.035460643;0.18920207;0.22037055;-0.20180006;-0.094404176;-0.051288184;0.15525492;-0.00696927;0.10542212;0.013436856;-0.12035205;0.009527803;-0.13472861;0.32730526;0.005036479;0.006412163;0.023765579;-0.04788501;-0.01577049;0.00089392206;0.024358373;-0.10245197;-0.0015509938;0.078154825;0.15376742;-0.28813106;0.024375947;-0.31735983;-0.0061339075;-0.01696204;0.28930846;-0.008831588;-0.30695397;0.0070933355;0.12549436;-0.01069529;-0.017684795;0.21041669;0.1450788;0.01850524;0.04049009;0.10608352;0.014274134;-0.015137663;0.15028004;0.10288255;-0.11952651;-0.0117331175;-0.20532346;-0.014638781;0.074158385;0.191017;-0.043171708;-0.42851177;-0.0135280825;0.024346726;-0.15299979;0.20792395;-0.17254554;0.03776776;0.16277575;0.071407534;-0.12746327;0.06348745;0.24609944;0.053366557;-0.051186327;0.056590434;-0.0057103713;-0.14489418;-0.020531954;0.00988062;0.01675731;-0.031646825;0.24040522;0.050362144;0.22850278;-0.018976277;-0.15007307;0.011147275;0.10803156;-0.099227;-0.007746544;-0.0959447;-0.3168167;-0.10977947;-0.1676107;-0.008862864;-0.39825082;-0.08447164;0.23595321;-0.6053294;-0.021415932;-0.12735336;-0.15649979;-0.3799401;0.17627533;-0.008692427;-0.24110082;-0.166787;0.0052994946;-0.1397081;0.15451908;0.009613218;0.0033292642;0.27234954;0.03457633;0.0072113033;-0.279732;-0.025127929;0.08768061;0.04367999;0.06763381;-0.16611934;0.13621761;-0.02485352;-0.031385604;0.1958942;-0.3003606;0.18548775;-0.27230528;0.15473494;0.002286306;0.21381754;0.124348015;0.0011122432;-0.0024726393;0.14120747;-0.012562524;0.14668629;-0.020386064;0.011246292;0.026549144;-0.34474644;0.0042125615;0.0712501;0.013501162;0.23537552;0.020613821;0.07862482;-0.001188778;-0.1427219;-0.066730425;0.0078599965;0.18520384;-0.024045272;0.023948662;-0.22275154;0.093521215;0.18363428;-0.46804807;-0.16119331;-0.25887614;0.009067597;-0.00949052;0.012095901;0.0248423;0.013993758;0.4168968;-0.06666361;0.23541224;0.012564774;-0.4847217;0.070830904;-0.12260792;-0.06904974;-0.18872772;0.009875152;-0.02702407;0.012819705;0.017449988;-0.020752124;-0.03641959;-0.3480439;0.11889763;-0.1610658;0.2079494;-0.12700555;0.023707462;-0.0010839255;0.46273765;-0.013061174;0.014788738;-0.035346285;0.006407012;0.019554513;0.19174092;0.027988756;0.13143788;-0.53637;-0.015078893;0.028396152;-0.37360448;0.22008552;0.0051824152;-0.07142729;0.20159566;0.0073765097;0.02330034;0.007092119;0.0724159;0.3139952;-0.010598243;-0.00031390367;0.0024296069;0.19328779;-0.11305659;0.1417525;0.04831183;-0.20542534;0.10373956;-0.105017364;0.25738403;-0.01425592;0.23946483;0.102733456;0.036044;-0.00066404877;-0.013380022;0.2617992;0.19747646;0.037965924;0.3794812;0.066954195;-0.19967414;0.017904714;-0.0015400212;-0.0011915987;-0.22963019;-0.2997266;-0.0062096124;0.0020689045;-0.41233414;-0.15707701;0.00627245;0.0926218;-0.108152255;0.095237225;-0.013961905;-0.0040328815;0.0024628395;-0.14000803;-0.081473365;-0.0050281486;0.011543593;-0.13435973;0.01579134;-0.15733045;0.119577534;-0.007283464;-0.121884644;-0.11353096;0.03517521;0.16667296;0.030576805;0.01021066;0.034181785;-0.30644313;-0.096963175;-0.2459552;-0.28875905;-0.18377551;0.13641165;-0.003933567;0.017458363;0.17205681;0.016037282;-0.06835268;0.18121774;0.15097392;0.018845722;0.032687683;-0.12736276;-0.17913339;-0.022671504;0.11408143;-0.0006219897;0.15504812;-0.24114753;-0.16654466;-0.1582906;0.06345648;0.02173428;0.10272232;0.0062528574;-0.15227152;-0.21683152;-0.015738895;-0.008711576;-0.12600175;-0.34897634;0.0018589898;-0.016803725;0.07982016;0.1990027;-0.22583725;-0.06114936;0.07545268;-0.007010532;0.012528853;0.09985749;0.028855767;-0.37020525;0.0072593973;-0.0092009865;0.044181243;0.0025062386;0.19098489;0.014550865;0.0017117321;0.14366826;-0.11778824;-0.0048173675;-0.001129803;-0.010808161;-0.021964759;0.2835137;-0.17388943;0.07261965;0.0010287097;-0.032083325;0.010708949;-0.12803823;-0.013333465;-0.22586642;-0.04881891;0.02758088;-0.03637014;0.051374488;-0.0009155008;-0.37886584;-0.0015696264;0.24058312;0.06253129;-0.41873598;-0.028831866;-0.046689678;0.0019297785;0.2571722;-0.022700498;-0.09831704;-0.15185648;0.15750739;0.05859603;0.34742036;0.012580767;-0.0018471818;0.0070892978;-0.0104053235;-0.05070916;-0.00043863166;0.06258721;-0.015861724;0.01617425;-0.38268185;0.16904901;0.044579167;0.1287036;-0.012424299;0.37548795;-0.09623845;-0.27745637;0.006748213;-0.013512069;-0.40076473;-0.014868261;0.21022952;-0.22420774;0.0035352982;0.35588494;-0.1798648;-0.14904416;-0.008036249;-0.31006604;-0.10127795;0.24359593;0.0026974017;-0.16453306;-0.0027349747;-0.0017097023;0.33629766
0.006796935;0.0061233453;-0.28586617;0.0044699316;0.00047370454;0.08406768;0.0032312344;-0.009932565;-0.34454757;-0.060920104;-0.0068011293;-0.01879258;-0.23389457;0.19621366;0.01018204;-0.00085128733;-0.10665711;0.022184905;-0.008842485;-0.009698575;-0.06389247;-0.026850715;-0.25428227;-0.06551708;0.09792051;0.03158564;-0.20038418;0.22571445;0.060906958;-0.082831785;-0.23317632;0.09609153;-0.062443633;0.008776336;-0.006504832;-0.0029601988;0.29926637;0.12781937;-0.095366;-0.22409983;0.013970937;0.047415264;-0.116630144;0.3434052;-0.01217067;-0.24587701;0.04018432;-0.41956002;-0.23461036;0.00024268698;0.106675334;0.0037724986;-0.5682221;0.054676346;0.12584491;-0.13066025;0.11182863;0.13194257;-0.11509285;-0.11380347;-0.17351894;0.053814918;-0.19363911;-0.13014212;-0.008965381;0.013451831;0.08975764;-0.04628584;0.062473338;0.0122504495;-0.015291539;-0.005506948;0.05626427;0.04313193;-0.012887552;0.0068841763;-0.017511522;-0.08845546;-0.20553687;-0.122064024;0.09326087;-0.25733614;-0.25344107;0.0052541196;0.21724492;0.13177706;0.009317197;0.051432025;0.03213414;0.11665222;0.32047084;0.008487232;-0.15390927;-0.11282581;0.038294613;0.021897214;-0.0077742375;0.15986341;-0.003616736;0.2355489;-0.116317384;0.2751955;0.15471487;-0.004923266;-0.12054275;-0.006523665;-0.009591705;-0.019113336;-0.010416259;-0.060119323;-0.23854078;-0.1396141;-0.056399085;0.15534367;-0.019243257;-0.13409467;0.010591649;-0.21626909;0.020833323;0.066425644;-0.04851965;0.11315284;0.023829492;-0.16843598;0.116668366;0.011016092;0.017670231;0.31241095;0.10667006;-0.008900731;0.04264478;-0.36044598;-0.17247663;0.0020716186;-0.0594309;-0.011950084;-0.4791812;0.0027071417;-0.010758054;-0.02105552;0.13988452;-0.07499907;0.00359541;-0.28751332;0.007868018;0.12333341;-0.03910034;-0.004077526;-0.0013304262;-0.13461152;0.019391164;-0.21745002;-0.025942132;-0.085843496;0.020017253;-0.24268596;0.15883514;-0.01686807;-0.013629557;0.00045710144;0.09187977;-0.4379483;-0.006591609;0.00334;0.12586057;-0.25944903;0.22646505;0.05877737;0.20555814;-0.22871362;-0.23080881;-0.3863622;0.14730553;-0.062493145;0.0031657496;-0.018333858;-0.03791727;0.005303392;-0.274438;0.20051876;0.003402369;0.033128966;-0.5316708;0.031330623;0.004770674;0.0036337823;0.005894891;0.054531753;-0.2738621;-0.12606655;-0.2700267;0.035701085;-0.009271379;0.012981215;0.107092194;0.07638591;0.2899957;0.05767007;-0.14411914;0.17413175;-0.13952407;0.14500044;-0.19295427;0.14929633;0.0047484557;0.093821496;-0.013970308;-0.08099244;0.29043123;0.0028632192;-0.0013559207;0.012567498;0.07120145;0.011174475;-0.013867764;-0.0130716255;0.020067671;0.01230188;0.08888847;0.037765507;-0.34368074;-0.07420063;-0.34526178;-0.32485723;0.0057114153;0.00016880929;0.0124761285;-0.23989247;0.01533229;-0.09608662;0.004881373;0.010890069;0.17331402;-0.014791715;0.1439975;-0.011290251;0.020885939;-0.07947197;0.012303755;-0.17280805;0.10802013;0.038987163;0.008900566;-0.15431239;0.0039557396;-0.056246333;0.2813493;-0.1986054;-0.38565853;0.008141783;-0.00965845;-0.12196197;0.16814804;-0.095837645;0.13523068;0.124519594;-0.037091687;0.10669534;-0.061017137;0.14667171;0.1027926;-0.0033178038;-0.0729363;0.007051852;-0.06367062;0.023898471;0.10165419;-0.0041714343;0.03869839;0.20355713;0.031425733;0.20570117;0.018995313;0.1653599;-0.006181977;-0.11863311;0.033864547;-0.0030772865;-0.031554595;-0.14948535;-0.08654836;-0.0029278984;-0.005246986;-0.21102431;-0.15581633;0.17851236;-0.15671776;0.16733424;-0.15118992;-0.22844799;-0.1564341;0.028690316;-0.0084011005;-0.10805744;-0.2605965;-0.009328573;-0.005546845;0.23523694;0.020550955;0.0077724163;0.22313328;0.05431912;-0.009778425;-0.2628565;0.011884136;0.23849806;0.03853061;-0.003776366;-0.093667775;-0.090306774;0.1477208;-0.011803221;0.031436834;-0.18267414;-0.17712063;-0.19911547;0.16970737;0.0048865145;0.08931433;-0.20677496;0.0092262365;-0.013399613;0.14444388;0.004687283;0.06578473;0.0076865735;0.0057303826;0.007113421;-0.101470426;-0.0054314537;-0.0330155;-0.0014942447;0.14635351;-0.02332159;0.14523287;-0.10312837;-0.24677537;0.04821906;-0.010003397;0.0012163677;0.022172187;-0.024340877;-0.2659256;-0.06478591;-0.0085400045;-0.2878764;-0.1631522;-0.35472095;-0.043365464;0.012790249;-0.017532544;-0.05794584;-0.0056523993;0.18963729;0.035897743;0.08107759;-0.0052758716;-0.51198876;-0.03077015;-0.32283252;-0.22540636;-0.36080456;-0.014020119;0.2090456;-0.005081571;-0.001849568;-0.002303254;0.04468325;-0.21185882;0.015626436;-0.04410393;0.04848234;-0.11303285;-0.018351814;0.0047909035;-0.05776307;0.0148328915;0.12842326;0.13946937;-0.014964378;-0.09080081;0.44920456;-0.048913743;0.2501089;-0.28223488;0.013350969;-0.040887408;-0.12595984;0.1372512;-0.0014629618;-0.06543088;-0.020443512;-0.00055151863;-0.005932494;0.009869707;-0.06317805;0.13247932;-0.07727886;-0.016921781;4.695852e-05;0.22439633;0.14673549;0.28746834;-0.10700881;-0.069234885;-0.052152637;-0.15664199;0.15582186;0.026153026;0.15279008;0.18075615;-0.010902369;-0.012970108;0.0029514167;-0.1412781;-0.0054850015;0.22484024;0.3475973;-0.04497756;-0.2493307;-0.0082999;-0.0069554434;-0.0053961067;-0.10234038;-0.12153795;-0.0044415537;-0.18004878;-0.4583921;-0.12371515;-0.009719874;0.13691504;-0.15512037;0.21565421;0.00029120498;-0.012117256;-0.016797729;0.01148542;-0.28905886;0.0024970854;0.057348248;-0.101008385;-0.069129534;-0.054563873;0.14048794;0.004390361;-0.10547153;-0.15315461;-0.0068957903;0.13167772;0.24669454;-0.0176465;0.28361112;-0.12880951;0.07520626;-0.045469847;-0.15127003;-0.15529701;0.0052360836;-0.008363657;-0.023707766;0.24011113;-0.08164944;0.055987995;0.14236459;-0.13364716;-0.025000935;0.0049160616;-0.11511812;-0.08963487;0.018377269;0.08349683;-0.00796619;-0.03374051;-0.0039120633;-0.21555682;-0.17798959;-0.03376065;0.00024891383;0.07337771;-0.009743123;0.026040183;0.054973137;0.0043600667;-0.0039839665;-0.24837984;-0.5547874;-0.014779109;0.0093154395;-0.0543329;0.25999862;-0.06664153;0.017266974;-0.20305648;-0.0033420916;-0.0075735077;0.14848253;-0.11882536;-0.26106206;-0.0033445766;0.007831696;-0.06459221;-0.012970615;0.20299773;-0.007330748;0.001709677;0.17454289;-0.17997165;-0.0048677325;0.0035091278;0.01564666;-0.16998738;0.26888838;-0.30975717;0.0023618385;-0.013322376;-0.23987141;-0.30529034;-0.16454995;-0.010359159;-0.35714924;-0.06319018;0.119180836;0.007525412;0.14736389;0.013480178;-0.17491356;-0.0018718883;0.3560559;0.038385786;-0.30097055;-0.055409946;-0.1312535;-0.012996333;0.3088977;0.017010473;-0.20761907;-0.30263862;0.17376915;0.014220511;0.3108859;0.014767721;0.0024781902;-0.011828332;0.015308013;-0.10979839;-0.0117182555;-0.100668535;0.021126624;-0.0056043062;-0.23495525;0.14335275;-0.27890804;0.06853338;0.010471304;0.34810576;-0.034432944;-0.23026174;0.0009799339;0.008572114;-0.3748255;0.15606111;0.2918499;-0.060996957;-0.010347787;0.23198876;-0.025821667;-0.46547538;-0.057304017;-0.2424867;-0.357212;0.009059813;-0.118605465;-0.24953254;0.008779948;-0.0115989875;0.048759703
0.0061871414;0.0982714;-0.23809305;-0.0034227797;-0.0072426586;0.26876405;0.003890927;-0.0070732697;-0.4730194;0.009017907;0.0098791085;-0.040664293;0.07054418;0.20261985;-0.06100315;0.005306867;-0.116989724;0.27411526;0.011665043;0.004290879;-0.21604437;0.012441925;-0.1255559;-0.008897016;0.26958328;0.19709243;-0.16521561;0.07992298;-0.026735837;-0.028027445;-0.19958158;0.04575213;-0.038696337;0.17739451;-0.0048112413;-0.006481082;0.13280906;0.065280244;-0.15947092;-0.16399406;-0.001372567;-0.17640556;0.041698087;-0.012021607;0.013455972;-0.23646145;0.07682761;-0.36030415;0.102636226;-0.012523277;0.11840817;0.01214758;-0.36565754;-0.035013955;0.048426185;-0.028526511;-0.0037539543;0.03593387;0.116848424;-0.25185356;-0.133496;-0.11470455;-0.164;0.031013552;0.0139075415;-0.017165925;0.04702568;-0.02340511;0.25565284;-0.016907234;0.0066941422;-0.13395268;-0.13764326;0.045031905;0.011325769;-0.010735295;0.0051096748;-0.008253236;-0.14143552;-0.1097758;0.22059374;-0.11768678;-0.47015506;-0.01323217;0.27722865;0.07130604;-0.015691254;-0.02310945;0.09244957;-0.09243208;0.39449102;0.0954314;-0.05085376;-0.28300893;0.13580415;-0.041373763;0.016795764;0.16760054;0.012449213;0.2264991;-0.28855076;0.19667546;0.21330847;0.0030294212;-0.19759601;0.007742009;0.009629629;0.031369682;0.009704238;-0.34351736;-0.14585555;-0.18987799;-0.0403912;0.20263816;0.0045395745;-0.4391039;-0.013771035;-0.17434408;-0.0063173478;0.14405125;-0.07716325;-0.00051408075;-0.021106513;-0.3158432;0.10822717;0.005206927;-0.0040864632;0.1824154;-0.012187874;0.018023307;-0.026631765;0.05546997;-0.21582012;-0.0065881284;0.16538095;0.00033364267;-0.49380767;-0.009072538;0.017837921;0.020636864;0.07880398;-0.1696011;-0.008089599;-0.35225698;-0.020224387;-0.07466428;-0.081024885;0.2346086;-0.0013398619;-0.2527161;0.09814959;-0.13786727;0.031072525;-0.08448078;-0.013710341;-0.22617325;0.071163595;0.00717906;0.021709751;-0.013252996;-0.13487965;-0.23658428;-0.0041021775;0.0017452752;0.03541338;-0.10441047;0.35934436;0.18571171;0.28084028;-0.29336858;0.10368837;-0.3449402;0.29575667;0.059939798;0.010047452;0.017904295;0.10287566;-0.005467832;-0.11585232;0.04263588;0.00431932;0.13080136;-0.2105235;-0.36052635;-0.0033835685;0.0005411905;-0.03710287;-0.31233093;-0.015117705;0.17415923;0.10127359;0.11706449;0.016514262;-0.008412094;0.20113301;0.10796654;0.0429152;0.03925375;-0.120354176;0.14836107;-0.102250695;0.20199978;-0.15843455;0.112493575;0.12968698;-0.14864604;-0.0014041829;-0.1576469;-0.014530386;-0.022674758;-0.0029718915;-0.002014845;-0.10980363;-0.008441612;0.030080754;0.019254584;0.010318236;-0.022864293;0.02706548;-0.16550449;-0.32420468;0.01049007;-0.24602486;-0.25754285;0.007687019;-0.27642387;0.007767533;0.038877644;-0.016696988;-0.14519458;-0.011382196;-0.15808156;0.16421935;0.06114266;0.060649052;-0.10549296;-0.05161124;-0.10238431;0.0062589413;0.09940127;0.15052862;0.093101375;0.0016401927;-0.14113964;-0.017707404;0.051215082;0.32956338;-0.25261486;-0.23075975;0.011889498;-0.011826189;0.039796706;0.06061445;-0.18071108;0.008582346;-0.13050808;-0.025304869;0.033837978;-0.20130008;-0.21928896;0.20123562;-0.31686616;-0.0064365338;0.0039653033;-0.15206128;-0.0069166115;0.17914797;0.0022770502;0.114947036;0.16808154;-0.08185891;0.14947678;-0.029957123;-0.14920399;0.0067107673;-0.047152106;-0.097742446;0.007338259;0.011977357;-0.06103619;-0.06568804;-0.0675045;0.009876035;0.04312226;-0.10649711;0.049888935;-0.11919069;0.12962985;-0.025379784;-0.11246832;-0.2607051;0.1224867;0.011783079;-0.12771182;-0.35321528;0.0023267353;-0.01811824;0.2881752;-0.033965353;-0.014710249;0.25061134;-0.14597079;-0.00026897565;-0.26442972;0.0056418586;0.04606329;0.02750867;0.17001384;-0.13905978;-0.14415006;0.052011974;-0.0033374608;-0.00014436289;0.043623947;0.21677847;-0.09967728;0.04355906;-0.00629322;0.1617289;-0.102797695;-0.025318442;-0.04418083;-0.07145157;0.007963286;0.2839388;0.008761895;-0.010310366;0.025372613;-0.26302105;0.01247064;0.08651973;0.004895826;0.2722457;0.005958221;0.12566411;-0.22066939;-0.25254136;-0.04879366;0.0073129493;-0.031966712;0.0046245125;-0.017496435;-0.32232538;-0.2292688;-0.1767181;-0.070490465;-0.009128556;-0.295899;0.0751073;-0.009146043;0.024429483;0.022136237;-0.0041743573;0.19595979;0.32764822;-0.029890541;0.0072551616;-0.46763855;0.13708133;-0.29185563;-0.409259;-0.33600152;0.0010471697;0.26397938;0.008070512;0.00014362177;-0.0065125125;-0.10178106;-0.279395;-0.02617928;0.072092324;0.100772314;-0.13636737;0.017012805;-0.016583;0.13251139;-0.022061115;-0.13575506;0.15026383;0.009566183;-0.06854749;0.27551493;0.021911716;0.19537908;-0.34519747;-0.007089955;0.0015115169;-0.32471287;0.24993396;-0.005525929;-0.04923907;-0.100303106;0.001228026;0.16475935;-0.006274499;-0.062068112;-0.0124002835;0.022516297;0.019225255;-0.014947963;-0.12503006;0.026282948;0.03089505;-0.23025572;-0.13896452;0.09516444;0.15746994;0.116150126;-0.02752365;0.32728902;0.2154596;-0.12875032;0.027327668;-0.108313;0.048135087;-0.10297109;-0.14255838;0.26633623;-0.027232094;-0.4024576;0.011091838;-0.018445995;-0.009046363;-0.2239163;-0.095770024;-0.0044125402;-0.19836085;-0.37939814;-0.1890204;0.006537209;-0.026580423;-0.14456351;0.16946311;0.00083141704;0.017549105;0.012429261;-0.059882127;-0.38586545;-0.01582706;-0.01592111;0.16084637;0.014421857;-0.16445158;0.12927364;-0.0056264135;-0.29472238;-0.5350077;-0.019223904;0.034244362;0.17269337;0.021871984;0.14285867;0.2915449;0.052548006;0.019631432;-0.1558055;0.29594395;-0.08251322;0.0017292385;-0.0064561386;0.10724161;-0.082966045;0.0115327565;0.14753866;-0.07587212;0.010304554;0.013337368;-0.028569572;-0.052832585;-0.0033037115;-0.25114244;0.011559316;-0.19672142;-0.038366806;-0.06451995;-0.21551655;-0.07478575;-0.013834339;0.21857585;0.0039800447;-0.11693332;-0.018747868;0.0035676912;0.015063872;-0.110995755;-0.3965342;0.014174935;-0.0013661147;-0.071008615;0.12712497;0.0263594;-0.08098897;-0.053016495;0.006152302;-0.003061207;0.05960156;-0.023273805;-0.20833932;0.014714107;-0.00013423825;-0.03313793;0.0071815187;0.12077129;-0.01976426;-0.001059448;0.266658;-0.12529828;0.0018142121;-0.006662744;0.006962564;-0.23627245;0.19417833;-0.22652337;-0.08597033;0.0083819525;-0.15319706;-0.084271565;0.09704445;0.01198664;-0.2202824;-0.0867848;-0.16977632;-0.018987129;0.14175494;-0.017361008;-0.23974697;0.009528115;0.18343179;-0.15221219;0.25710544;-0.054020245;0.09141481;0.018160215;0.23333712;0.004536866;-0.20678774;-0.2151069;0.20387359;0.108235665;0.37389454;-0.011189188;0.008497436;0.020950386;-0.023254346;-0.06647665;0.20531197;-0.1576485;-0.0141678415;-0.0118602635;-0.081284195;0.045336656;-0.45677933;0.04646774;0.016302237;0.2250296;-0.1359529;-0.11968361;-0.020735638;-0.0064587733;0.014104813;0.09857239;0.291484;-0.010748189;0.01563599;0.28071454;-0.045206957;-0.3512264;-0.04216374;-0.19913915;-0.3864717;0.21802427;-0.3859985;-0.54509884;-0.0058948193;-0.00395445;-0.007992631
-0.0013308814;0.19837922;-0.1453675;0.010681732;0.0022807212;0.19385336;-0.007340231;0.007971466;-0.3910972;0.08122596;0.00089675275;0.016744986;-0.09351101;-0.106279254;-0.15161046;0.0018554918;0.15891464;0.19006264;-0.00649436;-0.025170222;-0.062240597;0.0039482685;0.12315667;-0.26826617;0.2673859;0.11489455;-0.21331854;-0.051260173;0.03123102;-0.10485677;-0.13418153;0.022325799;0.055242047;-0.121477716;0.02040287;0.0038694895;-0.015898459;0.28149304;0.112943925;-0.0830105;0.06783644;-0.037889976;0.036185585;-0.08541555;-0.0042054574;-0.6446889;0.1777308;-0.25678375;-0.017504632;0.013215286;-0.104446754;-0.012373912;-0.39993694;-0.27023762;0.07882683;0.11079197;0.031854775;0.022661772;0.34942174;-0.17292538;-0.07113547;0.0250724;0.06373755;0.024378203;0.0018550939;0.013617829;-0.10616041;-0.22447091;-0.0054652016;-0.007572051;0.014903642;-0.11206585;-0.38063392;0.10733701;-0.0084691085;0.0018360317;-0.010754397;-0.14023678;-0.026855653;0.14224236;0.3622592;-0.40058213;-0.3936789;0.014391468;0.2403682;0.11667172;-0.1993794;-0.017069547;0.2603155;0.03762694;0.32621962;0.33677515;-0.051235363;-0.29393545;0.44675538;-0.057849705;0.017654326;0.23711061;-0.0216436;0.1379306;0.09139628;0.3046717;0.07896374;-0.015684117;-0.20040679;-0.012830222;0.009896788;-0.023780746;0.010688899;-0.0017477097;-0.13315961;0.09263991;-0.2273188;0.25636238;-0.00984329;-0.18937813;0.012570227;-0.17787904;0.022539997;-0.00945784;0.105769984;-0.005870662;0.0075607086;-0.24755308;0.21685372;0.011038467;0.00070135633;0.3190604;0.06418102;-0.026186204;-0.3057727;0.24768272;-0.21655029;-0.0011903741;0.20692487;0.0030213946;-0.3945048;0.01231826;-0.024459008;-0.016570762;0.1281944;-0.17603417;-0.010848152;-0.35468948;0.20340519;-0.08192737;0.14779529;0.45905563;-0.0012085626;-0.3012408;0.25726777;-0.2113328;-0.08550655;-0.28516924;0.01592392;-0.2137409;0.09210518;0.0064079505;-0.018826334;0.005172815;-0.029425206;-0.21077754;0.0035559235;-0.014074345;-0.1451978;-0.31292132;0.22415234;-0.092352666;0.19062929;-0.22015072;-0.0018975462;-0.23370114;0.0077657555;-0.014449303;0.0054545687;-0.003273544;0.061407004;0.011242941;0.11604098;-0.09696874;0.0018305455;-0.15859579;0.002692322;-0.14370587;-0.008865167;-0.0119911665;0.023546396;-0.40496898;-0.09567133;0.003385841;0.3493373;-0.23098838;-0.022897549;0.015706291;0.10441722;0.12003301;-0.082345285;0.126621;-0.37516615;-0.08864968;-0.040434595;0.085657805;-0.2590487;0.13395794;0.2366024;-0.23750027;0.0070684655;-0.021579152;0.121664904;0.020868393;-0.0004169261;-0.0102675045;-0.01846013;-0.0057278816;-0.033405043;-0.02437109;0.08958846;0.014364627;0.13378519;-0.2815795;-0.43060133;-0.08300953;0.1912097;-0.098058626;-0.009119897;-0.2651032;-0.00793475;0.05849768;0.021802055;-0.06722856;-0.01620262;-0.0790778;-0.041175053;0.023869729;-0.17387958;-0.110181265;0.12657355;-0.12251458;-0.00706877;0.010712983;0.02982547;0.06697328;-0.009846127;-0.08638876;0.023357706;0.019648736;0.34177804;-0.21768937;-0.1922284;-0.011691204;0.015592018;0.16335353;0.080515414;-0.061790105;0.074576035;0.17037864;0.013083808;0.3149436;-0.18867898;-0.21878129;0.24786982;-0.028202634;0.16889599;-0.006107989;-0.043968488;-0.014085282;0.2585304;0.0069766375;0.053367633;0.10230021;0.25425386;0.20145424;0.027526196;-0.067160726;-0.0130560845;0.048894398;-0.22569728;0.004914554;-0.057145696;-0.18721059;0.047827203;0.06717767;-0.001835728;-0.16171844;-0.05005947;-0.07335462;-0.03337591;0.030563332;-0.20340244;0.013367348;-0.101982035;0.09554612;6.872568e-05;-0.075150736;-0.25464475;0.0035931247;0.017035654;0.1057084;0.02978692;0.011549393;0.2175213;-0.45424718;-0.00875899;-0.5994647;0.0013703546;0.029600587;0.0060674525;0.19084744;0.062787816;-0.10397131;0.061424565;0.023556916;0.15094957;0.14209034;0.16824733;-0.1421073;-0.06615843;0.014658136;-0.0016560724;0.07482579;0.03364516;-0.052016225;-0.23658529;-0.011646513;0.13695005;0.000774547;-0.0058873855;-0.042112168;-0.013145349;0.004247882;0.3657548;-0.0025031406;0.21045086;-0.014700149;0.1374102;-0.14343399;-0.122587174;-0.02339385;0.016382284;-0.109679624;-0.0022793433;0.0065908525;0.02457193;-0.16651915;-0.12409608;-0.07403338;-0.06086937;-0.11677204;0.09645387;0.009281189;-0.010099724;0.093330786;-0.0052734334;0.18154159;0.23228759;0.09323166;-0.0022270572;-0.09358393;0.044422206;-0.1339301;-0.3306994;-0.28685477;0.008052584;-0.0067101386;0.004143152;-0.008475891;0.01950954;-0.14288491;-0.18444782;-0.030627683;0.18956695;0.19147238;0.025655018;-0.013133404;-0.15126358;0.04816585;0.016495012;0.07584745;-0.17476632;-0.012609244;0.09871468;0.13787715;-0.043124903;0.18495242;-0.12289647;-0.004209109;-0.016921138;-0.077118374;-0.2006145;0.002224118;-0.1471994;-0.10331841;0.003589807;0.09914807;0.012312297;0.06976581;-0.06322986;0.075263165;0.0022325944;0.0076998766;-0.23243399;0.08442166;-0.013809654;0.038145404;-0.051697988;0.44250634;0.04522942;-0.03887847;0.026091037;0.17371686;0.14126204;0.04462069;-0.01872447;-0.30537352;-0.19305925;-0.06586477;-0.38624442;0.2644957;-0.311261;-0.45981333;0.0011965077;0.020552458;0.028859973;-0.1142646;0.18594542;0.019938257;0.33448425;-0.23384228;-0.17231233;-0.005268264;-0.28518227;-0.055129938;0.18374798;-0.005231177;0.0040866374;-0.007136225;0.0123427715;-0.3136037;-0.008581011;-0.010658136;0.1909814;-0.0045960024;-0.15552863;-0.3645042;-0.01342298;-0.10717878;-0.18582378;0.013957946;-0.11958093;0.100007944;-0.026229804;0.052262917;0.25009567;-0.16012624;0.045176093;-0.100237966;0.26704547;-0.103769824;0.027283425;0.026887324;0.043254815;-0.16902204;-0.06282887;0.31432873;-0.03549949;-0.006245676;0.02516648;-0.09084637;0.07245541;0.0011072305;0.094680026;-0.00026273425;0.04528989;-0.020881481;-0.026848564;0.030484702;0.055537075;-0.0013354507;0.01476367;0.0035250932;0.15982483;0.25349864;-0.011311718;-0.011320295;0.03751536;-0.19166288;-0.0044169975;0.0014620633;0.11138044;0.122366756;-0.03623346;-0.25137356;-0.05754691;-0.0030654133;0.012453057;0.12450572;0.026401909;0.20973486;0.00073778845;0.0062773684;-0.11862175;2.6052952e-05;-0.10517347;0.03769209;-0.00076236285;0.039697587;-0.12072059;0.004553016;-0.0017499174;-0.016534505;-0.11406248;-0.029421953;-0.13142273;-0.22036153;-0.008300648;0.1584427;0.075928956;-0.020911567;0.0042847856;-0.22037438;0.051215965;-0.2753401;0.02372616;0.40404227;-0.00031841226;-0.18165803;-0.004002717;0.021730952;-0.3232497;0.24134098;0.06750185;0.07613438;-0.008540933;0.07836693;0.0004069847;-0.079616085;-0.061569247;0.15618874;0.20192753;0.026849091;0.020760298;-0.007886992;-0.01853986;0.002187072;0.10062257;0.21640864;-0.08227114;0.00936681;0.017566785;0.15855546;0.10120878;-0.507246;0.049529865;0.00643988;0.034971032;-0.04302624;-0.09938785;0.01706642;0.0050783083;-0.15155734;0.20199297;0.21266462;-0.22962375;-0.005873865;0.2500884;-0.27036098;-0.2125164;0.0006477155;0.008961438;-0.3484438;0.15801933;-0.50589913;-0.5415896;0.0049015754;0.016642565;-0.010620254
0.0037399249;0.072100684;0.027426455;-0.022617253;0.009899631;0.119487956;-0.0023286832;0.0018805113;-0.43352145;0.11978576;-0.0041647633;0.094921194;-0.036674004;-0.049052272;-0.087770574;0.012111413;-0.0010339041;-0.1514835;0.0052892435;-0.016801449;-0.16215764;-0.011864891;-0.037249696;-0.26937246;0.18796338;0.0018473533;0.00044222825;0.075777546;-0.05029467;-0.16987345;0.021032806;-0.1443454;0.05882847;-0.15521017;-0.0112206;-0.006603284;-0.24230789;0.24893533;0.39679974;-0.097689174;-0.08760705;0.02974134;0.26891142;0.10191103;-0.010751976;-0.4656084;0.15496907;-0.54826564;-0.00174924;-0.012654195;-0.1379899;0.0025755367;-0.23253843;0.02922496;-0.03807422;0.2429663;0.05897471;0.06595219;0.20207472;0.12616569;0.111209735;-0.011687368;0.13059294;0.033860262;-0.017816797;-0.005837075;-0.20663656;-0.098581925;0.13024606;0.012821762;-0.012316274;0.13967314;-0.26717284;0.27778798;0.0063654687;0.0052129766;0.0045072706;0.1169875;-0.09561481;0.4391611;0.07474875;0.048975293;-0.11258904;0.001349236;0.21187371;0.08650716;-0.07390118;0.011461353;-0.014835997;-0.06728901;0.26438388;0.34042096;-0.07849856;-0.12407721;0.30044472;0.05895446;-0.011033936;0.2646884;0.013930653;0.04565994;0.29686186;-0.03758417;0.17164762;0.011025842;-0.08588594;0.025318164;-0.01316828;0.013430535;-0.0026576119;0.028403673;-0.3128749;-0.14517851;-0.23100957;0.25859582;0.01953334;-0.15636428;0.014431462;0.02063166;0.0009151659;-0.33763668;0.049033187;0.094417274;-0.008121404;-0.18561319;0.3035122;-0.0131211085;0.003994686;0.23067512;0.21079661;0.016007923;-0.17094809;0.15121982;-0.044657003;-0.0038721736;0.20026343;-0.003217783;-0.33816326;-0.007181269;0.03670987;-0.01029953;0.19219409;-0.036735903;0.003742799;-0.18826434;0.09478977;-0.09212892;0.18084377;0.17663006;0.00719912;-0.39692608;0.3010969;-0.29422262;0.059962556;-0.23358038;-0.025747858;-0.0073833843;-0.08545104;-0.016279584;0.005031499;-0.006513874;0.1778501;-0.16318882;0.003441814;0.010560009;-0.5934551;-0.28690273;0.1686777;-0.3101336;0.27761814;-0.17088248;-0.26049253;0.036485333;-0.08829822;-0.087914206;-0.017859189;0.00084394147;0.32167822;-0.014173279;0.14850658;-0.1002664;-0.0073576653;-0.038742285;0.070500724;-0.060162652;0.0070149237;0.0062430045;-0.009502289;-0.3373899;0.15645625;0.006127805;0.2520609;-0.18990481;0.009323814;-0.035800226;0.2268857;0.08914637;-0.09569795;0.020783406;-0.6247595;-0.20911248;0.008563293;-0.02493601;-0.18096049;-0.0053499243;0.15373416;0.1638165;-0.0090208305;0.051438477;0.2713658;-0.011503516;-0.008763334;-0.016974783;-0.20909174;0.020053519;0.028546777;0.023843117;-0.13785914;0.001821786;0.13791464;-0.0751633;-0.39825982;0.00019400578;0.20085168;-0.33447936;0.010835646;-0.18425256;-0.0071786665;0.10435827;-0.024425644;0.054542806;0.0052782916;-0.06593838;-0.11297362;0.17102744;0.1331098;-0.070653126;-0.09257521;0.015945392;0.015877435;0.41005802;0.078645386;-0.11964298;0.0030346753;0.004456938;-0.004008225;0.011494193;-0.05657823;-0.27418363;-0.2099141;0.01350237;-0.014596309;0.23959972;0.106332496;-0.06287219;0.075149655;0.26014104;0.0503659;0.25597215;-0.10575023;0.02388925;0.09156555;0.12435018;0.17089775;0.0025024076;0.18561427;0.009604775;0.025613016;0.0028657957;-0.023027033;-0.06919191;0.18985645;0.18269949;-0.018654121;0.16845287;0.010760838;-0.012076121;-0.2916418;-0.0013050396;-0.03283368;-0.13315998;0.14892966;-0.17151311;0.013322941;-0.11739826;0.04649207;0.038490787;-0.18811329;0.16068964;-0.20307544;-0.09026214;-0.057086106;-0.13171098;-0.0057662227;-0.08361357;-0.08741894;0.01657437;-0.08601367;0.073574945;-0.0228105;-0.0060662017;0.06370315;-0.40510544;0.0020029868;-0.46851;-0.018053554;-0.018258857;0.08419637;0.24111387;0.10305261;-0.0025768767;-0.039733388;0.024516966;0.16989034;-0.20473802;-0.19453757;0.01031537;-0.21951817;0.0023590366;0.022485197;-0.0028458205;-0.027751422;0.01109426;-0.17161712;0.027539307;0.18013054;-0.0061564404;-0.0048580277;0.013211454;0.080523774;-0.00935922;0.25207582;-0.016469369;0.35044095;0.0020292467;0.07720173;-0.09672498;-0.11275547;0.054370753;-0.0071536214;0.08844857;0.008168112;0.033200122;0.13442051;0.07378589;-0.11492993;-0.23262167;-0.07503486;-0.09205581;-0.023313586;-0.014429554;-0.0018917813;0.005240338;-0.016228039;-0.12997991;0.15972032;-0.23552802;0.0001258251;-0.09014022;0.10287181;-0.1257178;-0.25243464;-0.38263467;-0.0076776687;0.13328886;-0.012883873;-0.006792208;-0.002977856;-0.103834026;-0.11221461;-0.08312967;0.1259464;0.18729451;0.04123115;-0.0067150635;-0.08216198;0.039479055;0.006872252;0.06790674;0.0013638363;0.017248439;0.01855244;0.05509078;0.019575963;0.03162234;0.15227006;0.010767645;-0.009501589;-0.09733649;-0.4166761;0.0142020555;-0.14690153;0.10934452;-0.011824889;0.021906465;0.0039841323;0.04937116;-0.07517328;0.11886019;-0.0015898126;0.0044573224;-0.09032889;-0.19851753;-0.16724119;-5.6585057e-05;-0.04174509;0.22863875;-0.09339803;0.05335988;-0.022704853;0.10479655;0.18613237;0.13827437;0.0010345154;-0.11268404;-0.013782258;-0.06483205;-0.085923314;0.26309812;-0.096895486;-0.2768551;-0.0059489445;-0.008548797;-0.016210524;0.08433428;0.21373324;-0.022714222;0.2971901;-0.45025313;-0.14905703;-0.02214351;-0.24395643;0.18054247;0.05849302;0.007692336;-0.00059422;-0.02008028;-0.039852526;-0.20347884;0.017109087;0.056688152;-0.107505254;-0.009768158;-0.07631138;-0.3161173;0.02603152;-0.24281581;-0.1462005;-0.016432293;-0.19058602;-0.021230372;0.018872565;0.29230356;0.0416616;-0.18868555;-0.004624293;-0.021675505;0.08584592;-0.09836057;-0.006427781;-0.029262964;0.10912078;-0.14107369;0.0426445;0.06366027;0.21112499;0.00060415734;0.014839846;-0.10608413;0.08881929;0.002841736;-0.028617298;-0.011003416;0.0027522289;-0.049026977;0.29481164;-0.0036072924;-0.29207513;0.0093744565;0.029264081;0.0008897468;0.23462096;0.08970457;0.015175892;-0.0102667585;-0.0035104412;-0.06531466;0.0024778747;-0.0010995787;0.09428026;-0.075468846;-0.09149435;-0.22871946;-0.21974646;-0.012574885;-0.008159563;0.18087012;-0.053622473;0.47978362;-0.019954974;-0.014543552;0.029044451;-0.021778628;-0.082201414;-0.043506276;0.002241419;-0.062319364;-0.06708868;-0.0054111094;0.010322819;0.0031991575;0.07802821;-0.08525897;-0.10237487;-0.1722208;0.0007980402;0.2294457;0.03355916;-0.19464217;-0.006763058;-0.1221662;0.096379444;-0.28339553;-0.012210355;0.43466657;-0.0045549227;-0.16947733;-0.009361572;-0.19517873;-0.08041015;0.3282989;-0.016200816;0.26782808;-0.0020834734;0.1266974;-0.006429553;-0.012070132;0.021743197;0.2641066;0.18392561;0.16177948;-0.011980444;-0.0020126388;0.00019731057;0.0030650583;0.09726455;0.13063827;-0.008467605;0.001929143;-0.01737392;-0.11534433;0.04248221;-0.54623306;-0.06646298;-0.0069379495;-0.12234863;0.1211365;-0.14894353;0.011553629;-0.009805253;-0.3036459;0.05087299;0.11747462;-0.29217887;0.0038003356;0.35779095;-0.1279215;-0.25825715;0.05481724;0.016000193;-0.25218496;0.22191702;-0.5270232;-0.27499542;-0.010169536;-0.0077033173;0.17313662
-0.0060262955;-0.019688379;0.12733576;0.014245335;-0.016352588;0.014184772;-0.009609946;0.0014808627;-0.16799954;-0.104717955;0.00012701683;0.09502694;0.09745274;-0.26559025;0.09059721;-0.00062285754;-0.15734181;0.03954313;-0.014251462;0.0153997755;-0.28704357;0.004432704;-0.27322358;-0.081695504;0.2567958;-0.1094716;-0.06558206;0.113758974;0.040939644;-0.13200244;0.18158185;-0.010846149;-0.02930437;-0.22533971;0.01380524;0.014108122;-0.10553049;0.25414324;0.47167587;-0.08490087;0.01991856;0.14688087;0.18310478;0.070195295;0.0176336;-0.25563818;0.19759819;-0.4816795;-0.2643009;0.006380133;-0.023962505;-0.017183753;0.06915782;0.07654941;0.096245594;0.17249356;-0.17092265;0.056590423;0.121236;0.38003975;0.16116041;-0.036719847;0.048852745;0.03440517;0.008242414;0.00046177654;-0.24386992;-0.02108786;0.28035545;-0.010683024;0.0005243689;0.117251284;-0.24154873;0.06776365;0.001834401;-0.0071641733;0.004734849;0.076229945;-0.34011135;0.4061354;0.028081082;0.22169952;0.20642506;-0.011173077;0.17340171;0.038964525;-0.057023715;-0.01161755;0.06983693;-0.023552744;0.30024347;0.15347663;0.07133828;0.20596884;0.06605629;-0.0050165737;0.012745857;0.17767045;0.0003102009;0.17615966;0.06561147;-0.21777919;-0.17472054;-0.026807202;-0.11057393;9.0562375e-05;-0.009496151;-0.005704075;-0.008216969;0.20229027;-0.47789887;-0.40487966;-0.0387617;0.45746103;-0.012190749;-0.2473849;-0.0046223677;-0.0021360924;-0.017321689;-0.52216876;-0.0240763;-0.031920962;-0.001929081;-0.15233788;0.3118718;0.0036791384;-0.010201578;-0.11468758;-0.15724611;-0.0071730902;-0.16529226;0.089531556;0.17255391;0.0037000098;0.046908528;-0.0027755422;-0.38396668;-0.005474006;-0.010308273;0.01162949;0.22163941;-0.09213779;0.014858357;-0.2370791;0.28551212;0.03369995;0.03790667;-0.20812474;-0.008584849;-0.2051266;0.2622639;-0.25888774;-0.0323086;-0.37520483;0.008221238;-0.103330754;0.042904217;0.014912631;0.0002145381;0.01098125;-0.05987842;-0.08030451;-0.0055845478;-0.01443723;-0.5191916;-0.15956493;-0.02999544;-0.2912647;0.051106703;-0.13631493;-0.050108388;-0.17093489;0.12963794;0.002487993;0.013138596;0.016772395;0.42934424;0.0031217188;0.11265631;0.21835686;0.017256992;-0.018588046;-0.02124974;-0.015725827;-0.006718106;0.004650873;0.02305364;0.11506112;-0.035770994;0.04680839;-0.06167596;0.025741737;-0.004457512;0.026329763;-0.08399287;-0.053880513;0.1542013;0.052931868;-0.49011183;0.00242015;0.047515094;-0.24259394;-0.09156734;-0.1663284;0.16568254;0.10551476;-0.00024452448;-0.062272523;0.07830307;-0.012831986;-0.00192449;0.01652951;0.02983501;-0.016423805;-0.027869685;-0.028690463;-0.07226885;-0.012224269;0.14517769;0.048837427;-0.17035808;0.02118589;0.31604806;-0.44861022;-0.001964068;0.048894975;0.01500885;0.08424511;-0.00033175593;0.09072307;0.003124754;0.14145319;0.024565382;0.10885429;0.34730607;0.0119878175;0.032212906;0.22244008;-0.012259902;0.2869493;-0.053047605;-0.061576184;0.0020435255;-0.060607802;-0.010056113;-0.09481341;-0.13699956;-0.002905154;0.21628033;-0.014435584;0.026955727;0.014664069;0.1098055;-0.050226476;-0.032828737;0.27017173;-0.057502937;-0.10457002;0.17077497;0.15765113;0.09343963;0.19265456;0.1013813;-0.012266548;0.25559682;-0.0037767568;0.00065061444;-0.0068515646;0.15060337;-0.113650456;0.24493225;0.24902852;0.00998318;0.120075695;-0.00028933425;0.044557657;-0.03716311;-0.0068939724;-0.06951206;0.011657306;0.23834935;-0.22764601;0.0018014312;0.18657587;-0.09550302;0.2815345;-0.22875264;0.027334198;0.01766449;-0.25589395;0.06288285;-0.23551367;-0.003933742;-0.14951605;-0.058749486;-0.019599527;-0.07132724;-0.026694866;0.006848515;0.01437416;-0.09488909;-0.3407947;0.0051126317;-0.45385608;0.0040873257;-0.21642399;0.16222991;0.23970008;-0.0066862954;0.07828757;0.12163865;-0.02182591;-0.007824387;-0.08046107;-0.056151714;0.010190412;-0.010082659;-0.019745246;0.145562;-0.17510317;0.025218248;-0.07200856;0.018852662;-0.019046137;0.25636488;-0.0019452856;0.019034239;-0.0163815;0.15810046;0.002393332;0.025100147;-0.005073273;0.07648939;-0.0044823084;-0.045532472;-0.03285726;-0.28078675;0.0005082205;0.000579124;0.35953736;-0.012262649;-0.010306109;0.059849404;0.13278227;-0.054153457;-0.22763497;-0.0004248358;0.14569603;-0.0033760672;-0.008634;0.01231539;0.15957074;0.019484319;-0.037147608;-0.24903893;-0.016935807;-0.01234702;0.11577127;-0.04323332;0.013942906;0.1511176;-0.034560278;-0.010912803;0.030581217;0.0013268087;0.006654217;-0.015460708;0.020416304;-0.23914056;0.11260718;-0.030169204;0.034750015;0.24545053;0.009843368;-0.0039029925;0.0060652215;-0.010799368;0.07833787;0.25148392;0.0033575222;-0.09135643;0.14904647;0.036586527;0.338398;0.23638314;-0.014745315;-0.0065697073;-0.0033790448;-0.5307889;-0.019339703;-0.23004822;-0.16835226;-0.0041015544;0.031641256;-0.013610809;-0.20553994;0.0992823;0.1555472;-0.0054782876;0.004560153;0.013804839;-0.016994052;-0.18945599;0.14668845;-0.059251573;0.4062639;0.0658781;0.16384406;0.004096023;0.14131407;0.39712787;-0.11096081;-0.010238356;-0.07990321;0.20070097;-0.19586278;-0.079206474;0.16127199;-0.038048662;-0.24105716;0.009736874;0.012530161;0.0001774911;0.28252608;0.060090262;0.010626356;0.26671553;-0.2762107;0.012085469;0.020928185;-0.12570111;0.09177532;-0.024498196;-0.013006848;-0.011297165;0.026378054;-0.06461145;-0.15901797;-0.0027461112;-0.017141143;-0.21491072;-0.006295207;-0.011657413;-0.14622658;-0.022710662;-0.18855035;-0.029561883;0.019567704;-0.1186003;-0.20133713;-0.015394114;0.07052259;-0.12221308;-0.062475815;0.14094871;0.05522209;-0.145767;-0.28144652;-0.027574696;0.021708913;0.12272362;-0.121813565;0.06794188;-0.26254803;0.18113102;0.002174259;0.020022478;-0.10583714;0.022894617;-0.022459067;-0.045556065;0.015963819;0.031801593;-0.42234612;0.0453966;0.096710265;-0.11760706;-0.010146825;-0.031226065;-0.016145146;0.31292415;0.0022194535;-0.006941095;0.039876096;-0.1732891;0.010604256;0.0007868061;0.01574589;0.21647996;-0.107250646;-0.12454478;-0.034831226;-0.3276452;0.01676738;0.0068908893;0.06436868;0.2826382;0.15322009;0.0041042264;0.0016917115;0.19700424;0.026395302;-0.038724024;0.0072423182;-0.010644714;-0.108187534;0.03813887;0.00072938134;-0.0041122423;0.00091828057;-0.088587254;0.013030856;-0.061786275;-0.016537469;-0.003869243;-0.23373732;0.46172333;0.092980355;0.017721998;-0.043887105;0.06895944;-0.1389905;-0.008654435;0.2748801;0.0036557592;-0.25978163;0.006595012;-0.15432736;-0.07737272;0.2891587;-0.09140876;0.11513483;-0.01953399;0.103060365;0.006619178;0.039660823;0.13317925;0.2074835;0.31940687;0.12328505;0.0024779353;0.00546877;0.010577042;-0.001301829;-0.036153276;0.1793815;0.17822428;0.012555375;0.0051891347;-0.27410915;-0.14546598;-0.45448637;-0.218103;-0.0043106214;0.008815409;-0.010965377;-0.071199514;-0.019028556;0.0030442623;-0.2695984;-0.1412718;-0.08894054;-0.078211725;-0.015020578;0.0006034855;-0.103564784;0.058387417;0.048648465;-0.098706566;-0.16611154;0.001879201;-0.17127049;-0.30667135;-0.0018593317;-0.009528544;0.055213124
0.004572902;-0.109782286;0.028143015;-0.015189711;0.02370129;-0.057970528;0.024623487;0.010170521;-0.0887783;-0.245827;-0.008091574;-0.01561691;0.004307884;-0.042129695;-0.16346775;-0.020526059;-0.16432577;-0.1269288;0.01677418;-0.01635589;-0.05053533;-0.01522263;-0.28227517;0.053794514;0.13645218;-0.066613704;-0.11495139;0.20209897;-0.03279581;-0.054769926;0.37252164;0.13978057;-0.13946706;-0.018652352;-0.002568053;-0.017348828;0.14946876;0.27147022;0.011916083;-0.13434461;0.0009761602;0.08335651;-0.06252089;0.12463096;-0.0107930405;-0.34374794;0.073284574;-0.36445338;-0.122927494;0.0057857805;-0.13508742;0.00479663;0.19366378;0.06691447;0.21979073;0.04198633;-0.05731526;-0.039451055;0.0027574997;0.23741074;0.3062174;-0.006941851;0.16281956;0.058758367;-0.00014595677;0.0030904266;-0.18889105;-0.034067433;0.34333625;0.020042608;0.009165211;0.038440626;-0.41163808;0.0764519;-0.009404296;0.011398625;-0.012232075;-0.1560956;-0.34275216;0.12756607;0.15838769;0.10601734;0.13023238;0.011785622;0.17776018;-0.1531026;-0.07776874;0.00436238;-0.13319393;0.050506227;0.40548894;-0.030114416;0.055735152;0.026725303;0.24138749;-0.0089580035;-0.01398503;0.15948953;0.0064311703;-0.0017404085;0.008854194;-0.26088753;-0.28878734;0.01791942;-0.17693116;-0.015488921;0.0197564;0.011211175;0.0047107693;0.07504395;-0.050152022;-0.28378618;-0.09083795;0.24885023;0.0021941136;-0.111965306;0.00077906303;0.1027021;-0.0042292345;-0.47059765;0.03176685;0.0109343305;-0.012173792;0.01640988;0.36390293;0.002307367;-0.0013508947;-0.33519116;-0.04533037;-0.00037258127;-0.0009153907;0.17617165;0.04199669;0.009540239;0.2380926;0.0042805886;-0.4723359;0.012026216;-0.004388545;0.007099994;-0.110251054;-0.020462135;-0.00951183;0.13150142;0.2854689;-0.11944343;-0.08575793;-0.19116265;-0.0046130326;-0.13519432;0.17417392;-0.35370323;-0.023029134;-0.5006275;0.007327749;-0.27178985;-0.044205036;-0.010704186;-0.012738136;-0.009481834;-0.1770307;0.13724396;-0.016073486;0.012287743;-0.5202918;-0.123239405;-0.08563816;-0.026960546;0.032240704;-0.12357371;-0.1659359;-0.39605415;0.35650077;-0.10002321;-0.0004960837;-0.0244648;0.14848083;0.015591684;0.23325817;0.16809076;-0.01975947;-0.041339006;-0.07414165;0.049265616;0.013566243;-0.014122603;-0.026674815;0.20787759;0.19271941;0.18763815;-0.13126108;0.13684395;0.0011683882;-0.0056107435;0.11106162;-0.20207578;-0.05953276;0.03930889;-0.5191166;-0.32112667;0.09834154;-0.17298058;-0.2069315;-0.11204249;0.20720194;0.15524611;-6.576975e-05;-0.16035365;0.24862053;-0.0053628176;0.018603604;-0.009746849;0.05213063;0.00717478;0.024122803;0.025702307;0.100456;0.022967592;0.058189724;0.12178355;-0.27769208;-0.021178499;0.25777858;-0.42127848;-0.017168242;0.09747178;-0.013000686;-0.11123014;0.005173695;0.05960707;-0.0052358555;0.37521502;0.04810349;0.15098473;0.34755105;-0.018256225;0.088501014;0.25556344;0.024315223;0.3672331;0.24735282;-0.32928446;0.0031433392;0.16043507;-0.011426055;-0.113368966;-0.23679033;0.18010065;0.15793659;-0.005444317;-0.011939743;-0.26853332;0.055833466;-0.00028144883;-0.29559708;0.019415788;-0.03955229;-0.10164002;0.06536583;0.07931542;-0.16494057;0.28622377;-0.13406068;0.0051907822;0.30952567;0.014230945;0.093601614;0.0011942838;0.15886647;-0.10175458;0.16070287;0.32995236;-0.0075956886;0.1996007;0.0022411302;-0.04652431;0.026189605;0.009322139;-0.074013;0.031322673;0.07179357;-0.17260712;-0.005599473;0.09693854;0.012450436;0.45886445;-0.2784766;-0.0867172;-0.034842517;0.028779022;-0.08149029;-0.34578323;-0.009870959;-0.14483783;-0.13918589;0.0045054615;0.022365138;0.21729138;-0.0009017817;-0.025043199;-0.19115734;-0.22123075;0.0083459;-0.10686043;0.00075524434;-0.2740492;0.08315957;0.22707383;0.039416812;0.02003721;0.1897405;0.0148295835;0.005231871;0.12690178;-0.39466745;0.15256959;0.06489731;0.009598489;0.096804485;0.14088589;-0.009318488;-0.0010757587;-0.002118237;0.009893113;0.25147808;-0.01613467;-0.027248172;0.0013226754;-0.055211686;0.0056953155;-0.30001473;0.013402037;0.21265796;0.016684437;-0.09336139;0.07230874;-0.15778282;-0.06858398;-0.014548299;0.21886021;-0.005268675;0.011573838;0.05957471;0.115962245;-0.11734723;-0.018746672;0.18220288;0.056242865;-0.18878946;0.018093059;-0.013962475;0.23733318;-0.006489388;0.1417023;-0.2564622;0.03425636;0.014381841;0.035976008;-0.16731204;0.16661194;0.026931867;-0.1216595;0.0189392;-0.23959404;0.0048891245;0.004667003;0.01710639;-0.1369745;-0.029051911;0.2892631;0.15105326;-0.08962175;0.41343406;-0.021971758;0.04716702;-0.45614615;-0.0027906445;0.14229588;0.13495716;0.0025144222;0.042627297;0.17666727;-0.041170705;0.27829832;0.40641233;0.026707731;0.05592663;0.035826646;-0.48800302;0.0013505692;-0.1645087;-0.4293779;0.0015976714;0.042881697;-0.0015557768;-0.028125525;0.16657779;-0.018664848;0.021742502;-0.015976857;-0.13993102;0.041187637;-0.04824854;-0.045397617;-0.047528356;0.24424024;-0.15572381;0.19522835;-0.0021915978;0.2744083;0.2941141;0.015897224;0.008060731;-0.15656626;0.043927677;-0.0005642814;0.23982306;0.09148514;0.024218414;-0.2679532;-0.019246569;-0.009068269;0.025073955;0.20184827;-0.14617728;-0.0067171655;0.16381186;-0.0012194735;-0.057740625;-5.884705e-05;0.17511903;0.06835477;-0.30246627;0.009742531;0.001192269;-0.0011364368;0.03763918;-0.09292248;-0.0037953788;0.014252376;-0.07377301;0.018951204;0.0439138;-0.23390639;0.012926997;-0.30606365;-0.12961876;-0.029459482;-0.3517219;-0.33093634;0.014899953;0.20667367;-0.12952825;-0.058019757;0.08449066;-0.029719517;0.10464319;-0.15124084;0.030637022;-0.010882318;0.1041346;-0.089907125;0.12655649;-0.23647478;-0.026687555;0.0153130535;0.015934575;-0.06486367;-0.08304576;0.00035444935;-0.0813144;-0.025882782;-0.2109787;-0.23040573;-0.203836;0.0575594;-0.07263093;0.002832609;0.08053601;0.021021374;0.29209447;0.23326062;0.0064077782;-0.019798027;-0.07570065;0.0035863793;-0.008450162;-0.0090620825;0.20645024;-0.12973201;0.005143177;-0.025871307;-0.1661921;-0.002789663;-0.0066465237;-0.06767655;0.15118551;-0.031473536;-0.004094672;-0.002906201;-0.11344022;-0.006350967;0.022614948;-0.005869328;0.017336177;-0.29314664;0.10551384;-0.011930748;-0.006748137;0.0011017813;0.083917126;-0.057385057;-0.08903272;-0.14369668;0.004454935;-0.061310127;0.35193238;0.11491383;-0.027439876;0.098925725;-0.09852657;0.15511988;-0.031061083;0.35915655;0.014381253;-0.17678478;0.012854504;-0.263441;-0.22086664;0.094894215;-0.03063085;0.123920485;0.018620545;0.103413366;-0.016692014;0.079000294;0.11266191;0.13775234;0.13292454;-0.029517716;-0.018357081;-0.010396923;-0.012080215;0.011684768;-0.031809498;-0.046418253;0.15960425;-0.017926004;-0.012630175;-0.18230776;-0.1614284;-0.2851432;-0.19658126;-0.009201014;0.15242974;-0.048764683;-0.1286086;0.0007151366;0.0016465405;-0.63855076;-0.09123536;-0.100707866;-0.35186645;-0.014416833;-0.055072702;0.028314436;0.12299991;0.030272737;0.23464549;-0.35854626;-0.08738992;-0.2919679;-0.23520304;-0.006376599;0.025495581;-0.009295762
-0.010788936;-0.1443272;0.055769905;0.019210612;-0.021725468;-0.13342316;-0.007531884;-0.022547616;0.18194203;-0.16483773;0.0054788426;-0.06534538;-0.11410335;0.184438;-0.13872615;0.00401155;-0.19002825;-0.13892357;-0.022519816;-0.029560257;-0.30389687;0.011146756;-0.21781321;0.17564514;-0.04303398;-0.08732029;-0.09690598;-0.037382945;0.04459229;-0.03773249;0.3962307;0.14874311;-0.24253851;0.07643099;-0.016658131;0.007381036;0.036355853;0.10484572;-0.0861583;0.008207678;0.029806549;-0.011131506;0.012958562;0.03127533;0.0015592733;-0.15509477;-0.021082446;-0.28486338;0.08752936;-0.00878174;0.1948786;0.018630102;0.34181362;-0.06590196;0.17730337;0.12684311;-0.058745023;0.03829454;0.09761249;-0.39140338;0.4329861;-0.065370426;-0.030637324;-0.109802976;-0.0053176573;-0.031608295;-0.24064507;-0.028956741;0.31127918;-0.0037409887;-0.011546216;-0.15189703;-0.28702953;-0.033869233;0.008848289;-0.007965339;-0.003112255;-0.06628962;-0.016706228;-0.11648387;0.17350505;-0.23954816;0.19391093;-0.00056415424;-0.045308582;-0.11326264;-0.46100006;-0.0020770698;-0.029928166;0.01956183;0.39833298;-0.048211988;0.09898439;0.004690347;-0.235906;0.0073739765;-0.0036832343;0.2659163;-0.0052384897;-0.036539767;-0.05512494;-0.50982475;-0.15688856;-0.003151906;-0.18863988;-0.006304918;-0.021557026;-0.016928788;-0.011568177;0.034908887;0.027391452;-0.0012959068;-0.01968308;0.13899946;0.014371578;-0.40090436;-0.017816292;0.06933451;0.017272409;-0.41867906;-0.27729294;0.046379507;0.011866072;0.10914047;0.30994964;0.004200613;-0.004129807;-0.44978315;0.07528495;0.008382366;-0.009907834;0.20081548;-0.16496854;-0.006809258;0.28307503;-0.0015203396;-0.5001393;-0.0042667966;0.0012633721;-0.02132092;-0.07481544;0.3309194;-0.003717463;0.0845427;0.31236175;-0.20052217;-0.26636598;-0.13821734;0.01741256;-0.028539425;-0.1750538;-0.5753037;0.048358377;-0.3547446;-0.00052922074;-0.0939888;-0.1928109;0.020928023;0.014965992;0.019309977;-0.075814225;0.18429817;0.013306893;0.011648043;-0.22948708;-0.20995863;0.13411243;-0.0052419715;0.09263834;0.026806913;-0.025742905;-0.18377824;0.22734281;-0.0102606425;-0.0086085815;-0.0056767464;0.10983365;-0.028361516;0.113068834;-0.11267031;0.012257407;0.0813435;-0.27907538;0.09838478;0.004353655;0.020332744;-0.064229995;-0.07327543;0.32098326;0.02118137;0.13068472;0.30156246;-0.004217397;0.003996567;-0.14964394;-0.21213153;-0.20435724;0.057398923;-0.3102075;-0.023591388;-0.10555845;0.0691786;-0.35840666;-0.047493003;0.113190964;-0.08239347;0.005496743;0.048311107;0.12093947;0.025793677;-0.019543871;0.022122497;0.064436525;-0.0005615077;-0.016333267;-0.0031317002;0.15119198;-0.0054900255;0.14442253;0.13611123;0.11698836;0.052819103;0.24504048;-0.10196562;0.0057079243;0.001832332;0.009735352;-0.056247216;0.004415414;-0.08175833;0.0042820484;0.11795394;0.058593795;0.25335523;0.3066844;-0.32824835;0.20728478;0.059433915;-0.034971613;0.42219827;0.14483695;-0.26628512;-0.007273236;0.10889558;0.0059956354;-0.13261868;-0.27867934;0.17470837;-0.06452784;-0.0047237026;0.0079169385;-0.26740137;-0.08023362;-0.18108682;-0.32781884;-0.3541708;0.043293428;-0.19854209;-0.035801496;0.11006321;0.03348239;0.40056416;-0.18720427;0.011291928;0.17225578;-0.009794213;0.13895299;-0.011036397;0.21461007;-0.10678563;0.17277527;0.34219873;0.0044375453;0.060035247;-0.010867239;-0.021966126;0.23087034;0.00095751864;-0.15194094;0.108908035;-0.10657629;-0.23218526;0.009743591;-0.20795687;0.101382785;0.23266113;-0.36977464;-0.06800455;0.14452007;0.09371252;0.034192417;-0.2992386;0.014617542;-0.22927438;0.01283879;-0.0074571418;0.10407851;0.12701182;-0.00817642;0.009301707;-0.44945562;-0.32282534;-0.0026026547;-0.024486037;0.0062016575;-0.22851872;-0.015894398;0.20871636;0.08366212;-0.14232588;0.15963227;-0.0036786213;0.09789924;0.08732527;-0.036134265;0.077375725;-0.109778166;-0.007457998;0.05107029;0.06806801;0.003867721;-0.04077657;0.08615103;-0.0022758797;0.14083849;0.023867024;0.018294957;-0.031807616;-0.21228282;-0.0039640395;-0.19236836;-0.002792609;-0.024445381;-0.008853949;-0.017737903;-0.061059892;-0.27169308;-0.02346955;0.012565809;0.23079407;0.011840952;-0.03173153;0.2271187;0.09210291;-0.016462434;-0.06532536;0.070453286;-0.11498759;0.011787007;-0.010107268;0.0063677244;0.120815314;0.006649018;-0.1443945;0.002463647;0.057702564;-0.0057436633;-0.17470485;-0.25937045;0.18855593;0.09930656;0.10942913;0.009912208;-0.3854249;-0.008500507;-0.015649125;-0.010984566;-0.009777654;-0.05762698;0.11303048;0.1898111;0.07657277;0.5099055;0.03774185;0.0010614981;-0.3459837;0.0036595655;0.22357588;-0.03737072;-0.0035625652;0.085587285;0.4078035;0.010081482;0.25005567;0.113418475;-0.0073899105;-0.020001791;0.17813209;-0.29034367;0.0017473656;-0.1254329;-0.22640476;0.012879921;0.0474442;-0.0038815953;0.05418782;0.14811432;-0.018042829;-0.021416353;0.03335724;0.052913737;-0.12269049;0.031648584;-0.095161326;0.14673564;0.09054538;0.15501066;-0.11943824;-0.013961617;0.2902124;0.30457532;0.058252517;0.02105159;-0.16691066;-0.10853464;-0.13688989;0.02210331;0.1256876;0.08042884;-0.40060887;0.01812878;0.004951651;-0.026188035;0.32201642;-0.18989073;0.013909905;-0.15647152;0.2515949;-0.3704512;0.012602816;0.2182225;0.01074757;-0.2819187;-0.018773865;-0.0026477617;0.008644913;-0.010281978;-0.17697132;0.004377089;-0.020083785;-0.053063024;-0.0011562399;0.06596056;-0.06331041;8.813415e-05;-0.18847375;-0.33104366;0.01614222;-0.3765016;-0.3411079;-0.01372324;0.024641141;0.05568982;-0.0050225416;0.029093964;0.053470023;0.019117428;-0.25646064;-0.03522191;0.003048299;0.05843685;-0.25096157;0.1037633;0.113975175;-0.24188337;-0.013171693;-0.013812632;-0.022347216;-0.3349419;-0.0067577264;-0.070661575;0.0032421597;-0.24983856;-0.12400911;-0.59665745;0.26891854;-0.25842953;0.0026482511;0.14173186;-0.011040028;0.21621099;0.08558446;-0.017447047;-0.015963227;-0.15800394;-0.14092709;-0.004607519;-0.0021156506;0.19551796;-0.2988127;0.17051843;-0.040166713;-0.210507;-0.006266854;-0.010821814;-0.30131724;0.23678932;-0.019132659;0.0100953635;-0.018420903;-0.07353979;0.00012683564;-0.078311086;0.0008897286;-0.012464567;-0.14103763;0.044198953;0.010216982;0.010641503;0.014353071;0.10759723;-0.08141219;0.0060659954;-0.19381644;0.004640196;-0.24742523;0.56930304;0.020869333;0.009339879;0.040824823;-0.04566457;-0.036219694;-0.021354575;0.24559164;-0.009948802;0.07335508;-0.007837831;-0.14643964;-0.08550702;-0.14436115;-0.15612262;0.27915344;0.017375939;-0.06145152;0.010836709;0.028229315;-0.061090194;0.07554628;0.096907206;0.1200222;-0.009396614;-0.0005485062;0.010484157;-0.006213573;0.097307734;-0.26927045;-0.025000349;0.0069228862;0.010495754;-0.19808008;0.12636986;-0.37016824;-0.18315585;0.0047621145;0.19353567;-0.07518873;-0.056681868;0.0012848479;0.017407622;-0.6644298;-0.05862083;0.040946856;-0.0908598;0.008477735;-0.14761545;0.068072766;-0.016911168;-0.0023059302;0.373818;-0.39702356;-0.34657928;-0.2443527;0.01718465;0.004696902;-0.033445366;0.17052577
0.009044222;-0.13126408;0.15134919;-0.021054486;0.010521546;-0.279076;0.0072395965;0.010987524;0.203521;-0.23564216;0.009427751;0.031673048;0.014186256;0.0826984;0.09543523;0.0076402863;-0.6318812;-0.07607787;0.012680189;0.015339217;-0.63616455;-0.0058337427;0.032958254;0.13950093;0.1096737;0.23861948;0.024086723;0.004965662;-0.063712165;-0.19418466;0.3829566;0.25778252;-0.029915016;-0.0066259084;0.004083182;0.006643091;0.17871353;0.05927333;-0.54425573;-0.09234912;0.036293488;0.024375534;-0.11789697;0.08944922;-0.0013627124;-0.22464037;0.020901619;-0.020164214;-0.44044554;-0.000748781;0.021451436;-0.0086391065;0.20937328;-0.13362885;0.33591065;0.2283025;-0.036720354;0.06274259;0.2732435;-0.075395405;0.40012217;0.104853764;0.17198476;-0.005717909;-0.0115272775;0.029132178;-0.06895951;0.104011066;0.11875675;0.0037113945;0.007212141;-0.19746698;-0.3923361;-0.19066039;-0.008621182;-0.012200831;0.023824254;-0.1738659;-0.383567;0.047118533;0.19199193;-0.20782529;0.17904276;-0.0040033404;-0.14225896;-0.018577617;-0.71864754;-0.015090214;0.12542778;0.13467231;0.24745362;-0.25589782;0.0867195;0.080784194;-0.34403023;-0.0364055;0.0020367608;0.20807062;0.0016341266;-0.16810498;0.14711678;-0.297941;-0.3857965;-0.0017329023;-0.13782276;0.015888054;-0.0026996285;-0.0014675043;0.0016276469;0.0767806;0.07451852;0.1439428;-0.10330262;0.16057792;-0.03158598;-0.30895117;0.0013833703;0.18234062;-0.004680137;-0.15935445;-0.1491734;0.21633914;-0.0037295741;0.28334093;0.20622875;0.0046483404;0.016711568;-0.23723863;0.15748422;-0.01381893;0.057294786;0.0907716;-0.14877558;-0.006697352;0.047803164;-0.0029886176;-0.55375355;0.0019648715;0.00087764807;0.018342981;-0.2968492;0.3481573;0.0013466243;-0.07099277;0.28493702;0.022434356;-0.17110384;-0.064296804;-0.0026651346;0.1765305;0.012463677;-0.23093273;-0.0013679368;-0.44228345;0.00034477268;-0.2650465;-0.10021516;-0.033927303;-0.014151408;-0.027572462;-0.22275445;0.38609654;-0.006960579;-0.01674035;-0.09888345;0.08882723;0.34374803;-0.27413657;0.09089649;0.08560827;-0.09198019;-0.07057301;0.18935147;0.3805067;0.008578511;0.01585191;-0.21530905;0.010094931;-0.035893053;-0.16495676;-0.0057986034;-0.12716392;0.014905877;0.04098238;-0.0042455704;-0.007338382;-0.02359151;0.16518225;0.27167177;-0.16943018;-0.0097652795;0.30910742;-0.0019720523;0.005976536;-0.2739913;-0.027249416;0.03648048;0.11053192;-0.1609497;0.4089021;0.032688778;-0.028636985;-0.20549892;-0.106238335;0.059750885;-0.034889866;-0.0035213286;0.22626086;0.24435563;-0.012694677;0.00865227;-0.018671116;-0.18775268;0.0074288268;0.013857547;-0.0061851265;0.029559715;-0.0064665577;-0.14024228;-0.06866564;-0.09380036;-0.02858504;0.030056573;-0.007209155;-0.00052242336;-0.27334124;0.012977869;-0.11410263;-0.0022018;0.010289858;0.0062777726;-0.2226356;0.1579714;0.3918318;0.25241894;0.095166706;-0.08117093;-0.17627585;0.009636925;0.044704963;-0.089063935;0.082483314;-0.0033133747;0.05606353;0.0038706872;-0.19688693;-0.14826271;0.324634;0.06236378;0.008655417;-0.011585999;-0.24033588;-0.11242559;-0.2529841;-0.3024915;-0.505265;-0.02945166;-0.03502082;0.037684195;-0.14319058;-0.1066877;0.24457923;0.11316089;-0.0040928074;0.14226042;-0.009424471;-0.04571555;0.013308672;0.048696745;-0.11212731;-0.12665686;0.16427813;0.0032176462;0.05300186;0.016911034;0.019913148;0.17849077;-0.009443033;-0.062055368;-0.0003552901;-0.0058028027;-0.09217416;-0.00785914;-0.10275112;-0.009152461;0.09174607;-0.2328679;0.21743694;0.14187467;0.15870097;-0.038846567;-0.29055235;0.007260254;0.06066237;0.061138403;-0.006241328;0.18550973;0.1917696;0.016299102;-0.0030616587;0.059891094;-0.3846481;-0.000113052265;0.002172792;-0.01097652;-0.23676209;-0.06458532;0.18129757;0.1316918;0.1254445;-0.19152862;0.025262214;0.20060499;0.02497097;0.108147375;0.0019716339;0.004534502;0.0036645846;0.108271636;-0.08720887;-0.015380103;-0.05053376;0.0028766328;-0.014796842;0.03291813;0.003360365;-0.0032312502;0.032303542;-0.07282757;0.004739806;-0.34314588;0.0023260168;-0.040724862;-0.008798572;-0.017123073;0.034567144;-0.20568787;-0.005177195;-0.010133262;-0.2374198;-0.018057788;0.039911643;0.33263865;0.11002606;-0.03988996;-0.14978077;-0.030509839;0.15120947;0.12305986;0.0180005;-0.0038952315;0.13101213;-0.0028426442;-0.050929055;-0.13555115;-0.034621794;-0.0015387497;-0.122323945;-0.695059;0.102637984;0.23614724;0.29108146;-0.014573255;-0.25532028;0.008255604;0.005344428;-0.0120377485;-0.0030069954;0.14028247;0.25131673;0.33513108;0.20766369;0.36203164;-0.023398597;-0.18016641;-0.19274138;0.0076115895;0.30272236;-0.22540125;-0.010955902;0.1475935;0.41277814;-0.014135822;0.29522213;-0.091980085;0.002864224;-0.050379675;-0.06340323;0.26856726;0.006320253;-0.04819913;-0.35686868;-0.017806716;-0.05020337;0.00478922;0.43739104;-0.03812499;-0.11770834;0.006729722;-0.027904918;-0.09084597;-0.06407648;-0.025149293;-0.17440256;0.34512433;-0.084899604;0.28417066;0.05078665;0.02514112;0.1898913;0.2719028;0.0953656;-0.027452242;-0.20813386;-0.12016755;0.03900154;0.100560606;-0.03123689;0.07745808;-0.25132707;-0.0058797193;-0.0077079046;-0.0100123305;0.27229717;-0.095156915;-0.0070350906;-0.021240868;0.22116867;-0.06470778;-0.0013523725;0.019947134;-0.02661406;-0.053288326;0.010731315;-0.0036083255;-0.018972557;0.15096273;-0.06976993;-0.0050054346;-0.05971909;0.28936434;0.0012523921;0.123017155;0.110024534;-0.020827824;0.02624131;-0.20289606;0.007614857;-0.094615765;-0.17270035;0.015184908;0.037015848;-0.025295924;-0.044821896;0.023449656;0.14280172;-0.2982846;-0.077513434;0.019933783;-0.00095641334;0.049237568;-0.26929098;-0.08712008;0.120894134;-0.13879098;0.019275485;-0.01171765;-0.021777235;-0.33326763;0.028681114;0.12004225;0.006352773;-0.18627144;0.025535416;-0.67949295;0.17164257;-0.07996224;-0.010140899;0.09747939;0.000786745;-0.0782456;0.02529447;0.018977057;0.02647868;-0.14475328;-0.18621913;0.0128797125;0.010653834;0.13094033;-0.21018383;0.19791743;0.048710443;-0.048530065;0.00071355264;-0.009139526;-0.28607813;0.2569432;0.17901804;0.00022703309;0.0314438;0.14763838;0.0092845075;-0.25263086;0.016024621;0.018385695;-0.361537;0.06009196;0.0044862754;0.00457762;-0.01918685;-0.15423188;-0.24667263;0.046160266;-0.171225;-0.0003065682;-0.36519694;0.4306012;-0.052626833;0.015615582;0.030974679;-0.015882777;-0.07567829;-0.011292088;0.28175816;-0.008647449;0.07726298;-0.0040709847;-0.18410638;0.22753435;-0.2554488;0.06933763;0.021378912;-0.0100647975;-0.019177385;-0.00016140811;-0.07027301;0.09327173;-0.053696636;-0.18345848;0.15673843;0.021134045;-0.0017771646;0.00373313;-0.005179927;0.16704634;-0.25849262;0.14216293;-0.010285191;0.0019970576;-0.14224856;0.30352554;-0.30153516;-0.20295006;0.015378717;0.28605014;0.045554157;-0.069824904;-0.00794634;-0.021286426;-0.4009552;-0.09726752;-0.0234031;-0.2740424;-0.015512965;-0.16470675;0.15480974;0.016028818;0.011483392;0.38092425;-0.29464206;-0.42031643;-0.059154447;0.09769257;0.0011009363;0.012809015;-0.052504625
-0.013994676;-0.045179833;0.2319213;0.017758517;-0.026735345;-0.20065913;-0.010464132;-0.0072998162;0.2000752;-0.27682108;0.0015763257;0.10935779;-0.053233113;-0.16561288;0.33559087;-0.016913576;-0.5970807;-0.16693608;-0.003174965;0.011231021;-0.5379193;-0.023397805;-0.18639775;0.13966659;-0.17843656;0.24522917;-0.34787628;-0.04365502;0.004014662;-0.23573951;0.3071871;0.08758267;0.2917065;0.14686309;0.0026700213;0.0016160596;-0.050263003;0.22140937;-0.21103235;-0.059400022;-0.05352709;0.0055838823;-0.026735336;0.1854288;-0.0077022854;-0.054199047;-0.107267365;0.13346535;-0.395724;-0.0007254057;0.07806266;0.01010893;0.1058309;-0.23386176;0.13966832;0.14109701;0.022864504;0.11735343;0.2355135;0.097368225;0.42286038;-0.036457993;0.05350868;0.018544197;0.0070016184;-0.0021999483;-0.106641114;0.1040282;0.0965052;-0.0030579448;-0.0041955095;0.023420263;-0.11965968;-0.26329023;0.009175117;0.023161478;-0.013939277;-0.14964676;-0.19908006;-0.10617168;0.1125803;-0.20905252;0.068421096;0.0007031634;-0.12142765;0.0167645;-0.69464946;0.0041723326;0.04968059;0.115096785;0.29894266;-0.10959951;-0.3810115;-0.09432415;-0.32975432;0.020358022;0.02227623;-0.10010414;-0.013573578;-0.13345449;0.25064167;-0.26848286;-0.36240113;-0.0067800344;-0.22186446;-0.00992203;0.016695222;0.017706307;0.011217931;-0.09370491;0.29021296;0.04000249;0.0116435485;0.023183174;0.0024982595;-0.38344675;0.003946043;0.10950907;-0.023405567;-0.15009062;-0.10336338;0.34726748;0.00513753;0.20359483;0.2538751;-0.01462422;-0.004638916;0.048418794;0.055940643;0.008869626;0.08338375;0.020467453;-0.047960192;0.0010358803;0.030783497;0.005869384;-0.4178828;-0.015304681;-0.00637917;-0.009376237;-0.17694724;0.26851067;-0.013068564;0.050209273;0.23574802;-0.040233616;-0.2918336;0.0096715;0.010689528;0.28495604;0.013052908;0.21264532;-0.013291632;-0.4273713;0.008266415;-0.12261454;0.00079573167;0.01821436;0.006992828;0.020487338;-0.08145872;0.1918736;0.0146499565;0.0028146007;-0.027129712;0.29507676;0.17236613;-0.08560447;0.1481272;0.05972592;-0.0045200954;-0.05468148;0.08301267;0.06530283;-0.0022613134;-0.0033917017;0.015086748;-0.00518965;-0.07567946;-0.25701642;0.016047994;-0.22877587;0.12002463;-0.011374487;-0.0120365545;-0.0012621051;0.023257332;-0.116907775;0.26951313;0.054247014;-0.12632361;0.33248824;0.004838951;-0.014818137;-0.040244833;-0.1567336;0.2740161;0.035008702;-0.08877141;0.2842242;0.056448992;0.10267919;-0.007217633;-0.14833617;0.09589211;0.02771755;0.0139934765;0.26793987;-0.07577372;0.014891058;-0.011294323;0.0044499747;-0.16628838;0.0011864495;0.001605931;-0.017446509;0.10742387;0.012701658;-0.15520826;-0.2150756;0.078637436;-0.025763353;0.26771018;0.073423;-0.014571547;-0.27597684;-0.02068885;-0.07001651;-0.00080030033;0.019356161;0.0009558756;-0.077258885;0.06100208;0.27262855;0.06903123;-0.07454255;-0.1392777;-0.18156287;-0.01807553;-0.115891024;-0.12550643;-0.024260521;0.0047077034;0.07249772;0.01926105;-0.093399025;-0.040559005;0.25684732;-0.16192237;-4.134705e-05;0.0073907594;-0.25843838;-0.21338743;-0.1736065;-0.26168185;-0.30709815;0.03107177;0.022553364;0.15399596;-0.17418633;-0.269632;0.115427166;-0.10942452;-0.015393421;0.13308345;0.013591016;-0.08419641;-0.00028478453;0.019244602;-0.009205419;0.1355566;0.053853773;0.0047808927;-0.014296409;-0.015505608;0.04212838;0.15429579;-0.0014854523;-0.10315449;-0.09780099;-0.07604974;-0.25937802;-0.001692439;-0.24879085;0.1909279;-0.35232756;-0.20947598;0.18884505;0.29729027;-0.066253744;0.024966443;-0.23613515;-0.0020005142;-0.032342166;0.094379455;0.007125518;0.12795119;0.06462024;-0.009333091;-0.0013314043;0.022215335;-0.056788016;-0.0062789214;0.049773168;-0.0012207567;-0.1859671;0.13616265;0.19243553;-0.08348043;-0.0005244069;-0.00019799748;0.0014452673;0.43760526;0.08881839;-0.21347477;-0.04895616;0.14364237;0.011409426;0.06449055;-0.2736753;0.021715743;-0.030607242;0.012968504;0.01594471;0.07918685;-0.005011872;0.0051739607;0.040408242;0.063473664;-0.0124101145;0.01748319;0.0041509448;0.045699663;0.014218994;-0.23392501;-0.0218165;-0.16380274;0.024558082;0.0005996991;-0.111249566;0.008044543;-0.050286867;0.39647943;-0.1430612;-0.24653445;-0.07249601;-0.07449551;-0.023575334;0.15133856;-0.0002791905;-0.012135086;-0.030891575;-0.008896389;0.0059629595;-0.3637738;-0.018539902;0.0027462987;-0.290371;-0.73553324;0.05874749;0.09113714;0.2479387;0.009168372;0.035935212;-0.0004999463;0.0073458916;0.019547211;0.10300093;-0.00020459431;0.25374034;0.09409057;0.22319971;0.22060297;-0.004487312;-0.165992;-0.1937115;-0.013483857;0.29338327;-0.23487642;0.008298465;0.36653125;0.18441881;-0.0020384516;0.34457383;-0.2847741;-0.012572196;0.0118726455;-0.104173705;0.19041707;0.014385018;0.03350465;-0.274714;0.006804534;-0.034940165;0.0018246039;-0.034415554;0.03403079;-0.2533714;-0.0053444826;0.010281499;-0.2478209;0.19093637;-0.053941917;-0.066834494;0.11596689;-0.21979313;0.16855384;-0.030913724;-0.010775371;0.19450699;0.25232345;-0.0023503266;-0.0022256393;0.049746767;-0.13415276;-0.11362099;0.14296587;-0.032238487;-0.0036011117;-0.36610982;-0.0019763848;-0.0016809744;0.0036725993;0.08807554;-0.24173132;-0.01328495;0.030871728;0.062203143;0.06791872;-0.016932026;-0.18576236;-0.12879522;0.12590723;0.011139894;-0.004992831;0.010678682;-0.03555282;-0.18785034;-0.0020042364;-0.059515316;0.13650131;0.041174617;0.16871557;0.024418524;0.0020685215;-0.07389167;-0.32450217;0.0077203237;-0.042965967;0.11437424;-0.01849841;0.04054788;0.21621421;-0.11216629;0.34945184;0.32532704;-0.14482135;-0.09508109;0.00074166583;-0.022308575;-0.08409769;-0.078333296;0.08540147;-0.0762368;-0.24048668;-0.018724758;-0.0075908634;-0.16583478;-0.3295638;-0.018412229;0.03133807;-0.004980641;-0.32264158;0.01264538;-0.5106772;0.24452333;0.07897918;0.014199852;0.08361955;-0.005734663;-0.11889672;0.025089696;-0.024708152;-0.02560634;-0.25625843;-0.12656383;-0.014763899;-0.01735461;0.24951999;-0.15727037;0.16797474;0.18581033;-0.010747625;-0.001935655;0.015010913;-0.2112985;-0.037066706;-0.14697292;-0.0017285823;-0.010325813;0.071651846;0.007772232;-0.16957457;-0.004342325;-0.005775581;-0.3239763;-0.1430492;0.00044519486;-0.015081891;-0.0107883755;0.0840765;-0.15998371;0.16490561;-0.20373645;0.0005619822;-0.33918542;-0.1812738;0.11136334;-0.0051535233;0.070274875;-0.09928508;0.004893627;0.027387343;0.15836863;0.0119573055;0.28072527;0.0070792963;-0.37560415;0.08065615;-0.28481853;0.14442688;-0.15834557;-0.0032647627;0.12029411;-0.0024606625;0.061723497;0.08084603;0.046749156;-0.15731622;-0.111599885;-0.0054785633;0.008899027;0.0011856853;-0.00568496;-0.025634995;-0.09470963;0.01697087;0.005177437;0.010098721;-0.29929885;0.3097843;-0.14171128;-0.22001544;-0.025890512;0.2839765;0.1864571;-0.22918081;-0.015526577;0.0097256135;-0.19625144;-0.09181331;0.090551116;-0.31105998;0.03263156;-0.15719444;0.21474415;0.028423691;-0.013258982;0.34131113;-0.1482376;-0.116975226;-0.4307257;0.26049438;-0.018738076;-0.002634959;-0.020438794
0.0034887872;0.019592943;0.2385238;-0.0046200505;0.027935022;-0.47426715;0.0061197644;-0.0011265205;0.08774017;-0.16513656;-0.007142914;0.040414385;-0.3131546;0.099835955;0.31442314;0.012045666;-0.45254758;0.062095378;0.01702057;-0.037972283;-0.31787753;0.03821121;-0.050881755;0.046997048;0.097479835;0.22214344;-0.2725066;0.08247663;0.013335118;-0.17557862;0.3620671;-0.08823101;0.4046273;0.13015036;0.0107068885;-0.0055887043;-0.38809618;0.2005732;-0.1269659;-0.043642513;-0.063351914;-0.01238952;-0.005359201;0.036209542;0.018373018;-0.3371145;-0.14073618;0.08935267;-0.33586928;-0.0014763073;0.11062932;-0.0078009176;0.23598216;-0.112690605;0.18493123;-0.34224725;0.023881175;0.2783027;0.42383793;-0.13375284;0.34005174;-0.18952571;0.06420805;-0.031433184;-0.0026687887;0.0051580016;-0.06450905;-0.027975045;0.14720424;-0.010985854;0.0014711568;0.072664924;-0.20431677;-0.031653993;-0.014419787;-0.0058755763;-0.012981597;-0.18630725;0.17214812;-0.29259133;-0.08141446;-0.16031374;-0.16760775;0.015448396;-0.10805966;0.09174658;-0.65750694;-0.003985625;-0.013537255;0.027370367;0.36688682;0.10853628;-0.41065788;0.24729024;-0.45940977;-0.0044501536;0.010242366;-0.16067733;0.016842108;-0.03956614;-0.07849893;-0.38996977;-0.25388747;0.020515595;-0.15966852;-0.002474689;-0.009135898;-0.0021753872;-0.0031101562;-0.19099735;0.27431852;-0.09145531;0.15712845;0.25011864;0.014921607;-0.3416569;0.0015930595;0.11751275;0.0035183595;-0.20764849;-0.027106235;0.17620194;-0.02123397;-0.0024473106;0.090625405;0.0006274112;0.01044298;0.38480884;0.20113286;-0.009985136;0.16297765;-0.020110082;-0.1236553;0.0017331075;-0.035136044;0.002647263;-0.11623992;0.01482625;0.0078596985;0.0014053844;-0.17542295;0.10564902;0.015605464;0.13222468;0.21086738;-0.031790584;-0.13096951;0.05970869;-0.016127253;0.2535528;0.11759374;0.09927856;0.007354515;-0.3574332;-0.013871404;-0.34368616;-0.35984167;-0.008088228;-0.017108994;0.0044950256;-0.30085418;0.12174909;-0.017628362;-0.0020564015;-0.103218794;0.09948226;-0.17051516;-0.10660203;0.0072970833;-0.19419448;0.11519166;0.27415454;0.0159638;0.03853136;-0.003204392;0.0079854755;-0.077153966;-0.00035768867;0.18119787;-0.30486858;-0.024576293;-0.18410003;0.004897402;0.06799387;0.014905931;-0.008103687;-0.008004288;-0.046231274;0.16848998;0.054131586;-0.32201043;0.32198405;-0.002616851;-0.015208919;-0.18261969;-0.022987178;0.24125524;-0.045594055;-0.15853335;-0.0387957;-0.065512985;-0.02686808;0.10051558;-0.047712095;0.059506655;-0.10122624;-0.014167277;0.13556911;0.11544387;0.0033820088;-0.0031075263;-0.0022789757;-0.077447526;-0.0064259926;-0.008346823;0.0068069543;-0.03692148;-0.015831701;-0.27369866;-0.1594544;-0.08157209;0.09475955;0.115932606;0.1594917;0.0145179145;-0.2700111;0.0014268614;0.06036144;0.008398927;-0.075901926;-0.012896234;-0.015621632;0.06378568;0.28743118;-0.07618114;0.069962375;0.22135329;0.029856784;0.008062511;0.009407176;0.00077687413;-0.039145224;-0.0021838825;-0.04612086;-0.013803324;-0.11102451;-0.038321193;0.08364063;-0.08427636;0.00467457;-0.024330663;-0.15901646;-0.33290392;-0.2771083;-0.14760886;0.0021039601;0.020338729;-0.07586036;0.13896407;0.037862614;-0.23487763;-0.06930671;-0.27842122;0.008698673;0.34159818;-0.0059343777;-0.04435433;0.0049074064;0.050938025;0.09370245;-0.17066771;-0.063594386;-0.016791085;-0.111368716;0.015043826;-0.07028538;-0.25343856;0.013413208;0.047211837;-0.06271391;-0.08014668;-0.17080387;-8.2612765e-05;0.088081256;0.24388492;-0.20039158;-0.1290476;0.24693063;-0.064534314;-0.07805031;0.037498593;-0.019115124;-0.006191145;-0.051269956;-0.056085575;-0.0061386186;0.21215403;0.29541758;0.009648502;0.011233446;0.01757615;-0.091426246;-0.007465392;0.0044284156;0.006379139;0.21370272;0.14459376;-0.029238045;0.1623819;0.1611326;0.014982038;-0.0070185508;0.1994602;0.30306673;0.115205176;-0.10405104;-0.022853944;0.0012890081;-0.07181951;-0.40431443;-0.02131387;-0.02142543;0.19429922;-0.007416023;-0.11329143;-0.0009223107;-0.009603811;-0.07638526;0.09865135;-0.006926006;0.1908849;0.0048114615;-0.2179222;-0.004156178;-0.45749244;0.013128793;-0.13024619;0.08854501;0.008293106;-0.32645652;0.021884345;0.014201375;0.21893029;-0.16031873;-0.25358418;-0.17443584;-0.10176717;0.30259436;0.34849784;-0.006007861;0.017980775;-0.21367072;-0.0028171602;-0.2015052;-0.41086802;-0.008613334;-0.0034764318;-0.16696988;-0.38731593;0.11077219;-0.01260303;0.03228492;0.009443959;0.085643396;-0.0038968828;0.010290496;-0.014208471;0.005898342;0.04587892;0.10433214;-0.02501925;0.24913651;0.1388629;0.004721242;-0.10203788;-0.017070487;0.0022133219;0.15908414;0.019320618;0.015537984;0.15586525;-0.2192188;0.03731553;0.39390525;-0.29983884;-0.007648988;0.020652642;0.04201989;0.19332314;-0.014881207;-0.14822876;0.01859466;0.009084803;-0.1367969;0.0029526912;0.024462191;-0.03387972;-0.008610151;0.0072556897;-0.008966095;-0.17705525;0.16221032;0.1863008;-0.08751384;0.00051731337;-0.32181415;0.22347286;0.19164194;0.0072010113;0.15828168;0.13010588;-0.048762377;0.013457282;0.011734385;0.0010980396;-0.25193933;-0.109347045;-0.09495605;-0.13191754;-0.1273621;0.0029348528;-0.0065362877;-0.001349691;0.49121642;-0.16605964;7.428048e-05;0.06982087;0.121299714;0.14922208;0.011189475;0.08654053;-0.14416066;-0.08446396;-0.0005668459;0.004139676;-0.0075127054;-0.08437654;-0.1790274;0.015574704;-0.04476085;0.206198;0.010080218;0.36346725;0.10781834;0.0030693114;-0.02110621;-0.010966005;0.00015130604;-0.10342972;0.10525675;0.0015853909;0.11200141;0.29003796;-0.1948024;0.53518015;0.16355501;-0.2898594;-0.15659077;0.020582905;0.028900824;-0.012441433;-0.10907368;0.083860874;0.17609553;-0.22262599;-0.018708108;-0.028995562;-0.22208835;-0.023977142;-0.0007709723;-0.13523534;-0.0075243427;-0.043217737;0.066910565;0.2315451;0.2012374;-0.21121557;-0.015390259;-0.024122242;0.011578933;0.046540834;-0.0981683;0.023314318;0.014440657;0.07215533;0.01521288;0.009120943;0.014625078;0.37630776;-0.051374454;0.2781131;0.08078366;0.02316198;0.0023230847;-0.010289515;-0.29984424;-0.0654356;0.05020509;0.018514715;0.007933745;-0.21805903;-0.019701218;-0.031222379;0.009242702;-0.009834459;-0.42866307;0.022924207;-0.00063502183;0.012202176;0.0008692807;0.18719818;-0.18440194;0.05921814;-0.17845769;-0.011445412;-0.22414082;-0.096261285;-0.05710395;-0.012075702;0.21850555;-0.103741;0.1490615;0.014252806;0.17376605;-0.0064141084;0.20940472;0.0017634424;-0.44509146;0.2725544;-0.3879066;0.13484982;-0.14022385;0.0034459522;0.12846152;-0.002175545;-0.076151624;0.1447576;0.10537568;-0.12292406;0.072966896;0.02393853;-0.007960557;-0.012007938;0.025354616;-0.10582796;-0.20890743;0.048210163;-0.005572324;-0.0209304;-0.34075838;0.27994367;-0.08360966;-0.15129054;0.0042639277;0.33770114;0.24403693;-0.017276956;0.015260018;-0.015894627;-0.27186733;-0.15130244;0.07614094;-0.25728887;-0.015968096;0.08657705;0.33499473;0.09099842;0.03962121;0.28221712;-0.118164256;-0.13032115;-0.1998822;0.40379897;0.01829672;0.007958379;-0.1243878
0.0019484871;-0.009775342;0.28698906;0.00571187;-0.004383575;-0.48096624;-0.020149656;-0.008700333;-0.14961587;-0.13328743;0.00800801;-0.061871435;-0.19674298;-0.04230305;0.2523075;0.0035949673;-0.5361106;-0.034315594;-0.018888138;0.017111091;-0.4217535;-0.014980444;0.22357193;0.060723912;0.06362777;0.07153021;-0.019278882;-0.012863148;0.038329173;-0.11986007;0.5837585;-0.006080562;0.14245012;-0.06453197;-0.00069438334;0.008123272;-0.1608397;0.08696382;0.04187998;0.049222838;0.08011558;-0.22287707;-0.1521621;0.06653125;-0.007363111;-0.46533632;-0.20273088;0.12846364;-0.4651955;0.0048827296;0.051623095;-0.014112507;0.21884494;-0.16358532;-0.20077138;-0.2810538;0.13478501;-0.094318554;0.124154136;0.045879036;0.2939223;-0.121017;-0.06608354;0.05161488;0.0083204135;-0.01693942;-0.0852552;0.032615133;0.09987156;-0.0029037262;0.0044549904;0.0690309;-0.09892166;0.029540455;0.011758592;-0.01510958;0.009885025;0.016652796;-0.06061155;-0.29091844;-0.0076424167;-0.022286968;-0.097086325;-0.013782602;-0.05576822;-0.17228235;-0.4821384;0.01048215;0.19541155;-0.0019172932;0.31285685;0.11194553;-0.17377749;0.2528172;-0.32751495;-0.022442302;0.0013870271;0.06360032;-0.01480063;-0.19240515;-0.1180057;-0.24227864;-0.15115058;-0.0054906374;-0.2195282;-0.012334741;-0.010189907;-0.004038136;-0.0037046224;0.15983179;0.21104656;-0.03501483;0.11577629;0.24954486;0.0051914505;-0.010563131;-0.0007086278;-0.12523143;0.0066343322;-0.03279915;-0.18668991;0.054474484;0.032850225;0.09319099;0.073927954;-0.009844137;-0.018791223;0.47574162;0.18168521;0.00582916;0.068563774;-0.12047989;-0.030159641;0.0032942565;0.053813983;-0.003665314;-0.11473601;-0.013177881;-0.022532633;-0.0037653658;-0.041026033;0.2111978;-0.0022626363;-0.113593556;0.2510463;0.11832561;0.11096291;0.042297635;-0.001942504;0.31886;-0.0017704666;-0.20526077;0.009332367;-0.027393391;0.0047900393;-0.30953625;-0.31641212;0.005515906;0.007259641;-0.021007909;-0.3959818;0.27190304;0.0072444826;0.019204685;-0.31723392;0.06300371;-0.026879728;-0.015377947;-0.010053574;0.072424196;-0.21166645;0.35466042;0.21694288;-0.182529;0.011091566;-0.016160687;0.0875991;-0.00036896032;-0.099737585;-0.4020406;0.010903105;-0.16299619;-0.123803616;0.1687613;-0.019158695;0.007840432;0.02860889;-0.0042055445;-0.017862275;-0.040804747;-0.2914501;0.28371528;-0.015675064;0.025664695;-0.031135548;-0.044914767;0.18215975;-0.16668026;0.11153785;-0.16617009;-0.015397189;-0.042911503;0.03576016;0.076004095;0.083374135;-0.023201099;-0.0069406573;0.019840645;-0.029099382;-0.0061145974;0.0132019315;-0.008688026;0.08977662;0.007583138;-0.00012848049;0.0149396155;-0.24381196;-0.0024038167;-0.260085;0.053082936;-0.1949651;0.18039665;-0.25676394;0.2705637;0.003085321;-0.012843885;-0.0070249545;-0.087148555;0.0042462484;-0.078420885;0.009354129;-0.3282037;-0.06722612;0.105978355;-0.0028815;0.18130311;0.14743295;0.12021005;0.008868921;-0.21275647;-0.17922409;0.2745872;0.00083877525;-0.08750004;-0.003840572;-0.07607074;0.058153614;0.20627825;-0.36616808;0.008520656;0.017541952;-0.14352264;-0.2811089;-0.1695672;0.067970514;0.16198356;-0.042860407;0.07865668;0.11512156;0.16635835;0.05542838;-0.0089134015;-0.066067226;-0.0020188503;0.38045546;-0.0045253974;-0.041734923;-0.0063622515;-0.060318384;0.14053307;-0.053099394;-0.19849685;0.01658556;-0.2061652;-0.012988135;-0.046699412;-0.27505907;-0.013772368;-0.020276636;0.12168409;-0.00823847;-0.113410644;-0.004603244;0.2286898;0.33357218;-0.19500461;-0.10360489;0.29370838;-0.14927447;-0.00060132146;-0.061983272;-0.32353047;-0.010287703;-0.032534517;-0.034346387;0.024041472;0.10174263;0.33593658;-0.008679966;-0.00492095;-0.012239596;-0.1600685;0.0070341052;0.097902656;-0.003153893;0.31982774;0.10406827;-0.23031959;-0.06315556;-0.007974317;0.07629461;-0.022517849;-0.063321285;0.40659818;0.15159117;0.006534677;-0.1771253;-0.021855462;-0.22898935;-0.28046072;0.017954903;0.00914443;0.346794;0.00028704677;-0.26148865;-0.004192793;0.010614193;0.045694806;0.08134669;0.01807998;0.08008013;-0.0075188894;0.11580797;0.004333306;-0.48348674;-0.14871524;-0.22349887;0.04513755;-0.01912313;-0.13044657;-0.024087323;0.015093329;-0.10614207;-0.015302576;-0.4217286;-0.19501442;0.059494562;0.031033667;0.48492357;-0.010770467;-0.004829937;-0.1288049;0.017497033;-0.23988949;-0.47707656;0.029367262;0.0044593927;-0.06982373;-0.60505396;-0.066924356;-0.08770193;0.18313761;-0.015566364;0.0818236;-0.009202428;-0.021861453;0.024769982;-0.1776607;0.3260098;0.07741061;0.2280614;0.038916312;0.33514392;0.015363352;0.057923846;-0.124048606;0.013491287;0.17729843;0.25857937;-0.02342569;0.19880527;-0.15483928;-0.032947063;0.21965767;-0.65726125;0.02223223;0.025961779;-0.0565251;0.23289381;0.004431694;-0.09083549;0.08236769;-0.008422439;-0.21183775;-0.019258399;-0.010182459;0.06555472;0.19253065;-0.0028812417;0.0052984604;-0.024500053;0.08963421;0.11135248;-0.04042021;-0.24972747;-0.5215118;0.34482977;0.3313311;-0.010360182;0.15017602;0.17255655;-0.10416724;-0.008984678;0.13139875;0.44684288;-0.16013171;0.12435903;0.017628556;-0.014343754;-0.099378236;0.006693362;0.0060511143;0.014904233;0.39125183;-0.09455008;0.0060367566;-0.54355216;0.20722133;0.20061608;-0.012012808;0.14508301;-0.13952668;0.060564317;-0.007309943;-0.0071895015;-0.013332301;-0.05787226;0.09188628;-0.007462373;-0.0047028544;0.07105514;0.019144565;0.18503964;-0.095607266;0.006472653;0.025820194;-0.09924797;-0.008866302;-0.0101816105;0.16761033;0.0036751376;0.16110532;0.14525819;-0.062144395;0.40815675;0.40791485;-0.17778127;-0.08604511;-0.01815412;-0.008762684;-0.05936192;-0.13560092;0.019857036;0.057498313;-0.05742395;0.030371388;0.06027682;-0.26153296;0.2361692;0.017341522;0.011725205;0.009477884;-0.031843215;0.09174791;0.18308522;0.26709956;-0.08453885;0.0077877697;0.04092992;0.0021739118;-0.14104275;0.13681468;-0.016398005;-0.008739554;0.092931874;0.1221423;-0.004865047;-0.023287093;0.29478937;-0.085336804;0.26462173;0.040585842;0.14723964;0.010724839;0.018102849;-0.026635533;0.2305056;0.008038296;-0.017543497;-0.011975521;0.07070209;-0.012794435;0.0074603693;-0.020540826;-0.0089708865;-0.36221713;-0.2841891;-0.0029800965;-0.017792823;0.014463617;-0.050969236;-0.056298595;0.1833233;-0.03966028;0.0018372465;-0.116260625;-0.05289617;-0.18851636;0.026640592;0.13801166;-0.016102044;-0.20100638;0.004248475;0.081612155;-0.009315239;0.056772713;-0.008014434;-0.5798973;0.1958953;-0.31439632;0.04603554;-0.25314653;-0.011826022;0.08952589;0.014034858;-0.1573672;0.03167029;-0.072691575;-0.05758015;0.071178354;-0.020541634;-0.0063476204;0.0023107035;-0.023232449;-0.034887716;0.074920066;0.08838817;-0.008067578;0.010338876;-0.09313137;0.09272768;-0.51370865;-0.15151502;0.0028387741;0.08477037;0.2140212;0.32678026;0.011248366;0.009089703;-0.24726374;-0.06860266;0.1467095;-0.47601202;0.008400347;0.24800308;0.20991527;0.06994926;-0.009389183;0.21321876;-0.14959049;-0.12647326;-0.11547427;0.18280935;-0.0026160863;0.0022114785;0.17356025
-0.0048512565;-0.31122735;0.28188533;-0.0075798095;0.001962153;-0.6186656;0.0065442077;0.031068794;-0.22108687;0.020873573;-0.016217353;0.07273327;-0.048080724;0.20510502;0.32230586;-0.0034356676;-0.099389955;0.09319675;0.0025703432;-0.03078776;-0.2817483;0.016282197;-0.09638987;-0.11780784;0.10171721;-0.10097073;0.0030130388;-0.3034471;-0.05014504;-0.1753152;0.53374505;0.09817236;0.2204929;-0.22453725;-0.01128117;-0.01723939;-0.25544477;0.04701817;0.06849524;0.12986231;-0.009163219;-0.048648156;-0.29076907;-0.014972227;-0.010507022;-0.28008673;-0.19886807;-0.089763165;-0.32151702;0.00065870845;0.09316251;0.001663627;-0.17821941;-0.16964567;-0.09664678;-0.00084257196;0.05400832;0.07203798;0.023723654;-0.22319481;0.31695718;-0.08771835;-0.33192915;-0.038738698;-0.0028030751;0.020197973;-0.15296203;-0.10657336;0.11942905;0.0047791763;-0.011333041;0.05610094;-0.0093830405;-0.15277496;0.0015394734;0.0128957145;0.011921999;-0.012440105;0.04872997;-0.04586901;-0.10717772;0.11566446;-0.120867416;0.014856841;0.093685225;-0.21524696;-0.32014504;0.004233765;0.16961177;0.035696268;0.23326018;0.03409835;0.014674608;0.16144967;-0.35713476;0.026398964;0.0034567928;-0.028398447;0.0065324805;-0.25688213;0.07513605;-0.3619864;-0.02171046;-0.005603427;-0.24899697;0.0042262482;0.00836993;0.0077898754;0.006732106;-0.10885327;0.118126094;0.058819827;0.18580282;0.23068373;0.0030322827;0.08321582;0.0020217851;-0.030290049;-0.011156858;-0.04579884;-0.023502963;0.11959842;-0.012785587;0.15029249;0.22664753;0.011490746;0.014712687;0.09199844;0.26238272;-0.006850449;-0.014851754;-0.0026057682;0.086358145;0.0037549234;0.096435934;0.015936617;-0.13506852;0.019847516;0.03642701;0.007721383;-0.09090337;-0.0006409809;0.00093828386;-0.14271784;0.19349256;-0.10814148;0.2134979;0.12575494;-0.0045054876;0.16842501;0.00958865;-0.069688246;0.0028348719;0.042094152;-0.0005745466;-0.35626194;-0.62307364;-0.0075396616;0.025888639;0.010428018;-0.40374634;0.29063934;0.0022403789;-0.012999241;-0.13459311;0.18314411;0.12439668;-0.37277955;-0.18849723;-0.1990946;-0.24555752;0.19592595;0.21232325;0.026709205;-0.032020282;0.011359924;-0.21487358;0.003757575;-0.057824355;-0.1205955;0.016021112;-0.1598591;-0.23417622;0.121177055;0.0024967368;-0.0036520038;0.015439448;-0.023500117;0.009337171;-0.20287687;-0.14932837;0.17822616;0.01880589;-0.016830467;0.12901822;0.22535706;0.1470249;-0.21338227;-0.21944766;-0.16737233;0.0315304;0.09447567;-0.0757549;0.1409686;0.24703132;0.0150079755;0.0065894853;-0.32245627;0.09603699;-0.0122577865;-0.0056917914;-0.0007130559;0.10926649;0.00018577407;-0.008907151;-0.003339863;-0.21875449;-0.0022644198;-0.30520317;0.16380298;-0.13025297;0.04448805;-0.2055323;0.2812614;-0.003956927;-0.07702255;0.025017014;-0.19180119;-0.0016323917;-0.097459;0.000523953;-0.31737593;0.0471203;0.23360968;0.12200919;-0.27469686;0.116642155;0.08637477;0.001361828;-0.20279196;-0.028560072;0.43275225;-0.0052508772;-0.069081165;-0.00034474354;0.022318857;0.042620916;0.24407956;-0.14098418;-0.021061009;0.010054338;0.045875426;-0.28960958;-0.11071865;0.070225224;0.2076338;-0.049424637;0.085747465;0.08620305;-0.057616044;-0.110914856;-0.022903245;0.12806565;-0.00722917;0.26625103;-0.0020710828;-0.19160737;0.0033390122;0.013278753;-0.013152662;-0.014024635;-0.105870545;-0.01341206;0.0048398618;0.005428904;0.060327273;0.012308981;0.0041670175;-0.016336983;0.0343109;0.057923526;-0.17211872;0.0006886973;0.58940953;0.056499824;-0.51667154;0.0055870474;0.22313294;-0.13132758;0.05018099;0.017947372;-0.041683137;0.011647557;-0.023215365;0.08194707;-0.017022155;0.13799939;0.39585906;0.0121686;0.0080806445;-0.11701602;-0.1498087;-0.0064527867;0.11700831;-0.008135471;-0.13452849;0.106405735;-0.10366761;-0.07165467;-0.11911739;0.12169785;0.014275492;0.024624875;0.36237782;0.17127015;0.03545696;-0.06675273;0.020889737;-0.07350112;-0.17314929;-0.026299696;-0.03424183;0.35461512;-0.0031012194;-0.28893724;0.0030198605;-0.013305232;-0.011746115;0.21247014;0.007419053;-0.110458784;0.011809524;-0.12608097;-0.017960818;-0.14973733;-0.024527889;-0.21053028;0.11643779;0.010666039;0.10311749;0.026142554;-0.0012719049;-0.00026238372;-0.2840065;-0.26420525;-0.13709462;0.0943535;-0.009093778;0.40286604;0.011100244;0.0030296023;-0.21740592;-0.006705913;0.15182264;-0.5315598;0.0048084385;-0.013484217;-0.11728713;-0.6782212;-0.106675416;-0.24980265;0.27942932;0.004719735;-0.044027105;-0.004030766;0.014469038;-0.002739999;-0.09527752;0.44945887;0.10839742;-0.12555088;0.17132156;0.2652532;0.010592786;-0.038806085;-0.10206296;-0.021921216;0.0817642;0.0033962042;0.019477127;0.16357334;-0.143342;1.8803543e-05;0.037409242;-0.16291249;-0.012276135;-0.01214145;0.09774089;0.041132778;0.007027539;-0.089893006;-0.008391771;0.009904554;-0.14562777;0.02071866;-0.0038958439;-0.07873325;0.15171713;-0.0004990196;0.00085145154;-0.22668271;0.08969222;-0.13030578;0.1389296;-0.38122582;-0.22138782;0.31721556;0.06667765;0.004820813;0.2563778;0.11715619;-0.036701135;0.002268145;0.039182402;0.24221568;0.12680776;0.116930895;0.031445127;0.037631266;-0.13774483;0.00038656784;0.00089332147;0.0015786467;0.14791426;-0.09290774;-0.010816475;-0.22044352;0.29280415;0.065068044;0.007993277;0.2507398;-0.004742346;-0.023079148;0.011427552;0.0018883677;0.015942995;-0.33258;0.011932587;-0.00904025;-0.006770412;-0.08068006;0.0038780195;0.21250756;-0.14865151;-0.0107328035;0.054477867;-0.12213526;-0.020589316;-0.42421895;0.24684568;0.00042914992;0.10639874;-0.12807305;0.03622428;0.44370377;0.22309506;-0.014729912;-0.14560731;-0.005931655;-0.008182759;-0.18564323;0.03024382;-0.021504857;0.026672466;-0.3166962;-0.020312054;-0.027725756;-0.21900162;0.3117018;-0.008772175;-0.0237655;-0.0020592217;0.17306313;0.2229515;0.15052511;0.20736428;-0.14675607;-0.006340693;-0.08724442;0.00060447754;-0.1003937;-0.10813806;0.0016907236;-9.3066046e-05;0.006694057;-0.0936721;0.0147582665;0.018759664;0.09392367;-0.09119245;0.31321642;-0.037327867;0.32716757;0.0039649634;-0.0057598003;0.03266529;0.21356699;-0.016521836;-0.009283495;-0.0060632825;0.17650652;0.019510869;0.072945684;0.03328729;0.019966839;-0.28412485;-0.1129717;-0.0031612513;0.008968144;-0.02078657;-0.12730993;-0.06289443;0.015068817;-0.16740628;0.004453958;0.040681113;0.02174877;-0.103526406;-0.029507717;0.1147487;0.0016663143;-0.29093534;-0.014345441;0.07891364;0.020057078;-0.02293604;-0.004585688;-0.7055981;-0.09721236;-0.15767802;-0.093085796;-0.24649666;0.020965198;0.15072516;-0.009389157;-0.17953089;0.0147773195;-0.08659716;0.024555905;-0.15850444;0.0039369855;0.013432256;-0.0053857844;0.009806707;0.0125285005;-0.08601088;0.026708594;0.026328128;-0.010198555;0.021580216;0.11982938;-0.43424135;0.013224647;-0.008277391;0.06448959;0.21070187;0.045198437;-0.012858443;-0.012717057;-0.38489544;0.06259408;0.027553797;-0.28169224;0.009207015;-0.19599974;0.191196;0.076067634;0.0018511763;0.13579673;-0.09769555;-0.04687244;0.20159176;0.20634651;0.009263015;-0.016298713;-0.13477856
0.010774911;-0.46780604;0.29651898;0.00635053;-0.010209515;-0.4841921;0.008972593;-0.01944621;-0.17566931;0.19288918;0.014569555;0.072239704;-0.10238956;0.085775055;0.23951761;-0.0011218102;-0.21888155;-0.21750611;0.003984643;-0.025873099;-0.2130993;-0.017483048;-0.10888776;0.0263757;0.037657764;-0.0870775;0.07402496;-0.311953;0.05847989;-0.11637678;0.51003337;0.03422742;0.08637684;-0.22283676;-0.0116827935;0.00441242;-0.058412403;-0.07003597;-0.0013380932;0.24594536;-0.0030847047;0.13552931;-0.050682425;-0.11558651;0.010091188;-0.056199845;-0.03682714;-0.18076824;-0.24845745;0.004970652;0.12496252;0.010286922;-0.09805397;-0.15372945;-0.1530352;0.0044420394;-0.20059128;-0.03726976;-0.051565588;0.2760489;0.40359727;0.02064755;-0.06728584;0.010184536;-0.007868726;-0.020935815;-0.09847656;-0.09572586;0.024651976;0.011255867;0.008496068;0.07868606;0.17878507;-0.06748177;0.016215859;0.0059671705;-0.013315707;-0.12339302;-0.011221426;-0.19964682;0.18452337;0.27919003;-0.11109278;-0.015612869;-0.18408541;-0.1548886;0.026044184;0.0004251224;0.03563166;0.090480894;0.369135;0.015018123;0.114846975;-0.16733222;-0.11273287;-0.0019406083;0.004920048;0.0017456653;-0.004263806;-0.14553474;0.1507118;-0.37369642;0.27751988;-0.008409022;-0.25921726;-0.0032137162;-0.010803215;-0.012050789;-0.0059120487;-0.4109447;-0.1197628;-0.22250041;0.2808112;0.03201163;-0.011774332;0.16062485;-0.011247369;-0.2084326;0.006936903;-0.13718502;0.07466499;0.22180204;-0.0013040835;-0.071723856;0.16310787;-0.008797132;-0.004804721;-0.3435416;0.062097665;0.011945011;0.026818251;-0.024935633;0.027344367;0.0024809728;0.122028366;-0.007979672;-0.20125712;-0.0146878045;-0.018876156;-0.0067232023;-0.15298048;-0.11577952;-0.00605617;-0.15471351;0.15921895;-0.08981468;0.18778396;0.317;-0.0021876649;0.15031248;-0.39109012;-0.13116625;-0.02782689;-0.105996534;0.008857808;-0.24147387;-0.6129818;-0.012633385;-0.03595625;-0.015514449;-0.34423262;0.13519734;-0.019385295;0.006232878;-0.056702707;0.11376236;-0.0082565285;-0.5101798;-0.21244632;0.032368198;0.06541756;0.17693567;-0.07758839;0.039358065;0.016921626;0.020792024;-0.04790338;-0.006045448;-0.43496755;-0.005516732;-0.016275112;-0.1651598;-0.11994605;0.02152642;0.017436543;0.005677733;0.06804138;0.12150611;-0.053938285;-0.29349673;0.06664285;-0.049143165;-0.011093349;0.026064174;-0.0211725;0.19979455;0.0071236575;-0.34749183;-0.35751918;-0.25758272;-0.106746666;-0.11097947;-0.014511439;0.39696673;0.17873274;-0.031691242;0.0046831574;-0.03833488;0.18720534;-0.00015265078;-0.004091649;-0.003930088;-0.05671608;-0.007357236;0.008667661;-0.009554851;-0.055294026;0.0134774605;-0.18928686;0.12974554;-0.14530073;0.15408693;-0.25201482;0.2520791;0.014263426;0.13365845;-0.011173302;-0.10021055;-0.00929281;-0.07223875;-0.0044994685;-0.31985468;-0.00016266851;-0.18641149;0.03336352;-0.12906827;0.30373117;0.028085763;0.01127911;-0.27052292;0.039872397;0.044241473;-0.0070292633;-0.13761951;0.004076876;0.022147497;-0.09319747;0.19705695;-0.27860683;0.022998665;0.0044435086;0.096974;-0.37925836;0.08775818;0.17228295;-0.15809196;0.030787837;0.02214936;-0.05399782;-0.107306674;-0.017265063;-0.086175546;0.17927584;0.010668342;0.314292;0.005515923;-0.22336127;0.0023948778;-0.10325787;0.14453883;0.13253053;-0.009102927;0.008788148;-0.05003448;-0.0070720804;-0.022981204;-0.041368574;0.0019621165;-0.013643937;0.15451203;0.19860885;-0.006853815;-0.012319787;0.3088067;0.08801541;-0.53215206;0.22720657;0.22469024;-0.053885028;-0.2043467;0.07761691;0.07818262;0.0128120985;-0.053462286;-0.014405466;0.00027446318;-0.05976114;0.38249207;-0.02010969;-0.014313116;-0.22010784;0.0021896895;0.0007209586;0.33082792;0.020446341;-0.23244572;0.016823176;-0.19039173;-0.43419254;-0.18796952;0.18875614;-0.01193935;-0.15817438;0.51047826;0.089721434;-0.047200665;0.03316207;-0.016099643;0.024609126;-0.12102496;0.024681997;-0.062074088;0.2656657;0.0036150021;-0.2699001;-0.0061704614;0.02293596;0.020993957;0.06609383;0.0043201186;-0.16381042;-0.021658346;-0.56058633;0.013094068;-0.32451388;-0.041335244;-0.23492107;0.19044283;0.008080088;0.013836476;-0.020250302;0.01386402;-0.3101743;-0.07222591;-0.116089314;-0.19468105;0.1635857;0.033424128;0.30472052;0.00991713;0.0030438998;-0.1635316;-0.0062065218;0.21635193;-0.4995927;0.030727714;0.011900441;-0.016872462;-0.54363227;-0.17441598;-0.17365888;0.22877361;-0.007451938;-0.15016237;0.0050513274;-0.021924188;-0.008044893;0.13315399;0.17864582;0.18987535;-0.12180651;0.06938168;0.010521022;-0.030441303;0.15870138;0.18386285;0.0082910415;0.25326854;-0.19078597;-0.016281534;0.055960417;-0.2109823;-0.0010328974;0.21621782;-0.14932765;0.009318859;0.009051748;0.2214775;-0.023591518;-0.010094278;-0.17225368;-0.042684566;-0.0034127566;0.044032216;-0.0006545435;-0.06446484;-0.06367646;0.086657174;0.0017584347;-0.0069041057;-0.112544335;-0.102580205;-0.24093111;0.30997893;-0.3340711;-0.28085023;-0.056305498;0.19689281;-0.020073121;0.08162341;-0.052672904;0.025454096;0.009086958;0.1675391;0.28267154;0.059210192;-0.16901268;-0.038818415;0.1730692;-0.10583422;0.006354184;-0.00860794;0.0055297525;-0.31500772;-0.13536389;0.009771263;-0.16184983;0.3756458;-0.04106483;-0.021944499;0.15480316;-0.08985048;-0.20655201;0.0034422304;0.018706013;-0.0048626736;-0.06611199;0.08326752;-0.0058059334;0.06960687;-0.035852082;-0.017923463;0.15731332;-0.32203507;0.002209669;0.10030214;0.03797034;0.016233932;-0.28944778;0.164402;0.0068766023;0.19655156;-0.017893422;0.008189291;0.5144793;0.186626;-0.1725086;0.009151201;0.003599601;0.028257588;-0.03159048;-0.09324889;-0.042490087;-0.13546735;-0.30581474;-0.0015409507;-0.011868641;-0.12150567;0.31023335;-0.002382372;-0.02942598;-0.0069932975;0.06449738;-0.12839943;-0.15427238;-0.02045105;-0.23061267;0.003117677;-0.22858268;0.0036255913;0.014583374;-0.1801053;0.0033133782;0.028722046;0.35899436;-0.118587986;-0.028576318;-0.020591235;0.07284214;-0.045267913;0.13280027;0.13026313;0.17381586;-0.036205605;0.008634189;-0.17776522;0.11147629;0.067543484;0.0044150217;0.008619948;0.36287442;-0.0012400064;0.13509983;-0.023614895;-0.016202282;-0.09207981;-0.24910767;-0.0017915139;0.008191507;0.01022293;-0.11041697;-0.07630004;-0.021866802;-0.036631454;-0.0044821547;0.21068493;-0.1672614;0.07213459;0.023740517;0.29410085;-0.04671466;-0.35607532;0.04402433;0.20033032;-0.008538385;0.2166247;0.0050481115;-0.61842257;-0.08281427;0.21058147;-0.06753617;-0.18238074;-0.022754127;0.03920264;0.0018344956;-0.022284584;-0.051779427;-0.12836711;0.058731925;-0.05155709;-0.0029691125;0.0047848267;0.008272255;-0.007186581;0.15582341;0.16895673;-0.18258578;-0.0022119314;-0.0011669425;0.3014295;0.12581353;-0.25229728;0.10146917;0.019462172;-0.2173435;-0.23944768;0.19729766;3.8819355e-05;0.006627193;-0.49426302;0.15005797;0.008470023;-0.2967869;-0.018986989;-0.16906655;0.122114256;-0.13172658;-0.017199557;-0.023494942;0.03568253;-0.36344343;0.22183424;-0.08757962;-0.006575941;0.02502835;-0.118070774
-0.00080627867;-0.0514261;0.26949215;-0.015120132;-0.0025871943;-0.22475097;0.0020346388;0.004172881;-0.1607958;0.0010615068;-0.013210506;-0.056524944;0.29087663;0.23000498;0.18993929;0.006462974;0.027333366;-0.110927045;-0.004543792;-0.02034001;-0.33280498;-0.0017743326;0.1101352;-0.024535464;0.13450575;-0.01192239;0.1825126;-0.13185754;-0.043439582;-0.093246624;0.3563045;0.110266365;-0.03399569;-0.01931309;0.011583216;0.01710534;-0.06516533;-0.1496463;0.043053914;0.22797517;-0.024710365;0.21989231;-0.079671666;-0.16452748;0.0054175877;-0.19718178;-0.15962116;-0.25867814;-0.19217396;0.0120324185;0.15515469;0.0037523892;0.09613867;0.022108963;-0.14220914;0.20061384;-0.25235492;0.13810334;-0.19598256;0.26138142;0.51242924;0.16528921;-0.12131516;0.09224365;0.008096726;0.0046538;-0.033432607;-0.31990087;-0.055154048;0.010399778;-0.021370275;0.14663716;0.20261645;0.008345178;-0.013947596;-0.0152027495;0.0029797272;-0.03793172;0.031750113;-0.06577397;-0.11864452;0.24995595;-0.21574436;0.0035418863;-0.16504914;-0.018038182;0.27972662;0.0035581994;-0.01102797;0.1785288;0.25242597;-0.015475158;0.110348664;-0.24221893;0.22636968;-0.017257031;-0.009918603;0.07092286;0.0038129748;-0.20932087;-0.22325823;-0.34955803;0.23935647;-0.008462397;-0.396475;0.002550015;0.018910153;0.0015674985;0.00047489532;-0.5148164;-0.34093964;-0.12169778;0.113912;-0.13748725;0.0012701183;-0.16082247;0.00432799;0.16229182;0.028125662;-0.15678293;-0.11220751;0.16907404;-0.002347369;-0.24653637;0.1994813;-0.0029598414;0.013478319;-0.13995567;0.015964273;-0.011513842;0.0048477314;-0.054945156;0.029489325;-0.019738475;0.271324;-0.016918942;-0.19485334;0.016228508;-0.00027962067;0.01914754;0.04889882;0.18587218;0.00076109427;0.060882185;0.10303268;-0.21150863;0.14934172;0.33181235;0.017657572;0.17437284;-0.018776797;0.061970197;0.057498686;-0.07504;-0.00448989;-0.20807235;-0.39771518;0.026136793;0.012568036;0.028338544;-0.3239142;0.05965312;0.011873461;-0.0023048543;0.038221274;0.008111898;-0.070560746;-0.55714333;-0.19243449;0.4195142;0.021432595;-0.07552099;0.12065404;-0.046075515;0.007887537;-0.020428505;0.15125656;0.00999249;-0.39701733;-0.18875942;-0.0067328336;0.12214049;-0.22184065;0.30490327;0.002291556;-0.008080872;0.027502866;-0.024554932;0.039440785;-0.490465;-0.020888124;-0.0034885409;0.029219124;-0.024820304;0.082956105;0.1149195;-0.16543937;-0.19591966;-0.35429168;-0.16616443;0.20573388;-0.1357819;0.040239476;0.58446115;0.08317741;0.11297271;-0.011257291;-0.041988164;0.12267179;-0.013933458;0.00030606645;0.012329926;-0.023384357;0.021003854;0.0040895157;0.0062087644;-0.06408687;0.0011175313;-0.2653328;0.17673133;-0.0136839915;0.22890326;-0.047574773;0.20495158;-0.0040276325;0.13554007;-0.022079201;-0.095969856;-0.0026702648;0.0064434097;-0.0068935934;-0.079010375;0.02244292;0.11350371;0.10224325;-0.040026695;0.24445337;-0.4186383;-0.011289125;-0.22201079;0.22066374;-0.29727444;-0.0024639606;0.12165822;-0.013847465;-0.034922794;0.16391419;0.14620864;-0.22288385;-0.023791157;0.011322508;0.039462887;-0.44469854;0.032847967;0.09803379;-0.11365749;0.034946013;0.14194311;0.05694124;0.0031269218;-0.17166774;0.36668694;0.25366628;-0.0010143608;0.2407666;-0.0013696516;-0.13246974;0.008736717;-0.1272283;-0.08831653;0.2618365;-0.17091815;-0.0019082617;0.10056207;-0.011076876;0.12781619;-0.047281817;0.0014634014;-0.015694939;0.16354284;0.21524431;-0.026284104;0.027397016;0.2081194;-0.028851707;-0.5225215;0.13266505;0.12670188;-0.17563279;-0.21744953;0.0020088612;-0.10222963;-0.015450156;0.040546946;-0.03130378;0.01661003;-0.035099022;0.32014096;0.018232541;0.002051213;0.05882961;0.06640044;0.013398036;0.075507246;-0.021559756;-0.27921787;-0.11387051;-0.1188538;-0.31358188;0.02675714;0.0714984;0.018026343;0.017221848;0.18980375;-0.39562157;-0.021372862;-0.07143864;0.010730622;0.23156808;-0.122425586;-0.006886022;-0.05383265;0.07767333;0.0077928808;-0.011544227;0.014095956;-0.011741063;0.019972976;0.14901818;0.006312571;-0.24615537;0.015069842;-0.6179556;0.0039097583;-0.26941004;0.0407879;-0.2864365;0.1249563;-0.012045862;0.16543776;-0.005505333;-0.027966129;-0.30137005;0.028374732;-0.095612384;0.04207195;0.20381893;0.3354588;0.21742399;-0.020739548;0.0031693701;-0.15524769;0.0015927658;0.15277793;-0.34795412;-0.11398338;7.9712554e-05;-0.1658455;-0.4635346;-0.21260126;-0.057931416;0.21269414;0.0068648853;0.049199827;0.009667331;0.010934818;-0.008242248;-0.09058522;0.009249828;0.12928146;-0.3885451;0.16958138;-0.070922755;0.021807259;-0.07741623;0.048613247;0.0036396321;0.13378152;-0.226854;0.01761249;0.101458535;-0.010933773;0.042755727;0.1917382;0.0058745514;-0.009328445;-0.026394017;0.10638493;0.03368476;-0.0023586983;-0.14119422;-0.09378548;-0.0060726083;-0.0063244374;-0.013427883;-0.3238702;-0.13426004;-0.08334873;0.0014748106;0.015794044;-0.10522977;0.24841805;-0.20695463;0.13782635;-0.21902426;-0.025575576;-0.117843136;-0.14117716;0.015848879;0.19594005;-0.014323331;0.13176921;0.014778991;0.030012576;0.25982717;-0.05492585;0.06412908;0.033033505;-0.08528242;-0.32525325;-0.017851641;0.006630943;0.00069796876;-0.3920477;0.078053705;0.010856221;0.067511365;0.15894708;-0.11357851;0.018822584;0.21645099;-0.08459466;-0.23820569;-0.00041765143;-0.010989855;-0.010887002;-0.091092505;-0.020424569;0.027943853;0.00075398025;0.17692381;0.008709438;0.033115126;-0.40215033;0.018070053;-0.059328344;-0.13089445;-0.008859068;-0.22088498;0.17729461;-0.00035830864;0.011454631;0.0525826;-0.056171894;0.35267416;0.1661144;-0.09527491;-0.016251583;-0.0064223995;-0.026000684;0.0138446465;-0.16920944;-0.037060287;0.04142164;-0.14133714;0.014225754;-0.0025578944;-0.18370745;0.114490084;0.011858831;-0.4247867;0.009525578;0.1571359;-0.01947065;-0.12624581;-0.2301153;-0.19820589;-0.0053764423;-0.3249654;-0.018049413;-0.04853431;-0.28995913;0.011193963;-0.031682167;0.3984834;-0.08751867;0.010442471;0.017129501;-0.045709837;0.20574625;-0.07881639;-0.13286121;0.036902893;0.0158218;-0.0102182655;-0.10574916;-0.0035742817;-0.054272223;-0.0017719227;-0.017805351;0.10604637;-0.013676227;0.34384245;0.01813305;0.017580753;-0.054888114;-0.14535597;-0.0028692172;-0.007636809;0.0002589105;0.19862537;-0.02095172;0.25807285;0.026824363;0.0062378603;-0.23010512;-0.26558137;-0.113778524;-0.019805307;-0.008067151;-0.110461995;-0.053475425;0.016460326;0.085421346;-0.000100433164;0.2894109;-0.006023078;-0.33342767;-0.1600335;-0.04339765;-0.0797165;-0.23426574;0.021900417;0.23298724;0.00043571557;0.05708817;-0.06165864;-0.004021675;-0.054576006;-0.18646769;-0.0066240206;-0.0032174047;-0.0017521669;0.005930585;-0.069692075;0.40042183;-0.191503;-0.019317284;0.023888225;0.28900033;0.15059344;-0.09409201;0.11669373;0.0011964369;-0.17108089;0.034320023;-0.12884721;0.000695611;0.013813139;-0.18308882;0.23777866;-0.23346835;-0.38140148;0.02518191;-0.05274346;0.020146796;0.015820911;0.0047605294;0.09461848;-0.025805488;-0.22382712;0.44838265;-0.020127233;-0.0011328121;-0.019353725;-0.26668504
-0.0046521053;-0.26450822;0.18949495;0.014604368;-0.0016832501;-0.031854764;-0.0008666335;-0.020803593;-0.25883865;-0.10239575;0.011021744;0.199045;0.2269415;0.2626872;0.12635913;-0.007075509;0.2821056;0.11214688;0.010534571;0.0057533015;-0.44616118;0.00037804223;-0.14453517;0.1235129;0.15459484;0.21965802;0.04431684;-0.0929202;0.0067311;-0.13369909;0.49467814;-0.012139739;-0.045356646;0.26400447;0.01427835;-0.000722619;0.16879758;-0.20467326;-0.04011689;0.22551219;0.009917429;0.2823129;0.11060544;-0.06156107;-0.00781802;0.2904121;-0.057552148;-0.22193854;-0.023093993;-0.013570364;0.10229644;-0.0015919539;0.26964292;-0.079372175;-0.10034884;-0.022525975;0.11270527;0.03263997;-0.29747623;-0.28023115;0.51149577;0.22197996;-0.12918729;0.05357982;0.0055571725;0.003224185;-0.02051041;-0.06655154;-0.11946838;-0.0021364193;0.01470245;0.09126697;0.017354548;0.19726856;0.0077303597;0.0073403134;0.0068512056;-0.03722353;-0.17565314;0.16476583;-0.12902144;0.14158276;-0.27852687;-0.0020910199;-0.029399231;0.020346815;0.015945768;0.028397975;0.087119505;0.3170233;0.39566162;-0.0041057346;0.091386825;0.004206761;-0.02378856;-0.019647801;0.006324568;-0.29801983;-0.011267067;-0.30678216;-0.2196125;-0.3804513;0.54600954;-0.0044147973;-0.32948732;0.0093754465;-0.013425816;0.010331807;-0.005215484;-0.1429349;-0.26714933;-0.02076261;0.1355781;0.07784329;-0.0057280515;0.11904052;-0.011703462;0.21138285;-0.040929656;-0.25366476;-0.11341709;0.030862393;0.009118296;-0.27080923;0.0961665;-0.0019644012;-0.011043717;-0.17155749;0.2665742;0.0016088822;-0.04239653;0.0021375346;-0.026737072;8.313675e-06;0.41702962;0.0067809317;-0.35482582;-0.02025682;-0.009539784;-0.02592271;-0.030618943;0.16494259;-0.0012001472;0.08319773;0.176126;0.041084386;0.3512193;0.48994827;-0.013920873;0.0096304;0.02667425;-0.0016174273;-0.052767884;-0.32002488;-0.011442206;-0.24278793;-0.24675523;-0.005484587;-0.0014204794;-0.022202812;-0.2648388;0.097229145;-0.019519402;0.002726111;0.06187863;0.18089373;-0.09861278;-0.61706454;-0.123784274;0.12019767;0.1244393;0.10312795;-0.0072037242;-0.30551982;-0.007869696;0.0064098914;-0.022245927;-0.016796337;-0.42313677;-0.16961516;0.004395509;0.099561386;-0.057253808;0.45824826;-0.0107974075;-0.0066597294;-0.021005161;0.035863783;0.076869875;-0.6700509;-0.18738262;0.034054577;-0.032203823;0.026464153;0.09464347;0.17504862;-0.18130738;-0.0050923633;-0.43916535;0.03411649;0.023950737;-0.04027136;-0.113500625;0.46265188;0.15480028;0.12595212;0.006918754;-0.040277567;0.12221371;0.00667563;-0.000560114;-0.0024596031;-0.19607858;-0.0238741;-0.0078583;-0.002661018;0.042440042;-0.024297062;-0.083038755;0.1422576;0.21772999;0.06706447;-0.03207928;0.22516625;-0.0025047592;-0.035842177;0.01332025;-0.10270372;-0.0018777694;-0.14790836;0.018045546;-0.07997349;-0.028312445;0.00884164;0.065999754;-0.05185414;0.1375942;-0.28320086;0.009138329;-0.15523405;0.10365149;0.07459932;-0.0011120857;0.09118088;0.02326876;-0.05779962;0.16813135;0.14887421;-0.10268158;0.010924319;-0.02853012;0.0076786964;-0.4356156;-0.0019642708;-0.050772764;-0.07641406;-0.022177262;-0.18345957;0.12877896;0.14148055;-0.2927326;0.036364447;0.20266922;-0.0015942736;0.2551599;-0.0035565833;-0.009916312;-0.013903537;-0.014377799;-0.024277171;0.05805714;-0.18642256;-0.004062594;0.39132744;0.0032225137;-0.08120539;-0.116842076;-0.007362467;-0.072478704;0.12508242;0.0008101552;0.045233782;-0.012083064;0.37810576;-0.016786078;-0.36692724;0.38955352;0.01673326;-0.24536072;-0.027826162;0.03877994;0.03171867;-0.009018054;-0.048414804;0.14215998;-0.013711047;-0.1043666;0.106341995;-0.020192828;0.008194597;-0.126686;-0.0766553;-0.015327616;-0.11367985;0.0062136017;-0.38580057;0.01605091;-0.3315727;-0.27132145;-0.0940917;0.012110361;0.028647384;-0.117275044;0.11885867;-0.14102355;-0.019510986;-0.15668997;-0.014070085;0.1617932;-0.18615916;-0.00831009;-0.1107791;-0.29433352;-0.022186274;-0.13768134;-0.019593876;-0.019308534;-0.0012830755;0.39222232;-0.011077594;-0.28898522;-0.011129688;-0.6765706;0.0125524225;-0.23317592;-0.103420764;-0.15776658;0.019202668;0.004807906;-0.07214407;0.0040066717;0.016041957;-0.25065145;-0.17780913;0.090949826;0.043371573;0.15250748;0.28902754;0.18890907;0.014550834;0.003427708;-0.14308535;0.009373699;-0.117214724;-0.45258957;-0.27468944;-0.009496632;-0.21480173;-0.30873457;-0.11188336;-0.019973028;0.28743324;0.011491354;-0.13385625;0.004279684;-0.009640954;0.025538512;-0.14094727;0.09713201;0.24768059;-0.33193377;0.013209829;-0.25088942;-0.0005225429;-0.040744975;0.17814752;-0.0022494704;0.3180473;0.15622996;-0.011221475;0.017155835;0.1849726;-0.0669371;0.071878016;-0.09372996;-0.0027387026;0.032018483;0.23055929;-0.017603433;0.014461828;0.1246815;-0.1669661;0.002245749;0.27089766;0.021052133;-0.24405423;-0.018342355;0.03830493;-0.0060841776;-0.015438044;-0.20274599;0.15708347;-0.16850495;-0.10519567;-0.015388697;0.108563274;0.010011921;0.07916023;-0.006765147;0.062526196;-0.0065691206;0.034325894;-0.026662579;0.1198562;0.1002736;0.04876166;0.20004438;-0.22172618;-0.14363079;-0.14500366;-0.0005200199;0.012161396;-0.009276161;-0.03653645;0.3528138;-0.020997109;0.03283099;0.26605174;-0.41657797;-0.009522214;0.20035303;-0.015429942;0.1319442;-0.0057984204;0.0120129585;0.007720574;-0.32857725;-0.028407589;-0.008713937;0.0782322;-0.1160316;-0.08438528;-0.1079663;-0.4318959;-0.009317971;-0.13097027;-0.10114355;0.021447895;-0.09383659;0.008347172;0.0029083472;-0.026369017;-0.014282574;0.1356616;0.26002613;0.17550486;0.16477053;-0.016943123;-0.010554356;0.02112893;-0.1311526;0.0036424398;0.091208756;0.0033982042;-0.046247385;0.0028182503;0.0026491992;-0.16384539;0.02782523;0.001619052;0.035576098;-0.018036006;0.25607756;0.07525374;-0.21286704;-0.09552575;-0.30920985;-0.0092580225;-0.36499932;0.010507622;0.19904715;-0.06456622;-0.019208033;0.015872238;0.36402425;-0.16492121;0.0027901412;0.006067384;-0.22989435;0.17882903;-0.17530194;0.100046135;0.089522466;-0.005716116;-0.0068058874;0.0010534795;0.11055604;-0.1546188;0.008834269;0.022430092;-0.26642373;0.022290817;0.023908326;-0.012727486;-0.012895186;0.109555505;-0.140341;0.009347422;0.009809418;-0.002104482;0.16649008;-0.04670166;0.19792056;-0.1313019;-0.0023197562;-0.18924873;-0.018297808;-0.101108536;-0.010486543;-0.058464397;-0.083044685;0.071624324;0.023902934;0.018593114;0.008793602;0.2511834;0.015053108;-0.20591986;-0.37136817;0.18418661;-0.2637822;-0.14100812;-0.011374898;0.12889889;-0.0001831071;-0.11414128;-0.036390867;0.067030475;-0.045113172;-0.38858023;0.021244766;-0.001462492;-0.0031101108;0.004161146;-0.08926449;0.15885152;0.02136204;0.026568277;-0.028808093;0.32252067;0.16378322;0.1103374;0.04906065;-0.008369029;-0.33613053;-0.16736288;0.047754757;0.0057163443;-0.0015773822;-0.30110708;0.06250488;-0.207222;-0.2583676;-0.030570667;-0.016696779;-0.006705659;-0.105232455;0.014047446;0.39208645;0.019270362;-0.39197665;0.70151484;0.14781688;-0.0019163454;0.0032072759;-0.32410178
-0.0018275253;-0.26009536;0.2711834;0.01124102;0.0047872975;-0.10441881;0.0072919475;0.024925876;-0.4206355;-0.114212334;0.008028876;0.109098144;0.34066796;-0.13073193;-0.027816804;0.011387677;0.17958339;0.27726686;-0.009415937;-0.025429472;-0.071588434;0.01323677;0.0040344363;0.056274414;0.036397167;0.23799281;0.04899151;-0.2706756;0.004383099;-0.04822521;0.2178584;-0.09819763;-0.048170578;0.2668171;-0.004487068;-0.016517134;-0.09750709;-0.19161426;-0.31717086;0.027761566;0.049805593;-0.006180659;0.5308099;0.11577679;1.9586087e-06;0.16591926;-0.063182525;-0.21657531;0.16838723;0.0023994686;0.1557925;-0.016665291;0.16331811;0.0517395;-0.40846542;-0.07723613;-0.047925178;-0.11002617;-0.05151803;-0.4366749;0.5529001;0.20213722;-0.13674912;0.0032433984;-0.018325457;0.010900933;-0.040937614;-0.07952272;-0.12956485;-0.0123376055;0.006201795;0.043811698;-0.15602846;0.26594937;-0.0118751675;-0.010384136;-0.008950335;-0.120493196;0.028531337;0.43879783;-0.19985421;0.3216334;-0.38913095;0.003420679;0.12779015;-0.06929357;-0.100442804;-0.026632292;0.30303395;0.2563567;0.27243736;-0.0820709;0.024060398;-0.0175658;-0.13747123;-0.05434294;0.017135356;-0.11031965;0.011200581;-0.19175223;-0.16884613;-0.450666;0.33472636;0.015615723;-0.045963645;-0.0046961894;-0.0029889352;-0.0053535635;0.0050619435;-0.27986604;-0.014903409;0.1738943;0.15986924;0.18255281;-0.0018258811;-0.1670081;0.0043322034;0.27205178;0.024084909;-0.19812116;-0.25370649;0.03514496;-0.0014651709;-0.4684789;0.08443659;0.0017915182;0.011473045;-0.058087703;0.21711002;-0.00032143784;-0.07237735;0.25175413;0.17062883;0.004567225;0.06504862;0.0022974291;-0.3974219;-0.0014682387;0.020619078;0.01359184;0.024591677;0.10092463;-0.00090219686;0.22963575;0.18364331;0.13536456;0.29830673;-0.23168756;-0.006259228;0.27702698;0.16299133;0.18606694;-0.007224568;-0.18983296;0.008501485;-0.38369855;-0.19005947;0.003991863;0.014900621;-0.00538;-0.24057177;0.070397735;0.03798294;-0.012056077;0.018521264;-0.041576628;0.037262503;-0.15127999;-0.17559308;0.14149314;0.12027522;-0.13130079;0.03617783;-0.28691915;0.016091522;-0.0054046954;-0.15423664;0.015082615;-0.5402106;0.032903884;-0.0010732079;0.02859662;-0.08334169;0.5307599;0.000111617075;-0.00053932745;-0.017476382;-0.060547754;-0.056117907;-0.67977315;-0.0056606047;0.17588677;0.0072557013;-0.005225752;-0.056004334;0.22926214;-0.4108563;-0.15491632;-0.41179904;0.18709616;-0.051822953;-0.17751329;-0.16206998;0.31124157;0.06884873;-0.020296242;-0.0040279794;0.15515131;0.10356841;0.012510065;0.0018997953;0.010523573;-0.10178705;-0.0017183538;-0.007184252;-0.00058274093;0.08002333;0.022107773;-0.052940484;0.14877816;-0.10244836;0.16451728;0.013702837;0.011835832;-0.008939586;-0.11962422;0.0075222664;0.09470196;0.0069320374;-0.18307912;-0.015767422;0.08946467;0.0074564484;0.05559769;0.085943535;-0.16355878;0.15620866;-0.04025821;-0.012836309;0.01407865;0.1281269;0.23321612;-0.00903368;0.005582288;-0.0039882488;0.10393991;0.21526815;-0.066426836;-0.050409887;0.0056590387;0.0066357427;0.053221688;-0.4639726;-0.031420007;-0.06389744;-0.19034317;0.022720313;-0.098048575;0.2626439;-0.018992763;-0.23428121;-0.015666142;-0.02235187;-0.0030986518;0.31650385;0.0123152295;-0.110828966;0.013045683;-0.2944663;0.117570385;-0.08283815;-0.056007054;0.002646659;0.39751017;0.0036943352;-0.024900021;-0.02295884;-0.0053624045;-0.054500166;-0.006581963;-0.07205895;0.02576728;0.0058253366;0.35700405;0.09564824;-0.4093963;0.45137665;0.0796675;-0.2564044;-0.27670434;0.102372184;0.11029725;0.021770792;0.066501856;-0.034796666;-0.002414311;-0.08587169;-0.059575144;-0.0055836136;-0.011274641;-0.2603273;0.07573806;0.00081600394;0.06266651;0.0049819285;-0.06388196;-0.05390975;-0.083269216;-0.37716708;-0.0054801926;-0.09590867;0.04148665;-0.19684283;0.0127877025;-0.103082806;-0.11679901;-0.04332673;0.0086793685;0.21348912;-0.29191667;0.018856479;-0.053542208;-0.36846337;0.0050730067;0.055258922;0.02156314;0.03587025;-0.010988287;0.2478756;-0.0019440004;-0.37457684;-0.0053763743;-0.3193666;-0.008450868;-0.07801816;-0.044433616;-0.15631285;0.030167054;-0.00789704;0.04192542;-0.00894127;0.035116896;-0.30050507;-0.08639882;0.06713429;0.10688953;0.19091943;0.045738988;0.2662745;0.0007699896;-0.003175707;-0.043324735;-0.009750436;-0.13676757;-0.29211223;-0.06802938;0.006956148;-0.080757156;-0.15464431;-0.024578158;-0.02737871;0.27763724;-0.011021187;-0.031218424;-0.0050351974;-0.004323806;-0.0133883245;-0.16965336;0.2846531;0.0025770883;-0.5302369;0.093245976;-0.21162046;0.00036367445;-0.19264174;0.18890202;-0.0071446807;0.32104808;-0.07305416;-0.0012045823;0.2628215;-0.014788341;0.04367614;0.1271852;-0.017798316;0.013196125;0.02436206;0.31791967;0.12988423;-0.01493868;-0.3020421;-0.44096786;-0.013399045;0.5500185;-0.017115364;-0.24268675;0.12256891;0.055124264;-0.00793839;0.0018574466;-0.2806499;0.08172228;-0.15110636;-0.30577618;0.2022513;0.24974024;-0.0013096508;-0.25803247;-0.0016502726;-0.1509565;0.086906895;-0.16476512;0.011798194;-0.01334015;0.21533771;0.07036822;-0.21602371;0.02329188;-0.048429873;-0.14087954;0.008490132;-0.0025310225;-0.0058606807;-0.1417722;0.074370086;0.011176582;-0.0123422565;0.20021299;-0.30122337;0.008659591;0.10054729;-0.1939855;0.09415795;0.016708605;-0.0064652567;-0.026703775;-0.35911798;-0.115493394;0.00068789;0.024104875;-0.11384183;0.04199723;0.012140159;-0.3240459;-4.8288533e-05;-0.096285775;-0.07114607;-0.021115968;-0.06503766;-0.032527592;-0.0008648935;0.025233489;0.10045205;0.2863423;-0.00808989;-0.0116693415;0.5979169;0.009163033;0.009958096;0.0012943362;-0.3434378;-0.047874782;-0.027808994;-0.07048325;-0.1059049;-0.0068184766;0.016450005;-0.07345025;-0.21449657;-0.0014170486;0.21914166;-0.0037517082;0.07560341;0.056310803;0.0063759005;-0.110202126;-0.31991902;0.014815152;-0.32505605;-0.011214822;0.044856556;0.011780056;0.02307909;-0.0018037681;0.41280565;-0.17365946;-0.014077373;-0.0087908795;-0.1896376;0.10142826;-0.05519621;-0.08619442;0.009484612;0.016009988;0.013471952;0.14079732;0.11972718;0.19029377;0.011176654;-0.010333241;-0.29762688;-0.0011359828;0.062634364;-0.011475274;0.011318487;0.10340241;-0.025617868;-0.00044946198;-0.002774704;0.0080710575;0.16529562;-0.07333263;-0.05000642;-0.010851748;0.0035257996;-0.43583313;-0.008387453;0.05184845;0.011636541;0.19491094;0.0033895778;-0.09910221;0.017806184;0.022752272;0.001517674;0.14490092;-0.0017423528;-0.37324652;-0.2503599;0.1892629;-0.22786555;-0.05132274;0.0138561465;0.18887341;-0.003632331;0.06402239;-0.054270588;-0.15095703;0.00764046;-0.36744824;-0.013913914;0.0019246958;0.010588266;-0.0059033106;0.11830118;0.09937522;-0.00699224;-0.018237112;0.023225423;0.21491331;0.15966743;0.32835433;-0.19059357;0.012637998;-0.28985634;-0.06389701;-0.19630176;-0.021607941;-0.004474818;-0.37485322;0.21879198;0.08703827;-0.22311664;0.021151476;-0.10495052;-5.023942e-05;-0.14990142;0.01007738;0.14014634;-0.059307087;-0.41096088;0.44464046;-0.04347312;-0.0014262729;-0.012258666;-0.38859656
-0.0004924467;-0.310946;0.18355839;-0.005384695;6.6334884e-05;-0.17352381;-0.01953542;-0.02809154;-0.014732069;0.095188096;-0.008572959;-0.032074947;0.10539925;-0.3274773;-0.06618227;-0.008450215;-0.18043216;0.04086723;0.0060651316;0.024372859;0.20763044;-0.020969303;0.09443663;-0.0006829465;-0.09349507;0.20870326;0.35988066;-0.24136144;0.045150843;-0.19892836;0.29209995;0.060977206;0.079358056;0.17827931;-0.0029403039;0.004121967;-0.06603833;-0.37494266;-0.18834096;-0.1853673;0.0077671004;0.0015049473;0.1759249;-0.026945148;-0.009496655;-0.27928326;-0.062171694;-0.18504539;-0.058066424;-0.012513681;0.115744434;0.02044108;0.00438666;0.19928125;-0.29437652;0.028619189;-0.041037537;-0.0380512;-0.022435525;0.06277894;0.21006083;0.120180055;-0.21610689;0.01257446;0.00905558;-0.012608308;-0.09319245;-0.17765738;-0.06941472;0.0027479117;-0.0054548564;0.028081266;-0.038957663;0.37518945;0.013994936;0.007079957;0.0071711703;0.010223001;0.18129686;0.27634776;-0.06505365;0.4211274;-0.21139391;-0.013546159;0.15005606;-0.15326938;-0.15852115;-0.005568385;0.5194606;0.42631382;0.32603732;-0.069396034;0.06977624;0.039284155;-0.12379333;0.032837152;-0.0023832994;-0.32504335;0.00026876346;-0.09282516;0.3169266;-0.28578556;0.32019097;-0.004401723;-0.122431725;-0.0038291481;0.012314288;-0.010515009;0.006933393;-0.46610668;-0.063484386;-0.028192982;0.107560225;0.046425063;0.005776047;0.017828675;0.010905671;0.28959206;0.0077730534;-0.080959216;-0.0847041;0.12644805;0.0013343433;-0.19329299;0.021345962;0.0013452346;-0.018090531;-0.19874115;0.12952964;0.00030545954;-0.025348546;-0.11503438;0.05931579;-0.00842928;0.2929202;0.0055763414;-0.49267122;0.014429173;0.00067865604;-0.006564712;-0.1984543;-0.122138955;-0.006013966;0.20330693;-0.038789745;0.14466783;0.22496822;-0.020538239;0.013055353;-0.0069984235;0.19275706;0.20563574;0.0015531958;-0.09497566;0.0062991274;0.14856797;-0.08294254;-0.02046628;0.02265684;0.0048286733;-0.0077050105;0.15307426;-0.020801041;0.004953566;0.27159187;0.031258367;-0.24863909;-0.13285153;-0.07178011;0.25821754;0.048088472;-0.064791106;0.08289288;0.1731671;-0.019133767;0.00010701956;0.10235138;0.004364668;-0.36105967;0.23450793;0.016013538;-0.020240199;0.048248265;0.52736443;-2.3221037e-05;-0.0012351758;0.025005164;-0.30254003;0.073149785;-0.46724895;0.29304373;-0.07033793;0.00091670884;-0.0020206128;0.2248153;0.076632425;-0.55084497;0.07125745;-0.45935115;0.1585095;-0.17308235;-0.06278364;0.02606097;0.1016249;0.14016679;0.09666157;0.0022353088;-0.036726348;0.13167661;-0.01752791;0.008041305;-0.00942207;0.07101009;-0.0065481374;0.00954376;-0.005000945;-0.22282892;-0.0033671318;-0.09228545;0.21208458;0.03817721;0.13532503;0.20018145;-0.03281648;0.008592705;-0.066845864;-0.005648182;0.14027917;0.0038269288;-0.09674466;0.006756228;0.13097669;0.035394866;-0.109825365;-0.034179393;-0.17580815;0.105797336;0.11590862;0.011551439;-0.17306633;0.10180117;-0.043087594;0.010366847;-0.20414683;0.0009779645;0.052756976;0.2731346;0.048751965;-0.14573814;-0.021769581;-0.02506567;0.034992956;-0.3913926;0.27680245;0.26183206;-0.034030493;0.03552515;-0.16097498;0.0866847;-0.095454924;-0.3501778;-0.2404667;0.13516109;-0.009667447;0.12472107;0.0016284869;-0.11782869;-0.010318002;-0.31954548;0.24581377;-0.25476155;-0.059745405;0.011064377;0.36596215;0.010873987;-0.051956177;-0.1215071;0.010036194;-0.13593465;-0.06871079;-0.08630072;0.18715155;-0.014015648;0.24308379;0.161523;-0.28648984;0.23492745;0.097535744;-0.20949258;-0.15084668;0.06159125;-0.022250041;-0.01729651;0.029680511;-0.19213718;0.00526876;-0.07390887;-0.0062185633;0.020366559;-0.002129176;-0.2862402;0.008832608;0.008072748;-0.06661009;-0.007884843;-0.14812432;0.050724514;-0.050707124;-0.41274488;-0.070007384;-0.12993315;0.02619092;-0.051432043;-0.13868353;-0.15064147;0.08089772;-0.012065948;0.0087610325;0.07810496;-0.08462759;-0.008806845;0.029854741;-0.15058976;0.02120382;0.0628333;-0.020644596;-0.00842731;-0.04300816;0.16000354;0.0057564555;-0.25438946;0.0067258524;-0.08280285;-0.00053286814;-0.22821796;0.042764984;-0.21067543;0.10508607;-0.009197006;-0.22924136;0.0028702177;-0.028115906;0.03812408;0.039393242;0.027932776;-0.014372184;0.041430686;0.06807473;0.16950484;-0.002828061;-0.008614465;0.0017957028;0.008448164;-0.1025538;-0.4465174;-0.050044447;-0.005862924;0.0530479;0.06892966;-0.21844783;-0.1668546;0.28999537;0.0119313;0.02087861;0.010335531;0.020955138;0.027690426;0.08440836;0.13225588;0.10971979;-0.34135038;0.12907028;-0.25210574;-0.022431592;-0.25495887;-0.14261913;0.0070063896;0.085639596;-0.12409767;-0.013552267;0.20279735;-0.035116903;-0.036486205;0.1139272;0.22152399;-0.017862601;-0.068546146;0.17486347;0.0094629945;0.015496753;-0.44552007;-0.26114872;-0.00025805458;0.2993839;0.002185941;0.008232708;-0.007090379;0.07392838;0.0066554644;0.006028814;-0.12517668;-0.058532234;0.055454254;-0.19857867;0.39272386;0.31090882;-0.15072921;-0.27447313;0.0043009515;-0.38949448;0.272371;0.07875128;-0.01964501;-0.078914575;-0.030868255;-0.008833329;-0.17651495;0.20337187;0.071905464;-0.22061571;0.008981333;-0.014007928;0.004575704;-0.24086499;-0.1128298;-0.004870021;0.12407213;0.026066303;-0.16452672;0.017840693;0.15637816;-0.16762097;-0.14800651;-0.019635793;-0.014802809;0.013655554;-0.15586661;-0.0837878;0.026332088;0.03534287;-0.027647264;-0.035600197;-0.09422649;-0.18599388;0.011099553;-0.15930529;-0.1924171;0.016938075;-0.26888844;-0.32057095;-0.00974248;-0.039367218;-0.12860537;0.24558531;-0.02711702;0.28328976;0.20899071;0.01654959;-0.0006345751;-0.017685717;-0.5203127;0.0149896955;0.070420876;-0.16285497;0.012433046;0.015620691;0.014003907;-0.23426521;-0.007077374;-0.0046111178;-0.14762281;-0.0015259491;0.3008014;0.042257026;-0.023356993;-0.0795558;-0.14671654;-0.0018805354;-0.29879087;0.0042983354;-0.020657413;0.14172287;-0.01861778;0.007166159;0.18102312;-0.15588932;0.004520604;0.011484726;-0.4181374;0.106251106;-0.20981264;-0.18097374;-0.05813786;-0.02904814;-0.0017956602;0.18463378;-0.035450187;0.16412123;-0.020803623;0.0030458637;-0.29759276;-0.026610723;0.1366135;0.033865735;-0.023160208;0.122880474;0.032922316;-0.003190631;0.00043981517;0.0069638086;0.05461273;-0.12180393;0.15570764;-0.12644508;-0.001759917;-0.56339836;-0.024336778;-0.05759492;0.0005043847;0.16673301;0.058333196;-0.10961384;-0.01901002;-0.03372906;-0.0039950763;0.09131966;-0.0017737644;-0.35495374;-0.28396463;0.016482452;-0.25449818;0.23508368;-0.017645417;0.09916618;-0.003191992;0.101843126;0.11171693;-0.09499021;0.18799436;-0.23924097;0.006714989;-0.0005559432;0.0030470463;-0.011917746;0.13759126;-0.028018616;-0.027790416;0.009097013;-0.019168876;0.28842685;-0.09277778;0.11348992;-0.39186066;-0.021004107;-0.18652667;-0.18169263;-0.058831554;0.0061974726;-0.0015700978;-0.30447027;0.08351104;0.1178054;-0.1748456;-0.009464926;0.00917285;-0.00903756;-0.28466257;-0.015007415;-0.08055916;-0.032854028;-0.2702776;0.2792699;0.043146417;-0.0055207233;0.009718893;-0.45371488
0.003267815;-0.11638601;0.07555343;-0.010857025;0.011248719;-0.099296525;0.008712411;0.004535006;0.3268394;0.049773876;-0.00035336663;-0.098834485;0.0098669585;-0.30324498;-0.094495304;0.0037818889;-0.17308491;0.2628318;-0.025440088;-0.023266861;0.08789718;0.012417223;-0.09100265;0.16147012;-0.060051564;0.0049594636;-0.027099399;-0.012197112;-0.04949521;-0.021303196;0.3913625;0.14375351;-0.0066346503;0.33124277;-0.015333627;0.0028548844;-0.21910466;-0.23115069;0.0535307;-0.14958328;-0.12191804;-0.07417686;-0.14494452;-0.1895203;0.0019347563;-0.32963106;-0.045791727;-0.119401105;0.01686316;0.008452269;0.11874681;-0.019073734;-0.05480758;-0.11247288;0.023588222;0.3474887;-0.089730285;-0.27503595;-0.057936493;0.071492426;0.23386817;-0.10696158;0.027585372;0.020245833;-0.00886748;0.0079584895;-0.09420701;-0.08183859;-0.11230817;-0.009363841;-0.00050908653;0.03383652;-0.11291642;-0.17821933;-0.014348633;0.0023625367;-0.0063286033;0.10424252;0.27328432;0.25606492;-0.11469762;0.23591393;-0.05257983;0.001043334;-0.06467146;0.109659985;0.010844769;-0.01855688;-0.0074416264;0.26642045;0.31413567;-0.069624566;-0.048135746;0.058291744;-0.07241255;-0.0027952504;-0.009336168;-0.34247568;-0.0026005905;-0.34183723;0.10652207;-0.28846657;0.1640992;0.017322946;0.019958597;0.007476605;-0.015395562;0.023640845;-0.011763382;-0.42098916;-0.10970937;-0.1526685;0.03349545;0.005853773;0.009302738;0.038992867;-0.0055451263;0.07977662;-0.016101662;0.21905592;-0.20113109;0.028428102;0.007881019;-0.1822084;0.051764615;0.008704569;0.01955244;0.1724311;0.029062005;-0.0014003345;0.109773986;-0.21869335;0.17093664;0.0063234475;0.17013042;0.0014990562;-0.45176083;-0.0062273466;-0.0050027207;0.0040057255;-0.191018;-0.38556823;0.013720982;0.057536446;-0.0056849057;0.18964688;0.09211833;-0.085386075;-0.004126068;-0.09375907;0.17377642;0.12371009;0.041295245;0.028287262;-0.035765786;0.21253784;-0.22154717;0.008154721;-0.034976278;0.0042750062;-0.15906057;0.1458375;0.00452631;0.008643553;0.15927711;-0.0035720367;-0.31221122;-0.23852563;-0.11280069;-0.10925549;0.07219337;-0.07362914;0.06749827;0.2048565;0.020063225;-0.008689883;0.03347699;-0.011087693;-0.483257;0.25042555;-0.018025987;0.0039805234;0.2574638;0.33056295;0.0031666076;-0.00015710089;-0.005021387;0.06647036;0.21490714;-0.4137413;0.145988;-0.33185136;-0.01972699;-0.0035254878;0.2289787;0.09030596;-0.12333142;-0.02906377;-0.3657282;0.22913864;-0.09806401;-0.11728658;0.1994497;0.120088644;0.039070837;0.07143988;-0.0036526357;-0.038758103;0.12780087;-0.0008641016;-0.011912888;-0.008730727;-0.11784469;0.013673633;0.0004326365;0.0027989196;-0.0768358;-0.0043385536;-0.03650484;0.037232354;-0.11555996;0.017454866;-0.13188258;-0.2331465;-0.016734343;0.08498977;0.008543808;0.06904316;-0.011407614;0.025988566;-0.007935834;-0.16853532;0.011236396;-0.20018299;-0.0720593;-0.25251073;-0.0061340216;0.07039904;-0.0038188759;-0.07712038;0.106233135;-0.14850192;0.013617653;-0.09555605;-0.0028992365;-0.011707669;0.15425767;-0.14999406;-0.02979733;0.031973988;0.024562078;0.16884798;-0.3782387;0.5417593;0.026419066;0.011944167;-0.027789837;-0.34916875;0.040859632;-0.18136069;-0.33549705;-0.15435793;0.2047971;-0.0007941274;0.11449538;-0.012082424;0.037897214;0.0002544812;-0.35690925;0.3273179;-0.2799048;-0.12021178;-0.018957298;0.34522936;-0.0096149305;0.0570982;-0.19992837;-3.660352e-05;-0.20724013;-0.108600006;0.11799376;0.3833052;0.0019273574;-0.077730745;0.3702547;-0.24818088;0.30398372;0.1086499;-0.042446543;-0.25781986;0.15096056;-0.05564914;0.013018072;-0.011155957;-0.02060118;0.007442029;0.05392154;-0.044138696;-0.015218342;-0.0012432892;-0.49458614;0.031008467;-0.0007532775;0.029042866;0.0050956015;-0.2752413;0.049402528;-0.23962545;-0.32312256;0.031196434;-0.120355524;-0.010946261;0.059103556;-0.10947492;0.18192145;0.004892297;0.06616583;-0.0049889055;-0.17775545;0.017811546;-0.018538928;0.07363731;-0.055827245;-0.020827519;0.22507;0.022206131;-0.005120959;0.039894477;0.17477642;-0.019311966;-0.19181165;0.021509817;-0.092573695;-0.014564294;-0.31658855;0.10912597;-0.038505897;0.086194165;0.017651938;-0.3515032;0.006851897;-0.017609194;0.18709216;-0.103110634;0.05963102;-0.18521255;-0.062629804;0.029314827;0.14349759;-0.006441754;0.012417161;-0.037237808;-0.0014365184;0.005268357;-0.3951491;0.065581374;0.005929927;-0.0051235454;0.13087727;-0.24665314;-0.12445575;0.23466922;-0.0075781876;0.15058306;-0.018321363;-0.007766466;-0.036040176;0.38164037;0.20036168;0.007809298;-0.056202576;0.06463892;-0.26732552;0.026525589;-0.2194831;-0.21491705;-0.009266172;0.26933318;-0.2835586;0.017024063;0.07881088;0.05158842;0.054253057;0.24930842;0.26954365;0.008606299;0.0012931548;-0.049253337;0.098481745;-0.006583877;-0.280213;-0.23167825;0.009597554;0.19651547;0.006538908;-0.19310099;-0.16117376;0.17635685;-0.0046477714;0.006370594;-0.039897718;0.00020397073;0.19483055;0.0070154457;0.5249415;0.046315588;-0.13585433;0.02929294;-0.0073449626;-0.21546206;0.06618258;0.1796755;0.029087154;-0.036670692;-0.27563325;-0.18508719;-0.14775981;0.0045441156;0.076842144;-0.19420438;-0.0047881044;0.0012695175;0.0040769298;0.16387978;0.14758831;-0.0051293783;0.117720015;-0.020342775;-0.2786354;-0.025925184;-0.13688836;-0.09404486;-0.18177022;0.014223645;0.00901554;0.01499964;-0.091712765;-0.12217304;-0.026795087;0.00991863;-0.14562587;-0.088337995;-0.2038425;-0.19761667;-0.011102826;0.04127437;-0.07245055;-0.0066841636;-0.27838823;-0.0716657;0.0033511699;-0.07930277;0.16923518;0.36944368;0.15381533;0.23068273;-0.07105899;0.0046596723;0.0043794354;0.016499666;-0.38797933;-0.014325038;0.016899124;0.06489687;-0.09313883;-0.027276883;0.0020021675;-0.08063358;0.013858824;-0.00045870797;-0.23790093;-0.002346005;0.28241786;0.055499263;0.0037190395;-0.0048277527;0.002845304;0.0067735533;-0.13407;0.0069733798;-0.1109466;-0.031245766;0.007907103;0.0019121103;0.068933986;0.10262877;-0.005313745;-0.015927289;-0.3965509;0.032642826;0.0041279946;-0.12411111;-0.10232474;0.025085688;0.007661706;0.12635963;-0.20804133;0.05967803;-0.0018060462;0.0010996574;0.21487159;0.010272126;-0.21150705;-0.025567165;0.0036228867;-0.040349066;0.06426906;-0.013737042;0.0059302687;-0.021629078;0.04516568;-0.021329638;0.28039232;-0.21769826;-0.0060641877;-0.35074177;-0.22435196;-0.026456652;-0.0036752094;0.095496394;0.015964318;0.031899966;0.004893978;-0.030256363;0.0015520127;0.2967388;-0.016692137;-0.37802795;-0.055365432;0.09323286;-0.14113186;-0.094939746;0.005167314;0.0009766973;0.0073692375;-0.09685067;0.17164963;-0.09623705;0.103955485;-0.23645352;-0.014177548;0.0027292243;-0.0093479;0.018689554;-0.011895126;-0.055273578;0.03745775;-0.01977469;0.00074011984;0.40404183;0.04012262;-0.08996369;-0.36975923;-0.001026639;-0.24566767;-0.19432454;-0.15888792;-0.0017277381;-0.007938155;-0.33258176;0.13698749;0.16981332;-0.0907039;-0.004714488;0.26817718;-0.079267;-0.26322544;0.026750613;-0.045502707;0.15318896;-0.38589185;0.28349218;-0.14310588;-0.0015633535;0.0011947185;-0.00447719
-0.014342959;-0.15025614;-0.13846223;0.0076892506;0.014067955;-0.06308042;-0.005813295;0.009576046;0.2523493;-0.20100996;0.00940344;-0.2613284;0.13793387;-0.0015510764;0.14892896;-0.008717152;-0.033682484;0.14199066;0.025296379;-0.001185136;0.14465803;0.0039806003;0.058329124;-0.055753633;0.071395226;0.21403003;0.10823576;-0.160425;-0.029572364;0.0050287275;0.33318314;0.2759711;0.1031098;0.2202356;0.013603912;0.0036287778;-0.07915725;-0.14338787;0.09159274;-0.06232646;0.06527244;-0.07677574;-0.13344152;-0.25423953;0.007186636;-0.3105735;0.05672966;-0.05569793;-0.036236193;-0.0049800314;0.1489793;0.01552754;-0.21236542;-0.26722544;0.13485391;0.17892273;-0.34953615;-0.10709496;0.026005968;0.2790002;0.024564788;-0.21003069;-0.03049937;0.017784268;0.015875146;0.010901215;-0.021335682;-0.043086458;-0.12890972;-0.0010056676;-0.0033583757;0.022213975;-0.03888607;-0.04956403;0.011336437;-0.013153873;0.00030164022;-0.023504034;0.3766991;0.25444153;-0.32869115;0.095107734;0.035504337;0.0012226573;0.07329296;0.009235014;0.24489191;0.018030312;0.035716183;0.2258866;0.24186254;-0.11125984;0.11701563;-0.060402267;-0.20617732;0.03547932;-0.011418172;-0.45722604;0.017807536;-0.46063685;0.13901126;-0.2288377;0.2715336;-0.008571793;0.24915569;-0.0069490727;0.008809833;-0.0014101194;0.0066742687;0.06720313;-0.29963285;-0.067522034;0.07836663;0.11887227;-0.013362257;-0.037849914;-1.0687622e-05;0.16051462;-0.010178883;0.10324718;-0.42661974;0.17731342;0.002387205;-0.29015234;0.12569697;-0.0062555196;-0.019932361;0.12501639;-0.02668932;0.0012485184;0.06541297;-0.09603377;-0.06356286;0.011970138;0.17889346;-0.019523297;-0.24750003;0.0058089704;-0.0076676244;-0.0022727468;-0.3432884;-0.46575794;-0.0074739545;0.2143588;-0.062252633;0.22149697;-0.036802642;0.0481935;-0.003049297;-0.15985937;-0.024435451;0.07979629;-0.022183338;0.23563518;0.029282138;0.17606759;-0.21840744;0.0019569804;0.013782179;-0.004356043;-0.16621648;0.24616732;-0.017092194;-0.0038978867;0.07062887;0.0825311;-0.34009948;-0.27367383;-0.22324492;-0.21377708;0.1455281;0.13034141;-0.10196462;0.40121314;-0.0130999815;0.025683096;-0.07683774;-0.0038002993;-0.22425012;0.016365511;0.006277328;0.09478054;0.23903713;-0.0142412735;0.008159131;0.01146008;0.051249288;0.02050082;0.13190068;0.044361435;0.18872981;-0.28473365;0.007142098;-0.018538969;-0.09230366;0.11625996;-0.23727499;-0.04774335;-0.17815542;0.28624305;-0.11138395;-0.12531929;0.28592557;0.006270616;0.014250857;0.07740866;0.01709259;-0.20366047;-0.06586837;0.019252874;0.006028494;-0.00449339;-0.3355244;0.0005769918;0.001881125;0.0063533955;-0.08207633;0.004007916;-0.13820606;-0.16033547;-0.0056914575;0.10859819;0.068797454;-0.2013343;0.01212856;0.17605512;-0.005054467;0.04564005;0.005784479;0.034183227;0.008778459;-0.23985755;0.039293345;0.12427009;-0.36031857;-0.28266925;0.07987612;-0.38823178;0.0032949373;-0.060882516;-0.16477226;-0.18206766;-0.018316863;-0.18568696;-0.012016423;-0.15022376;0.280523;-0.04083511;0.23070806;-0.020287849;-0.02027314;0.3088563;-0.34096158;0.36956236;0.050516192;0.092975594;0.007154099;-0.38502344;-0.05248815;0.05617295;-0.31056416;-0.12918717;0.18842667;0.0043513235;-0.056510746;0.0068045133;-0.10152327;-0.0038751387;-0.13357651;0.15681;-0.08724497;-0.40142417;0.01914667;0.12319799;-0.009024555;0.068395615;-0.07283885;-0.0025413746;-0.1649932;-0.22868422;0.10405883;0.3775157;0.0037761386;-0.06556555;0.3225043;-0.04619957;0.07559054;-0.019165408;-0.0021462524;-0.09437358;0.16270107;-0.24245295;-0.011941829;0.2825236;-0.13614437;-0.0014155994;0.15616822;0.025084559;-0.007764838;0.0014879697;-0.33155736;0.18923824;-0.005106378;0.008366191;-0.002671807;-0.36619353;0.0048539513;0.08198348;-0.20871258;0.12767859;0.011545933;-0.0021399744;0.13971864;-0.2739997;0.13934335;0.24547727;0.2343824;0.009483012;-0.056255057;-0.24605672;0.024274614;0.09173789;0.0584089;0.022229422;0.16752063;-0.009045051;0.0029041714;0.014208466;0.14439212;0.017567428;-0.32601908;-0.02342979;-0.00739534;0.01796536;-0.14748268;-0.037484;-0.124509856;0.25955737;-0.0067678536;0.06442835;-0.0135811595;-0.00058535225;0.18790512;-0.07879604;0.1208139;-0.05625126;-0.14424345;0.017867126;0.03731881;0.005999831;-0.005805208;-0.07857912;-0.004775943;-0.0050912816;-0.40592688;-0.017241122;-0.0033817466;-0.09265806;0.073945165;0.26056662;-0.16703847;0.23677738;0.0032361173;0.2675643;-0.0014933874;-0.008339069;0.010438739;0.29661363;0.09216637;-0.30684516;0.1907809;0.036058985;-0.27941406;-0.027570888;-0.15151651;-0.20385759;0.012563742;0.30965394;-0.11244615;-0.0066684354;0.048183624;-0.017297355;0.013556326;0.1746818;0.11543985;0.015446456;0.031699788;0.06117218;-0.015512956;-0.02122611;-0.17660467;-0.3647418;-0.00044143066;0.06511626;-0.0190293;-0.04500751;-0.28459823;0.093833536;0.013556475;0.004655658;0.2590868;0.038830467;0.1752134;0.21539918;0.4546235;0.17676567;-0.0962311;-0.067848325;0.012622121;0.027724765;-0.09949032;0.14465998;-0.023678938;0.0055424063;-0.084257774;-0.20277058;-0.18548214;-0.10756127;0.013422024;-0.05417802;-0.004083034;-0.0029711416;-0.012999925;0.09196401;0.3832098;0.010494459;0.088697046;-0.08629662;0.04297567;0.005597336;-0.32465884;-0.1544005;-0.37327215;-0.0034156195;-0.016436446;0.0040532006;0.12054035;-0.07115048;0.0100953095;0.06068406;-0.05556464;-0.15974267;-0.21299674;0.07466207;0.0069174794;0.08290622;-0.07983365;0.009286472;-0.27960128;-0.29073972;-0.0035031296;-0.10645253;0.21432972;0.25587466;-0.27253598;0.30978632;-0.062137082;0.17003545;0.023174964;-0.02866676;-0.44925722;0.09835477;-0.03623292;-0.010593834;0.028843908;0.0074739885;-0.036376543;-0.089296274;-0.16655593;-0.003317706;0.102028124;-0.00048866146;-0.22680154;-0.021710448;0.1465058;0.025571208;-0.12318785;-0.01618352;0.17043094;0.0006836709;-0.10923194;-0.23946913;-0.012611833;-0.0050073275;-0.08379393;0.144127;0.0044864058;0.00968221;-0.11762348;-0.08520104;0.36155507;0.010556673;0.02016169;-0.024818754;0.003012133;0.20253456;-0.2707804;-0.123922326;0.00096773834;-0.01376619;0.32674682;0.012884706;0.067097925;0.010760377;0.00349063;-0.29383755;0.14592151;0.0075076744;-0.0115587115;0.0011193434;-0.03648207;-0.23687641;0.3274679;-0.04227241;0.004688956;-0.71344984;-0.12957667;0.04442682;-0.003879194;0.18663602;0.10089852;0.05358775;0.026038276;0.044859655;-0.0038896538;0.2663436;0.0013095563;-0.11493316;0.23297487;-0.2507324;-0.112390086;-0.044366017;-0.0009516665;0.017014295;-0.0064635305;-0.10804661;0.095079236;-0.0013666325;0.126106;-0.07946439;0.0078860745;-0.010115171;0.007355094;-0.015807904;-0.3470276;-0.16510506;0.047800083;0.00921218;-0.010209509;0.26085082;0.04889417;-0.34379104;-0.41108832;0.017887456;-0.15532245;0.004017681;-0.18184595;-0.0078061703;0.00056128117;-0.16794427;0.10127128;-0.031492893;0.052073643;0.017753411;0.20516412;-0.014225288;-0.13518538;-0.024796505;0.041988116;0.1678028;-0.22812288;0.022559304;-0.17576948;0.0033922358;-0.0040325574;-0.039816562
0.008732318;0.20648603;-0.20190115;-0.0027663298;-0.012068265;-0.08814606;-0.011184783;-0.0020189357;0.36859477;-0.11429083;-0.020969663;-0.08016715;-0.27798253;0.066476814;-0.029941611;0.013125055;-0.037203383;0.10311887;-0.02193155;-0.030730044;0.05209872;0.00651826;0.02962465;-0.04719927;-0.040893644;0.23049882;0.2394226;-0.41431415;0.05348165;0.16834873;0.30368477;0.0699304;0.10902912;-0.2335542;0.003535229;0.0018014375;0.19079652;0.007995981;0.39027253;-0.14363167;0.016629668;-0.24543113;-0.058975965;-0.38809192;-0.00059940375;-0.23299675;0.12523699;-0.052767828;0.09147683;0.019855894;0.28811148;0.007170704;-0.09784822;-0.3438705;-0.12697497;0.044665065;-0.09163101;-0.14530383;0.11497427;0.010386184;0.0921827;-0.31305823;0.013279918;0.012723743;-0.015229978;-0.029054746;0.08998575;0.010547996;-0.2857685;0.018803574;0.010001002;-0.019513916;0.07806582;-0.33026406;-0.0072161728;0.0055320784;0.011122649;0.13567185;0.55043995;0.0135705825;-0.32027978;0.1515167;0.056644913;0.00452965;0.029090997;0.10970571;0.1362927;0.014931844;0.24752642;0.19882266;0.30755347;-0.14963661;0.19146577;0.23357569;-0.094040476;0.004542414;0.01859837;-0.5353599;-0.004263759;-0.41474262;-0.0041373963;-0.17210819;0.23948152;0.014175146;0.14218092;-0.019727495;-0.009232665;0.0011726787;-0.008186921;0.28306693;-0.42240784;0.004359592;0.17862332;0.17939605;0.0007211836;0.11302811;-0.0067438916;0.02433311;0.021305824;0.0949391;-0.12314782;0.14130278;-0.014533618;0.038289733;0.0062907236;0.010958314;0.00253677;0.14493899;-0.17410836;-0.0013858057;0.08713606;0.019818872;-0.0041507054;-0.0006682934;-0.027804067;0.023080172;-0.14572221;-0.0019967486;0.004856472;0.00237575;-0.055090606;-0.31143466;0.007475188;0.25301948;-0.3538903;0.15539597;0.07142975;-0.14941166;0.012023714;-0.22830373;0.13272956;0.21005653;-0.018966783;0.19812784;0.010568707;0.22446004;-0.34723192;0.0062642707;-0.024509812;0.0026752118;-0.26960623;0.17820728;0.035798933;0.002035123;0.07346197;-0.00053021783;-0.35353172;-0.39188927;-0.15649386;-0.03507371;-0.06287296;-0.22986148;-0.027603295;0.12053237;-0.016858434;-0.011497533;-0.10881;0.012169172;-0.14076294;0.1971919;0.004627229;0.18616152;0.0590249;0.10801354;-0.007579642;-0.0015663687;0.04466644;-0.085499905;0.019370614;-0.11125969;-0.019434553;0.01873902;0.012370653;-0.00010646069;-0.036800973;0.044249102;-0.13944754;-0.13390362;-0.10506545;0.061942015;0.25209704;-0.017244056;0.09342609;-0.04101784;-0.15345915;0.225303;-0.01860128;-0.3437379;-0.24515833;-0.023713892;-0.005134525;-0.00016553406;-0.036153037;0.0145570105;0.0011262065;-0.01453464;-0.11422779;-0.0037235692;0.027865035;-0.070241846;-0.059369743;0.17630255;0.025001805;-0.1983735;-0.013492047;0.06419805;0.0022438932;-0.0005776501;0.0021062393;-0.07560618;-0.021293838;-0.012062031;-0.09699701;0.27835268;-0.5351165;-0.3488353;-0.013438624;-0.20989142;-0.007712359;-0.15240994;-0.119366676;-0.13213743;0.00910038;-0.23520473;-0.00069816364;-0.22946121;0.26927775;0.17300445;-0.026496546;0.0029291012;0.015127848;0.33150303;-0.28343058;0.27325302;0.05266115;-0.08630157;-0.007786607;-0.34465617;-0.1002738;-0.043751158;-0.10577278;0.047760267;-0.2957772;0.0016407102;0.13739043;-0.0076194895;-0.015049574;0.0010527214;-0.08659984;0.25306487;0.11234953;-0.25509337;-0.014413774;-0.045145202;0.0214339;-0.067547105;-0.27100343;-0.0033513731;0.09550925;0.116823494;0.1111388;0.24514171;-0.012386418;-0.13650382;0.24169464;-0.12798962;0.077195674;-0.03022951;0.35822108;-0.2048065;-0.029701453;-0.54046184;-0.007860222;0.104513004;-0.13743715;0.007032869;-0.11582498;-0.0036132154;0.03529176;0.0052637625;-0.62081516;0.24003115;-0.0006750104;0.05043839;0.005142591;-0.3458569;0.049060494;0.007879156;-0.15780535;0.09375066;0.08463799;-0.028482242;0.08162975;-0.082209624;0.23851992;0.2518122;0.04702052;-0.016564747;-0.05044387;-0.046234787;-0.006340438;0.08288399;0.17870858;-0.026025651;0.13381337;-0.0092127705;0.0027605277;-0.008255508;0.1282602;-0.016744051;-0.5316589;0.0126560135;-0.028181033;-0.0006303155;-0.18578988;-0.014356419;-0.073673844;0.1908063;0.0036288893;0.022181712;0.009365855;0.017866991;0.24745202;-0.0010833718;-0.05755112;-0.2159589;-0.22143354;-0.083362594;-0.06743867;-0.0028532436;0.008174287;-0.06269748;-0.005363811;-0.030931005;-0.1650992;-0.06146334;-0.0035126;-0.07543225;-0.15535796;0.003509051;0.021622747;0.28449488;-0.0020871228;0.27394804;0.011345758;0.025334548;0.005480114;0.07955881;0.17148784;-0.19913198;-0.15061255;0.0042221877;-0.31222638;0.010642413;-0.13404672;-0.13393883;-0.0043289056;0.0682879;0.39070594;-0.004724085;0.03579395;0.11653538;-0.06546407;0.08329976;0.06138272;-0.02043562;-0.04441935;0.3480106;0.31939563;0.02436497;-0.11154334;-0.18152678;-0.0033969355;0.22051883;0.015577183;-0.04195268;-0.11923874;0.05568857;-0.008945469;-0.024344508;0.3234095;-0.17575666;0.07249142;0.20018776;0.2972366;-0.0370434;0.023586405;-0.106213614;-0.016039686;0.18774341;-0.058096252;0.2167848;0.022218272;0.07423135;0.049881518;-0.1537822;0.04476873;0.09498103;-0.122629;-0.05945722;-0.016049454;0.0010220882;-0.0036383527;0.10787053;0.4553469;-0.013389431;0.044225466;-0.047455866;-0.07009274;-0.0022052517;-0.27570453;-0.061409336;-0.57830435;0.015563333;-0.00510003;-0.022279281;0.19811311;-0.056638736;-0.0089682;-0.022644266;0.058108438;-0.063201465;0.06933431;0.22309901;-0.000765493;-0.0041733603;-0.08695846;0.00020411263;-0.15865232;-0.2788317;0.016317217;-0.04826491;0.28826103;0.29108837;-0.34153232;0.3490075;-0.15203841;0.066099435;-0.015399675;0.007150487;-0.42370963;-0.02710395;-0.03740145;-0.005776576;0.087992676;-0.01178202;0.02504772;0.0066811033;-0.21192335;-0.0007245053;-0.08538335;0.0041737026;-0.07471712;-0.10687203;0.43187666;0.07826802;-0.062032737;0.015630657;-0.09582021;0.014239009;0.21342139;-0.15548378;0.000777207;-0.0040390864;0.18287775;-0.31255668;0.008316602;-0.012645629;0.2879761;-0.006345744;0.2713077;-0.04496505;-0.07557614;0.016940774;-0.017002676;0.18285163;-0.05794695;-0.069162756;0.0007439976;0.019765288;0.032788362;-0.0034946713;0.021754421;-0.0024040728;0.0044700527;-0.09598889;-0.022562321;0.009884113;-0.0050208904;0.0032815323;0.047084082;-0.29962942;0.49300483;0.016843969;-0.008098919;-0.7122908;-0.06474508;0.15490448;0.006070874;0.04117372;0.09783414;-0.11202573;-0.004633049;0.047636278;-0.012957314;0.24275474;0.008952072;-0.13864674;0.23936762;-0.5254039;-0.16414584;-0.19295533;0.00105733;0.029231869;0.010943185;0.029727317;0.084827356;-0.072228126;0.20111221;-0.08287078;0.0140489815;0.0014696278;-0.018456062;0.010219303;-0.218412;-0.06722603;-0.20663813;0.0063648764;0.0120070595;0.0527581;0.11376328;-0.3860322;-0.271023;-0.014064434;0.056414813;-0.10840203;-0.0876818;0.020048285;0.0065102754;-0.37173617;0.020424418;0.044304725;0.041153975;-0.0053379647;0.09757936;0.24665041;-0.16533087;-0.0027104022;0.18237056;0.06799524;-0.24622403;0.21181539;-0.11405712;-0.0018168105;0.013365485;-0.19384344
0.015156551;0.14634201;-0.08911847;-0.0049117245;-0.002986462;-0.048904225;0.0132783605;-0.022785196;0.34084415;0.00017437516;0.0148021905;-0.13282901;-0.1550969;-0.19399443;0.23653932;-0.018082364;0.19478281;-0.09037748;0.01896738;-0.016710328;-0.2747184;-0.010662413;0.3854995;-0.017462218;0.10128764;0.12865902;-0.022391371;-0.38355115;-0.025646385;0.03604776;0.07725247;0.21281077;0.08257902;-0.20662;-0.0011515233;-0.021388117;-0.022113854;0.04575991;0.3179688;-0.07836248;0.025025116;-0.049881097;0.044513833;-0.037799656;0.008612703;-0.5020069;0.24640265;-0.11122463;0.0886826;-0.026922384;0.2816575;-0.019421956;-0.014401925;-0.21167766;-0.16004439;0.29441163;0.08215215;0.1322046;0.2202095;-0.106079996;0.08694272;-0.12744674;0.09028412;-0.035680763;-0.0020939591;0.005551804;0.13641982;0.0058107344;-0.36897492;0.0007150298;-0.016476667;0.108246855;0.2515406;-0.3412137;0.0021962838;-0.0072243074;0.0014081834;0.11943974;0.68337727;-0.2690182;-0.15624112;-0.03941212;0.1889929;0.0045505012;-0.09149493;0.11230358;0.11085149;-0.015757313;-0.10631229;0.031274922;0.27885;-0.1837791;0.26198918;0.31947473;-0.008465275;-0.041112658;-0.007840688;-0.52177244;-0.009496131;-0.06507168;-0.05813935;-0.35933128;0.40617475;-0.020716077;0.15908574;-0.011405497;-0.00015263601;0.002910274;-0.0035084002;0.274805;-0.45695403;0.41022757;0.20238924;0.13422586;0.00680454;0.1827634;0.0023865795;0.011354719;-0.0031912164;-0.01878551;-0.010625874;0.020729747;0.008835589;-0.009033204;-0.018198768;-0.010242853;0.00551694;-0.11095335;-0.20430014;-0.0142829325;-0.09299739;-0.014827411;-0.015350766;-0.017853431;0.21187118;-0.022616502;-0.06474133;0.010804671;0.019240543;-0.00091917516;0.11601421;0.0010140985;-0.012394101;0.004005026;-0.4895044;0.05575854;0.35409507;0.06891104;-0.013563302;-0.06882664;0.32276666;0.22752313;0.03376129;0.31850177;-0.016436327;0.06699143;-0.16844027;-0.0061334083;0.0035765662;0.003923776;-0.3142389;0.08600873;-0.032714438;-0.0016740578;0.16840279;0.018719768;-0.45480123;-0.27558872;-0.027670385;0.17380671;0.044961907;-0.08961218;0.08244993;-0.112832926;0.018257998;-0.008630073;-0.14120917;-0.0014971478;0.04135507;0.27078295;0.003248177;0.33943948;-0.088147156;0.11752207;-0.0041953535;-0.0017623393;-0.006049618;0.015891967;-0.040134788;-0.19166806;0.052542124;0.1795064;0.002253578;0.006274492;0.06194365;0.017108303;-0.07517964;0.06440792;0.029226523;-0.09912307;0.10533099;0.0807885;0.047208413;0.031249322;0.020862736;-0.019050956;0.009985941;-0.1729343;-0.23179011;0.0024338185;0.006391326;0.00021594492;-0.2098773;-0.023452904;0.00070310687;-0.001648059;0.01460839;-0.0029883045;-0.13050717;-0.029849166;-0.16205533;0.057056364;-0.09713611;-0.116079584;0.022921301;0.120935656;-0.018977195;-0.03088713;-0.0024671836;-0.17840533;0.026056353;0.012966053;-0.17247652;0.32418138;-0.105895914;-0.43803903;-0.09580866;-0.22089602;0.0042162263;-0.2309246;-0.014949336;-0.05870689;-0.005424859;-0.19402102;0.007981522;-0.2925566;0.0959482;0.24340776;-0.38168582;0.022337234;-0.011730227;0.07685251;-0.06784967;-0.05681173;0.060441982;-0.11556526;2.8319968e-05;0.08934979;-0.08937048;0.15433002;0.09862732;-0.094533496;-0.47160172;-0.0027300813;0.048601337;0.0021509535;-0.15842374;-0.0118672615;0.02183838;0.051761158;-0.0054864227;-0.32725832;-0.0014974347;0.0207068;-0.013460952;-0.004104187;-0.2685311;0.004115862;0.13065286;0.041140802;-0.0044804453;0.0005268262;0.009236612;-0.1641578;-0.031109197;-0.1367581;-0.08377416;-0.121448815;0.25851306;-0.3753263;0.07385473;-0.5743137;0.005369733;0.17815913;0.08215276;-0.023413867;-0.2200593;-0.04723823;-0.02522934;-0.0046056695;-0.40538418;0.3064814;-0.0130961295;0.10092453;-0.011858368;-0.20432408;0.13257745;0.32298046;-0.108986124;-0.114256695;0.18833195;-0.006487969;0.13887247;-0.06503956;0.19115113;0.21093494;-0.12043223;0.016385483;-0.004364956;0.16279468;0.011664462;0.015001099;0.08868279;0.011528766;0.20249861;0.020687558;0.007500592;-0.043597758;0.1353347;0.013709817;-0.45451742;-0.012485333;0.014300366;0.009307229;-0.10706744;0.03289626;0.151398;0.103239484;0.009243477;0.20125388;0.005188636;-0.040312715;-0.18244335;0.18921497;-0.005035979;-0.22602198;-0.23520494;-0.0836159;0.23275308;0.0155508835;-0.0103359055;-0.049485773;0.009778896;0.010354109;-0.02788017;0.114300154;-0.001298448;0.0896015;-0.55393094;-0.14556512;-0.05005599;0.22564745;-0.003233662;0.3844316;-0.013266077;-0.010594995;0.0045998595;-0.04594008;0.2719447;0.16911536;-0.07324496;-0.055336863;-0.098963946;0.009462989;0.025188118;-0.20268859;9.888647e-05;0.06434432;0.30860835;-0.005216267;-0.27448806;-0.04445335;-0.00059444894;-0.08841439;0.17979865;0.006028269;0.0388734;0.0075368853;0.18887162;-0.0077691604;0.24823584;-0.06310903;0.002050855;0.2815165;0.0025657907;0.17351553;-0.18990184;-0.00067633897;-0.014765536;0.017860342;0.15992019;-0.1661773;0.45590362;0.29081288;-0.05189456;-0.14751107;0.16411224;-0.208458;0.017921701;0.2720068;-0.089695;0.03682216;-0.01882287;0.12103977;-0.2137539;-0.22195837;-0.17398313;0.109636046;-0.04636282;0.1152054;0.02516305;-0.0037629446;0.007001986;0.072503194;0.3426607;0.021138228;-0.049583502;-0.037286542;-0.2606882;0.012895271;-0.2053097;-0.07733595;-0.4037077;-0.014990104;0.017754767;0.010032708;0.08396862;-0.12723573;-0.0065694735;0.012947539;0.06736184;0.022641333;0.111677855;0.17595017;-0.0019804838;-0.062446784;-0.05249422;-0.0032987802;-0.019291574;-0.121605836;-0.008545326;0.04931383;0.13930488;0.21837875;-0.3124918;0.253316;-0.104075044;0.05615773;-0.022373697;0.008345374;-0.40200883;0.02875271;-0.08903804;0.04955561;0.45760697;0.008315822;-0.012941882;0.02146321;0.096154965;0.0018485234;0.17496738;0.004983381;0.07072234;-0.15733235;0.38293;0.17860715;0.08563703;-0.0046768347;-0.33939293;-0.019613586;0.22707514;-0.11693419;0.016831145;0.009637289;0.058757752;-0.19809605;-0.024426311;0.0044838632;-0.046646267;-0.009827428;0.193525;-0.0920541;0.13610183;-0.0027593507;-0.0007048526;0.14638269;-0.079891324;-0.083661124;-0.011382053;-0.015810067;-0.0020281042;-0.016818373;-0.082733296;-0.0034686155;-0.0032106806;-0.09500376;-0.065889806;-0.016356992;-0.0072002406;-0.0038520675;0.03677997;-0.23908633;0.44778177;-0.12525761;0.013979599;-0.705858;-0.041205615;0.077121854;-0.010038907;0.2563785;0.036247835;-0.19585311;-0.009291754;0.13331753;0.019631738;0.06753381;0.0016920352;-0.18749216;0.1912964;-0.24474025;0.026754405;0.038792673;0.0073246527;0.093981616;-0.015863344;0.11169626;-0.101425774;-0.050483968;-0.026817383;0.010731628;-0.02240295;0.005393533;0.008900831;-0.0035443068;-0.10972044;-0.018853126;-0.024747465;-0.0044793156;0.0018920061;-0.0042619505;-0.020540347;-0.27921453;0.025606588;0.020174915;-0.114333674;0.1714979;-0.13065432;-0.011188628;-0.021298785;-0.32659128;-0.07769799;-0.01638821;0.08152818;-0.017588917;0.23518631;0.41061732;-0.18598735;0.01082721;0.08396346;-0.08127316;-0.37186077;0.09264713;-0.21993165;0.010796734;-0.031028774;-0.07161442
-0.021276958;0.17231704;0.15669803;-0.0035505807;-0.020780398;0.119444124;0.008145754;0.014530728;0.18299219;0.027798902;0.009612779;-0.022462148;-0.24886382;-0.20033045;0.120367706;0.014983102;-0.14168799;0.0051933588;0.0048405216;-0.015701493;-0.30041647;0.00975509;0.2454368;-0.0053955135;0.03963273;-0.15566322;-0.12227906;-0.3694101;0.005839533;0.11343462;0.10727583;0.14670585;0.11476501;-0.41919425;0.002223898;0.01976722;-6.94254e-05;0.16692504;0.048505697;0.09566348;-0.03934892;0.04745206;-0.0762948;-0.022119878;-0.003264972;-0.2709787;0.35988274;-0.017028805;0.33137307;0.02182632;-0.0026136844;0.015068022;0.017961621;-0.056221556;-0.123497546;0.08096113;0.1036973;0.20631623;0.2854721;-0.13589858;0.14864291;0.16467135;-0.11883612;-0.043921843;0.006499728;7.733744e-05;0.099375814;0.10664986;-0.24453905;-0.0037912652;0.01441784;0.011575042;0.17087631;-0.23039217;-0.012099965;0.026196323;-0.008887529;0.042341813;0.34599206;-0.21060629;0.11302772;0.06591402;0.02646633;-0.0102416165;-0.052915204;0.15444794;0.03386365;-0.017263805;-0.032654643;0.106245905;0.40485403;-0.34092963;0.28725293;0.19725358;-0.032476567;0.042409036;0.0069710496;-0.13240421;-0.0042833523;-0.20691857;0.15159371;-0.39046103;0.2966292;0.007624728;0.4515571;0.013894113;0.014874545;-0.0109618595;0.0016485348;0.15182509;-0.06036504;0.35228026;0.1865516;0.21082;-0.009119851;-0.16746058;-0.00013980427;-0.11050835;-0.008864408;0.16109523;0.1852332;-0.02195127;-0.007839147;0.11581781;-0.09834021;0.008900996;-0.001374878;-0.24675453;-0.13586517;0.009274049;-0.017653089;-0.18655494;0.016670726;-0.0015563458;0.11338552;0.009884371;0.096382566;-0.022034055;-0.019918183;0.0038492228;0.20972817;0.039222147;0.0054273237;-0.25485232;-0.64898074;-0.00035554363;0.17032412;-0.044378914;0.0041316836;0.13841109;0.21670353;0.15185426;-0.048908778;0.27395618;0.006005444;-0.12582539;-0.1863621;-0.016755112;0.010543041;-0.00910509;-0.082839936;0.04264682;0.02576449;-0.0031665936;0.040385164;0.17202266;-0.5842221;-0.13402714;-0.14528579;0.33219436;0.12654597;-0.21384929;0.042488646;0.038366627;-0.0054792976;0.007197509;-0.23926976;-0.0031916036;-0.031244533;0.4211871;-0.02138719;0.13351804;-0.092369564;-0.044892486;-0.01327793;-0.01870709;-0.020293575;-0.19397238;-0.11847238;-0.32648715;0.09269332;0.14336862;-0.0044369795;0.016182546;0.21585494;-0.10454852;-0.070223026;0.102067575;0.07245061;0.014258921;-0.04707676;0.08081203;0.13532555;0.019624949;0.13158014;-0.12525888;-0.027682025;0.21207431;-0.36614993;0.013155936;-0.010424158;0.023274729;-0.024703877;-0.005882382;-0.025216138;0.019347174;-0.07018344;0.013233912;-0.15720093;-0.10758739;-0.3462237;0.19027269;0.2898278;0.040426705;-0.0061347927;0.080276065;-0.0029068291;0.011620669;-0.016469033;-0.09305042;-0.0056844964;-0.017647196;0.0069417953;0.4542568;-0.33008465;-0.2004925;-0.02456149;-0.10776189;0.008411304;0.030084822;-0.0657513;0.18147542;-0.0060277716;-0.14958331;-0.002984989;-0.18743914;0.122249834;0.17121795;-0.3473702;-0.020820763;-0.0057077273;0.1262144;-0.026728716;-0.039460845;0.32937694;0.076231;-0.02816915;-0.060115222;0.13576083;0.12159386;0.11391581;-0.09229535;-0.5527042;-0.00046515313;0.16134538;-0.0004912184;-0.33592054;0.018719276;0.099004254;-0.14605428;0.12493508;-0.42415845;0.0064905738;0.013598817;0.008532162;0.09344171;-0.2465616;-0.0055019683;-0.0013048493;0.1589871;0.0765829;0.0028002567;0.0058476627;-0.06443363;-0.008092458;-0.074258216;0.08236123;-0.005721866;0.33727643;-0.355899;0.5318181;-0.52411664;-0.00473592;0.2059801;0.005829333;0.015752932;-0.21267293;0.031803735;0.013427288;-0.004174557;-0.30505145;0.16412006;-0.0005322484;0.040971275;0.00072222337;-0.19681309;0.02844832;0.43116066;-0.14545679;0.21325523;0.13492721;-0.026627766;0.043036293;-0.052010454;0.20992598;0.18241079;-0.113396145;-0.017542321;-0.1983427;-0.10273149;-0.022357063;-0.008726007;-0.08615267;-0.014671777;0.20905416;-0.019115208;-0.0121509405;0.019976417;0.10292257;-0.0012860715;-0.5407428;0.0058072163;0.16322805;-0.006349329;-0.091311604;-0.12141085;0.16309938;0.18999143;-0.013969035;0.22513361;-0.010417554;0.050248813;-0.05801135;0.4058934;-0.05445938;0.151589;-0.3916718;-0.11756494;0.26797968;0.0101544075;-0.00046196574;0.0066689514;-0.0016341326;0.051454496;-0.14052685;-0.022861669;-0.0018114862;0.12357083;-0.5898449;-0.22781765;0.023451617;0.054774154;-0.007822915;0.16412054;0.0089042885;0.018790599;-0.022008304;-0.21258672;0.20547467;0.17596737;0.048192307;-0.010678758;-0.06448067;-0.00022174073;-0.22613251;-0.041533936;0.00058775564;0.23651412;0.2123181;0.008483759;-0.1772515;-0.110990815;0.051605858;-0.006240636;0.04559886;-0.0056097507;0.010935928;0.18777089;0.1461711;0.00909937;0.1430746;-0.004662922;0.009550641;0.40943414;-0.009823633;0.037467845;-0.2704015;0.02389351;0.006187094;-0.00091259263;0.096948154;-0.20472811;0.35511857;0.3137683;-0.35546088;0.045035847;0.20028332;-0.4616239;-0.003344919;0.11447041;-0.23043801;-0.100128464;1.21825815e-05;0.1117367;-0.18476172;-0.07719044;-0.09495513;0.20454209;-0.07455272;-0.069626965;-0.012950465;0.01067307;-0.000538346;0.12873751;0.30627224;-0.017225266;0.17409144;-0.13055824;-0.112891;-0.0159359;-0.061653502;-0.03723236;-0.4832603;-0.006745843;0.012119785;-0.011298126;0.2411321;-0.1252902;0.0073079206;0.027731936;-0.040954795;-0.06720869;-0.080361485;0.085615;-0.0043170177;0.06896284;0.004597879;-0.01872764;-0.101702675;-0.22702055;0.0033537468;-0.05376712;-0.18647131;0.24095997;-0.4140466;0.2576862;-0.11902988;-0.011376244;0.019289322;0.009314255;-0.44423693;-0.037428632;-0.059258692;-0.025255177;0.41293207;0.014609519;0.01584844;0.12706535;-0.012964448;0.0037734967;0.4224375;-0.005938325;-0.07483555;-0.0821974;0.14529487;0.19125009;0.28447786;-0.0048080278;-0.3011926;-0.0010166254;0.35907048;-0.10627826;-0.003767929;-0.014221539;0.3360394;-0.38309458;0.018273784;0.009028475;0.1587814;-0.14563318;0.17474659;0.0013058006;0.32567257;-0.02128334;-0.0016848702;0.05574458;0.24417202;-0.089363575;0.008880374;0.011853275;-0.18882152;0.014981422;-0.05540344;0.011318641;0.002404516;-0.2125855;0.013168564;0.03165164;0.020823387;-0.0018765577;0.23940448;-0.14253166;0.16953425;-0.23770374;-0.015877998;-0.6858621;0.19396539;0.110595495;0.0069758883;0.26177338;0.06432659;0.03434209;0.011659484;0.082143046;-0.014913876;-0.18164307;0.00671878;-0.164958;0.22575843;-0.15080675;0.044227943;0.06857903;-0.019441638;-0.1145951;0.0005056334;-0.080071054;-0.09177979;-0.11928343;-0.14587404;-0.090514846;0.00030279614;-0.013102241;-0.00021920547;-0.003686669;0.12278313;-0.026793752;-0.1252136;0.0062617203;-0.017420027;-0.14378257;-0.113567494;-0.25245568;0.074551575;-0.034569744;-0.10611417;0.1610257;-0.27643722;0.0025262327;0.009077452;-0.072103426;0.089875616;0.20204686;0.14750516;-0.020986592;0.34031668;0.4082669;-0.12862802;-0.015568981;0.2767884;-0.19994557;-0.43421367;0.2585351;-0.3943748;-0.008384321;0.025734091;0.079201296
0.010248095;0.22461429;0.38221905;0.01194929;0.017752867;0.23683277;-0.00833729;-0.000112713045;0.18239957;0.021251787;-0.018474858;-0.05324377;0.047732156;-0.09491864;0.08160573;-0.016233036;-0.22930908;-0.083682515;-0.0066911783;-0.0025472005;-0.16062437;-0.00617833;-0.016050275;-0.0040275212;0.036494896;-0.24694672;0.090009026;-0.3885839;0.0053523635;0.14063077;-0.37715614;0.15608227;-0.14391097;-0.30093876;-0.008072963;-0.018355936;0.0012694944;0.05131932;-0.27507758;-0.062246557;0.008184984;0.0065132584;-0.105891384;-0.29358697;-0.013462842;-0.122210175;0.27799046;0.17688265;0.2917812;-0.003330041;-0.28182513;-0.031051777;-0.13630429;-0.14143497;-0.016957562;0.29183033;0.15403546;0.35247684;0.29673156;-0.2729196;0.115959555;0.3373122;-0.34544167;0.027369507;0.007101989;-0.005164637;0.12418083;0.011817729;-0.2625444;-0.010740244;-0.0098204855;-0.12621573;0.16070414;0.1155107;0.007422137;-0.018183054;-0.00021157815;0.056023248;0.3047371;-0.32467312;-0.12401197;-0.355817;0.0282387;0.0022708215;0.22439925;0.1300308;-0.05270759;0.029247105;-0.0980339;0.02780474;0.3713257;-0.17827109;0.39861372;-0.36672315;-0.09659893;0.0868132;0.022831103;-0.18049207;0.016043734;-0.2903729;-0.14952283;-0.31858233;-0.1934;0.00015035892;0.43310848;0.00627688;0.0035057166;0.013355841;0.003511165;0.03335493;0.10005568;0.48512566;0.094883054;0.2212887;0.00071112777;-0.13584137;-0.010402701;-0.24449463;-0.013136647;-0.019267177;0.10601764;-0.039478347;-0.009010237;0.08928729;-0.06339744;-0.02319625;-0.0011721944;-0.31856802;-0.31952903;0.00438814;0.12758513;-0.07386376;0.17764284;0.010188478;0.1598824;-0.008958194;-0.014562945;0.0039897757;-0.0027287023;-0.009303796;0.10053639;-0.36280066;0.010336785;-0.30044383;-0.69021755;-0.021878634;-0.23289876;0.082772404;-0.0009644926;0.08830615;-0.19412893;0.2590496;0.08742534;0.06909217;0.0068415697;-0.16129185;-0.23959719;0.022025255;-0.006394173;0.0012912194;0.06875843;-0.2834484;-0.014937473;0.0065984596;0.17890742;0.17338294;-0.5168412;-0.15326415;-0.1485748;0.20871249;0.1421265;-0.26460648;0.01307615;0.1300427;-0.0065517356;-0.0046317168;0.0330055;-0.0014102773;0.31124446;0.27233332;0.016840447;-0.042440172;0.007961654;-0.03387257;0.009406716;0.007134879;-0.080151305;-0.22252692;0.25937596;-0.48555532;0.20008053;0.1895703;-0.0027980765;-0.01690719;0.25729197;-0.11092899;0.107939936;0.087424725;-0.0806958;-0.14983872;0.19421503;-0.021856356;0.016587442;-0.0599134;0.10043295;0.05238732;0.01873981;-0.05424524;-0.46641424;0.001561675;0.0040185056;-0.037151713;0.05022376;0.021769127;0.028393127;-0.0093053;0.038937666;-0.016857518;-0.13236159;0.019493405;-0.122742794;0.16679488;0.109608375;-0.1719658;-0.007758689;0.15858565;0.021423733;-0.15781151;0.014205946;-0.06767623;0.0029352284;0.08037613;-0.037207317;0.161263;-0.10018227;-0.04526779;-0.055396352;0.076789126;0.00019175759;0.07260844;0.042762328;0.43214536;0.0015413715;-0.084091514;0.019501505;-0.23062535;-0.0371538;0.062744364;-0.25710225;0.0130416285;0.02968515;0.09675756;0.04959249;-0.076047406;0.20741189;0.12712514;0.038052797;0.13679188;-0.165937;0.06675243;-0.046891477;-0.070793286;-0.5078388;0.0006948893;0.11670345;0.015183594;-0.31311274;-0.002266578;0.32833612;0.047614552;-0.00090682297;-0.1742579;0.0008637282;-0.042808153;-0.00061617553;-0.05684152;-0.016980713;0.013783372;0.08372014;0.13623324;0.28867626;0.03260488;-0.011118047;-0.06990516;0.02146512;0.07446241;0.052366138;-0.12809703;0.14751033;-0.20180394;0.14433245;-0.6043677;0.014560816;0.13543369;-0.07893676;-0.0063876105;0.023382379;-0.16331902;-0.008095197;0.016663844;-0.47066006;0.14793223;0.019382596;0.004278573;-0.009235597;-0.12332283;0.04468419;0.43767154;-0.08339816;0.34601787;-0.17570318;-0.06022824;-0.024396986;-0.06709922;-0.21297549;0.0634343;-0.047394425;0.0065933857;-0.13251498;0.15720783;0.017948609;-0.006218735;-0.13333562;0.013040992;0.07036543;0.0017067206;0.0059150485;0.018100148;0.19131891;0.004184029;-0.7485217;0.009597184;0.017183423;-0.0072170664;-0.17195949;-0.21194059;0.035636675;-0.013805212;0.004354504;0.1138621;-0.011507141;-0.05001254;0.021956142;0.44160467;-0.2551707;-0.009659632;-0.27512798;-0.14471787;0.29031926;-0.016332934;-0.0012744543;-0.013412091;-0.0075433142;0.17340015;0.042804465;-0.13160792;0.0019566156;0.0067320196;-0.44505227;-0.06247543;-0.029973712;-0.06548613;0.016512254;0.015218668;0.007592422;-0.026579548;0.007926946;-0.11975972;0.03150176;0.09056218;-0.052539125;0.0013617966;-0.21978755;-0.008030588;-0.21489356;-0.06558688;-0.0017603133;0.16550243;-0.22696364;0.0014762427;-0.19312972;-0.15559144;-0.0031163637;-0.32741436;-0.29735556;-0.0019740614;-0.03447043;-0.081743084;-0.013508041;-0.0013477115;0.022973593;-0.14229164;-0.013192792;0.1501155;0.0023186598;-0.32560217;-0.3715011;-0.06512507;0.010931736;-0.013003772;0.2399266;-0.13641718;0.14205684;0.29966778;-0.27711594;0.08779244;0.036462385;-0.6116582;-0.014859624;0.1207936;-0.22558004;-0.083787255;0.004636905;0.03578984;-0.23905854;-0.018392611;0.04650343;0.05160241;0.23825288;0.024512814;-0.0053547295;-0.012967283;0.012702101;0.058493473;0.29896477;0.015969696;0.017050097;0.046610348;-0.21619882;0.022392746;0.0070354235;-0.06102357;-0.5612914;0.0134590035;-0.0058257896;0.027645255;0.15938008;-0.23840839;0.0014756842;0.0036256541;-0.19115445;-0.009535567;0.040570952;-0.13319449;0.0073918584;0.11380905;-0.1478498;0.0063410862;-0.12422235;0.0317923;-0.01935653;0.0045358697;-0.09514212;0.19320095;-0.18214607;0.15891796;-0.1065406;0.08769109;-0.022449931;-0.006117543;-0.0737238;0.18794994;0.015056789;-0.2329771;0.2684617;-0.0127363;-0.010358382;-0.008189058;0.053523574;-0.010025476;0.32776257;-0.014340372;-0.22271737;0.14688165;0.36636338;0.16336419;0.18818991;-0.0030579795;-0.45851484;0.00063015736;0.11446605;-0.1702881;-0.007966601;0.0054499903;0.1279468;-0.42768827;-0.0027381212;-0.009608869;0.13690661;-0.23378927;-0.01352275;-0.043029826;0.18467695;0.00237607;0.00031449596;-0.009139746;0.22934796;-0.1328949;0.011353647;-0.013379482;-0.005312815;0.00765165;0.12115229;0.0070103537;0.0065712533;-0.14724427;-0.026195746;-0.028601494;-0.0052258363;-0.0020406458;0.058733918;-0.021054015;0.04621804;-0.26539838;0.023247162;-0.49452975;0.38454723;0.09787029;0.00044379797;0.09401279;-0.007697591;-0.116418056;0.0073784217;0.11528357;0.009681078;0.08884937;0.008971764;-0.0071317833;0.015612554;-0.32609078;0.0554568;-0.05040098;0.006000976;-0.14371878;-0.008481348;-0.020827165;-0.09761812;-0.07075522;-0.25006393;0.019647855;0.00085349975;0.0080313925;-0.004854443;0.0035266276;0.11000391;-0.049146544;-0.12448739;-0.01643664;0.020579703;-0.23562784;-0.11337298;-0.0024483618;-0.038336482;0.017222244;-0.19342788;0.27553335;-0.2057523;0.0070718885;0.014511798;-0.28313667;0.18645406;0.307551;-0.051174466;0.033730768;0.11307089;0.24386707;-0.14139201;0.00931969;0.27852762;-0.097315416;-0.49501795;0.09392204;-0.08088527;0.00011481983;-0.010867831;0.075701445
-0.013830116;0.31941792;0.25706622;-0.016918575;-0.00858809;0.3679915;-0.014533142;0.011271479;0.21981648;0.09522422;0.0052173613;0.060649622;0.07465031;-0.0566016;-0.05662781;0.01843214;0.052495144;-0.03592915;0.00072798715;0.01565533;-0.2284269;-0.013062699;-0.39163858;-0.057444353;0.18015204;-0.19049977;0.2704181;-0.028609352;0.00031960884;-0.08804165;-0.44554028;0.14554334;0.0452254;-0.14643614;0.009021197;0.006261188;-0.09176042;0.031293787;-0.19755623;-0.10472448;-0.01856805;0.12777695;-0.15916568;-0.066608794;0.017237129;-0.06551931;0.34935915;0.12880167;0.38174173;-0.0104829995;-0.3686686;0.0072230524;-0.2031218;-0.2082043;-0.066284284;0.37609136;0.025725078;0.25348538;0.24990332;-0.2487235;0.13270485;-0.014251951;-0.057638004;0.09703749;-0.0046351636;0.010876326;0.04855289;0.28136304;0.0059875227;0.005496522;0.0137251485;-0.10069578;0.19395463;-0.14264885;-0.0031368902;0.0042373682;-0.006708262;0.015167098;0.27077183;-0.24643587;0.0041164057;-0.30994675;-0.14017901;-0.00840873;0.34636948;0.3443307;0.082891285;-0.033789836;0.079496525;0.06112343;0.38668647;-0.13706265;0.2813758;-0.46694508;0.043166243;-0.012936823;-0.032876663;-0.15031663;-0.02454384;-0.20746405;-0.13994662;-0.121983245;-0.46652153;-0.0043722168;0.058280963;-0.0024335291;-0.008303529;-0.035200927;0.00576859;-0.1318321;-0.0017950189;0.48580495;0.21741039;0.30566347;0.002289634;-0.24234845;0.009083107;-0.31377572;0.02458528;-0.0075699524;0.099533625;0.023898486;0.005442493;0.034766816;-0.052337434;0.0051243245;0.0051490865;0.035316937;-0.04889453;0.0006214546;-0.040959608;-0.09184761;0.09974065;0.0001438031;-0.066191904;0.023156706;0.099121675;0.006433872;-0.0030146686;-0.0087045785;0.25092077;-0.43234825;-0.021646576;-0.34548762;-0.52911705;-0.022121383;-0.21591985;0.18454996;-0.0028248988;0.080261044;-0.26999757;0.12738977;-0.06446638;-0.05588914;-0.0029620235;-0.10501389;-0.17768855;-0.0147227;-0.016294945;-0.005595912;-0.045988686;-0.36210072;-0.0067471387;-0.013314686;0.12218857;0.15304816;-0.3160881;-0.10511704;-0.043805685;0.16549566;0.0787463;-0.4022631;-0.107223146;-0.13228548;0.019802583;0.004967046;0.16224933;0.009955029;0.4708067;0.21378323;-0.011696106;0.020284534;0.39554548;-0.13543554;-0.009869251;-0.013179066;0.016570857;-0.05042882;0.1474831;-0.5551582;0.07715371;0.33219007;0.0034760262;0.002177463;0.34620574;0.044431455;0.2709153;0.3770477;0.038480185;-0.12394162;0.19832785;0.12938108;0.12295901;0.095014565;-0.0045261453;0.17230935;-0.0075780195;0.06669907;-0.32225797;-0.009425966;-0.007492394;0.014268291;0.09500413;-0.015521413;-0.012787349;0.00014580476;0.15502533;0.0025671872;-0.0726025;0.013254067;-0.055358965;0.093589894;-0.099084616;-0.0012772294;0.0020338169;0.11048331;-0.001526833;-0.11518436;-0.014264766;-0.10970455;-0.001937207;0.13830791;-0.07450916;-0.044745788;-0.036145747;-0.18082882;-0.21369855;0.19191918;-0.0053410227;0.44745657;-0.23293632;0.020090664;-0.013398677;-0.08956117;-0.0066659786;-0.08889907;-0.13397403;-0.044763163;0.035993807;-0.02215486;0.011894393;-0.05492203;-0.32981226;-0.15341161;0.23156819;0.06120258;-0.035429303;0.05756991;-0.45826313;-0.05851734;-0.035091683;-0.48626855;-0.4425201;-0.0005685024;0.15994895;-0.0020528813;-0.11783862;-0.00035824438;0.4139035;0.2381106;-0.009414634;-0.16893981;0.0013523264;0.07333975;0.0047216774;-0.12254089;0.050130334;-0.01250426;0.059850525;0.07850163;0.10183171;-0.020779712;0.0037503212;0.02186104;-0.08816763;0.09706162;-0.034282207;0.05948515;0.15017207;-0.3049252;0.28199935;-0.47561488;-0.014341503;0.088686295;-0.099855684;-0.0019474151;0.07880361;-0.11296724;0.004314754;-0.023807704;-0.47184756;0.10124071;-0.005062709;-0.105779424;0.025240859;-0.23076814;0.0726924;0.40383744;-0.14378546;0.07881351;-0.08918898;-0.02473177;0.03833826;-0.14469856;-0.40672752;0.16426444;-0.036769684;0.0086036585;-0.049064822;0.107376724;-0.016435869;0.02151648;0.09904937;-0.008619418;-0.045239184;-0.007193562;-0.0059247306;-0.0111722145;0.021255614;-0.008213104;-0.70322603;-0.016586315;-0.07412798;-0.0013382314;-0.097368486;-0.20027152;-0.035361443;0.11819081;0.0008195281;-0.13691878;0.0123379715;0.03786454;0.036994584;0.28408247;-0.11636247;0.015356114;-0.22517861;-0.19022125;0.021966396;0.0043149567;-0.0040953886;-0.18532825;0.0031326583;0.13819468;-0.17632319;-0.36771616;0.013962538;0.15611205;-0.041521914;-0.15927732;-0.03881631;0.10657788;0.0026969344;-0.09673095;-0.008740008;-0.006759384;0.021377018;-0.074038975;0.06233011;0.062371988;0.072886854;0.20689875;-0.19078943;0.011891224;-0.12853369;-0.055632174;-0.0018973195;0.03221762;-0.2977081;0.0033246414;-0.2126555;-0.22332208;-0.018196622;-0.44309655;-0.26795897;-0.009229601;0.037710898;-0.39621574;-0.051471945;0.0098143285;0.23282674;-0.032928064;0.0051544714;0.18019088;-0.004704756;-0.34645873;-0.3553548;0.020414198;-0.01302424;0.0023169525;0.13888155;-0.13759677;0.08139642;0.2561939;-0.26326448;0.08026873;-0.024202388;-0.29821208;0.005021696;0.24882737;-0.27957308;-0.20418349;-0.010800163;-0.13946266;-0.058804616;0.03428862;0.13818492;0.1975739;0.1731699;0.2223726;-0.0082012825;-0.0017723293;-0.013449349;-0.08122273;0.04689278;-0.0062707416;-0.103363484;0.16986223;-0.21583174;-0.0184217;-0.07193879;-0.09479078;-0.5283658;-0.011716276;-0.008765233;-0.03013634;0.25421736;-0.220842;0.0020143026;0.010566632;0.03792908;0.028941529;0.19314995;0.13572948;-0.013386065;0.22360314;-0.14592062;0.0071572964;0.20138688;-0.23174423;0.0069338763;0.07975242;0.28012732;0.1444359;0.12334949;0.31140524;-0.12671405;0.12549177;0.026603183;-0.0023716656;-0.086788;-0.048900887;-0.028820442;-0.15678479;0.07406579;0.0089612845;0.044835985;-0.037434783;0.23329228;0.013184693;-0.17161795;0.004120414;-0.01655099;0.11828299;0.12701847;0.3478698;0.15147552;0.015562087;-0.34667218;-0.016650064;-0.070513695;0.079809986;0.013336956;-0.0061255707;-0.07635217;-0.22861259;-0.0049630296;0.0006323285;-0.27770305;-0.1602487;-0.04502027;-0.14139788;0.17790645;0.0040774257;-0.002500945;-0.10580441;0.25374854;-0.35424146;-0.0050505544;0.019503832;0.17212878;-0.025063483;0.05506258;-0.03529097;-0.007380027;-0.054267976;0.07827845;0.008930998;-0.009475759;0.0024348088;0.0671686;-0.11246294;-0.08457986;-0.35224828;-0.02212473;-0.32387167;0.10015438;0.036573943;-0.008869893;-0.14506425;0.032990426;-0.103353925;-0.038348686;0.12637328;-0.010443277;0.08653031;-0.006347924;-0.08695849;0.01809835;-0.326128;0.086340606;0.14136113;-0.004039708;-0.12063342;0.01232163;-0.024388144;-0.13953206;0.23553522;-0.09111214;-0.10043685;-0.00055805774;-0.003183873;0.020489668;-0.010543619;0.16564456;-0.06664068;-0.16115452;0.01017009;-0.015110798;-0.28772017;0.0975747;-0.067014955;-0.10708558;-0.0043828543;-0.1840409;0.0055929506;0.05042671;-0.012816414;0.016360216;-0.100827575;0.42612132;0.013833111;-0.26470032;-0.015015951;-0.21927314;0.16061378;-0.07213724;0.015287498;0.20816123;-0.036068805;-0.47512394;0.019951358;0.08861556;-0.0012374064;0.003570521;0.025942473
0.01660033;0.24618311;0.17139156;0.026561668;0.014582099;0.22902502;0.024542252;0.0043448135;0.28230256;0.105611175;-0.013917265;-0.050480682;0.0444013;-0.10176548;0.0106615415;-0.012837184;0.028270725;0.08914647;-0.007209313;0.028911967;0.020483516;0.021816937;-0.14494243;-0.19269738;0.14036901;-0.2428689;0.1203806;-0.1375794;0.0019433382;-0.04054378;-0.26714927;-0.022821859;0.17741516;-0.34220034;-0.0032534935;0.018706484;-0.033506498;0.14331348;-0.17284255;-0.23062666;0.0649386;0.17992476;0.0899666;-0.16438232;-0.022348896;-0.04679078;0.32584485;0.0568367;0.014868974;-0.012514099;-0.2677089;0.0043742717;-0.14424099;-0.17380174;-0.07814191;0.09129031;0.022952087;0.22970049;0.10800961;0.18372518;0.21130833;-0.043801427;0.1432725;-0.06767029;-0.009743748;-0.011580951;0.023022147;0.23818985;0.037115633;-0.013614433;0.00092163676;0.09459296;0.28428638;-0.25016183;0.011618769;0.0027030662;0.004585479;-0.079563566;0.21594174;-0.3611569;-0.052182283;-0.29073247;-0.24544653;0.009776737;0.19843622;0.2687502;0.12592691;0.032316845;-0.0017087491;0.032726962;0.36787763;0.09898547;0.24384879;-0.055529755;0.2917367;-0.00025617762;-0.031259023;-0.43728387;0.019326063;-0.27759686;0.081840344;-0.2649814;-0.33437037;0.0076759765;0.09417812;0.015317871;0.0054931645;0.036204178;-0.0047985096;-0.15709093;0.015712049;0.6193527;0.18542849;0.28318942;0.0038095312;-0.34073085;0.009515268;-0.22589792;0.0076920697;0.04063952;-0.07229776;0.15879983;0.01373558;-0.01135561;-0.017774314;0.008082195;0.000962883;-0.033275865;0.13073868;-0.007174515;-0.16346402;-0.33573937;0.0786259;0.0066177994;-0.0484496;-0.030670343;0.25669998;-0.013070589;-0.0016773485;0.009308277;0.12303514;-0.48031923;0.010408464;-0.24170081;-0.46499136;0.077856585;-0.21597822;0.08875949;-0.0016089345;0.18307377;-0.100730926;-0.08940785;-0.028199779;-0.24054779;0.0087439325;-0.4459509;-0.021265307;0.014149918;0.034967236;-0.0028724782;0.03740356;-0.24336125;0.017857222;0.0071997643;0.005582497;0.14370199;-0.25683162;0.036544926;0.045676764;-0.066494845;0.011814721;-0.20702931;-0.24645123;-0.2783637;0.0036869582;0.0071156146;0.058097485;-0.021001846;0.38521284;0.11005736;0.021506486;0.066399515;0.40934613;-0.15603186;-0.0012764316;0.021415366;0.03308566;-0.106000215;0.2448497;-0.21899703;0.18552746;0.47182572;0.0032225647;0.0022810544;-0.09143937;-0.05101887;0.19883312;0.12687205;-0.21258037;-0.15971826;0.26166287;0.260131;0.30286318;0.14175086;-0.1616207;-0.121661946;0.022034321;-0.28379002;-0.40573522;0.012693284;0.0046699033;0.012071875;0.014782079;-0.0016769005;0.00043010505;0.000496774;-0.015390347;0.016285133;-0.026556483;0.06724013;-0.18666132;-0.022167267;-0.10507339;-0.12510636;-0.008465103;0.004449421;-0.015405979;-0.07142929;0.020626348;-0.100830086;0.005769383;0.13436297;-0.13771813;-0.17776427;-0.1271301;-0.2590903;0.013516891;0.14738813;-0.013125577;0.4724153;-0.11558055;-0.45892692;0.024597084;-0.14026326;-0.026303547;-0.075715184;-0.054098222;-0.047288757;-0.011556413;0.0015190777;-0.02713692;0.027794579;-0.23363979;-0.3137898;-0.1103242;0.2071843;0.04509371;-0.05495814;-0.03020459;0.011589839;0.097593114;-0.26862612;-0.5786841;0.0040436117;-0.07949853;-0.010886185;-0.121476375;0.0055749086;0.50916445;0.13946752;0.07336156;-0.20220362;-0.012074573;-0.11868407;-0.009474609;0.015857514;0.058578458;-0.001511411;0.094704255;0.044025294;0.08816227;-0.0340141;-0.007042774;0.10442616;-0.11546949;0.05639314;0.11380304;-0.048434272;0.048913;-0.20134121;0.024420902;-0.16023384;0.015745709;-0.035550565;-0.032885373;-0.0038878182;0.2202059;-0.20073244;-0.012904339;0.0194059;-0.59406185;0.15552005;-0.00667798;0.013169223;-0.007550727;-0.4700108;0.07130666;0.06517103;-0.23883964;0.0874839;-0.012157872;0.009446556;0.10827107;-0.16099861;-0.301383;0.13956058;-0.14675069;-0.008350192;-0.05434188;0.2782566;-0.0040855124;0.021243118;0.015225618;0.015378288;-0.14243965;-0.010824455;-0.012091486;0.0070339493;0.15678617;0.013754126;-0.43742117;0.0077729686;-0.25216475;0.008844065;-0.09079857;0.12311404;-0.088007905;0.23243418;-0.0005266347;-0.21980621;-0.010428491;-0.037277106;-0.06668922;0.1275261;0.02853338;-0.042318907;-0.24239418;-0.48795354;0.044386245;0.0048228083;-0.0005911667;-0.26103747;-0.0045203413;0.12211438;-0.26869747;-0.32423663;-0.011613339;0.22454746;-0.009553805;-0.3824374;0.29940784;0.16127482;0.004135906;-0.06194731;0.0078264335;0.020871645;-0.02010618;-0.06680891;0.04891409;-0.08716385;-0.20991033;0.20146014;-0.2551097;-0.004313908;-0.15599108;0.06732849;0.002740728;0.21613476;-0.14315152;-0.01695328;-0.34432638;-0.23922344;-0.068620734;-0.06784448;-0.22316378;0.036107488;-0.06211053;-0.27633065;0.15355246;-0.0150511;-0.007482812;-0.13390589;-0.011746356;0.212111;0.023190001;-0.19226517;-0.38287014;0.05301083;0.0057144915;0.010211143;0.13541251;0.06462786;0.055010483;0.13794489;-0.20789053;0.062352844;0.026453417;-0.2537239;-0.011921193;0.404752;-0.34246126;-0.09546113;0.012816302;-0.1524847;0.028115831;0.10557278;-0.0015889867;0.14472598;0.09962247;0.2262586;0.014398772;0.00498923;-0.001736221;-0.05245651;-0.045146625;0.002039925;-0.007974529;0.020364013;-0.11898584;0.011782862;-0.067912154;-0.0034596382;-0.41916326;0.010433758;-0.007974501;0.026201436;0.12611349;-0.21324752;0.008346669;0.019710371;0.21428515;-0.04916765;-0.19369625;-0.009460709;-0.009223068;0.03510165;-0.00960976;0.006552606;0.24104528;-0.27750894;0.01071574;0.2937853;0.08595437;0.27977777;0.055508822;0.2547618;0.27707034;-0.03456742;-0.0028090233;0.0086298;-0.011893376;0.07149385;0.04773719;0.05322949;-0.10915183;-0.010577663;-0.027457276;-0.17523488;0.48229536;-0.010789036;-0.21250258;0.0053859646;0.11880841;0.008847589;0.23764333;0.36715555;0.14826794;-0.005445381;0.1857431;0.02573455;0.016759004;0.06963694;-0.0057572536;0.010700947;-0.0047823954;-0.153703;0.0075714905;-0.0021046014;0.023353675;-0.151561;-0.24978642;-0.069798894;0.19505079;0.0040750117;0.003440723;-0.13396409;-0.20769769;-0.29682854;-0.0024455949;-0.011718099;0.13720435;0.014851292;0.14976163;0.008136262;-0.019525578;0.010236612;0.096098326;0.013690562;0.012941652;-0.0019475268;-0.025045648;-0.2835224;0.105767965;-0.2878439;-0.0068618036;-0.17362879;-0.2427121;0.10986168;0.026526192;0.07097629;0.043688487;-0.06623454;0.053273827;-0.17531972;0.015907345;0.026403155;-0.016004529;-0.29056177;-0.009416638;-0.2813099;-0.04394514;0.1656583;0.00884642;0.02635523;-0.00383138;-0.022883289;-0.12691185;0.022954656;-0.09163587;-0.09346139;-0.010720625;-0.0037988778;-0.013880597;0.02010728;0.09456576;0.018458083;-0.28074095;-0.00746902;0.0016681044;0.25528863;-0.021571519;0.082016185;-0.22971249;8.580291e-05;-0.16947421;-0.27366355;0.27413535;0.0021614484;-0.022016943;-0.17580308;-0.077612914;0.2560106;-0.4236945;0.01421375;-0.39563745;0.26666266;-0.17291781;0.0095099695;-0.011705734;0.16592985;-0.5066833;0.22379467;0.12969968;0.003545271;1.4580855e-06;0.029516982
0.0071783103;0.03387055;-0.12001546;-0.012257938;-0.004968242;-0.033176765;-0.012699967;8.592838e-05;0.286578;-0.04694473;0.01170055;-0.04592167;0.12387457;-0.085844696;-0.013973694;0.0056350394;0.12365487;0.121239945;0.001838292;0.003516762;0.048549302;-0.0030584782;-0.058892395;-0.09266511;-0.011111988;-0.27805427;-0.117349766;0.19228084;-0.02050358;-0.09561397;-0.3809666;-0.016886992;0.10265165;-0.2495057;0.0003158389;-0.010088392;0.26638696;0.124725804;-0.10493777;-0.025096027;-0.07952732;-0.07782532;0.10606553;-0.023562359;0.012494556;-0.037285022;0.03657213;0.109261945;0.031924598;0.021185867;0.006633039;0.0074539194;-0.23834518;-0.20690887;0.095271505;0.14632978;0.05703394;-0.182531;0.0076674456;0.35010663;0.15290315;-0.052760366;0.036117416;-0.09142568;-0.0076449653;0.007053077;0.18066204;0.28996646;0.2922477;-0.0047170427;-0.00024651756;0.26765645;0.24281119;-0.10145672;-0.0058412435;-0.020927988;0.01750362;0.070332445;0.058587436;-0.35374078;-0.15453807;-0.050024897;-0.23834357;-0.0065867184;-0.20145263;0.17768139;0.3998617;-0.013364724;-0.15860501;0.23025602;0.26591057;0.10399945;0.20746644;0.17624733;0.42633703;0.03478838;0.01768702;-0.5005169;-0.002909107;-0.11735002;0.11634971;-0.14414653;-0.21338113;-0.0036147316;-0.003433061;-0.038729228;-0.0023756188;-0.02207725;-0.0046735555;-0.07578659;-0.038437564;0.4423345;0.16532181;0.16422343;-0.00073837774;-0.574467;-0.0057397108;0.054827955;-0.0074960813;-0.027583081;0.03359816;0.111468785;-0.0070644687;-0.1897676;-0.113439076;-0.005487145;-0.0076295533;0.017370708;-0.11336241;-0.009514738;-0.182353;-0.16870049;-0.007935607;-0.01746227;-0.0044029905;0.02040759;0.23879702;0.017834274;0.0073382705;0.007870482;0.108862676;-0.21589848;0.0060804696;-0.25450194;-0.2461281;0.028371956;-0.17491986;0.16167887;0.0068459725;0.116646;-0.045509864;0.0921562;0.035584264;-0.3793165;-0.009736127;-0.59537834;0.050158173;0.009754547;-0.015303564;0.004708161;-0.11257352;-0.0879227;-0.0047657904;-0.004896006;0.0958772;0.2202708;-0.19218522;0.10071848;-0.19463228;-0.21245909;0.20332035;-0.15580243;-0.28585607;-0.28767034;-0.026878107;-0.018860029;-0.16215578;-0.007396365;0.32984447;0.32104167;-0.021498203;-0.06462075;0.2487111;-0.21054891;0.0074482644;-0.0050683552;-0.0022212397;0.42124942;0.11566609;-0.023214478;0.26906827;0.10902385;-0.015003551;0.0052828905;-0.15033922;-0.13995264;-0.031959426;0.0021065883;-0.042072047;-0.1315812;0.035623655;0.10537482;0.27805626;0.1734556;-0.11151399;-0.14578998;-0.0004945572;0.094748825;-0.32091767;-0.021562142;-0.009353235;-0.02603411;0.10835537;0.0049753864;-0.016176563;0.0018018691;-0.019615177;-0.013982303;-0.10576068;-0.020756854;-0.28166202;0.19131733;-0.41511422;-0.026365547;0.008411086;-0.015323025;-0.010448893;0.08343014;-0.011215272;-0.10612886;-0.001091246;0.051988933;0.03002324;0.13605304;-0.06522066;-0.22541316;0.032287683;0.20827799;0.006298683;0.18299443;-0.034800146;-0.24781495;-0.011992074;-0.0479434;0.020588564;0.089990266;-0.08326131;0.08289499;-0.043044403;0.016165491;-0.0062247366;0.057238728;-0.28845584;-0.29816675;-0.31717527;0.19602323;-0.052370746;-0.20596431;0.06527697;-0.27010286;-0.05227413;-0.0026943423;-0.6432408;-0.008334957;-0.029929891;0.0017298566;-0.07248662;-0.01562992;0.34390074;0.04309245;0.008439932;-0.39354742;0.008796605;-0.26668382;-0.0028596348;0.07036415;-0.035321075;0.013495992;0.016891217;0.009386928;-0.105865195;0.125088;0.00045461618;-0.04126925;0.31284305;0.0046654;-0.14650011;-0.0974496;0.326188;-0.16675203;-0.2588945;-0.108314425;-0.004393616;0.08525154;-0.015861008;0.009492701;-0.20111951;-0.17798048;0.0017919276;-0.003921208;-0.6007818;0.22023728;-0.0009187417;-0.10741778;-0.0057273754;-0.26279858;-0.03653889;0.10134524;-0.18306477;-0.100649945;0.02944253;-0.01445332;0.06974131;-0.23650104;0.05179843;0.17818901;-0.17318891;0.015801214;0.02749331;0.19355743;0.01806194;0.10015877;-0.05394526;-0.004507614;-0.25683975;0.011209595;-0.00034931532;0.010787316;-0.028651841;-0.020266553;-0.5191178;-0.0048178723;-0.084993966;-0.0096152285;-0.30247238;0.18675089;-0.19287862;0.13160484;-0.0011607024;-0.31398675;-0.0034394844;0.045421734;-0.3646589;0.20621581;0.14732732;-0.124092706;-0.3069106;-0.63892;0.29151306;-0.0150031615;-0.002445851;-0.18520497;0.015473456;-0.09423455;-0.2267532;-0.27897474;0.003315634;0.23067573;0.23155008;0.08896575;0.2861418;0.050836366;-0.0049165864;0.0004900161;-0.003492127;-0.012604044;-0.004035117;-0.09885467;0.12692675;0.024584819;-0.40347147;0.10820937;-0.20093496;-0.0038603826;-0.06943657;0.042742986;-0.0005919336;0.25637335;0.0840263;-0.0051780334;-0.18848355;-0.0519298;0.0726545;0.24997714;-0.24742633;-0.020017395;0.08644929;-0.23467676;0.06779843;-0.00051383994;-0.06789265;0.1194236;0.0071258866;0.11954887;-0.010803136;-0.13645309;-0.06741463;-0.031876996;0.0016364455;0.01695374;0.14769599;0.309976;-0.10135841;-0.10958302;-0.3373003;-0.12352982;0.0037408182;-0.2625892;0.013131495;0.30096436;-0.29794624;-0.0016824391;-0.022578193;-0.02522492;0.22464451;-0.07732098;-0.12904346;0.11980755;0.0014737205;0.18669085;-0.0031350686;-0.0015635089;0.0032416838;0.1608326;0.18573868;-0.013598786;-0.2737961;0.0849044;-0.10373843;-0.002338127;0.08021296;0.074099824;-0.30973363;0.0044427267;0.023028191;-0.02171895;0.060580827;-0.18724696;-0.022108799;-0.07474432;0.16427936;-0.0059301415;-0.04677298;0.124903895;0.027565796;0.066328034;0.08941519;-0.004683522;0.31416684;-0.2412472;-0.024804745;0.31758723;0.1509898;0.18730168;0.26768064;0.044634607;0.06136824;-0.0042850496;0.0035657596;-0.017457686;-0.1878768;0.082294926;-0.037852135;0.1007792;-0.024551641;0.0009156051;-0.03879446;-0.21656942;0.6162124;0.0050657443;-0.17103122;-0.002338205;-0.05127715;-0.08585437;0.18813865;0.39535707;0.03612295;-0.017641064;0.27329838;-0.016252538;0.09713885;0.16265154;-0.01105263;-0.01961148;-0.14690271;0.06298311;-0.002546978;0.012331143;-0.21185671;-0.24634086;-0.009749228;-0.116428785;0.21718518;0.011016462;0.00573671;-0.026412368;-0.09177089;-0.43083823;-0.0018608202;-0.0077630426;-0.03714643;-0.007460931;0.13473788;0.0137624;0.021670323;0.046785545;-0.12688161;-0.017835474;-0.020560572;0.0172634;-0.04682278;-0.2590595;0.10050213;-0.20222287;0.0059073055;-0.29868418;-0.049208168;0.08194427;-0.023288656;0.15451396;-0.05498742;-0.13401751;0.047677588;-0.13625936;-0.013878098;-0.06765911;-0.0036317848;-0.35172543;-0.21877874;-0.062121935;-0.03966572;0.06948439;0.0022869802;0.2705145;-0.0025792287;0.028109975;-0.36309025;-0.12027313;-0.14165108;0.10804021;0.03272835;0.013132506;-0.003964881;-0.007980242;0.14824499;-0.00680524;-0.20200886;0.010806122;0.0138011435;0.09508134;-0.030682975;-0.19136427;-0.27260062;-0.00018501728;-0.09382879;-0.3469964;-0.14627588;-0.01078168;0.018750506;-0.08712948;-0.30910578;0.19625771;-0.19120768;0.0010155695;-0.257264;0.31434762;-0.05221588;0.0017493635;0.0070694434;-0.066066526;-0.32631406;-0.17950411;0.054458015;-0.013457318;-0.008118058;-0.039443567
-0.014113217;0.03947976;-0.21184115;-0.0056311977;0.00015422289;-0.06529674;-0.004215029;-0.013047689;0.15252203;-0.17201604;-0.0012784799;-0.0069960817;0.17465498;-0.08822024;0.12537478;-0.0064071068;0.12611392;-0.12282048;-0.0073910994;-0.047873992;0.041160412;-0.0007369057;-0.25944155;0.020406757;-0.014087341;0.030267967;0.2683631;0.36501732;0.03786219;-0.051747635;-0.0845542;-0.09941317;0.0036554502;-0.153945;-0.006844145;0.0039743236;-0.040755335;0.028460115;0.19991522;-0.057924837;-0.021190155;0.022362987;-0.118670404;0.16657692;-0.0029042843;0.16788338;0.020366369;0.025815545;0.105717;-0.012139609;0.020875739;-0.015092852;-0.3308346;-0.2253834;0.17120954;0.17557558;0.027185328;-0.09015115;-0.20074527;0.19832201;-0.040305156;0.02948144;0.11951084;-0.03831405;0.009658727;0.011054124;0.145211;0.14667681;0.23466673;0.015113973;-0.013656913;-0.07437406;0.2647352;-0.017196888;-0.014313676;0.008427708;-0.023750484;0.02943421;-0.1656495;-0.3025702;-0.20857212;-0.258448;-0.15521064;-0.0012773358;-0.45455536;0.2661646;0.44519514;0.026889425;-0.10043628;0.10560583;0.23216449;0.3357872;0.13059765;0.2264349;0.45852602;-0.07085832;-0.03782897;-0.41940114;0.00041327687;-0.108560994;0.002203965;-0.15046175;-0.4261576;-0.016842468;0.06678744;0.02278237;0.0023821194;0.0074101253;0.0074416436;-0.027315594;-0.102687076;0.10723059;0.19180092;0.20844705;-0.008374021;-0.30145463;-0.014432614;-0.017349023;-0.00862527;0.019553397;0.026079029;0.20643333;-0.007933702;-0.36931664;-0.2228829;0.009284049;0.01664474;0.009266831;-0.09832124;0.017240517;-0.12087745;-0.281471;-0.118156;0.01841521;-0.08377684;-0.0032623142;0.104904495;-0.0020718717;0.007512943;-0.021710146;-0.12438041;-0.25033766;0.0025671;-0.033551626;0.029775511;-0.08184849;-0.17281939;-0.06627014;-0.0009348504;-0.07320012;-0.18569142;0.132007;0.0071070027;-0.18620369;-0.0014909403;-0.31263474;0.05891375;-0.026920324;-0.0071302005;-0.00063444325;0.07599;0.07739255;-0.006499078;0.016355153;0.15910046;0.3292641;-0.1934005;0.2532691;-0.25822467;-0.39178243;0.07675126;-0.07212679;-0.4314996;-0.06611474;0.024708524;0.007095987;-0.20483996;0.023189193;0.14943464;0.092001595;0.0075112684;-0.31935048;0.05534712;-0.18396899;0.009786574;-0.0085205445;0.038050428;0.22782908;0.12321139;-0.0048585534;0.050835054;-0.02610214;0.013396089;-0.007349883;-0.27334777;0.011819211;0.06283889;0.3531332;-0.09684279;-0.03561303;-0.011683999;0.040503908;0.11020052;0.14647669;-0.1926286;0.32316715;-0.016061585;0.29816487;-0.2717819;0.015931914;0.013998561;0.02084852;-0.10070166;0.005750977;0.009202166;-0.01337205;-0.06400417;-0.0050304285;-0.21444723;-0.09567184;-0.19544499;0.012995749;-0.18507269;-0.096419014;0.0029091595;0.1441237;0.027744863;0.0870163;0.0073720217;0.020919757;-0.017292077;0.28572804;0.008153151;0.38691056;-0.0580438;-0.10841221;-0.035414506;-0.033602316;0.015782988;-0.056134738;0.045312352;-0.3136799;0.00884212;0.02643417;0.0017762005;-0.013779496;0.167014;0.2741356;0.0011672801;-0.0041629276;0.0037605353;0.27914542;-0.10757177;-0.3431454;-0.23807363;-0.041614518;-0.0026656787;0.13145879;0.12141577;-0.25927997;-0.1143889;0.08982296;-0.6191828;-0.002020757;-0.056749094;-0.0065888376;-0.043146946;-0.009042033;0.1369104;-0.005238072;0.061053235;-0.4029931;-0.0003662784;-0.20276168;-0.0026809648;0.022968154;-0.025055764;-0.009208728;0.15693437;-0.07037089;-0.08768375;0.19371302;-0.012404477;0.07348995;0.35741243;-0.013902741;-0.081521265;-0.12221415;0.19875991;-0.033374555;-0.2352097;-0.00031167115;-0.0036798457;0.080339804;0.052648325;-0.008676789;-0.356172;-0.23315634;0.00870768;-0.0046468317;-0.39038712;0.10828329;0.0072894944;0.035565235;0.006139964;-0.06122335;0.14925733;0.122734904;-0.06424646;0.087584585;-0.1284636;0.022514902;0.07297782;-0.34799334;0.21963304;0.33993787;-0.06604546;-0.013440858;-0.008452984;0.10141357;0.0026325453;-0.015009429;0.14047593;-0.0005538799;0.038886502;0.016969487;0.005126941;0.0038684607;0.15868108;0.005008092;-0.19120699;0.0012922359;0.2897578;-0.0023655181;-0.26614806;0.077064894;-0.067852505;0.22534427;0.020969253;-0.18484896;0.015401798;-0.018549174;-0.279756;0.2549413;-0.29746976;0.0109646665;-0.25738016;-0.57123893;0.08199316;0.013487047;0.0035980132;-0.15461297;0.00038868983;0.2017025;-0.0015063268;-0.009289032;0.0056384015;0.04881401;0.2564951;0.12480798;0.21294534;-0.04788942;-0.008907599;-0.034348782;0.0059523326;0.015086322;0.021278363;-0.18632822;0.049660146;0.20937842;-0.09107476;0.14789227;-0.1359483;-0.00028329974;-0.12494738;-0.15898885;-0.0101839965;0.20359434;0.20883326;0.005049814;-0.31739026;0.10390323;0.010646822;0.27855933;0.10602757;0.017504742;-0.045848265;0.015887408;-0.083038464;-0.012929779;-0.09688934;0.14096342;0.00077674247;0.18454476;0.010466797;0.047331207;-0.21831292;-0.15500538;-0.007299284;-0.025393086;-0.040769454;0.24300483;-0.0068918313;-0.03055488;-0.27544278;-0.043796726;-0.04320064;-0.25905922;-0.008452603;0.018422551;-0.13771921;-0.10421903;0.023551648;-0.21592277;0.27227196;-0.17299397;0.18890463;0.30024898;0.017001003;0.36034873;0.008278496;0.008323816;0.024655815;0.13469316;0.07438244;0.007971095;0.010063271;-0.08308302;-0.071137354;0.010472471;0.14313652;-0.00907653;-0.19135183;-0.005116849;-0.005667415;0.017095674;0.033961162;-0.14491816;-0.00094442687;-0.05834878;0.23743516;0.028734587;0.08388352;0.19738749;-0.01180435;-0.0064148963;-0.08351418;-0.006224917;0.23948327;0.1470727;0.023087068;0.31592214;0.07624554;0.16605401;0.029433267;0.18107997;0.08275047;0.119679004;-0.002331444;-0.006100565;0.005525397;-0.0029145954;-0.04431923;-0.009795604;-0.3140168;-0.007664069;-0.0026699982;-0.12115036;0.18661056;0.0021426242;-0.18345205;0.0027179995;0.25246444;0.13228713;0.06118116;0.49125114;-0.02558306;0.03549245;0.12733908;0.017763225;-0.14083791;0.20343524;0.015729688;0.026768625;-0.34557354;0.2821331;-0.013052251;-0.004652415;-0.19804095;-0.048211955;0.10994711;-0.13590966;0.09902577;0.00081257394;0.00011914512;-0.12220719;-0.0055236025;-0.27184212;0.0046659876;0.016385471;-0.054317627;-0.009765506;-0.12363594;-0.004367028;0.0014150059;-0.031191602;-0.0012781771;0.007743111;0.015001398;-0.016552312;0.078939356;0.016528968;0.25248036;-0.12098866;-0.001822148;-0.21765293;-0.23472928;0.08069938;0.017099245;0.042741198;-0.015334926;-0.22966008;-0.04700309;-0.21123938;0.011055535;-0.10987253;0.012376456;-0.32892147;-0.20936404;-0.09366905;-0.048011504;0.11815525;-0.00028782847;0.2762766;-0.005009881;0.015222078;-0.3733769;-0.2833933;0.20297596;-0.12169765;-0.01345506;-0.0048932675;0.016823424;-0.00470333;0.04631422;-0.028593186;-0.28866318;0.016694432;-0.014571826;0.08380713;0.017785339;-0.44089395;-0.14919959;0.0074601257;0.07391725;-0.30931032;-0.16108379;0.021637822;-0.029861692;0.2067782;-0.2586881;0.13891381;-0.18064544;-0.00027552585;-0.14224523;0.36121872;-0.21021096;-0.029458024;-0.18723872;0.07711559;-0.16177717;-0.036617443;-0.09527536;0.006871725;-0.006473176;-0.08610941
0.01061647;0.08509714;-0.3876399;0.011585618;0.0046308027;-0.0035388714;0.0021765647;0.0057221837;0.06822155;-0.010091617;0.006335673;0.069853276;0.099772185;0.2405458;0.035937387;-0.00212715;-0.033311456;-0.17253079;0.016644584;0.047099426;0.009326192;0.0052551175;-0.27641484;0.22879149;-0.12325746;0.29722178;-0.00077192776;0.19074585;-0.050769616;0.045895755;0.018398447;0.18181786;0.08749525;0.2121099;0.0013642398;0.010360534;-0.20759769;0.05897307;0.25113183;-0.15009063;0.03549881;-0.007512877;-0.19414662;-0.035808697;-0.0024974847;0.325868;0.095580034;-0.0028901263;0.12298593;0.012553668;-0.2014968;0.013812097;-0.3345215;0.09277227;0.18491064;-0.28230104;-0.13740766;-0.116395466;-0.17270571;-0.05985923;-0.23405086;0.056596205;0.00848548;0.050515797;0.010461578;-0.019498913;0.067875825;0.016936604;0.16606167;0.012124807;0.011821476;0.12380196;0.24183398;0.2822543;0.0011519451;-0.017306192;0.009703287;0.002729335;-0.30983993;-0.18995841;-0.044038672;-0.28200665;-0.15320851;0.002040694;-0.41438845;0.2882255;0.47559494;-0.0126814395;0.06454039;0.023042051;0.3234457;0.49423134;0.08073286;0.12553887;0.34258154;0.004628794;-0.03315673;-0.34045878;0.011250104;0.05800484;-0.035200994;-0.17275207;-0.3632841;0.01255328;0.051619377;-0.0036694065;-0.0057015237;-0.018310739;-0.0034049537;0.087970465;0.09696795;-0.11405205;0.43369678;0.23260234;-0.0020045126;-0.12502614;0.025793249;-0.21261968;0.008126053;0.038655855;0.021145498;0.16709188;0.013687505;-0.08879883;-0.41638345;-0.0033043928;-0.023231026;0.03231436;-0.11434733;-0.0046695913;0.04278655;0.056896035;-0.24366096;-0.009173033;-0.17622696;0.0035020267;0.16939642;-0.004127099;-0.014543831;0.01962903;-0.12186833;-0.17841457;0.002196393;0.2776506;-0.07008727;-0.0005174929;0.070526876;-0.14058338;-0.0039203307;-0.25348073;-0.46143776;-0.061948594;-0.024395287;-0.2464578;-0.0049638026;-0.12018417;-0.055513512;0.02162082;0.01069644;0.019579306;-0.06927213;0.22164717;-0.003400426;-0.009125937;-0.1377404;0.2525423;-0.07099626;-0.020986035;-0.2247922;-0.09059889;0.089336194;0.05303048;-0.23245557;-0.14362551;-0.0036503589;0.015581984;0.020106694;-0.017027352;0.4474748;0.123291746;-0.0050959378;-0.3446352;-0.01846055;0.108225614;-0.006773151;0.016621362;-0.03934372;-0.06557671;0.21295048;0.017513808;0.24790753;-0.055428326;-0.012877759;-0.01108905;-0.27017796;0.017190462;0.092436455;0.33611766;-0.0026976361;0.15113534;0.05652049;-0.06250388;0.05726041;0.116145335;-0.2174757;0.0888849;0.003925749;0.15641841;-0.019083109;-0.015221235;-0.006631009;-0.016203066;-0.27812067;-0.020065714;0.009318819;0.009996807;-0.11103493;0.0073708454;-0.25831392;-0.23446281;-0.44387567;0.039322;-0.28790414;-0.035601933;-0.007806325;-0.06694537;-0.010067392;0.07630511;-0.0026752965;0.014584839;0.008751248;0.37649986;-0.035456017;0.3031917;0.014655377;-0.13946995;-0.063184686;-0.1952699;-0.014525021;-0.12677923;-0.088949844;0.13678867;-0.0052542323;-0.05793062;-0.015483396;0.018611271;0.07544372;0.40094137;-0.24396726;0.0027120016;-0.009758572;0.24129577;-0.097700566;-0.07424395;0.06000337;-0.081234634;0.01729699;0.25423673;0.08543883;-0.07017773;0.040315263;-0.18553464;-0.5335796;0.009496525;-0.15390998;-0.004614285;-0.005023056;0.018501097;-0.24901745;0.0021452836;-0.07180217;-0.36296633;0.0028909205;-0.2564391;0.005720548;-0.029807042;0.098236255;0.003991125;0.11839637;0.09801404;0.1299698;0.2557855;0.020317385;0.12777759;0.30983615;0.063773215;0.08201504;-0.24815504;0.09063707;-0.23184046;-0.061111256;-0.06975019;0.0068326048;0.07779193;-0.10347649;-0.0051142555;-0.104669385;0.09987807;-0.015231523;0.0070350375;-0.17459673;0.3302769;-0.0032372694;0.027468082;-0.007928557;-0.029078843;0.08317047;-0.045438316;0.08163328;-0.02218417;-0.25480786;-0.022155333;-0.12117134;-0.22073685;0.09620837;0.4192557;-0.05123889;-0.0011094175;0.08627882;0.2059453;-0.019947728;-0.04618915;-0.0027544675;-0.013024697;-0.027187018;-0.018485805;0.0072031743;-0.009374895;0.17243421;-0.002452861;-0.060314346;0.015920846;0.10021816;0.0090001235;-0.22319086;0.0076138303;-0.024899213;0.18558803;-0.020078987;0.15230839;-0.016007405;-0.020549707;-0.16791867;0.07677413;-0.16459061;-0.05149057;-0.28888628;-0.41129586;0.009224957;-0.01605825;-0.0046818964;-0.12979083;-0.010848643;0.05261503;-0.017845718;0.124270596;-0.016235692;-0.3181083;0.28130528;0.18304685;-0.032550506;-0.05783686;0.009199933;0.035492655;-0.018188803;-0.004418205;0.004926307;-0.35392678;0.07375578;0.1424181;-0.2561867;0.06366658;-0.08413689;-0.01943364;-0.16091175;-0.006583318;0.022593299;0.44030657;0.2704864;-0.012910991;-0.41667277;0.19104116;-0.013389315;0.13633649;0.19433258;-0.012766042;-0.0008609015;0.018413605;-0.24125993;0.022174757;-0.24795502;0.07433574;0.0021466266;0.042293023;-0.019997373;0.08764942;-0.25937027;-0.06865726;-0.0014523518;0.006769317;-0.09293582;0.15788372;0.13466278;0.11241092;-0.14181055;-0.11270816;-0.18774891;-0.44848573;0.01065038;0.05334561;0.15015553;-0.08932603;-0.017728945;-0.06995545;0.12581536;-0.061619543;0.15982564;0.37041435;0.12067238;0.20940785;-0.012682451;-0.007411666;-0.040654674;0.23751275;-0.11851566;-0.0064318874;-0.08420317;0.1698324;-0.11490744;-0.026093088;0.1301086;0.10705856;-0.15094447;-0.008270718;0.008415856;-0.030093687;0.1872644;0.060734965;0.019736765;-0.081414066;0.22021766;-0.06712967;0.12628148;0.31277966;-0.0024108014;-0.16570218;-0.19541585;0.015123969;0.16735455;-0.10131197;-0.0060618515;0.14542721;0.009279891;0.57190275;0.18962379;0.21180907;0.24502897;0.04583688;-0.010873846;0.0024219532;0.042817503;0.15191463;-0.08367563;-0.24717247;-0.113133416;-0.008926784;0.027808908;-0.10078944;-0.11685139;0.010492825;-0.021677943;-0.014592382;0.16174044;-0.04723125;0.09157586;0.37537992;0.0809813;-0.017478848;0.081599794;-0.016143955;0.10375255;0.23674093;-0.018201495;-0.00874036;-0.2637843;0.13592847;0.004592252;0.0033683598;-0.30297935;-0.1052446;0.304797;-0.055220064;-0.06628676;-0.0020629757;0.015736997;-0.1385982;-0.076783806;-0.14298518;-0.020352505;-0.0019191507;-0.040304326;0.028785821;-0.33973196;0.0068082563;-0.0017040892;-0.054409105;0.018400377;-0.005220547;-0.00574714;-0.017477686;-0.09381259;0.07838292;0.2298718;-0.19644892;0.0062049446;-0.08239074;-0.212251;0.1437938;-0.0147359865;0.09407895;-0.06443821;-0.15984686;-0.016443372;-0.1782348;-0.012098924;-0.20208912;-0.013875224;-0.12811863;-0.18156993;-0.23036227;-0.023042073;0.105700836;0.00806934;0.29925865;0.014008106;0.04036488;-0.26426393;-0.27769396;0.11907451;-0.16764028;-0.0005802144;-0.0032279426;-0.011007961;0.0040610796;0.05773055;-0.02936966;0.11162334;-0.011083832;0.005300295;0.18132041;0.000120815836;-0.1853176;-0.1702705;-0.0127983345;0.15497117;-0.40450168;0.18303883;-0.00647945;0.009429537;0.027166251;-0.18243167;0.18571839;-0.08329536;0.0046139862;-0.11664362;0.3039519;-0.093846306;0.021015039;0.06771766;0.29954457;-0.247774;-0.01386809;-0.20281295;0.00066321675;0.0116735045;-0.13772134
0.005453106;-0.05210702;-0.34731776;-0.021098673;0.0044925245;0.028451277;-0.010810735;-5.502488e-05;0.06352443;0.029639311;-0.0021795386;-0.18925816;0.020257013;0.32119742;-0.015347296;0.004709946;0.0044247643;-0.117488265;0.0017156862;-0.017704492;-0.009743483;0.0012674795;0.034384836;0.14657097;0.085919954;0.11322662;-0.100631975;0.14577489;0.028505169;-0.08193299;0.12102827;0.14371634;-0.12519251;0.33039466;0.008545083;-0.019476185;-0.12762289;-0.12953945;-0.08935603;-0.33006588;0.051566277;-0.07336313;-0.17902318;-0.4056433;-0.00080718327;0.36342037;-0.08826343;-0.054030858;-0.04300251;-0.006736018;-0.2318282;-0.0070082573;-0.27335122;-0.07961522;0.15305205;-0.41339815;-0.11921104;-0.26808292;-0.09013924;-0.34587407;-0.24008392;-0.22893935;-0.052430023;0.038953163;-0.0072777555;0.017284617;-0.019363737;-0.06858357;-0.11708802;-0.011374412;0.00619621;0.22034293;0.31971955;0.17137544;0.0062281294;0.018226286;0.0044654626;0.040145803;-0.24118966;-0.19035669;0.29813075;-0.2746194;0.010810782;0.0034588927;-0.33585778;-0.13452826;0.4986698;-0.012192589;-0.16555448;0.21016511;0.30961376;0.45126256;0.25327912;0.31217268;0.046192486;0.0066789333;0.015196973;-0.07409136;-0.013565226;-0.11221706;0.05500464;-0.01804163;-0.6003193;-0.0016156721;-0.18945798;-0.012997452;-0.001279002;0.02526574;0.004911573;0.13702653;0.12969398;-0.10154328;0.31192675;-0.14526561;0.0016837843;-0.28741828;-0.017703028;0.00040591642;0.0011048994;0.23637617;-0.14485304;-0.12942655;0.0029852127;-0.030797606;0.008520096;0.009078336;0.004775392;-0.024996158;0.028949073;-0.002833741;0.030982472;-0.035735905;-0.18776098;-0.004972547;-0.20795366;-0.020607453;0.22227675;-0.008199307;-0.002641574;-0.005134784;0.007257939;-0.14231214;-0.009592066;-0.07284963;0.079879545;-0.0455245;-0.032799236;-0.09633209;-0.005447984;-0.31193808;-0.3229825;0.008185641;0.0026333828;-0.2569783;-0.0036279159;-0.015864281;0.015482978;-0.035486907;-0.0018145677;-0.0134726195;0.10718611;0.1885411;0.009595823;0.00019866016;0.10282677;0.15473787;-0.08389548;-0.06825961;0.08870326;0.0034559604;0.12166433;0.049626395;-0.035293445;0.0006223919;-0.0012008096;-0.00752803;-0.046167895;0.020477306;0.3640065;0.31099153;0.0002791747;-0.13206626;-0.12573934;-0.2889453;-0.006170925;-0.010722994;-0.066311754;0.018728456;0.054045808;-0.04682039;0.15660371;-0.08505724;0.0050441124;0.023153657;-0.19748947;0.18019368;-0.07149419;0.08105044;-0.023204919;-0.03097705;0.29970312;0.06880358;-0.003930588;-0.011808108;-0.009241886;0.16683154;-0.003241847;0.1933511;-0.14896421;0.018417355;0.007447573;0.020089734;-0.31248137;0.012830262;-0.0061619775;0.005612752;-0.0727888;-0.008697563;-0.09422047;-0.37357453;-0.45880154;-0.10979841;-0.046900738;0.20298673;-0.0043435986;0.05243244;0.0030842223;0.06306528;-0.0036173877;0.084545664;0.012038364;0.24721831;-0.0766089;0.073043644;0.033142284;0.121672854;-0.040207002;-0.2037651;0.0130153755;-0.10791231;-0.032045085;0.12370049;-0.0072032264;-0.08252558;0.02657862;0.007203014;-0.0070338803;0.18823665;-0.26290965;-0.020937234;0.026544448;0.32119966;-0.08532664;-0.31895292;-0.06781733;-0.022297472;-0.039711084;0.2744531;0.03892459;-0.22443992;0.087151505;0.07465542;-0.36209258;-0.013571281;0.08752435;0.0020885179;0.075830184;-0.007987727;-0.26842248;-0.058717925;-0.12449686;-0.16721693;-0.020155828;-0.023700025;-0.005434409;-0.04929207;-0.22419241;-0.0083476035;-0.22044404;-0.010069064;0.11928559;0.14317955;-0.0012184572;0.073656596;0.3186806;-0.051963445;-0.21294507;-0.18326473;-0.011951962;-0.23320769;-0.3676614;-0.3123252;-0.020219002;-0.10759585;-0.32233465;-0.0027996986;-0.16442598;-0.3033907;0.016412597;0.007636075;-0.031500157;0.29480702;0.008933986;0.30851492;-0.005131655;-0.061172184;0.077583596;-0.28311068;0.1190519;0.12667237;-0.11813885;0.040445786;-0.112205476;-0.22050025;0.05769603;0.12272753;0.03645054;-0.00074393797;0.005205427;0.010986477;0.0050699366;-0.017449621;-0.13143225;-0.0037937125;-0.076822735;0.0078076744;-0.019193219;0.00953252;0.53500974;-0.0032020293;0.13017234;-0.018703772;-0.07741596;-0.0028581514;0.17584279;-0.11000779;0.07781083;0.017788213;-0.0047106207;0.491684;0.019798689;0.0044756914;-0.044719048;0.15328364;-0.061505012;0.15184715;-0.32287675;-0.4311661;0.00557362;0.013509048;0.00022040668;-0.32790062;0.0040590754;-0.0719679;0.22372815;0.104635455;0.020259723;-0.17806716;-0.03496586;0.51142746;-0.06926835;-0.043088812;-0.013076132;0.10845679;0.01671037;-0.013205082;-0.038264696;0.045154903;0.18487968;0.28072792;-0.16303805;0.1525353;-0.32052767;0.023281552;-0.08506077;-0.021967571;-0.009381514;0.28535688;0.2890666;0.0009927212;-0.38288644;0.026406765;-0.028879197;-0.17713472;0.24525425;-0.004162024;0.0066917683;0.13663399;-0.22472103;-0.013748747;-0.33642417;0.30134684;0.0021547999;0.3045471;-0.004734711;-0.037352443;-0.15704615;-0.009459992;0.003696172;-0.0005730368;-0.053813465;0.12655468;0.18550758;0.16539517;0.18039495;-0.15598302;-0.03797041;0.10049785;-0.00047575092;0.15067297;-0.06906332;0.1245939;0.002483885;-0.046689983;-0.043522835;0.11669895;0.008027577;0.042812373;-0.047496215;0.19029117;0.016943973;0.0007506597;0.02681165;-0.011207852;0.22146964;0.0004924281;-0.079348855;0.14326084;-0.073944025;0.013192358;0.17232719;0.12177953;-0.2401924;0.00013294179;0.0035348467;0.03521955;0.14174108;0.02642375;-0.01817826;-0.017084524;0.017672839;-0.075337954;-0.25435364;0.09166879;0.0069659036;-0.065414935;-0.22464424;-0.01600645;-0.048345204;-0.24472879;0.001836983;-0.16746666;0.03531208;0.5632473;-0.011604555;-0.08018518;0.19691217;-0.012416419;-0.008610342;-0.0041687223;0.09290799;0.24472964;-0.0012683081;-0.22371529;0.2069236;0.009395341;-0.005374721;-0.11353693;-0.25193864;-0.007936214;0.21367599;0.0021065925;0.12110008;-0.06147215;0.2732012;0.36352152;-0.022977158;0.011278353;0.2258645;0.015879186;-0.23126331;-0.13340703;-0.0026002699;-0.007599825;-0.37659344;0.3053449;0.018843899;-0.00053111435;-0.3085105;-0.076678574;0.16630708;0.010043501;-0.027342137;-0.029443119;-0.015526617;0.0843658;0.09490893;0.17984496;0.020486902;0.0031355836;0.1959681;-0.031901974;-0.08279418;-0.018384058;0.0063475105;0.049537774;0.15857138;0.0010518335;0.0061287177;0.01643957;-0.13769574;0.20089999;0.37871918;-0.14324655;0.0116447015;-0.2335061;0.05239091;-0.0022919779;-0.004195552;-0.12712064;-0.033563793;0.067535505;0.011481046;-0.27301967;0.009977396;-0.0507924;0.010002319;0.24896841;0.067552455;-0.2530173;0.053661026;0.12468065;-0.008967779;0.13541704;-0.006439364;0.034417138;-0.34930077;-0.06948136;-0.19674599;-0.14461878;-0.0035274702;0.013708771;3.1891585e-05;0.0026895343;0.061999258;0.03859664;-0.087308384;-0.017698703;0.0008673797;0.1686922;-0.043588527;-0.11730131;-0.25752437;0.01389721;0.42263836;-0.15472336;-0.10210164;0.004398946;0.006789535;-0.0640689;-0.011402463;0.23023446;0.21845362;0.0014821307;-0.32266334;0.21804695;-0.03609127;-0.00041576952;0.07204327;0.17798375;-0.18065171;-0.10641645;-0.065909155;-0.009198633;0.00029997522;-0.0914717
-0.010931386;-0.112433605;-0.29605475;0.01667682;0.0019274659;-0.06438889;0.013067016;0.0022077993;0.05406251;0.061320413;-0.013831744;-0.082108915;0.33218837;0.42853987;-0.09413879;0.0056093433;0.053200312;0.18114734;0.009253099;0.052776936;-0.1635107;-5.316546e-05;0.026582383;0.07247593;0.13929984;-0.1894253;-0.14820562;-0.04345097;0.01441509;-0.12867546;0.059797354;0.18346542;-0.3822522;0.055756096;-0.007630098;0.009842965;-0.16705398;-0.03967618;-0.002133494;-0.13288441;0.0113707315;-0.14008957;0.1390083;0.029667135;0.016184673;0.18637796;0.07551417;-0.0045111924;-0.1480141;0.018056663;0.07294949;0.021367777;-0.35491553;-0.13263328;0.13459586;-0.416041;-0.27063894;-0.28451338;-0.05074522;-0.13744317;-0.2612707;-0.1392988;-0.31323847;-0.022938276;0.0068090097;-0.022519719;-0.027436666;-0.017058378;-0.24755129;0.0073878705;-0.0062211296;0.1673531;0.23104052;0.29272592;0.00011454913;0.0033493617;-0.017306369;0.024182357;-0.08340594;-0.08788286;0.05236789;0.0023277625;0.17966008;0.0027914322;-0.28939885;-0.15610436;0.30401647;0.015686246;0.053647466;0.2391896;0.30415905;0.33453155;0.20715515;-0.11294859;0.15291984;0.014236286;0.017462933;0.025616609;0.009242808;0.038629506;-0.041830353;0.011653162;-0.4211755;0.0016497181;-0.48112407;0.015180425;0.012983589;-0.007388639;-0.020303732;0.14326724;0.03235774;-0.0035911836;0.2198135;-0.120407015;-0.0049745035;-0.20127974;0.0072309705;0.004252524;-0.008482596;0.19531512;0.15569682;-0.048654668;-0.0054750666;-0.024218548;-0.2015654;-0.0071112295;-0.00078192644;-0.14158416;-0.10156847;0.004189516;0.10064429;0.21661144;-0.14913438;0.005893033;-0.2691531;0.015679136;0.12063771;0.013823162;0.0002165476;-0.009021908;-0.05894889;-0.15580313;-0.0048316917;-0.12078144;0.29399848;-0.04600661;-0.12228547;-0.2759004;0.008023839;-0.27986753;-0.32313588;-0.06000867;0.0017653051;-0.47079512;0.022506732;-0.09207165;-0.1672091;0.011258549;-0.0058613364;-0.0068148016;0.04094224;-0.084914155;-0.0007797675;-0.0069345385;0.12997985;0.31079784;0.12897208;-0.012191622;-0.0097425785;0.13798137;-0.03346133;0.09822153;-0.15405919;0.3713655;0.006697789;-0.0021261289;-0.024796113;-0.0037118716;0.34717083;0.06394842;0.0069519556;-0.2641066;-0.28615972;-0.11674224;0.007127146;-0.00016397088;-0.0036622353;0.088051245;0.038059596;0.045844696;-0.08370815;-0.17738914;0.0150286555;-0.021650268;-0.42984736;0.092216544;0.007130444;0.046291407;0.0063133487;0.022360953;-0.11950428;-0.026852574;0.13041973;0.0970727;0.13346857;0.20986488;-0.011118507;0.006071042;0.019434853;-0.01756065;-0.015553;-0.006027781;-0.24036613;0.0013336868;0.0017458054;0.004237905;-0.006213912;0.017231375;0.08958047;-0.09744126;-0.39211914;-0.1767514;-0.31952038;0.41233006;0.014175694;0.18652779;-0.008195511;0.05999723;-0.014661606;0.094358;-0.010481369;0.0739417;0.03766136;-0.31150982;-0.06739157;0.24435435;0.055018157;-0.254776;-0.016197823;-0.12505163;0.2254569;-0.18800713;-0.0063707903;-0.25632825;-0.02379264;0.075180575;-0.27953458;-0.02099499;-0.08541245;0.025931638;-0.004531993;0.19979507;-0.1291046;-0.28426328;0.30992115;-0.023629617;0.030132212;0.07304682;0.055486593;0.112393685;-0.28203115;0.029308442;-0.110077314;0.017328229;-0.05099879;0.008167528;0.027258726;-0.0022484793;-0.1793697;-0.12003252;-0.18452305;-0.09655593;0.016943987;0.20499496;0.0086574005;0.046739057;-0.3786879;0.00854955;-0.1532959;-0.112695776;0.29173958;0.15806957;0.0022880395;0.06965622;0.30003107;-0.13940962;-0.022761315;0.07736284;0.022159562;-0.32181278;-0.2850833;-0.4994175;0.013094309;-0.11055141;-0.22658812;0.013954718;-0.35764217;-0.18023594;-0.0029734182;-0.015526499;0.0075267013;0.27618882;-0.0133285895;-0.03186945;0.0010458227;0.066586316;0.013361194;-0.49746192;0.08494659;-0.11242272;-0.04779326;-0.030862588;-0.28733352;-0.3432141;0.12802894;-0.11090246;-0.12890872;0.014087352;-0.17228238;-0.1054478;0.019422367;-0.00964067;0.27618855;0.022681471;-0.21649484;-0.0060272543;0.023469755;-0.027582664;0.36251205;0.008411433;0.03737259;-0.015040441;0.07843201;0.00029508033;0.17699435;-0.15581185;0.071106166;0.081133194;0.012107209;0.46625775;-0.0076239854;0.03899685;-0.023245942;0.021882182;0.23665155;0.28240603;-0.2655921;-0.5654637;-0.24426813;0.009261902;-0.0067337537;-0.1219898;-0.013567589;-0.0664973;0.27795368;0.14406668;-0.013956704;-0.31201354;-0.23500027;0.27607173;-0.043988764;0.13151458;0.018508002;0.2652973;-0.00012985428;0.008996667;0.019209795;-0.13681224;0.12427359;0.1136222;0.111129805;0.040190294;-0.18099143;-0.007136315;-0.17246431;0.29214665;0.0042652274;0.20087157;0.21162467;0.011918854;-0.23063442;0.10746072;0.015890531;-0.23782273;0.34640193;0.012775422;0.025943253;0.01782762;-0.06914485;0.0067234593;-0.39405373;0.34946305;-0.0063093337;0.23428608;0.0043395725;0.016481541;-0.0761806;0.03343096;0.0073576113;0.0045372383;0.24267395;-0.17890829;0.17231669;0.22570659;0.04218653;-0.22689404;-0.01576148;0.010985291;0.0023866969;0.15658209;0.11167411;0.13060501;0.02084906;-0.03297089;-0.0018312423;-0.06737789;-0.014713451;-0.27628556;-0.18238509;-0.10161075;-0.016146861;0.00030759358;-0.016804604;-0.3878129;-0.124215014;0.016017789;-0.15273434;0.25806966;-0.14648235;0.008586348;0.07007897;0.12140276;-0.08013639;0.010283961;-0.013499748;-0.029991392;0.02669979;0.090843484;0.0055583054;0.060456254;0.06790164;-0.075042464;-0.028659863;0.30995512;-0.0016405345;-0.05608716;-0.4608789;0.014336669;-0.09429985;-0.0010068176;0.008450927;-0.21587068;0.17557353;0.2051309;-0.09304459;-0.091547444;-0.047717538;-0.023031693;-0.0025112482;0.0132438615;-0.19963317;0.085633524;0.041173436;0.048791695;0.1605111;-0.022646632;-0.040438272;-0.2048602;-0.10231778;-0.00788337;0.41784266;0.005788616;0.10719418;-0.001647472;0.24451044;0.21540059;-0.12540524;-0.025377559;0.33594102;-0.012389933;-0.6199439;-0.08147459;0.012091326;-0.012256027;-0.17312807;0.0669104;-0.02155005;0.008639602;0.1597445;-0.04100098;0.22050324;-0.077077374;-0.071330726;0.0038984462;0.0097127855;0.05272529;-0.06676514;0.0867031;-0.019416507;-0.019386332;0.08296305;0.02002041;0.12273132;0.018118907;-0.023673326;0.06482493;-0.051317498;-0.0005066681;-0.0016437455;-0.007558501;-0.3253565;0.24887003;0.24958278;0.19672416;-0.005920797;-0.3318148;-0.1742924;-0.13733019;-0.009894886;-0.32176048;0.13643883;-0.2534147;-0.008881615;-0.39582828;0.008622259;0.122924246;-0.016669448;0.20367785;0.19241278;-0.11027049;0.040846054;0.12201917;-0.004181522;0.098324075;-0.0024765618;0.07948776;-0.20433348;0.045455445;-0.017494215;-0.2917334;-0.0112726055;-0.015594433;-0.005697921;0.006552924;0.14756408;-0.020569;-0.048344914;0.006806507;0.005507494;0.11055669;-0.029696919;0.0521086;-0.21162513;0.008228671;0.50344014;0.061050728;-0.22297625;-0.01092477;-0.00465324;-0.12683174;-0.17582394;0.28536537;-0.052080408;-0.0009855881;-0.40129396;0.23931107;0.082925156;-0.013407896;0.011709203;-0.14339842;-0.2360189;-0.0076062228;0.26638746;0.018907573;0.017673695;-0.19980776
-0.006201152;-0.15975852;-0.13789032;2.2968345e-05;-0.008060496;0.030751977;-0.018477367;-0.027964642;0.08961236;0.08819251;-0.0014261408;-0.010522937;0.12655844;0.16615815;-0.0030751924;-0.00941911;0.15274104;0.1858229;-0.03216903;0.002359785;-0.123648964;-0.0011711536;0.08397284;-0.011967263;0.14709546;-0.34456775;-0.09075878;-0.22562066;-0.013241267;-0.13856447;0.15151608;0.121750765;-0.29839182;0.12077059;0.012646453;-0.0040495833;-0.23795924;0.05803539;-0.24915588;-0.18343425;-0.0903793;-0.21902718;0.3772219;0.015980424;-0.009442178;0.1451466;-0.045129802;-0.18051994;-0.29067603;-0.014771066;0.08365258;-0.024124065;-0.47225264;-0.21089374;0.2713537;-0.3751597;-0.072924905;-0.18303359;0.016972588;0.09878682;-0.05337322;0.22298612;-0.1800854;-0.06088528;-0.0002455215;0.024606321;-0.087213285;0.041744392;-0.19562617;-0.017102491;-0.017607672;0.1807454;0.42713326;0.4489009;-0.005723669;-0.002909391;0.014739202;-0.10082124;-0.4793734;-0.25328514;0.13222826;0.11999625;0.09683514;0.0007105413;-0.004623415;-0.0016223545;0.20344621;-0.019938149;0.122074425;0.13084044;0.32400808;0.07451244;0.16921252;-0.103028305;-0.040917784;0.024101418;-0.027310032;-0.055077475;-0.0062773256;0.04825016;0.054541185;0.08473668;-0.32559165;-0.0048592393;-0.31224927;-0.006547883;-0.004121514;-0.0066479524;0.00633722;0.080470964;-0.049040385;0.060919058;0.10026091;-0.07135512;0.0045642513;-0.063524164;-0.008397752;-0.026564104;0.025450334;0.1867561;-0.093178265;0.043143824;0.011393098;-0.24756452;0.044932663;-0.010811436;-0.007653255;-0.057228103;-0.15448783;-0.007148938;0.11915036;-0.12589625;-0.1615112;-0.0034745536;-0.5743622;-0.0089351265;0.30688328;-0.016991796;0.016462915;0.005097528;0.11981843;-0.04858018;0.0037901562;-0.1466476;0.12269177;-0.03915373;-0.06697017;0.18431588;0.010953909;-0.3342295;-0.28224194;-0.06810752;-0.019653805;-0.37855017;-0.0031310488;-0.08625888;0.18779269;0.011038015;0.0075646676;0.00040989535;0.07321298;0.16932467;9.1956375e-05;-0.0053014043;0.187551;0.21127553;0.21703887;0.03508045;-0.0682654;0.12502863;0.1036352;0.10211923;0.023768198;0.3024728;-0.019927956;-0.0019743873;0.13145997;0.00048101763;0.109950945;-0.017646873;-0.002357584;-0.07127942;-0.17393567;-0.19461173;-0.0037862922;-0.009113248;0.036040727;-0.05225487;0.015157369;0.08494868;-0.07595605;-0.060290188;-0.025156815;0.019000808;-0.49547854;0.024641536;-0.13301343;0.07412187;-0.120843;-0.25966576;0.00041524554;0.060415074;-0.0011839257;0.028385404;0.01791565;0.027549336;0.02066882;-0.14825252;-0.019191444;-2.5847508e-05;0.008104805;-0.0053835735;-0.42176926;0.0033344105;0.0045636995;-0.021641014;0.008589964;-0.00951459;0.18617356;-0.02725437;-0.37950036;-0.09583464;-0.3228842;0.42126328;-0.015764046;0.11599102;0.007554216;0.18948235;0.015050517;0.18248223;0.0062464015;-0.14708668;0.21527971;-0.11005559;0.28580257;0.113550805;0.074368656;-0.23820657;0.0030996727;-0.04213333;0.09013344;0.03113213;-0.0088814525;0.070506245;0.002664557;0.112003416;-0.21305752;0.023154745;-0.11813263;-0.023532014;-0.024877222;0.1092379;-0.19133687;-0.27258793;0.21605523;0.01510027;0.018081337;0.21833593;-0.03695053;-0.03632892;-0.5130207;-0.05809727;-0.17245908;-0.01885795;-0.06495542;0.003166131;-0.08941788;0.010277484;-0.10910577;0.107790925;0.10148248;-0.20364973;-0.011020844;0.13470748;-0.018085679;0.0014787473;-0.17938049;0.0019006631;-0.18121773;-0.021273421;0.3791407;-0.07077289;-0.031585813;0.11573046;0.07943573;0.01576351;0.14667165;0.007577692;-0.115489714;-0.12008569;-0.29200235;-0.14903301;-0.005222462;-0.10696175;-0.21207605;-0.0054650144;-0.19355784;-0.033455186;0.0017395183;-0.0037048527;0.12998006;0.04057121;0.004457345;-0.07316528;0.019880204;-0.027558222;0.12981473;-0.056003764;-0.04329613;-0.010466479;-0.0012413189;-0.050502967;-0.15009382;-0.39348146;0.08958452;-0.0070864456;-0.2115839;-0.009982299;-0.08207729;0.003886862;-0.011343516;0.032068156;0.034850635;-0.0012162732;-0.047777686;-0.00671132;-0.018361615;-0.019089045;0.10563319;0.0049871127;0.123829134;0.01824357;0.20723458;-0.003367314;-0.026918259;-0.078040324;0.16193326;0.043623112;0.003090046;0.12118042;-0.0009613206;-0.036495946;-0.08578043;0.05946853;0.42817727;0.16355297;-0.21003988;-0.33453923;-0.20168282;-0.001759308;0.014252754;-0.081452824;0.011035113;-0.023866845;0.24357392;0.097018555;0.0029781181;-0.23662384;-0.004415016;0.08558525;0.0685888;0.09696592;-0.020415824;0.17160496;-0.003377615;0.00585654;-0.0053726584;-0.12279569;0.029051278;-0.07022866;-0.014255514;0.088383116;-0.24801819;-0.00024622056;-0.0019714178;0.267292;0.008955859;0.40475595;-0.124127276;-0.018083194;-0.1936873;0.16662133;-0.041179504;-0.3782218;0.19062452;-0.026329892;-0.03454981;-0.11190661;-0.21486612;-0.0043864236;-0.35075468;0.2906049;0.009541087;0.17330463;-0.0074074413;0.024023898;0.064608656;0.121707;-0.00094519806;-0.0006853149;0.4292341;-0.2846831;0.24034435;-0.131776;0.20936169;-0.11255191;-0.18719268;-0.053801317;-0.008777437;0.1674187;-0.3460223;0.1746105;-0.0024693212;0.038627148;-0.10503219;-0.03818886;-0.022727592;-0.14994872;-0.24718153;-0.10518783;-0.0135930255;0.0048160087;-0.012650914;-0.23948215;-0.025197197;-0.012832717;-0.5189073;0.10612958;-0.2225334;-0.0065658325;-0.090340704;0.19151291;-0.2678448;-0.01834369;0.013343546;0.015504291;0.1164807;-0.031624924;0.005879247;0.07001372;-0.026307106;0.054149635;-0.004453139;0.45478773;-0.018217757;0.13947067;-0.20881;0.00010454502;-0.04399108;-0.18785827;-0.018761003;-0.2988923;0.34211233;-0.11468563;-0.37296015;-0.10879687;-0.18982914;-0.12757331;-0.009447008;0.00041633414;0.033760935;0.2245859;-0.028613754;0.14069635;0.18068056;0.021595508;0.0039521363;-0.09806408;0.039905492;0.022134861;0.14708781;-0.009193557;-0.08603924;-0.024601514;0.13389194;0.37247255;0.06683959;0.012619705;0.48397854;0.025597543;-0.48811844;-0.083346;-0.0081597585;0.008086081;-0.11824744;-0.12458453;0.010536986;-0.01483672;0.02118075;0.21735111;0.15308939;0.1258859;0.088997;0.0049347645;-0.0062069492;0.34304392;0.08461262;-0.13555963;0.013131544;0.018466998;0.23424008;-0.025624558;0.2483292;0.0036151335;0.0039834282;0.15387909;0.05502608;0.020176226;0.003935596;0.01139641;-0.2815942;0.3927364;0.19708765;0.32426304;-0.012554194;-0.51297444;-0.36016327;-0.04260088;0.027854832;-0.24540077;-0.044982087;-0.33667472;0.03489712;-0.24216129;-0.017669857;0.1458025;0.01080877;0.3695596;0.29132023;-0.19782424;0.15557078;0.28747994;-0.004531206;0.04093273;-0.0028216878;0.10440874;-0.15421657;0.13832092;-0.08402523;-0.13791133;0.0035405797;0.00012312301;0.008092843;-0.0062158904;0.18109325;-0.020980967;-0.023885036;-0.014000097;-0.0057151336;-0.0667576;0.20488049;0.102469765;-0.30143288;-0.02467397;0.27335635;-0.5375371;-0.06251775;0.004354207;-0.014387598;-0.08798535;0.13355704;0.13806391;0.15347217;-0.0037245082;-0.097583465;0.088514455;0.18413797;-0.034014806;-0.32175654;-0.05655748;-0.2849539;-0.022112614;0.32036427;-0.00770349;-0.01944918;0.0071870014
0.004053383;0.021684168;-0.090503834;-0.011817881;0.003377603;-0.1358466;0.011559182;0.024149898;0.120547116;0.115134835;0.022508532;0.007035418;-0.16322356;-0.15958656;-0.2992821;-0.00021081604;0.037972853;0.2970191;0.028184077;-0.0053024013;0.11653023;-0.0043928833;0.13248035;-0.00927025;0.12503192;-0.505623;-0.08452131;-0.46469435;0.0032985301;-0.14210135;0.26597488;0.1924793;-0.1514969;0.5181299;-0.013787504;0.0017607085;-0.4579516;0.10542868;-0.40421185;-0.11270788;-0.025062736;-0.22913085;0.45590934;-0.10779534;-0.008994364;0.03472711;-0.06561088;-0.2627017;-0.07683201;0.0069144056;0.08446092;0.0029098068;-0.5063013;0.051371228;-0.15705562;-0.5411108;-0.049660645;-0.13235003;-0.07857071;-0.20618705;-0.15833758;0.32253367;-0.18201196;-0.077370234;-0.015425565;-0.010686337;0.017618388;-0.01678682;0.02942579;0.0009728557;0.012467776;0.27116364;0.33854643;0.12287677;-0.010556222;-0.0057123117;-0.011199809;0.013891829;-0.19115222;-0.10207423;0.052104756;0.08968949;-0.050627626;0.003688783;0.13567331;-0.06627966;-0.03291785;0.0037268114;0.09330024;-0.01612272;0.3379344;0.06807604;0.09114892;-0.17343216;-0.06546824;0.0358427;0.04154825;-0.00328307;-9.380997e-05;-4.0375064e-05;-0.098823726;0.052226182;-0.34638572;0.009109744;-0.3761263;0.010908962;-0.008646651;0.010630254;0.01037562;0.2934501;0.15903842;0.16222326;0.20950244;-0.07275026;0.005607957;-0.23683354;0.0052817813;0.07472269;-0.0085685495;0.17686976;-0.030536765;-0.074182175;-0.01667344;-0.22838952;-0.09977316;0.009876164;0.010992296;0.12550144;0.0009497923;0.0002234386;0.04458039;-0.19852293;-0.0701201;0.011176389;-0.21646841;0.007249496;0.12172561;0.015327815;-0.02475713;-0.014858862;0.08437187;-0.09384736;-0.008686459;-0.38908574;0.17189257;-0.19093977;-0.33717543;-0.03236149;-0.0005158209;-0.116079696;-0.33534715;-0.0399489;0.046700757;-0.19959;0.008643581;0.19217114;0.22848484;-0.0098799225;-0.015089206;0.0027645186;0.057023343;0.38251346;0.013289853;0.012641484;0.18477154;0.07192394;0.053404618;0.16188899;-0.112329125;0.28472665;0.17498773;0.055969637;-0.15590566;0.30587572;0.0048809163;0.009490711;-0.011035471;-0.012412265;0.09061103;-0.040021744;-0.0043833144;-0.058182366;-0.14801805;-0.055684138;0.009629244;0.023084668;-0.0040877485;0.22441599;0.21920173;-0.17734873;0.13461022;0.10405156;0.020647444;-0.00730372;-0.23613726;0.04882621;-0.18914154;0.10979507;0.08132608;-0.25189131;-0.0006383613;0.08598733;0.09691197;0.15208484;0.09849359;-0.19549173;0.007792365;0.11887002;0.05129638;0.007384523;0.0044625616;0.014702006;-0.3222911;-0.0007051419;-0.013117304;0.011342259;-0.043421127;-0.0017392618;0.045221645;-0.1631613;-0.20121215;-0.1649059;-0.05458313;0.16235808;-0.0025378484;-0.015821656;0.0017917608;-0.023422455;8.186906e-06;0.09780662;0.0055431137;-0.11163714;-0.0019953565;0.06969673;0.2617614;0.1918067;-0.1612368;-0.006650094;0.0037872463;-0.18022138;0.04543843;0.5879853;0.014531296;0.16174187;0.010472505;0.067281745;-0.28777722;0.0740029;-0.058981825;0.014273908;-0.010135567;-0.072297685;-0.1397786;0.11590542;0.25837725;-0.10977756;-0.02440557;0.14480428;-0.16113418;0.097649455;-0.530019;0.061475843;0.083602674;0.015340596;0.023141;-0.0036108678;-0.10779518;0.00015400481;0.15642607;-0.25079554;0.084738895;-0.13408765;0.001955791;-0.31805357;0.01291847;0.12073978;-0.19502084;-0.007409963;-0.08046655;0.020517591;0.10978901;-0.1191763;0.034845304;-0.08224065;0.13448371;0.15057641;-0.022509743;0.10808648;-0.15185836;-0.15204373;-0.28571162;-0.022590604;-0.008882751;0.07084966;-0.12628584;0.004680625;-0.17903483;-0.27217054;-0.0055918344;0.010876835;-0.0004002969;0.12269384;-0.010719645;0.11831903;-0.014196097;0.12306297;0.06903755;0.041273925;-0.15090747;0.10926224;-0.1560414;0.01927557;0.2407658;-0.22607611;0.077499814;0.045226492;-0.22076628;0.00089597254;0.13595846;-0.03128507;-0.001544904;-0.041658986;0.10076867;-0.020641563;-0.00053184887;0.0098490305;0.001135459;-0.004053847;0.120605424;-0.018035196;0.08818614;0.005271343;0.28168532;-0.012263684;-0.3658023;-0.19232452;0.22602391;-0.028168093;-0.006873073;-0.11129785;0.0010527885;0.022136394;-0.12851731;0.04948684;0.21005091;0.21337387;-0.1173221;-0.19466545;-0.21983986;-0.0041389954;0.0051007974;0.12268563;-0.007606598;0.20419352;0.29107618;0.1335909;-0.008201036;-0.06037038;-0.0007018581;0.33470356;-0.24069911;-0.099537335;0.011251859;0.29983565;-0.0071604373;-0.011041062;0.0026327658;-0.2454423;-0.18040477;0.005319524;0.09877824;0.20174587;-0.1685242;-0.015958143;-0.001185104;0.26811394;-0.02234871;0.2531798;-0.16665827;0.021996262;-0.185877;0.16338412;0.094805524;-0.391495;0.17829894;0.02778212;-0.0050742766;0.06428503;0.113138475;-0.0077096056;-0.31256115;0.42887893;0.0023518251;0.016261162;0.0014294642;-0.30778816;-0.010226954;0.14981452;-0.0047916863;0.011652073;0.20159496;-0.2552069;0.1834131;0.021919182;0.099539965;-0.2205824;-0.13858084;-0.14558987;-0.0012655653;0.1747962;-0.39576897;0.011185933;-0.009856433;-0.0056738774;-0.042331133;-0.04799975;-0.0014574506;0.08201492;-0.23552565;-0.10148044;0.019121468;-0.01390187;0.018703489;-0.1544267;-0.1987883;0.003918482;-0.22485013;-0.08787013;-0.23982939;0.0008217865;-0.1485695;0.31943402;-0.024239272;0.008950622;-0.003254705;-0.0065632435;0.36793318;-0.048200306;-0.006943354;-0.008297059;-0.08909165;0.058765143;-0.051748823;0.38099036;0.00924187;0.1979509;-0.23481372;-0.01577124;0.055878848;-0.3764561;0.011807833;0.0065859496;0.13896355;-0.31507003;-0.38355738;-0.120549306;0.004575372;-0.09785099;0.019306114;-0.021105377;-0.050518263;0.02395052;-0.07600159;0.05265244;0.29603195;-0.0085970145;0.01222404;-0.16240412;0.048787225;-0.025443256;0.17985263;0.016180165;-0.02786618;0.06420821;0.035075124;0.44515255;-0.10343503;0.0064827153;0.21490566;-0.009521128;-0.5217847;-0.078781605;-0.0056220773;-0.005545962;0.09740551;-0.39815694;-0.005867198;0.004621235;-0.22562926;0.30670062;0.04124019;0.101736486;0.29472083;-0.0047588404;0.002137952;0.3410207;-0.018232616;-0.04159528;0.003509226;-0.008807262;0.19313902;0.016765693;0.19609605;-0.022432582;0.0009802311;0.0018239536;-0.06618939;-0.028199494;-0.0056779017;-0.003328126;-0.5798142;0.30106765;0.2008305;0.26375583;0.010086519;-0.52872723;-0.18628345;-0.14595358;-0.008272837;-0.109259136;0.0036017841;-0.28307068;-0.00105444;-0.062487036;0.0034741717;0.06823222;0.00090290565;0.27614808;-0.018253261;-0.016254295;0.24513021;0.11828491;0.014880934;0.04702919;-0.017291214;0.14363474;-0.23280993;0.04636186;0.07418559;-0.25990954;0.010557388;-0.010532048;-0.011322713;0.000643978;0.2331601;-0.08598319;0.06641066;0.01835711;-0.0010685817;-0.2673884;0.15343389;0.44425195;-0.14438738;0.020375071;0.08819804;-0.34204608;-0.17160447;-0.0051027387;0.022013852;0.006111739;0.25583845;0.14217411;0.2944374;-0.0010657854;-0.25491562;0.15747294;0.279752;0.00050698995;-0.08524808;0.0930618;-0.4925107;-0.38713568;0.05996652;0.013030864;0.000280697;0.33386445
-0.00034738422;0.18346024;-0.12528913;0.007471897;0.002311372;-0.36783966;0.010961017;0.0035837225;0.13058177;0.18790509;-0.017358959;-0.1316183;-0.25677568;-0.08425849;-0.17905489;-0.022768246;-0.10361799;0.19937159;-0.017955825;0.021209352;-0.021229906;0.0007746094;0.14084765;0.10398726;0.26767072;-0.1756986;-0.07436921;-0.22734728;-0.009628527;-0.10513372;0.2745648;0.0074776085;-0.019528752;0.6984239;-0.013699362;-0.004357434;-0.25904617;-0.030573826;0.07165447;0.011456429;0.06868924;-0.28268537;0.2649182;0.07184101;0.0105394805;-0.19338083;-0.14639935;0.046772346;-0.15738022;0.0026590335;0.03716975;0.014020024;-0.24518129;0.13532197;-0.07960124;-0.20080285;0.10148237;0.023397788;0.019406889;0.045238577;-0.058761623;0.020264184;-0.0036566874;-0.04218443;0.011278744;0.007160643;0.19542104;0.06314738;-0.11948158;-0.007975834;0.0037873287;0.1446086;0.32568267;0.15679228;0.012090717;-0.004483188;-0.0030013036;-0.040884703;-0.1376773;-0.21966496;-0.06338017;-0.23967323;-0.05501599;-0.007609286;0.051050648;-0.08120799;0.3339836;0.030174635;0.021408588;0.046644613;0.2983717;-0.054261517;-0.0076535614;-0.03788492;0.123309396;-0.037775345;-0.015573982;0.18975182;-0.003931886;0.20889604;0.023618734;-0.101381496;-0.2183886;0.0023767191;-0.49745017;-0.011608187;0.02158175;-0.014429109;-0.012888674;0.11158593;0.04101957;0.2929563;0.2664723;0.13747989;0.011319071;-0.18136401;-0.003343243;0.011352728;-0.0021218807;0.035295278;0.13887338;-0.03341506;0.007849623;-0.07901791;-0.18023245;-0.015988152;0.009815139;0.22341774;-0.025251105;-0.010396812;0.13279088;-0.18828039;-0.15990676;-0.015062155;-0.42195946;-0.0067994776;0.17590746;-0.002902737;0.019761689;0.01754573;-0.042263456;0.13715689;0.02398303;-0.085055195;0.16700217;-0.4630865;-0.6887049;0.027926067;-0.024552017;-0.013303598;-0.06899218;-0.1971276;-0.028863098;-0.17456725;-0.012759892;0.3582929;0.2473561;0.00603249;0.012138922;0.012975674;0.0072496175;0.3578602;-0.008910657;-0.0035646723;0.2765068;0.16698648;0.08875288;-0.070731945;0.12062686;0.029957112;0.16297331;-0.013298043;-0.34768435;-0.054361016;0.00932484;-0.023334114;-0.07956876;0.011754002;0.10032028;-0.1298276;-0.001994493;-0.20017546;-0.2332384;0.023870716;-0.013951956;-0.0076103834;0.040650174;-0.05604982;0.103379145;-0.24983856;0.067708686;0.2417379;-0.0050162924;0.00026042917;0.0014600526;0.0027452975;-0.16595508;0.073529884;-0.12929718;-0.050145254;0.05197686;0.05588179;0.13931656;0.2549492;-0.018414482;-0.104909085;-5.5523105e-07;0.0057698833;0.03830396;-0.011290372;-0.0031431308;-0.008065418;-0.113409765;0.00043875063;0.012032724;-0.016051289;-0.14906467;-0.01708628;-0.015103196;-0.0354236;0.077867754;-0.2434996;0.32425016;0.114708945;0.010608954;-0.12703173;-0.0026207953;-0.091346964;0.0038430349;-0.025828952;-0.0070560677;-0.035027243;-0.0020623293;0.0038022809;0.25167358;0.23075242;-0.10123048;-0.1837072;-0.0061494354;-0.2346449;-0.10137695;-0.0070192143;0.0117956;0.08856186;-0.011093775;0.09794498;-0.2671444;-0.008812414;0.18182337;-0.010122606;0.01804476;0.054477826;0.046337076;0.20516063;0.033503655;0.039617497;-0.007633528;0.10771582;-0.2074729;-0.103936434;-0.600155;0.10201262;-0.051394887;-0.0011749443;0.07248188;-0.00086786697;0.04676248;-0.007856897;0.20091334;0.14871405;0.060601406;0.07079867;0.019701796;-0.3281489;0.0038750293;-0.047440868;-0.00601823;0.011155663;-0.080861814;-0.031392228;0.21570283;0.07110726;-0.017099904;-0.22177686;0.10642596;-0.03866871;0.040787593;0.23493044;-0.19207652;-0.25808397;-0.062080555;0.1481097;0.006360487;0.07480254;0.0011705647;0.007776457;-0.44201902;-0.24236727;-0.010078901;0.00050903135;-0.03239504;-0.05663667;0.009915108;0.020946605;0.0014998363;0.09885315;0.13741529;0.2502348;-0.3169427;0.06899511;0.11432822;0.031605326;0.07205761;-0.043303687;-0.17805156;0.02860123;-0.2282824;0.0052598207;-0.048658792;-0.12968509;0.0070932135;0.011529542;-0.33929622;0.018502252;0.19508934;-0.023597477;0.0064977277;0.037952553;0.018199509;0.0027337389;0.23275553;-0.0227101;0.37398583;-0.0013568284;-0.29092932;-0.10918097;0.41689363;-0.10121581;-0.0040362566;-0.42497233;-0.010126566;-0.018709542;-0.15535176;-0.17552853;0.16558553;0.06734959;-0.17938818;-0.14818163;-0.0022468567;-0.0103863245;-0.010518343;0.15190823;0.0076244962;0.23774521;0.19282387;-0.031429198;0.021553958;-0.20346949;0.24160832;0.055249523;-0.33231914;-0.0885579;0.008739864;0.19374134;-0.012767444;0.006885723;-0.017046148;-0.075297624;-0.34589937;-0.043397393;0.10727468;0.08917321;0.04636601;0.019477172;-0.03232665;0.12432908;0.011051492;0.32004985;-0.16487837;-0.007199556;-0.16879411;0.09949416;-0.04597392;-0.2584134;0.071810134;-0.0032314167;-0.0035240748;-0.031452112;-0.024808023;-0.01727553;-0.21330921;0.3985551;-0.008473929;-0.27953336;0.0134858005;-0.3111143;-0.25566652;0.23266453;0.00755476;-0.015882809;0.022840062;-0.19298768;0.20450631;-0.085250586;-0.030613946;0.17634258;-0.08144345;0.03551793;-0.0010554569;0.20514545;-0.4001999;0.06016073;0.00094751397;-0.17653346;0.078572415;-0.32445925;-0.047399253;-0.114567555;-0.14199339;-0.034937426;-0.010132958;0.009687309;0.0009434057;-0.015871005;-0.28975552;-0.00095270306;0.11228831;-0.22452249;-0.2798291;-0.012509012;0.010340264;0.2015981;0.10604404;0.0017673823;-0.011842154;-0.0067748534;0.28355554;0.088854626;-0.0077291876;0.0078115035;-0.07637477;0.023963517;-0.14170052;0.37425062;-0.0050586024;0.16651621;-0.26308167;0.0014186449;0.05737418;-0.33813056;-0.016592856;0.27169845;0.12996611;-0.06721949;-0.2060847;-0.19522302;-0.08087031;-0.07066169;-0.022671849;0.02137989;-0.10213018;0.16202927;0.13592386;0.10078712;-0.06256911;0.011061877;0.02977417;-0.14266945;-0.062040124;0.01353811;-0.25059593;0.008799473;0.010789888;0.113367245;0.06704769;0.4369722;0.12092923;0.007038602;-0.038099937;-0.02901823;-0.34404758;0.09937119;0.018005898;0.0022244474;-0.008351177;-0.26190698;0.007907846;0.012615562;-0.04226588;0.15879783;0.024079036;-0.015474774;0.09373123;0.009433676;-0.0015766615;0.09534475;-0.082648896;-0.17268316;-0.00045827182;-0.011268425;-0.011149617;-0.00053392316;-0.014878098;0.033634108;0.010977864;0.002407328;-0.080058895;0.015095323;-0.007266101;0.009421533;-0.25040656;-0.012320459;-0.20505626;0.32244515;-0.018907044;-0.44659126;-0.033489134;0.06498168;0.0012708092;-0.2676899;-0.048362166;-0.3714303;-0.033280805;0.037941694;-0.007289828;0.06776751;0.006751288;0.20684642;-0.17159256;0.17697175;0.29617634;0.3332122;-0.007682389;-0.06199147;0.025942015;0.23448776;-0.09443447;-0.20353054;-0.09040255;0.017133549;0.0065580304;0.010015154;0.005135091;0.0096364645;0.3189221;-0.19552681;-0.036264673;-0.013200692;-0.0066564074;-0.23093493;0.0036251205;0.63199496;0.17182305;-0.021181606;-0.14347565;-0.1956208;-0.11946439;-0.005895794;-0.0019998997;-0.053559206;-0.066410996;-0.008846403;0.22435714;0.0102793295;-0.096293665;0.11700337;0.32801887;0.033801667;0.0625649;-0.0010230555;-0.30423343;-0.3530552;0.17704317;-0.0033127412;0.0030750034;0.23557693
-0.002367433;0.046202302;-0.04889439;-0.0018278842;0.012558459;-0.17009604;-0.0008779125;0.005193698;0.19503036;0.007956207;-0.010114392;0.013260898;-0.006465633;-0.1810276;-0.0702873;0.02290875;0.20440714;-0.03672947;0.0045691426;0.033065304;0.031355653;0.002599996;0.15966822;0.06317228;0.0493309;0.021469055;-0.11570251;-0.30603024;0.0071661933;0.024914948;0.47346264;-0.087360375;0.17564054;0.36865437;0.019692224;-0.0048104357;-0.015707746;0.027115595;0.35378215;-0.03927667;0.0094264075;-0.2968939;-0.034081038;0.04361888;0.007011967;-0.071518965;0.010776606;-0.05740843;0.027085146;-0.019639224;0.05141809;0.0061417627;-0.068498604;0.21017694;-0.38578403;-0.3584474;-0.10909415;0.02991034;-0.03627013;0.33979145;-0.16236158;-0.17397235;0.22073817;0.052188102;-0.014028725;-0.008694958;0.20575884;0.1052067;0.17342407;0.004946022;0.0025092063;-0.030344836;0.54727733;-0.042067546;0.0038107368;0.023696037;0.00026784212;-0.15839916;-0.18829708;0.03976569;0.19409525;-0.25253347;0.14261843;-0.00080782094;0.027452106;0.09436771;0.3462785;-0.020148283;0.05485758;0.031443525;0.32199153;0.32147086;-0.2526128;-0.052742418;-0.046440847;-0.014728921;-0.028919216;0.12301394;0.0039632493;0.16415319;-0.038957607;-0.10605019;-0.10902197;-0.006310771;-0.23618872;0.002397431;-0.019588685;0.021914585;0.01040251;0.10574629;0.12618533;-0.11555506;0.31796923;-0.11307298;-0.0024546047;-0.2639669;-0.005558486;0.15476274;0.009792667;0.079076156;0.30862564;-0.0124198655;-0.0052243858;0.09333107;-0.2259146;0.012656608;-0.004110081;0.24288581;-0.05302394;0.009020193;0.013382362;-0.22991544;-0.08455264;0.0011497745;-0.11236149;-0.0034941896;-0.081503354;9.849509e-06;-0.005206971;-0.015565098;0.09058648;0.29420975;-0.013722605;0.14729786;0.2353347;-0.5346987;-0.5518672;-0.33234057;0.008471718;0.18395402;-0.06764123;-0.32212263;0.04000785;-0.062933624;-0.0050741993;0.25677702;0.5376355;-0.0066540977;0.013426576;-0.021300787;0.14909476;0.25286728;0.0018220043;-0.009852299;0.16072501;0.17871009;-0.15107441;0.0892597;0.1867371;0.0005479015;0.09287446;0.02984285;-0.24961309;0.21018429;-0.0107609825;0.02637841;0.14927691;-0.014064457;-0.08772814;-0.29906857;0.0046727173;-0.23583086;-0.03679495;0.060085688;-0.008916336;-0.010749687;-0.0021786029;0.0028794615;0.0015661486;-0.27055028;-0.18665206;0.04055816;0.005541761;0.013642475;-0.048636697;-0.028790276;-0.19012545;0.310949;-0.13801897;0.102845825;0.16402705;-0.036865443;0.1739027;0.19237132;0.09826893;0.050475147;-0.012852107;-0.27270684;-0.22962312;0.01935754;-0.0018596511;0.016520357;0.18643057;-0.006660223;-0.0152609935;0.008559334;-0.1535262;0.0066926936;-0.11082641;-0.018710408;-0.14234902;-0.045034617;-0.0654628;-0.088187575;0.007881759;-0.097546816;-0.007330193;-0.37752527;-0.0024638092;-0.066036165;-0.0026261567;-0.24052638;-0.020613478;0.01654901;0.05422659;-0.05062909;0.104173385;-0.09852138;0.018418018;-0.18295869;0.22506543;-0.1731111;-0.0057398216;-0.032160673;0.010842995;-0.002285479;-0.083716094;-0.23228148;0.1831312;0.012815552;-0.0012440736;-0.031103475;0.0030953675;0.12429231;0.2762634;-0.20713724;0.07012706;-0.21689549;-0.16189615;-0.10157378;-0.50259507;0.040744394;-0.022615958;0.0011354978;0.04155217;-0.0022216109;-0.04533798;-0.0023130905;0.32830486;0.14118356;0.1540525;0.16794895;-0.020721158;-0.12179003;-0.008763253;-0.07911723;-0.13026989;-0.013391552;0.13813078;0.20968236;0.0070456923;0.015225891;0.009956216;-0.16510247;-0.019971332;-0.1261589;-0.30773693;0.19523808;-0.053009186;0.042854954;0.10262908;0.3165552;-0.0035756337;0.13823459;0.108416595;-0.0037864952;-0.2933198;-0.31387663;0.010872396;-0.010514969;-0.048433032;0.073071785;0.003846746;-0.14102574;-0.016400488;0.11216083;0.17273186;0.24885507;-0.18252149;-0.14674024;0.11933929;-0.008055631;0.110947095;-0.08559737;-0.34719074;0.029704766;-0.14965713;0.0029642982;0.18788747;0.08479369;0.0037486192;0.032413512;-0.28580254;0.0005356264;0.2764881;0.030900853;0.007005729;-0.045070656;0.03605311;0.00057510054;0.33798492;0.010227405;0.12354762;0.00011274342;-0.44802117;0.08962662;0.1662586;-0.12705866;0.001368519;-0.45237666;-0.0038045233;0.010557247;-0.32536533;-0.023437869;0.22707412;-0.09725582;-0.43167433;-0.28625238;-0.18039455;0.009161844;0.013319002;0.41556662;0.0059006074;0.17941958;-0.014889134;-0.0005458107;-0.02319397;-0.36160168;0.23865356;-0.1139599;-0.42282882;0.107793175;-0.007874357;0.33467758;0.019220132;6.0378727e-05;0.027055366;-0.08067707;-0.3189642;0.16271754;0.19880424;0.12283741;0.03968708;-0.0031829707;0.2418258;-0.0066676885;-0.012395406;0.13223769;0.24809997;-0.019221507;-0.27329978;0.22861665;-0.029268418;-0.14588629;-0.20486324;0.005289716;0.006330683;-0.08607523;0.21594816;0.021054665;-0.13451119;0.3792738;0.012791875;-0.2969558;0.004346333;0.004568378;-0.08019946;-0.019310828;-0.0067710453;-0.0066098454;-0.089055195;-0.08752495;0.049458478;-0.094922654;-0.25308102;0.046471905;0.03249003;-0.12375546;0.0010152822;0.16803637;-0.33879402;-0.029366238;-0.013705481;-0.18680415;0.12587842;-0.33979782;0.22513762;0.1368096;-0.21215884;-0.0092997365;0.0044457996;0.005626773;-0.009929175;0.032503102;-0.075705916;-0.01278238;-0.031367783;-0.20724577;-0.24343044;0.012703833;-0.063066;0.053793233;0.20930105;-0.005231788;0.006360117;0.0017767759;0.40903202;0.04164215;0.0051010926;-0.0068372837;-0.09710486;-0.07421108;-0.056398515;0.08382597;-0.006390229;0.2175011;-0.3218393;0.0096967155;0.17730114;-0.5125977;0.014514143;0.36839598;0.12280926;-0.21821626;-0.18954882;-0.1815834;0.33102566;-0.06344969;0.0304488;-0.006572637;0.11227526;0.12267011;0.112785555;0.020291522;0.0007334758;-0.02565661;0.0055597136;-0.061721474;-0.33045435;-0.012501798;0.11465161;-0.02857503;0.16554527;0.0047548087;-0.021861807;0.4689561;0.1868915;0.0087939;-0.04835108;0.021493798;-0.34542382;-0.330779;-0.0038744195;0.020725554;-0.11061921;-0.19224712;-0.0006588772;-0.014682742;-0.18274027;0.14886737;0.22427148;0.041723907;-0.040475346;-0.010578289;-0.0029965867;-0.037803035;-0.14372392;-0.01679896;-0.00023314057;0.010830176;-0.09186962;0.016158124;-0.12564896;-0.018782642;-0.0130289765;0.008802896;0.037580963;-0.0027150975;-0.0010652149;-0.021101164;-0.25970182;-0.108562775;-0.111723624;0.24125396;0.009545073;-0.24161932;-0.011444875;0.0916223;-0.003850592;-0.3823137;-0.036825772;-0.23716873;0.02474318;0.18351167;0.01231854;0.08895652;-0.00043287658;0.17649029;-0.077251926;0.064431936;-0.012504418;0.09989904;-0.003565893;0.06706845;-0.0026676469;0.2271538;-0.02013097;-0.28738314;-0.029876726;0.061948646;-0.005677614;0.0146935005;0.0070477836;-0.000583529;0.14726533;0.04841768;-0.20750563;0.016196376;-0.0035776554;-0.25182334;-0.046600785;0.6350825;0.049150836;0.014142793;-0.31823736;-0.1806082;-0.12310626;-0.002113427;0.004632723;0.023121195;-0.3838003;-0.047895182;0.28758466;-0.011925977;-0.24720879;0.13385797;0.4362894;0.0472278;-0.039088987;0.09287995;-0.44902006;0.0053909947;-0.06261712;-0.018108914;-0.0017722375;0.036968604
0.012122992;0.03511169;-0.20975637;0.01798352;-0.005347396;-0.08048084;-0.0025815137;0.007616725;0.26086745;0.06832857;0.015921727;0.0077041024;0.17721525;-0.17235647;-0.13843888;-0.0054438733;0.35873377;-0.11126276;0.015224756;-0.0185734;-0.10194393;0.022243148;0.05587437;0.087301455;0.0120012015;0.035468064;0.034321662;0.04404244;0.00047857006;-0.041519932;0.32954338;0.16186139;0.09265293;0.3656057;-0.0032790774;0.016197756;0.17000428;0.069018096;0.23594487;0.07857035;-0.06598753;-0.19057249;-0.13044271;0.23168086;-0.0064876815;-0.06697788;0.05063905;-0.20233376;0.2517221;0.012384361;-0.21390498;-0.014326143;-0.0019101258;0.18234828;-0.24861464;-0.3672091;0.0039407844;0.07389976;0.07415908;0.32647717;-0.18829142;-0.31329778;0.1876487;0.014796259;0.0008987246;0.009360863;0.09792305;0.13366029;0.09371842;-0.018137125;-0.01214363;-0.05953701;0.39780396;-0.25098234;0.009063534;-0.018426744;0.005731255;-0.10069929;-0.33907002;0.15278096;0.03407049;-0.27780744;0.23680109;0.008696815;0.029435657;0.12038213;0.0060830493;-0.019412687;0.056781773;0.15860976;0.19252808;0.03364304;-0.055599455;-0.18863755;0.14766647;-0.015853105;0.004881932;0.04341022;-0.0088510085;0.058661133;-0.15689877;-0.1900244;0.15869951;-0.0075376634;-0.2563837;-0.00030578376;0.002037219;0.0037655223;-0.012059718;0.13155873;0.27830935;-0.17753513;0.29702365;-0.117030874;0.0025192;-0.5260734;0.005802967;0.20932162;-0.024595462;0.014725106;0.17446786;0.035512485;0.00025705883;0.13149948;0.11459833;-0.0032820727;0.0027382576;0.3266518;0.009757259;0.001953208;-0.15192856;-0.15747595;-0.16870745;0.017583922;-0.008442899;0.0093683535;-0.23557205;-0.0010539674;-0.0103176255;0.021479791;0.20124884;-0.07331729;0.012927276;-0.06643192;0.2989477;-0.4277485;-0.3408251;-0.44912568;0.009097299;0.1345259;0.14152132;-0.2906334;-0.035373975;0.14752454;0.004610507;-0.09291321;0.40552244;0.016327193;-0.006753373;0.008306989;0.39301494;0.12570223;-0.01299424;0.010715439;0.39538586;0.17911042;-0.09929838;-0.0978233;0.12531748;0.0517473;0.038735252;-0.04135969;-0.15980306;0.15138404;0.004681296;-0.024159893;0.015568437;0.016949039;-0.32653964;-0.06915761;0.006570944;-0.3889047;-0.13137683;-0.07038776;0.023274826;0.018198773;0.06493043;-0.09553284;0.025566988;-0.40972066;-0.14167035;-0.12591238;0.004967793;-0.009907989;0.13635957;0.06842738;-0.33313897;0.07549892;-0.19797523;-0.014513828;0.42792925;-0.09535125;0.05458409;0.018908165;0.061082207;0.23419556;0.0065366398;-0.15718475;-0.08382464;0.003497822;0.005318063;-0.010871093;0.110057704;-0.013441215;-0.0045626657;-0.004936207;-0.22035736;0.009896927;0.024948455;-0.070544496;-0.25442532;-0.11358733;-0.09436572;0.08414813;0.000438889;0.013247693;0.021354973;0.02316778;-0.001206568;0.0037655495;0.00814893;-0.36638725;0.037208077;0.13131952;-0.2038589;-0.26654905;0.20775022;0.13717036;-0.011901244;-0.11769159;0.27443397;-0.18376715;0.008216559;-0.05188624;0.0029646507;-0.005963521;-0.024621002;-0.2876467;0.29143935;-0.018228661;0.016795263;-0.009419448;-0.07540108;0.033201236;0.060333718;0.032599762;-0.038076375;-0.12479184;-0.052350655;-0.0086069675;-0.4409243;-0.12563282;0.038365804;-0.01735776;0.1017067;-0.002398504;-0.039176077;-0.0031619645;0.38113967;0.31542814;0.2103346;0.22291937;0.003938818;-0.11073778;0.006226477;0.065366775;-0.15319565;0.0018153552;0.17683473;0.24629012;-0.042800326;0.031672116;-0.0024860217;-0.1844677;-0.03484147;-0.30290493;-0.24796696;0.14972326;-0.19498737;0.19718105;-0.058512826;0.29038417;-0.002640616;0.14390057;0.066273525;-0.00110188;-0.16617444;0.044844937;0.0046994905;0.017705107;-0.03388573;-0.0029736347;0.009076119;-0.032203976;0.005116004;0.102335714;0.07675667;0.4413386;-0.14456694;-0.2990859;0.21837956;-0.015955703;-0.033672668;-0.10598258;-0.21810505;0.15142566;-0.032198146;-0.0065639834;0.1193543;-0.06174431;-0.00899058;0.04278428;-0.24043041;0.011384722;0.2769086;-0.017851193;-0.0055010356;0.092963845;-0.19681919;0.009743274;0.18839459;0.004748929;0.06611924;0.016062675;-0.1083013;-0.020095507;0.29013127;-0.13451685;-0.010571668;-0.06464166;0.00047019194;-0.031153241;-0.2491402;-0.018032758;0.2405235;-0.429291;-0.4184272;-0.32092327;-0.24566866;0.009308311;-0.0039351326;0.27770168;0.0162607;0.41884252;-0.04565768;0.112977736;0.014316304;-0.3234572;0.020722749;-0.13036382;-0.35733965;0.12394784;0.0036535945;0.2867857;-0.005042112;-0.0041082813;-0.007933352;0.11802903;-0.19591287;0.07139502;0.20271987;0.27580464;0.17049341;-0.005812565;0.27873015;0.04683182;0.0070059267;0.1340909;0.26264924;0.010465444;-0.25995964;0.2476238;0.029876204;-0.19002964;-0.03967313;-0.005368241;0.026783623;-0.070210546;0.3336758;-0.008858122;0.15313913;0.3428236;-0.013726064;-0.029722529;0.0066409353;0.21986052;0.18188602;0.025200432;0.014128512;0.022199808;-0.047941454;-0.07725685;0.058338672;0.10989114;-0.1364434;0.20557539;-0.10552916;-0.104844525;-0.005183474;-0.15746708;-0.22546296;0.064281456;0.009543208;-0.055641897;0.025117991;-0.41976944;0.20635678;0.2970414;-0.22997421;-0.056648374;-0.0025497354;-0.0067299847;0.020907644;-0.041427094;-0.08362885;0.012644746;0.016030017;-0.30629623;-0.21390726;-0.0036527994;-0.3946912;0.15573135;0.044654574;0.011774568;0.009653471;-0.005798075;0.35965025;0.055937756;-0.006208011;-0.033332784;-0.09533566;0.07473474;0.11283567;-0.076535635;0.0143157095;0.26623067;-0.22387612;0.0015250136;0.14099689;-0.40133396;-0.0042540627;0.117798544;0.1325767;-0.29208127;-0.02434812;-0.17083815;0.15893039;-0.12526155;-0.011418773;-0.02347629;0.13810961;-0.117822506;-0.12407211;-0.014922282;-0.10593438;0.029058306;-0.02198345;-0.04778847;-0.39848068;0.0134882135;-0.040663823;-0.008753254;0.031299848;-0.15206656;-0.1619997;0.48775983;0.28953856;0.0050450144;-0.13709146;-0.018689767;-0.095734954;-0.16561761;-0.0025615194;-0.028041711;-0.04271318;-0.33506927;-0.008629396;0.0092064645;-0.307279;0.14816035;0.034573972;0.14067945;-0.065359436;0.0036374445;0.003932885;-0.17033298;-0.26946837;-0.088689424;0.009580687;-0.0042817467;0.0878018;-0.0013101529;-0.088980265;-0.016481083;0.02092611;0.003088873;0.011978972;-0.007847995;-0.00078301906;0.018977769;-0.19628917;-0.44456208;0.057466187;0.068476245;-0.003267809;-0.063263886;0.19619519;0.076647066;0.011250016;-0.18783128;0.0035948881;-0.25122368;-0.0051948735;0.074232586;0.0054989983;-0.10137532;0.0021598123;0.17777435;-0.19748506;0.13609256;1.294771e-05;-0.048044033;0.006248076;0.103701405;0.0022826584;0.22976287;-0.09500221;-0.3445372;-0.1020314;0.06111012;0.010281893;-0.0069805738;-0.005495666;-0.009402421;0.00930407;0.2987909;0.041862678;-0.0062533827;0.015172063;-0.10263613;-0.016813185;0.40175974;0.009855008;-0.00815704;-0.23847933;-0.3128423;-0.13526954;-0.014734068;-0.00042134552;-0.21649085;0.1759495;-0.23132068;0.22308297;0.0034841134;0.0070497408;0.17401521;0.17156813;-0.010356858;0.051714282;0.12848936;-0.48492607;0.03393938;-0.2918239;0.0071094194;-0.013812797;0.075253084
-0.00012901468;-0.061839815;-0.06207738;-0.007250068;0.0015838586;0.19411963;-0.024228958;-0.017240131;0.02824014;0.0043854443;0.005334299;0.22037841;0.2904488;-0.03517924;-0.24227853;0.0025492543;0.13850711;-0.10958864;-0.002068379;0.004276171;-0.17961352;-0.016968677;0.118215345;0.055163044;0.016844712;0.071792565;-0.0968339;0.08971583;0.018054469;-0.011073239;0.36072233;-0.18538012;0.01675597;0.52556676;-0.0020212822;-0.014586132;0.21344358;-0.16692826;0.06934781;-0.19161448;0.06598717;-0.2745415;-0.045217916;0.2171705;0.0060266764;-0.1370464;0.1400162;-0.22506188;0.10761724;-0.009534819;-0.17489654;0.0069199787;0.06908242;0.33338705;-0.19415566;-0.051096313;0.10363775;0.13919446;0.07614624;-0.050862;-0.21244125;-0.18976027;0.06780275;-0.056454703;0.01488107;-0.009751597;0.1899506;-0.059971433;0.06086918;0.012142017;0.01586619;-0.19822824;0.18436998;-0.20199694;-0.024498893;-0.0036991015;0.0006205563;0.12922594;-0.28798157;0.08876778;-0.34834036;-0.2307164;0.009406851;-0.013508138;0.09248408;0.18720925;0.15521777;0.055048656;0.039123762;0.16735171;0.19550264;0.038290847;0.21456487;-0.29882213;0.16825305;-0.01478913;-0.032955013;0.03894007;0.019710198;0.029429536;-0.38957396;-0.11037657;0.04131504;0.022530958;-0.35561165;-0.006201853;0.010017845;-0.013320871;0.021491589;-0.2489317;0.16157839;0.1981173;0.26723287;-0.110114425;-0.013171503;-0.34024712;-0.0067445952;0.1794202;0.0022911183;-0.23187703;0.09821652;-0.19154668;0.0048246086;0.1507483;-0.03309333;0.011275026;-0.022854019;0.19037673;-0.060183812;1.43949e-06;-0.013856619;-0.06900716;-0.009440394;0.0006834947;-0.10173896;0.012714818;0.12955976;0.0068406207;0.0056636278;-0.007823692;0.34669933;0.030821145;-0.010502793;0.07138423;0.21057679;-0.44784054;-0.15059824;-0.17098364;0.0038602357;0.07353212;0.061813705;-0.26203725;0.014608269;0.1433567;0.0044318857;-0.16957606;0.22975764;-0.009471017;-0.015774328;-0.0031777371;0.22591266;0.012711087;-0.002450763;0.005599552;0.27858266;0.18255606;-0.012262718;-0.1368272;0.16717635;0.16580902;0.059525445;0.034462225;0.01797125;0.037868313;0.0064107613;0.026312778;0.022609092;0.01526792;-0.4063428;-0.031301912;-0.0055566262;-0.2673203;-0.12303728;-0.16797432;-0.010030276;-0.015690055;0.05891331;-0.03998071;0.058390267;-0.6099393;-0.089963675;0.011073743;-0.014753258;-0.012702849;0.12067607;0.13720131;-0.23653309;0.14902666;-0.30187294;0.019881712;0.12036424;-0.39782065;-0.27730188;-0.050259694;0.061107785;0.10127118;-0.0028392742;-0.15708399;-0.07069193;-0.02554504;0.004911873;0.0024856653;0.12219126;0.015935455;0.009509628;0.020679295;-0.12423025;-0.0038846857;-0.15699978;-0.28778756;-0.2408395;0.17006187;0.011648424;0.05757846;-0.014741698;0.07397675;-0.028364958;0.14901523;0.006472227;-0.03914529;-0.002651264;-0.28820437;-0.12926559;-0.12087179;-0.09472811;0.005800351;0.20721425;0.10115791;0.014415608;-0.245628;0.27512142;-0.12273832;-0.009755416;0.03884772;-0.0082290815;0.16477486;0.16109143;-0.20955132;0.24068698;0.0025871838;-0.014441911;-0.02650497;0.13228132;0.17860384;0.1919508;0.04695738;0.020168122;0.09560763;-0.015030426;-0.045399554;-0.10942381;-0.0050945124;-0.0047694608;0.026137648;0.3066923;0.0072332234;-0.15844576;0.009752694;0.3932073;-0.03491155;0.027250009;0.14175962;-0.0031880657;-0.0048159747;1.6907816e-05;0.057326656;-0.12967573;0.0047960337;0.00050495216;0.10639423;-0.12071397;0.15999688;0.00257103;-0.5323225;-0.06834682;0.011928964;-0.26260042;0.026890917;-0.40899146;0.0980733;0.04900385;0.4438816;-0.002654974;-0.026324967;0.07100475;0.001231083;-0.060543966;-0.079462476;0.0009196902;-0.002940149;-0.19991432;-0.044051845;-0.011364836;0.05209515;0.007169885;0.10835475;0.06805713;0.27590752;-0.06049388;-0.108930446;0.17138004;-0.021841982;-0.14929503;-0.0114378845;-0.040315125;0.25216046;0.07966318;-0.00041387937;-0.036591325;-0.029228656;0.014527529;0.08240742;-0.026115041;-0.019292476;0.03136208;0.011588414;-0.0017458643;-0.030256812;-0.25438803;0.000525275;0.25045693;-0.0038044357;-0.26142988;-0.008758102;-0.1791805;-0.06468933;0.16496919;-0.15635733;-0.00064090354;0.049310297;0.018154463;0.0036698605;0.0031915847;-0.056911673;0.2246473;-0.4517502;-0.40871376;-0.31396878;-0.5717183;0.0026487005;-0.0042147203;0.11573397;-0.01882361;0.16675486;-0.22269621;-0.07054134;-0.0049428362;-0.23562592;0.022179285;-0.26931864;-0.17494795;0.17496347;-0.009724412;0.14746793;0.0015178758;0.011433514;-0.0139248865;0.14297093;-0.19196126;-0.18313251;0.18539615;0.295589;0.11999705;0.0074551455;0.08748972;0.06965818;0.0058720796;0.2463022;0.09385239;-0.013351517;-0.044950392;0.076068364;-0.008729273;-0.08155348;0.19333088;-0.0075020995;0.021322763;0.00155569;0.032374296;0.00013162855;0.16276327;-0.1877724;0.0077810567;-0.25876725;-0.013067869;0.15811974;0.075262904;0.18014409;0.0057932385;-0.006197516;0.19621271;-0.08848256;-0.12303036;0.2320036;0.013718851;0.37312877;-0.16495122;-0.16212822;0.021440404;-0.17010435;-0.12260019;0.04897126;-0.0050755637;-0.0025382056;0.054649655;-0.25593704;0.0050136917;0.11658735;0.039929096;0.07429929;0.007611935;0.0042409343;-0.02083928;-0.3101988;0.050998963;-0.0050620516;0.1898126;-0.38097662;-0.06629569;0.010602637;-0.053871885;0.42000863;-0.009240579;-0.011935733;-0.007106652;0.015394541;0.2308208;0.09327588;0.014574261;0.02246653;-0.03779958;0.030414488;0.25041673;-0.06759718;-0.013823626;0.042699285;-0.3290044;-0.005065062;0.02802645;-0.27042875;0.0049096113;0.0069850604;0.28890482;-0.0359714;-0.08883499;-0.093421176;-0.072636575;-0.3151113;0.002925306;0.014073412;0.19168739;-0.009195186;-0.09754991;-0.031269155;-0.12907925;-0.020427037;-0.0013497996;-0.08506732;-0.42126644;-0.0058330093;-0.049635444;0.0279754;-0.0544402;-0.104286455;-0.08226981;0.5957517;0.09985087;-0.011370702;0.05170182;0.006104429;-0.11084095;-0.17747931;-0.0050997958;0.0017612507;-0.17900434;-0.20894867;-0.0038584552;0.0014070836;-0.1735652;0.0864115;-0.019456375;0.09635905;-0.25654194;-0.01175247;0.0026120984;0.0024195933;-0.20383026;-0.20830221;-0.017295295;0.00197625;-0.34464237;0.0007076037;0.18140568;0.016994713;-0.014703714;-0.0016465882;-0.21694997;0.007885042;0.011370476;-0.016870612;-0.3864809;-0.37549835;0.10579534;0.022724265;0.015215957;-0.12654208;0.035962384;-0.07566406;-0.0078066536;-0.27351967;-0.013609262;-0.4845758;-0.018103343;-0.04235648;0.0027526936;-0.023871148;-0.0119820535;0.17816332;-0.048122805;0.149167;0.14031735;0.12543164;-0.0040318775;0.11632696;-0.0011086824;0.062128868;-0.23923676;-0.051137745;-0.25001162;-0.032762248;-0.020126583;0.013623456;0.004102768;0.0018181744;-0.22638246;0.20697778;0.25073287;-0.006872523;-0.027372383;-0.010008499;-0.24687333;0.30525437;-0.11484973;0.013562653;-0.11041331;-0.074400656;-0.4136729;0.030648142;-0.008575055;-0.20281418;0.1608651;-0.28882357;0.2087003;0.010588183;0.12775104;-0.14495231;-0.18510535;-0.013242858;-0.024785817;-0.040859923;-0.4440619;0.09813524;-0.16683024;0.0022541012;0.022726113;-0.16922055
0.0008038462;0.07564443;0.00025837234;0.0009826171;-0.008526231;0.23099412;0.018892;0.011214007;-0.1376803;0.08285271;0.0002604231;0.105275705;0.14503662;-0.05458117;-0.13571364;0.0067598163;-0.051579803;-0.1927016;-0.01231871;0.02236872;-0.19683486;0.005832023;0.04736721;0.16367339;0.09175912;-0.012192643;-0.2646927;0.09944081;-0.030366657;0.007530067;-0.095998764;-0.2924113;0.17172748;0.24751803;-0.0049954434;0.014249077;0.34826446;-0.05594458;-0.08009763;-0.017646167;-0.01348929;-0.09366979;-0.0009994245;0.1578285;-0.0027505383;-0.20723757;0.1704832;0.029943477;0.296918;0.0046602907;-0.15772678;-0.006328297;-0.011328793;0.23157288;-0.115425594;0.16152018;-0.13328472;0.14461313;0.11864357;-0.08318123;-0.20816216;-0.055772927;-0.07370729;0.010030713;-0.023649933;0.006454436;0.027031893;0.06452706;-0.02962842;0.01575962;-0.012609626;-0.20607606;0.19937615;0.17257258;0.008499044;-0.008305377;-0.007474267;0.14849377;-0.28265962;-0.14091901;-0.27550793;-0.122773804;-0.32398126;0.009788857;-0.15343572;0.047903128;0.0076092514;-0.036600456;0.040327013;0.073111616;0.3257695;-0.0074559045;0.13545129;-0.14327396;0.16911359;0.016885797;0.028000137;0.1175109;-0.021249158;-0.04653607;-0.14816491;0.2830229;-0.0037486195;0.0035742363;-0.3600185;0.0060900147;-0.012150519;-0.0038697994;-0.019743603;-0.32497475;0.30635974;0.19787581;0.2332835;-0.21952297;0.008018606;-0.17844619;0.00047169634;0.2748195;0.012204275;-0.22243576;0.06635848;0.016068058;0.0049809096;-0.12366606;-0.1543103;-0.00530157;0.02508023;-0.07580128;-0.22536735;0.004133631;0.03451562;-0.014169912;0.0014440292;-0.0068475497;-0.045497525;-0.008077749;0.09564666;-0.017883345;-0.015645394;0.0019101085;0.5898066;-0.16526483;0.0026704774;-0.2020291;0.15461467;-0.24064559;-0.13821858;0.22429982;-0.0037703407;-0.16581571;0.08142344;-0.08657707;0.037827574;0.26740015;0.0056120227;0.015329463;0.29824725;-0.0010461947;0.026336217;0.0057498747;0.44774035;-0.20043513;0.0029567475;-0.0010318953;0.1956479;0.03770578;0.051640544;0.106781356;0.26622254;0.3190739;0.12022293;-0.2645981;0.12458384;0.15345533;-0.0032941224;-0.028136408;-0.06707324;-0.029455464;-0.38688552;-0.1479913;-0.0050604222;-0.2642942;-0.16737439;-0.18018307;-0.0032008823;0.0023201287;-0.008197982;-0.31755707;0.093858175;-0.332674;0.058732525;0.09923436;0.01865047;0.017049527;0.07406882;0.12741426;-0.30716705;0.16517207;-0.13233696;-0.17382564;-0.04190986;-0.33473954;0.012897347;-0.09538616;0.0846594;0.20018584;-0.0066691265;-0.020842887;-0.12045934;0.01479872;-0.0122988485;-0.0062129246;0.236135;0.004758346;0.0084952265;-0.0018443791;-0.20442624;0.012502514;-0.22584108;-0.36809564;-0.19542508;0.113372244;-0.015331815;-0.0046103294;0.010914443;0.06330663;0.033814806;0.20501871;-0.0063980003;0.02118844;0.007655118;-0.17515238;-0.08825466;-0.22544731;0.084913984;0.18007669;0.24401736;0.24565211;-0.02209509;-0.22799209;0.047775764;-0.10350422;0.016691118;0.19164191;0.008105911;0.14854121;0.29720658;-0.29095086;-0.039113678;-0.0052835983;0.020062292;-0.040193155;0.2710621;0.16113128;0.20754804;0.1422819;-0.009558543;0.086294845;-0.40802097;0.026042005;0.04397148;-0.28632104;0.07133553;-0.011462567;0.19967629;-0.017076869;0.022668898;0.0055494797;0.32082224;-0.10403685;0.088991985;0.17228414;0.0010677368;-0.25018793;-0.004850462;-0.05163109;-0.018306008;0.002995306;0.072876774;0.22052193;-0.049249347;0.08584214;-0.004252732;-0.3465001;0.085024;-0.13951688;-0.38727325;-0.0842102;-0.32990766;0.13415588;0.24241672;0.27203655;-0.015400453;-0.1112059;-0.04222517;0.0005487142;-0.113586366;0.18826708;0.006767814;0.004742985;-0.3446195;-0.13349096;0.02021814;-0.35881463;0.0054281284;0.060628828;0.07954967;0.098952115;0.065179534;0.054460656;0.41705042;-0.0052272906;-0.14237203;0.16743474;-0.09616638;0.31264785;0.17165491;0.006029249;0.043890134;0.13811491;-0.025211867;0.04011812;0.13387334;0.011031182;-0.03824404;-0.0004766293;-0.006809604;-0.030698974;-0.21604837;-0.006658051;0.13431744;0.0055438336;-0.33118686;0.007572285;-0.121472;-0.13547309;0.07875525;-0.23967217;0.0073775966;0.33365348;-0.032290105;0.018675575;-0.16422154;0.122968875;0.32431537;-0.37260312;-0.18818529;-0.014354727;-0.4442037;-0.013468701;0.018618388;0.048016787;-0.0077825347;0.025945865;-0.21751155;-0.10832213;-0.001216191;-0.23002973;-0.07154441;0.12745449;-0.1700936;0.21572052;-0.0012445763;-0.040778115;-0.0057346467;-0.012405438;0.025331572;-0.104868904;-0.27856582;0.1028197;0.11586568;0.19765034;0.16078158;-0.012190968;0.04462781;-0.2092531;-0.005917733;0.14730628;-0.14426856;0.032636013;0.10280333;-0.081688754;0.011929464;-0.22132976;0.28993127;0.010961327;-0.028681738;-0.19825451;0.0052582035;0.01468956;0.3221104;-0.5854634;-0.0064111114;-0.17668056;0.0074809496;0.19145489;0.14273816;0.12727413;-0.018972779;-0.009265937;0.25703394;0.03902204;0.07788472;0.08658975;-0.3769093;0.090041555;-0.28870046;-0.16963099;-0.0067933975;-0.05860138;-0.19256759;0.0560526;0.0024823097;0.025569947;-0.16925263;-0.25744495;-0.32971275;0.17285775;-0.007822326;-0.011095795;0.0076506683;-0.018188216;-0.010180121;-0.13800952;0.040527273;-0.0035909151;0.09673049;-0.23213339;-0.047008693;-0.004356216;-0.14994958;0.36590153;0.12453558;-0.008328664;0.012540215;-0.021701189;0.2864851;-0.074515134;-0.005200711;-0.0022649784;0.08356533;0.03237467;0.29988667;0.19021781;0.0033869054;0.024478404;-0.363717;0.0124073345;0.1605516;-0.023218371;-0.012532871;-0.07844729;0.13562971;-0.22495227;0.16122586;-0.02680033;-0.0850809;-0.18179256;-0.0010653769;-0.010738993;0.24171539;0.065183535;0.11948337;0.04631799;0.08264473;-0.006249425;0.011397937;-0.05316582;-0.264324;-0.0029062112;-0.08187515;-0.030198375;-0.19480349;-0.15312359;-0.46933556;0.40102082;0.07482409;-0.011748509;-0.016685518;0.013080623;-0.15640688;-0.3147359;-0.0016483957;-0.008945321;-0.25218362;-0.23013319;0.00980583;-0.00572309;-0.30363306;0.122303024;0.10441965;0.18925314;-0.09306731;0.009011092;0.0005747239;0.0020556387;-0.28018558;-0.1264061;-0.013784105;0.002898085;-0.31701493;-0.010918914;0.10536251;-0.005965069;-0.0012084276;-0.080840744;-0.11050228;-0.013435026;0.0048151324;0.008734019;-0.08527834;-0.25429195;-0.32248336;-0.05688424;-0.0004045193;-0.11864475;0.15554672;-0.13747248;0.010757974;-0.13497745;-0.03585461;-0.28870526;-0.018562805;-0.29395;0.002327796;-0.15062232;5.270625e-05;0.080398634;0.2193478;0.019712156;0.34416062;-0.011519409;0.0016427558;0.1859934;-0.025660673;0.05626323;-0.23603177;0.14708683;0.012115436;-0.014157779;0.0065631783;-0.012666291;-0.019349039;0.008826646;-0.2875063;-0.04662228;0.3150844;-0.0022242458;0.017814029;-0.08872517;-0.11383338;0.11839009;-0.024381978;-0.0029073998;0.04896918;0.18504074;-0.27515092;-0.008840179;0.007588382;-0.18684891;0.15470615;-0.2394016;0.41168147;-0.011648494;0.2876256;-0.22230193;-0.38000995;-0.011492924;-0.10944497;0.11400244;-0.32755503;0.01452771;-0.3074982;-0.0009250617;-0.0041255658;0.006055996
-0.018258119;0.11458699;0.06291013;0.002177122;-0.006601389;0.03251219;0.0036703232;-0.012442926;0.048775073;-0.01014884;-0.00297459;0.10007334;0.013504901;0.14653488;-0.4334866;-0.0018482587;0.013636931;-0.062651955;7.108242e-05;-0.009041797;-0.28248996;-0.021293083;-0.010695487;0.034942903;0.13637054;0.10485778;-0.23247483;-0.27604127;-0.030228874;-0.047236364;-0.10543168;-0.17907214;0.109240465;0.17244758;0.004727339;-0.0064297956;0.5279986;-0.112080686;-0.1250306;-0.29718298;-0.052940503;-0.32212824;-0.2350864;0.07334671;0.0042866454;-0.18510924;0.061199058;0.12639046;0.26235747;0.009814655;-0.10620337;0.014729592;0.12932578;0.16044374;0.034524545;0.015290222;0.020019751;0.10283702;0.03394329;-0.11927022;-0.089183286;-0.08512865;-0.009960366;0.022519322;0.024629543;0.002365258;-0.1461325;0.3104984;-0.0150698405;-0.0035395478;0.011465268;0.031592563;0.3233762;-0.012645843;0.0034815918;0.021464633;-7.657803e-05;-0.0072087348;-0.015339374;-0.097316034;-0.08456454;0.121529676;-0.35111654;-0.006107967;-0.13533223;-0.1527595;-0.042904608;0.025655195;0.21758564;-0.015328573;0.23143165;0.030801881;0.12583935;-0.0009395118;0.041538063;-0.038747955;-0.03652734;0.4432909;0.026236873;0.15308268;-0.041737694;0.2933634;-0.039990496;-0.017871093;-0.55139;-0.012767726;-0.0023047866;0.0036078866;0.006785277;-0.0070495936;0.37648952;0.102995895;0.28944743;-0.07283301;-0.0014013221;-0.12773639;-0.004019651;0.22972277;0.008720274;0.13338919;-0.078652754;-0.10618331;-0.0132786725;0.08224655;-0.19169708;0.006285124;-0.029580714;-0.23101477;-0.07607074;-0.0148540195;0.003458925;0.0026868568;0.12022644;0.0063331616;-0.06662016;-0.0001327078;0.061783046;0.00893563;0.033725202;0.007526324;0.6017647;-0.27487063;-0.0016291314;-0.3527135;-0.03908934;-0.23118642;-0.13837537;0.22301789;0.010778324;-0.07549535;-0.16225621;0.074656315;-0.054807615;0.29731745;0.015573081;0.069685526;0.22966759;0.015597829;-0.029115438;-0.0045281635;0.33816338;-0.25634342;0.01480778;-0.003588757;0.03447746;-0.045823008;-0.10034647;0.3695908;0.19126391;0.33666688;0.11375473;-0.2356564;0.10440582;-0.16561328;-0.010056605;0.028661802;-0.008274907;0.011406016;0.022497399;-0.32518083;-0.015120622;-0.24620429;0.044576738;-0.038787387;0.00876508;0.013386384;0.014865595;-0.14749137;0.202202;-0.48815715;0.14276898;0.2629982;-0.014061776;-0.0026686406;-0.21134786;-0.1032629;-0.3140867;-0.049593315;-0.2918048;0.037977073;-0.16905126;-0.12604581;0.32731575;-0.05905398;0.0014857345;0.117583476;0.0011493955;0.07318469;-0.22475639;-0.025806434;0.012600959;0.013641162;0.13954744;-0.00058139564;0.0048923506;-0.0026995803;-0.13074185;-0.006173554;-0.15901826;-0.32840842;-0.3248211;0.106511205;-0.45422003;-0.03304535;0.0007023304;0.006933029;-0.027006498;0.23847605;0.012991598;0.25469258;-0.013115155;-0.08582345;-0.04246451;-0.34391904;-0.30984148;0.06978423;-0.10561903;-0.023637043;0.009944734;0.057152536;0.08365008;0.29464796;-0.017340614;0.11033931;-0.0028340358;0.12191944;0.15071808;-0.18856405;0.009409738;0.013358814;-0.006661949;-0.06374218;0.30609137;0.13934794;0.12688714;0.10889527;0.022124724;0.07039397;-0.20067412;0.02176591;0.0022352363;-0.32884574;-3.245355e-05;0.0024438365;0.027433202;0.018172769;0.0051993113;-0.0063732234;0.099827245;0.0031457234;0.22982015;0.10479161;0.0074276873;-0.51280093;-0.0058005583;0.08254421;0.010057062;-0.0076140747;-0.08613246;0.16877653;-0.057074916;0.08553371;0.0039421045;-0.20514885;-0.010069822;-0.10264396;-0.33543113;0.010956926;-0.2597167;-0.08903736;0.2440329;0.14346024;0.012949545;-0.1397109;-0.078565404;-0.0031189704;-0.237331;0.18515737;-0.012014272;-0.010417138;-0.34122294;-0.036863018;-0.019868307;-0.46165183;0.017786577;-0.023576532;0.03786131;0.16973451;0.14631373;-0.066332534;0.48483723;0.027226957;-0.1732422;0.0873467;0.13204822;0.140863;-0.11368824;-0.0006337639;-0.03047178;0.009278494;0.008068217;0.038879745;0.21808518;0.0012138615;-0.23835014;-0.004020663;0.015674138;0.024109052;-0.37078983;-0.015924945;0.061017733;0.00570739;-0.045097467;-0.006488246;-0.26803422;-0.13105199;0.2562067;-0.19740489;-0.0016421496;0.39112866;0.036001097;0.00520332;-0.059814498;0.03201465;0.19410144;-0.1251405;-0.07607229;0.149089;-0.3630069;0.010165461;-0.016355822;0.1701994;-0.003557448;-0.23539971;-0.20924734;-0.23620982;0.007223766;-0.13513559;-0.012307607;-0.053335603;0.043011047;0.18926874;0.019250108;0.035603363;0.014820328;0.01666777;0.0078647295;-0.09605608;-0.26448193;0.10660249;0.2261811;0.08486131;-0.10789307;-0.009182137;0.0016828357;-0.048401628;0.0138959745;-0.034535266;-0.050113533;-0.0240328;0.13764542;-0.0023264303;0.024225485;-0.18729042;0.24650232;0.0037475158;-0.009567852;-0.278284;-0.012809345;0.0031189735;0.054446604;-0.4076221;0.0040992657;-0.06319008;-0.0024497067;0.08129389;-0.0015958273;0.013613929;-0.0015363909;0.003231619;0.24152127;0.1498557;0.17252636;-0.14059052;-0.41376907;-0.1764712;-0.20647101;-0.22501507;0.007713733;-0.07824496;0.023587156;-0.103633925;0.019159725;-0.016157037;0.07093049;-0.20622706;-0.10934113;0.1766181;-0.076262794;0.099186085;0.0008457457;0.0168403;0.021813253;-0.29171756;0.19421875;-0.0022336007;-0.4554048;-0.16042157;-0.09714312;-0.010005368;-0.18846154;0.200683;0.100563146;0.013108632;-0.011297033;0.0074050413;0.25160757;-0.015198119;0.0111766625;0.007482389;0.28117105;0.015835442;0.28479028;0.3201335;0.008951875;-0.0044159247;-0.4211331;-0.014777878;0.16151524;0.06662977;0.0006424341;-0.11235741;0.025910437;-0.20350264;0.19067675;-0.12676357;-0.21865833;-0.21085033;-0.007819118;-0.00021219884;0.2807196;0.0044274903;-0.011799728;-0.06365324;-0.13477916;0.011824855;-0.00085693237;-0.1325175;-0.34696236;-0.0027877346;0.03656823;0.017829511;-0.45948884;-0.08275563;-0.30882448;0.31510332;0.4493898;-0.0026494435;0.14552508;-0.008660272;0.005692371;-0.2002107;0.006835526;0.023542332;-0.26905033;-0.10487881;0.0123521555;-0.013790127;-0.22135659;-0.012618711;0.07264719;-0.025282923;0.10415495;0.0067358688;0.0030726024;0.22077559;0.0050938255;-0.28292286;0.015003985;0.00017702261;-0.061364464;0.023677181;0.043366183;0.01910639;-0.0046912935;-0.056833457;-0.17874128;0.02731391;-0.00640298;0.00017629139;0.011896224;0.07236674;-0.10196745;-0.0048616324;-0.00609052;-0.10394998;0.07012323;-0.20680837;0.0061820834;-0.055185344;0.12158868;-0.16021353;-0.0025487375;-0.18946956;-0.017664952;-0.0015759446;-0.011578894;-0.03528169;0.12766494;-0.37528422;0.30395868;-0.06904642;0.016994568;0.11776617;0.037669107;0.42141208;-0.1876253;0.20021893;0.101846665;0.2132031;0.008052853;0.0052333986;0.010401321;-0.0075990865;-0.20160016;-0.021664763;0.26154616;-0.011761087;-0.0120157655;-0.057343274;-0.045840833;0.17834698;0.27275503;0.0014917647;0.04239922;0.039094236;-0.28616104;0.019123372;0.0012417169;-0.10188811;0.25329325;-0.056572348;0.18946068;0.02927175;0.15587021;-0.08646109;-0.38536096;0.012829782;-0.58968216;-0.089736044;-0.5476576;-0.075490944;-0.13056287;0.01713556;-0.009683569;0.1362732
0.016671997;-0.05235472;-0.034994803;-0.014178547;0.0029886977;0.05431578;-0.0041842693;0.008739714;0.06865859;0.008047928;-0.00029730058;0.18891057;-0.118834846;0.113122664;-0.30782184;0.014612821;0.17578027;-0.2620916;-0.0067933192;0.010630998;-0.0753834;0.014279238;-0.098251946;0.17144573;0.011384819;-0.15207559;-0.13819973;-0.114063956;0.07795842;0.027876556;0.080366746;0.16288;0.24954796;0.05986768;0.0042861644;0.0031935042;0.13356651;-0.24871853;-0.15265547;-0.33498895;0.07760288;-0.16830756;-0.2475765;0.10598139;-0.0132325245;-0.14378995;-0.15407299;0.10055895;0.09881348;-0.004639222;-0.23173922;-0.008906056;-0.045216266;0.26058412;0.08110465;-0.062087342;-0.0405917;-0.17211664;0.016481237;-0.44334215;-0.052678134;-0.05761892;0.16766569;-0.07955631;-0.009665862;-0.01873363;-0.12561062;0.4146481;-0.07068351;0.0006113557;-0.005436053;0.18227443;0.14457998;-0.17094341;-0.004119966;-0.001411792;0.012264938;-0.11379522;-0.1362105;0.06803418;-0.21823613;0.07531628;-0.38738114;-0.00563943;-0.096584916;-0.16044521;-0.090366036;-0.006461622;0.009390094;-0.068293355;0.22351503;0.13370082;0.027488125;0.22097497;0.018690104;-0.0037006042;-0.03443643;0.23133357;-0.009701548;-0.06792563;0.051899478;0.22597212;-0.0107581625;0.012734979;-0.7601131;0.015657222;0.017174728;0.008123332;0.0014010436;-0.0972419;0.29781172;0.30057606;0.082439624;-0.29596755;-0.011472775;-0.40215978;0.0018891883;0.23470628;-0.016753104;0.062730044;-0.29070243;-0.03409388;0.008320768;-0.07749511;-0.13563761;-0.008683891;0.010490443;-0.022853328;-0.10542757;-0.00063938025;-0.0040895543;-0.19996808;0.061165605;-0.009948502;-0.20249349;-0.004679943;0.14055178;0.0021427104;-0.0155155;-0.010736324;0.6127967;-0.20007108;-0.006544863;-0.30052772;-0.06459845;-0.3040399;-0.18260999;0.24208143;-0.0038172642;-0.2845705;-0.087826855;0.18846539;0.0008011193;0.2247531;-0.023977336;0.033416793;0.093221;-0.0074548447;0.0066001737;0.008990607;0.1892692;-0.14675245;-0.023443516;-0.008248572;-0.07029272;-0.042384695;0.012701659;0.45230505;0.10647462;0.09628298;0.111668795;-0.36359122;-0.006180457;0.028748525;0.01255571;-0.012642621;0.03232937;-0.0036563221;0.1235231;-0.36026233;0.008762179;-0.13965803;-0.06569829;-0.014111151;-0.010195396;-0.014941992;0.008510055;-0.06774698;-0.13986528;-0.30061987;-0.09137638;0.15841155;-0.00061732746;0.0062036337;-0.09584576;-0.11493214;-0.28459647;-0.16187662;-0.14041393;-0.12413947;-0.07600395;-0.16802625;0.1242712;-0.049592443;-0.17326991;0.20895533;0.015764663;0.48577607;-0.084462285;0.026646499;-0.00948647;-0.010123692;0.118894465;0.012716093;-0.0065208776;-0.0012672698;0.05806085;-0.0073566968;-0.040943515;-0.20501299;-0.16449101;0.054956548;-0.34252584;-0.106495485;-0.008106039;0.00038261138;0.00851337;0.20175421;-0.008711746;0.11886506;0.021155652;-0.32017687;0.008451843;-0.1762289;0.045360383;-0.052059423;-0.20572165;-0.04275093;-0.018956963;0.20399342;0.055638168;0.081709966;-0.0039492645;-0.046937842;-0.008972224;0.05519138;0.056144193;-0.26646355;0.25032905;-0.009823355;-0.02015798;-0.015180281;0.13167252;0.10386962;0.004172575;0.080242455;-0.016728846;-0.059078936;-0.086039856;-0.06464789;-0.10652825;0.0050690677;0.054473028;-0.01255201;-0.04680642;0.0025110198;0.14609434;-0.0017488156;0.24507368;0.17201072;0.37853557;0.15872219;0.0040832045;-0.19663028;-0.0036539906;-0.07779067;-0.051955752;0.008746727;-0.03397842;0.1682391;-0.16052656;0.009040392;-0.0017637679;-0.031004155;-0.18179645;-0.0034899302;-0.20557189;-0.19782802;-0.14513826;-0.21669394;0.2867389;-0.057410132;0.013770642;-0.063221864;-0.12639709;-0.012035303;-0.09933497;0.012699639;0.008346872;-0.002380412;-0.052126557;-0.13181105;0.010957994;-0.35771263;-0.027920745;0.21429938;0.017574383;0.19847234;0.3244865;-0.016674876;-0.09773322;-0.022095313;-0.33732465;-0.29431224;0.051399674;0.18980193;-0.0038165567;-0.00279424;0.03650921;-0.057632644;0.0008878093;0.08236701;0.1749385;-0.009086609;-0.24047352;0.002181702;0.0015293581;-0.027263189;-0.49957326;0.022789465;0.21249044;-0.009085694;0.14180571;0.014961801;-0.027965924;-0.09644603;0.12428891;-0.27047062;0.006581328;0.26397672;-0.015213597;0.006099914;0.021198483;-0.031069594;0.26121077;0.043398768;-0.020184474;0.0037255683;-0.44347057;-0.0008808522;0.0077518877;0.117590696;0.011264498;-0.26948965;0.07278564;0.11548257;0.008686852;-0.11278157;0.040590636;0.02067802;0.012561384;0.17600496;-0.01262724;-0.14240961;-0.008717592;-0.008459611;-0.0032723525;-0.14339319;0.013649201;0.2640212;0.18950088;-0.055649403;0.021441141;0.01889566;-0.09585933;-0.04627998;0.0049170568;-0.21246597;0.08625574;0.011130387;0.10766954;-0.07063474;-0.043996956;-0.30192524;0.4958299;0.003374114;0.027068967;-0.14221388;0.12947094;-0.0030199164;0.08296857;-0.18302676;0.0012145796;-0.085882895;-0.0033772748;-0.3371437;-0.1305985;0.03704197;0.0043104994;0.011277792;0.30200902;-0.037530106;0.13428062;-0.012051219;-0.41665587;-0.13772775;-0.14675532;0.10317371;-0.01092835;0.024927562;-0.17572728;-0.05327372;-0.0146905;0.12663685;0.45481098;-0.34164712;0.065377004;0.114738934;-0.1358355;-0.06295934;-0.010033441;-0.008258307;-0.019047678;-0.058890216;0.5197926;0.0069963434;-0.37991795;-0.39261848;0.12882715;-0.0005034901;-0.35864234;0.19376147;0.252539;0.00021956375;0.013822824;0.008095165;0.29412636;-0.04411232;-0.016567292;0.013856265;-0.15038647;0.04662947;0.19897284;0.2438294;0.004397761;-0.041033924;-0.42264855;0.017056188;0.21002986;0.15340644;0.0023775352;0.014226322;0.049907397;-0.032542996;0.17457475;0.03332993;0.073882;-0.22047924;-0.0023904503;-0.008737197;0.13208093;0.00039783592;-0.016833715;0.0024372246;0.057014782;-0.0030263374;0.00927658;-0.15025067;0.39125043;0.009616209;-0.033102434;-0.010735348;-0.2938677;0.128914;-0.37575933;0.49480814;0.32430616;0.015166922;0.3089108;-0.002525636;0.036428675;-0.042943813;0.019463368;-0.029175164;-0.09358191;0.14610025;-0.0063683414;0.020640684;-0.16064002;0.053909283;0.10280795;0.07224652;0.36186254;-0.018747123;0.0003411486;0.0830142;0.35570738;-0.29944184;-0.006858302;-0.017584313;-0.013254795;-0.035317495;-0.0014757746;-0.007033674;-0.00451104;-0.13169618;-0.09407255;-0.018404711;0.001854084;-0.0037632706;-0.15527032;0.5493237;0.015427098;0.1265874;0.0005265119;-0.12888227;0.1576754;-0.35808766;-0.018481696;-0.27083337;0.049706567;-0.34782356;-0.0015902397;-0.18717614;0.0027566364;-0.07910193;0.016758056;0.15315229;0.28030193;-0.43316385;0.016410973;0.17906713;-0.015156336;0.16847688;-0.018830879;0.29817086;-0.12858701;0.114564285;0.13889337;0.07391001;-0.0024492121;-0.010169216;0.0003238354;0.0071547264;-0.3654636;0.00048504764;-0.040229373;0.027964845;0.018276412;-0.0079555465;0.015509875;0.045586977;0.05612363;-0.009693345;-0.08189863;0.32933834;-0.084232435;-0.023239268;-0.0027762884;-0.07601832;0.23674743;-0.030965356;0.24041358;-0.024771843;0.25609818;-0.100676455;-0.11387166;0.021042597;-0.4073416;0.113309376;-0.5706214;-0.118601374;-0.20625383;-0.025151338;0.0013195074;0.25109732
-0.016204482;0.25420043;0.13319355;0.0098296935;0.014458691;0.10965817;0.00895472;-0.0053721727;-0.11629195;-0.18632294;-0.010989329;0.18881994;0.05321102;-0.24889937;-0.04792388;-0.016411273;-0.01670081;-0.31852743;0.006078687;0.03343487;0.03328329;-0.00250934;-0.05933432;0.25305638;0.02770878;-0.3278112;-0.0490282;0.063208975;-0.06630781;-0.02908631;0.18920572;0.031165807;0.43093914;0.16252369;-0.00020685658;-0.006534231;0.36590013;-0.32359844;-0.2547773;-0.27719906;-0.028952137;-0.07560751;-0.28401488;0.2711172;0.014016807;-0.408904;-0.03367031;0.06249327;-0.09480847;0.010681311;-0.2870822;-0.004811375;-0.20862299;0.3524049;-0.07566047;-0.03225682;0.11146781;-0.37973812;0.12862265;-0.18052875;-0.2781785;0.11141956;0.22342458;-0.041073084;-0.009802039;0.01573239;-0.22266321;0.42954975;0.026984341;-0.011909477;-0.0065250797;0.0679789;0.07096449;0.1329354;-0.0014426111;0.0019797618;-0.0016249754;-0.11469805;-0.031943165;0.072412;-0.0028970216;0.11076938;-0.13333018;0.0074173133;-0.24364747;0.04251825;-0.026237192;0.017992396;0.03194745;-0.0046343748;0.34022182;-0.08693668;0.00312174;0.08373233;-0.05762513;-0.012636198;0.0109542115;0.4104391;0.0013670349;-0.11338923;0.3100734;0.10205518;-0.20279516;-0.0050121406;-0.36972442;-0.0048516076;-0.007405412;0.00092273;-0.0026705868;0.09167545;0.09300996;0.034642894;0.22426002;-0.13782817;0.011292188;-0.7197375;0.01257288;0.1658445;0.030305568;0.0056574233;-0.06623003;0.06708598;-0.008244339;-0.026152337;-0.04629571;0.006961126;-0.0013728779;0.17204887;0.11048111;0.004799145;0.001211762;0.051912177;0.20657879;0.0048875855;-0.29619047;-0.0034815094;0.30484217;0.0032550376;0.016628994;-0.00585174;0.24991232;-0.011980791;-0.003308439;-0.36385086;-0.016561674;-0.22568007;0.15780933;0.39698434;-0.0042664837;-0.5060793;0.019207122;0.07911712;0.030538235;0.14207993;0.008561665;0.00010850392;-0.07492079;-0.0091220075;0.010315585;-0.008638747;0.096390575;-0.3171062;0.016063018;0.02094417;-0.089714065;0.048899166;-0.1296645;0.35789818;-0.17535268;0.06291618;-0.022599127;-0.6498361;0.061228953;-0.054587845;0.0077809067;-0.009903969;0.17661156;-0.015020701;0.19835515;-0.2457135;0.00509786;0.08695815;0.016373008;0.18419567;0.016326876;0.015157488;-0.011924172;-0.15382095;-0.054895442;-0.108896844;-0.67250556;-0.11198516;0.011350189;-0.008686833;-0.3211681;0.008308009;-0.19911446;-0.16343094;-0.001917571;-0.05531993;-0.049899332;-0.14276722;0.04762467;-0.010032296;-0.171493;-0.003734745;-0.015455438;0.40277407;-0.11821977;-0.016977517;0.0020354083;0.01837434;0.034785487;0.00022026006;-0.014210085;-0.014257883;0.042691737;0.008609708;-0.14796996;-0.21844848;-0.08596485;-0.26545417;-0.12372104;-0.027964165;0.018927032;0.05901111;-0.0041957647;0.1926215;0.001634644;0.04258169;-0.01894438;-0.2557999;0.08089743;-0.1719148;-0.18523084;-0.028457848;-0.1675508;0.086777635;0.011028969;0.20948689;0.039913557;0.07970828;0.009395174;0.014596619;0.01000474;0.16358468;0.16253607;-0.05348924;0.18193811;0.015555639;0.0056079878;-0.028517433;-0.014943867;0.16708806;-0.12970313;0.22476803;-0.013098444;-0.013563226;0.10398453;-0.060709137;0.018923255;-0.052032318;0.20807126;0.018334689;-0.2521691;-0.0005977088;0.17180671;0.0019864088;-0.02992771;0.22689264;-0.005471328;0.37470213;-0.005480169;0.04685742;0.024569115;-0.013390091;-0.18636361;-0.007301745;-0.10350071;0.10809397;-0.069281764;0.067249134;-0.005760041;0.000587654;-0.21739304;-0.0096992785;-0.21382196;-0.08496958;-0.122777514;0.23845172;0.34585446;-0.061586574;-0.0021357597;-0.15527028;-0.18133429;0.002824095;-0.14545558;-0.07235737;-0.0025647401;0.012700925;-0.027909083;-0.13450155;-0.01409372;-0.13760042;0.0030817594;0.12694141;0.05088042;0.08761823;0.24218768;-0.12524137;-0.1885728;-0.02891492;-0.2117171;-0.3124767;0.13832314;-0.14114343;-0.14012553;0.010066803;-0.15911178;-0.2105449;0.005407237;0.007898574;0.22424084;0.0044812937;-0.25623357;0.0045484104;-0.005070428;0.014474962;-0.35083464;-0.016741373;0.057742856;0.005367177;0.3561589;-0.025800169;0.1038748;0.109798916;0.34668395;-0.053925302;-0.011190651;-0.17186698;-0.010528638;-0.014767544;0.06886576;-0.11018498;0.3131315;-0.26338226;0.035181947;-0.022033852;-0.46022043;0.0044985595;0.0047331764;0.16013783;0.006700503;0.082401045;0.17723857;0.056307584;-0.0026442148;-0.41354954;0.19411117;-0.145321;0.14545244;0.0165485;0.014608079;0.03694242;0.005523898;0.0036432643;0.00070539507;-0.102366626;0.09436242;0.1071488;0.22338325;-0.2327058;0.1576659;0.01984333;-0.097174294;0.1072224;-0.008234538;-0.110146634;0.0797734;-0.00071275735;0.11381392;-0.062328443;0.032313276;-0.3673167;0.4645791;0.0032599496;-0.046364542;-0.054236837;0.099140055;-0.013784367;0.05932252;-0.1633718;-0.0050939657;-0.2066629;-0.0007566496;-0.020810606;0.061404407;0.075175665;0.013867484;-0.017092653;0.41062456;0.07481246;0.034718975;-0.13326682;-0.32922485;-0.21991707;-0.08864931;-0.020604419;0.011910756;-0.020440234;0.11484777;0.11158575;0.019990548;-0.015668886;0.2479486;-0.41284156;0.1380506;-0.07148147;0.0781044;-0.029602552;-0.0020030688;0.0058493246;-0.0015276577;0.07066184;0.21114613;-0.0029208343;-0.0649756;-0.1207566;0.103334785;0.017578816;-0.32679692;0.12080578;0.0196504;-0.00856613;-0.0010951873;-0.019853156;0.36488137;0.15725909;0.0029454995;-0.10167482;-0.089476876;-0.056537203;0.14464374;-0.00025607756;-0.0137381535;-0.023706261;-0.4310856;-0.019731574;0.08573949;0.08894754;0.022375692;0.25014362;0.26345226;0.13968836;0.261158;0.053064574;-0.18053399;-0.15461601;0.0017171287;0.034181166;0.08265698;-0.07956372;0.062187508;0.041724794;-0.08482099;0.018222021;-0.0012563904;-0.08701249;0.23854092;-0.0038144982;-0.1440818;-0.0016967421;-0.272017;0.10749384;-0.18337353;0.54173434;-0.011604759;0.006694466;0.21289001;0.016045606;-0.08480593;0.39762706;-0.00030164386;0.015511342;-0.20293753;0.0818761;0.0057450454;-0.006263583;-0.0075647957;-0.012105489;0.10878901;-0.0037457412;0.18916672;0.0124401655;-0.0010540052;-0.029593024;0.18121776;-0.40390214;0.017656082;0.026655843;0.28389207;0.0061973003;0.041702595;-0.008982234;0.013562473;-0.068756066;-0.073303476;0.018394224;0.012163203;0.004470454;-0.34733376;0.4200033;-0.1999273;0.12522072;-0.0043636006;-0.23744209;0.24013697;0.003971475;-0.012141301;-0.16258408;0.009164918;-0.24431227;-0.0050661247;-0.3029527;0.00027340793;-0.09295136;-0.0021202248;-0.03341156;0.37071505;-0.40524912;-0.039820537;0.1321384;0.00027226927;0.20845054;0.0122441;0.122272976;-0.14968453;0.0944375;0.09002246;0.0730927;0.01455876;0.012104923;0.015810423;-0.0037854114;-0.17598288;-0.05585991;-0.029711528;-0.015640127;-0.027809342;-0.17688635;-0.14731564;0.07224375;0.17213283;0.030161483;-0.10006607;-0.017734846;-0.26858178;0.011486277;-0.0029399986;0.07490867;-0.09081806;-0.04813616;0.25945726;0.01580069;0.04713675;-0.20379786;-0.10409589;0.0057498203;-0.37849945;0.24044639;-0.25998414;-0.21522285;-0.034322284;0.01636021;-0.0040271976;0.3018399
0.01249922;0.27250922;0.23403554;-1.7473903e-06;-0.008672422;0.19996625;0.00033982596;0.0170189;-0.07117687;-0.12923148;-0.0070724934;-0.18356602;0.19543782;-0.29510248;-0.1113312;0.008110233;0.31164464;-0.059350207;-0.0077486187;0.02516515;0.16769436;-0.014766238;-0.06159917;0.20132934;0.056422226;-0.16389912;-0.2169836;0.11359281;0.01213599;-0.20648217;0.14064154;-0.087475196;0.17296678;-0.101000205;-0.00554378;0.0034522384;0.04189067;-0.211515;-0.0370984;-0.16414216;0.001109916;0.02032672;0.034618042;0.31318036;-0.0040813177;-0.39958647;0.11472256;0.3767144;-0.057780482;-0.031577766;-0.18721756;0.0003397394;-0.397961;0.18054101;-0.1387152;-0.05063931;0.034463592;-0.28079915;-0.14050044;0.17272806;-0.05296574;0.07248505;0.4321726;0.045950994;0.019682657;0.01858667;-0.117947064;0.32925358;0.24641204;-0.011997535;0.008242916;0.12142539;0.015335838;0.12859932;0.00796659;-0.01358976;-0.010286123;-0.0961613;-0.030510627;0.08115811;-0.06448691;0.046462398;-0.1769206;0.01121869;-0.07957551;-0.08020273;-0.10402085;-0.018569915;0.16021392;0.03617449;0.36046693;0.01567888;-0.24745166;0.13311668;-0.12022889;-0.029534874;0.007343629;0.020130623;0.0084208;-0.061286524;0.43340284;-0.014245252;0.114428304;-0.0007862537;-0.20084082;-0.0088766515;0.010928837;0.016721006;-0.009152875;0.015951304;0.2345489;-0.29005608;0.09491377;0.07232408;-0.0067487895;-0.71090835;0.004252462;0.20279111;-0.034009174;0.13513617;-0.01678206;-0.22190931;-0.0037782;0.29045546;0.045774795;-0.004530851;0.0067431247;0.10305461;-0.13391355;0.011498458;-0.07237887;-0.11617672;0.094339766;-0.0055783205;-0.27310023;-0.0017076631;-0.106656425;-0.002225735;-0.026497796;0.0073938905;-0.1741152;0.266528;0.008080645;-0.1654312;-0.20757847;-0.21521716;0.15701763;0.16959853;-0.014624011;-0.5420317;0.06471152;0.033594154;-0.030383563;0.11433818;-0.014085063;-0.072536774;-0.13087027;0.0037688783;-0.018600078;0.0009559711;-0.076698326;-0.39296547;-0.008124138;-0.02661645;-0.11577314;0.1258712;0.106588915;0.24361488;-0.014540076;0.21120237;0.061064053;-0.49676964;-0.12536818;0.08116661;-0.0011496743;-0.008071411;0.20087653;0.016918264;0.061792426;-0.15649429;0.005852997;-0.13105538;0.16027163;-0.05065282;-0.0010720965;-0.023934683;-0.030666476;-0.13581324;-0.07104144;0.13986056;-0.13508527;-0.09994523;-0.018350216;0.0068898615;-0.19580023;0.07174797;-0.17886856;-0.011362421;-0.05226454;0.14360306;-0.23579271;-0.1893748;-0.04597868;-0.077132545;-0.29211906;0.101420745;0.0054149567;0.06659272;0.11727506;0.03244982;-0.0032443558;-0.012220696;-0.0437479;-0.013985297;0.005138164;0.012854932;-0.1573237;-0.007769067;-0.14399244;-0.20928176;-0.24274565;-0.032034747;0.06689345;0.021172514;-0.015501237;0.15894099;-0.006695311;0.14865829;-0.002787298;0.0382756;0.012144394;-0.3721856;0.096298255;0.13641898;-0.35381505;-0.11608936;0.024871819;-0.02624733;0.009648324;0.050496746;0.09782783;-0.08842864;-0.01524031;0.20780858;-0.0027502715;-0.07101467;0.09582719;-0.09781103;0.17964546;-0.019961962;0.0022772907;-0.011223869;-0.04689076;0.29401428;0.016064046;0.40768626;-0.06299013;0.10606737;0.296922;-0.053374115;0.047506314;-0.14013165;0.17046687;-0.014747067;-0.10911983;-0.015130341;0.15046592;0.007580908;-0.12116538;-0.1421935;-0.20780095;0.18638209;0.0049005807;0.103071265;-0.012073253;-0.029372662;-0.2763799;0.0026381777;-0.037569467;0.030386388;-0.08804892;0.05503854;0.0017043405;-0.37749144;-0.22865863;-0.012723293;-0.108500905;0.07474383;-0.23207451;0.31917164;0.36524522;-0.14152414;0.0064100754;-0.023507878;0.09754937;0.0025134222;0.015018937;-0.19983463;-0.00042423603;-0.009265704;0.076055944;-0.17641626;-0.014853732;0.0124224825;0.0017522862;-0.010084618;0.08817417;0.023406548;0.35597745;-0.124255374;-0.17266738;-0.0042100106;-0.06809935;-0.2203049;0.015929952;-0.1839852;-0.2446691;-0.00864863;-0.33530557;0.15624356;0.0009394523;-0.044723365;0.19813588;0.0025554874;-0.091865145;-0.011433717;0.006042476;-0.047436956;-0.24829811;0.012547423;0.06981449;-0.012212247;0.53631413;0.016732384;0.13062267;0.01739181;0.25687715;-0.16186512;0.0012641465;-0.40314648;-0.0012210209;-0.011371472;0.10190285;-0.08107152;0.22997807;-0.31456503;0.27998677;-0.03580073;-0.33054617;-0.012579475;-0.0034849686;0.099628575;0.00240657;-0.06943925;0.14572366;-0.030901665;0.0024749325;-0.17658873;0.1633514;-0.14059982;0.009304871;0.06753655;-0.0041481084;-0.22633609;-0.019904636;0.014003445;-0.021674255;-0.26050693;-0.019963684;0.02693717;0.101633444;-0.27139017;0.07897066;-0.021151247;0.05072259;0.24330269;0.009265943;-0.027101183;-0.050539386;-0.006875295;0.1624633;0.15094963;-0.047833778;-0.14343077;0.5533859;-0.012307564;0.018186063;0.16548239;-0.15571713;-0.0059643798;0.08060419;0.08848069;-0.0012002275;-0.04494136;-0.009861231;-0.000982492;0.13304706;0.025715824;-0.010740557;0.0039052004;0.28324467;0.17823611;0.08948438;0.04805354;-0.12348459;-0.058752477;-0.017064221;0.035399657;0.000108449945;0.13978654;-0.023488227;0.028193567;-0.01923836;-0.31819212;-0.016296996;-0.5914787;0.07948245;0.012385219;0.1834389;0.04893914;0.00038065293;-0.0023028457;0.010266137;0.11392023;-0.0025418254;0.009980112;0.008534241;0.10097495;0.17964637;-0.019081892;-0.12001672;0.16411886;-0.13427615;0.01641998;-0.020460432;0.026782643;0.18711123;-0.054873757;-0.0059850346;-0.0118166255;0.09309339;0.034769088;0.06966657;-0.14300503;-0.0006334794;0.13807268;-0.18515831;0.0025721192;0.046967655;0.052107796;-0.02249556;0.20594056;0.25762805;0.08077775;0.2852917;-0.10448152;-0.18923767;-0.12629119;0.012192558;-0.0182388;0.095958695;0.0006468908;0.06199255;0.002933011;-0.20090221;-0.021728618;-0.007694364;-0.08813333;0.023465898;-0.0009212001;-0.18801512;0.0034993591;-0.16147162;0.092473656;0.00014685153;0.43663844;-0.11990342;-0.0033721847;-0.11387587;-0.017775781;0.103372745;0.52436113;-0.006966717;0.008366045;-0.17211549;0.28521618;-0.014486289;-0.0045603635;-0.04041588;0.076402456;0.035704874;-0.24038666;0.13414589;-0.0030624843;-0.003916713;-0.2940078;0.07019483;-0.34190363;-0.009672392;-0.012317658;-0.05096218;0.018518098;0.08371225;-0.025026191;-0.002657619;-0.14963324;0.24737951;-0.022881707;-0.009724619;0.0026289541;-0.45328975;0.03807017;-0.21168584;0.09676109;0.016932258;-0.09080856;0.30167547;-0.03166316;0.01279039;-0.045494463;0.014494429;0.037502054;0.035162333;-0.049040746;0.003329707;0.02324216;0.011623741;-0.32583037;0.33991203;-0.27587977;0.009620571;0.16883019;-0.011547304;0.08597015;-0.00819222;0.1482835;-0.11123953;-0.27031884;0.12380548;0.13414566;-0.030868402;-0.013274403;0.0008077212;-0.0069370195;0.028723108;-0.15027049;0.026260864;0.019730931;0.011435863;-0.0064720595;-0.16105889;0.051345725;0.21951991;-0.021486199;-0.047186956;-0.23996885;-0.07121205;-0.02071928;0.011963928;0.33603543;-0.34789985;-0.30455136;0.09357655;-0.024888135;0.24639429;-0.22327223;-0.24737626;0.0075296867;-0.24632296;0.19741338;-0.3818407;-0.14857186;0.12111225;-0.008563449;0.01563742;0.13673557
-0.018753393;0.4595367;0.16035682;0.0144751305;0.0037835834;0.4354533;0.00086920307;-0.015916595;0.021011708;-0.17373952;-0.0057083634;-0.11914036;0.3205795;0.047859512;-0.12271646;-0.014312306;0.17643693;0.3138476;0.014146238;-0.02435206;-0.06419112;0.0052596247;0.063437365;0.36904606;0.1874979;-0.15956582;-0.12941976;0.19537313;0.017206233;-0.12952347;0.0893811;-0.10491819;-0.07540827;-0.19703089;0.000659701;-0.00887529;-0.16758887;-0.06363735;-0.04765997;-0.12504195;-0.0058020097;-0.09321823;0.060277596;0.16050744;-0.0007159533;-0.053461745;-0.013614562;0.26237202;0.118127145;0.011653268;0.026279792;-0.012197938;-0.3318621;0.29427952;-0.0035336805;-0.10826657;0.056998443;-0.1500685;-0.22695844;0.13469191;-0.11697935;0.16016208;0.3977002;0.09898782;-0.014390349;-0.020798827;-0.09200344;0.20986709;0.103053965;0.0128994305;-0.0017123638;-0.104523614;0.23172805;-0.07022617;0.0074832193;0.0055667204;0.013762137;0.0115911625;0.0119767375;0.14096592;-0.007272113;0.008052853;0.08263183;-0.024272399;0.115367435;-0.092186764;-0.06925973;0.001908722;-0.0002973685;-0.081193045;0.28233454;-0.22342584;-0.2572783;0.067513846;-0.18826677;0.083031975;-0.008046937;0.16385743;-0.0050557917;-0.18137465;0.38650018;-0.012457418;0.07294302;0.00047906992;-0.13637541;0.010061475;-0.021452107;-0.029735092;0.014991025;0.057418466;0.18141808;-0.21470423;0.11827039;0.1858934;0.0149392625;-0.50100577;-0.002946626;0.065616496;0.012401585;0.12510899;-0.007675992;0.021248471;0.02263096;-0.007564921;0.21732594;0.012730562;0.0061680647;0.2545741;0.02156172;-0.010174934;-0.10901635;-0.21710373;-0.006795261;0.0075211716;0.0798188;0.011615145;0.17425165;-0.0031249118;0.025646303;0.011560458;-0.095260374;0.20029366;-0.0058971965;-0.0780671;-0.098268494;-0.04367919;-0.06944895;-0.08368836;0.008457957;-0.4831414;0.016952727;0.045386966;0.021905538;-0.1177961;-0.0076135905;-0.1985538;-0.12985452;-0.00257442;0.02840398;0.0030570165;0.10808328;-0.57791567;0.0149996495;0.01931707;-0.21805803;0.11331395;0.43164048;-0.037695426;0.050393574;0.25105274;0.11926084;-0.06485009;-0.08230797;-0.24794815;-0.008815162;-0.00077373465;0.16679946;-0.015620097;0.28087285;-0.17894031;-0.012772076;0.0066223326;0.0025554078;-0.122973636;-0.004027328;0.01687065;0.02229763;0.027622202;-0.14926367;0.19586207;0.049841158;-0.1824059;0.01495499;-0.017501576;0.18180278;0.07398335;-0.02084068;0.22597763;0.04028896;0.28926575;-0.31939375;-0.12693265;-0.008437194;0.011288998;-0.10712204;-0.32516602;-0.0006556422;-0.13218455;0.18133529;-0.016762158;0.004556588;-0.008865277;0.00022879381;-0.010844953;-0.0064836335;-0.0006463904;-0.024350232;0.0059529687;-0.13516578;-0.2025823;-0.24475314;-0.2289166;0.14245845;0.11116134;0.016139613;0.05054595;0.003848066;0.061950356;0.004350743;-0.08454908;-0.004207976;-0.43171084;0.05163392;-0.2601649;-0.49754336;-0.17087318;-0.13806707;-0.0057758447;-0.017924767;0.122376196;-0.06525231;-0.040797506;0.011121445;0.21386148;0.014830573;-0.06682645;0.1164037;0.092931636;0.27927673;-0.00053223636;-0.008455242;0.12678114;-0.13372874;0.053587504;-0.15073076;0.09525777;0.028123278;0.027255869;0.29743603;0.068411134;0.1373224;-0.20255814;0.12856399;0.018268794;-0.06296329;0.011548279;0.17497283;-0.0006365405;-0.10917919;-0.1503644;-0.19498308;-0.057960775;-0.004209565;-0.11625242;0.0004091602;0.0151785165;-0.05623947;0.0026317348;-0.02366552;-0.19657773;0.105434164;0.09434892;-0.008019536;-0.32542485;-0.10704353;-0.14052469;-0.09619833;-0.0027995454;-0.16595393;-0.05004475;0.17571974;0.14133161;0.0030247502;-0.08598264;0.083831646;0.0140473135;0.20150924;-0.29799667;0.0075964117;-0.007849835;0.23548639;-0.11601373;0.017798463;0.10411234;0.010102769;-0.3004586;0.16535628;-0.16380993;0.3090601;-0.080538966;-0.28699127;0.013408135;-0.07172851;-0.24301027;0.27691913;0.13990763;-0.15486848;0.016294604;0.10990521;-0.04560556;-8.421812e-05;0.030596187;-0.11535027;0.0041493676;0.28094488;-0.009528109;-0.013106001;0.0014100707;-0.37304726;-0.0043981373;-0.007373032;0.009582449;0.346622;-0.034903344;0.3271427;0.067505874;0.23294719;-0.21729414;-0.0032331352;-0.05378848;-0.008294857;0.0104135545;0.20567176;-0.17231116;0.027420552;-0.13884564;0.15445143;-0.01063756;-0.45653278;0.0031920476;-0.00087712693;0.1089753;-0.013440703;-0.16728011;0.24219626;-0.19741967;-0.017619705;-0.24809957;0.07285262;-0.09919831;-0.07787181;0.046277232;-0.026334338;-0.13090931;0.018097509;-0.029378254;0.016894015;-0.15431885;0.07953098;0.105001576;0.054739833;-0.29543817;0.079543516;-0.0054760375;0.041024487;0.28130087;-0.01754652;-0.07904824;-0.19029833;0.012799648;0.14996141;-0.026299436;0.03140012;-0.043194395;0.41992268;-0.016252741;0.02538249;-0.056624115;-0.18318197;0.026863798;0.34453624;-0.13860688;0.014153799;0.01214677;-0.00446156;0.3001437;0.105589524;0.08470736;0.0023461068;-0.0039916253;0.12794489;0.21770495;-0.13146822;0.062285647;0.16831745;0.056087654;0.3151241;0.06642231;-0.0109870965;-0.018418457;0.09855523;-0.05723084;0.003563564;-0.2479111;0.05702655;-0.60758215;0.1620439;-0.16370313;0.10291638;-0.15228193;0.009858664;0.007118705;0.010996328;0.03798499;-0.19524671;-0.0043623443;-0.06294321;-0.035066422;0.27862263;0.017014172;-0.057520624;0.06498939;-0.609951;-0.018920572;0.024660805;-0.014515163;0.16471408;0.1524602;-0.0053771962;-0.00038833436;-0.07317744;-0.015013281;-0.035143163;-0.15159556;0.002987278;0.03377636;-0.15978798;0.005061028;0.043559205;-0.036589216;0.0057958337;0.042869963;0.46283934;0.04734591;0.3553032;0.22601515;-0.089956455;-0.0019747552;-0.01796344;-0.004873379;0.103029616;-0.06339527;-0.04830094;-0.05796779;-0.088481605;0.0017024912;0.008089949;-0.16035143;0.027479803;0.00045038507;0.042518098;0.0046261237;-0.26149595;0.201191;-0.024881499;0.35951272;-0.025862167;-0.004072742;-0.19609508;0.004388848;0.059538767;0.49374586;-0.0005853;-0.0048498153;-0.13046302;0.26715583;-0.0010686945;0.010498601;-0.092851765;0.1646218;-0.0050266674;-0.21605152;0.34837332;-0.008292391;-0.0014210513;-0.36408338;0.25153303;0.04108339;0.0003862352;0.006245224;0.10087342;-0.009500575;-0.07215941;0.036889106;0.00081727304;-0.20655446;0.3033099;0.011867152;-0.009833036;-0.002668707;-0.816991;-0.017292596;-0.1286384;0.03846455;-0.01186448;-0.009935601;0.3545613;0.0913642;-0.0027708388;-0.31196937;-0.02859053;-0.15753198;0.03945102;-0.22757708;-0.0031941447;-0.18775092;-0.011313897;-0.34057555;0.09193265;0.17201954;-0.23449223;0.1913012;0.0037330745;-0.05908712;0.0036384575;0.10547029;-0.10434849;-0.2776634;0.16740052;0.20339246;0.029961683;0.0007910516;-0.009806968;0.014627439;-0.1300138;-0.16648424;0.24270384;-0.02903039;0.004794874;-0.25961265;-0.026646407;0.08513649;0.18048717;0.0075913263;-0.11394474;-0.0652648;0.08332223;0.0046399697;0.0025319268;0.4267291;-0.6648455;-0.29227373;0.26566106;0.021749102;0.2507399;-0.2411968;-0.021078123;0.01601156;-0.16471903;0.16436668;-0.065505035;-0.4050314;0.22162649;-0.0015870072;-0.004013232;-0.017770933
0.02737019;0.33646736;0.06688912;-0.009668001;-0.014722388;0.26072633;-0.003538964;0.017134536;0.084389955;-0.09115335;0.007777781;-0.10593914;0.30193928;0.14637476;-0.14663917;-0.008293957;0.081832744;0.004028009;0.00015140668;-0.01892464;-0.12364643;0.0047428054;0.16635115;0.33450294;-0.0010353783;-0.18827763;-0.23674856;0.076438785;-0.00064720516;-0.120315544;0.19443318;-0.3015373;-0.21681303;-0.24936515;0.013913221;0.013022981;-0.4034501;-0.008903301;-0.01826695;-0.042211484;-0.021556078;-0.23517525;-0.15927653;0.024318174;0.0060822507;-0.057371408;0.034930788;0.18483716;0.12357544;0.0024597684;0.13429871;0.017497152;-0.4105861;0.017147584;-0.03302833;-0.14605501;0.15024771;-0.09400709;-0.06259651;0.024755435;-0.040330358;-0.10779703;0.18442333;-0.0014146605;0.0002945886;-0.0037738231;-0.014470595;0.17969073;0.0005399902;0.01672987;0.0019933134;0.116679884;0.25032374;-0.13779809;-0.015739338;-0.015586268;-0.0028508815;0.17385231;0.15469097;0.23605369;0.110815816;-0.081817895;0.1106533;0.019193588;0.08627504;-0.021360537;-0.013939886;0.019123213;0.06575192;0.072036676;0.33735296;-0.012835228;-0.017818056;0.024756595;0.10931619;0.011440311;0.033184376;0.09637222;-0.010588383;-0.23813929;0.20701735;0.025368115;0.14943483;-0.003664045;-0.38591903;-0.012648969;0.00347176;0.013684757;-0.0013221528;0.19004123;0.34833544;-0.16937605;0.14666094;-0.014522249;-0.0032668652;-0.35272264;-0.01621755;0.1260364;0.003525096;0.29297194;0.06471369;0.10852516;-0.010724948;-0.034370806;0.14304887;-0.016949706;0.017265571;0.114707045;0.096270524;0.009361615;-0.17186223;-0.042913757;-0.061894886;0.0027004515;-0.085629866;0.0027485972;0.22414085;-0.019837327;0.0016801633;-0.000972473;-0.41654205;-0.08114458;0.0033761084;-0.055911902;-0.123275265;-0.12371395;0.040776417;0.084961705;0.008495813;-0.28925648;0.14040175;-0.042714864;-0.011990646;-0.27637523;0.015243003;-0.08426173;-0.19481798;0.0104262335;-0.02431481;-0.0178854;-0.082428314;-0.42346752;-0.029461453;-0.006695039;-0.37630662;0.09100648;0.1912353;0.45924953;-0.054632887;0.06722377;0.16509856;0.12948221;0.063923426;-0.11195623;-0.0028405278;0.0219019;0.16667484;0.007869338;0.21519841;-0.150975;0.0061657466;0.1881312;0.09100008;-0.2324652;-0.0034559064;0.0063071684;-0.04686973;0.16689023;-0.08801964;0.19726469;0.10027402;-0.14399841;-0.006695278;0.02829449;-0.14160584;0.026417889;0.18686283;0.15401761;-0.16422877;3.107473e-05;-0.5160055;0.05945599;0.14890468;-0.024817396;0.07861242;-0.4987317;-0.003094893;-0.01773168;0.25390735;-0.0021112189;-0.004481088;0.021996439;-0.12457482;0.008259598;0.01039345;0.0063274;-0.16512442;-0.007044689;0.020866247;-0.12708813;-0.17229863;-0.036540963;0.031150362;-0.04083621;-0.018971687;-0.08459528;0.014476196;0.025692867;-0.0037587536;-0.19891559;0.0033794963;-0.18753368;0.013643502;-0.41223222;0.28449288;-0.066442795;-0.059840593;0.021977246;0.026779292;-0.017009968;-0.19653408;-0.0559209;0.00047571707;0.077490486;-0.01013154;-0.098971054;0.083739296;-0.0020154775;0.1929626;0.0039357385;0.006142588;0.20900138;0.091706604;-0.05120618;-0.21133068;0.035967045;-0.020763392;0.16590662;0.35500127;0.06854392;0.114383034;-0.08302925;-0.03517833;0.0001335435;0.12479484;0.0005362863;0.030500444;0.0017864145;-0.15456933;-0.16856985;-0.3340169;-0.01877628;-0.0024185712;-0.28209528;-0.012427117;0.06354344;0.033805735;-0.007201721;-0.013892361;-0.16812558;0.15487307;-0.11870601;0.017977938;-0.3348871;-0.16252051;-0.07051798;0.1089361;0.15207215;-0.23867781;-0.005519797;-0.0020217393;0.12985575;-0.008309785;0.016567476;0.0070015173;0.0002485008;0.18157038;-0.11743356;-0.0084383385;0.008505062;0.021313306;-0.043633163;-0.0049783224;-0.016978594;-0.009570905;-0.2769506;0.036298838;-0.15098614;0.34625196;-0.0016081791;-0.014097239;0.011971906;-0.20750736;0.027728014;-0.02780209;-0.048509557;-0.1478319;0.0008517621;0.18767162;-0.13526163;0.00027638217;-0.027998671;-0.28008133;-0.0035603226;0.17230336;0.0029685537;0.004596694;0.036712494;-0.23775232;-0.0026387072;0.07951894;-0.0050806743;0.37008974;0.022097928;0.26697055;-0.05723764;0.28958696;-0.1428174;0.00946186;-0.3112369;0.008725594;-0.017678952;0.18225989;-0.0483862;-0.28452793;-0.0075073927;0.27890402;-0.1983948;-0.32467484;0.013358598;-0.0025842877;0.16752897;-0.0011540477;-0.25753826;-0.0009799617;-0.2541334;-0.009019535;-0.1235138;0.15327968;0.042736895;-0.074397475;-0.069956124;0.012721819;-0.19306807;-0.0023646425;0.0139893275;0.0039650807;-0.09894483;0.09133107;0.07140078;0.15404919;-0.31083426;-0.119814195;0.004057385;-0.008137331;0.22456889;0.01860133;-0.2477914;0.080027044;-0.015893755;-0.09998855;0.057098333;-0.049158428;0.088416815;0.1611684;0.013013279;-0.0020865654;0.02412735;0.04049413;-0.015556254;0.087834254;0.023377184;0.006824955;0.045642573;0.0018003681;0.1393921;0.031814184;-0.18251123;-0.009317591;0.0031411555;0.27141887;-0.030532481;0.13224968;0.05822578;0.25679094;0.029746886;0.13378395;0.09237237;-0.005975467;0.09192978;-0.14407308;0.033096157;-0.0006658116;-0.12385178;0.22812861;-0.2908393;-0.057584867;-0.0639327;0.021309668;-0.13239022;-0.013511897;0.0058742026;0.00028365152;-7.669318e-05;-0.16411005;-0.0009188441;-0.08196353;0.030331563;0.27182874;-0.007661249;0.11751012;0.23339519;-0.6606115;0.022967549;-0.020307863;0.046232652;0.0013716976;0.2919967;0.0050732424;0.075369485;-0.71046877;0.07734596;0.011368503;-0.27917132;0.0126471445;-0.12071316;-0.28621477;-0.0029577683;-0.017049547;-0.034606718;-0.020774197;0.1073501;0.22076863;0.2500471;0.1994944;0.26143798;0.1859926;0.046246693;0.014899464;0.004082415;0.23041332;-0.064893946;-0.10223625;0.092063434;0.07343467;0.015221866;0.014060961;-0.09448234;0.12753758;-0.005396141;0.26724163;-0.013630587;-0.41962677;0.16709973;0.20500283;0.4234951;-0.20087247;-0.007083383;-0.07646793;-0.0048455126;0.04860621;0.28495753;-0.005977545;-0.012636438;0.18308161;0.40388745;-0.0012056185;-0.014600684;-0.032492615;0.19132586;-0.040082604;-0.11439679;0.20492633;-0.00596516;-0.0139460685;-0.22091505;0.23570184;0.3600778;0.0007575004;0.005211294;0.11147561;0.014237546;0.004010292;-0.019809233;-0.0014293529;-0.19433874;0.10752092;-0.004357825;0.017680846;-0.0051111034;-0.6742618;-0.23382473;0.1905606;0.22893426;-0.0019081255;0.17423785;0.21048248;-0.032440867;-0.0073598623;-0.4389523;-0.06359375;-0.15234648;-0.043442134;0.012750948;0.016397545;-0.20158039;0.0027326748;-0.463453;-0.16031016;0.008104865;0.006965063;0.12837397;-0.00037744537;0.08443379;-0.014707097;-0.16006912;0.095124;-0.23493926;0.060706016;0.1861548;-0.024068883;0.00017751199;0.009321158;-0.002979654;0.04863267;-0.1957694;0.06205139;0.00040854717;-0.0016627832;-0.23876426;-0.12955303;-0.0006024535;0.37826663;-0.009793636;0.056420088;-0.08512145;0.4090364;0.004870685;-0.022284366;0.19990712;-0.2191428;-0.17010146;-0.029059961;-0.0058992105;0.046740793;-0.1475922;-0.03723532;-0.0030267155;-0.06404891;0.08474016;-0.04205048;-0.08986897;0.08442706;0.0035259225;0.014189331;0.0257655
-0.01621782;0.122774005;0.14559291;-0.0074516176;0.01676823;0.24140248;-0.004293776;-0.0034126965;0.019359205;0.02249057;0.003551884;0.0900937;0.010703092;-0.0006494699;-0.107594766;0.02513664;0.20834862;-0.03244455;0.0033513252;-0.0054307655;-0.18121877;0.008980685;0.37562138;0.38970464;0.17933248;-0.04384497;-0.3160599;0.039455757;-0.02915625;-0.086488895;-0.034001272;-0.47259435;-0.26680475;-0.26041085;-0.010780465;-0.004530491;-0.22283213;0.17239071;0.09667201;0.05206568;-0.0046484834;-0.2656127;0.10341693;0.34789798;-0.01258073;-0.39317784;0.029031843;0.2802221;0.34144714;0.0073160375;-0.107232384;0.0047243736;-0.2949621;0.006252064;0.18480688;-0.26226842;0.20670801;-0.058825728;-0.03430466;0.024181342;-0.25652647;-0.1565836;0.27455506;-0.029676674;-0.003124577;1.2594867e-05;-0.11224724;0.0922076;-0.06316471;-0.018467033;-0.0150707355;0.13496622;0.000727073;-0.24914555;0.0014958654;0.020837646;0.006010108;0.048292726;0.21331516;0.054996453;-0.22982663;0.010482806;0.073718034;-0.013918477;0.06010888;0.032531578;-0.045999955;0.0029631238;0.074012384;0.010140914;0.2672861;0.08249617;-0.334858;-0.09427772;0.021301586;0.04602933;0.010237529;0.3659748;0.0016666865;-0.30761683;-0.56308013;0.19190083;0.2816522;0.0014200228;-0.0901476;0.004584148;-0.0007065276;-0.008527351;-0.008626936;0.23494612;0.34068975;-0.14902642;0.06419473;0.017078135;0.023144023;-0.20152219;0.01189801;0.07810457;-0.029670548;0.17255479;0.022824103;0.26221746;-0.0020950336;0.018017065;0.28620952;0.014704073;-0.024223708;0.20887586;0.22645111;-0.0024099438;-0.14482246;0.061850615;-0.031433154;-0.005351009;-0.23257127;-0.010272088;0.20644356;0.0227828;0.0019718618;-0.017799176;-0.45487234;-0.16845313;0.0041139373;0.12835996;-0.17033884;-0.18222511;0.12536132;0.17607637;0.0014751483;-0.27956536;-0.0029496814;0.13518551;0.06826014;-0.17556596;0.0014259793;-0.16139422;-0.34482965;-0.01405763;-0.004464271;0.009408447;-0.1248919;-0.4550623;0.01745359;0.0024501747;-0.5993023;0.05883406;-0.085799865;0.33375394;-0.2257842;0.028797045;0.119203955;0.08912382;0.04935266;0.072238125;0.0010166029;-0.011428975;0.16081549;0.007682058;0.22396494;0.17501998;-0.0016947808;0.22778787;0.1432446;-0.1462844;0.005117527;0.0036232425;-0.037759103;0.2281838;-0.05637152;0.40876105;-0.0046206964;-0.10565705;-0.01264978;-0.026593758;0.016260896;0.08904492;0.21706559;-0.15614808;0.14059988;-0.031662595;-0.059761092;-0.0053573037;0.02843696;0.019665252;0.0051840707;-0.229094;-0.008453149;-0.02470912;0.12397036;0.011146385;0.0015836589;-0.0229378;-0.123812094;0.0031011715;0.0057314457;-0.0022994538;-0.08125836;0.019657433;0.23986122;-0.12747823;-0.06446486;-0.0555239;0.11653538;0.09593963;0.013731221;-0.15541664;-0.013339287;0.11410494;-0.0071638008;0.028172942;-0.010708933;-0.2945819;0.14285456;-0.17717218;0.14741223;0.09948711;0.01489821;-0.024521718;-0.024207966;-0.012930982;-0.11434278;0.10857227;-0.008968625;0.21456783;0.0040616235;-0.044387802;0.035753243;-0.29731336;-0.12043;-0.004922756;0.0032657692;0.10944236;-0.13647787;0.043168467;-0.3518037;-0.1361574;0.020285754;0.06009283;0.16877913;0.037268728;0.34556288;-0.18091747;-0.17117968;-0.0005731196;0.18366309;-0.011520672;0.097702615;-0.002780872;-0.0012151359;-0.23227763;-0.57072556;0.0017164844;0.0112226475;-0.25642747;0.008018236;-0.08429186;-0.1886765;0.0064458754;-0.042614106;-0.024428586;-0.020781847;-0.086541146;-0.006610514;0.12555519;-0.30578756;-0.1895474;0.2115632;0.061226655;-0.11895359;-0.22785214;-0.013800709;0.019372834;-0.022580203;-0.06433616;0.09005792;-0.02328782;0.20011249;-0.04626357;-0.0028729013;-1.606124e-05;-0.017646056;0.047419142;0.016435385;-0.20287676;-0.01764362;-0.038272675;-0.06515285;-0.13529195;0.37897342;-0.05484102;0.07126013;-0.02813426;-0.1599073;0.11599388;-0.28182247;0.05311942;-0.24064077;-0.015364394;-0.008414319;-0.045377817;-0.008265388;0.009975912;-0.27467242;-0.008701899;0.025674852;0.009325754;0.00019935316;-0.009210156;-0.19403455;-0.010553841;0.17577073;0.009764964;0.053149257;0.010123099;0.083383955;0.06664038;0.15253167;-0.11626773;-0.0051201363;-0.039032497;-0.0015099896;0.023937276;0.21666506;0.16671297;-0.47793886;0.1322668;0.21154667;0.011096613;-0.2894386;-0.016040972;0.015410269;-0.020866161;0.010545226;-0.14650223;-0.06936583;-0.24725288;0.013350888;0.081874184;-0.18925302;0.070470154;-0.10348601;-0.06266877;-0.004639063;-0.115097694;0.0165364;-0.018815402;-0.016260838;-0.20481314;0.27478266;-0.047236778;0.1338304;-0.091252714;-0.17894861;-0.008184202;-0.016819302;0.22726743;-0.01516153;-0.35825607;0.09453558;0.0093921935;0.12826447;-0.0050578704;0.06966752;0.0317886;0.27907676;-0.019106144;-0.020877728;-0.08045374;0.100929;0.01926556;-0.13900723;-0.21638273;-0.0008104887;-0.22718075;0.010216655;0.21919136;-0.12242144;0.03833245;0.023917528;0.0072746077;0.3380421;0.058142144;0.19670345;-0.08003274;0.43208727;-0.09136531;-0.11164144;0.03463824;0.0072160894;0.34125137;-0.10114503;0.06380084;-0.0146638015;-0.026213871;-0.08539171;-0.12018719;0.016302051;-0.20650847;0.04713309;-0.089226656;0.010261069;-0.015026623;0.013607966;0.1057376;-0.1693294;-0.014626063;0.09554259;-0.09455513;0.45824826;-0.013666253;0.33027428;0.23639722;-0.6429909;-0.021960838;0.019293739;-0.027016902;0.0808833;0.27042574;0.00083146873;0.072325245;-0.63590467;0.02221265;-0.016938265;-0.3993267;-0.0074749114;-0.11746676;-0.1969018;-0.007989891;-0.16666374;-0.0394948;0.01872983;-0.084826626;0.2887778;0.37757203;0.33097902;0.34474513;0.16800156;-0.1447624;0.02143532;-0.0009579233;0.1685563;0.03433407;0.058286466;0.055439625;0.03895512;0.0060076695;-0.017329197;-0.11524529;-0.014290555;0.009435943;0.113498464;-0.0055609285;-0.32137936;0.1449801;0.14433303;0.313754;-0.29629079;0.010861281;-0.21656674;0.0039286423;0.18457924;0.38718557;-0.015773349;0.0039586835;0.13721144;0.6240453;0.016874082;0.017783176;0.119755365;0.1818326;-0.120574936;-0.11600179;0.22862868;0.018884327;0.009555346;-0.09551465;0.22619992;0.08206619;-0.0046562226;-0.012545025;-0.05471477;-0.012653522;0.13652816;0.006628414;-0.0002501598;-0.119058155;0.25810316;0.007001499;-0.009563133;0.015143743;-0.33766448;-0.109123394;0.20108257;0.09463817;-0.0093667535;-0.06415726;0.16735;0.050591785;0.03217579;-0.38306728;-0.012241708;0.03436678;0.02028333;-0.16197698;-0.016027175;0.094194695;-0.0030692418;-0.280681;-0.1578219;-0.009608283;0.17530996;0.12401547;0.01573567;0.049210265;0.02382528;-0.22200055;0.22249565;-0.16135916;0.0015205424;0.081532575;0.01371492;-0.0012542766;-0.0145051675;0.0013871111;0.29708102;0.006683913;-0.066896096;0.012805099;-0.008934438;-0.2272458;-0.01698428;-0.22275484;0.34027392;0.0046590576;0.030955689;-0.064338215;0.3442464;-0.0039996686;0.008713001;0.2098392;-0.030166792;0.07036169;0.049378134;-0.026232274;0.0313173;-0.020749947;0.36102045;-0.028624801;0.013955704;0.28454047;-0.02002686;0.04852036;0.14166375;-0.007688474;-0.0132824555;0.07827771
0.0025415835;-0.29722458;0.06877923;0.009464816;-0.00048515832;-0.041952297;-0.013206489;-0.012720021;-0.08804667;-0.024898369;0.013982082;0.034156032;0.10628909;-0.014249933;-0.082322896;-0.005930986;0.1382162;0.033589378;-0.018119745;-0.014663667;-0.26290905;-0.008626636;0.34532338;0.2766078;0.17239696;0.026717203;0.013969062;0.08039333;0.035871904;-0.1738792;0.011826254;-0.38474214;-0.04456711;-0.060921207;-0.0063753473;0.018038815;0.018610058;0.10530368;-0.04012757;0.088486716;0.116147906;-0.098925635;0.45803362;0.06799207;0.009879906;-0.123814516;-0.06277938;0.28870425;0.04012715;-0.014616346;-0.25390512;-0.012609261;-0.30114573;0.2325472;0.27360994;0.068779185;0.17941381;0.09330672;-0.04963863;0.041985672;-0.286727;-0.012671929;0.28318986;0.03598104;0.010845526;0.0051319636;-0.11487693;0.15683329;0.10579229;0.001692313;0.024681794;-0.06427718;-0.27088687;-0.00805207;-5.8908827e-06;-0.0068820473;0.00253623;0.08604258;0.13685395;-0.10154452;-0.49902827;0.16707563;-0.024100315;0.008178956;0.29229635;-0.012119995;-0.2541422;-0.031627193;0.13913342;-0.028498555;0.24397607;0.06373339;-0.26142725;-0.08530136;0.22349577;-0.010809055;0.011233857;0.09829428;-0.007815946;-0.27194867;-0.63480693;0.188099;0.0011971495;0.00019547284;-0.119069174;0.01740896;0.008502732;0.019082682;-0.0033123505;0.09499809;0.5431503;0.02839127;0.07906996;-0.15203428;-0.03053232;-0.103271075;0.0052450877;0.20499784;0.01388783;0.16931544;-0.15334833;0.21793175;0.0064840196;0.32050493;0.08335381;-0.008176576;0.00028512764;-0.26904693;0.24445204;0.005453265;-0.15986836;0.09444342;0.1528237;0.0026302794;-0.20866473;0.015803916;0.13826115;-0.012079795;-0.018779168;-0.0013260177;-0.38902766;-0.13746107;-0.008955006;0.18532863;-0.043177422;-0.06440253;0.14073296;-0.1242675;0.0036109684;-0.15870655;0.05589684;-0.0823224;-0.0762133;-0.24635953;-0.0013603863;-0.1882784;-0.5383281;0.009190064;0.016281735;-0.00870971;-0.042750325;-0.24349746;0.0044792276;-0.009730829;-0.78283685;0.08657089;-0.14905345;0.2551981;-0.11519897;0.22400557;0.3637051;0.2103718;0.11155056;0.118423425;0.0018582849;0.0044914014;0.13399886;-0.0074467068;0.39032054;0.0104864435;-0.014147576;-0.066822;0.19843839;-0.18523148;0.0029656377;-0.016569562;0.06599683;0.24882376;0.03167193;0.41474882;-0.055872303;-0.021172537;0.025279554;0.018886507;0.20701039;0.19642095;0.022333866;-0.25947255;0.09019426;-0.12594071;0.12772234;-0.17894451;-0.18305497;0.09246705;0.047971297;-0.1044066;0.012259322;-0.20574634;0.12694035;-0.021970173;0.00517219;0.010127869;-0.15462142;-0.0020256545;0.00664178;-0.024561064;-0.15717728;-0.025182867;0.12561859;0.1519028;-0.13982382;-0.07006031;0.10686393;0.14034712;6.231606e-05;0.02373995;-0.0025289925;-0.03109927;-0.001326526;0.036581162;0.0006744282;-0.41684276;0.07887312;-0.080481485;0.20327462;0.14744343;0.07347443;-0.041729663;0.02056983;-0.07088825;-0.0063557797;-0.012670581;0.000363956;0.17379937;0.0034273264;-0.025126262;-0.029506842;0.07877219;-0.074224785;0.021382112;-0.010731229;0.17890492;-0.28297284;-0.06255088;-0.10421166;-0.31668028;-0.020268278;0.093760945;0.20510946;0.04022525;0.0784301;-0.111164324;-0.057892617;-0.006167981;0.03148364;-0.00012292748;-0.011033144;0.011529056;-0.015595591;-0.35711706;-0.3398901;0.09264195;-0.017001549;-0.3841051;-0.012962226;-0.010826055;-0.27314785;0.004408951;0.06481581;0.0058871163;0.013121284;-0.18819554;0.017230874;-0.025398515;-0.21104906;-0.19818668;0.17081317;0.12470125;-0.24309233;-0.031951305;-0.05866713;-0.101946674;0.025107605;-0.004979163;0.12438306;0.008608263;0.011352491;0.12380483;0.024423597;0.011951531;0.068407446;0.030208904;-0.005299754;0.053284716;0.015490952;-0.077896915;-0.07881742;-0.42843565;0.22852781;-0.14570665;-0.035844274;0.0117923785;0.032636657;0.13729331;-0.103722;-0.05444439;0.004761047;0.0059072324;-0.0008826372;0.052828223;-0.0068059578;-0.008220056;-0.22621529;0.00065752014;-0.16651505;0.0050341403;0.008231665;-0.015025539;-0.25994512;0.013903454;0.17114858;0.016365437;-0.11380674;-0.00040122066;0.34633887;0.044404976;0.21097982;-0.19321068;-0.007795099;0.17301539;0.0073444857;-0.019596238;0.18176241;0.10154392;-0.40962932;0.15684113;0.33389553;-0.020953191;-0.42788637;0.002060066;-0.00999847;0.014848581;-0.0061147325;-0.38486812;-0.1207537;-0.34343517;-0.0041013993;0.1914998;0.14936137;0.020448694;-0.13197343;-0.10912085;0.01142203;-0.047664482;-0.0057669804;0.013714775;0.0025336887;-0.02028946;0.20640376;-0.12173893;-0.17711703;0.017507646;-0.0035550252;0.017144335;-0.03535848;-0.17695548;0.005324168;-0.35624203;-0.17166995;-0.0035437208;0.20059896;-0.10500488;-0.050059892;-0.026603281;0.4609292;0.0038306906;0.035522982;-0.071061805;0.050341126;-0.024233684;-0.1954152;-0.046586387;-0.01704092;-0.21903586;-0.010052822;0.2770873;-0.22685562;-0.06358292;-0.0071395156;-0.012744723;0.15473592;0.033190344;0.08009699;0.021967638;0.37962535;0.0009192985;-0.05999702;0.17262942;0.002196044;0.16954896;0.10753859;-0.017912049;0.021870727;0.00079596404;0.21236612;-0.09316628;-0.16338769;-0.3153736;-0.06215091;-0.0058445544;0.0015679114;-0.004752507;-0.041992754;-0.07132926;-0.059399273;0.004321485;-0.062013526;-0.13356972;0.32724535;0.01593936;0.50144535;0.16055407;-0.28441918;0.0056061093;-0.0009374367;-0.011371043;0.20715484;0.38278592;-8.958538e-05;0.03766096;-0.26578432;0.011136225;-0.09778513;-0.2938873;-0.006858777;-0.042909257;-0.11619235;0.012677439;0.058003075;0.004120404;0.006460249;-0.07228787;0.2796163;0.2309082;0.3276805;0.35878184;0.3359647;0.011539658;-0.020082755;0.0061372095;0.14981547;-0.0011800836;-0.0076845475;0.07862144;0.0136800995;0.009576896;0.0065224953;-0.29872453;-0.27414933;-0.0024357191;0.12753265;-0.006934888;-0.072699755;-0.19254738;0.16080338;0.41457665;-0.18810207;-0.0053941216;-0.39152077;-0.0030908554;-0.10542194;0.1147603;0.005318197;0.011434857;0.035193432;0.34599257;-0.012759645;-0.0010770595;0.27223092;0.12947728;0.07074377;-0.15001158;0.2578053;-0.007149733;-0.00070154906;-0.056995265;0.29050535;-0.1364353;0.011393178;0.012908616;-0.24667755;0.009715292;0.09315375;-0.0037183387;-0.01910705;-0.21314819;0.42755777;0.0017193727;-0.0014429982;-0.0032250255;0.011287784;-0.3239851;-0.15210281;0.13514462;0.027605454;0.18869388;-0.29068148;-0.11434577;-0.0076365345;-0.2313719;0.01604434;0.054339446;-0.006721587;-0.03158955;0.016244054;0.106010936;0.0017566847;-0.17208132;-0.09744273;0.0022929395;0.16058625;-0.24134813;-0.008168326;0.089524;-0.01618507;-0.19095503;0.24534284;-0.09534631;-0.22886202;0.039169915;-0.00075334124;0.008039862;0.00549353;-0.010427178;-0.09934524;0.28217638;-0.12335277;-0.010165424;0.011262675;-0.059555564;0.046061456;0.034602858;0.5236292;0.0047768042;-0.02964245;0.021647468;-0.10015553;0.005779998;-0.00010678509;0.046313904;0.08346059;-0.027323343;0.16096431;0.029932965;0.01265504;-0.08028707;0.3888366;0.004640879;0.13074726;0.2459864;0.16874905;-0.011061319;0.020390002;0.011041262;0.019132996;0.11116395
-0.002718209;-0.28338182;0.1114886;0.017445255;-0.006426456;-0.20332482;0.020331804;0.0040928815;-0.040504977;-0.009389851;-0.008891175;0.27813864;-0.05040483;0.14013197;-0.14089131;0.006388931;0.24401417;-0.19518623;-0.006254785;0.015317674;-0.27276096;-0.00053891435;0.23775199;0.37128407;0.1492754;0.022628209;-0.19586845;-0.07390215;-0.020512847;-0.2191167;-0.12691438;-0.23808594;0.20323837;-0.103219025;0.0012990186;-0.012023504;0.04289333;0.14996505;0.065843396;0.05989361;-0.0737131;-0.22359064;0.06527231;0.07137277;-0.007813874;0.11015461;-0.12681068;0.23418462;-0.16615409;0.0050146575;-0.5086249;0.024228962;-0.2681378;0.010746197;0.1008627;-0.06223888;-0.06673317;0.11467969;-0.10292985;-0.11676564;-0.22623184;0.0032574178;-0.006094202;0.040011816;-0.0066645415;-0.010957703;-0.085839875;0.013763804;-0.17236853;0.0003826296;0.0020819255;-0.01373193;-0.5462926;-0.123576224;0.008507669;0.014563759;-0.019014927;0.096346214;-0.10223029;-0.3300665;-0.31490356;-0.09890317;0.033411358;0.006550405;0.04258008;-0.13015959;-0.16186063;0.017996673;0.064494774;-0.024798235;0.28626445;-0.06811045;-0.23796892;-0.038803972;0.03433616;-0.038843103;0.015542215;0.21054755;0.022853808;-0.20068057;-0.10939773;0.107144214;-0.053884868;-0.0036196013;-0.22954458;-0.021707704;-0.012532577;-0.009006511;0.008291967;0.06245007;0.43379444;-0.134383;0.23221877;-0.081355825;0.015151113;-0.17926185;-0.013534693;0.25721958;0.012077637;0.10360133;-0.06274679;-0.03768915;-0.01225433;0.26426214;-0.15026788;0.012629078;-0.0066939476;-0.2957222;0.13159154;-0.008846025;-0.07489714;0.096982986;0.040540367;0.006206447;-0.1623581;-0.01388064;0.045395173;0.02522035;0.030842984;0.010587811;-0.32484624;-0.12875564;0.0019031012;0.21108325;0.19850513;-0.11422809;-0.05813055;-0.040330995;-0.010651104;-0.08898655;0.076179415;0.017862817;0.02340029;-0.016717922;0.004629451;-0.052491892;-0.66628975;-0.006680194;-0.014403135;0.029038904;-0.07864357;0.041592624;-0.00209235;0.013173233;-0.5179088;-0.04939031;-0.04282056;0.08473697;-0.15118551;0.12796693;0.2176268;0.14399005;-0.035008408;0.03713394;-0.015650412;-0.009812568;0.06122017;0.007925934;0.29170674;0.0022871483;0.00607245;0.020164192;0.16746673;-0.32018414;-0.015421337;-0.0009209998;0.0050781723;0.24043062;-0.018310199;0.23505528;-0.17205651;0.17209224;-0.016556367;-0.0075223395;0.060738113;0.019614214;0.062296674;-0.11790215;0.029538661;0.09595013;0.10753875;-0.021212764;-0.038473148;-0.014847849;-0.15530662;-0.3127138;-0.004692518;-0.08249402;0.34348103;0.017182382;0.000932929;0.0042528636;-0.26205134;-0.0019079607;-0.0044641388;0.012897282;-0.1516108;0.013022712;0.25151485;-0.13369344;-0.10346242;0.0349125;0.10971688;0.07703547;-0.0308142;-0.1307278;0.021537421;-0.07788647;0.007762723;-0.0315715;0.0037757668;-0.12630126;0.10428122;-0.27069807;0.05196103;0.3636011;-0.17302732;-0.08674676;-0.007446561;-0.22630785;-0.12294164;0.052042056;0.0048362967;0.15793805;-0.010319301;-0.1265938;-0.1516818;-0.0660133;0.13164923;-0.018526135;0.00036730798;0.12516966;-0.30871356;-0.21850713;-0.02357258;-0.14088094;-0.0009210518;0.20337611;0.23081417;0.2225691;0.115372494;0.2565114;-0.084792;-0.005397927;0.13368103;0.0029589063;0.0633918;-0.011792797;-0.0022461726;-0.33724514;-0.38543916;0.06504408;0.026410805;-0.17777532;0.018975157;0.019459773;-0.3432437;-0.02024789;0.10105684;-0.03148376;-0.026717082;-0.22075301;-0.027055835;-0.054326393;-0.10810219;-0.1567897;0.36610436;0.053259995;-0.30888432;-0.33280092;0.0731416;-0.20066917;-0.011385157;-0.014593129;0.0059434655;0.003991708;0.108844765;-0.09338352;-0.024528593;-0.020164602;0.094797686;0.12522912;0.00068464875;0.112499796;0.0063969432;0.05108153;-0.10026082;-0.46218863;-0.059183214;-0.08674404;-0.085849784;0.029796239;-0.11947421;0.04022075;0.17311479;0.018691739;-0.124973334;-0.00508197;-0.15512912;0.11208054;0.02605434;-0.011124231;-0.18759218;0.01018787;-0.16616596;-0.013433083;0.0038679608;0.024982873;-0.2361982;0.014683044;0.31922153;-0.023446925;-0.27385333;-0.0014519221;0.4148916;0.015908511;0.089910455;-0.05563927;-0.0038404125;0.14871493;-0.013703245;0.0027746838;-0.05165062;-0.09574816;-0.36030495;0.24185786;0.21266943;-0.13476416;-0.5601452;0.011467473;0.00062040676;0.00053348485;0.0062088086;-0.19078758;0.10875601;-0.18851143;0.011948408;0.14181787;0.13293426;-0.1123772;-0.12828004;-0.1441413;-0.006664243;-0.1474972;-0.006629633;-0.013811629;0.010785296;0.13171555;0.008538916;-0.29289427;-0.1734692;-0.0017423927;0.11084667;-0.017955422;0.012606911;-0.36224017;-0.0012978025;-0.3775003;0.12891255;0.0033081742;0.2866167;-0.04256804;0.04770844;-0.36608496;0.5173901;0.02788371;-0.0452878;-0.13518757;-0.21969132;0.00547915;-0.19667575;-0.18847394;0.00407275;-0.43680254;0.029188588;0.25872838;-0.25192308;0.23652731;-0.014854238;0.013019205;0.09648266;-0.13345835;-0.013307323;-0.03282421;0.16059226;-0.07097109;0.04842771;0.16508687;-0.0006320184;0.09522425;-0.14769915;-0.12694322;-0.0013542012;-0.049972907;0.043882854;-0.22432087;0.030018773;-0.038467117;-0.11420007;-0.046831645;-0.0064754947;0.015940746;0.02801041;-0.15323052;-0.06279952;-0.00011133505;0.14298676;-0.1262599;0.43584713;-0.00031125318;0.41307306;-0.056821425;-0.18252744;-0.010814103;-0.0044993456;0.00044110592;0.25352496;0.26303923;-0.010957904;-0.012281502;-0.0008841972;-0.024432974;-0.20281506;-0.38417637;0.015453326;-0.1880477;0.014226666;-0.016570741;-0.13890415;-0.012249055;-0.0013997568;-0.09588446;0.25362387;0.32592282;0.32231063;0.14999811;0.09057603;-0.09875482;0.0023509497;0.006490757;0.1756202;-0.068875626;-0.0644944;-0.06542015;-0.05578366;-0.02321041;0.0054823537;-0.20385063;-0.006536313;0.004297873;0.13311577;-0.00089786947;-0.20259131;-0.17634809;-0.07008915;0.3300855;0.09290108;0.0062623606;-0.3561014;0.0034020017;0.050060764;0.06852572;0.022712333;0.00793136;0.18401414;0.21184163;0.008538952;-0.015656114;0.46672127;0.22145896;0.04127906;-0.11445304;0.11414067;-0.010199078;0.0039835293;0.23996253;0.1774995;0.022017067;-0.0050308574;-0.003922218;-0.2268096;-0.0026787065;0.044915006;0.008557872;0.018786818;-0.062041033;0.43867397;-0.012892893;0.0035131827;-0.0029889382;0.04220542;-0.14642084;-0.22406255;0.11156216;-0.021171577;0.050842255;0.07869909;0.17245387;-0.015544646;-0.044671614;-0.058128327;0.13799153;0.022817392;0.03731246;-0.013427634;0.33749872;-0.008739149;-0.16603225;-0.13682574;-0.1612266;0.100297146;-0.4918375;0.0038754605;0.13876592;0.013225028;0.0010844271;0.14809348;-0.19302498;-0.17282929;-0.051056083;0.0032024158;0.005232676;0.0016914837;-0.010844268;-0.20338686;0.29908523;0.06741993;0.023998959;-0.0026500463;-0.14884254;0.062257756;0.1628542;0.55253214;-0.012024724;-0.11002752;0.13210134;-0.06306088;0.015595058;0.017693926;-0.11698691;0.07218192;0.023036469;0.25125563;-0.0077440594;-0.14525755;0.021168396;0.19716841;-0.012288582;-0.033509154;-0.10662557;0.040846296;-0.09184447;-0.26235488;-0.022150626;-0.003397414;0.07828211
-0.016957484;-0.21898371;-0.05702136;-0.018854508;0.007706936;-0.14160007;-0.021078298;0.011194396;-0.10685096;0.029435664;-0.0028890893;0.25670952;0.20433855;0.001226196;0.0077494364;2.5833251e-05;0.2646325;-0.14018364;0.017840905;-0.038596116;0.02541759;-0.008487634;0.19614929;0.5195251;0.026104704;0.07103139;0.08960802;-0.23057957;-0.0012199039;-0.17923887;-0.21009976;-0.21888529;0.13485889;0.027051283;0.0044606933;-0.0007707761;-0.08974353;0.19648209;-0.022424804;0.08719295;-0.05840655;0.16861556;-0.099326864;0.045314547;0.01828607;-0.02116397;-0.13566959;0.050690178;-0.13511568;0.008854799;-0.07184146;-0.013906571;-0.18969674;0.15910245;0.23472703;-0.072527066;0.15537393;0.010642965;-0.051917963;-0.014276749;-0.2035592;0.10675409;-0.3315373;0.07394901;-0.00019562268;0.000993828;-0.06808291;0.0035016565;-0.012326495;-0.008004204;-0.009491385;-0.15128419;-0.5265186;-0.015761608;-0.01309869;-0.012246124;0.0066624223;-0.051551025;-0.21238588;-0.57071924;-0.123234384;-0.4886967;-0.06743847;-0.010629557;-0.10728123;-0.10786547;-0.27764514;-0.009379588;-0.0861607;-0.07109348;0.2929176;-0.005964942;-0.24253388;0.14491257;0.07079832;-0.044225212;0.01022117;-0.15705633;-0.0123021025;-0.22003733;0.3441009;0.3713898;-0.032196425;-0.00074494234;-0.21761346;0.01974765;0.01602682;-0.010319065;0.00095266546;-0.05988503;0.26598144;-0.24412228;0.16169693;-0.24525315;-0.003448642;-0.038966358;0.012810048;0.22730124;0.0030128409;0.0020870536;-0.04998198;-0.03937479;0.0033060608;0.05621417;-0.08598514;0.010388744;0.009466448;-0.14242308;0.28738034;0.0013960877;0.11364381;0.21006556;0.008784692;-0.008215249;-0.04684415;0.011003293;0.14000717;-0.0041884254;-0.0018758754;0.006607651;-0.3522041;-0.029601565;0.0061999387;0.1305093;0.43586534;0.036299765;0.054902054;0.026134526;-0.0021065061;-0.11050675;0.07905204;-0.08098705;0.014176153;0.044621717;-0.0014407866;-0.05581627;-0.4802114;0.008298181;0.028606253;-0.0310113;-0.27047205;0.12115415;-0.004794453;-0.014782014;-0.113751605;-0.14103127;-0.04779751;0.15472387;-0.16825764;0.102625675;-0.02946888;-0.027746355;0.005361053;-0.091117956;0.019739693;-0.012373806;0.024189172;-0.010742327;0.08030256;0.037080303;0.014291198;0.0939873;0.1471973;-0.37213597;0.018855521;0.005019101;0.06848308;0.1694559;0.06374744;0.23653515;-0.26233986;-0.050074395;-0.003131853;0.0017481211;-0.08463174;-0.0045042187;0.015607862;-0.21831311;-0.057871807;0.17845301;0.116101876;-0.00946049;-0.2933181;-0.30754718;-0.15626167;-0.20464736;0.0038456584;-0.055314038;0.30265245;-0.018712154;0.004615188;0.0050448556;-0.24699299;-0.0009138672;-0.004192051;0.009789317;-0.16383922;0.0033674038;0.062434662;-0.00040401504;0.0020924287;-0.12888369;0.012746758;0.12069576;0.024558038;0.059302412;-0.031169966;-0.28642747;0.009305278;-0.19258057;0.006084439;0.10571861;-0.04469867;-0.24945384;-0.3887136;0.18434791;-0.074297816;-0.19030136;-0.0096410755;-0.19205353;-0.15282817;-0.011093304;-0.004096504;0.052799884;0.002471885;-0.049855903;-0.12588713;0.091571115;-0.1006797;0.016943157;0.024785038;-0.16308294;-0.19851361;0.050850533;-0.062459055;-0.38408172;-0.047418628;0.12816492;0.28455505;-0.24071838;0.20834303;0.16792515;-0.15827149;-0.001560399;-0.026143603;-0.004272136;0.11342178;-0.0056413957;0.061467443;-0.014318996;-0.14174062;0.021239845;-0.013146725;-0.35795394;-0.017798003;0.055627782;-0.5131067;0.024089357;0.08650638;-0.19385658;-0.07847481;0.039633956;0.015471087;-0.10756689;-0.061529763;-0.22513956;-0.10925223;0.061361365;-0.33099967;-0.42822424;0.22963117;-0.18137074;0.008449502;0.12566967;-0.082367696;-0.012648033;0.12233611;-0.11183888;0.0037855813;0.022359977;-0.1260262;0.026502777;-0.0060662385;0.46795124;-0.008057008;-0.07700971;0.018538672;-0.22886814;-0.10157949;0.01683866;-0.04924309;-0.024395075;-0.27099657;-0.1986629;0.17245153;0.10111194;-0.15339218;0.006693282;-0.16503985;-0.14442125;-0.017613703;0.01920642;-0.055584773;-0.0020283328;-0.25707918;0.019583482;-0.0115571655;0.00017544997;-0.2216198;-0.02019837;0.33364686;0.0044586053;-0.16912104;-0.013312939;0.18702367;0.14851671;-0.018472087;0.033172045;-0.0018945453;-0.0646101;0.0028079196;0.0049913125;0.041616794;-0.38160172;-0.25971186;-0.03172771;0.3957372;-0.08961794;-0.5181556;0.0054366915;0.02072919;-0.0042438116;-0.0025755228;0.1007188;0.045927525;0.0495682;-0.0023427866;0.20805217;0.3419944;-0.15388517;-0.35916924;-0.29916102;0.0076961964;-0.25097027;0.0052847234;0.01964617;0.0042169048;0.04183495;-0.15206495;-0.5185981;-0.17050588;-0.012903064;0.086047225;0.015900388;0.0034795448;0.020352801;-0.0041216607;-0.35792053;-0.10467419;0.0010771472;0.29153588;-0.1504223;-0.037706472;-0.2570865;0.34883332;-0.0038458065;0.026876215;-0.07561427;-0.17747283;0.029278621;-0.091756865;-0.13901272;-0.0065059047;-0.49380642;-0.025144769;0.090116315;-0.33825925;0.29131156;-0.00019499633;0.002402389;-0.06030204;-0.2621354;-0.14289276;0.02284109;0.25126082;-0.030182637;0.14414978;0.19291046;0.009380438;-0.025324682;-0.19840764;-0.16211051;-0.001886378;-0.1108377;0.0023902766;-0.36591008;0.025074942;-0.11760729;-0.094191186;-0.09863774;0.009087718;-0.0015190389;-0.014929048;-0.2336619;-0.06836832;0.021010453;0.17432007;0.035150785;0.41810292;-0.015095295;0.33492768;0.06413608;0.121144235;0.0038296867;0.009238381;-0.007470946;0.24377456;0.39754328;0.007454647;-0.018065568;0.005762286;0.049203224;-0.10283098;-0.17732847;-0.016243003;-0.21760856;0.060569827;0.022393033;0.02167488;0.100341335;-0.006734092;-0.002944323;0.2236507;0.4226986;0.24433723;0.038561787;0.12005993;-0.2136538;-0.015387145;-0.006170368;0.29100204;-0.13688873;-0.07077207;-0.08883375;-0.020599417;0.013432453;-0.018814694;-0.13442951;-0.0033459428;-0.00019454233;-0.2250211;0.0017055282;-0.169647;-0.15090713;-0.0033657493;0.29556257;0.088542566;-0.0044778064;-0.5272518;9.672348e-05;0.008737934;-0.1489371;-0.017015971;-0.016130377;-0.031257108;-0.10331069;0.016275069;0.01374389;0.21247096;0.10616435;0.16473669;-0.14552133;0.13616285;-0.0070398776;0.006659562;0.22420627;0.054291476;-0.1651038;0.010179419;-0.0009816388;0.13966972;0.005440446;0.051617738;-0.02274711;-0.005635259;-0.09523988;0.36935306;-0.0050611757;0.004304923;0.0026051477;-0.104290344;0.00013762618;-0.31313473;0.25053898;0.011783852;0.14457761;-0.2975852;0.058766995;0.014512865;0.34744602;-0.014580219;0.070910655;0.0135846045;0.053198546;-0.006110687;0.50295544;0.006353385;-0.19091433;-0.12855522;-0.33669424;0.15235874;-0.6796638;-0.018296443;0.03399336;0.0046161762;-0.26473287;0.00280626;-0.33456853;-0.1106651;-0.1867013;-0.0054431837;-0.004846534;0.0035255505;0.02129456;-0.21811408;0.012595845;0.011672946;-0.02365605;0.0053002937;-0.32065523;0.16189224;0.20772755;0.423207;0.0056028385;-0.119764455;0.2012857;0.0025753335;-0.00049514096;-0.02283815;-0.109628454;-0.036009785;0.07762435;0.28783628;-0.0009765676;-0.17217168;-0.01767674;0.28655246;0.010688756;-0.025816234;0.13559711;-0.1678175;0.07735199;0.007656152;0.022306371;-0.008148708;-0.11452673
0.0065271063;-0.28519425;-0.06978111;-0.0011160781;-0.009227076;-0.030233731;0.019898934;0.0051939427;0.09194548;-0.026895177;0.013732444;0.114299975;0.09244859;-0.08578264;-0.18614744;0.009983539;0.21350081;-0.05989755;-0.00070498965;-0.041816823;-0.33788568;0.015405706;0.19390742;0.43691266;-0.009123461;0.14920148;-0.089850836;-0.11701603;0.005453443;-0.23567377;-0.29926255;0.0056151412;0.116592474;0.09716713;0.020801878;-0.013139365;0.050354734;0.14072585;0.005979041;-0.027257405;0.03709728;-0.02141991;-0.24285482;0.09121851;-0.019546421;0.13454343;-0.17975873;-0.13746667;-0.33726385;-0.009275229;0.2936219;-0.003477329;-0.37690973;-0.09505827;-0.0115475925;-0.042371884;0.19585624;-0.05219117;-0.28816125;-0.10389123;-0.21093646;0.11895982;-0.2511241;0.0097442465;0.007104832;0.002977487;-0.20838173;0.012117307;-0.05065185;0.006863148;0.0069135763;-0.010898878;-0.515647;-0.099408634;0.009780661;0.0057900874;-0.0069913655;-0.13262218;-0.0499065;-0.3476784;-0.18974215;-0.26555106;0.11404772;0.0040140343;0.055087674;-0.115332104;-0.3923916;0.003371619;0.15793636;-0.0071330997;0.33421847;0.002350272;-0.2129178;-0.0097424025;-0.00651575;0.015538213;-0.030045798;-0.12167519;0.00721288;-0.14900763;0.31123015;0.2568639;-0.032230686;-0.004271916;-0.1506514;-0.011697574;0.0035155967;0.010504821;0.006619075;-0.24874203;0.39689177;-0.336678;0.07103467;-0.20436119;-0.01960601;0.096000925;-0.007345652;0.101165526;-0.028224772;0.08534028;0.0861523;0.10236391;0.013948935;0.25775185;-0.12536925;-0.021327108;0.005264538;-0.32161108;0.11828281;0.009387092;0.118016265;0.15002887;-0.045471527;0.018893084;-0.03702121;-0.0013082098;0.19708692;-0.010137031;-0.02085334;-0.0007717047;-0.2825966;-0.06313318;-0.010769055;0.12823746;0.23883978;0.009315781;-0.10472484;-0.023070281;0.0051522003;0.23662214;0.16530873;0.1870871;-0.029561037;-0.113926455;-0.008241184;0.08157756;-0.49475363;0.0011294109;-0.027416453;0.009490927;-0.095844604;0.075402275;-0.0020566778;0.010965564;0.12020765;0.09852428;0.20903066;0.0602826;-0.19627818;-0.037148125;0.048497483;0.07828001;0.07730893;-0.026739832;-0.010532679;0.0023242193;0.006793131;-0.009335904;0.20946479;0.02841267;-0.01395851;0.07884335;0.19405282;-0.39593425;-0.00013140425;0.009549306;-0.028633216;0.057933252;0.041330036;-0.061910972;-0.060461957;-0.06983615;0.0077192183;0.00974375;0.03010624;0.056285396;0.047029603;-0.39505064;-0.18454354;0.1929856;0.15638389;0.13519433;-0.13250516;-0.33588418;-0.0949944;-0.23189767;-0.0033418785;-0.313664;0.37841433;0.014726113;0.0007569411;-0.016000576;-0.002430809;0.008842465;-0.0010533731;-0.0019066856;-0.030929282;-0.014905071;-0.016024088;-0.05196378;0.11306023;-0.13320698;0.046263173;0.05041899;-0.008117408;0.10872712;0.027974417;-0.09658794;-0.019573689;-0.12506495;-0.0018979512;0.06427299;0.06037518;-0.41699445;-0.34177244;0.30969998;-0.019147102;-0.052058637;0.016330302;-0.07959056;-0.11124827;-0.17032382;0.002539247;0.049242605;0.0076458533;-0.12274048;0.036249913;-0.12658463;-0.06604933;0.013565656;0.006287357;-0.16987298;-0.1887057;-0.09731937;-0.025561016;-0.1968551;0.07096829;-0.15053283;0.0069017936;-0.26195198;0.087042786;0.13709576;-0.032415144;0.01427695;0.02789795;-0.004288429;0.20381759;0.0042774105;-0.036580663;-0.24801835;-0.09821141;-0.020080809;-0.0025839324;-0.19782035;0.015622055;-0.024442218;-0.40912992;-0.018908592;0.17090045;-0.11590294;-0.076524146;-0.1026981;0.002263138;0.042323094;0.010649992;-0.09964275;-0.21256451;0.1470524;-0.26169938;-0.20571269;0.06497516;0.09572343;0.0064606206;-0.021418452;0.1148658;0.02544994;0.27253655;-0.48457453;0.0008335245;-0.018599657;-0.29018736;-0.26390007;0.0016023943;0.52208036;0.016283045;-0.012266925;-0.087840684;-0.31458208;-0.2617563;0.09450857;-0.05203501;0.03035999;-0.04287703;-0.33288342;-0.13137257;0.21589603;-0.066691674;-0.000743869;-0.094023846;-0.43483713;0.0064584883;-0.023464043;0.08593391;-0.011015264;-0.17173344;-0.006548706;0.005012064;-0.008124756;-0.33738533;0.0036710908;0.069426246;-0.00077409827;-0.04981315;0.013291739;0.08828871;0.04616309;-0.12921342;-0.041733608;0.009650025;-0.16013594;0.010813418;0.0071437666;0.068090394;-0.304233;-0.1849105;0.0830282;0.2080682;0.12084011;-0.50332767;0.0032622805;-0.012814091;-0.056375932;8.50026e-05;0.0020264562;0.13870884;-0.081999496;0.011173552;0.24781922;0.37977806;-0.10773484;-0.24747437;-0.20401165;-0.0030704136;-0.1787782;-0.016887765;-0.01947959;-0.008822046;0.07445787;-0.19665696;-0.41959676;0.074581064;-0.1939168;-0.06957698;-0.021115292;0.07354675;-0.083068974;-0.00038117036;-0.25746086;0.0031146389;-0.0036388142;0.2821333;0.13002788;0.032192614;-0.1522641;0.0726138;0.0036413951;-0.008043412;-0.05291189;-0.1897504;-0.031649835;-0.108437605;0.18479005;0.008181135;-0.43287066;0.020187588;0.15662752;-0.32402253;0.32863438;0.00073151884;0.005268815;0.001744581;-0.24161881;-0.10680939;0.008094325;0.02406949;-0.022868171;0.24536845;0.19002838;0.0029316985;-0.27289978;-0.074758574;0.040675655;0.0034982543;0.028427854;-0.20024844;-0.3187109;-0.0055888775;-0.20494339;0.10900821;-0.022319863;-0.006664842;-0.014714673;0.00052767573;-0.4621261;0.006595945;-0.00142306;-0.026127623;0.108119994;0.34450725;0.017739395;-0.0040925248;-0.049625043;0.21055304;0.0024873987;-0.009479924;0.007623155;0.21359311;0.07920803;0.01316136;-0.03472566;0.05049582;-0.012227247;-0.014872437;-0.09039678;0.014441109;-0.25183818;0.27563512;-0.0142261;-0.05639924;-0.13080053;0.005956633;-0.05339371;0.34906846;0.50290596;0.14045386;-0.08574235;-0.24260955;-0.032148853;-0.0013291903;0.0052964557;0.15061803;-0.24843264;0.16125625;-0.010929555;-0.014201883;-0.00407922;0.01021329;-0.20553891;-0.02556867;-0.016206726;-0.34992495;0.0062773633;-0.37703252;0.15343235;-0.0821903;0.09927827;0.1504636;0.003425907;-0.4774843;0.0015026631;-0.110360585;-0.21525545;0.020472784;-0.0023795916;0.0002442796;-0.13936795;-0.0066634906;-0.020012798;0.08150892;0.10158162;0.34125713;-0.054780778;-0.022814346;0.006439031;-0.010957987;0.18291721;0.20616059;-0.15763777;0.006986614;0.009792209;0.1282371;-0.0026680063;-0.006747868;0.022058211;-0.0042973193;-0.1590063;0.3211668;0.019114994;-0.016615512;-0.007975455;-0.18023303;-0.12797372;-0.15558445;0.35297033;0.009863116;0.12370792;-0.31595725;0.075776346;-0.007093961;0.24182327;-0.043827336;0.013003323;-0.019039333;-0.07748289;0.013483292;0.3194432;0.0133415945;-0.2896452;-0.072734766;-0.35354695;0.20731607;-0.7623486;0.020238573;0.057790104;0.00080797053;-0.36117846;0.007971573;-0.13447312;-0.22808185;0.09432319;0.003005929;0.0036125612;0.010988394;-0.022209987;-0.33197707;0.024092166;0.20775458;0.008577884;-0.006133854;-0.41199353;0.20926408;0.42865738;0.4073408;0.0018376982;0.07939936;0.13589472;-0.06575369;-0.0091094235;0.020715214;-0.10591944;-0.1450708;-0.035326876;0.32479307;-0.0059406213;0.022712851;0.09289693;0.1078825;0.0001156225;-0.17197856;0.085313335;-0.3761845;0.07704155;0.17002258;-0.012982678;-0.01885072;-0.26293114
0.0121550625;-0.27755147;-0.13822313;-0.0005196839;0.0025302006;-0.1267673;-0.0053360155;0.015240037;0.050972484;-0.12645215;-0.011822226;0.26094532;0.2718799;-0.05856373;-0.13563004;-0.02289691;0.38884792;0.390214;0.012892151;0.049428318;-0.5825566;-0.0039848494;-0.119501434;0.3433169;0.05762765;0.07773179;-0.27075365;-0.2710236;0.002671431;-0.28135595;-0.10514498;-0.31775704;0.19016756;-0.11753008;-0.016976882;0.0038137825;0.19321318;0.23631847;0.17285347;0.18969552;-0.08027181;0.11000893;-0.12288948;0.10440706;0.018986102;0.09652647;-0.12560977;0.049263943;-0.18448512;0.0017025451;0.13497278;0.00013705774;-0.35029745;0.11552084;-0.10267464;-0.15907374;0.19022429;-0.0112869665;-0.21785548;0.21973589;0.007895408;-0.102770336;-0.21939863;0.015687669;-0.005971368;-0.0056589306;0.04582968;-0.024381997;-0.013666489;0.00328085;-0.019952828;0.10004588;-0.74339753;0.4404509;0.004860766;-0.0032894707;0.0057255113;-0.009274493;0.022308154;-0.5421656;-0.3260615;0.060153417;0.024398522;0.00082919037;-0.13634503;-0.25620347;-0.2033822;-0.008914411;-0.025978792;0.066109926;0.22042182;-0.23902586;-0.17843774;-0.18796977;-0.11206949;0.043070402;0.018280141;0.035919946;0.009535365;-0.19999541;0.013846442;0.26626098;0.24971594;0.006216977;0.08197045;0.0013068145;0.0031967622;-0.018319443;0.0077991616;-0.28927878;0.30183536;-0.101649985;0.034174222;-0.093298405;0.00836061;0.14791295;0.003966792;-0.015615148;0.029745992;0.104075775;0.23239294;0.055970907;0.0022189561;0.07782607;-0.09051241;0.010070761;0.008512768;-0.073067926;0.0393334;-0.0044537126;0.17570077;0.2793974;0.052551802;-0.016152445;0.16302425;-0.0049725687;0.18679011;-0.008323917;0.0138287125;-0.007308422;-0.358921;0.14609362;-0.0060275733;0.2784558;0.22020303;0.053788535;-0.1706141;-0.14716709;-0.006444025;0.13256437;0.0014571381;0.09269958;0.0027900261;-0.046732258;-0.009017406;0.2224085;-0.48463386;0.0009825111;0.016947148;-0.006935169;-0.08322623;0.006823653;0.00010872882;-0.006485641;0.042844784;0.13957821;0.16550237;-0.08575442;0.140334;-0.19106534;0.033875216;0.24209982;0.19806328;-0.29613444;-0.007759035;0.010130133;0.05096058;0.00786194;0.20383213;0.07605506;0.006390366;-0.038866196;0.15902883;-0.092862435;-0.018017637;-0.011613245;0.0033086606;-0.09017291;0.2948551;0.12840848;0.0645889;0.062165376;-0.013761016;-0.00042383219;0.0688917;0.100399725;-0.24805595;-0.19963962;-0.13832405;0.31302693;0.1608249;0.17935373;-0.09730791;-0.3613994;-0.08077834;-0.09924889;0.013457797;-0.45170936;0.16130875;0.0057837674;-0.01341064;0.015259532;0.13405652;-0.015522987;-0.0060295453;-0.0077830134;0.028393237;0.017745042;0.122630276;0.06610256;0.1667979;-0.1534422;-0.03213316;0.03197673;0.008691251;-0.3099314;-0.022236992;-0.011198298;0.038207266;-0.12185314;0.004753538;-0.0477675;0.110839;-0.26865456;0.08903238;0.22197786;-0.09152375;-0.22521321;-0.019638874;-0.22158091;-0.036361583;-0.111790136;0.0076358276;-0.059717976;0.011154852;-0.0111248065;0.18655357;-0.17876211;-0.13766706;0.0042685075;-0.013614729;-0.4164618;-0.12219097;0.16109759;0.046429183;0.05919084;-0.01429365;-0.18221615;0.13111027;0.054220356;0.1260402;0.31921482;-0.10776786;-0.006581936;-0.073540464;0.008780649;0.13787447;0.0016428314;0.23533638;-0.029206527;-0.032438185;-0.051278353;-0.018413004;-0.015071358;-0.00595225;-0.08473555;-0.3529855;0.0084637;0.28411242;0.13533649;-0.17525612;-0.12367473;-0.008557165;0.12045736;-0.18013605;-0.11351525;-0.055534225;0.06396807;-0.3090135;-0.051583055;0.35061646;0.18940939;-0.0131491;0.17190395;0.02832863;-0.003430395;0.23528928;-0.20682049;0.007608972;0.0025712845;-0.14024486;-0.44459948;0.0036541778;0.09651649;0.0036554444;-0.015436482;-0.16613483;-0.1994628;-0.2774433;0.041427866;0.18174529;-0.030338747;-0.093375616;-0.099625476;-0.22352785;0.21147272;-0.0736841;-0.0001909093;0.06807322;-0.3825079;0.011730519;0.0069687385;-0.018938035;0.016706841;-0.0079870345;-5.0379247e-05;0.0024559463;0.04048418;-0.22033875;-0.007125889;0.17744596;0.0066553303;-0.08634306;0.00015781424;-0.1443096;0.047007512;-0.099115744;0.14093108;-0.009271341;-0.07980422;-0.0034721703;-0.009418251;0.08568556;-0.23227648;0.09733163;-0.020057602;0.30486614;0.030524263;-0.57363266;0.010711757;0.009565169;0.008763774;0.0055328226;0.11320777;-0.04801323;-0.16687746;-0.0034289982;0.10829707;0.12967478;0.15760578;-0.21127363;0.100530416;0.0034578857;-0.09860528;0.0037772134;0.0077903583;0.002583451;-0.16759822;0.033132497;-0.29205593;-0.06581569;-0.1680277;0.15478112;0.015043958;-0.009685559;-0.059340253;-0.022937367;0.0846522;0.03520728;-0.011760526;0.24219705;0.20141153;-0.045793843;0.0045931092;0.036656376;0.004992174;-0.001633557;0.040411644;-0.05553076;0.019073062;-0.2143878;0.17473094;-0.0071897167;-0.362648;-0.029194511;0.06688866;-0.22615936;0.31322283;0.0006873232;-0.021017779;0.11959969;-0.048445027;0.08528891;0.01883268;0.10365883;0.19063239;-0.085589916;-0.1465624;-0.00080314925;-0.30042958;0.018003795;0.123686925;0.00039693975;0.012986384;-0.11197008;-0.4490887;-0.05795209;-0.41989744;0.07175578;0.22235681;-0.013930443;0.015436508;0.00254461;-0.26620844;-0.1792949;-0.013602081;0.06576202;0.1317525;0.38413113;-0.0059529003;-0.105422;0.32599097;-0.06618965;-0.009836804;0.0031490542;0.02381329;0.0025253943;-0.10116201;-0.007832476;0.023436747;0.076618224;0.050165776;-0.013764841;0.058568798;-0.011706106;-0.14790154;0.40112963;0.008295392;-0.112912945;-0.30892718;-0.015539188;-0.023957435;0.25176945;0.2475295;0.024089465;0.04387867;-0.09442786;-0.020251896;0.0255773;-0.039604723;-0.013116444;-0.32782298;-0.0041442295;0.22509181;-0.026932184;-0.003410899;-0.019784011;-0.18190688;-0.03254846;0.0019893663;-0.53400517;0.008467497;-0.3428218;-0.026570098;-0.010367763;0.011506174;-0.026008725;-0.015016415;-0.42610124;-0.013032684;-0.20037763;-0.49555814;-0.017530698;0.01566438;0.16296947;-0.093731515;-0.013026147;0.026796913;-0.031342257;0.11901974;0.43168336;0.055783994;0.0029273422;-0.0008553662;0.021148773;0.09175792;-0.23517044;-0.07870175;-0.0069565023;-0.006493925;-0.044356886;-0.0045650075;-0.10680937;-0.01702506;0.011595957;-0.13302897;0.39661342;-0.017970297;0.0048704953;-0.0011378811;-0.21312061;-0.28452253;0.19212781;0.3612369;-0.012373045;0.031923927;0.038446352;-0.023774125;-0.0078056073;0.14091912;-0.009358219;0.019483604;-0.018877326;-0.011093649;6.167295e-05;0.31281704;-0.03080274;-0.21971373;-0.023359064;-0.32103944;0.171661;-0.36440304;-0.01025885;0.044273447;-0.018862084;-0.3751974;-0.07246623;-0.0729451;-0.20363797;0.14673865;-0.012968456;-0.007544623;-0.018774303;0.0053608087;-0.27015334;-0.05601833;0.14029445;0.014090701;0.0035213367;-0.12617806;0.21743466;0.18606022;0.43052456;0.0044821724;-0.08721469;0.36631706;-0.03551772;-0.00069852243;0.0053560394;-0.1234477;-0.24803264;-0.046563283;0.28643683;0.027883166;-0.08062235;0.18303348;0.0049444134;-0.03736033;0.12841175;-0.0223536;-0.43783334;-0.08432462;0.14883937;0.008094029;0.011852326;-0.32886195
-0.003532677;-0.19439454;-0.11627225;-0.0077812443;-0.0004568877;-0.26548675;-0.0097628245;-0.027207969;0.13750105;-0.14770131;-0.006076102;0.22887652;0.26800594;-0.07104499;-0.17815405;0.01923698;0.41558766;0.13579223;-0.021289516;0.05349993;-0.45263368;0.001626893;0.081445225;0.35420427;0.14031918;0.28632066;0.030952517;-0.055454426;-0.02991831;-0.28308722;-0.14377847;-0.25313693;-0.24712439;0.19272171;0.0015786944;0.009243851;0.017084114;0.13431154;0.027187886;0.24689388;0.08347234;-0.3848549;0.021155741;0.09340347;-0.023363382;0.019332899;-0.17855594;0.23924188;-0.20220976;-0.014230626;0.2228926;0.024757372;-0.17872836;0.13120034;-0.05731717;0.09147981;0.511276;-0.05687396;-0.11063363;0.22297291;-0.14191097;-0.33579773;-0.16578685;0.052065104;0.00954511;0.02042726;-0.028133268;0.048667036;0.05321442;-0.00077956944;0.009206864;0.13974123;-0.7103195;-0.17137015;0.009684114;-0.00020346821;-0.0039966907;0.04904372;0.13643385;-0.75772256;-0.4765627;0.23619263;0.045847625;-0.0027352343;-0.2702048;-0.30190536;-0.29381886;0.006664657;0.0004059718;-0.22299565;0.18442258;-0.1047148;-0.02545329;0.046451714;-0.2065521;0.029602729;-0.0077546514;0.07033978;-0.023193745;-0.43565252;-0.038849022;0.11069356;0.05766257;0.0057195984;0.029431751;0.011193758;-0.019063467;0.012270088;-0.0038101776;-0.017953672;-0.0074734795;-0.13135637;-0.07020871;-0.17633408;0.0013239796;0.35728317;0.00020212859;0.21845043;-0.026046045;-0.07734682;0.069906384;0.006658478;0.0011023706;0.14889808;0.115350515;-0.0035719397;-0.013538371;-0.073187634;0.08100886;0.0029413442;0.1302231;0.061869267;0.010293755;0.00051208935;0.17878842;-0.008302197;0.07232321;0.021679971;0.010093912;0.006080679;-0.22280452;0.23942204;0.0077087577;0.1500016;0.22579134;-0.010538951;-0.14922903;-0.107227996;0.0045550335;0.056934975;0.107376546;0.012608394;0.03533123;0.011450103;0.00045506912;0.12283977;-0.47153658;-0.0030148136;-0.047461823;0.0071511758;0.16593464;-0.2836237;-0.0054529193;-0.0025243228;-0.09552103;0.08864279;0.2014972;0.07417998;0.12354982;-0.06388127;0.16102529;0.32954732;0.12607981;-0.36660728;0.004895176;-0.0037523578;-0.0019722865;-0.0062403064;0.1445924;-0.35964066;0.006173932;-0.064143576;0.18128633;-0.04359376;0.01790808;0.0045075184;-0.05654769;-0.18120468;0.2689502;0.22465697;0.19223428;-0.1531802;0.012252286;-0.01191064;-0.02897675;0.22747974;-0.0515548;-0.40426284;-0.0538141;0.026616544;0.24358301;0.023149729;-0.24850234;-0.6260551;-0.08600849;-0.11525799;-0.014227213;-0.3057039;0.14776413;-0.010056733;0.016607193;-0.015382835;0.35552928;0.022190893;0.0028400093;0.0025758005;0.08961634;-0.009846692;0.13147874;0.15940644;0.06467258;-0.098375626;-0.036564685;0.1938387;0.0010555319;-0.51526195;-0.0042252988;0.3172511;-0.03716921;0.1026315;0.0010214231;-0.19352749;-0.16022177;-0.20840807;-0.18272437;0.10508608;-0.019493923;-0.1032874;0.007712228;-0.123164736;-0.34332994;0.0066880453;-0.0109573435;-0.005483343;-0.012887675;-0.004296154;0.312047;-0.43695354;-0.2333465;-0.010881951;0.0051564956;-0.51325685;-0.086582445;-0.124044694;-0.11103445;0.11832474;0.010131762;-0.24249524;0.18937;0.4042816;0.29948664;0.3006429;-0.29800808;0.0057560774;-0.27466583;-0.013896973;-0.031172894;-0.0030810318;0.17098732;-0.22127132;0.19248681;-0.19304077;0.024754852;-0.0866478;0.0065018986;0.0798705;-0.29627365;-0.0081098;0.18083756;0.37890178;-0.08777819;-0.15483335;0.0056708255;0.16580597;-0.08540751;-0.048963714;-0.21778095;0.036141332;-0.25946838;-0.42499748;0.37312907;0.29212064;0.013075617;0.2398706;0.04721913;0.00550572;0.07678623;-0.1625465;0.007815684;-0.006306132;-0.2047762;-0.48858416;-0.004615119;-0.044887092;-0.0034555031;0.096463665;-0.04048814;-0.43015432;0.03332153;0.10039884;0.34004962;-0.00435582;-0.18732849;0.09257091;-0.01458585;0.0024058283;-0.035137612;0.0036574278;-0.08975099;-0.26314887;-0.024237273;-0.032850627;-0.009046538;-0.015744492;-0.015733395;-0.012815585;-0.009899704;-0.015206663;-0.077908985;0.0029416047;0.31066084;-0.0015985391;-0.041055195;0.007975255;-0.27095613;-0.13491245;0.08871795;0.049317468;0.009112408;-0.08267785;-0.0007733238;0.012757994;0.08053124;-0.31612715;0.27122688;0.08369253;0.25747514;-0.18344869;-0.4168397;-0.0089130085;-0.0018764519;0.051831655;-0.0018035852;-0.002794377;0.11983201;-0.015046453;-0.01921599;0.19148497;-0.11216438;-0.091873884;-0.4032626;0.24089098;-0.011842077;-0.14951816;0.016526187;0.0040107872;0.0042450516;0.054727435;0.08397175;-0.16964336;0.08341396;-0.11239743;0.016107345;0.010994818;0.05919089;-0.089253925;0.01839014;-0.06779118;-0.057365533;0.009297529;0.026658293;-0.013052222;0.03330334;0.158787;-0.122368716;-0.0032770154;0.0023563022;0.18640509;-0.14355148;-0.023553425;-0.3075858;0.10701158;0.013146197;-0.067006715;0.003621175;0.059918273;-0.20989828;0.23615701;0.0060054157;-0.0011087625;0.10257903;0.13858156;-0.1315315;-0.043283533;-0.018624134;0.15117942;-0.17358409;0.01631707;-0.028873393;-0.43322217;0.110058;-0.04879917;-0.017714735;0.04131705;-0.30776864;-0.46927592;-0.08157514;-0.5130372;-0.051781073;0.29131624;0.01005582;-0.004532507;0.0061438424;-0.088533364;-0.25314146;0.0061311326;-0.024396861;0.17578092;0.49914402;-0.01091671;-0.08367446;0.116652854;-0.1999277;0.0049315304;-0.019319346;0.0046427725;-0.089119725;0.0010887746;-0.0013079804;0.010230276;0.2766705;-0.03131472;0.0006755954;-0.24830447;0.013177033;0.01650674;0.2428354;-0.0066195973;-0.03205254;-0.31163603;0.0015661065;-0.22922161;0.27997747;0.26582554;0.18596597;0.050215982;0.04306007;-0.15368907;-0.008969409;0.029914524;0.05093571;-0.17080103;-0.06536835;0.19085884;0.11613277;0.0022101405;0.023347026;-0.2370451;-0.21944784;0.007888558;-0.0032256397;-0.008388834;-0.47647732;-0.11729953;-0.12624474;-0.044590972;-0.21088871;-0.0022757452;-0.32176572;0.020584144;-0.32050776;-0.46865204;-0.0077992617;-0.017331436;0.47524554;0.13915528;0.00022412148;-0.012896008;-0.03031876;0.121729776;0.45351067;0.058852136;-0.23578377;0.01166772;-0.02163012;0.0138024185;-0.1625018;0.2172347;-0.003922946;-0.013701086;-0.22271408;0.01225529;-0.055563893;-0.0009433426;-0.019037418;-0.10197692;0.20205362;0.010803139;-0.010085616;0.017369196;-0.3198093;-0.20103689;0.034384858;0.45529816;0.01561204;0.27793756;0.16813503;0.07266744;0.009653774;0.3026722;-0.08251977;-0.26212314;-0.020681186;-0.041919194;0.010434517;0.043227863;0.018067403;-0.16105175;-0.11164979;-0.16345263;0.12086232;-0.252114;-0.0039990745;-0.039544567;0.006607113;-0.013759306;-0.049104773;0.026271725;-0.3470137;-0.09331335;0.011111484;-0.0023379535;0.0041565;0.012852254;-0.16614202;-0.12075736;0.015158502;-0.018276887;-0.003215061;-0.11295065;0.24014507;0.108868666;0.48340943;0.010428049;-0.17101103;0.31576744;-0.15518208;-0.005208724;-0.0219652;-0.20852196;-0.04745077;-0.22466451;0.20984372;-0.024329385;-0.26785675;0.051530592;-0.01710919;0.030892976;0.4683177;-0.28766137;-0.64594054;-0.101319775;0.0104041975;-0.0020922527;0.0065816534;-0.24224347
-0.0038742314;-0.11112276;0.114009835;0.0067196065;-0.0029515473;-0.23609674;0.010517451;0.0058581987;0.40600586;-0.0996271;0.014578421;0.23272145;-0.051009297;0.03981797;-0.16832978;-0.008722567;0.38071254;-0.11262361;0.0041296347;-0.047067776;-0.41283706;-0.002905854;0.12306295;0.42085642;0.2201076;0.1712345;0.2214616;0.35745615;0.030193958;-0.32386327;0.017311709;-0.36709467;-0.24858728;0.22322159;-0.0028662689;-0.009488996;0.19554743;0.16950616;-0.25854006;0.35837755;-0.003249219;-0.4227278;-0.19850838;0.009350392;0.015711438;0.1612383;-0.102128;0.46786147;-0.16325903;0.012219511;0.39489445;-0.0083942255;0.013990114;0.24033506;0.016118458;0.05255567;0.21166098;0.015271834;0.1137068;-0.095820494;-0.34717587;-0.2327222;-0.028373038;-0.12352567;-0.0016071176;-0.010601899;-0.077110834;0.054269172;-0.26021275;0.001265505;0.0031454265;0.12722239;-0.7190819;-0.12518874;-0.013581107;7.283478e-05;0.0063280216;-0.122663386;-0.19537304;-0.3416347;-0.40716517;0.3566002;-0.005797709;0.006482511;-0.016521547;-0.15655328;-0.27140677;-0.0031767294;0.16405435;-0.1645359;0.21189868;0.0311885;0.0439475;0.117610335;-0.2527262;-0.025395337;-0.004194641;0.083928496;0.013254396;-0.5019311;0.008621468;-0.03174571;-0.31941321;-0.005043254;0.5807605;-0.009468566;0.0078058136;0.0017849519;-0.009237179;0.34999633;-0.092327245;0.012950461;-0.014452896;-0.3978326;-0.001116622;-0.06604513;-0.0032308775;-0.045410227;0.010945749;-0.03570905;0.118816055;0.21512532;-0.0131536545;0.15164924;0.2537679;0.0019739727;-0.00199952;-0.041676827;-0.42556974;-0.0012713551;0.19179761;0.13328786;-0.13133487;-0.00042659085;0.2747604;0.00978634;-0.1640414;-0.011134734;-0.009011529;-0.003558405;-0.17167899;0.3495903;-0.0033927255;0.021328816;0.34142616;-0.18564248;-0.2505617;0.14290188;0.0042165453;0.11908741;0.26877138;-0.04090146;-0.020974582;0.13234541;0.0092390375;0.098092;-0.37369192;0.001994371;0.032446463;-0.0046611456;-0.11006602;-0.26854196;0.008284984;0.009466124;0.19887458;0.11214833;0.4079075;0.031628154;0.38538152;0.4331049;0.0945177;0.48007578;0.12413468;0.012309163;-0.0016346865;0.002032001;0.13422923;0.0051912325;0.24831624;-0.29837716;-0.007783228;-0.17582239;-0.03725195;0.1977658;-0.007253276;0.00049678073;-0.049365222;-0.3001158;0.3424563;0.20465589;-0.038062666;-0.52921665;-0.0040177316;0.004039564;-0.13294767;0.24730577;-0.15650675;-0.63200593;-0.22187911;-0.18285185;0.3144523;-0.05538349;-0.19688874;-0.6376701;-0.37537763;-0.0755027;-0.00046828712;-0.027367793;0.15073986;0.008328956;-0.010683588;0.011133719;0.52333033;-0.016011316;0.0033074;-0.002130113;0.17186318;0.0065590837;0.08863893;-0.013537301;0.4990116;-0.19447836;0.33275637;0.29482684;-0.003913987;-0.29816875;0.010529938;0.2963162;0.007836861;0.10584899;-0.0050080563;-0.27691403;-0.091471925;0.039538544;-0.2721105;-0.1386064;0.03420364;-0.11180829;0.00032215918;-0.18176202;-0.51182085;0.3250777;0.00550473;0.09337407;0.002840253;0.055106137;0.24445023;-0.5515585;-0.42344978;-0.005720087;-0.010626832;-0.43366072;0.013815343;-0.1684116;-0.0747437;-0.030731963;0.013716093;0.0018443275;-0.19710366;0.24720208;0.48705316;0.6374019;-0.3159342;-0.0021721541;-0.36309507;0.008043749;0.078538954;-0.00038106253;0.057063702;-0.1424827;0.29956302;-0.13035196;-0.0059008123;-0.12257122;-0.004496685;-0.011924136;-0.36667675;0.0046648006;0.04690316;0.60279584;-0.1790273;-0.11976569;0.008352654;0.1969764;-0.2147622;-0.1836124;-0.42916015;-0.016868807;-0.32694876;-0.66633815;0.47159064;0.33148232;-0.0047116787;0.165216;0.07354184;-0.01145924;0.13058443;-0.44743735;-0.017180895;0.007083079;-0.14845367;-0.3074865;0.00015559582;-0.42229173;-0.007849448;0.06692671;-0.018859021;-0.3292575;-0.0026228959;-0.04056054;0.33114567;0.017707082;-0.04816562;0.17378165;-0.0978661;0.36051056;-0.19978647;-0.0012859125;0.007918409;0.103023045;0.009848349;0.0074009444;-0.08040075;0.0076146587;0.0262342;0.0004362225;0.00041187537;-0.018321257;-0.13803102;0.0037289588;0.28478515;0.0044715013;0.09470536;-0.006660058;-0.20441873;-0.037316646;0.13036086;0.11513001;-0.0028081571;0.18436116;-0.0046581;0.0036335438;0.02175113;-0.5918564;0.4016893;-0.09216961;0.23213758;-0.082179494;-0.293035;-0.006077066;-0.00656086;-0.0031726798;0.0026826058;0.00020208584;0.34455767;0.1302554;0.009924564;0.19883324;-0.353996;-0.13737105;-0.5081975;0.35621014;0.0020546457;0.005557845;-0.007710586;-0.006742568;-0.0040689493;-0.11119451;0.011201107;-0.140438;0.045198552;-0.07168015;0.060763273;-0.011040967;0.15276837;-0.24870826;-0.0021370007;-0.079142116;-0.029301198;0.0017563519;0.18150687;-0.14289622;-0.009433857;0.016303731;-0.5189149;-0.0040614787;0.00713342;0.42148164;0.11467803;0.012689985;-0.20150428;0.29859072;-0.0033112278;0.07720126;0.0014434557;0.07604053;-0.049415525;0.15033722;-0.0042939745;0.0006464119;0.15026031;0.37518638;0.33341315;-0.13467254;0.17461091;0.1560208;-0.10754945;-0.077317655;0.015457571;-0.32879034;0.25635663;0.07961297;0.0058959993;0.2708262;-0.12652454;-0.25923806;-0.14234287;-0.50074065;0.11501956;0.4380219;0.0059216768;-0.0029235552;-0.00800477;0.005485912;-0.41917515;-0.0023459287;0.10444665;-0.14425737;0.5588431;0.0075447233;-0.10728453;-0.084586695;-0.16837764;0.00306692;0.005230107;-0.014178663;0.16138974;-0.1552612;-0.0038679887;0.03051773;0.20577125;0.0024444382;-0.119554475;-0.18436483;-0.0036399642;0.3455274;-0.13744627;-0.001601118;-0.007216877;-0.35444927;0.008061098;-0.097503215;0.51978004;0.2582688;0.10937718;0.06492861;-0.40137687;-0.32317922;-0.0074355346;-0.00063079246;-0.29727706;-0.006133022;0.09044751;-0.084839575;0.58646417;-0.0011051396;-0.0017322862;-0.07914828;-0.19175191;-0.0002506574;0.14790297;-0.011569361;-0.15113448;-0.08207979;-0.323148;-0.30650252;-0.32756856;0.008038061;-0.23489027;-0.0039710286;-0.7220347;-0.4778687;0.0066370578;0.007987812;0.6291404;0.2924935;0.004138504;0.00055997097;0.010450631;-0.0054036276;0.6276072;0.046897043;-0.19274229;-0.0091762915;0.004122356;-0.1063802;0.027486168;0.80689365;0.010851312;0.012489004;0.029711062;-0.012085069;0.067973316;0.009617417;0.011040375;-0.03257328;0.2329256;-0.009935981;0.011537841;-0.0047948714;-0.28946495;-0.44287515;-0.017077368;0.29278544;-0.010844339;0.3360417;0.21785146;0.051327564;0.0016684332;0.05599095;0.017681269;-0.2899973;0.011650686;0.021420615;-0.01324096;-0.09841558;-0.00052461383;-0.324577;-0.012052539;-0.29961938;0.030922554;-0.45053273;0.0023401172;0.03150991;0.008905488;0.0658739;-0.031059522;-0.13838854;-0.512533;-0.14697848;-0.00027968967;0.0043634702;0.0015824549;-0.01002883;0.24363096;0.12612033;0.21054262;0.00952598;-0.0036144378;-0.11095104;0.18807746;-0.17582816;0.35828;-0.014982274;-0.41924644;0.71081537;-0.20756054;0.0064029167;0.012357727;-0.10227007;0.49962634;-0.21796823;0.24195437;-0.0045737163;-0.37143007;0.14644976;-0.059515394;-0.013452701;0.32789725;-0.46425602;-0.71507835;-0.024447154;0.17435776;0.005501504;-0.003440282;-0.39956316
-0.026086843;-2.7639296;0.8742249;-0.0041587553;-0.005969781;3.1028516;0.015603103;0.047876146;-1.1935556;-1.3115181;-0.0107084755;2.4170804;1.9324954;-1.5450228;-1.4702927;-0.0318896;0.6707236;-7.0825696;0.09681645;0.077424414;-1.473297;0.0156058865;-3.1789575;1.7362431;-1.8772829;-2.2472644;0.7900397;-0.24157502;0.5205004;1.6895449;-0.8033634;-2.7146015;4.0386586;-4.408981;-0.02033157;0.006908092;-4.183983;1.314485;0.23801093;1.4682848;-0.09002706;-1.0319601;3.6094258;-5.065989;-0.027071314;-4.11848;1.3454828;0.44290757;1.4506007;-0.023717375;1.0554978;-0.04136649;-1.5625519;1.2089678;0.4879765;1.1789845;0.40381342;-2.2870228;4.617419;0.8432507;-1.9376765;2.6570063;0.63772774;0.1555159;-0.033845928;-0.007597232;-4.2907205;-0.16181853;0.6259903;0.0050379313;0.012371335;-0.8408161;-2.1255913;0.45628133;-0.0069154003;-0.09555001;0.03917072;2.5331964;-1.1513323;-2.0532718;-3.5601962;-1.258766;0.12938726;0.04312815;-1.0472401;-1.4203339;-4.6221642;-0.035433117;-0.677877;1.9772134;2.1411288;-1.5340184;1.0863211;-0.81714994;-1.4679825;0.14151639;0.17046063;0.063684784;-0.0003618427;-0.2756819;0.2972405;0.331552;-3.7130215;-2.0759879e-05;2.781401;0.05186292;-0.0024574709;-0.010816193;-0.047612607;1.0993843;-0.5207971;-0.16224848;-0.18294059;-0.03536959;0.019767266;1.7725387;0.009672601;1.4745817;-0.00258469;1.117418;-1.0135581;-0.7079194;0.022990614;0.01109494;0.02842187;0.023320805;0.019159086;2.7600796;-1.0083593;-0.035988346;1.9851778;2.568214;2.988086;-0.010614156;-1.3220861;0.043833427;3.1983604;0.04656092;0.010403585;0.035939515;1.638973;-1.1282964;0.025739605;-1.0503286;-1.9419243;-2.3010733;-1.2086111;-0.8595308;0.015084982;-0.64641213;-0.27299303;0.15138113;-0.06760653;-2.2214248;0.058754988;-0.65433043;-3.0121217;0.057212055;0.020083502;-0.001709688;1.4541166;0.29103857;-0.028049827;0.027234206;1.7625412;-4.7470264;2.0909467;1.7868854;-0.9860369;-2.9117603;-1.1144528;0.8519387;-1.0416118;-2.7615805;0.00959803;0.035036188;-1.2797841;0.007287988;1.8713958;-4.163867;0.025690366;-0.040326033;0.43987113;-1.750446;-0.020288177;-0.016799424;0.8557591;0.394731;2.958041;-2.5303571;-1.1321663;-2.3018956;-0.014201136;-0.029169142;0.90415233;-0.10757292;1.0891047;-0.43583357;-3.2052252;-3.1386728;-0.37166134;3.8578756;0.7003586;-0.1280725;-0.60373706;1.1100856;-0.028502418;2.6772666;-2.9181173;-0.023918215;0.036241397;-0.013167059;1.273231;-0.14483026;0.026243107;0.0599662;-12.213643;-0.008793634;1.9080392;3.3855624;-0.35615608;-4.318315;-2.36485;-5.66447;-0.014943893;0.9260758;0.035073034;0.0025793088;-0.004656789;-0.1283678;0.0078048077;2.484535;2.5731287;-3.390199;-0.6338292;-2.0894094;-2.9896233;-0.707774;-0.0044533364;2.4000392;0.4053063;0.27268964;0.017479265;-0.8042464;-0.024068242;-1.8443345;1.731885;2.7870328;0.86497843;0.41954193;0.02315208;-1.0628705;1.7149088;-0.458146;5.719854;-0.79662657;-11.118759;2.1991491;0.34653974;-8.3156185;2.4868586;0.1615805;1.272663;-0.003666393;1.37538;0.05053077;-1.3444123;-0.016953401;1.2786418;0.07212458;3.4500494;3.711897;0.05759622;-2.4338741;-0.015542785;0.23645934;-1.3002211;-0.119680665;-4.004854;1.3902699;-6.3029037;0.30397773;0.0064442693;-2.6019533;-2.150767;-0.31092596;1.5442274;2.1691148;0.5565631;-0.48591948;2.3059523;0.8115154;-0.0011569221;-5.119972;1.2911882;-0.05962005;0.02604112;-5.246529;0.19019048;-0.016389064;0.13999163;-0.5907668;0.021532169;-0.8153415;-0.019944543;-5.720512;-5.749705;0.33078727;-1.4022567;0.5812057;-0.58308625;0.10382019;-2.3364236;0.50055593;-1.4153872;-5.443048;2.6155891;0.005511833;-2.9307313;1.7639127;-0.020693509;1.0052258;-2.8974054;-0.06419487;-1.4934467;0.027384773;-0.03458415;-0.12385099;7.549402;-0.038551956;0.28903455;0.04699411;3.2322552;0.0014618798;-0.15335187;-0.19576089;1.2062246;-2.2844267;0.029037682;1.3952495;0.017027183;0.063274406;-2.3639357;-2.058583;0.876525;-1.2004936;-4.0459456;-2.115475;3.0780444;-0.001749057;0.038495094;-2.9401546;0.03884786;-0.76508385;0.4166725;-1.0825726;0.01674856;0.80939794;0.023490803;-1.5493431;-0.13806514;-2.249512;-0.013269435;-4.060437;0.015832277;-0.023472568;0.04678911;-2.806643;4.572688;-0.83777755;-2.952156;-3.884962;-0.5538468;-0.028611504;1.9649267;1.4312508;-0.0033610181;1.9935433;-0.9636019;0.023554008;2.929147;0.79417646;-0.03007295;-2.366695;-0.76000875;0.0025140005;0.045994323;1.7559707;0.99018663;-0.012020756;-0.22720607;-0.24831527;0.021349078;1.0432962;-0.018924767;1.4839171;1.1430304;0.3646244;0.038986757;-0.047626484;0.029930195;-4.035097;1.5455049;-2.5283895;-1.9880631;-4.783537;-1.330839;0.53777367;0.040100195;-0.44346297;-0.4672317;-0.3147892;-0.035455067;2.123876;-2.1968918;3.2535934;-1.3632995;-0.32619527;0.02736916;-1.5276071;-0.009380821;0.009626866;-0.035283133;-1.4392003;-0.48276457;-0.0005520121;-1.9115636;0.58090186;-1.3166782;0.019289102;-4.0024686;0.6971157;-1.3164841;0.018462228;-0.007281219;-0.02476132;0.5172211;1.3531291;-0.0502505;-2.7977726;-6.004947;-2.685289;2.0229347;0.87348956;-0.018502342;0.78041047;3.6853015;0.052431844;-2.26755;-3.6335816;-0.011542381;-6.342895;-0.6784607;-0.44163713;-1.7901062;-2.3765187;3.1483252;-1.420886;0.003434976;0.038774163;-2.4831579;-0.83143896;1.1155956;-13.757451;0.8275419;-0.008614653;-13.330923;0.6528888;0.64195323;-0.035432376;0.9474316;0.054007296;-2.6091325;1.252395;-0.5029577;-2.3362594;1.5339645;-0.0041550817;0.0378687;-0.01170834;-4.3999486;2.5727613;0.024375621;0.031918667;-0.54348767;0.78864616;0.014132542;0.031964324;0.12390953;2.4918628;2.9540534;0.15638857;0.9925146;0.08658782;0.0019274381;0.0014996079;0.7537704;-2.048277;-0.001660307;0.028001849;3.708441;0.06286883;-0.75147176;-0.0091788545;0.02034893;2.774006;-2.4671335;-0.034264784;-0.037910834;0.035713945;0.36224997;-2.6141531;-0.21412466;-1.8592373;-0.00494376;4.3386803;0.7863105;2.1394322;0.01192566;-5.811577;0.20987181;4.1515985;0.02514499;-2.3011656;-0.037556473;2.787679;-0.04321323;-1.8147448;-0.63916206;-3.6846576;1.1073946;-2.3468215;0.043167897;3.6766691;0.032897793;-1.6843491;1.401655;0.11097542;-0.938262;-2.3518076;0.049070034;-0.013423995;0.01581778;0.00817236;3.5269787;-0.7906896;1.9701347;0.016679596;-0.012854008;-1.9378886;-0.69766223;0.67775774;-1.8917836;-0.019953035;-2.4524922;1.1858959;0.5335773;0.027107593;0.010061592;-2.8320968;2.154141;-0.536499;0.7034617;0.013442876;1.0211577;1.62181;-4.540595;-8.830433;-0.46020997;0.9608414;-2.4034743;1.1372359;0.19234443;-0.008445776;-0.018047428;0.0072365287
-0.019204352;-1.3700621;1.6340292;0.015965406;0.03821028;3.2572718;-0.012391076;-0.009869642;-0.704088;-0.767513;0.008586011;2.4538405;0.9013373;2.8232532;-2.6195152;0.003633695;-1.1577178;-7.911979;-0.040515386;-0.027349738;-5.929507;0.04480968;-3.2998362;0.9433422;0.23278457;-2.5898519;2.101174;-1.7751707;-0.1700675;2.640214;1.0725414;0.44238597;2.7969992;-0.32728842;0.042792387;0.027774796;-1.9984484;-0.056288008;0.16584311;0.7217565;0.17349309;1.1235554;-1.5338961;-2.2654035;-0.0038759238;0.59159446;3.0742278;-2.4087834;2.6258545;0.018292395;-1.1751176;-0.018020311;-0.48548353;-0.5265076;-0.37812424;-0.5828466;-0.32500938;-1.6578878;1.8721578;-1.4450574;-2.826312;3.356479;-1.06367;-0.7091918;0.070655644;0.012100333;-3.5772643;-3.5257673;0.5844811;0.022102376;-0.012030184;-3.8211472;-2.662501;1.6782568;0.009786272;0.36439532;0.029095909;2.2561948;1.8908433;-1.535113;0.042131584;2.2695267;-2.5506022;-0.057644427;-1.7160513;-4.44814;3.2560022;-0.0317032;-0.44940346;3.8404121;2.3486526;1.5907768;2.91806;-2.4256577;-0.65252095;-0.09933765;-0.019490562;-0.121296085;0.013359218;-0.31253624;0.46505982;-1.3381362;-2.8605337;-0.004809837;1.7390732;0.017779145;0.006470733;0.0044878433;0.032444987;1.2902204;-2.2068837;0.37277064;-0.029579183;-2.4667568;0.0048953374;0.54590416;0.04397646;0.039875664;0.042452924;1.9741104;0.1878217;0.4593951;-0.0047758548;2.0648737;2.7491696;0.037062015;0.014191585;1.3215005;0.94156384;0.0018379344;1.5547241;1.6325741;4.0358005;0.014757301;0.81566644;0.020163035;-1.1475203;-0.013207621;-0.040070128;0.0109855905;-0.5236693;-0.424763;0.03182688;-1.4126996;-2.3124995;-0.5258754;-6.06159;0.16748975;0.010683126;-2.6139739;0.13479985;2.6951234;0.10811977;-0.09848236;0.036795832;-3.132211;-1.1952497;-0.03334511;-0.017072933;0.08529273;-0.85250914;1.5136821;0.023165816;0.025663441;0.6845261;-4.512509;1.7241898;1.7444521;-2.5354354;-2.8400211;0.35488153;0.40469983;-2.0770726;0.86880976;-0.025607321;0.011228073;-0.93209165;-0.0036252907;1.9989828;-0.19765158;0.06555969;3.1521206;1.7000903;0.5439254;0.050106704;0.026117953;-0.33469623;2.1804;2.8707426;-1.5135186;-0.9826546;-2.8544593;-0.028802019;0.03107863;-2.7603652;-2.466137;1.8966317;-1.2658191;-1.4464124;-2.9253802;2.8720021;1.5250052;-1.8275522;-0.30117548;-1.412668;2.999878;-0.017981978;4.494419;2.9893181;0.025329463;-0.00663647;0.061227016;-0.7229144;0.59572184;0.015170987;0.007831098;-9.998296;0.026839145;1.2846277;2.2837584;-0.51342094;-3.5227618;2.2875793;-5.1067896;-0.035088945;0.87902564;-0.03467287;1.6586701;-0.018245297;-1.259678;0.0016464514;1.8333788;2.5137174;0.66727364;-3.5719576;-0.23360002;-0.8594373;-1.8947905;-0.004051919;3.7400696;0.36396998;0.68370044;0.0334676;-0.31332925;0.019938815;-3.8911483;0.64703685;-2.4394732;-1.5346035;-0.081492335;0.05196725;0.3244887;1.9677852;0.040229544;5.782721;2.6723177;-15.925914;1.7909756;2.2266538;-6.380947;2.2372806;3.1557393;1.0537701;0.03652756;1.6286461;0.006793902;-1.4053545;0.04993345;0.662508;-0.6219852;2.6119227;1.5086308;-0.02353725;-2.4467993;0.022004269;-0.036713973;-0.16627769;0.6141311;-2.4587004;-0.31074563;-5.414255;-0.48386723;0.020526579;-1.3666521;-2.853704;1.0182616;1.6443174;-0.14681438;-0.23787221;-4.296431;1.4588313;0.0455561;-0.0024464289;-3.4421132;0.9321761;-0.005327388;0.7084767;-1.2669666;-0.088105306;0.040688552;-1.8441247;0.6460818;0.03045292;1.8401296;-0.035472054;-1.7514035;-4.8847475;1.1233329;-2.5514743;-0.25312954;1.1100843;0.001818123;-6.434993;-0.63966334;-2.6182282;-3.375505;1.9315892;0.01181284;-1.8407483;-0.19078913;-0.008335822;-0.50191265;-2.8629274;0.01756598;-3.5058312;0.0020295745;0.054635014;0.038419463;7.6583786;-0.010038821;-0.18257779;0.015452792;-0.92342037;-0.04432467;1.7663773;1.5431758;1.8737152;-2.5607874;0.022927618;0.24713583;0.02621871;-0.030812511;0.14246388;-1.0439893;-1.3071117;0.8742043;-2.2243397;-1.6685878;0.5320356;-0.008400549;0.014868229;-2.1609192;-0.061948806;1.1603088;-0.4587649;-1.5638604;0.034238156;-1.135222;-1.2850096;-1.9482955;-0.774689;-5.358108;-0.010272194;-2.9748302;-0.00113605;0.010496074;0.018452518;-0.80149484;5.0802665;1.0324234;-5.9729567;-2.0104806;-1.6759179;0.034124497;0.7684495;0.6470127;0.029650211;1.2113057;0.17930155;0.04412558;1.7189837;-0.07023036;-0.055382743;-2.7220514;-3.5604422;-0.03116014;-0.17595838;3.5800345;2.5082028;0.0065471414;0.07187861;1.4260113;0.0017977392;-2.0001028;-0.051922627;0.57598037;-0.838767;-1.2956216;0.06615421;0.05752535;-0.2072454;-1.9134241;1.7308581;2.6505685;-0.20343296;-0.004667233;-2.4746916;-0.79007095;0.0019145532;1.1675414;0.07374341;0.1997905;0.044765346;-0.29138398;0.66180336;-0.23722266;2.1931698;-1.157564;-0.9164106;-2.903066;0.00028996443;-0.006671201;0.04288664;0.309786;3.0829668;0.0196142;1.5614061;1.592015;2.4356499;0.015186774;-0.4980786;1.2555873;0.014681988;-0.0026909325;0.009946031;0.06691114;0.9407428;4.2284284;0.03297203;-5.4401646;-5.98232;-6.6506724;3.5669467;-2.067487;0.033748366;1.1321069;1.9367254;-0.04446742;-1.1749827;-4.058759;0.034530688;-1.6949848;0.5562233;0.33559293;-1.8137134;1.2675922;0.34371692;-1.4336147;-0.04020154;-0.004494642;-2.244091;0.83484524;2.4534707;-14.862599;-1.7933716;-0.036915995;-15.435884;1.5059352;1.2929296;0.022128642;-1.2805793;-0.028631175;-2.2984755;1.5466634;2.5149503;-1.2286681;4.9440117;0.03400685;-1.4766858;0.0028723383;-3.4383192;1.3871809;0.003799248;-0.01120235;1.882786;0.72713655;0.023853904;0.028938314;0.45586407;2.149671;3.812514;-0.7817355;1.8060123;0.03032203;0.021050422;-0.48531058;1.926583;2.0399022;-0.05551136;0.0073722047;1.9955629;0.03085273;-1.4462664;-0.0066511296;0.06775412;1.4692723;0.52014744;-0.03042041;0.0020639596;-0.006838263;-0.23155734;0.19248122;-1.4623475;-0.78233695;0.010679001;0.19781561;0.45565936;0.43838236;0.013373297;-2.5026317;1.0614203;2.9539654;-0.009035865;-0.13089229;0.013907421;1.033387;0.001001738;0.16932788;-0.051028464;1.6269165;1.3618149;-0.7578892;0.0407611;4.8659544;-0.030904746;2.9723914;-1.9462693;2.0893703;1.5488942;0.06057957;-0.004654367;-0.0033033893;-0.019682653;0.044084586;5.067122;-1.2619245;-3.6124496;0.04550996;0.032344773;1.406059;-0.007220243;-1.9673034;-1.0908933;-0.028680153;-1.2622278;-0.010644989;-1.4592445;0.018723974;-0.0066595348;-3.3447971;0.76389426;0.32887203;-2.2837815;-0.019237705;-2.1701458;4.5981293;-1.7473505;-12.292965;0.16452728;1.2197901;3.2972612;-0.07989823;-1.2610016;-0.04295354;0.034889687;1.2727413
-0.028940799;-1.1917187;1.9307305;0.0151209105;-0.011717952;3.8334517;-0.017200924;0.038308114;-0.040400382;1.2868752;0.003597701;3.878041;1.3450885;1.4277465;2.1809528;-0.010905343;-0.90369093;-6.705368;0.06781149;0.12406438;-4.990397;0.007926494;-2.4693964;-1.3733149;-0.40130183;-1.6863908;2.393329;0.59927195;-0.06380527;3.6430085;3.4455757;-1.1703787;2.5112326;1.3930793;0.048736833;0.005132193;1.5384958;0.43733028;-0.30482918;-0.15673818;-0.03710099;3.2669926;0.99881244;-0.91162354;0.011821201;2.37573;2.5460536;0.12045935;-2.1518755;0.02879237;-1.0966139;0.016139215;-1.0134563;0.29853445;1.839183;-1.4132777;2.7368507;0.6006694;-1.4858423;-0.577337;-3.556934;2.318234;-0.8906113;0.33162463;0.020669417;0.055443313;-2.0417984;-3.273085;1.2334082;0.007478281;-0.03556679;-2.9923792;-3.1069152;3.3917542;-0.014455632;-0.014906064;0.028801948;3.8266685;-0.39732876;-2.212226;-1.8208435;1.1655169;2.173662;0.039917395;0.2535624;-11.119931;-3.7630775;0.00955703;0.7153442;2.3802092;2.3983068;0.9883719;0.6097752;-1.43542;-3.0267022;-0.20358266;-0.008713932;-0.07987211;0.0230759;-1.2255815;0.7699344;-0.3217387;-5.4367647;-0.03344156;-1.9149704;-0.002452786;-0.005686716;0.04815525;-0.052187394;0.69512963;-1.1597055;1.5993005;-0.49866095;-2.250517;-0.007396484;1.1093311;0.029324578;2.4331567;0.048634764;0.03292878;1.3615149;3.258567;-0.013458202;1.0489805;2.0756066;0.0011474859;0.005398912;-0.7370703;-0.023473853;0.01417156;2.6826274;1.7411778;5.1297727;0.011157901;-0.5695252;0.02616928;0.6595347;-0.0018267122;0.051063646;-0.019152869;-3.6326606;0.42520356;0.029325789;-0.6261816;-1.6514642;-0.6400394;-4.8054075;-0.8774677;-0.0021027168;-1.9893161;3.041162;1.0879089;0.023071919;-2.1134844;0.01855688;2.2468793;-1.7540196;0.021652123;-0.008874476;-0.0048850174;-0.498991;0.7444431;-0.01815613;0.021289945;-0.6922912;-4.270691;0.59057355;0.27401608;-2.812175;-3.2451863;2.9441922;-2.261781;-4.742941;0.81338483;0.020656383;0.00034046042;3.4897738;-0.04004787;-0.49414143;-0.087789245;-0.046330042;1.6648192;2.3431904;1.1524333;0.03844652;0.014062368;0.22233866;-0.14088616;0.648788;-2.1300695;1.3131472;-1.9980147;0.021487588;-0.026588708;-0.5718171;-3.551112;-0.31510836;-1.6378806;-1.3610708;-3.5577238;-0.06357853;1.6702647;-1.5045999;-1.930031;0.73648715;0.51224726;-0.012741565;3.5838158;-0.30931765;-0.0076779206;-0.02487562;-0.010707572;1.8069667;0.08797304;-0.017645223;-0.03240087;-8.701909;0.040560942;1.6204667;1.252093;-0.034447383;-1.4393939;-1.7264155;-6.63029;-0.0032314423;0.011979986;0.015338116;2.811674;0.040171746;0.6078608;0.01750807;3.1228764;0.0059071844;-0.42942533;-1.8713579;1.5749528;0.55789346;-2.179087;-0.007017323;1.8059471;-2.354453;-1.3531897;0.00623132;0.44170517;-0.034279425;-4.2328753;-2.8315046;0.7845374;1.8103482;-0.04920371;0.012845048;-1.217891;-1.7659137;-0.9674422;2.91043;-0.25998935;-16.887997;1.5122757;1.6441637;-6.752483;-1.8000063;1.5538396;0.077503525;0.038819335;2.7109742;0.0022043814;-0.12887488;0.04976667;2.4681904;-0.230478;0.16755553;2.3644981;-0.018091522;-3.6730409;-0.0025714373;-0.24793549;-0.8287204;-0.12047871;-4.5423694;0.48958012;-4.032627;-1.584339;0.0451855;0.8332436;-2.777773;-2.4935775;0.5257981;-2.5384324;-1.9650263;-1.7289217;3.8918371;2.5619073;0.011102107;-3.7618358;1.1665595;0.05012363;-0.62939763;-0.1374115;0.011804619;-0.0051086564;2.4760005;-1.9607965;0.042991944;2.7993846;0.02402677;-3.5393624;-5.089956;-1.8146998;-2.2098095;-0.7126696;0.5080319;-0.07841254;-4.793648;-0.36307767;-4.7421064;1.302445;2.7434447;0.009581489;-1.1380514;1.5932652;0.0064824303;-0.44609937;-1.6570112;-0.05434536;-4.550334;-0.018269552;-0.060168933;-0.08658121;5.791088;-0.006358183;-0.11819847;-0.00030608015;-2.288187;-0.014400503;1.1505991;2.756875;3.1860151;-2.7238042;0.03305584;1.1593691;0.015855812;0.016607754;-0.5003683;-2.1161978;-5.654341;-1.1529753;-3.3522997;-3.2998807;-1.740905;0.03272013;0.044542145;-0.94004905;-0.005482939;4.762761;2.160118;-1.5555568;0.03826393;-0.7827654;1.7444105;-0.14102419;0.73686355;-1.9235;-0.027895864;-6.07207;-0.0142743355;0.009620428;0.12093253;-0.43726367;2.215027;2.5019855;-8.655442;0.35305223;-1.3350377;-0.03881751;2.9185395;1.258648;0.05024962;-0.8568354;-0.9409973;0.009157549;1.8185327;0.38514382;-0.4664217;-0.99615943;-2.1851869;0.010938642;-0.009572548;2.6117887;-0.39042246;0.01248183;0.7067088;0.081263915;-0.01809658;0.5364673;0.05766302;-1.2902846;0.9663792;-1.5113298;0.015094284;0.033337694;-2.3294425;1.8454405;-1.0384941;1.4369628;0.9082022;-0.084230945;-4.262415;0.7073538;-0.040034093;2.2995067;-1.0166209;1.4514784;0.006999124;0.74751323;1.9874383;-0.8686012;-2.6406515;1.9731932;0.07075698;0.35439584;0.01166568;-0.024884636;-0.05800145;-0.19892587;0.54301083;-0.039800204;-0.19471046;-0.20865478;3.6659582;-0.049975;1.5324998;0.9781709;-0.932671;0.034937672;-0.04700847;0.054395307;-3.3935804;2.7011375;0.00713858;-4.8947115;-6.4929786;-7.686862;0.3921993;-0.7929541;0.005355743;0.015873373;0.7045437;-0.008739657;-0.5793459;-0.716437;-0.025862945;-3.7965894;-0.20119403;0.7093945;-0.794732;2.5903552;-1.5995489;-2.1695752;0.04045011;0.06664562;-0.9997468;-3.3236153;3.0640304;-15.55198;-0.6366228;0.050096303;-15.340235;2.1270278;1.0966884;-0.0010071803;-3.5403924;-0.04150482;-3.5354688;2.7206635;0.2654347;-1.211507;2.7089078;0.031855654;0.5033304;0.029439311;-5.7339;1.3087577;-0.016072374;0.020653801;-1.4629563;0.50108093;-0.0022919015;-0.046972778;0.53425753;-2.3790877;-0.76951873;-0.23556957;-1.6901108;0.003724493;-0.012960683;-1.5804996;1.0834504;-0.21156974;0.0021285603;-0.020558102;-1.9304144;-0.009964205;-2.2598236;-0.05665957;-0.008849287;2.1712167;0.63226503;0.044107027;-0.027627492;-0.026366474;0.0036302526;1.3346132;-1.732352;-1.70713;-0.017425109;-2.1692386;0.9495123;0.45451173;0.037628;-0.46027434;-0.1049979;2.3140662;-0.2139351;-1.4398894;0.007487342;2.023705;-0.007077988;0.13215825;-0.84248906;3.5194461;1.154917;1.2707589;0.0161529;3.7139072;0.16793646;1.6788282;-3.6244636;2.2226532;0.5803222;-1.6621493;0.035786264;-0.0022553059;-0.025960047;-0.102194995;3.8223715;-2.533913;-0.24284098;0.031060997;-0.000410884;-3.4724715;-2.952689;3.2928863;4.599125;0.052335188;-0.25335556;-1.8057247;-0.40470356;-0.028714716;0.04587719;-0.00669467;-2.916922;1.3918921;2.440964;-0.02048294;-3.0298562;4.486127;0.5093739;-11.733873;1.5629727;2.9758167;0.9554388;0.49364173;1.5555109;-0.026344715;0.06415286;0.26164457
-0.17177624;-0.19485311;2.0010967;0.01443785;0.0053334115;1.1657349;0.0058016567;-0.0057785544;-1.4841096;1.6164913;0.0208142;3.391325;1.0420969;1.0987881;1.9748925;-0.021475498;-1.7757292;-6.0086737;0.0032102137;0.07220342;0.27973536;-0.0030735338;-2.1686926;-1.5315956;0.7089336;-0.35838434;1.6335007;0.5582241;-0.03713612;3.0786674;1.0934854;1.9005318;-1.2342644;0.35923222;-0.022306457;0.0357315;0.54378295;0.15631878;-0.15086983;-1.0447983;-0.041878305;2.78931;1.9466114;-0.7734902;-0.021217281;-0.5372342;2.520044;4.555098;-1.1636441;-0.06693829;1.0795398;-0.007064128;1.6852293;1.4716423;0.9243512;0.4088377;0.5791322;0.95929813;-0.68765974;2.2537115;-2.664588;-0.022817422;1.0065048;1.2263209;0.03737781;-0.011088591;-2.7516963;-2.7084801;-0.07117252;-0.0034295092;-0.060135804;-0.6446559;-5.219359;2.670755;0.0021886923;-0.07115719;-0.013516372;4.435435;0.44758606;-0.9953043;-2.0382507;0.6688508;0.97384375;-0.014619664;1.1042776;-1.8792285;-1.9211146;-0.03337044;-1.582322;3.2623572;2.204312;0.76698625;-1.3946686;-0.13108021;-5.8402014;0.3720004;-0.1299394;3.19555;0.026317015;1.7221636;1.5670804;1.2849259;-4.280458;-0.008575474;1.5356427;0.013051583;0.025135174;0.03149167;0.042759523;0.34158778;-2.3964424;0.86448556;-0.7242351;-0.83012664;0.038468406;-0.49330124;0.036735304;-2.2676628;0.020615129;2.4100564;1.491999;2.0789309;0.0021649192;2.9248965;1.135122;-0.033127323;-0.0013557477;-2.3163376;1.7674916;0.010248668;1.814037;1.673469;4.9922967;0.0003305817;-0.24675423;0.0017578984;0.12387188;-0.006642136;-0.027876034;0.05275421;-8.186328;2.6604648;0.030476676;1.0336775;-1.3158731;-0.5476356;-6.401574;0.90285224;-0.01939526;-2.000153;0.39027113;0.25199085;0.20686278;0.8542775;0.059807256;1.0289681;-1.5612961;-0.014931336;0.036302604;-0.017459592;-2.6010356;-1.1117283;-0.017674739;0.028072976;0.9938606;-1.7097855;1.7498041;0.792085;-2.1902199;-2.952524;4.700297;-1.1096824;-3.4214;2.6059306;0.028364494;0.012375535;3.0076756;0.01056377;0.7752017;-1.5544536;0.028484236;1.0837967;0.96157646;0.61835074;-0.032440826;0.038807474;0.38457793;2.0408845;-1.9408911;-0.77963454;-0.03477262;0.857326;0.017555008;-0.026380574;-0.35319647;-3.3333716;0.5562686;-0.011038753;-1.230098;-0.8316018;-0.97071826;1.0266844;-0.5983469;-0.16838078;-2.1026866;0.92227924;0.058984492;-0.3363595;-0.22819364;0.051946796;-0.0019447937;0.04911121;-0.44332683;-0.1276955;0.015490022;0.0201858;-11.341632;0.010506183;0.9412173;1.2116555;0.53914464;-4.273056;1.0074004;-4.0474367;-0.005194035;2.9405954;0.046934087;0.51760817;-0.008978915;-3.1577466;0.008465973;0.92414355;-1.2948749;-0.7299134;-0.3997067;0.49874926;0.5898848;-1.9926363;0.064860545;-0.34489977;2.6521494;-3.3757496;-0.04037624;-0.42946064;0.022873446;-4.349692;-4.9788804;1.3343534;0.83293307;-0.018932754;-0.021203406;-1.788058;2.346407;0.84252566;-3.53922;0.86048174;-17.066181;1.7188295;1.0562984;-6.6730595;0.44244638;0.10954954;-0.108236216;-0.00070861686;0.46573642;-0.0022192972;1.422041;0.006019087;0.86203;-0.23438284;-0.23094569;0.80734223;0.04110284;-7.1354737;0.016643506;0.15768674;0.03754746;-0.10717925;-4.234952;0.54802644;-3.7819479;0.9234044;-0.04968911;0.7290518;-2.7805035;-4.5404577;1.2398144;-1.5248152;-3.170894;-4.668161;1.0696071;0.14067382;0.0062794057;-2.7445366;1.0275801;-0.03055188;-0.09117704;0.19345315;-0.021896938;0.0053931563;-1.909616;-2.0400326;0.007692225;4.6424227;0.02723705;-0.5610245;-5.612372;0.7476212;-0.82023436;-0.15158565;-0.10144169;0.02297125;-0.35060564;0.35834357;-3.0955706;-2.57245;2.2531664;0.014516689;-2.395999;0.9539359;-0.001509549;-4.2701087;0.13030204;0.037087556;-0.787862;0.059987526;0.09985573;0.08221595;2.5945802;0.040259253;-1.7065532;-0.027222421;0.25785518;0.026315806;1.0655104;3.5403168;-1.3531332;-2.4784908;0.020120637;1.6980385;-0.013597765;-0.0023040543;1.9690535;-2.840364;-1.2326593;-1.1721494;-0.2861918;-0.6471813;-0.50941443;0.009777907;0.041171193;-1.3553661;0.019744556;3.1887445;-0.08599083;-1.0594734;-0.045406695;-2.0278273;1.5022572;0.65903693;0.57882327;-2.129376;0.00585976;-4.5206933;0.0021487013;-0.004788862;0.111529686;-1.6682073;1.6289269;-3.4700754;-5.2749634;1.4469508;-1.4181428;0.08946415;2.1852973;-0.72257423;-0.010368078;-2.310651;0.0268385;-0.0064170747;-2.697274;-0.5078582;1.0596962;3.0835564;-2.7895246;-0.017424699;0.020709395;-1.0096242;-2.4448612;-0.0033266766;1.1637819;0.65549594;0.031734418;-1.2809904;-0.019719558;-1.4415354;3.0466175;-4.625523;0.045107752;0.06874407;0.59456897;-1.4198394;-0.5326182;-0.20969349;1.285469;-1.4686412;-3.6539714;0.039464504;0.010920624;1.7663006;-1.8215705;-1.1906091;0.04608239;0.7780587;0.65977305;0.49624133;0.4287406;2.7987278;-0.017351307;-0.033804566;0.027585905;0.017422145;0.053773403;-1.5588398;-4.865888;0.0058932803;1.3522956;-1.331709;3.5114431;0.017185418;1.5696346;-0.38653404;-1.4986495;-0.0022690492;-0.05187425;0.046578187;-5.7789345;3.5504487;-0.010820589;-6.135573;-2.2283614;-7.8570867;0.17545709;-2.1197042;-0.03894095;0.38942695;-0.31195235;0.021304408;0.5336816;0.08930448;0.025867185;-3.3318527;-1.3441961;3.2198737;-0.50101316;1.5366431;-1.7313728;0.46680242;0.018903097;-0.017120257;-2.101186;-2.8742514;3.2308137;-12.676383;-0.16039495;-0.03877231;-15.274668;1.311346;0.043931007;0.06183351;0.0070550605;0.003161145;-2.2706563;1.5161434;-1.4282293;0.8159341;1.8720124;0.007665201;-1.512499;-0.038390175;-1.5558033;1.1658764;0.0038542957;0.036581922;-2.0732832;0.26905847;0.044427738;0.037197195;1.6654056;1.5698467;-4.8695707;0.5814167;-2.492122;-0.004958151;-0.009108842;-1.4359729;-1.5214272;-1.1009021;-0.019825825;0.040028248;-1.66086;-0.033977255;1.1161624;0.18315777;0.01822761;0.5775107;2.5059888;0.0143439;0.022467624;-0.06037597;-1.4786189;-0.38173023;-1.6521733;-2.1009228;0.03920039;0.2300769;0.5557018;-0.48454446;-0.0077920337;0.9106286;0.6313015;4.3143687;0.15789127;-1.4841557;0.011470778;2.582477;-0.0024791735;-1.1623781;1.0347277;2.6098013;0.6314585;1.2346572;0.008421214;2.8549993;-0.072452575;-2.9041023;-4.3146;-0.12304333;-0.8407826;-1.6646328;-0.030806309;-0.01200387;0.030637026;0.047419094;3.3701792;-0.15688115;1.0517793;-0.017915243;0.028089494;-0.005232339;-2.0454254;0.010440923;3.100071;0.0042128083;0.9991601;0.3437064;1.2056028;0.037920754;0.05796852;0.70110416;-0.7146417;2.5903668;1.729392;0.05873843;-4.391959;3.94502;-0.26888725;-12.010766;0.6140558;0.027211793;1.8319029;-1.2284786;0.50432736;0.0025441842;-0.009622526;1.1493045
0.6945583;-0.7262796;2.2950027;-0.01600513;0.018171618;2.3116353;-0.019627897;-0.039410356;-0.09113441;0.0957733;-0.013221225;2.9089918;1.6766948;3.4983788;-0.6086906;0.0030140171;-1.9002806;0.10212237;0.05872103;0.08463301;1.6171288;-0.00063904194;-2.9948273;0.75015056;-1.2494248;-3.043004;1.3556184;-0.19376285;0.016583042;3.1625514;-0.6653775;-0.09350895;-0.8447157;1.3285064;-0.008940658;-0.045973208;1.310544;2.388514;1.0911901;0.52645445;0.072642215;-0.64329594;-1.292038;-2.1823668;-0.011845657;3.0876985;0.91829765;1.9723707;-2.2097502;0.1921146;-0.46322778;0.017085921;0.8686122;0.5818617;0.36272702;0.4715258;-0.41276303;-1.0375115;-1.2411932;-0.36935562;-1.182288;2.0100305;-3.6422741;0.079545565;-0.010981919;-0.029440394;-2.212097;-1.3921348;0.4192741;0.017014097;0.65952885;-0.4603993;-2.5736163;0.77220225;0.060878813;0.03241855;-0.0076785;3.9640343;-0.9973509;-4.456056;-3.0897045;0.38939926;1.6302242;0.014191503;0.46223974;-0.8234292;0.17823093;-0.06730468;1.2964703;2.4309683;2.2099576;3.4188402;1.3186535;1.5737033;-3.5456138;0.08717902;0.30889896;3.0234056;-0.042158447;0.077138476;1.4496795;-1.5198783;-2.434664;-0.024748662;2.2555356;-0.01885502;-0.014904665;0.053902213;-0.038042128;1.1629311;0.12352174;1.4576796;-0.72763455;-0.93738616;-0.009937874;-2.4368198;-0.02134089;-4.1395006;0.010286324;1.1299614;1.1287768;0.029642208;0.051487416;-1.2163173;1.7159129;0.03356404;0.018999126;-0.75751936;1.735293;-0.0005113141;1.3889102;2.9175642;4.868658;0.009432611;-1.5341911;0.013113304;-2.1473525;0.021397756;0.043523256;0.008449237;-5.124094;1.3199056;-0.014795038;0.5176613;-1.5465872;0.96765435;2.2101963;-2.0877612;0.021252964;0.42796978;-1.1547167;0.9610655;-0.008263194;-1.2743464;-0.0075198263;0.21995223;-1.4257892;-0.010812326;-0.028777324;-0.009493163;-0.31026196;-1.7561011;0.013325602;-0.010175877;1.0947582;-1.72116;1.4590944;-1.1474819;1.2698903;0.106256194;1.7231084;1.289862;-3.6484187;2.5172358;0.0031389522;0.0482889;2.2633643;-0.0047781696;-0.45517334;-1.2818494;0.04458603;1.8409172;2.221261;-0.6282842;0.04765549;-0.0038332024;0.9198257;1.8398415;-1.4007707;-1.150451;-0.072772905;-2.6926234;0.006451176;-0.03549414;-1.5041296;-2.7815337;0.286877;-0.47845083;-2.5228686;0.179734;-0.62519383;0.19374329;-3.6772811;-1.9451364;-1.8386793;-1.3701062;-0.024522882;2.332118;0.8665755;-0.052946113;0.009738316;0.039223433;-5.198735;-0.03641153;0.009370636;-0.0019031995;-9.40601;0.0050343634;1.1649526;1.6639953;-0.76466906;-1.0423785;1.0190843;-5.3010964;0.0066824;0.8839623;0.0099026505;0.47251493;0.0524677;-1.3627353;0.026969332;1.8237445;-0.683097;-0.19635232;-0.3218754;0.9092024;-0.979585;1.5904465;-0.06993365;-1.5001976;3.4199204;0.41633177;0.017008489;-2.490041;0.03110421;-4.6545215;-0.88350123;2.3567564;0.9922418;0.0630619;0.072720096;0.4514132;1.7352427;-1.6617026;-2.3287694;0.29060963;-15.719974;2.0425487;3.3443036;-4.7750244;-0.25891408;1.4370148;1.09936;0.059031587;0.8491843;-0.017581664;0.46997803;0.0055263364;-0.31745142;2.0385497;1.7278486;2.496639;0.027122257;-4.045201;-0.021776088;0.20756853;-1.2909714;0.04054543;-4.3647194;0.042000514;-0.5066993;-1.2604868;0.009431423;-0.58700645;-1.9994795;-3.2973971;-3.5394661;-0.95711917;-1.6613181;-3.0197368;3.5365086;2.357762;-0.04947575;-3.5834322;-0.44616047;0.06101174;0.48891518;-2.265056;0.013276597;-0.0023179583;0.23025864;2.8767047;0.01935482;3.2695112;0.0010458156;3.0189505;-6.5239882;0.86745477;2.3198981;-0.81762064;-0.84150183;-0.032816198;-0.55912834;-0.14427668;-0.3808962;0.21234912;2.882937;0.035498343;-2.7206712;-0.17138508;-0.01500553;-6.059254;0.6382951;-0.01571908;-0.5425475;0.061344225;-0.009971547;0.24752314;2.1687505;0.004441236;-0.44285935;-0.043083556;0.5655612;0.009501376;0.73254484;3.6339917;-1.775519;-2.3828921;-0.009964219;0.12268244;-0.013375921;0.10737114;2.3053439;-1.6161146;1.9983457;-1.0506605;-0.5325276;0.01209427;1.4087601;0.0048112026;0.01769628;-2.6095552;-0.018538082;-0.36882725;3.210147;-1.3400831;0.025532247;0.8058379;-1.6219585;-1.8870264;2.3407469;-6.11391;0.010899101;-2.8133214;0.0010218399;-0.068498805;0.009234345;0.7340793;2.136224;-1.1654885;-3.10012;-2.5322883;-3.2936735;-0.02465517;2.2841284;-3.3533666;-0.03501537;1.2841183;1.0263128;-0.008026588;-1.0732608;-0.9575412;0.08374729;2.223391;-3.347762;-0.02539364;-0.037957992;1.1787071;0.37715417;-0.045476064;2.3414545;0.9382408;-0.011052439;-2.432564;0.03873247;-6.524566;3.161815;-4.40149;-0.0011273649;0.049754407;1.9961319;-0.55398965;0.14840893;-1.2862049;1.4037392;0.454039;-3.1147513;1.4353061;-0.0341751;2.628465;-3.1934793;-0.95523256;0.06995795;2.7286901;-0.022033377;1.1778045;1.7716336;2.12607;-0.54650515;-0.019959921;0.024180723;0.010243217;0.01901182;-0.26521006;-1.9396883;-0.023875745;0.9503485;-1.3215173;1.3725559;-0.036713116;1.941739;0.10284947;1.4787178;0.071797356;-0.0857957;-0.009823597;-3.1148658;3.9099138;0.005197006;-6.497461;-1.0727539;-2.5381205;0.86305773;-0.7339437;-0.07083717;3.528134;0.40895522;0.01854308;0.678323;0.049340803;-0.013826303;-1.1560546;-2.8996568;1.7513272;-0.1372051;1.4575251;-1.0448204;-1.6447833;0.045418344;0.005011339;-0.7141757;-0.02983154;4.2722754;-10.318817;0.39841434;-0.011261677;-15.043454;2.833309;0.97643566;-0.049480896;0.29528433;0.056944698;0.25579387;2.0626373;1.0611266;-0.4557375;3.4451501;0.030390274;-0.60256135;0.009538081;0.112180375;-0.24882746;0.03629815;-0.022653122;-1.8532501;-1.7367868;-0.020286322;0.012856169;1.5055565;-3.2695699;-4.208;2.837336;-0.50802344;-0.037957642;0.023273567;-2.2959993;-3.263184;1.2787764;-0.022986956;-0.0145991;-1.8021085;0.07372318;-3.6896377;0.018139344;-0.0035244825;2.6194293;3.3364913;-0.012900783;0.013142813;-0.00262952;-0.36639696;-0.0035493528;-1.3081994;-2.4760828;-0.019937309;-0.7911616;-3.0416927;-0.7907998;0.020137811;1.6578529;-0.15200417;4.6762266;0.21225642;-4.1078024;-0.024097985;1.0945072;0.038567036;0.3095252;2.2712083;2.9854324;-0.18166308;-1.40835;0.0068214727;4.1302156;0.008922472;0.5234633;-3.065355;2.1707692;-5.2370715;-0.41710946;0.032304697;-0.05082074;-0.024519784;-0.031908017;2.3138592;-0.94674826;1.1603191;-0.024024067;-0.002140886;-0.07658883;-3.5558825;1.3236169;-0.27876335;-0.024096482;-0.18817864;0.043715995;-0.5681132;-0.03945859;0.010444608;1.0552882;-0.29205552;3.2534816;2.1598966;0.096069075;-0.49259013;2.815738;-1.4979298;-12.080202;-0.010882894;0.5498297;3.712055;-2.1568859;-2.3642118;-0.0050552385;-0.028372262;0.021703295
-0.21800417;-1.5438838;3.553173;-0.058695164;0.019287718;1.164664;0.0803344;0.008067525;0.93957627;-0.4217825;-0.010457621;-0.6204755;1.2562791;0.6117102;-1.2435908;-0.036545746;-2.200639;0.81468296;-0.016116615;0.31173593;-0.7707803;-0.006878646;1.787245;-3.5092995;-1.1915767;0.0122267;1.0484122;0.2640539;-0.02223297;3.3431585;-0.5558979;1.1001107;2.6481977;1.7409862;0.018309165;-0.019222988;1.4758013;0.60085577;-6.5023346;2.4901605;-0.2581564;0.023761747;-1.8272604;-0.86478883;-0.020593366;1.4020998;1.4586968;2.584603;0.54972315;-0.047460914;2.679885;-0.040932436;-0.28827035;0.64904493;-0.32095936;-0.89938104;3.814999;-1.4675949;0.418074;0.45826283;-0.9497189;2.934038;-3.722526;0.8247549;-0.048095234;-0.013842006;-2.2731712;-1.7563657;0.2933607;-0.029467883;-0.20102358;-1.2557579;-1.11159;-0.86106193;-0.07053509;-0.041970853;0.015042819;3.978417;-0.8715633;1.2797289;0.47472572;-0.22471586;1.263182;-0.015935032;1.6633358;2.72814;-0.0943492;0.10917218;-0.27401137;1.4817629;2.2419498;0.94523025;1.5704156;-1.0587564;-3.7038403;-0.6289845;0.0033128944;0.67573833;-0.024749957;2.1784048;-1.429052;0.11571371;2.6002922;0.05052055;1.642353;-0.05147649;-0.017285254;-0.0346726;0.01879613;1.2614833;-1.5818181;1.3483324;0.4079316;-0.60582405;-0.011463885;-1.5543662;0.020414604;-1.0623324;-0.00251873;2.6820111;4.136487;3.3400075;-0.030715441;-3.5085504;1.9077349;-0.0187156;0.036453567;-0.19348778;0.29519013;-0.0063631264;1.3461527;0.29823393;5.1988535;-0.0072623915;-0.59316933;0.015940977;-1.7408224;0.008745413;-0.0014633355;-0.015717493;-3.7760015;1.8350998;0.029505631;1.2892967;-2.6592536;0.9954614;-4.431147;-0.105709404;-0.029547546;1.3974953;-2.006139;5.1404023;0.0836085;-3.6914084;0.036899496;1.359188;-1.2592372;-0.003216367;0.029960083;-0.04176704;-0.97048795;-1.4942049;0.035488218;0.06957752;0.1900521;0.036822706;0.26783302;0.07725282;2.6291137;-2.5638695;0.9763407;-0.19971183;-0.4900155;0.9039366;-0.048963312;0.0016219637;-0.09269824;0.020283699;-0.095449336;0.36906153;-0.030303702;3.0249455;0.11645213;1.5929453;-0.03176163;0.012481439;0.42568222;-4.2351456;0.5590331;0.17341097;-0.38614106;-2.4163418;-0.0022386552;0.047764737;-1.2009343;-2.695629;-0.73744065;-0.28323787;-3.4748914;2.2425468;-2.6491241;-0.7228635;-2.5024137;-1.4592755;-3.4697545;-2.269417;-0.005483959;3.231258;-1.3480575;-0.0225798;-0.025259433;0.040783703;-1.1068425;0.015803158;0.025698403;-0.04815804;-11.551087;-0.033169214;0.598943;-0.004042193;-0.7686913;0.10843916;-0.9061857;-5.2185936;0.007265573;2.742039;-0.026811013;0.9314783;0.05272329;0.73026955;0.0626401;-0.030953562;-0.9654794;-2.0023613;2.7323372;0.34004363;-4.344489;1.9581854;0.04067811;-2.9730155;0.29852396;-1.2826139;0.063501716;-1.3005295;0.022090904;-4.413845;0.38896993;-1.4226773;0.9035987;-0.037217464;-0.025145346;-0.24317154;0.013382594;-1.0669593;-0.9262805;1.555597;-16.677715;0.16292757;0.7886647;-0.120331064;2.668121;-1.2332278;0.55826855;-0.016707033;1.3958058;0.067097545;-0.8054222;0.048964277;-2.4163027;1.4417384;0.5682075;2.8078265;0.0062556644;-1.9070835;0.043677952;0.05643028;1.06622;0.008417886;-3.808641;1.1272826;-0.58025736;-1.6665673;0.00850553;1.7383337;-2.1982434;-3.7320855;-1.7769747;-1.5475496;-0.019520912;3.013547;2.606996;2.8497384;0.006542505;-4.621124;1.4258109;-0.063673444;-0.19029422;-1.2848719;-0.0031065666;0.03101223;-0.9478587;0.6234063;0.032287862;0.5446541;0.043975905;2.0305834;-6.3705344;0.3370182;0.93021184;-0.57951087;0.30116898;0.08899145;-0.71887934;-0.66387194;0.42141798;-1.6471477;0.32949898;0.027749218;-1.8324169;-0.6252916;0.0022207687;-5.8230357;-0.5683981;0.017860964;-2.1487386;0.008540468;0.008141695;-0.052396838;2.643801;0.0033219308;0.46050185;-0.012784583;1.5156469;-0.008444206;1.5805472;4.5444303;-1.2718562;-3.5763636;-0.0098137045;-2.425071;0.022281226;-0.07627456;0.24207851;-2.152407;1.1806796;-0.35114512;-1.6627856;-3.4074414;-0.42004356;0.05272336;0.015680308;-3.814177;0.03475078;0.46676457;2.5833924;-3.6799576;0.080626994;-0.22725995;2.451105;1.4963068;1.0695851;-7.245893;-0.004728433;-3.1325386;-0.048947323;0.052103262;0.033677552;0.016369333;1.5802085;0.3262759;-3.997066;-0.75957;-1.9005283;0.016003707;2.0881774;0.10470668;0.041275326;-1.1419572;0.9467899;0.058918975;-0.14957961;0.39645755;-0.16513614;3.9543855;-3.995561;0.032257676;-0.05089372;1.4814291;2.3128793;0.0021461945;0.92339534;1.6292946;0.0009910051;-1.0844014;-0.039703798;-4.435761;2.6746807;-3.0152915;0.02026147;0.022104902;0.8738325;0.71463317;-0.9783401;-3.2702577;-1.1603112;0.41339403;-1.9943879;0.016676923;0.03765975;2.3350024;-0.8527343;0.8893619;-0.054440547;-1.8781352;0.26616576;2.619207;0.5782318;2.38219;0.5658887;-0.8546079;0.06620111;0.0034234182;-0.0033753442;-1.0232642;0.7748666;-0.0052533373;1.161269;-1.4072839;-0.295487;0.03748302;0.9573323;1.0737377;3.278215;-0.0526439;0.35794535;0.050827626;-4.5502853;0.4300993;-0.026352596;-6.6108723;-0.44011337;-3.7797196;0.08232391;-0.24796405;-0.04927688;2.9031706;-1.6408607;0.008686927;0.79660803;-0.939593;0.056436118;-1.8663423;-1.7833124;2.6902823;-3.9648383;-3.3231955;0.715542;-3.0601199;0.093426086;0.019980494;-2.3903182;-0.030392844;3.516211;-11.62238;-3.0682166;0.023818295;-15.046194;3.069854;-1.2925984;0.017063834;0.67103463;-0.05440392;0.5199288;1.8309909;-2.0064092;-1.5215434;3.1609476;0.006147422;0.51964766;-0.0313391;1.3871585;-2.2455947;-0.021084884;0.024542902;-1.8659499;0.93290377;0.016094638;-0.032502465;-1.5698202;-4.527359;-5.1416264;-1.133767;0.4687596;0.038997013;0.029052263;3.5609133;-5.2407985;1.6703501;-0.13060461;-0.0036259172;-1.09325;-0.12350176;-5.8075604;-0.03524618;0.0006663812;1.1828605;1.8382909;-0.014059939;0.01769183;0.06754007;0.13102546;-3.8698912;-1.6256813;-2.7294862;0.0047959327;1.4660703;-4.5616097;0.3813856;0.0020402088;-1.4004322;0.31568283;3.78348;0.18288234;-4.7079844;-0.05770727;1.6724342;0.034450423;0.40422383;1.5488706;2.5776453;0.6905418;-0.46695194;-0.0020315694;2.0590682;-0.030396603;-0.29270935;-2.344781;0.5889972;-1.1513934;1.3705924;-0.036583833;-0.013769146;-0.009356273;0.046342757;-0.5313089;-0.7806628;2.600544;-0.01084423;-0.027371194;0.6113107;-0.101839945;-0.06256487;-0.26523185;-0.062964246;-4.1072273;1.1458153;0.29092273;0.039129257;-0.027229508;-0.7153387;-1.4244251;1.867342;1.6112663;0.0068830857;-1.9933647;2.3573217;0.9379401;-12.701866;-0.7485605;-3.0462627;2.059479;0.2937145;-0.94692993;-0.043239824;-0.004258067;-2.1075013
-0.057398774;-1.1931388;2.625591;0.0068485197;-0.009095583;0.7245649;-0.0101589775;-0.010561899;-0.652952;-0.8558548;0.012217166;-1.3295023;-1.38754;1.3389978;-2.0468428;-0.021455761;-0.9973121;4.136163;0.0021848783;-0.04838351;-1.4896364;-0.0040139635;0.16559601;-2.8477683;-3.0594442;-1.2465163;-0.517058;-1.5549982;0.0012336227;2.6301332;1.3623645;-0.3301025;-0.11959843;1.7773829;-0.00039472734;0.030069629;0.94030344;0.39839393;-2.314087;1.9571927;-0.04033762;0.1903321;-2.5661159;2.3310733;-0.019578967;0.04359909;2.5685158;-0.47329327;1.1231886;-0.042121135;2.5005085;-0.0015110325;-0.39871913;0.8057682;-0.1267594;-2.4876251;4.4558396;-0.3268568;1.3597727;2.7200809;-0.43192086;2.9648159;0.5919366;1.8495591;0.0027133515;0.018826589;-2.1614914;-2.5379765;0.32174608;0.025596606;-0.061284844;-2.2130463;-3.9120307;1.019036;0.05191346;-0.037018746;-0.00691262;4.292214;5.0374684;1.9432837;2.6556995;2.500356;3.7840233;-0.0024518128;1.0442;0.18802293;1.9797461;-0.0027267057;-3.4323804;2.0317178;1.9689634;3.8910646;0.024610551;0.28431693;-3.4695086;-4.7765055;-0.102477305;-0.2465723;-0.05137792;1.8919643;-0.20103955;3.586521;2.3517034;-0.017151935;1.1793636;-0.0055523375;-0.02503409;-0.01342388;0.01369555;-0.16399114;0.41327575;1.3197427;-0.28341156;-0.25830606;-0.008595933;-2.080753;0.03973185;0.671042;0.028882584;2.4964876;5.3659515;1.9754624;-0.032742847;0.20520146;2.1223729;-0.0037615863;-0.0034778514;1.0245197;0.53720665;-0.011858294;1.8543046;1.8720206;5.090859;0.013815387;-1.4049286;0.056934435;0.43187353;-0.008641402;-0.024636999;-0.0073135453;1.1754249;1.1127007;0.037566196;2.146732;-2.681267;-0.4896336;-3.3211565;-1.0912436;-0.014333179;1.0625986;-1.407644;0.63477343;-0.042937614;-1.9892495;-0.003823962;1.8829943;-2.03486;0.008254746;0.019839672;0.031918507;-0.86516106;0.7161392;0.015222957;0.0013385753;2.4174366;1.4153893;3.252554;-2.5924194;0.6467751;-0.9843243;1.4769983;0.1611103;-2.9136271;0.13072114;0.04187954;0.05040129;0.13896134;-0.054316603;3.4092188;-1.9993356;-0.048549753;1.5302706;1.0750414;3.894422;-0.004484371;0.047865428;0.66730464;-2.5124476;-1.5049413;1.3116666;-0.5824222;-0.8232147;0.02580786;0.010344151;1.2971736;-5.9536247;0.98031646;-1.3926511;1.8052334;0.48093915;-1.8949631;-0.005216109;-2.410864;0.59174937;-2.1902046;-0.062506504;-0.004647469;1.2067958;-2.7801914;0.005537044;-0.0058785244;0.030204732;1.7334341;-0.06623153;0.05203881;-0.0019349651;-9.26143;-0.049143687;3.5702324;0.20199852;0.6306194;-0.29547563;0.7143505;-1.7347004;-0.041441936;0.60365814;0.038861375;1.8604716;-0.0520608;-1.5794439;0.018582396;-0.5238792;-1.4597777;-0.6917524;0.4818637;0.39533323;-11.743476;1.4540256;-0.030188773;-0.70458263;2.548032;1.2526535;-0.063781664;-0.6572748;0.020665886;-5.017703;0.7339535;2.429929;-0.799122;-0.12342976;0.027852248;-1.9992878;-0.10686783;0.40993696;-3.2920003;-1.0646783;-16.423979;-0.1812594;0.9871541;-0.053524494;1.1685295;0.56649476;1.6706897;0.035834145;1.918863;0.013161147;0.20209648;0.019553885;-3.7188609;0.3602191;1.0917958;0.93780893;-0.038102686;-1.5715997;-0.015310986;-0.022054689;-3.63786;-0.0038208582;-3.335221;1.3688939;-1.5970038;2.5975008;0.0062438855;1.6824894;-0.45450765;-2.831569;0.14213532;-0.10530211;0.67280775;1.049297;-3.3544102;1.9371303;0.0021419004;-4.091034;1.6925212;-0.010788057;-1.1541559;0.6374192;0.012429557;0.00823608;0.0019733119;1.5840675;-0.0038670532;-0.06863905;-0.022139719;1.9965452;-5.3323755;1.0174234;0.30217355;0.840326;1.4943967;-0.033884708;-0.74707776;-0.039716773;0.51742494;-1.550537;2.469041;0.028316928;-2.207964;-0.42309502;-0.014612252;-6.3687096;0.45542496;-0.013510139;-3.7447386;-0.03917349;0.0034175199;-0.01599824;0.9619905;0.02145681;1.3869278;-0.024578352;-0.4480398;0.03682341;1.5201303;4.402469;0.45573506;-3.3297803;-0.0037701486;-0.45675737;0.00817064;-0.028247684;-0.7356649;-1.2205147;0.07109493;2.033611;-2.9191716;-0.74031377;3.8757818;0.0029853864;0.018249512;-4.2854896;-0.020136146;2.7798638;1.8971808;-0.77105206;-0.061627463;0.2078555;1.6876915;1.8496321;1.0470886;-2.6953368;0.0226189;3.409223;0.022093827;0.043822784;0.034057662;-1.0685679;1.7093623;-1.076829;-2.4737682;-2.7421012;0.40374073;-0.008137239;1.8058965;-1.723943;0.010755138;-0.15865952;0.8740281;-0.014531883;2.0642989;-1.2623514;0.018758008;2.442246;-2.618137;-0.03969792;0.045816936;2.400189;4.354952;-0.010648784;1.6250597;1.0813973;0.043382913;0.35577;-0.018296026;0.97090715;-0.9855122;-4.2128196;0.048386797;-0.031205272;2.7622511;1.7990739;1.4384767;-1.7075315;-0.60538745;0.21709573;0.011472696;2.2242594;-0.03463181;-3.39929;-4.5051417;-1.0737139;-0.052310243;1.3220106;-1.2635849;0.82695836;1.5150237;2.2671134;-0.10036607;-0.8097043;0.09797276;-0.00047092725;0.014109007;-0.6313026;1.8094873;-0.004562333;-0.56115574;-2.1332567;-0.010426778;-0.010951841;1.270346;-0.42835477;3.3399222;0.1434155;-0.107100435;0.03311503;-4.9722557;0.49629703;-0.005524641;-6.901853;3.0067084;-6.0048285;-0.88634104;-0.11612147;0.449638;1.4283987;-2.9416194;0.056860488;0.15392192;-2.1597059;-0.0159757;1.4713875;-0.6125377;1.7762407;-0.021059783;-1.1241792;0.954659;-1.0483747;-0.028804813;0.0028370454;-1.1555922;-2.7488627;3.7617457;-4.10979;4.11654;0.0679776;-15.11143;1.4954766;-0.10539001;-0.03404637;-1.0871677;-0.014592847;0.6367518;1.7105646;2.7240355;-1.1923882;2.3254063;-0.015682386;-0.057517182;-0.0073835757;4.02989;1.0310299;-0.063183114;0.0227426;-0.9891447;0.058308594;-0.009643995;0.009291383;0.04784636;-5.2694106;-5.346045;0.838598;0.70934033;-0.019274445;-0.037869506;0.43359447;-3.633543;1.5255996;0.47666568;0.002069584;0.9850577;0.24875745;-4.720527;-0.008779724;-0.021876756;2.6596656;-0.76443005;-0.012959367;0.008902602;-0.0077926163;-0.7782883;-3.8803189;-1.3136193;-1.195712;0.008748579;2.4999025;-4.1984773;-1.3974893;-0.020118993;0.63407975;-0.23939835;-0.8729627;-0.03010898;-4.1087646;-0.018002901;0.4421355;0.06634078;-1.7199302;2.691249;1.464294;0.71214813;-1.6286483;0.022748848;2.5798411;0.0045933137;0.037035096;-2.731103;0.7458917;-2.3016858;1.4469239;-0.018348373;-0.022928674;0.007485005;-0.014304365;0.20723419;0.09012346;1.885274;-0.032531697;-0.035487596;0.31672555;0.5094134;-1.0241544;-1.2521973;0.01615746;-5.8319345;-0.4140196;2.2551274;0.0042254394;-0.006694554;-1.0192702;-2.3527198;2.2205606;2.0165179;0.06465923;0.59032744;4.458887;1.9812028;-13.0757265;-1.4009103;-2.7954884;2.1239352;1.4362413;-2.4104974;0.044820543;0.03427796;-0.33383816
-0.0043623187;-1.1809672;1.947901;-0.017519506;-0.012023062;1.8520508;0.05348892;0.02404958;-2.4410179;0.9918212;0.0141099235;-0.31749782;-0.6024274;3.434682;-0.41884243;-0.012869151;1.7376564;1.7437986;0.0018049045;0.09571855;-0.042680096;-0.004778372;-0.033983365;-0.50727093;-3.3323674;-1.2773793;-3.1540272;0.08895165;-0.006322594;3.946937;-0.20350884;-1.9659303;2.6393394;-2.4540396;0.028578632;-0.14214464;0.094951525;0.15671371;-1.8483099;1.055439;0.1189709;0.6469759;-4.0269794;1.6578324;0.022810606;0.5816824;2.4680285;0.2651228;2.1379926;-0.017424405;-0.7837163;0.0051079816;-0.53975207;-0.05657627;-1.7239125;0.9661488;1.199196;-5.840877;1.605189;-0.9113483;3.1823385;1.7698537;-0.52993363;-0.76594573;-0.008206132;-0.035679966;-2.113584;-2.271065;-4.139388;0.014333162;0.017652258;-1.4038504;-3.145274;-1.3226608;-0.004321997;0.040766325;0.10913758;4.3707614;0.712334;2.3156474;1.3689811;-0.31349534;2.8077002;-0.0044318913;-0.89425325;0.0058410466;2.209702;0.088076495;1.9929425;0.86350584;2.0215585;1.969645;-2.2579527;0.40946788;-1.2525172;-4.977968;0.14419958;1.6366928;0.006774471;1.0894743;-0.6090566;2.116985;-3.4311817;0.012542049;0.539744;0.030069776;0.032611985;0.29708248;-0.01581345;0.8681574;0.82921857;0.5282485;-0.008695606;0.6364384;0.020538306;0.13349077;0.0033878693;0.5262323;0.037704416;1.2552339;4.521253;1.2134871;0.04565684;2.1430588;0.32931715;-0.019765025;-0.020464193;0.56543994;0.02710873;0.004862859;0.86613315;-2.113768;4.6033144;-0.032010533;-1.513224;-0.023562653;-3.884153;0.039906524;0.0046750023;-0.006342696;2.9095662;1.3800416;0.0030583546;2.1325464;-2.1242251;0.852129;-2.276551;-0.19749105;-0.010160735;-1.3946897;0.63373816;1.510979;-0.035223905;2.1635714;0.0090685;0.4431431;-2.3546124;-0.012281151;0.036099277;0.014676961;-0.60211766;0.050131895;0.014440209;-0.03131496;-0.6937683;2.644821;-0.3060816;-1.30187;-0.7748784;0.97068745;3.14613;0.8051067;-0.8619829;1.4747721;-0.027391016;0.014317277;-0.40525916;0.022029016;3.0330365;-1.1238908;0.03725521;0.98681444;2.952166;2.1076496;-0.0036520755;0.0022190644;-0.6040356;-7.3465133;-0.16457184;1.8489344;-4.981765;-1.2015665;0.0012555879;-0.005708618;-0.8254142;-4.717747;-0.12877221;-1.7758142;2.2676568;2.4464662;-2.9326582;0.5558344;0.3570445;-0.93490106;-1.169591;-0.24688923;-0.014735403;-0.24646409;-1.1963251;0.037464466;0.0028322183;-0.018939596;-1.5013378;0.036050417;0.00121391;0.018813085;-4.419415;0.0032228823;1.2419463;0.5778727;-2.558927;-3.0046866;1.5677645;-5.1519966;-0.0339466;1.5376929;0.033470448;0.7559624;0.008799043;-2.2396994;0.01813818;1.0583745;-1.2210038;-2.409853;2.2674336;1.2466269;-11.531882;1.7163295;-0.02915046;-0.88152784;0.42872223;-1.5491236;0.05320734;0.46190065;0.043976773;-4.3848205;1.1058364;1.1411737;0.15947016;0.10593941;0.04408;-2.7535355;2.2441752;1.4607983;0.29058936;-0.061008576;-14.163319;-1.1016849;0.6951744;2.9496152;2.601664;1.5799911;1.2679901;-0.013870444;1.4183273;0.018246658;0.1823129;0.00916454;0.535587;2.1737282;-4.203602;0.8776467;0.020915769;-0.1333431;-0.021601547;-0.5788864;0.73297083;-0.018635496;-3.9072783;-2.163031;-2.6224468;0.3045255;-0.00793391;-2.0738513;-2.776522;-1.8318353;1.9882524;1.619156;1.4472703;-0.44947067;-2.7212083;0.36129257;0.0070881024;-6.0641093;0.31497544;0.05330829;1.839345;-0.80759454;0.014159849;0.018829485;2.735566;0.35257098;-0.002337869;-0.8432108;-0.009930059;1.273633;-3.2655795;0.41210818;1.8397346;0.4538956;1.9856879;0.018815808;-3.2652566;-0.6182632;1.5790642;-0.3697667;3.5252469;-0.0018472848;-2.4779832;-0.30859113;0.028988563;-5.470109;2.4159403;0.017918656;-4.5228853;0.0846985;-0.009274087;0.10106326;-0.64800316;-0.0005661651;0.35618874;0.015145808;-1.686639;-0.018458562;-0.7660123;4.5204387;-3.3274229;-2.6012974;0.010829955;0.33875638;-0.007766907;0.076747954;2.7207763;-2.4328642;1.2181721;-0.227125;-4.2001443;-3.45833;1.8067863;0.020194031;-0.0021004293;-4.21656;-0.01304014;-0.13707516;0.2834635;-0.89838547;0.31528765;-0.48392978;1.1162499;2.0573933;1.3772911;-2.2560985;-0.00970925;4.0956674;0.009657979;-0.032135215;-0.0037950352;0.8920788;1.9189987;3.711422;-2.9278972;-1.4105675;-4.5303507;0.009934316;3.1081254;-2.5893536;0.087840155;-0.08185702;0.7998408;-0.018459868;2.204377;-1.2696688;0.1093232;0.59295136;-0.7735085;0.010068298;-0.046411444;2.4347174;0.57129216;-0.011274554;0.5580938;-1.3463842;-0.00095052284;0.71760726;0.011261892;-1.5097994;2.7340164;-4.0752;0.028198728;0.028046958;3.211688;-0.6234588;1.4063946;-1.4951607;0.85811514;0.9377305;-0.7520317;-0.10433778;-0.017584557;-0.26908553;1.8133045;-0.083842754;-0.0720003;3.6693215;-1.7195462;2.4979846;-1.2047194;2.260311;0.044865493;0.35882753;-0.0023297193;0.03379066;0.0068765325;1.3509893;0.8533503;0.030050835;0.2676988;-0.7663843;-2.4898186;0.028726429;3.1503775;-0.799891;4.190785;-0.02960332;-0.033425964;-0.014306462;-4.1997833;-0.38030127;0.0256945;-6.6637197;1.1511582;-2.8187869;1.4119807;-1.4596363;-0.08883864;2.572901;-1.9800924;0.006737045;-0.2411242;2.512201;-0.010900641;0.46277255;0.5211956;1.4486004;1.2888997;-0.8988274;0.8477972;-1.1665121;0.032252215;0.044581197;-0.13217574;-3.0147488;3.8120434;1.0211315;0.89371324;0.045167338;-14.7960615;2.6927137;1.7777784;0.008328958;-1.2832131;-0.0143430615;0.37689063;2.2511373;-1.0215389;-2.39761;2.7674918;0.027213866;0.50772893;-0.025610555;4.007931;-0.7247612;0.020712929;0.014040317;-2.4035952;-0.36307472;0.024863984;0.024713427;-0.086102515;0.8790688;-2.7028482;3.0463808;-3.1275678;0.4282506;0.032004423;-1.61064;-3.8689759;-0.01972372;-0.10754612;0.0028980128;-0.5206889;-0.11984657;-2.9073548;0.03439357;-0.009589952;2.432895;-0.632492;0.02587613;0.0052945106;-0.052551407;-0.6786972;-1.700312;0.7799626;-2.4344685;-0.014390517;2.5822814;-3.277607;0.5193424;0.010551941;0.7330766;-0.13181183;-0.8332385;0.36768737;-5.2686677;0.023169665;0.069997415;-0.004462763;-1.0248274;3.8654492;-0.81939846;0.06564087;-1.0372125;-0.14494212;3.6040962;0.016415175;1.9335314;-3.8209572;1.9126577;0.5663483;0.37476367;-0.026231918;0.26629007;0.03410044;-0.052954152;1.2371924;-0.67859524;1.9370039;0.30204207;0.017515935;0.2307403;-0.8733892;-1.3582238;-1.48053;0.033406515;-5.0806293;-0.37534395;0.6351723;0.021081803;0.021934735;0.941712;-4.0857134;1.8913677;0.11966081;-0.003743138;-1.8832657;1.6943656;0.50811684;-13.170369;-3.997823;1.1778283;2.1507604;0.7958145;-1.7398422;0.032205652;-0.0040607313;-1.3175837
-0.020282354;-2.103678;3.586513;0.026858084;0.0112006515;-1.1641399;-0.025589354;-0.030527767;2.4573536;1.570414;-0.009960463;-1.7798487;0.33250204;1.0117724;-1.8705186;0.06313467;2.0537841;3.5453076;0.00038719823;-0.00021235363;-2.8078496;0.01759454;-0.70865285;0.099513374;-2.4743419;2.5504613;-1.6864597;-1.4203641;-0.08564227;3.3537009;-1.3927466;0.44295594;4.1662226;-0.40146413;-0.01075362;0.74190533;-0.81027144;0.01688021;-0.36898956;1.6052046;-0.14059028;-1.6023751;1.143258;0.68918824;0.02170546;-0.4417031;2.368613;-3.7411582;1.8992417;0.016528841;2.6391852;0.0048471116;-1.5010666;0.46627522;-2.1842;-0.9068276;1.2035891;-4.571646;2.7647164;0.013014183;1.1874932;0.7869136;-1.9931176;-1.064423;0.00026028842;0.008796832;-3.75481;-1.084823;-1.3106776;-0.03527587;-0.043569814;-1.2705283;-1.7452861;-1.8422761;0.0037888403;0.0377635;-0.06666124;4.0430574;-0.95345306;2.9235451;3.002183;-1.3781346;2.1761796;0.026536826;-0.19045277;2.5438657;1.6432232;-0.14076474;-0.42335805;2.9586418;2.0937195;1.3776146;-4.0653725;0.107647754;-0.018187152;-6.322595;-0.14605999;0.70362234;0.025733594;0.5836015;-0.5266283;2.1792188;-1.8329036;0.011805943;3.2863154;-0.019629054;0.01585069;-0.15340544;-0.009793839;-4.128619;0.30138204;2.1120477;-0.3054609;-0.70457584;0.025475591;-1.0256333;0.024507271;2.177689;0.036702;1.0735478;4.8911166;1.6821535;-0.0038928855;0.7388612;0.14195797;0.02771564;-0.004732074;0.8190132;-0.992115;-0.011059628;2.222962;-1.8731152;5.0868545;-0.0115945395;1.4428452;0.009256038;-4.1905613;-0.016074043;0.040546264;-0.015164601;2.2036872;-1.77095;0.04856163;2.6009703;-2.427933;1.6601796;-0.07411109;-0.8730967;-0.018750552;-0.8914834;-1.1052988;-0.9725603;0.018869475;5.214851;-0.003169556;-1.039052;-2.631404;-0.0327301;0.030540556;0.017470347;-2.2052703;-2.3804448;0.0407335;-0.015125636;-4.844643;3.3992925;-0.1386011;-2.8759136;2.178713;2.5419188;1.5048671;4.4722824;-0.6148115;1.7149304;-0.008093153;0.005098909;-1.580116;-0.04099885;1.0311457;1.522131;-0.015887031;2.60967;2.2058752;1.515609;0.0330467;0.019481057;-1.1127232;-4.268133;0.91800344;1.6856265;-4.591337;-0.30579832;-0.048664197;-0.01020282;0.47046056;-5.63935;0.6942163;-2.3960536;-0.039801616;1.0418508;-1.3587402;0.6304729;1.3875879;1.5393816;1.380195;0.44051522;0.032308012;-1.2838839;-0.038418047;-0.0012836637;-0.007138557;0.0016715633;-3.2881303;-0.036347903;0.03390859;0.0025081565;0.714334;0.009805605;0.4261615;0.41381124;-3.1414611;-1.7576317;0.5269703;-2.7743843;0.08479293;0.92530596;0.038896866;2.2066798;0.26740083;-0.13118601;0.021685285;-1.873736;2.2178228;-0.3079244;1.183613;0.10100685;-10.597769;1.347197;-0.0013236115;-2.669716;0.30933377;-4.5645056;-0.013522912;2.401952;-0.0009646543;-4.8249393;1.1992759;0.26623762;0.9074186;-0.031318862;-0.0057334406;-4.2823205;1.1985244;1.2050086;1.3055197;-3.5788815;-14.286366;-1.9929551;1.7037933;3.266588;1.7732915;1.2909449;0.81997204;0.002658242;1.6569923;-0.004697706;0.7333959;0.017043604;1.7804642;-0.0341794;-0.63204974;1.7208022;-0.042843714;-0.084110335;-0.029423943;0.15637313;1.3352561;-0.008837032;-3.1546338;-4.640811;0.8442553;1.6052463;0.055055942;2.4921398;2.0478404;-1.8768233;1.4386533;0.4120528;0.3061524;0.96039444;-3.2771943;1.8869137;0.017248835;-3.491979;1.9768131;-0.047196645;-1.5448252;0.16300246;-0.013618854;-0.04757468;-3.3368816;2.028548;0.031204531;-1.7958535;-0.040279955;1.277292;-6.4543543;1.9177266;1.4511977;0.37073255;1.9448135;0.11268447;-1.7183754;0.009627742;2.341208;-2.866467;3.6915812;0.023659538;-2.5518794;-1.0824199;0.05607144;-6.2641373;0.6888891;0.04480052;-2.52589;0.030099079;-0.016672721;-0.06876668;3.160654;0.0007745668;-1.2379861;0.014692437;0.2818159;0.019072061;2.2982118;4.9194007;-1.6355131;-3.0203137;0.026351355;0.8098301;0.024257088;0.025038876;2.9417496;-2.3135612;3.2588067;0.32582644;-2.8026054;-4.8276963;1.4430821;0.014204095;0.009353186;-3.4495957;0.027769392;0.25661874;1.6196183;-2.7977195;-0.09550469;-2.051833;0.22823471;2.1096842;2.2736216;-4.0948215;-0.00065263355;-2.5769079;0.017784221;-0.0148924;0.03915228;0.39040524;2.3336182;0.92623883;-4.166686;0.084914215;-2.4670444;0.007058301;3.3817677;-4.2643123;0.04670811;1.3284105;-0.79428786;0.04565157;4.9002314;-3.5243764;-0.027719826;0.9031629;-2.4495385;-0.009551967;-0.106966704;2.6973934;1.1577426;0.0032257729;0.32215884;-2.1621354;0.03850981;0.98213303;-0.021890389;0.32976675;3.869099;-4.73675;0.0023753738;-0.008595367;1.6333976;1.4431264;0.93007183;-3.2095659;2.3475752;0.6777981;-1.731926;0.28704336;0.02994722;0.20579438;0.6406053;-1.4104506;0.043429177;1.3950863;-4.2877083;-2.1034667;-0.88420945;3.0855968;-0.15701911;1.0208187;0.0029648994;-0.006092066;0.03460716;-3.649785;4.530748;-0.02787238;-1.624224;-5.1940413;-2.289868;0.008856738;2.5841591;-1.0065575;3.355056;-0.045491364;-0.05397556;-0.025605425;-4.3276362;-2.027942;0.006328746;-8.139506;-0.84079015;-0.8705862;-0.378999;0.12164682;-0.04222258;2.592742;2.2786028;-0.002666888;-0.17678876;0.3835028;-0.022470037;-0.5867219;1.30855;2.6891007;-1.1540749;1.793479;0.80732536;-0.9370954;-0.0073178476;-0.04670634;3.7711205;1.7460501;4.346694;1.9970862;2.7035997;0.023288675;-15.525786;1.8333186;2.026512;0.07206877;-0.1551001;0.08644713;-2.8945563;3.170165;4.052445;-1.5497105;1.311821;-0.010149264;-0.83956164;0.050338786;1.4360543;-0.99347275;0.049536396;-0.011931163;1.4569987;0.091733426;0.013941433;0.022686187;0.35715216;1.526205;-0.29448205;1.3107797;-2.371868;-0.18333586;0.0754332;-2.7562723;-3.1245856;0.6917173;-0.007878421;-0.04255846;0.9928799;-0.014266416;1.2497011;0.03167566;0.05180846;2.2841232;-3.3475316;-0.00831357;-0.011065244;0.03285975;0.42614985;2.5478997;-0.60183364;-2.1472926;-0.035373256;1.2499278;1.9331609;-0.4542151;-0.034840986;0.035534687;0.5673799;-2.0210001;0.57943064;-4.8645916;0.035127144;-2.888048;-0.047298346;0.013096217;2.8166306;-2.169113;-0.38612944;0.66386163;0.7407149;1.4026184;0.025145207;0.7402253;-4.031636;3.9626167;-0.9517994;-0.44306764;0.005969566;-0.123738036;0.01522867;-0.00805063;0.89528966;0.21444316;1.5787928;-0.041055065;-0.0123155555;1.2301233;-0.40937003;-0.7656456;-2.7257571;-0.05050987;-2.7697244;1.2461637;1.2176019;-0.0125271175;0.007899027;-0.67894495;-0.8324578;0.24558444;-0.472157;0.0044256453;2.3196063;3.3192549;-0.5976352;-14.321305;1.8696842;3.3195593;2.7441216;5.3360972;1.7212639;0.022871595;-0.05994722;-0.6024125
0.07096111;-3.0854886;3.2641618;0.0039385254;0.015314107;-2.1517968;0.004681813;0.01930834;1.0891291;2.546607;-0.019026937;1.6523194;0.32068536;-0.9731301;-2.6610358;0.04379004;3.1750402;0.6685767;0.024039777;0.094311066;-0.7497558;-0.0051731006;1.7639093;-0.9777255;-0.92729634;-2.9809144;-0.1618143;1.3155345;0.040978055;2.5662508;-1.9382685;0.99668664;0.85896295;1.3463726;0.06373069;-0.12395057;0.4621733;0.43923104;2.2792106;3.0593014;0.06411085;0.41099197;1.4211764;0.09886208;0.0372446;-0.8546055;1.759205;0.7874705;1.9178635;-0.0021741707;1.7002645;0.0078292;-5.140373;1.2215016;-0.464889;-2.0916812;-2.379781;-0.05993546;1.8131073;-0.110535525;0.38836992;1.4139925;-0.3685745;-0.28355473;-0.034145936;0.020097543;-3.842461;0.23617722;-1.5824004;0.034215316;-0.028653033;-3.4236734;-3.5238843;-0.20135191;0.016444756;-0.009207742;0.06270676;3.7763693;-3.0150719;1.5854546;1.7702744;-2.1777613;0.77943146;-0.020378985;-0.091745816;2.4460695;0.3442159;0.009884788;1.2448201;1.5319057;2.3621812;0.7430131;-2.9612825;0.08559949;-0.62585217;-5.980089;-0.011667374;-2.133074;0.017254911;0.17513381;1.1242468;4.5497465;1.7362024;-0.017118728;0.012587181;-0.05140745;0.01574851;0.0786859;-0.01422994;-5.1372676;-1.8342059;2.4853873;0.008311392;0.37244976;0.02778311;0.412949;0.013089029;2.2977333;0.006756862;1.0056871;1.9441981;0.08061844;-0.035526797;1.236632;0.9249832;0.01737334;0.010915418;0.4640976;1.9589177;0.045754228;0.72387624;-1.613739;3.991076;0.038327172;2.0013716;-0.0071842466;-1.7702367;-0.0020784664;0.06058892;0.020347321;-0.2125215;-5.4594846;0.029243253;2.7750013;-1.9791203;-0.8012098;-0.92351574;-0.32481015;0.025792152;-1.705167;-0.71689636;1.1368486;-0.018561311;2.2113805;0.014302013;-1.5135455;-3.0975006;0.02783214;0.012666474;0.0311055;-0.16142678;2.6858854;-0.03314801;-0.12657028;-0.93599135;4.0512714;0.6465118;-2.181042;0.7465507;1.560442;1.5799612;-1.7209394;1.0212153;1.8287728;0.032948267;0.034661196;-3.2911997;-0.007041354;2.0118468;3.1783292;-0.0072248373;1.4440733;-0.7741936;0.4532434;0.0436003;0.022712722;-0.5634227;-1.0623534;-0.2888432;0.3122384;-3.884136;0.89521354;0.028526522;0.004795281;0.07321455;-6.045557;-1.2300016;-4.1876082;-1.1323178;-5.411367;-0.08480515;0.17135638;1.6738586;-1.6837894;1.1029265;-1.1537886;0.07679639;-0.929733;2.0920467;0.025161374;-0.012394023;0.03010558;-2.4000435;0.0067345016;-0.008189434;0.0052430658;-1.7209736;-0.007322356;0.41717374;0.4802242;-1.9487842;-0.34211573;-2.571321;1.3577256;-0.010945556;-0.21488991;-0.015006352;2.1283512;-0.044470955;0.31439131;-0.030000478;-0.3417795;2.9874792;-0.15434514;-0.07948461;0.06428461;-10.956889;-0.7975774;0.0036262493;-3.026942;-1.95022;-2.7481084;6.90792e-05;3.916032;0.05058757;-4.221785;-0.77272666;-2.7963119;-3.573943;-0.02133772;-0.06878514;0.18292257;-0.7394684;2.2035203;2.360307;0.24816857;-15.560964;0.836626;2.208129;0.99554276;-4.1261864;-0.035004083;-1.4792788;0.017300256;3.27158;0.0089556165;0.6523905;0.015792659;0.9130404;-0.10715526;-0.6769769;2.1819103;0.056029603;-0.068068475;0.059289195;0.9714171;2.5689952;-0.010751568;-4.581672;-3.3468673;-0.7762648;3.4395175;-0.00179826;1.1734363;-0.13198194;-0.60158217;1.1733437;1.680242;-1.3782866;-0.8738391;-2.9612515;1.4934596;0.051649023;-3.6845794;1.5341281;-0.026223531;-0.6236539;3.3672366;0.06195915;-0.015731012;-4.2187076;0.87705064;0.026252912;1.0755905;-0.013314127;0.038685247;-6.0268245;0.98870695;-6.752029e-05;-1.0419259;1.2876565;-0.08372737;-2.0924265;1.2923486;0.20561107;-0.61256;-0.24300389;-0.019114831;-3.2620635;-2.4141996;-0.02590128;-5.479022;1.9429824;0.08411653;-1.2728219;0.058779787;0.055806812;-0.13288535;1.0264379;-0.00023516126;-3.738354;0.0076733124;-2.8663847;0.04884299;1.0546148;4.864596;-1.6369205;-2.4640281;-0.020520084;0.91893727;-0.01670451;-0.02544991;-0.18699764;-4.1306977;2.4970374;0.6119001;-2.0611074;-6.202339;-1.8112756;0.02095828;0.012982609;-4.3102803;-0.03462414;2.0753865;0.20467341;-3.4147618;-0.027661776;-0.6093943;-1.6424881;-0.23655884;1.8159226;-5.115789;-0.04506675;-5.8431;0.029030928;0.028124088;-0.025393942;1.9840623;3.9147859;0.9286817;-1.6207662;-4.7320256;-0.84402084;-0.005876608;2.3244772;-2.4061956;0.00940011;-1.7116051;-2.2457998;0.01792453;2.6367753;-0.8448395;-0.05096207;0.20273522;-1.7730206;-0.012999374;0.02423084;2.1228025;2.2695184;0.001952797;1.1822054;1.5687748;0.035508182;1.1102654;0.011884239;1.5218694;1.7766857;-4.32459;0.023065345;-0.009237617;2.1101294;0.24607944;1.2529148;-6.5620112;0.6018424;-1.7580944;-0.6714882;1.0092715;-0.0016936617;-1.6094719;1.0083674;-3.323826;-0.036701567;-1.6482624;-2.6523945;-2.0727239;-1.6605903;-3.2233527;-0.9179091;-0.07019353;0.04319449;0.013487043;0.067601636;-3.1138637;2.0268579;0.010332889;-2.4440956;-1.7590404;1.1365129;-0.023246663;2.0101707;-2.8328536;2.246973;0.008556459;0.007887111;0.020011615;-1.3832633;-2.8228052;-0.033560365;-8.41381;-0.020720433;0.92845166;1.4793355;1.5681432;-0.031659823;3.1557777;2.9139838;-0.027108133;0.65662956;-0.61343634;0.021167863;-0.7328525;2.7934852;-0.90264904;-0.953523;1.0823698;2.1309953;-0.4015399;0.03450367;0.0044501624;3.4552894;-1.9036045;4.505703;2.7208931;0.2677086;0.037876822;-15.309489;1.355527;0.7522242;0.024699533;0.50010276;-0.055821784;-0.8484785;3.4908361;0.42402232;-2.1783423;-0.0876412;0.029863639;-2.936807;-0.0024338174;1.602534;-3.1658676;0.0032663536;0.0019641905;0.5755538;1.4704581;0.035806157;0.04134087;1.5926017;-0.82442814;-0.35815993;-1.8326508;-2.087654;0.011523216;-0.021815963;-0.7456802;-3.834022;-1.3052156;-0.03755314;0.02349095;1.0046635;-0.00908152;1.871813;-0.05025235;-0.04245815;1.6997913;-0.33715898;0.021629857;-0.022834947;-0.002499327;-0.35849535;-0.2536977;-1.3917125;-4.877335;0.018241294;0.10785005;2.9598353;-0.63418484;-0.011983699;-3.0687718;-0.105992004;-0.5957872;-4.0598664;-6.289072;0.012082695;-5.0491524;0.007912124;-0.13138238;-0.17880169;-0.29992804;0.29659232;-1.8367424;-0.17181484;3.0619524;0.04026201;0.34141633;-3.9559186;3.391588;-0.2534799;1.3495138;-0.014318444;-0.04520498;-0.0122786835;-0.107524894;0.2885296;1.5714904;-1.5867214;-0.09022989;-0.026804296;1.1054084;-0.29964775;-0.4431502;-3.2664096;0.0060063256;-3.0320346;-0.8320838;1.1493769;0.0095614195;-0.013261055;-4.309493;-1.1764572;0.6651094;0.5516423;-0.019336965;3.1288278;2.6544297;1.4293139;-13.752499;0.8742564;2.3577645;0.67405933;-1.1396815;0.9962063;0.015082733;0.012895525;-1.7512475
0.029642865;-3.1312299;1.4884146;0.008876032;0.0026670734;-2.5498233;0.04486887;0.020614723;0.85869586;2.6529934;0.024405152;-1.6115894;0.7344944;3.0072498;-0.85032344;-0.050310306;5.972652;-4.075562;0.0066358866;-0.10895418;-2.4344223;-0.0014448102;1.2211074;1.3019586;0.17653692;-3.4567647;-3.9747994;-0.8374203;0.1335511;1.0292304;-1.2759659;2.8130739;0.3990065;3.1830544;0.0070210933;-0.010134321;0.7698597;-0.08934197;-1.1219808;2.3845148;0.017884998;3.2474294;1.2804457;1.9215745;-0.022995409;-0.82644135;2.526721;-1.0689783;-1.8822645;-0.00076259393;0.9903098;0.005920177;-3.5469398;-0.77477443;0.84407055;-1.2746449;-1.0440147;1.7851832;2.7475898;-0.95297813;-0.5165391;0.7397988;-2.5449874;0.46086618;0.033063445;0.038493976;-3.7106276;-0.4818547;-0.26480767;-0.02014695;0.021692118;-4.8548574;-4.336731;-8.470837;0.032253616;-0.030308317;-0.0036305934;3.8903248;-3.193549;0.27918208;-0.2973278;-4.8083153;3.6765873;0.026887061;0.16518153;-0.6018608;1.3344845;0.1876912;2.7159798;2.1498716;2.4338732;1.5242972;-2.3198943;2.1574402;-3.4147341;-4.441493;0.030477682;0.76688373;0.03025237;-0.09598513;0.74218494;4.0010557;-1.2630588;0.032826174;0.49894497;-0.039284382;0.028549837;-0.03622267;-0.013589559;0.14848724;-2.9277985;1.4027535;0.41156036;1.4359652;0.028997151;-0.26888332;0.029622478;1.6357414;-0.0015341586;3.946713;4.003101;1.1130074;-0.0027428141;1.5780536;1.7826966;-0.02881236;-0.038700182;0.5731169;0.6458312;-0.028903846;0.799727;-1.0107341;3.3676138;-0.024088323;0.79714566;0.02186419;-2.5556014;-0.007978943;0.0072887144;0.036705166;2.047166;-5.767489;0.045882463;2.9586997;-1.6606368;-1.7725908;2.3693626;0.56703407;-0.013358845;0.3384983;1.5049963;2.9072862;-0.16814554;1.0128508;-0.007650617;-1.7516304;-3.069996;-0.041763667;0.012004595;-0.010241724;0.21002616;-1.4636301;-0.002658391;0.30144808;0.17487015;0.063909456;0.12509468;-0.18822625;0.35324878;1.9726037;0.9354393;3.4919493;-0.77922726;-0.9939685;0.00029703588;-0.010043652;-3.1225023;-0.03633502;1.1529541;2.1381307;-0.0014377399;-1.6680787;-0.12568846;-1.7173619;0.056771718;0.042892303;1.0292611;0.4969775;1.7967286;1.464364;0.09937178;-2.965868;0.044153534;0.06148012;-0.20593338;-6.7630043;0.51369643;-4.3181496;2.504113;-3.795444;0.2555526;-0.26978797;1.0141598;-1.5104053;1.1399028;-0.25285202;0.0068223975;0.6965129;-0.7924332;-0.018189956;0.00553255;-0.0003138735;-1.0489125;0.017740242;0.032657463;-0.030690169;0.7382164;0.014320057;1.0021973;1.383386;0.50443685;-1.5112908;1.6991848;1.0314798;-0.042220056;-1.098333;0.0019611043;2.3439732;-0.06598935;1.4297407;0.026520008;0.24258247;3.102985;-0.3733992;-2.2518847;0.7211807;-10.978561;-3.3758433;0.13809496;-4.6470437;0.8783815;0.6646933;-0.04049855;2.968801;-0.012117465;-3.415724;-1.275562;-2.4187696;-0.07287902;0.0097989235;-0.07733029;-2.6413205;0.45267925;3.3903823;2.8960888;-2.0922136;-14.156417;1.4964908;0.9894996;1.4215127;-1.8129191;0.73883325;-2.106527;-0.013702225;3.5330217;0.016114518;0.299867;0.009649849;-2.513687;0.8175413;0.76097745;1.10024;0.009710268;-0.97259283;-0.016143713;-0.25556648;2.3934665;-0.0016794377;-4.6167884;-1.0754923;-3.4697359;-0.47328162;0.024994593;-0.8373185;-1.3049085;-2.5801475;-0.3331011;2.1420403;0.5197789;0.9689588;-0.059285663;4.440187;0.016755322;-3.7852595;2.7967637;0.0059299082;0.4652815;1.6948158;-0.033263013;0.5190461;-3.129495;0.56848156;-0.028834501;0.28822634;0.023199266;0.3087132;-2.547303;-0.4543127;0.6600629;-0.10200169;2.3022518;0.006366788;-2.172352;1.4974258;1.3943696;0.88484365;-4.64323;-0.0005485259;-2.8182685;0.4669022;-0.010905808;-5.077624;1.5427043;-0.032780576;-0.31311426;0.034902293;-0.009302733;-0.023424303;2.0130188;0.009801675;-1.1069988;-0.031337883;-0.6971947;-0.023669517;-2.6503234;5.049426;-0.07873216;-2.0596352;0.031615574;2.360494;-0.03440231;0.0051887026;-2.14957;-3.3593395;0.2826409;1.0151392;-2.866688;-6.990747;1.3564167;-0.0010654627;0.018998412;-3.6784673;-0.011711586;-0.5720578;1.6297469;-3.2926333;0.0022505228;-1.3055447;-2.0917346;-1.106259;0.4999003;-4.7988987;0.0012312838;-3.2949066;-0.0022121225;-0.007811007;-0.018413717;3.33167;3.2733428;-0.2567617;-0.9478564;-8.8926935;-1.691072;0.0054804054;3.6495187;-1.8014343;-0.032451846;-1.9305745;1.9026346;-0.026249712;2.8187973;1.8697416;0.015155636;0.68171513;-3.2149792;-0.03216414;1.0093658;1.5884092;-0.12355621;-0.033821825;1.3679618;2.9717376;0.011258298;3.4153721;0.035396747;1.3477707;-0.1280479;-2.5483782;0.074998744;-0.023426237;0.606369;0.413078;1.1943567;-3.6570191;-2.0647676;0.071318045;-1.7019129;3.116444;-0.013211168;-2.45134;0.6989904;-3.515672;0.0358724;-5.136591;-2.8536043;-2.0436614;-1.9752176;0.7240125;-0.16347973;1.5946875;0.021354951;-0.008668251;0.026527496;-1.7939037;1.3319571;0.025117308;1.9656669;-0.7700779;-3.0619206;0.015230215;0.3120825;-0.86076313;1.6181874;0.016977526;-0.04366015;0.0056960993;-1.8536677;-2.7580867;0.04194042;-8.374421;1.2136661;0.12824537;1.7265632;0.75730973;0.0075366287;3.0417707;1.7178183;0.035257;0.273895;-1.1216838;-0.018531935;0.85658574;2.6139119;-3.1532803;1.740551;-0.22626044;3.2500706;-1.9104323;-0.020632429;0.023907311;2.3075762;3.7148583;4.613058;1.2897358;-1.1479454;-0.0262989;-14.606345;1.2615851;-1.8242505;0.0031981517;-0.21211936;0.009631599;-1.3907613;3.6378212;2.3227954;-0.7882178;0.11420168;-0.012876662;-3.5223947;0.0021505659;1.3764501;-0.9354372;0.020874333;0.02277989;-1.1418058;1.6591871;0.009688598;-0.01575603;2.0799527;-1.1122583;-0.9969491;-4.552264;-4.1284204;-0.022196135;0.10047871;0.3466306;-3.283412;-0.20411715;-0.018315885;0.011894664;-1.5239125;0.027238702;-4.8310537;-0.02224344;0.025025167;2.0808458;1.2467241;0.0020316183;-0.02325063;-0.026017232;0.7755029;1.9344044;-0.4404747;-2.722161;0.018941853;0.022472223;1.4360567;2.0322125;-0.012993196;-0.63538665;-0.36082375;0.12619354;-9.939962;-9.867572;-0.0029121393;-4.769932;-0.078257985;1.847823;3.6067529;-0.481115;0.5788164;-1.4462138;0.00026840475;3.3486216;0.012563494;2.6430297;-3.5521364;4.6483707;0.26645437;0.5132225;0.009676685;0.019267527;0.028406326;0.61496377;-1.0026337;2.2219543;1.9206092;0.01735266;-0.04877318;0.26227364;-1.4249176;-0.017041786;-6.034461;0.036206383;-2.6593359;-0.84911865;-2.0540242;0.008457891;-0.0077599157;-1.8148432;0.8951012;0.41492096;0.33123177;-0.099725135;-1.5671376;1.2051295;1.2968367;-13.174989;0.9887597;0.44203794;1.4108133;-2.3565214;-0.4024558;0.011578902;0.007255529;-1.4702687
-0.0121742105;-4.4467936;0.90608937;-0.01278735;0.0112147555;-0.84291816;-0.019645795;0.034707703;1.8965234;3.5601132;0.008080536;-0.19114463;1.0175792;2.3366065;0.0853322;0.04424829;2.5601642;-9.289381;-0.004960709;0.031922605;-2.9086554;-0.00894274;3.6389537;-1.1178285;2.9752078;0.47693726;-1.2857774;1.4468558;-0.1429684;2.029389;0.5019419;-0.48489785;1.0016536;-1.37798;-0.011988545;-0.045886274;0.44916847;0.7552224;-7.4115534;1.7061269;0.12996158;0.16424853;2.7585986;1.5901418;0.012929173;-1.3548276;2.91335;-2.390497;0.28621054;-0.031585034;5.5073786;-0.011931721;-1.4473354;0.27287006;0.8680626;0.53190666;0.18005623;3.4230938;-0.05682263;1.4693484;-0.20066582;2.8481448;-1.1069101;-1.3608037;-0.04004944;-0.020409293;-4.9124928;-0.7879962;-1.3295147;0.011888806;-0.024875386;-5.8414674;-2.8907738;-4.1692476;-0.031377155;-0.026378201;0.057615124;4.1066365;-4.484358;3.3775377;-1.8054934;-1.0242063;3.5698528;0.011444997;-0.61375153;1.4954315;3.2812986;-0.06584424;1.853622;2.5888803;2.2898126;1.750007;-1.1596252;4.3852925;-2.396779;-5.1423645;-0.13411425;-2.159433;-0.035112232;-3.786522;4.102254;4.288737;0.8135647;-0.019031256;0.035125878;-0.016685667;-0.008511204;-0.054256685;0.0066170506;-3.2677693;-3.4382315;-1.0281371;1.5556772;0.6401109;-0.018024186;0.89835644;0.00014328505;-0.790432;-0.010881608;3.7032645;4.414241;2.943518;-0.056584932;0.84466356;1.254218;0.039073832;-0.15360154;0.90795785;-0.6797719;-0.00036318364;1.402521;0.0046779662;3.25753;0.031501345;1.1337159;0.016131684;-0.98024195;-0.0032980903;-0.014802544;-0.026420323;3.0792406;-2.908592;-0.020307038;4.173199;-2.1082435;-1.5927254;1.5799643;1.7920624;-0.031643897;-2.4615784;2.5459776;2.0642734;0.83191425;0.45752022;-0.013867298;2.9205925;-1.6852244;0.044602748;-0.053273775;-0.042102728;-0.31236166;-1.1178731;-0.043366354;-0.065765515;0.9159297;0.8887513;1.1018547;0.4518522;-1.4405879;-1.0662458;2.1849837;-0.76544046;0.39218593;0.9168151;-0.0028592434;-0.016276114;-7.7766385;-0.021070555;-1.1371473;0.53026325;0.022925338;-2.062978;-0.044112984;2.8071992;0.009592002;-0.0151532795;-0.219015;2.1646974;2.477498;0.86187595;-2.0080924;-3.951022;-0.014645586;-0.14520442;1.3860085;-6.123304;0.36834526;0.57604724;2.4778218;2.1144998;-0.13542825;0.21466386;0.30075905;-0.9944878;0.50614786;0.42004842;0.0066278814;-0.01990779;-2.7034798;-0.041532367;0.0011058418;0.013387567;0.741601;0.04717006;0.04330236;-0.003517499;-0.80358595;0.017543916;1.6108164;2.9736083;1.4553672;-2.8368976;-2.0024016;0.42210138;-0.028303724;-0.7495566;-0.0033405363;2.8713272;-0.07684972;0.5815749;0.0050884606;1.2844313;1.686308;2.366261;-1.6812369;0.070513375;-3.0171726;-1.9174494;-0.031469055;-6.4977555;1.3461497;0.17502832;-0.024575973;4.9095716;0.0143803675;-3.5458715;-1.6236421;-3.2288268;-1.5988661;0.024704723;0.97025025;-0.7378524;0.3952952;-0.22245207;1.9048005;-0.044060107;-13.938906;1.1771133;-0.6452344;-1.5673257;-0.23292258;-0.06482869;-0.41884112;-0.025766661;3.9931116;-0.011144207;0.5101738;-0.00268955;3.2630591;-0.8866835;1.4776833;3.4548028;0.0010281911;-0.008722095;-0.005085344;-0.3763177;1.2584115;0.005108269;-3.3152966;-2.2159915;-3.2637336;-2.184199;0.05349334;0.08004955;0.0027102216;0.007867822;-0.3574815;-0.34251684;-0.58040965;0.015334231;-0.8130315;0.9326544;0.005377957;-3.4580994;4.003966;-0.028821727;2.7387013;2.5388722;0.009594184;-0.06312814;-0.1319805;3.0040112;-0.020978538;-2.5057497;-0.001470747;-0.033816647;-1.8128594;1.1245277;-1.0935888;1.4136323;1.5006174;0.081649125;-1.7119772;2.1308897;1.2789646;0.9073341;0.4771037;-0.0026255941;-4.524415;-1.548985;0.021817688;-6.6028175;-2.990761;-0.0065564024;2.2590592;-0.0031094807;0.005189123;-0.049823083;1.8086598;0.005089518;2.0203767;-0.006703348;0.9731714;0.004961078;-2.2721672;5.340309;1.050287;-2.681787;-0.04877209;1.7939556;0.027896013;-0.013628089;-6.282608;-3.6956542;1.0893652;1.0770551;-4.301264;-1.256961;2.2445202;-0.03775785;0.0005929835;-2.1617303;-0.009811863;1.3625973;0.7249953;-2.6811821;0.09508121;-0.9434327;0.88220423;0.19071679;0.040468674;-5.63033;-0.030927086;-1.6909027;0.00776553;-0.06344241;-0.00835768;1.59827;-0.09916224;0.18265826;-1.3742844;-4.5683403;0.35167107;0.022534829;3.3474298;1.9807426;-0.0127064;-1.9876616;1.3265221;-0.0040831715;2.0195293;-0.31030396;0.04550524;0.8654729;-2.5375388;-0.0038439394;-0.18325128;-0.1172646;-2.0002155;0.026893182;-1.9578593;2.9653103;0.009634638;3.960798;-0.018589435;0.6155725;0.11035451;-2.8929799;-0.052446228;-0.0453457;0.3380287;-2.5625098;1.8332744;-3.691667;-2.6904018;-1.8737233;-1.8794434;2.7088554;-0.046532325;1.5724437;0.93825287;-3.5550053;-0.019183299;-2.4548163;-2.4215536;-1.7287;1.0400399;0.08770466;-1.4769225;-0.17172536;-0.021016417;-0.0014576298;-0.012715064;0.93281174;1.7027934;0.0038379165;-0.45318905;-1.4012157;-1.2589628;-0.03682669;0.7481025;-0.7127624;1.5311663;0.02963944;0.006517202;-0.057456046;-0.4489442;-6.457972;-0.009874032;-9.031555;-2.8746827;0.09093634;0.9315982;-0.2551628;-0.013111345;3.441838;4.1573253;-0.0024668004;1.1904464;-0.0922603;-0.011079849;-0.78661835;-2.7796628;2.9685266;-1.1830215;0.43176773;-0.7223374;-0.77440804;0.51538104;0.024975864;2.425394;-0.87797844;3.8829637;-0.96309096;1.40781;-0.013714939;-15.157648;1.354423;0.025190959;0.073663965;-0.72211236;0.058152992;-0.8936931;0.4880976;0.39091915;0.4445259;0.35750806;0.041129965;1.3280604;-0.014503227;1.1244599;0.9536603;0.027949577;-0.006190947;-3.3029995;0.1330353;0.013127548;0.011598081;0.8020414;-2.6955101;-2.5958982;-1.4125447;-4.327194;-0.019302906;-0.0080506485;1.7133442;-4.5833683;0.7444022;0.030859364;0.021572897;-0.28337348;-0.03449675;-4.227225;0.01990952;0.0110114785;3.4703593;-0.60955983;-0.035892323;-0.0015649005;0.017490594;-0.05799067;-3.4048202;1.1218591;-5.405156;0.037797526;-0.43882248;1.2947206;1.4265108;-0.0030261783;-1.1839263;0.2518268;-0.15837438;-12.02133;-4.219147;0.0021476948;-1.0367831;0.62832445;1.4839755;1.5641751;-3.9577093;0.7872066;-0.026267862;-0.086382486;2.3262475;-0.049128402;1.322197;-3.9574232;0.77065736;-2.4289527;-1.0784233;0.0059111067;-0.036956843;0.02552196;-0.06555401;-0.004141281;2.401777;1.6779659;-0.06942044;0.013353839;-2.2165112;-1.3797125;0.24625976;-1.7138919;-0.011002731;-1.8124127;-0.6963203;-2.2063746;0.00021531244;-0.013212931;-3.1931524;-1.9743053;1.0592937;2.8127854;0.7174653;-2.0628338;2.207149;2.7308815;-14.383785;1.0911705;-1.4700208;2.0376709;-4.749357;-0.83107793;-0.018598173;-0.005712124;-2.218122
-0.017179675;-1.4261878;1.0131003;0.018649105;-0.014187845;-0.95469314;0.018599028;-0.002911634;1.4721293;3.8353229;-0.010665463;-1.703812;-1.2904673;0.6996173;-0.87198627;0.030317256;1.8959416;-1.658717;0.03603806;0.059361354;0.046053294;0.027715366;1.0405421;0.816768;1.6381232;0.21039732;-1.7404265;-0.39549968;0.039620023;3.2042937;-1.0656347;0.023327122;2.2705524;0.8305564;-0.02536851;5.067063e-05;0.097125314;1.2661799;0.83853215;0.96548355;-0.10126602;-3.791237;2.6831353;3.173338;0.020924414;0.18297456;1.968543;-0.6640795;-0.6746754;-0.0101537695;0.30346927;0.022469733;0.6944921;-0.36399066;-0.16896926;1.7736007;-1.2196114;0.92520946;-0.34120414;-1.1481041;1.1264992;0.6201708;0.2545731;-0.9550379;0.024399703;0.0066992445;-2.1149049;-1.4226187;-2.7136674;0.0046409843;-0.018643863;-3.1973436;-1.1331275;-4.1378617;-0.0013144414;0.018185532;0.02071834;3.7257671;-0.5959324;1.07391;0.7358394;-1.0008988;-1.4932997;0.001963563;-0.47081277;2.9620929;1.7682111;-0.09245805;2.3117528;0.372383;2.132206;2.4440746;-1.8985047;2.2878993;-0.941504;-5.590677;0.04551252;0.0542994;0.009667696;-3.4494774;1.0355307;1.1411535;0.037745383;0.009098783;0.023968697;-0.047593407;-0.0045150095;0.010441776;0.036475908;1.7929301;-0.9564431;-0.68621635;-0.052386083;1.3982943;0.002424702;-0.3591907;0.016559228;1.4166203;-0.009378099;2.6801932;3.992573;1.9925076;0.0826279;2.2043576;0.8676861;-0.009347593;0.8389882;-0.23079863;0.0077224444;0.0031703524;2.2320118;-2.9800675;2.4062054;-0.017304653;0.6902382;-0.022082515;-1.1452817;-0.007435871;0.0015845635;0.02946457;2.795139;1.1846454;0.033130568;2.2101126;-1.5666188;-3.945272;2.5159435;1.2231106;0.055589795;0.06670556;0.7221534;3.1763353;-0.30153814;4.2965426;0.10420574;-0.5078805;0.82796246;-0.047386214;-0.016204389;0.23063532;-1.7295591;0.23190913;-0.038068306;0.0025293366;-2.651103;0.27462825;-0.106837004;1.9377384;-1.8703419;-1.1834813;1.9714671;-0.56191635;1.3558828;0.27436465;-0.025341256;0.019424545;-3.426045;0.03154796;-3.0709374;0.44066423;-0.025393588;0.10540745;-1.013224;2.5789323;-0.0016731159;0.041282106;0.24345265;1.2295631;-0.83684576;-0.62382805;-3.2694252;-5.7099323;0.016532399;0.68866277;1.0142102;-7.1795516;0.61953694;0.4883471;-3.8453815;2.9463637;3.1561024;1.0221256;0.93883026;-2.820778;1.0151719;0.12796071;0.021483814;-3.7194924;-2.6071322;0.005587589;-0.017042128;-0.037929416;-0.8453861;-0.056944966;-0.020842407;-0.017766664;-0.32765976;-0.048725706;2.4691114;2.106994;-0.8939435;-3.5102398;-1.074859;-1.4713671;0.03905056;-0.4960754;0.0055508344;2.5621598;0.02268242;0.3061426;-0.0036890977;2.3196528;0.79511094;2.5557396;-0.24525909;-1.0269183;-2.0888522;-2.2286227;0.026328947;-2.9982948;2.9183013;0.8502935;0.0027207402;4.856625;-0.03734163;-3.5367007;-0.7906696;-4.1342864;-0.93307704;0.042733975;-0.16920744;-3.184077;2.103263;-0.79199564;0.9812011;0.831665;-13.010908;1.1622369;-1.105558;-0.10076787;0.6357277;0.35862312;-0.9649204;0.030875416;0.5472467;0.023028683;0.44777745;0.03993187;-0.5698334;0.3985153;-0.361541;2.6559267;0.013798762;-0.8199731;-0.01621813;0.1360968;-0.3707712;-0.0054663448;-1.8180865;-2.2531161;-2.0762234;0.04735447;-0.0059405235;-2.7398689;0.09612652;-2.4743972;-0.22822918;2.5531335;-0.7479834;-0.18736666;1.1981732;-2.8175082;0.009569018;-1.219392;2.7056973;0.030909993;0.6934661;0.25591496;-0.006197225;-0.05303318;1.2520527;2.315353;0.0020161045;-2.0084286;0.015958415;0.06198274;-1.5093462;0.4821841;1.4023592;1.0534897;1.8521703;-0.008965659;-0.63814807;-0.81440717;1.557726;1.9509262;1.596196;-0.023284188;-2.7386951;-0.7775548;-0.039549906;-5.864661;-2.5472481;-0.028244345;1.4963737;0.0019886226;9.844418e-05;0.76233333;-1.2164445;0.025461324;2.5117972;0.004458042;0.15440942;-0.025034588;-3.2448323;4.993126;0.18638386;-1.7183105;0.02308311;1.1262422;0.019514538;0.008351074;-2.0874217;-2.1823916;0.9350735;1.0058541;-2.9783828;-0.076591276;0.869977;-0.020496484;0.05731278;-0.99574023;0.034244347;0.92535377;-1.549235;-2.2333593;-0.029685767;-1.5225691;2.1906333;-0.043707836;0.5158899;-4.2840366;0.043664206;-0.20688382;-0.010458682;0.045023;0.007328812;-0.19497491;0.4111619;1.1602639;-2.2372046;1.4988623;-0.37076953;-0.04424103;2.581849;-0.04423871;-0.007655976;-1.2972784;0.8772682;-0.020037333;4.6732936;-3.1236572;-0.059184354;1.5921645;-0.4320027;0.012882419;-0.043939233;-0.32516775;-1.4808673;-0.012839086;1.0610484;1.1255102;-0.006762567;0.18400832;0.04210263;1.2739736;0.33153158;-2.379744;0.06601311;-0.031676996;-0.8146184;-1.8380213;0.8566103;-1.9424212;-0.70242745;0.79667675;0.5316256;0.8998153;0.029474702;1.4167979;-1.5239244;-4.4243283;-0.041635077;-0.6953205;-2.5402818;0.32608107;1.3048768;-0.8326778;-0.058916178;-0.9324993;0.0022195214;0.009549315;0.022646835;1.9901954;1.6997675;-0.008697181;-1.5254779;-0.44931546;-0.37276185;-0.021331463;-1.0657053;0.8100969;1.0448835;0.015721029;0.0018720966;0.023270464;-1.5404291;-5.535425;0.013925462;-8.1793785;-0.5504925;-0.029619338;-0.48442718;-1.0435096;0.032446146;0.21252191;3.8672147;0.019430943;1.8981626;0.2165374;0.035677142;-2.714636;-0.94266313;3.9049973;-1.2771294;-0.6382963;-0.14762582;-1.7214924;-0.12530984;0.04089268;2.9379563;0.25841653;3.8481274;0.9712261;1.0442748;-0.008267487;-13.309649;2.3158207;1.8123051;-0.023761844;-0.6306155;-0.016248535;0.28803086;2.93561;-0.45999297;-0.30553553;2.7646666;0.0052565197;1.130326;0.0217146;0.8701752;2.1679635;0.10462557;0.03382674;-1.9884204;-0.4137315;0.02889254;0.03628382;1.2280525;-4.6951847;-1.3440118;0.52656835;-1.0843186;-0.026061175;0.04738055;2.2801201;-2.3884065;1.8835752;-0.008624136;-0.0089895325;0.6426259;0.0033551694;-3.3831036;0.011850411;-0.014638733;3.7112823;0.73091376;-0.020656656;0.007956449;-0.050378148;0.5847766;-6.2452965;1.1545464;-3.5895233;0.006782243;0.00262679;-1.2678384;-1.5193099;0.0575326;-0.05234821;-0.09644308;1.2022698;-12.651518;-1.9983072;-0.0117214285;-0.53625184;-0.1581485;0.76119965;-0.347811;-1.7789181;-0.47150218;0.6314123;-0.009764702;2.3923755;0.029043352;0.035441242;-3.6322973;2.4138029;-0.48577335;-0.1265632;0.03456259;-0.0016813041;-0.043438632;-0.026104512;0.3979073;3.0647082;2.2209897;0.0022645337;-0.03475714;2.3821025;0.21038547;-0.80094326;-0.3808655;-0.0085410755;2.032967;0.13317598;-0.34544492;0.034752592;-0.055413313;-0.05973955;1.4522591;1.5942844;4.9060483;-0.09728829;0.059951242;2.5037956;2.1313462;-12.6180725;-0.63664126;-3.5186663;2.988599;-5.108541;-0.97292036;0.019134395;0.028316297;-0.5837057
0.01803339;-1.1088911;3.3687723;0.046174668;0.04249557;0.5041549;-0.028795818;0.048406012;0.8004979;3.9771745;-0.01475123;-0.9550381;0.9817329;1.486449;-1.3530003;0.012367514;0.3385088;3.59373;0.012864198;-0.07590685;-1.4265575;0.04417928;4.5418715;1.0726782;3.694671;-0.18774968;0.5086975;0.28991222;0.089153275;3.362718;-3.6401262;0.6617172;1.4056076;0.028382063;0.032887015;0.10554548;-0.24340215;1.9113414;-4.6543527;1.5272998;1.2455627;-4.161964;2.1943982;1.6755524;-0.025661198;0.60945535;2.755491;-0.03413574;-0.4338353;0.026903177;-0.26203465;-0.028894067;0.85758334;-0.7218232;-1.62504;2.3002398;0.13410355;1.770657;-2.0916727;1.867594;1.531048;-0.4514701;-0.8587895;1.0555755;0.02998331;0.054556873;-3.3437686;-0.7314922;-0.9773689;0.024142332;0.035261773;-1.9909778;-1.9043689;0.0286383;-0.012727201;-0.015857898;-0.05579883;3.4572082;-1.3071877;-0.07922108;-1.2630181;-2.3883083;-1.9648546;0.0083759185;0.43713847;0.97107416;0.30018204;-0.026221605;1.0795318;1.3179201;2.1137242;1.3309083;-0.92191076;2.2110767;0.4068474;-6.3390265;-0.021909995;-1.0448374;-0.006130825;-3.3596954;-2.7370307;2.1892154;0.48305118;-0.039903373;-0.5614962;-0.016560003;0.04888809;-0.048813853;0.027557498;-7.089287;-0.5119352;-2.231584;0.5019178;1.0904921;-0.042539656;2.4474869;0.036817253;-1.2309068;-0.02216619;4.350797;3.7490582;1.5506736;-0.024637096;3.1217732;-0.11873228;0.0073468774;-0.18303508;1.6311625;-1.7674106;-0.0023146472;1.9478364;-1.0025009;0.6990901;0.061924145;-0.4622721;-0.009573054;1.2643447;-0.0015805771;0.0065005296;-0.017370734;2.646587;1.6847881;-0.010895026;2.398618;-1.7272089;-2.1546953;2.70688;3.504694;-0.01889195;0.62174255;-0.694328;2.8628125;-0.048395626;-3.4278777;-0.010471129;1.1586918;-0.19809139;-0.0034791837;0.041263215;-0.08264954;-1.3474756;-1.5045297;0.01856965;-0.010019449;-0.7863915;2.315709;0.9049609;-2.367872;0.809335;-2.3215485;0.8183613;-1.1111982;-0.65362006;0.49867573;-0.022192331;0.012017091;-5.3446493;-0.03534833;1.0222021;-0.31797677;-0.04512478;-0.3658655;-0.07768774;1.6135701;0.029387698;0.04815127;0.18154486;3.228811;1.4381839;-2.4190173;-1.4172567;-5.2949963;0.010983354;-0.07329297;0.6564084;-5.884088;0.02173736;-0.8599998;-2.5689855;2.3197753;-0.25288737;0.8296914;1.2873895;-3.0851314;0.6682517;-1.0868284;-0.030892108;-3.6712863;-0.66447824;-0.01217701;0.032114647;0.027191339;-1.7444633;0.023804799;0.0363409;0.008617722;-0.22635704;0.03808869;2.332211;3.6445763;0.8174286;-4.089319;-0.23556776;-1.5739886;-0.027991619;-0.40277347;-0.01902568;1.8187171;-0.057119507;2.1147332;-0.018736968;0.73249954;-2.6850357;0.91015136;0.7813119;0.3536399;0.6980931;-2.3519485;-0.014242872;-0.8785036;1.5468243;-0.39920104;0.055338718;4.6770697;0.03557094;-4.0486717;-1.2050556;-1.686231;0.26310727;0.010140766;-0.037615865;-2.2133553;1.247782;3.54923;4.1279917;-1.8886589;-12.6353445;-3.2321243;-4.02148;-1.2230256;-0.3122231;0.84778136;-1.4217184;-0.0069376635;1.8101271;0.024425168;2.204463;0.030389508;-2.4141302;-0.8787273;-2.7070677;3.350381;0.023547333;1.6245764;-0.036868077;-0.035062563;0.8603008;0.004955283;-3.3075786;-0.66657495;-3.2872665;-0.12928687;-0.00085054705;-0.33360177;2.3203888;-1.310407;-0.69702625;3.8085482;1.2561975;-0.7993296;-0.15293862;-2.07945;0.009884719;-0.8943369;0.4413545;0.05797285;-1.0927328;0.39852577;0.056559082;-0.026173204;-0.7850611;3.8316042;0.026427668;-3.2561135;0.0062716007;-0.6782141;-1.913323;-1.4866734;1.4525024;2.8487964;0.49508613;-0.002115657;0.8890827;-0.8382667;1.693054;0.40828303;-1.0562633;0.011583441;-2.7197196;-0.6669625;0.05110118;-6.0645785;-0.6984844;0.022018068;1.7557427;-0.007620763;0.0020673515;-0.25576717;-0.8918451;-0.012497356;2.7658272;-0.009754997;-1.3965051;0.023667388;-0.9605038;3.9836113;0.03790547;-1.7878398;0.0065468135;-2.0321116;0.009581084;-0.07964326;-4.723278;-0.17492579;0.32245904;-1.0349452;-4.134398;2.1718302;-2.5189133;0.01232317;-0.026717933;-1.0653685;0.031911355;1.9835088;0.21105213;-1.8027345;-0.0060527744;-0.90212965;0.29005125;3.24457;-0.5111228;-2.314249;-0.0030205525;-0.990454;0.0076751374;-0.02787043;0.015116903;-1.0850435;1.0266606;-0.43680817;-0.9037211;0.46614397;2.2688522;0.026446488;2.839723;3.5446496;0.01597726;0.4858368;-1.6750809;0.051461235;5.4597464;-5.8603783;-0.020552447;1.7972847;2.934564;-0.017038684;-0.06970808;0.61394596;-0.31016514;0.06958065;0.45253772;0.43866503;-0.0019990958;0.31582788;0.020970164;1.18612;2.1246004;-3.1959453;-0.023514155;-0.003121475;0.0748289;-0.27616245;0.99919873;-2.1929295;-2.823996;-1.2473501;-2.8400974;2.2462955;-0.038915437;-0.31834474;-0.42076564;-4.7630243;-0.030702718;-2.309002;-2.591766;0.7161689;0.9322915;-3.5576687;0.20082757;-2.0080945;-0.0013726094;0.0133905;-0.0040035914;1.5861874;-1.682562;-0.020078896;-2.4326108;-0.14122483;1.0473663;-0.0314824;-0.4373874;-0.00092596497;0.303373;0.042552877;-0.07312549;0.01282409;-3.6697512;-1.2986568;-0.010723628;-8.495347;1.5334301;-0.012602127;0.43491825;0.275356;0.07938891;0.616246;4.9666557;0.018765545;1.4317361;1.5543058;0.037286572;-4.1080894;-0.29179126;-3.5596676;-0.69500285;-4.4255557;-0.19094425;-1.8470087;-0.026679548;-0.0129794;1.0379305;-1.0784273;3.4119802;1.5255119;2.6090686;-0.009341025;-13.597549;2.1535795;-1.5050749;-0.021881327;0.3633448;-0.019992284;-1.1485895;0.85212135;-2.2955127;-3.5787659;2.4695117;-0.004892667;1.2617759;0.024203192;-0.12481741;2.385123;-0.06727465;-0.036930703;-2.0079439;-0.3818531;0.019160511;-0.006279975;-0.12680063;-5.8298864;-0.5624708;-1.7123519;-0.29409894;0.044222236;0.027498698;1.7148669;-4.252805;1.9922334;0.014859967;-0.024137788;0.12150881;-0.0406805;-7.3876147;0.038342062;0.03930317;3.24092;0.3642159;-0.02824641;0.030775288;0.056970786;-2.6589298;-5.27823;-0.15850241;-5.681866;0.008833196;-1.0448109;-6.840079;2.640961;-0.02152647;-1.8698285;-0.34475267;3.3007872;-13.492864;-2.0086486;0.018909184;-0.40950143;0.018180408;0.0729159;-0.5692222;-0.88442886;-0.22994794;3.1108289;0.023449855;2.6738856;0.013977227;-0.39053157;-3.000867;2.4599988;-1.2578889;0.49893215;-0.0012546382;-0.019006576;-0.022965766;0.0024147085;-0.95584613;2.3117383;0.04025976;-0.0032413262;0.025237175;0.03337698;0.83630925;-0.15804973;-2.6801472;-0.0029403316;-3.2139978;-0.21017103;-1.0141193;-0.037564185;-0.00952075;0.6280564;1.4832587;0.7909432;-2.0052269;-0.04516901;1.3293418;0.4829731;3.4408267;-12.592409;1.0049021;-4.5124927;-1.9857007;-3.4800513;-5.023394;0.014509876;0.008281803;0.7340078
-0.041044686;-1.6604083;2.38564;-0.016854519;0.00476377;1.1140028;0.0668783;0.0037206346;2.0213566;4.442419;-0.0078064953;-1.8249948;-0.043071836;1.4713553;-3.0080378;0.05797567;1.1036751;3.10915;-0.02024429;0.0024624215;-1.7429785;-0.03067407;3.504753;-1.2784839;-1.1677792;1.4912062;-0.8128311;-2.8914542;-0.012052438;2.3309066;-2.9926474;-0.13838431;0.22664294;2.629879;-0.008154176;0.0020946213;0.26020262;3.8849313;-0.21350658;1.2979037;-0.20356078;-2.6725833;1.7215977;0.6807043;-0.010940329;-0.5773905;1.7710407;-2.2245986;2.2757418;0.0033231745;-3.6009052;0.038355436;-1.0962678;-0.23526032;1.1790985;1.4266223;-3.1617215;-1.5715263;0.098946385;0.7528824;-1.0620683;0.72760403;0.45166194;-0.58042103;0.0058906493;0.029754005;-4.250963;-1.3573381;-1.9248964;-0.020022122;0.012297455;1.7218759;-0.71795;1.2804071;-0.024566185;-0.04096178;-0.071191475;4.343343;-1.8385473;0.53712;-0.7745104;-1.3538821;-2.3745916;-0.0023663873;-2.6889448;3.4471593;-2.7825584;-0.05344818;3.9950058;0.8564973;2.4847412;0.26048744;-2.4483325;0.066153094;2.509431;-8.491228;-0.0022896987;-0.1618902;0.012764395;-4.061273;0.75940526;-1.7990651;0.5979947;0.028479848;-3.084738;-0.0025061811;0.016732994;-0.036455564;-0.035066;-5.0813856;-0.1523324;-4.2059216;0.5446254;-0.23936743;0.013260093;2.966536;-0.019130263;-5.3185534;-0.0021729537;2.6806843;4.3891506;-1.0203954;-0.029385354;0.6027946;-2.2133229;0.01528586;-0.031841066;-1.5125799;-3.77429;-0.009705524;1.7549344;-1.5713104;2.1077209;-0.013703124;0.7595124;0.023080671;0.10121929;-0.018432152;-0.0008931982;-0.030282112;-1.9407834;2.0583172;0.019275658;-0.84099925;-1.9190738;-1.3038536;-0.4529828;0.0033444408;0.0748393;3.1081653;0.9966015;4.7647276;-0.009730936;-4.3736405;0.022684593;1.0435051;0.045997906;-0.004735982;-0.029427651;-0.0060280645;0.1827358;-0.92354804;0.0048365435;-0.0003369211;1.5370297;-0.160041;-1.1349638;-1.0620539;1.9764812;-2.736727;0.9799201;-4.656046;1.6519448;-0.76314497;-0.00027086158;-0.0133989565;-2.5868063;-0.013252079;2.1381443;-1.6752836;-0.00843964;0.7159163;-0.303804;1.8846794;0.03409638;-0.023028564;-0.1124579;1.8885692;0.30269548;-1.9694444;0.38041937;-4.4455123;-0.006418196;0.015290202;-2.063373;-0.7544592;0.523466;-2.7543247;-3.0162222;1.043975;-1.8783588;2.8186243;3.670988;-2.5788145;0.0128834685;-0.397313;0.04850851;-2.1788774;-2.8490453;-0.014787765;-0.008577364;-0.024887301;0.9575507;-0.047278237;0.028973984;-0.00641153;-0.22871856;-0.031873923;2.78801;1.7757819;1.1056824;-4.998204;3.1237118;0.5284776;-0.021860903;-2.0263383;0.027072355;1.4838847;0.039492086;2.6362686;-0.0021549158;1.9961466;-2.7411902;1.0560095;1.0998892;2.6222782;0.053235862;-0.061150543;0.05473057;-3.2432594;1.9820828;2.0646765;-0.0049038455;1.4503835;-0.045303553;-4.31795;0.8708001;-2.2956073;-0.21261372;-0.00455475;-0.098878175;-5.2409678;1.6052824;1.9016759;4.2478642;1.863399;-13.67433;-0.253298;-1.9546299;1.3755758;-1.6236117;-3.1853173;-2.4942982;-0.033264674;3.2184477;0.005900043;2.9548092;-0.007287019;-5.581342;1.2386248;-0.41256484;2.3260684;-0.08499618;-3.1147733;0.016315008;-0.099288136;1.8694189;0.0032171889;-3.3269503;-0.08658302;-1.7357543;-0.37781534;6.967362e-05;0.34449252;4.7839694;0.6292379;1.097406;4.039667;1.4124712;2.8561053;2.0035033;-2.6052003;0.0051549054;-2.8215084;0.2904039;0.08871978;-0.30429482;-2.241796;-0.0012755785;0.0056160307;-2.759264;2.3531287;-0.008376405;-4.315895;-0.03686881;-0.8447178;-4.5325212;-2.839541;-0.15428849;0.34392023;1.7004123;-0.04985078;-2.0399468;-1.8110192;1.6889579;0.04260091;-0.87390167;0.03229797;-3.435448;-0.9812635;-0.0039699897;-7.3510346;0.930498;-0.01819932;3.029222;0.007662713;-0.07317183;-0.08989762;2.5444312;-0.01245298;2.2474608;-0.003982393;0.50463045;-0.054971755;-2.3427637;3.849695;-4.2128615;-1.8587934;0.008850266;-0.79785025;-0.009148459;0.04164448;-2.4753785;-3.9727376;2.759319;-0.9669532;-1.283528;-0.6674276;-1.1209137;0.031385507;0.009436776;-1.8912985;-0.01142926;-1.0382496;0.10459084;-2.598429;-0.02571666;-1.121078;-2.3156302;1.9787717;-0.59301037;0.97051424;0.005989633;-1.985157;0.00065105426;0.0066019823;-0.02738507;0.26471102;1.6675988;-1.7741582;1.5097685;-0.510897;-0.48769954;-0.08454279;4.900274;-1.2138308;-0.03703312;3.0915291;-2.2286885;-0.035948794;3.5564873;-6.5299616;-0.15953024;0.5836569;1.5275651;-0.01406513;0.00062319625;-1.4571146;3.3700159;-0.06284917;0.099366546;1.3527291;-0.06815032;3.4422405;-0.040601972;0.8751207;1.018647;-2.8315804;0.0029704873;-0.046823997;0.10565388;1.1585647;2.393976;-0.20730151;-1.8679211;0.48182383;-4.219872;1.6580749;-0.022565437;-0.033190053;-0.40481758;-5.2992535;0.02630727;-1.021824;-3.1166878;-0.6292412;-0.79796433;-1.1594734;0.8766017;-0.91640264;0.01915842;-0.012688408;0.015241706;3.9103642;-2.3238268;-0.00041391057;0.54068255;-6.0594883;2.2072473;0.0034313665;-0.34888792;-4.7787642;2.5026755;0.0056147934;0.020822348;-0.024458962;-4.0146103;-4.760677;0.0048759417;-8.664029;1.7174088;0.03919032;-0.78186584;2.7759435;0.0263462;0.43849918;2.8199832;0.019765038;2.4760723;1.3113794;-0.024725506;-5.9352784;2.190269;-6.01752;1.6879393;1.1159873;1.2347478;-0.3361659;-0.022480503;0.08886487;2.3458362;1.4729052;3.556351;2.414469;0.5877899;-0.054468088;-13.465752;3.1441286;-1.1436518;0.029467585;0.9575492;0.020795025;-0.83660716;-0.28142118;-0.18936071;-2.721049;3.493907;-0.01284113;-2.4199934;0.016562147;1.9169321;2.0234678;-0.013956375;-0.014588859;-0.5627354;-1.0620588;0.022342455;0.0085971365;0.75643575;-3.7439833;2.232725;1.2672108;-4.015512;-0.02599384;0.019737419;-0.2755592;-5.2382708;-2.3983183;-0.0032165938;-0.02966239;-2.6711187;-0.005347829;-5.9288197;-0.02064975;-0.023615008;2.6833386;2.7705002;-0.026156396;0.03497359;-0.020143077;-1.6419618;-5.623531;0.2926409;-2.3008902;-0.00988696;-1.4543684;-4.835661;-1.4310538;0.009174265;1.0075667;-0.56627464;-1.1803994;-15.370421;-1.5532066;0.0042996067;2.2821362;-0.06604944;-1.4760919;2.1089885;-1.9510111;1.413498;2.3070416;-0.016422955;1.5339061;0.010652897;0.021644803;-4.158273;2.1712368;-1.6069894;1.0088696;0.039419852;-0.008337969;0.032043375;-0.0135196755;-1.2039919;4.0552855;2.2000976;-0.003894424;0.017410578;3.3519576;2.922859;2.3379493;-3.0869088;-0.03613034;-0.93243325;-0.08001655;2.392954;0.02709582;0.022946682;-1.8542665;0.15969457;1.4979023;-2.669861;-0.05486878;0.8556115;1.7933725;3.4558914;-13.693761;-0.82677495;-3.287475;0.34408465;-2.0228875;-2.375044;0.030056164;-0.02347344;1.717619
0.07254439;2.4917397;1.7083865;-0.01864431;-0.03469227;2.328771;0.006971418;0.02019764;0.5081691;4.137914;0.007811312;-3.4007616;0.756695;1.4018764;-2.9126735;0.026305132;1.0031505;4.819006;-0.00016722616;-0.36109543;0.75488013;0.01107548;3.702553;-1.3626384;-1.2447158;0.945708;1.470585;-3.313013;-0.008567789;1.7748954;-3.43301;-1.9176959;-2.7827237;1.8507744;0.0052086934;-0.01868984;-0.15908986;4.604097;0.9280519;1.3334258;-0.16303474;-3.0071485;2.7068539;1.4353386;-0.034885798;0.7681529;2.4497216;-1.3620392;2.6727824;0.01268667;-1.7192668;-0.017099492;-1.6665553;-0.20765828;-0.08119308;-0.45837268;-2.1537948;-0.53819335;3.506754;3.385481;-1.0348738;0.53982157;-0.5237123;-0.55087084;-0.027171971;0.015327066;-1.3032367;-1.5326654;0.5970699;0.0018580855;-0.0007804612;-0.12277491;-0.44307318;2.4591432;-0.00886677;-0.0026142178;0.00016888168;3.4052157;1.7536323;3.1041055;1.969677;1.1575403;-0.99388003;0.02792314;-2.1385438;1.6262612;-4.990495;0.06884336;4.1726127;1.6394666;2.1652448;-0.13596798;-2.0640392;-0.16794449;-1.2542022;-9.249522;-0.013653826;-0.9792106;-0.018003237;-2.8704727;2.1558275;0.79745966;0.6403877;-0.06050475;-4.1309457;-0.06510305;-0.0004393297;0.030564193;0.029101994;-0.4268959;2.2063332;-2.6729705;1.6875968;-2.5256834;-0.03804223;3.2117152;0.024105;-2.0142875;-0.029708594;3.4957325;3.3442316;1.209235;-0.0044336333;2.2823105;0.072099395;0.0043434394;-0.06684324;0.79574245;-3.2186143;0.008069954;1.404674;0.032133587;0.62500304;0.011550963;-2.0984693;-0.04253392;-1.9796218;0.010190486;0.010180166;0.030809533;-2.5902176;3.883286;-0.009533763;-1.681865;-1.9518099;-2.0463395;-3.8320816;-0.69018596;-0.0065446333;6.037145;0.7242802;2.4968703;-0.009393987;0.5633815;0.013680316;-0.28201604;-0.07996266;-0.021255992;-0.02413919;-0.05598083;-0.5610693;3.688399;-0.020060781;0.040534735;-1.3290292;0.9701399;2.2770722;-3.7880192;0.7765901;2.4158032;-0.6108915;1.0916352;0.2387445;-3.6696105;-0.040349428;0.047104888;-3.1648755;0.0087005915;0.26597902;-0.28733936;-0.015457996;1.5687394;2.8968103;0.6182568;-0.0054046973;0.014303138;0.2105153;1.8994029;0.71548754;0.6875935;0.47079462;-5.723219;-0.013864904;-0.053359196;-0.28022462;-5.377569;2.1157978;-3.2684867;-1.569745;0.036813136;1.507402;3.3241172;-1.8953611;-0.45097426;-1.0548356;0.7255627;0.0023738858;1.5442488;-0.27489513;-0.02592751;0.021334022;0.017693548;1.1588429;-0.00022410203;0.033630747;-0.017914709;0.60839725;-0.05528634;4.610699;1.1036559;1.0744079;-4.3920717;2.4089758;-0.13943331;0.007060641;-1.5805568;0.03920173;0.99040157;-0.10999013;4.380165;-0.02819802;-4.248244;-1.272734;4.032528;2.2768595;-0.085905015;-0.27072662;-2.4581356;0.005373211;-4.2486887;2.1474292;-0.17039748;-0.021579199;1.5448177;0.013304922;-4.7046685;2.4045012;1.2707627;-1.6130903;0.035599474;0.019032387;-3.6728625;4.8020573;-0.847107;3.6584253;-1.0182437;-12.328402;1.4173754;-2.3431969;2.2099535;-2.889653;-3.7428553;-0.17832696;0.01355713;2.8068593;0.0035036728;3.8688805;0.057953354;-3.06944;1.1761057;-0.24888785;1.4079776;0.00023171742;-2.0711215;0.0079975305;-0.26946172;-0.086761266;-0.015732978;-3.4476874;3.4127789;-5.304549;1.2710083;-0.010860998;1.2212082;0.1524603;-0.07672908;0.749738;1.6882358;2.1281426;1.2101511;1.1997093;-1.7454122;0.0021681176;-1.4187096;1.4614002;-0.02798398;-0.18526787;0.8381012;0.027679581;-0.039435927;-5.550029;1.6479005;0.045837294;-2.1783679;0.026454655;2.415335;-4.5875382;-1.191623;-0.5068536;1.371654;3.0218039;-0.14222942;-2.9573722;-4.1601586;1.671559;0.18080065;-0.15592295;0.00023824294;-4.4805307;-0.46388477;0.0011779576;-8.166894;0.20716225;0.0025554935;2.0538137;0.001061903;0.0024653256;-0.14550526;3.9344842;0.040015098;2.8570921;-0.022778045;-1.4438045;0.01655861;-2.3632033;3.2466464;-1.483219;-1.9511263;-0.0074139736;-0.93594694;0.05514057;-0.035906542;-1.2091993;-1.2075102;3.1004496;1.3706876;-1.8233812;0.8672318;-1.5598671;-0.0047992812;0.008731375;-1.5453882;0.021051373;-3.21961;-1.4958951;-4.1971736;-0.009750472;0.13212614;-1.5968591;2.4740934;-0.6490066;1.4697211;-0.040879168;-3.3683944;0.013168867;0.008610535;0.027159596;-0.010776228;2.452306;-1.9586644;1.0357813;-0.31004566;-4.4875026;-0.029707318;4.289897;-2.216853;0.04202299;1.7143704;-1.0925174;-0.014593974;3.131294;-6.761814;0.05949881;-0.861257;0.22961403;-0.047706395;0.074283235;1.0579433;-1.6968352;-0.04361616;-0.888411;-0.48229572;0.045540597;4.9059353;0.002486926;3.0055797;0.7293504;-4.2927713;0.0034340885;0.24104826;1.593633;-0.7845192;3.2451794;2.125183;-1.1789608;1.0183558;-1.7495257;0.16053419;-0.011257391;0.016084779;0.93810666;-5.9848566;0.008146243;0.52674985;-2.5085413;0.12893365;-0.454728;-2.5293577;-0.57516813;-0.3830188;0.040916584;0.016093222;0.023094648;3.556248;-3.3597085;-0.014284249;0.51679593;-3.4418483;0.8337227;-0.0017681811;-3.0837402;-6.5191045;1.9982872;0.03462908;0.024301993;-0.046140414;-3.5016184;-2.935444;-0.011210885;-9.16528;-0.72033226;0.01847323;0.72952276;-0.6337434;-0.026408702;1.527319;2.7501378;-0.035784587;0.71905327;0.82787454;-0.02562535;-2.0406404;1.9212751;-1.900636;1.0027918;0.3983578;1.8671452;-1.9028133;0.018870845;-0.045247912;4.7548223;0.72781616;2.3332024;-1.5891937;-1.0237348;0.043326985;-14.911811;2.7296302;-2.3752863;0.023993904;-0.4128319;-0.01596848;-0.8439114;0.83891064;-1.1098753;-2.2817192;3.4094489;0.015611854;-2.6423433;0.053975932;1.3161643;2.3977642;-0.011775853;-0.0041275467;-0.17242174;-1.1243137;-0.0020013638;0.0007652896;0.73153335;-2.3244436;1.67721;1.3112464;-2.2607691;0.026857466;-0.037693184;-0.86986053;-5.1583815;0.9424613;-0.036306642;0.030330647;-2.4847941;0.041332353;-4.9501944;-0.003193632;-0.021874977;4.0218415;2.0547616;-0.013007929;0.017672494;-0.0034160796;0.087257825;-4.571436;-1.1085429;-5.9477396;0.034900174;-2.0236058;-4.4262023;-3.2144663;0.02037718;1.1265194;0.52028334;-2.9495778;-15.938462;1.0839907;-0.043395173;-3.3957977;-0.019210948;-2.5553567;2.1459064;-2.7875872;1.7315959;0.011131159;-0.024937348;2.2972188;-0.02110872;2.66879;-4.734655;0.93012106;-2.982256;1.4857403;-0.014973127;-0.02259747;0.020671407;0.010882895;-1.9012235;3.7168787;1.9797939;0.019640172;-0.07587212;-2.5975015;-1.5268389;-2.6059756;1.3058555;-0.040864628;-1.7014679;-0.042138614;-2.5462258;0.003400686;0.0035953603;0.97720724;2.517174;-0.27076316;-3.352412;0.00893011;-0.85024565;-0.99342;1.6675013;-13.946292;-2.2867935;-2.5564184;3.0854332;-1.8499441;-1.6266425;0.036980264;-0.016898695;1.0839599
-0.006965927;1.9279243;1.5163804;0.039954416;0.045701124;3.509292;-0.020929197;-0.06310698;1.5474503;4.319087;-0.003024646;-0.74592406;1.2717248;1.9465041;-5.0681105;-0.0009952541;-0.37652355;-0.22771557;0.014772272;-0.10741936;-1.1295869;-0.04011236;2.3894362;-0.0026237667;1.0166793;-0.37379324;2.1094937;-2.0367692;0.053653497;2.275046;-3.3876836;0.76834506;-1.3476603;1.1737823;-0.011973558;0.0018512559;0.0030585811;3.5916595;3.051668;2.1657646;0.26535738;-5.879511;0.3940018;-0.55354327;0.016232535;2.3927925;1.236942;0.455748;-2.8374727;-0.06618532;-1.0232352;-0.012897639;-0.28076345;0.19350624;-0.85145766;-0.428787;1.5091438;2.0323157;1.858699;2.7806091;-5.3483605;1.0218402;-3.1475759;-1.2653275;0.019028435;-0.023047265;-1.7602243;-2.7396388;-3.6674855;-0.00024187335;0.020555055;1.4565977;2.5857978;-0.09059263;0.022924686;0.015494189;-0.045011107;3.6814413;0.97911;3.6102717;1.1976434;-1.3523998;-3.152382;0.0023793706;-2.3091683;3.9594066;-3.561891;-0.20167041;0.50568104;1.0478588;2.330427;-1.6856006;-3.6491065;1.2515727;1.5208356;-8.335686;0.14700757;-0.21721177;-0.09523003;-2.1671045;0.15477262;-2.2534146;0.3738272;-0.013197314;-3.4639423;-0.07229288;-0.023372298;-0.011823178;-0.026967537;-0.6414197;0.5625978;-0.45733193;1.6646706;2.378195;-0.013371379;1.7301388;0.01922959;0.03400116;0.02317891;0.7944187;3.130283;-0.058434237;-0.014387584;3.7703059;-1.6733887;-0.017160177;-0.03009028;-1.1996071;-2.7533772;0.032506097;1.8306277;-0.04892576;-0.102163754;0.012513246;-4.382256;-0.014171464;0.2061092;-0.037048783;-0.056430675;-0.024212286;-2.8351514;2.9162567;-0.011084782;1.6296952;-2.4555383;0.8171575;-6.640258;-0.120680824;0.018713484;2.6211107;0.22654647;4.722593;-0.061038565;-0.71929896;0.011226539;-1.2610815;-1.2646025;-0.0030888892;-0.04779218;-0.03362621;0.7394542;-0.6046295;-0.0719509;-0.009103865;0.95890397;0.906755;0.07975834;-0.8769918;0.84656143;0.38116086;-1.1656661;0.08791537;0.3829659;0.87385756;0.008789463;-0.0132463435;-0.35296798;-0.059177037;1.1821553;-2.4259286;0.011461163;0.70005935;-0.6245103;1.3242524;0.008557888;0.010408101;-0.33314437;2.5823963;1.6262838;1.1747711;1.7226057;-5.298614;-0.011587904;-0.0042287363;1.3470256;-3.7733314;-0.24011943;1.7722839;-2.7024543;-1.9352458;-1.0099412;3.9028833;1.3604865;-5.4001355;-2.5721953;0.9818937;0.010994273;-0.27293664;2.0412266;-0.006412796;-0.01364597;-0.02065253;0.90236497;-0.00011857905;-0.0012113813;-0.05726277;3.2783284;-0.05229572;4.270992;2.0401464;1.0902585;-5.7887654;-0.56060594;-1.3502825;-0.028985305;-4.5786147;-0.05613197;-1.3004845;0.14313151;2.8254502;-0.013329913;-4.5905457;-0.44922394;0.9930431;-6.0502605;0.098723136;0.59426963;-2.3247943;-0.0072378153;-1.8623976;2.0320647;-0.13910857;-0.03903462;0.00034939926;-0.072685115;-4.061578;2.7365327;-0.84838486;3.69521;0.012229326;-0.04403378;-6.893062;2.805046;-0.6809445;3.1114235;-1.6330488;-5.632302;0.36247054;-0.93028194;3.273365;-2.9913316;-5.34484;-0.06698127;0.0127329845;1.4155205;-0.037715092;2.5222907;0.00012326131;-0.59398735;-1.2168919;0.14586799;1.209546;-0.052937005;-3.1555898;-0.033311374;0.2883831;1.6558309;-0.0034553714;-3.1297154;0.755262;-6.5596685;-2.1804643;-0.0458462;1.7784212;-3.835521;1.1289062;0.7155146;-1.6388686;1.3213248;0.62354696;0.087387815;-1.8594543;-0.027605116;-1.6707109;1.607983;-0.027006341;-0.30558148;2.286421;-0.012464537;-0.03131609;-3.9646378;-1.4587841;0.010775741;-0.78725535;-0.02169042;1.6689692;-5.6542587;-4.9097877;0.7994162;-0.15313299;2.838934;0.22697994;-4.692157;-2.7439086;1.5393249;-2.0865843;-2.717631;0.010275328;2.1480656;-0.29011717;0.042145073;-7.4625707;-0.21270426;-0.044864025;2.5655737;0.015200371;-0.028300328;-0.08517501;1.3726741;-0.029303692;1.5807966;-0.0024576478;1.1153117;-0.012312923;-1.9390861;1.3994395;0.0835766;-2.5527453;-0.036441837;1.7783431;0.011955347;0.0443072;-1.265012;-0.14257222;1.6183058;-2.060703;-1.6114361;3.6883988;-0.5049045;0.00024570347;0.006203555;-1.4676657;0.006074161;0.42266655;-4.825108;-3.6838157;-0.026846368;-1.0075084;0.107359305;-1.9040323;-1.2426894;-0.06896114;0.033110928;-3.2988975;-0.020994727;0.020571409;0.0026260805;0.57644516;3.1080387;-0.75196207;3.1481686;-1.6130056;-7.394942;0.03482568;2.994714;-3.5120068;0.009933603;0.57200825;3.3797889;-0.009484308;2.4348552;-6.6613693;0.20261411;3.7286212;-0.9636562;-0.021102767;0.027856799;-1.1357054;2.3138275;-0.030737776;-0.0911411;-3.2700305;-0.07149199;6.5385146;-0.01248023;2.1747465;0.5337391;-2.3838298;-0.025363563;-0.0772591;0.2883722;-2.0461783;0.6283684;2.5026786;-0.3768828;-2.3912287;-2.5259566;0.7514837;-0.023517493;-0.7355982;0.807999;-4.0615664;-0.00085152657;-2.7574599;-2.1261623;-0.40919784;1.7468926;1.2612724;-1.5262136;-0.5540547;-0.017823447;-0.043416563;-0.04339201;0.42164704;-0.24260217;-0.02900272;-1.8459352;-1.6548568;-1.1845397;0.01899674;-4.2175794;-6.2598553;0.5159246;-0.010723549;0.015576168;0.009122718;-3.2204976;-2.0787454;-0.02152152;-8.880436;0.19794333;0.41415665;2.087859;-1.977552;-0.009837879;3.2404225;1.6665934;0.019220067;0.6633917;0.15595715;0.00061527244;0.49776772;3.1316855;-0.5434064;-1.1434011;1.3179609;0.6401698;1.0448664;-0.050124124;-0.010250488;1.7588297;1.1519247;3.770667;-1.7641304;-0.31637082;-0.059908155;-14.154443;3.3828077;-3.2002673;-0.0070674326;2.0143178;-0.010253874;1.6760597;0.29384503;-0.5244981;-3.5179222;4.258978;0.035415486;-0.2594127;0.010623897;0.22644308;0.61163205;-0.03852873;0.010544071;-3.732951;2.679177;0.012403779;-0.053891577;2.3666923;-4.6180506;0.8754514;-0.9483075;-2.3424356;-0.052582674;-0.031165563;0.7740977;-5.9015684;-0.8864934;0.02171278;0.005802349;-0.4116198;-0.022275882;-5.4306846;0.017723236;-0.010372707;3.1637402;-1.2557552;-0.011357154;-0.061826333;-0.012133685;0.20186295;-1.7220734;-2.3924675;-5.062699;0.01972223;0.90589666;-1.9219958;0.15968314;-0.022471307;0.5942577;-0.44308683;-2.838707;-15.77193;1.8479791;-0.015668496;-5.9709864;-0.017030738;-1.9134537;2.8490012;-0.108177684;0.99129295;1.4473855;-0.022785705;2.6822033;-0.026713947;-0.5177958;-4.752599;0.8219407;-3.4942534;-0.38769296;0.02559745;-0.0071894773;0.0009022475;0.004672297;0.6050515;-3.186551;-1.0957296;-0.023475653;-0.054230288;-0.46563786;-2.7042532;-1.2134259;2.2508936;-0.006620865;-4.0093403;-1.2922149;-2.1925607;-0.007848624;-0.035074644;-1.1418025;-0.20209615;0.06940399;-5.409714;-0.073855296;-1.4156625;-1.8216108;0.5973543;-13.463682;-2.9252534;-2.6040816;0.591262;-0.16097388;-1.3243817;0.02977956;-0.00459076;-0.3469296
0.025273353;0.64638686;1.4310055;0.01999516;0.007254336;4.025933;0.052195553;0.005804097;0.42930865;3.8899145;-0.005398335;0.22817859;-1.6976839;1.3335537;-10.620749;-0.012858791;1.4400411;-2.0331464;-0.01928982;0.05355681;-1.6303341;-0.0037792104;3.3917007;-1.4027743;-0.7127356;1.0391743;2.6839883;1.2793627;-0.00066783745;2.1562533;2.4278102;-3.9978673;0.69279206;0.44236067;-0.03227336;-0.017562546;0.23170589;4.82564;1.9612477;-0.039520875;-0.24610345;-8.449312;-0.35012892;-0.3617797;0.039472945;-2.0883787;2.6508331;0.64213854;-1.8080803;0.020229336;-1.1237805;0.0008849066;-2.446468;0.028865593;-1.5662196;-0.39194718;2.1569374;-0.9819512;-0.46411508;-0.78703076;-4.0774813;1.1022038;-3.4912598;-1.6509693;-0.0066566593;0.047106847;-1.1215221;-2.8369884;-2.2676678;0.03574235;-0.033135407;-2.1192172;1.4212843;-0.58265144;-0.015480857;-0.019864889;-0.043098606;3.4981582;0.44841444;0.574776;2.9937615;-0.76154256;-2.5884118;0.0024782987;-1.8499607;4.283745;-2.9246867;-0.19247632;-0.08656574;2.8061976;1.8777337;-1.3899904;-2.358268;-0.27338806;-1.3454849;-8.598113;0.24769506;0.40309283;-0.008915495;-0.60625255;1.3883029;-0.8325212;1.9059305;-0.027938154;-1.2332702;0.04774075;0.012555608;0.00013919295;0.0008056388;-0.1167492;-0.6213304;-3.2107174;1.4740789;1.260323;-0.044734452;0.5817893;0.014917425;0.39205053;-0.0060505182;2.6636896;3.6013832;3.6012795;-0.0334204;0.21918839;0.5283088;-0.018126199;0.023430621;-0.5149701;-2.3177698;0.021875437;1.2873363;-2.1614542;-0.33878133;0.042837087;-2.359817;-0.023836011;-0.6333859;-0.018304624;0.005687579;0.057643525;-0.80270565;-0.6810139;-0.022620695;1.3856936;-2.1774702;-0.6685377;-3.2235818;-0.8891823;-0.015217071;0.039272938;2.1328561;0.13401294;-0.039514128;-0.35163316;0.025155842;-0.96270025;0.87272173;0.060024776;-0.024333438;0.029902397;3.0088148;0.33778283;0.032659423;0.0359778;-0.5944366;1.4758993;-2.380777;-0.26781824;-3.06124;3.8963919;-1.3624067;1.2901396;1.3554705;-1.1692646;-0.10976121;-0.011459255;1.1476156;0.041711956;0.7788647;-1.3546579;-0.016060175;-0.0064895265;-0.46701065;-2.467591;-0.01929546;-0.03354686;-0.8737127;1.4998655;3.2676017;-0.07886847;-1.0938926;-9.155466;0.0030558354;-0.0074449293;0.3652735;-5.318673;0.11510408;-0.3268171;-3.8153713;-2.6376977;-0.7271155;3.3422258;-0.4236123;-1.6235505;-2.4810438;0.89865726;-0.0016361921;0.52225715;1.1039761;0.0018778271;0.030647138;0.053357963;-1.9459637;0.048547287;0.036135565;0.012001599;2.2934306;0.06011079;1.8216897;1.7887683;-0.8457857;-4.8659973;-2.1971238;-2.1675043;-0.008036778;-0.17131586;0.0037726702;-3.3640945;-0.0407053;5.001657;-0.027216157;-2.288814;-1.7518113;1.5934536;-6.385736;2.193377;-1.5713466;-1.9046253;0.06942746;-3.304402;2.7069924;0.6646582;0.028322153;-0.02797016;0.13135287;-4.062276;2.8467715;2.195274;3.8498023;0.031652845;-0.019493846;-3.4702885;1.7251537;-0.46286315;1.2401568;-0.41851723;0.13574325;-0.9713275;-0.43723777;3.6199665;-6.4914384;0.6832679;1.7585137;-0.028686585;1.0974425;0.02125555;2.4540062;0.03576705;-4.083818;1.8781766;-3.5920353;2.1555254;0.10393646;1.526251;0.013901306;-0.10154692;-0.3435549;-0.0015315554;-2.4266882;-0.23562405;-4.8934774;-3.7775648;-0.04160042;1.699104;-2.0319598;-2.5326962;-0.2581303;-1.7988759;3.012291;0.019883644;-2.0907397;-1.7879732;-0.0014809467;-1.6783415;-0.69869727;0.038501177;-0.647513;-1.5944967;0.006355853;-0.022619044;-3.837288;1.8626472;0.01289832;-0.16949917;-0.0076459604;1.326632;-4.024803;-7.113022;-2.6052122;-2.7681012;3.5134072;0.013734189;-5.7864113;-1.5787977;0.15294102;0.8452228;-3.491941;-0.009473388;-0.961086;-0.59336716;-0.011482185;-7.2330747;-2.2177842;0.013430165;1.2440709;-0.04341536;0.061416414;0.2071254;1.4686182;0.012512978;2.0686984;-0.011091569;-3.7745688;-0.04059332;-1.0426344;1.5059688;1.5766687;-2.5531347;0.03417292;0.042690363;-0.03251338;0.05356114;1.1562463;1.7803952;1.7884114;-1.5519073;-1.1668034;0.4304287;0.47660708;-0.009541257;-0.019249413;1.3640023;-0.0068020443;-0.785335;-4.942881;-3.0626018;0.029555986;0.4558495;0.54995173;1.3135037;-1.2958066;-0.10476456;-0.039682094;-2.7205071;-0.01667782;-0.028189508;0.0063931826;1.9587924;2.0011032;0.20042999;-2.5750465;-2.2930322;-5.2918587;0.026721044;3.2602386;0.4401381;0.011315742;2.1660721;3.0870237;0.0063602584;4.0756245;-8.598513;-0.029615676;2.357671;-0.86290705;-0.0161003;0.004590559;-0.3136402;-0.045020595;-0.027597198;0.7529767;-2.8038256;-0.02260149;2.3241909;0.05728631;3.3827183;2.1285741;-2.0855668;0.010420521;0.07458131;-0.60306096;0.5832492;-0.71261686;2.2334547;4.1907263;-1.2276084;-1.8688908;-0.81811035;0.018657904;0.2489447;1.8678458;-5.014593;0.023761269;-2.8511577;-0.8797574;-1.7995473;1.0592401;-0.090213194;2.1822567;0.53222364;-0.025167394;0.004289104;0.03199107;1.2179332;2.4486735;0.0026284757;-0.77023387;-0.1448678;-0.6986565;-0.0007305169;-5.0082717;-3.333575;1.7239237;0.0043753088;-0.055103857;-0.02613301;-1.3813416;-2.9775562;0.02477758;-9.677209;-1.6918197;0.5386893;0.40402967;-0.68306595;0.004475502;4.709336;0.9679827;-0.05216334;3.8332949;-0.8676009;-0.05330515;-1.7837812;0.7463902;-1.9107449;1.6239243;2.6639667;1.6479725;-1.5328356;0.008318103;-0.049396683;1.5997087;0.0886046;4.0293546;2.5665247;-1.0369995;-0.0090369;-14.189384;3.5598712;-2.4920783;0.039325457;0.8281714;-0.009584325;-1.4739789;-0.875723;-0.83016413;-3.163355;2.3938267;-0.039593432;-1.7561948;0.029014163;-1.3808637;1.9716948;0.053018723;-0.03251007;-2.0416114;-1.2092478;-0.0065796752;0.009032313;2.622678;-4.25986;0.699224;-2.2018998;-0.07193601;0.03182173;-0.011703787;1.3290262;-1.992676;1.1742357;-0.050912637;-0.019541273;-1.3581469;0.009591149;-7.5672846;-0.014939142;-0.00068000145;0.84834754;0.58735234;0.0022603758;-0.0078258505;-0.013029429;-0.49256706;-1.0851562;-1.796335;-7.8251734;0.011791753;3.1054065;-3.7307193;-0.44795153;-0.005500228;-1.8686574;-0.022047346;-2.3152616;-17.113972;-0.059201516;0.03142163;-1.5678713;0.016583934;-2.662309;1.1205859;1.269404;1.0242684;2.4022856;0.0025547897;3.0936594;0.034916192;2.9804451;-4.429809;1.3497854;-1.1582354;1.1863555;0.010809254;0.0020475495;-0.009636805;-0.034402568;1.7925977;-1.2826053;-0.22233887;0.009658166;0.81334424;1.1373106;-4.419057;-0.9924784;0.4496118;-0.0953213;-4.7252398;0.5834288;-0.34519088;0.060256872;-0.01547144;1.8866282;1.0585259;1.6442353;-2.4048746;0.0026550903;2.2337132;-0.8132236;2.0611992;-13.1819105;-3.5837343;0.5690229;4.281086;0.42158523;-0.9170342;0.043300062;-0.01193917;-0.65961236
-0.009611405;0.45693034;2.5880966;0.007477271;-0.031108381;5.5834765;-0.08835462;0.017961903;-0.37493122;3.7948925;-0.043883458;-1.3376231;-1.5603554;2.837607;-8.659078;0.014425405;2.6928637;-0.38929465;0.055872593;0.102352455;0.7846506;0.0017401271;3.5436456;-2.4838414;0.31440988;-0.7319148;4.644883;-0.32054946;-0.111545205;1.3365154;2.2723696;-1.5859396;0.84448195;1.4330801;0.019361364;0.018978061;1.0268079;6.397043;2.0436387;0.24520321;0.12866674;-6.6007047;0.80929524;0.2966218;-0.0031771;-0.9467886;2.3659525;0.18990232;-2.3619075;0.011634389;1.9802206;0.055103343;-4.004183;-2.7243133;0.579025;-1.88787;-0.043236814;1.3164177;1.5404598;0.3925776;0.72551084;1.9060345;-3.6225455;-0.6570298;0.011877837;-0.030992175;0.20282291;-3.9973485;-3.247771;-0.025241394;-0.00086611946;2.2696695;-0.4413605;2.0511713;-0.029471975;0.001641975;0.054517344;2.5354087;0.6453912;1.6456096;-1.650865;1.2601169;-2.88187;-0.0693625;-1.7914205;4.135477;0.76847947;-0.02882246;-2.6818721;3.4436126;2.2578256;-2.794659;-2.739268;-1.2114651;1.26945;-9.779236;-0.15555298;-0.47823563;0.0075967466;-1.1564825;1.5520433;-0.6645584;2.9601748;0.048268184;2.4292157;-0.0207363;-0.017103262;0.027519498;-0.022500344;-1.1475725;-2.8147452;-2.7968547;0.47981504;3.046126;0.009646433;1.1233349;-0.002207915;-0.6044351;0.02135875;1.9592177;3.5359962;2.7614279;-0.008320701;2.7445636;1.016296;-0.015872313;-0.0218421;0.13965856;-1.2317775;0.038475595;2.3271742;-1.9400152;1.0853292;-0.031359125;-2.765373;-0.025064396;0.39371312;0.05374733;-0.034116853;-0.004499562;-1.8297257;-0.93209255;-0.021819806;-0.4066106;-2.3263445;0.6939478;-3.8027024;2.4881697;0.016977996;-0.23475225;-0.3623373;-0.15253033;0.012686752;1.0719032;0.008842087;-1.5765128;-0.92279124;-0.041619197;-0.03489589;-0.059671484;3.687066;0.2427651;0.025872456;-0.025907805;0.25415894;-1.6040972;0.17623636;-2.6868062;-4.4238877;4.6456943;2.9056244;0.2568542;-1.219954;0.88506365;-0.0788367;-0.0025147074;0.76689976;0.013317915;-3.0427682;0.73841447;0.025563417;-1.8343506;0.6543453;-5.2045593;-0.001713407;-0.014902669;-0.7813543;1.6155196;2.7052546;1.4231695;3.5125995;-9.514287;-0.026607532;-0.02904516;-0.42844653;-3.0644274;-0.46320808;1.6347623;-3.8811946;-0.5518338;1.6574936;3.9931068;-2.8062935;0.3244537;-4.5300565;0.45101115;-0.00040023573;2.5018916;2.2246017;-0.021602292;-0.02947766;-0.10180647;-2.5503285;0.015711058;0.017213767;0.007698849;3.3388226;-0.006237902;0.8241257;0.97036994;-1.9530084;-5.132106;0.87163395;-1.433767;0.029621461;1.1553563;0.029526561;0.20916744;-0.07395175;5.785185;-0.007953077;-0.12168962;-1.7514873;1.0615978;-8.100708;2.0108888;-0.78271186;1.9956092;-0.097831525;-1.7129651;2.7214596;-1.2021337;-0.009016399;3.272186;-0.05210536;-3.919169;0.6325355;0.9086362;3.0607345;0.023018815;0.052068073;-2.3560567;3.1623847;-0.2827229;-0.5060958;-4.5229726;-1.1312977;-1.1627439;-1.8984604;1.9617203;-6.757926;0.07033332;0.846847;0.0018069949;2.5603287;0.015146635;4.0253563;-0.015077669;-2.9769301;1.4468603;-3.016257;2.0391376;-0.01078004;1.0638238;-0.023485499;-0.56547856;1.5762722;-0.0017177319;-1.3070227;0.91066474;0.2625371;2.1041777;-0.0116609335;-0.8695563;-1.9050118;2.7139657;1.1991609;-3.0483892;2.833596;0.50669056;-1.090204;1.1009411;-0.019015092;-2.3611882;2.4522302;-0.024819855;0.3696732;-6.2738447;-0.036992706;0.034783393;-2.290454;0.30356267;0.0075936564;0.81022066;-0.043998096;-1.4877082;-6.653809;-3.8491106;-2.442295;-1.8781399;-0.8292943;-0.08151068;-1.4649101;-3.5594716;0.21526271;-1.3614573;-1.2909455;-0.044601817;-1.6036979;0.21626256;-0.025882795;-7.7036047;-4.2652564;-0.011710658;2.3007789;-0.020846047;-0.015456101;-0.27197748;2.1357713;0.037902232;2.3323221;-0.022378132;-2.6465044;0.035260364;-2.451837;1.8418638;1.1910497;-2.6552608;-0.0064118127;-2.2169309;0.004806415;-0.08970192;2.3686352;0.095303036;0.4261958;1.0819644;-0.32082492;-4.635824;-1.7602124;0.010847902;0.02023522;-0.8298129;-0.004507574;0.18346158;-3.6411033;-3.5115168;-0.018183393;-1.7282108;0.44535452;2.4198537;-0.6791999;-0.35320953;-0.07366995;-1.2035357;0.019516231;-0.014383345;0.0021547412;1.3132528;3.2516217;-0.96650976;1.1580638;2.000269;-7.88074;-0.02576448;2.8649018;-0.9287036;-0.09948505;3.0384495;2.835317;-0.008608587;4.8972435;-6.4201064;0.04425779;2.3452616;-1.8147129;-0.024291065;-0.02811966;-0.29796797;2.2115355;-0.02526317;4.2118425;-2.3045065;0.004764033;-0.33638328;-0.008346861;1.7090719;0.89331186;-1.9711672;0.029802555;-0.04776342;4.130608;0.7127479;0.35064584;4.3008223;1.4499776;0.5802824;-2.633195;-1.3715631;0.030299969;-0.63934857;1.7622409;-6.408894;-0.009102486;-2.7672682;0.0049862713;1.0283624;-2.020801;0.5035144;2.2676735;-2.5644484;0.015728353;0.0072074407;-0.011343351;1.2374725;-3.3812542;-0.031304136;0.6412376;0.23316751;-1.4229431;0.018103013;-6.2236776;-3.0958698;0.004162028;0.034765974;0.016565157;0.011229492;-0.3994906;-1.0512065;0.007626074;-9.263517;1.5934565;1.0678877;0.45231012;2.09675;-0.008849068;2.997744;0.089808986;0.01574303;-1.1661773;-0.26920417;-0.015610269;0.89586306;0.90820974;-0.5599734;3.4097846;0.28640255;1.9017488;2.1253462;-0.088529125;0.0058423807;3.6906266;-0.686385;4.263881;0.70086455;-0.16490059;0.05963355;-13.967072;3.5734842;0.5891399;-0.037139557;0.6366203;-0.00039305742;-0.6841552;1.8665117;2.6381915;-1.4153563;1.6794956;-0.023815488;-3.1586888;-0.08392069;3.7654102;2.894064;-0.009485677;0.010126664;-0.30069426;0.51363134;-0.030957218;0.02063834;3.604282;-0.45908853;2.835927;-1.2489256;-0.33437908;0.018336948;-0.013156518;0.9294734;-0.43643275;-0.97235185;0.061903015;-0.013856263;-1.3305094;-0.008937518;-11.090911;-0.023789546;0.015852982;-0.118816674;-0.08323465;0.0039752447;0.017525831;0.042589325;-1.0054517;-1.6759722;1.1712254;-3.2824771;0.0036286935;3.1706963;-4.0831614;-2.4182274;0.057182748;-5.010344;-1.0594139;0.7211095;-17.571379;-4.0632396;-0.068901;-1.5115757;-0.071088955;-3.7878513;0.96378213;2.168934;1.2830849;1.5129219;-0.0043451595;4.5625186;-0.037591986;-2.1971805;-4.366403;0.82460237;-1.575827;1.5222368;-0.07174741;-0.04844448;0.060826734;0.0069069345;3.3785012;0.69994855;1.8871924;0.024857435;-0.17914335;-1.3430117;-1.6318576;2.5655098;1.927245;-0.21648179;-2.0253491;0.37794638;0.88682914;-0.026754033;-0.03117927;0.58746475;-3.0037115;2.751842;-0.47888488;0.016908031;4.684182;1.9663942;0.23975046;-13.354686;-3.1834836;-1.4513726;2.340125;-7.5226245;-3.5245214;-0.043644276;0.013672554;1.7965186
0.01985375;0.023635715;1.3950226;0.023942016;0.01559914;1.4198198;-0.078920454;0.005056313;-0.49146014;4.144927;0.07707526;-1.2494608;-3.784942;0.9257448;-0.98412484;-0.010696262;0.67929;-1.5783345;-0.015652053;0.79382336;1.9887807;-0.011040385;4.8633957;0.30898935;1.9612397;0.52124727;1.1546197;2.367052;-0.06846054;-0.079359494;1.715787;0.76580596;0.09936158;-1.3231502;0.01498409;0.045456015;2.4044325;5.892252;-1.4717913;1.4177674;0.06004903;-1.1169052;-1.0015669;-1.5464854;0.00091539806;-0.4361617;4.0311866;-2.251877;-1.0918249;0.04487576;-1.0366853;0.013472286;-1.5030442;0.4898474;0.63729274;1.4069659;-1.8655982;-3.1013951;-0.1164135;1.9967539;-0.23363394;0.49459565;-5.7542787;-0.6243334;-0.0077010505;0.032458402;-1.0622275;-2.2136104;0.074775994;0.02569261;0.016912727;2.7415113;0.1274621;1.1879573;-0.015048342;-0.0116066765;0.01687467;3.1685867;-0.6534819;-1.6516365;-5.433154;-1.3749526;0.63520014;0.0005690944;0.7688633;1.1143476;-3.2597182;1.0310383;-2.177271;1.8853661;1.70671;-2.911247;-2.1668093;0.4429976;1.6222771;-9.832425;0.26973423;1.0670681;-0.033953574;-1.581918;1.9527125;0.88351095;2.2232957;0.031294625;4.886444;-0.078891166;0.011892636;0.029515073;0.0147339925;0.1417029;-1.4295343;-1.3130354;0.9251572;0.24216786;0.026832353;-1.3378619;-0.015104404;2.031019;-0.044177413;0.22956116;3.5014672;1.2422278;-0.017287014;1.3136371;0.46161202;-0.0062574777;-0.04102385;-1.467833;-0.025507502;-0.0180383;2.1785023;-1.7297604;1.6234416;0.026682474;-2.2070165;0.0404495;3.3292391;0.016102286;0.03545737;-0.0076994966;-1.6238811;-1.807827;-0.005404885;1.9145777;-1.6766573;-1.3289946;-2.4831624;1.7171409;0.025751403;-2.2079012;1.639074;-0.24831334;-0.04054013;3.4675136;-0.017439747;-1.4576296;-1.7173092;0.03456874;0.043521225;0.015324449;2.5003517;2.38998;-0.027784636;-0.02916638;1.5522872;-0.76098585;-5.7162986;-1.2727753;-4.449452;3.1617477;1.777472;1.329986;0.6663754;0.5197777;0.78286487;-0.023206756;-2.1714709;0.009418051;0.7532315;0.56215006;-0.16400884;2.162838;-1.6871436;-2.0920532;0.014001107;-0.1111769;-0.807222;-0.28888696;1.5594002;2.2959292;2.6595073;-6.54098;0.015239059;0.004609814;-0.72441375;-4.5613546;0.003208591;2.931122;-2.3135486;2.9688673;-0.42596185;2.3612669;-4.153275;1.4735621;-0.17048712;1.5949991;-0.017332241;-1.0280405;0.5378888;0.0397751;0.0037207005;0.20392914;-1.1316845;-0.0036136461;-0.006483193;0.020420738;1.8132282;0.0065504927;1.5845157;2.2504075;-2.5709007;-4.07253;0.87440497;-0.69151;-0.09597302;0.983354;-0.005266494;-1.4339287;0.033759397;-1.2392118;-0.01125999;0.7826514;-1.0435045;-0.34615064;-4.2529936;-0.69334316;-0.8550917;1.4162551;-0.03284929;-0.57420284;2.9484403;0.4033301;0.0056481166;1.273966;0.039815474;-3.7872853;0.2507324;3.5644457;1.4971592;0.0034921765;-0.0052681724;-3.0156283;1.5782932;-0.9800931;0.48600167;-0.39232373;0.97080135;-1.210123;1.1527369;2.2813349;-7.0009947;-0.8680845;-3.4061239;-0.006631818;1.701815;-0.0106516685;3.8638203;0.003703101;1.1988114;-0.82267433;-2.943137;2.0314116;-0.070579074;-2.0593004;-0.0215368;0.14756459;0.9217997;0.0027631023;-2.5860295;-0.82257307;0.34219772;-0.81793684;0.01270435;-2.550785;-0.012402918;2.3946817;-2.6518981;-1.4345813;3.2631001;0.57519585;-0.43523335;-1.9925786;0.033104733;-0.9444632;2.2671614;0.011577846;-0.71125484;-0.73002154;0.054322544;-0.045239113;-0.08658252;-0.67264265;-0.0066077504;2.9573064;0.0061129923;-1.4252985;-6.1382885;0.7209272;-0.2088937;-1.8879281;1.1085036;-0.12295491;-0.56852585;-3.6806335;1.4119556;1.66691;1.6912622;0.011395102;-2.6352286;0.23732388;0.04042809;-7.743239;-2.0477834;-0.03305236;1.6965696;0.015908495;-0.0076006497;0.11509506;0.016658295;-0.057127964;1.381868;-0.04639654;-1.8552113;-0.00030876108;-3.4683435;1.4446417;3.8691747;-2.0940871;0.0067248126;0.81347626;-0.0009110242;0.07089033;2.4391158;1.4511312;0.41604504;1.2554755;1.676776;-3.0785954;-2.8964632;0.011013955;-0.02343984;-0.16347428;0.0062680547;-1.6492393;-3.2349517;-3.798502;0.010179272;-1.4971735;-1.1799831;0.19731443;1.458196;1.2973174;-0.26787728;-3.3691485;0.06022834;-0.006550543;0.035768747;-1.6832691;3.2666724;-2.2662466;1.0836216;-1.7534754;-3.3927088;0.0033417316;3.1762044;-0.74076515;0.41754624;1.8511548;3.1497521;-0.004786678;5.18362;-4.862073;-0.06898978;1.98963;-0.6029604;-0.08334848;-0.12898998;-4.660827;2.6243792;0.014315958;3.407386;-2.595774;-0.010878047;-0.71984476;0.028514767;2.1403687;3.039078;-2.7234704;-0.007879425;-0.016893683;1.5084219;0.18586728;0.6464624;2.493964;2.7808676;2.057693;-3.7741117;0.11020801;-0.019218322;1.3510575;-1.7862675;-6.248962;-0.026716162;1.0708404;-0.053961344;3.490367;1.6052315;0.20455;2.2695873;0.65908664;0.04946924;-0.0031792696;-0.011086625;1.4714103;-1.5187716;0.035979144;1.7352401;-3.9668245;-0.7478206;-0.0067285807;-7.766917;-3.68696;-1.0980035;-0.029615369;0.01673052;-0.04735899;-3.7502468;-4.635945;-0.004683504;-9.401651;1.1387973;-0.086383455;-3.1666048;0.14958775;0.035254914;3.592009;0.87214607;0.0028437353;1.222775;0.021731004;0.02403274;-0.9354039;1.7922717;2.7710183;4.7419486;0.90182465;-1.3951265;-2.2673104;-0.0064945845;0.02789564;3.9778256;-2.123082;3.9426665;-2.0365207;0.32050875;0.0487678;-10.686657;1.2628322;-1.0647855;-0.02807988;0.30238655;-0.008150412;0.718402;0.30910462;2.3194673;-0.3619103;0.12559785;-0.024358356;0.17519228;0.016719284;0.82632625;0.61073166;-0.024732908;-0.035104934;-0.83545715;-0.60924083;0.022159955;-0.015161933;0.99917144;-3.1660035;2.9056935;2.8226333;-0.15323693;0.035338942;-0.028131375;0.34322175;-4.4550605;2.1792436;-0.0069427174;0.09844154;-1.8241559;0.031364538;-7.6210637;0.045310896;0.024932854;0.66536474;-3.0730693;-0.007443255;0.008837595;0.023906523;-0.8668165;-2.8828092;2.3377566;-1.6901618;0.04826375;0.9306606;-4.2611847;-0.7742009;-0.031004922;-1.6659955;-5.6554894;0.25400642;-16.671764;-2.0867465;0.045182053;0.4858775;0.006113922;-3.330421;-1.8565958;1.490571;4.192865;1.2075623;0.011783821;4.4710455;-0.046863947;-0.24105349;-4.0810285;2.4935012;0.8322804;-2.6209447;0.056695446;-0.0034899486;0.016502721;-0.058775008;2.3178465;4.010414;1.2690943;-0.0112209385;-0.03702297;-4.4096556;3.300717;-0.7009141;2.8468099;0.7892002;-1.8867173;0.2201708;0.91228443;0.0060183015;-0.023972742;0.9637848;-2.744926;0.6291995;-4.4964437;-0.08652131;2.5089762;1.991247;1.9105742;-13.145283;-1.1349934;-1.7257749;5.096813;-3.0364983;-3.0007885;-0.005141582;0.0062388335;1.5464109
0.02019936;1.7402034;0.21087463;0.016564867;-0.0027366395;1.2891994;0.5215614;-0.046290275;0.3460653;3.0852098;0.00263529;1.4768695;0.5579294;-1.820482;-1.7402186;-0.018509861;3.4181652;-0.5810292;-0.020160638;0.40162337;-3.7276015;0.011883176;5.934961;-5.052527;1.9300069;2.3123996;0.8206477;1.1365633;0.060574416;0.5666747;1.2260913;-0.018212723;2.3422234;-1.9608191;-0.005758738;-0.03678917;1.3778293;2.992807;-0.8661291;0.46094915;-0.2009705;-2.2392938;0.2804118;2.5195127;0.026796114;3.5403345;1.2132473;-0.08676655;-0.6859084;0.022497697;-4.1395593;0.018718204;-1.898973;-0.8106906;1.0671222;1.2411292;-1.4060315;-0.6294617;-0.3985335;0.31542802;0.06775259;-0.70142406;-5.634167;2.5588775;0.0018928094;0.008843926;0.29396382;-3.6570742;-4.0435433;0.0011964057;-0.026482629;-0.6472248;-0.42810047;1.2269701;0.014887154;0.02504398;-0.0031355107;1.4013761;2.989995;-0.6884766;3.501676;-3.5705464;3.8111613;0.015255152;-1.3531708;0.20705478;-1.5843501;0.21158652;-0.34294185;1.529878;2.1149852;-3.5688243;-5.377221;0.42863637;2.0918114;-9.870573;0.06872069;-1.5113866;0.008697728;0.29629338;0.4143684;-2.5938838;1.8262925;0.020325787;0.6724212;-0.12625526;0.023653753;-0.0022168255;0.009850615;-1.0276232;-0.7445896;-1.6330261;0.20141047;-0.61627614;-0.023741918;0.7455105;-0.009565325;-1.2137368;0.0013454498;2.8812404;3.1781094;-2.6479537;-0.019212423;0.016767234;0.46742865;-0.0314349;-0.038330913;-3.6316364;-1.5864408;0.033132605;1.5320255;-1.0951841;1.5941844;0.0032139455;-1.8315973;0.021040114;-1.1435134;0.086210266;-0.038310092;-0.010607715;-2.4511;-2.4925563;-0.009751283;1.0619087;-2.1777341;0.32604036;0.32460472;-0.16024621;0.015595741;0.9760486;1.5367589;0.10493929;0.010431589;-0.7691573;0.013072296;-1.2919531;-2.033442;-0.0072120856;0.00986313;0.020683901;1.8346704;0.37498733;0.019267252;0.03448966;1.0655833;1.1505767;-1.8290905;-2.6228511;-3.4914472;2.6702113;-0.7778902;3.3583152;-0.37485597;0.3596437;-0.34193933;0.028917002;-0.48803926;0.009286689;0.49754813;-1.0418016;-0.06270042;-1.1112489;-2.0796623;-0.86798894;-0.00066667434;0.09044993;-0.69351315;0.5285587;1.1176004;3.7522144;1.9585159;-5.0745273;0.0028497637;-0.022240043;-0.74181515;-5.055472;2.2672794;3.2885125;-0.17361835;-2.0430596;-4.3230333;1.8843974;-1.9665363;-0.48400807;-1.9288132;0.08261397;0.033309177;0.5588663;0.8713663;-0.00072712655;-0.002735434;-0.070649795;-1.8915919;0.0050205784;-0.017657772;-0.034404024;1.1599281;-0.040759567;3.085101;2.7843127;1.3071096;-1.6233994;3.2339864;3.516331;0.01147916;0.34782168;0.041480042;0.796568;-0.025393602;2.0241973;0.010109947;-1.4844979;-2.935268;-0.46437144;0.5785739;-1.0104178;-2.173627;1.7025816;0.0030738101;0.7444247;2.214996;-0.1842672;-0.016982395;4.1654124;-0.03414808;-4.0380545;-2.680118;-1.5138203;2.8173928;0.021490484;-0.07575458;-0.87352794;0.39469498;0.45557684;-0.9326725;-0.4762222;0.9177001;-2.2218924;0.5710842;3.1683307;-3.6888425;-0.26584646;-1.8811703;-0.007150956;0.38526225;0.02239651;3.9872792;0.007355505;0.99700034;-0.56169015;2.076982;1.8700157;0.031892437;-0.17509662;-0.015543873;-0.13721077;-0.32995844;0.022752149;-1.1435987;-0.54307467;2.4470806;-2.8424156;0.027683258;-1.8899946;1.0280257;0.05658438;-0.8902203;-2.3852086;2.6358695;0.48319432;-0.8117135;-1.1017927;0.024411423;-0.08815402;0.83603597;-0.021405544;-1.0635813;-1.6318109;-0.032924373;0.04023369;-1.0406693;-0.17785761;0.0126337465;-0.798926;0.05617779;2.0191758;-4.607741;-0.28075823;-2.9134514;1.538357;1.0172728;0.010609155;-0.88687587;-1.8061757;1.0067133;-0.8297307;-1.233618;-0.030588651;-2.620735;0.31538674;0.012751826;-7.7858195;-1.5192534;0.010676623;1.5928226;-0.017852057;0.0004769288;-0.017765347;0.5005835;-0.040887967;-1.3697242;-0.09352897;1.5866843;0.023249302;-1.7076586;2.4862537;2.5812175;-2.8358612;0.004058751;2.014936;0.030182788;-0.061998807;2.4656713;1.0766984;-2.9393768;0.09138373;-1.4358387;-2.4379675;2.972748;-0.0003464473;0.004460636;0.021091135;0.0069596916;2.2251902;-1.4830503;-1.6355276;0.013031866;-1.1287264;-2.6053693;-1.8817405;1.1526399;-0.57544535;0.67792016;-1.8835466;-0.020210287;-0.012767655;0.01105731;0.6644643;2.7428288;0.51431435;-3.8804724;1.6512048;-1.3312314;-0.02860279;2.8782613;-1.1923088;-0.13564657;-1.7438959;1.1827477;0.041315895;5.7519803;-1.1884177;-0.09419024;-0.82279724;-0.08394032;0.49417445;-0.019897044;1.329926;-0.5943807;-0.024434308;5.1415343;1.8303691;-0.049156718;-0.36310944;-0.010341993;0.32087192;3.054909;-2.8286166;-0.02585775;-0.0070242276;1.2360113;-1.2523596;2.5146084;-0.6004413;0.8790139;1.1821207;-0.8612466;0.3837687;-0.042206228;-0.25222793;0.4414441;-5.3204975;0.022980055;-2.4164076;2.1686215;0.7383339;-0.8333984;1.3302498;2.6973414;1.8356018;-0.0057247127;-0.009054987;0.003668734;0.7891304;1.4869281;-0.027226677;2.845957;-0.68557316;0.6390776;-0.028048942;-7.5139976;-3.752033;-4.7346625;0.07219758;0.013605159;0.07701397;-3.4618237;-3.1741989;0.023095341;-9.544833;0.1747817;0.06526173;-2.769973;0.7118975;-0.0024456526;1.6647712;-1.1317855;-0.018558852;1.4454329;-1.3051027;0.0087023815;0.58605146;2.2140145;-1.026984;0.74759203;1.4207789;-1.4248607;-3.3137002;-0.03844545;-0.005877626;4.284738;0.33618498;3.9367373;0.639884;-5.842943;-0.0010367075;-7.756877;1.3946395;-1.6217335;0.019494528;-0.58953196;-0.043801058;1.0288018;2.9072437;0.77830315;-1.8668929;-1.4779339;0.03599704;1.9731107;0.01731637;1.2091956;0.19529079;0.019252388;0.029177655;-2.5335155;0.900929;0.0029649758;-0.024757141;0.7837369;-3.3414927;4.3427663;-0.18127014;-0.5874269;2.8542749e-05;0.006243005;-2.2951872;-3.3321166;4.7214093;0.008285229;0.025731998;0.7324647;0.006869244;-4.24325;-0.050923925;-0.00496149;2.1803074;-2.5387948;-0.0047185393;0.02276992;0.015455355;1.2549032;-1.4612206;-1.0758842;0.6010801;-0.0072381273;0.03660166;-0.56875664;-1.0043935;-0.02403882;-1.1738516;-5.9262357;-2.067083;-17.047386;1.5663615;-0.04438171;-2.2419217;-0.01031391;-1.4005697;-3.3906465;2.075908;3.7522435;2.803564;-0.025256967;4.5857034;-0.015076525;1.6293613;-4.2676663;5.91234;-1.9443854;-1.4785298;0.0036850898;0.028184399;0.011360191;0.04757957;-0.15003642;2.9500895;0.40719402;0.03143025;-0.070375785;-1.8216634;-0.025988638;0.63005;2.9369533;0.40926617;0.09043344;0.25318763;1.2187822;0.02480914;0.46607104;-0.1469212;-1.6787314;1.2044408;-1.4313751;-0.020893017;1.8766344;-1.5734364;2.3444726;-13.754358;-0.20676957;-2.3239665;3.1077504;-1.9020296;-0.7894967;0.033968672;-0.0032293245;1.6483601
0.014414063;-0.63107014;-0.55006284;-0.051357884;0.011419428;3.3510492;-0.20668657;0.0059731556;0.5038538;1.678555;0.028527377;-3.1142685;-0.010797285;1.385971;1.4549161;0.020676855;2.0351245;-3.0073843;0.012696474;-0.44352627;-0.48725528;0.061913673;-0.524789;0.904123;2.21001;-0.3423062;-0.65383554;-0.2958353;0.0035303961;1.1818898;-0.88567626;1.0422151;-4.0323434;-3.33273;0.003489738;0.005421385;-0.46061584;2.3427935;-0.9808222;1.7924699;-0.041095726;-0.6466016;-1.1061035;1.4330807;0.027185762;3.7678373;0.46067736;2.0251036;-0.82388633;-0.011871623;-2.6290448;0.021452123;-4.353355;0.651215;3.4041655;-0.85236704;-4.2084584;1.3861359;-1.9726026;-0.89828634;0.19424218;1.0186765;-1.4140651;2.692369;0.050813925;0.031582706;0.20951238;-3.7430763;0.23081952;-0.01941242;0.030515721;-1.555912;-1.5648929;2.1935403;0.03218606;-0.007454315;0.015537781;1.0471842;0.7709218;-1.0817275;-1.9296654;-1.7093726;3.8082619;0.029052854;0.85114163;0.8257741;-3.0439959;-0.4529343;-0.3743076;3.082819;2.0231407;-1.2610136;-2.5533288;3.342516;0.19018234;-9.942181;-0.060546916;-2.4348795;-0.020853525;-1.5323663;1.5562259;-1.8860521;0.6958083;-0.0025238125;2.2931676;0.9731358;9.9413126e-05;0.03586578;-0.009753598;-2.2800326;-0.29137054;-2.6169512;1.0525211;2.6703138;0.03729908;0.46189395;0.0035867787;-1.0954603;0.02426829;1.3524779;0.81379294;-0.7770004;0.025342252;-1.546845;1.9597027;-0.008562596;-0.004735082;0.27278808;0.04281659;-0.005570896;1.1632775;-0.80337936;-0.8373558;0.013507424;-0.07700942;-0.0014038623;-2.758717;0.0068824864;-0.008857782;-0.004259118;-2.9482486;-4.729713;0.004763279;-0.8697761;-1.7909971;-1.3035095;0.6412001;0.3141413;0.0077073174;0.72050065;-0.9957576;-1.2182213;0.036569726;0.9181341;0.006648032;0.3291788;-2.6561034;0.002622908;0.030770458;0.014753422;1.9497154;0.31363526;0.076772824;0.007291497;-1.3381;-1.7672874;-2.1370625;1.003884;-2.3698022;0.73121184;-4.787584;0.77052885;-4.2500844;1.4368684;-0.065907255;0.03467434;-2.0967603;0.0077552027;-2.0533829;-0.8343181;0.98534125;1.6452391;-2.8503158;-1.2693276;-0.0119403135;-0.054078806;1.776478;-0.15649335;-0.087514445;1.3558502;1.4345083;-4.6738987;0.011342441;-0.0024292092;-1.0803038;-6.4875145;1.3120553;1.130191;-0.61556953;0.3839506;-0.88443327;1.4773223;-3.716133;-1.3194947;1.4207805;3.0731502;-0.032944754;2.1373272;0.8903193;0.042015713;-0.012910961;0.0011810927;1.0065236;0.072011694;0.006223498;0.031402823;1.3503188;-0.007857444;2.3397977;1.0780613;-0.9777547;-1.3250872;1.8386989;1.5649056;0.034581233;0.05607069;-0.024475217;0.23222141;0.06610786;2.83478;0.00167736;-1.4261291;2.0129027;0.7442421;-3.5366893;-0.6136444;0.17668004;-1.6451329;-0.04491232;0.6509451;1.1275555;1.4266491;-0.014744016;3.563667;0.013625433;-5.0787597;-1.8694962;-1.3066262;1.0336989;-0.059860382;0.052702326;-0.038006194;1.9499183;1.4690349;-0.78298384;-3.9158142;0.6685095;-0.668483;1.2222923;0.86335117;-4.5126553;-2.569258;-1.5635196;0.049642835;-0.44846553;-0.041066207;4.7841153;0.002276304;-0.05903355;0.9870558;-0.14122224;2.3180904;-0.055754673;3.460368;0.0074273194;0.020089837;1.0451581;0.025080653;-0.32439706;0.92984277;2.7663984;-0.6507921;-0.0017562101;0.31568483;-1.2753099;-2.669679;1.5015829;-0.33962673;3.930744;-1.7035879;-0.98960716;-0.06589345;0.005225497;-0.6801595;2.2375476;0.034326963;-2.427195;-1.2114091;-0.02690898;0.014510188;-0.56065124;1.450485;-0.023782345;1.8926066;0.015182576;0.660766;-5.7206097;-1.6507516;-3.6578631;-0.017394241;-0.45369446;-0.052739263;0.24304487;-0.46442652;0.4666978;0.5032061;0.7049008;-0.03837493;-4.995042;-0.70456344;-0.03750307;-7.473048;1.443945;-0.053548913;2.5233626;-0.08071102;-0.03830247;-0.10756144;0.4709738;0.007373264;-2.3110564;0.57305443;0.72695255;0.05279169;-2.757497;2.165588;0.4176077;-2.465567;0.019565942;0.87485635;0.006678235;0.09002382;-1.0995332;-2.1934247;0.038786214;2.2038882;-1.2378715;-1.5658433;2.306405;-0.04357725;0.02566889;-0.6469199;0.004477257;-1.2574927;-1.4088088;-2.4823399;-0.0022638785;-2.1040719;-3.3419225;-1.8630929;0.2586891;1.1100603;-0.18760532;-1.9304907;-0.0012268559;0.053681903;-0.0076336022;-2.9217863;-0.25287032;-1.0776824;3.0107903;2.1787074;-0.0052152206;0.044880483;2.8594193;2.2286973;-0.04232439;-3.066338;0.36835468;-0.004406519;4.4525843;2.5565786;-0.041036103;-0.43811134;-1.8789042;-0.12490338;-0.038896315;0.6743177;-1.6823808;-0.026021466;3.34345;-1.9799907;0.0005459711;1.4250112;-0.017163137;1.5660832;4.19503;0.89198774;0.06506496;0.0066647287;-1.7457582;0.2609363;-0.6460446;2.9264994;-0.28356317;1.2412236;0.8518648;-2.479499;-0.0022771696;-1.0893317;1.193299;-6.186686;0.024534522;-1.9602321;1.3121815;-1.485898;0.0519851;2.7337072;1.2261454;1.9083676;0.049853913;-0.0007760382;0.008464405;4.3905845;4.230388;0.01251923;1.5790555;-0.45836222;-4.055865;0.016418478;-8.994664;-2.3180254;-5.0639315;-0.005629167;0.0544123;0.0378893;-5.0825067;-2.6403;0.007966608;-9.058793;0.33510947;-0.3630999;-0.9378711;-1.1031854;-0.013737659;-2.847986;-4.5635214;-0.021112042;-0.57553166;-2.3486948;-0.007909885;-0.689533;0.54836315;-2.366927;1.7460772;2.7910957;-1.9981198;-1.5804526;0.040038764;0.059620425;3.8275201;0.8217338;4.1909723;1.0727274;-0.93214595;0.0151728;-0.6583044;2.01913;-4.320593;-0.051978245;-0.78205985;0.07441376;0.98849386;1.3905289;1.4923176;-1.9227294;-2.3093638;-0.014954897;0.8955182;0.0024509132;0.8397024;-1.1833715;-0.07139322;0.044472933;2.4602535;2.1610827;0.021175643;0.0064273756;0.10561706;-6.6380615;5.1327944;1.0523459;-1.6465465;-0.023416175;0.03626894;-1.1330618;-2.0220256;4.218758;-0.025597226;0.036919057;0.5919737;0.064108156;-1.6428192;0.012477633;-0.02563956;2.311154;-1.1411088;-0.011932354;0.007593869;-0.011696264;-2.2259126;-1.8544437;-0.74099267;1.6134386;-0.00627596;0.49793038;-1.5091923;-2.3958502;0.05040455;-1.4104041;-6.2811437;-0.8699718;-17.020977;-0.44519496;0.024850912;-4.707786;0.063589305;0.38138178;-1.7933111;1.6655004;2.1227722;-0.42206666;0.014996487;1.6402498;-0.04683084;-0.85641426;-3.851951;-1.4972317;-2.2467766;0.59755677;-0.0032335112;0.035128403;0.03360451;-0.050321765;0.39773908;-1.238109;0.06745376;0.012938493;0.028452063;-1.5132252;-0.5542367;0.90937227;4.4607916;-0.32503486;-0.684736;-1.2131256;0.11153061;0.002951833;-0.115222834;0.8672617;-0.47186363;1.869307;-1.2752779;0.05863262;-0.5622321;1.9034917;3.772269;-12.157943;-3.3709369;0.3161431;0.05793625;-0.27068552;-1.4259135;-0.016395321;0.012099045;2.223274
0.020388791;-2.070833;-0.90364474;0.08000868;-0.020240104;3.1860905;0.0024239388;0.019310297;-0.30049738;3.765977;0.008054067;-3.515813;-0.7630952;0.9560017;2.2957335;-0.05312655;-0.79351526;-1.712987;-0.012350039;-6.3308177;1.4965719;-0.023897614;1.5127568;-0.78940475;1.6861398;-2.1621351;0.5269627;0.83308417;-0.044312492;4.129005;-1.2979037;1.8069398;-2.4272442;-1.1506637;0.00092761737;-0.03775477;0.82766956;1.2833086;-3.1737633;2.487103;0.16831088;-0.5413251;0.23406799;1.844256;0.02821568;2.7941377;1.3534471;1.4170666;-1.2631626;0.029496698;-1.6586937;-0.020119071;-3.3377872;0.71496165;3.0752654;0.57924;-0.37572372;0.7053988;-2.5638103;-2.4557664;-0.19045597;1.0070704;-0.60941714;1.761199;0.041960172;0.030105602;-0.7352163;-3.8684766;-0.9582819;0.0026275818;-0.0033671749;-4.216021;-1.5371624;1.7308261;-0.04031809;0.09282197;0.0028477695;2.8361583;-0.56728876;0.5559142;-0.80103564;-2.1195648;1.8682297;-0.0002982868;0.054483466;2.3911703;0.63833874;-0.09429807;0.8298697;3.236127;2.2938364;0.2804205;-2.0372574;0.10231595;-0.46812573;-8.639683;-0.067367405;-0.617771;0.013815752;-0.7308251;-1.24377;2.2081022;2.090546;-0.0015200705;-1.6915998;-0.16596808;0.005825709;0.016970973;-0.018854698;-0.7754212;1.0691382;-1.029782;-0.3277608;3.9859264;-0.049716167;-4.5292964;0.0012293195;-1.1917595;-7.80903e-05;1.3896604;2.5725975;-4.1746187;0.030578949;2.190651;0.34663942;-0.011634683;0.030875036;-2.4212937;-6.126506;-0.016871978;0.25566345;-0.32275337;0.3843089;-0.025202222;0.27709496;-0.018899221;-1.5648957;-0.011393853;0.039329484;0.52050686;-0.6026906;-5.4676404;-0.032752614;-2.8554428;-1.7678814;-0.99221593;0.2604449;0.99396855;-0.03572049;0.55001545;-1.6163168;-1.6727983;-0.031258993;-2.8143365;0.03850231;0.5818645;-1.5194601;-0.0060309446;-0.02983407;0.009857815;-0.19807535;0.93508404;0.05889399;0.029362863;-1.5497704;0.09171669;0.620353;0.2025552;-4.3207784;-0.19412008;2.8329322;0.30838743;-3.2470117;1.8407514;-0.036835585;-0.037947245;-1.4303806;0.011720871;-3.855926;0.30274233;-0.29913846;1.2375463;-3.6237762;-0.74736273;-0.021447603;-0.044965617;1.6562879;-0.9712202;-4.4908805;1.6378404;-0.66728586;-3.5662494;0.015440236;-0.009556304;-0.85743207;-3.1133847;0.4768229;-0.033264626;-4.047169;-1.3794769;1.2999952;3.6736767;-0.6880608;3.0772383;-0.5769446;-0.6072154;-0.0032554972;-0.34070545;0.9032665;0.035209846;0.02063559;-0.002005021;-3.2357123;-1.3431644e-05;-0.009962637;0.08258676;1.8618366;-0.012514969;5.0514297;1.268683;1.5080093;-1.3404775;0.3274253;2.4662895;0.004152494;1.5748407;0.01429031;2.7188027;0.0073089777;0.97309655;0.034756318;-1.1128526;0.25292447;-1.8544476;-3.0858235;0.015936766;2.176821;-1.971249;-0.05706178;-0.93984735;1.8091205;0.06810692;0.008747969;0.08632621;-0.013981757;-4.1481066;-3.36983;0.94039065;0.4317884;0.006213311;0.03393624;1.1389058;2.0557704;0.9179583;-3.4098763;-4.3090963;0.5731529;0.7824419;-3.528721;-0.10492851;-2.1443372;-1.6653447;-0.69428885;-0.011663876;-0.19349335;0.010182928;4.3610225;0.0070843413;-0.3843701;0.51758367;-2.5416636;1.9782878;0.88779825;-2.314181;0.018025491;-0.23904055;1.605668;0.045929804;-1.086563;-1.1397655;0.32527125;-2.9191358;-0.04864982;0.766298;0.6917601;-3.1581967;2.4941595;-0.6667523;4.11193;2.544559;-0.7686655;2.866617;0.051463656;0.29402187;2.4584427;0.0229427;-2.7388878;2.204074;0.024074258;-0.023797208;0.47994846;-0.64866203;-0.0041082515;0.6990741;0.015556418;2.2771919;-6.7584734;-1.3353101;-0.8389351;0.9220079;0.64506966;-0.017368326;-1.9786922;-0.504856;2.1124878;3.0637963;1.2960157;-0.049012866;-3.5157638;1.4328707;0.001494706;-7.0029817;2.1145673;0.008122323;2.190933;0.009512413;0.7219216;0.035766914;-0.18910931;0.010607775;-0.34542745;-0.13165918;2.3844762;-0.039417833;-0.68171114;1.4091035;1.7219009;-2.7215848;0.015405938;-1.3657014;0.053424314;0.10709931;-1.049626;-2.3677402;0.29125175;2.4247983;-8.594596;0.038680956;-1.1565143;0.055335816;0.0032525114;1.5697595;0.02207178;-3.2311873;0.46715084;-1.7223327;0.009244795;-1.6895005;-1.5447764;-1.2227799;-0.24327074;0.06380778;-0.0012698385;-0.5247924;-0.028915813;-0.0048969425;0.04894375;-2.6349974;2.0533226;-1.8182648;0.08893353;1.7866318;1.2252485;0.018532136;5.5739365;-0.13423441;0.0569038;-1.4053881;0.6977275;0.01225729;2.6572137;-1.511658;0.25267932;-1.275712;-0.40016866;0.025849484;-0.023491006;0.8837867;-5.0327;0.031088348;2.3348768;-1.2081381;0.033946477;-0.19105197;0.040834337;-1.0059876;2.123283;-0.5011775;-0.005596003;0.014325973;-1.3944234;1.2471293;-0.30848566;0.07064645;1.6901358;0.78486276;2.0768957;-1.929944;0.09325935;0.3507006;-0.7774754;-5.0704827;0.29680228;-0.81136185;1.6883028;0.66244745;0.3438448;-0.9973422;-0.97957116;0.13447896;0.04191358;0.0017609665;-0.0033699602;-1.1833081;0.20790829;0.055766936;-0.43547696;3.7667694;-1.375047;-0.01471301;-6.3746395;-1.8858938;-1.2440152;-0.0346172;-0.012676289;-0.0037973141;-3.2262344;-3.9270759;-0.005025229;-8.591541;-2.2642794;-0.322527;-2.8772323;-1.7103218;0.16495861;-0.7704281;-3.126637;0.039401937;0.15331186;-0.3066753;-0.02476137;-0.42022145;1.5049785;-1.1630766;-0.43909785;0.93335027;-1.9573488;-3.7336524;0.025478898;0.061871547;2.052919;2.0018775;4.0756345;1.2703006;3.995926;-0.03498776;0.27639675;4.601279;-3.357398;0.013887064;-1.4349793;0.010427182;0.91874975;1.5012175;-0.8280945;-4.9482164;-1.3988054;-0.009353055;1.6233785;0.008814804;1.3257984;-0.98512787;0.6919309;-0.009285441;-3.5137208;1.7133884;-0.033135246;-0.0089912;-2.5382364;-1.8936284;2.8661964;0.30844584;-0.43537864;0.04951348;0.002041789;2.2842126;-3.2979424;-0.89297545;0.01842382;0.057472523;0.4365893;-0.017321082;-4.3273478;0.10261268;0.044409584;3.1746395;-3.6133528;-0.028282756;-0.01843825;0.022434939;-2.243567;-3.964538;-8.162886;-0.950298;0.025052274;-2.0512843;-1.1438082;-0.69089335;-0.053232413;1.5938641;-4.3456383;2.0984514;-15.116558;-1.3605399;-0.0069323373;0.84428173;0.018228803;0.34042;-1.2489662;3.6641252;1.4904246;2.1379652;-0.062972225;1.2696792;0.0016005558;-1.2528635;-3.6990478;1.9591606;-2.31929;1.7593255;0.03393062;-0.0104847485;-0.04153619;0.08515612;-1.5818198;0.73763645;0.8222023;0.020361222;0.059278343;0.42178628;-1.1753346;1.6335899;1.1986886;-0.038948122;-0.38542095;-1.9964867;1.0100299;-0.008257519;0.034586765;-3.0852573;-1.5522417;3.0224476;-1.593802;0.052989308;0.73033005;3.2096875;3.357628;-9.583312;-1.8557352;-1.3981771;1.7378029;1.7275242;0.47848728;-0.0030953106;0.02905076;3.680433
0.001389435;-2.5818212;1.2779934;-0.11150662;-0.009706013;-0.6041046;-0.04992175;-0.033282924;-0.6853187;3.4805088;0.0053293784;-1.3830705;1.3554211;2.9633808;2.2468271;-0.0552075;0.6656977;-0.5514944;0.044715088;-11.307545;1.0738039;-0.0013375968;-1.6627876;1.420449;0.3557437;1.020627;0.4185605;-4.484817;-0.024421845;3.6773412;-2.2078779;0.5034767;-1.1446555;-0.78487927;0.011939135;-0.016154908;1.1008607;2.5745437;0.6958894;2.960679;-0.30102617;-1.1351502;1.008971;0.18248035;-0.0014468152;1.7791661;2.1024327;0.21414791;-0.5983593;-0.03985154;-2.6444638;-0.013357036;1.7397165;1.9002153;5.300408;1.1962113;1.3692703;1.866757;0.2181167;0.46294126;-1.2753981;1.4121838;0.2599314;-0.8988364;0.011431422;-0.06036069;-1.247383;-2.235057;-0.30632156;-0.010283103;0.0024405618;2.6280994;-1.672399;1.6465348;-0.0131293405;-0.033420235;0.009459555;1.5469879;-0.69081026;-0.0024075217;-1.560242;-1.545783;1.1117972;0.022469208;1.9998025;1.5338813;-0.10967411;0.17119136;0.7711023;2.4917712;2.2973356;-0.39783782;-1.4199547;-4.16569;0.6406636;-9.348177;-0.10786458;2.9630094;-0.038196445;1.6641272;2.6475334;2.5337055;0.43955198;-0.01280878;-1.1896268;-0.058878224;0.0015474461;0.004054709;0.010661452;-3.0356104;-2.3248923;0.14967443;-0.3415103;1.7484926;-0.0015671388;1.0503443;0.00011438951;-3.345601;0.03543833;2.501296;2.846839;-0.73472625;-0.020886132;1.7585118;-0.5965213;-0.029544085;-0.032542463;-0.32056618;-2.1636562;0.014092158;2.2141268;-3.0989082;0.14213227;-0.032364804;1.1093724;-0.052045967;-1.2760906;-0.026186777;0.0019300869;-0.07948907;3.0786855;-2.8676815;0.06487148;0.079197526;-1.9719117;4.057183;2.077358;0.29565346;-0.02710726;0.92368287;2.186737;-2.8610423;0.009064242;-2.4157214;-0.008309067;-0.21393496;0.24434322;-0.01915741;0.03466819;0.005099483;2.3862426;0.68475366;-0.014410671;0.04663423;-0.7013686;-0.51860374;1.0770316;-1.2355286;-4.67372;1.0593864;2.2213836;-0.5417422;-0.64616305;-0.31730127;-0.041396197;0.0023379768;-2.0727015;-0.044108283;-0.9040026;-2.146836;-0.078220956;-0.7690292;-4.694286;2.2530403;-0.057251994;0.023484431;-0.17375706;-4.4896164;-3.3173494;0.67014045;1.4524477;-6.3786592;0.005372712;-0.02265943;-0.69030035;-4.949176;1.6039691;3.821234;-4.227829;-1.4816227;1.0603484;3.741097;-1.7364641;2.9643831;-1.6130182;-3.349492;-0.010691831;2.0669885;1.6060126;-0.044596385;-0.018195927;-0.005600854;-1.6291908;0.013264089;0.05335912;0.022830568;-0.17501615;-0.0149475355;2.7352889;0.9363682;-0.11744142;-2.0042458;1.5322005;-0.08888255;0.01861113;-0.4175611;-0.0040288637;4.0964575;-0.017501328;0.66110194;0.0020149988;-0.7479638;-2.7131972;0.3382149;-4.645173;-0.6397477;1.8320181;2.4896293;-0.035178207;-0.61515284;-0.51903075;0.020634692;-0.03890121;1.2153338;-0.031023845;-4.483331;-2.3943791;0.6098795;-1.4441285;-0.008270297;-0.008787451;-4.5878854;1.4728159;-0.62766004;-0.5111501;-1.860536;0.8988477;0.378228;-8.763495;-0.92130274;0.07320944;-2.673317;0.01584903;0.0147997085;0.89128697;0.007438323;3.2233937;0.030873822;1.5247277;0.6698391;0.21382785;2.1629815;-0.17150421;-1.4530209;-0.029976835;0.4417504;-0.8188022;0.017540613;-1.1317247;-0.4226241;-4.123179;-3.8206213;-0.03630338;0.045412682;2.2206705;1.5003755;2.2870288;-0.052215483;1.3255202;-1.0651544;0.24949273;4.4106855;0.0125147365;-0.52845675;0.7926486;0.039895914;-0.4870892;0.20646538;-0.05738163;0.0065208278;-0.55529124;2.7699907;0.022734601;-2.242772;-0.020451557;-2.5471969;-6.286886;-3.2937148;-0.5962669;0.5725317;1.6450585;0.566367;-2.7838042;0.71172273;1.7963121;-0.6165082;0.7925307;-0.040361803;-4.536068;0.010646282;0.01871732;-6.655629;-1.9356809;-0.009291867;1.5389079;-0.014940967;-0.1055937;-0.15457234;1.8515531;0.019163603;0.8376715;-0.021563197;0.6384368;-0.060618382;0.64216816;1.472141;0.8294563;-2.6623642;0.013189666;-2.830374;0.009360282;-0.07501977;-2.3332748;-4.733065;0.36414275;2.2601056;-3.6434581;0.7510448;-0.642288;0.038284384;-0.0011535092;1.1256372;-0.02479001;0.011310418;1.3185316;-0.64134496;-0.041863535;-2.3518863;1.6474999;0.17620632;0.2581401;0.16161607;-0.05110455;-0.27275324;-0.019101089;-0.05374142;-0.016804963;-0.9769991;0.89560795;-0.20193268;1.6052297;0.08082905;-0.20665835;-0.019419199;3.4458232;-0.20087156;-0.055879407;-2.7817254;-3.6270936;0.0031255286;3.2718623;-2.1805863;-0.16253655;-0.48262402;-1.0628005;-0.01307894;0.049282998;1.377659;-1.1323032;-0.026520511;-1.2788924;1.1123654;-0.06958677;3.3391013;-0.055933196;-0.5343066;2.728426;2.0392582;-0.008573201;0.022095423;0.04460044;2.305146;-0.37818748;2.69358;-0.48370707;1.7411565;3.3912244;-2.4496644;-0.055015776;2.9069228;0.34943107;-5.021947;-0.03919149;-0.76028055;-0.034022823;-2.392488;-3.8224828;-0.055889364;-0.78538185;-1.8747951;-0.01628635;0.0063722664;-0.068298735;-0.8563658;-2.128466;0.001729964;2.2647066;1.5534999;-0.32048306;0.011313422;-9.172088;-1.7452893;-2.6978528;-0.0059737265;0.01911915;-0.022765439;-2.7272813;-5.16785;-0.00047522684;-8.648459;2.945744;0.30004108;-1.9184048;-2.026553;-0.02742009;0.054918054;-3.1731079;0.0254274;-0.19081247;0.33212787;0.019961135;-0.25589892;0.4838737;-2.2540386;-2.4351203;-0.10836443;-0.54938537;0.14288144;-0.04365159;-0.0097079715;4.2312512;2.5875595;3.739204;1.2128814;2.9968843;-0.011210025;-0.20920506;3.5705812;-1.9922636;0.025610086;0.9882222;-0.011273597;0.31951344;1.2179972;0.2650757;-3.8855593;-0.8853797;0.0064333077;-1.2823437;-0.007509116;2.1379278;1.2773025;-0.08071632;-0.00810336;2.2157707;4.6614604;0.028299425;-0.00036375585;-3.332755;-3.6213515;-0.17157693;-0.6308653;-2.1562397;0.024242233;-0.04981349;1.8130167;-3.1802895;-1.818253;0.025733357;0.0311805;-3.4811337;-0.011675261;-3.2284906;-0.04306984;0.007893641;2.5162492;2.3132706;0.018353546;-0.020546937;0.014517307;-1.2232298;-0.6601134;-5.9060707;-1.0566764;-0.0036018863;-0.5249261;-0.8906549;-4.0208025;0.027030062;3.5267715;-3.586988;-2.792894;-15.92296;-1.1517457;-0.015602748;-0.43155324;0.034925867;1.1920475;0.21207148;1.9508884;1.6880493;1.7865167;0.011067959;4.9990287;-0.09535649;-2.4686136;-3.9236925;0.08871688;-6.0637693;0.85643464;-0.011691106;0.008585404;-0.0031353643;0.01975485;-2.6771643;-5.2579165;1.0524884;-0.020808334;-0.029281978;0.48679435;-3.2653399;0.671887;0.04315414;-0.022249704;0.8011449;-1.4937114;-1.2854146;-0.013568913;-0.0111533115;-1.788106;-0.75157225;3.5655684;-0.6759794;0.029969381;-0.90172184;-0.5507071;-0.21505943;-6.833901;0.18039398;-1.0047214;-0.4106298;-2.739772;0.4193184;-0.0499795;-0.003362098;0.708994
-0.0028728552;-3.330608;0.75845957;0.02687827;-0.045839842;-1.5112447;-0.010654267;-0.009804175;0.2080616;3.708447;0.04684265;-0.012044986;1.2399088;1.949219;1.5257598;-0.057409003;1.4835757;-0.0382597;0.0070975823;-13.429951;-2.3433888;0.058823064;-2.2658675;0.23934591;0.35875553;-1.685467;-4.5549207;-3.4365823;0.14447525;4.645578;0.38039917;0.98512137;1.9329079;2.289901;0.046018947;-0.0013161289;-1.8164605;4.383103;-0.88394517;2.5385406;-0.007121378;0.7012264;0.60453874;-0.52083486;0.0046816943;0.15048112;2.4441926;0.48616827;5.1914372;0.01398861;-1.0057278;-0.0071003274;1.387658;2.2375586;2.4653983;0.48774862;4.956281;1.236163;-3.099373;1.3192497;-5.2149277;0.46448705;1.2796676;0.55866945;-0.0042492594;0.02202406;-1.405769;-0.25241533;-0.48815313;-0.011124197;-0.012710594;1.3789451;-1.3236922;1.5895553;-0.026679182;0.020191345;-0.016102673;3.4396796;2.2953262;-0.9689787;-2.8553278;-3.5239594;1.723129;0.04732485;1.5898037;1.1188138;2.7068458;-0.065318204;-1.1872525;1.6717945;2.2424684;0.7085782;1.6288404;0.7737858;-0.559403;-10.374202;0.09332038;3.156344;0.013843095;-1.1918969;0.545826;2.1406467;2.904491;-0.03166098;0.8664017;-0.07704714;0.029183766;-0.03775946;-0.01276292;1.5393013;1.649169;-1.4808925;-0.012984442;1.898917;0.015923224;1.6147449;0.0057667927;-1.3580769;-0.032601435;2.712421;0.520074;0.9903341;0.056150265;1.5156028;-1.1714507;0.03794037;0.056850202;1.0776223;1.7116618;0.042922825;0.59394366;-0.38326937;-1.0025827;0.0118766865;0.31234816;-0.00058475544;-0.91189986;0.015772829;0.008349656;-0.027709385;4.353757;-2.1055007;-0.022622036;-1.6753001;-2.0217474;-3.015548;-0.5909872;3.2085729;-0.011483257;-2.6076427;0.10279317;-0.7141379;-0.055713676;-0.52021223;-0.036702495;-0.50828445;0.24264741;0.0080601685;0.03305329;0.04612422;2.3618617;-0.12381733;-0.033328157;-0.06190746;0.9825596;-1.5498207;1.8006946;-0.7676526;-3.349584;0.75248986;0.62166584;-0.5269344;-0.8703828;-0.040197205;-0.026797015;0.010668638;-2.2542663;0.018030584;-0.29166195;-0.9658975;-0.04826541;-0.13198254;-5.7658663;3.6804943;-0.0041624857;0.013152678;-0.4490027;-1.5771261;-0.17719094;2.323487;2.9494607;-3.1214526;0.01594297;0.036741834;0.7611684;-5.722812;0.7822996;-0.10790125;-2.635653;-0.17442983;0.9960535;1.9171671;1.3476485;2.840929;-2.4255462;-1.5350416;-0.037397157;-1.8616725;2.6660166;0.002329895;-0.020534629;-0.0005498716;-0.6333203;-0.008521335;-0.0509158;0.008605176;-1.2801499;0.065198585;1.6978412;0.81892693;-1.4936353;-3.194106;0.5355359;-0.2589551;0.011884024;0.4405855;-0.026372168;1.6358714;-0.013334552;-0.177251;-0.034686666;-1.4991926;-0.5240854;-2.055887;0.40433258;-0.25821665;2.0259526;1.6790277;0.0066757062;-1.0194129;-0.19669569;-0.7314712;0.009930178;1.3552583;0.04064466;-5.6406617;-1.2063111;0.976054;-0.27324116;-0.05215287;-0.020202016;-4.1068077;1.9084578;-3.7223082;-1.3911531;-3.6680372;-0.22777468;0.57187337;1.1152186;-1.5296412;-1.8594214;-0.71248597;0.9422711;-0.008230074;2.534492;-0.012254073;3.4865072;-0.0039505893;1.5481206;-0.49299806;1.7400812;2.0051382;-0.020096183;-1.664731;-0.037746366;-0.18402751;-0.49364078;-0.0016135271;-0.24863899;1.1903082;-2.2841916;-5.5501494;-0.030967802;3.7642515;-0.0007101046;-0.77667105;-0.99985653;3.5963469;2.4011724;0.13455269;0.60003424;1.889398;-0.009545411;-0.5929774;1.5216866;0.0018888756;-1.1694249;-3.4541733;0.03040484;0.0075622234;-0.10318452;2.3497727;-0.01943682;-4.596481;0.01773178;-0.5878336;-3.3699648;-2.5975308;0.029153163;-0.29167056;1.1155759;0.06679427;0.0017183407;-0.27350426;0.9478041;0.57326484;0.2656722;-0.15336491;-3.539548;-0.6349812;0.017656118;-7.401072;-1.9781067;-0.011758718;-0.619635;0.0053934273;-0.027685802;-0.08806918;-0.16009957;-0.018386247;1.5375465;-0.039925173;-0.19591811;-0.014467639;-1.3407469;0.4707369;0.8668396;-2.651148;0.0021012274;-0.55914605;-0.041087896;-0.02707332;-2.01917;-5.249592;1.8652282;2.0433686;-1.1790396;1.2279925;-0.65710014;0.028152542;0.000994538;1.7061675;0.04828651;-2.3152707;1.0491323;-0.289305;-0.036747295;-3.7785404;1.5654674;2.087554;-1.7685437;-1.7637788;0.0021501891;1.7715789;-0.031221125;0.048520036;0.006706992;-0.040868163;-0.0691336;-1.4284453;2.8081057;-0.31444922;-0.31229302;0.03989731;2.159025;0.83417815;-0.04552334;-0.6171531;-3.1780574;0.0038870722;-0.26615778;0.6984744;0.12464043;-0.797276;-1.5580983;0.01710961;0.21111393;0.60569763;-2.291222;0.04190561;2.7504506;0.5156302;-0.015302732;-1.7978588;0.042087376;-1.200659;1.6481342;0.21532021;-0.03397452;-0.038635723;-0.44374055;0.2819249;-0.2988129;-0.18827568;-0.17992039;0.6584953;3.7827384;0.07000173;0.006960426;1.1092426;0.5993775;-5.630473;-0.042195596;1.6950942;-0.2882469;-5.158306;-3.6523736;1.6305722;-1.5964912;-2.9307475;-0.015855983;0.014562892;0.00925833;0.30319193;-1.2496176;0.0015317526;1.5644424;2.2952828;-3.4688935;-0.028927915;-7.7137036;-0.37490338;0.2887946;-0.004389758;0.08648546;0.067355454;-3.6031818;-5.9421663;-0.002638695;-9.470282;1.3117509;0.18921308;0.26971355;0.20839894;-0.027709493;-0.7282879;-1.3144166;0.007850135;-2.3592646;1.2729322;-0.043344513;1.3362032;-0.120067604;0.38807017;-0.19811478;2.3204107;-0.84647924;-2.0117354;0.03711864;-0.017606324;2.3850105;3.782708;4.250379;-0.41096053;0.008451992;0.01901867;0.38610792;3.4484036;-1.404889;-0.0326957;0.29119977;-0.002006069;0.6787122;1.6167061;1.0372494;-1.9573019;-0.39311212;-0.008433302;-6.8278103;-0.030250931;-0.8092903;2.3454537;0.00034331385;-0.001651156;2.6381457;1.2972938;0.022068622;0.04778734;-0.9537611;-2.273595;1.0071166;-0.31412816;-0.67818713;-0.01885833;-0.0061188554;0.6269772;2.9312272;-0.934541;-0.011433368;-0.011274916;3.2319264;0.040687293;-1.3444827;0.013614422;0.03277885;1.9896419;-0.6721765;0.03731472;0.03357817;0.061969914;-1.847761;0.027995614;-4.1214933;1.0236602;0.0044625737;5.0306964;-2.3781695;-3.963917;0.01520748;1.8995328;-5.017558;-0.60388225;-16.308226;-2.987724;0.014031349;-0.7457817;0.0042843334;1.5485628;-1.5582005;5.0897;1.7629975;-2.2143261;0.0070767095;2.4572358;-0.046765056;-2.3062384;-4.5094633;1.1815075;-1.2757099;-3.5795994;-0.052333053;-0.012184687;-0.0014604202;-0.01425848;-1.8367825;-1.4109056;3.3244083;0.026126584;0.01729113;-0.39958298;-5.474264;0.21279523;2.7147849;-0.09976749;-3.2090018;-1.6745642;-1.8708599;-0.014938323;0.0001648395;-3.1537125;2.3590658;5.409938;3.1241941;-0.01717089;-0.18951164;0.9750306;-0.57011056;-2.253558;1.9602654;-0.8907419;0.9448269;-4.0539107;2.3815193;-0.022228094;0.024657471;1.0727088
0.063809186;-1.5619856;1.5620049;-0.05376925;0.0118623385;-0.20575404;-0.009802017;-0.06586521;0.7566179;3.2285872;0.011457296;1.4117966;0.00980344;-3.0496674;1.1896743;-0.13841975;0.8070442;-0.09485976;0.011472189;-13.240491;-0.87715805;0.012013742;0.11154457;-1.0259174;0.06912336;-0.5648691;-3.2822318;-3.7115357;-0.06922266;2.620535;1.1181089;-0.6228093;0.6107731;-0.5390753;-0.033264957;-0.022956481;0.13979572;2.2789567;1.7810842;4.1846547;0.03669225;1.4165555;-0.766394;-0.7350126;-0.04984984;2.664122;2.0023367;-0.8763693;-1.7582611;-0.06411079;-1.7213919;-0.0095475;-2.7455528;2.3075576;1.996786;-0.32141644;0.28976858;0.710043;1.0705656;2.2391667;-2.806476;1.0902772;-2.7083426;1.5821654;-0.03449893;-0.074807726;-0.47820947;0.46688655;2.1460202;0.011863576;0.022072261;-0.90343076;-2.3098679;-0.43944305;0.022793893;-0.04126941;-0.034292996;2.005448;2.0934408;-1.2838542;-2.6878204;0.81956595;3.5902963;-0.010924859;1.6774012;1.4774789;0.37750843;-0.033324763;0.68449724;3.2442372;2.2495475;-3.6851647;2.7470136;1.1663306;1.5246952;-10.065865;-0.15553676;2.9471526;0.031589232;-1.5768627;1.5431627;-1.9674824;4.4480615;-0.0006079645;0.60469645;-0.07399231;0.0019600163;0.040777452;0.005831387;0.6141082;-1.2054456;0.8553306;0.5341911;0.20427398;-0.024977852;-1.434801;0.03374114;-1.1134351;-0.0021959064;3.8106828;2.6660724;0.23682272;-0.027289419;1.2169555;1.1832738;-0.018581718;-0.032416303;0.8895014;-1.2621485;-0.022817241;0.6431071;3.4197636;0.3389672;-0.019592125;-0.27152815;0.021539822;-0.76706874;0.016896127;0.04116828;-0.022760917;-1.1079048;-1.0832533;-0.035749875;-3.8993428;-1.2608254;1.0920341;-0.6891426;-2.2658558;0.006133016;0.33287627;1.8997102;-4.2075434;-0.055635888;-0.6757126;0.0025450266;-2.067466;-2.567188;-0.025696237;0.04242786;-0.060596578;1.9239022;4.1671476;0.00094396697;0.041082066;2.066523;-0.32777953;-1.6974587;1.4875864;-1.7111425;1.9934961;-0.52123195;0.70242506;0.44188628;0.9856773;-0.039680034;-0.029602818;1.7390357;-0.047895122;1.1471292;1.3514847;-0.05525689;0.328265;-4.955187;3.2225544;-0.013236524;0.018764952;0.82174313;-1.964362;1.4466515;1.240363;1.5166906;-2.4645243;0.025334615;-0.021956362;-0.63082105;-7.695524;1.8146555;0.3606157;-3.0714917;-0.59437263;1.0175326;3.5410647;-3.8331804;3.0146174;-4.6684375;1.1484797;-0.11626918;4.2713165;-0.31031978;0.010338444;0.055026744;0.006284485;2.2612178;-0.015317425;0.042868987;0.013706311;0.9168258;-0.03196288;0.47297525;2.329467;1.7332369;-1.7540822;1.4462366;-2.4869108;-0.014291873;-0.71935177;-0.021867318;1.3697263;-0.045657597;0.20991985;-0.0015390498;-1.9115717;-1.930119;-0.68524015;0.65806764;2.1644278;2.6576664;-1.1408968;-0.035679106;-1.0318297;0.7464015;0.017911056;0.053860366;0.78745115;0.01576506;-5.7581654;-1.5522199;0.88026685;3.3122046;0.026239851;-0.011244024;-1.6788988;-0.60075635;-5.2595963;-1.5254279;-2.489661;-0.016242854;0.5778397;0.49037486;0.08939244;0.3060491;0.04604115;2.5191429;0.008424563;1.5182976;-0.006113991;2.335008;-0.026692113;0.9043323;1.2567316;0.5972585;1.2684134;-0.11148018;-0.9405463;0.016587922;0.45825025;0.9244443;-0.028971976;0.10599004;-1.0574464;-0.5981352;-5.5113583;0.026030488;3.0992424;3.2010567;0.9592522;-2.7317207;-0.29011273;4.5500135;-1.1024263;0.7861713;2.3536022;-0.008861766;-1.0333703;3.261933;0.026414374;-2.5384982;-3.598538;0.011359164;-0.021167004;-4.9741645;1.5016322;0.008626041;-2.0777683;-0.052067555;-2.94229;-5.1991134;-0.5606533;1.0140791;1.856869;0.5304359;0.08228102;0.7694052;-0.073094435;-0.16638456;1.1784633;0.3118599;0.83066386;-1.3098;-1.7141618;-0.026146088;-7.2647295;-0.4283772;0.055357073;-2.872521;0.020508798;-0.06829282;0.06958634;1.1250302;-0.0102720875;-0.8427206;-0.02743367;1.0475734;0.010302477;-0.8975502;0.8190898;-0.9269338;-2.3349326;-0.016629346;-2.9334984;0.058757704;-0.003084025;-2.8105414;-1.28364;1.0453709;1.3137801;0.16550377;1.353872;2.3579648;-0.006907509;-0.002927149;0.75274324;-0.0035004837;-2.779241;-0.59896016;-1.6851971;-0.007464102;-0.86425793;-0.33424914;-0.024759322;4.407715;-1.447747;0.010117691;0.12661406;-0.04736313;-0.0050407713;0.08400981;-0.6487097;-0.6906458;-5.080964;1.1680003;0.11161246;-1.2005348;-0.009152933;2.0037818;0.2695458;-0.024886988;-0.37646744;0.83935785;0.06587378;-0.551018;4.1638346;-0.014148237;2.9836752;-1.0643735;0.02800634;0.0043350784;0.9951705;1.5635418;-0.02172996;-0.90344495;-0.81712866;0.005744712;-3.357896;0.03977349;-2.0463557;0.93250555;-1.4935805;-0.004826434;0.0037646028;-1.4770322;-0.14329176;-2.106009;-0.6384506;-2.9606223;2.4381895;2.1126337;-2.028925;-0.041168146;-1.4429939;5.042107;-5.4981055;-0.03272233;1.764661;2.602092;-2.6142058;-2.781076;2.3990674;0.78617495;-5.0494547;0.030936742;-0.04342573;-0.016206233;0.22668356;0.6179078;-0.06773552;3.5714674;2.3399618;0.14873739;-0.040477;-5.3241787;-1.4879802;2.869499;-0.004214721;0.028210185;0.05556463;-3.0351028;-3.1839125;-0.0025556737;-8.465243;-3.5614;0.121595666;-1.2939799;-1.2061219;-0.0008425229;-0.48875368;0.1999913;-0.014424124;0.37579703;-0.4155938;0.036092322;3.1240072;0.60223126;-1.6963481;1.1610192;0.36222136;0.60369134;-2.682247;0.021712668;-0.035168305;-0.09319869;3.5405216;4.3407826;-0.85095406;1.5989939;-0.011723733;0.03562218;1.0516304;0.66142976;-0.091645144;-0.048348337;0.029717471;1.7828602;1.9177666;-1.6003023;-3.419361;1.7297362;-0.0053264364;-5.5494432;-0.03812067;-1.8949013;2.7005482;-0.04928827;-0.018463634;0.7813902;0.6632243;0.00979321;-0.017504716;0.7521058;-3.9480906;0.09391388;0.27918473;-0.30813587;-0.016477564;-0.06127372;1.2532465;2.3486047;-2.6553807;-0.04421957;-0.021789994;3.0763624;-0.052988727;-1.3686247;0.008953993;-0.0043209554;2.234367;3.2453315;-0.016018566;0.022814231;-0.009889587;-1.0713103;-1.090536;-1.3932068;1.2475328;0.02971783;3.6368203;-0.39864692;-3.320471;-0.062602974;2.0135405;-4.9719534;-1.7846689;-15.304526;1.4380826;-0.06921314;-0.47466394;-0.005564857;0.8546751;-1.5888631;5.066021;1.053655;-0.5729493;-0.029475113;3.90009;-0.10159796;-0.63389474;-2.7020278;1.9742895;0.6943835;-1.6501931;-0.073261134;0.056695707;-0.013885698;0.0111750895;-2.7735937;1.0665216;3.483716;0.01291079;-0.08419748;-0.9907888;-4.133763;0.473701;5.779727;-0.0150034465;0.9440175;-2.4819863;-2.99842;0.032598894;-0.029378567;-2.4807456;1.0859693;3.6837375;2.4253438;0.037543703;-0.20875128;1.7432024;0.906111;0.27828145;1.3285092;-0.28410602;1.06206;-2.184366;-3.9272263;-0.08273118;-0.012538168;0.13343899
0.0033626745;-0.8315676;1.390276;-0.078989185;0.011202226;-1.3207711;-0.043543745;-0.023146214;2.6775937;3.0699084;-0.02276205;0.52031994;0.37353045;-3.5895338;-0.53784645;0.6103471;-0.42361683;-0.2518122;0.0006291232;-13.053267;1.6597621;0.009215052;-0.05190472;0.6345045;-2.518263;0.8844042;-3.5835118;-1.4194502;-0.0210722;4.375757;-3.1262789;0.3067919;1.7936672;-1.1488119;0.0285979;0.027478945;1.1951855;2.6950445;-0.3452901;4.3762455;-0.17172967;1.9036707;1.9481541;-2.0010724;-0.041306637;2.4180548;1.8396678;-0.26039276;0.85500175;0.013040082;-0.67793787;0.006322196;-4.323388;2.164686;0.35785815;0.24680808;1.1265969;-1.1168857;1.3805375;0.40132824;-5.322018;0.5913533;-2.8668818;0.6077843;-0.05095012;-0.042089667;-1.0105714;-1.0981314;-0.10221769;-0.10091964;0.026658637;-2.500355;-1.9167476;1.6451831;0.0070067993;-0.0094896555;0.026196446;2.2002368;0.8760646;-2.0964305;-2.131054;-2.4337938;4.202447;0.040918507;-0.27041355;-0.38991234;1.004187;-0.07545702;-1.2726076;2.8030565;2.3262455;0.10242491;0.3289288;-1.7520875;3.1603901;-9.537588;-0.019177075;1.5138432;-0.014824375;0.24813439;-1.8115113;2.4784243;0.14761794;-0.016757347;4.5059977;0.0023494104;-0.036644895;0.05406365;-0.012148538;0.41679585;0.2850527;-0.42990705;0.18482551;-0.63820857;0.009011949;1.2984467;-0.030848924;0.49115816;-0.041301783;-3.4621909;-0.95783097;-3.348097;-0.024532216;0.8952491;-0.0098189525;-0.004587672;0.0269335;-4.2116194;-0.651866;0.016569093;0.8282479;1.776588;0.35381493;0.0064242454;0.5919938;0.060882717;-0.88285255;-0.01851991;0.02206306;-0.011835837;-2.359988;-2.418173;0.011165746;-4.165142;-2.2046957;-3.346054;-1.9809263;0.162693;0.004469704;-0.40486872;0.93506926;-1.2397581;0.10548188;-0.53954774;0.024204124;0.8044538;-3.3178592;0.029633299;-0.001080351;0.023854993;2.676771;2.8433506;0.07756029;-0.004615898;1.3885804;-1.6296304;-0.70868206;2.635856;-1.3877288;0.5295672;-0.8383606;-9.281165;-0.24298353;0.64257175;-0.019061787;0.036690626;0.1891278;-0.029046152;2.1043754;1.0500712;0.008394877;0.43951407;-0.07113234;2.0775554;-0.0073055723;0.005824576;1.905857;-0.78084505;1.3292801;0.19710895;1.3377421;-1.3991426;-0.03946569;0.0026572172;2.137098;-4.626856;-1.4661171;0.575532;-1.7077626;-2.000818;-1.6686338;5.0042534;-3.6719594;1.3095405;-1.500384;2.3844457;0.63836455;3.101572;-1.4483654;-0.016991017;-0.020885231;0.011137095;1.1129936;0.014800253;-0.036984533;-0.013548844;1.5671742;-0.04949855;0.48949862;1.3497648;-0.90161425;0.07539495;-0.7590449;-1.8614845;-0.017639477;-1.0461704;0.11703936;-0.19227163;0.34124365;0.87196535;-0.076978095;0.96912074;0.38678017;0.7717237;2.3050935;3.0891697;3.9865377;0.19392134;0.5977692;0.34948942;0.4181661;-4.9950447;-0.06637895;2.4295053;-0.0145975705;-5.329985;-1.185664;1.5920881;0.7765081;0.03967115;-0.005725444;1.2006639;-2.0317988;-4.749552;0.5795022;-1.8614317;0.57199585;0.0467523;1.2866524;-1.454535;-0.89207554;0.37794733;-5.134658;-0.015879922;1.5939157;0.0050184014;3.4020996;-0.05963546;0.5597134;1.4701428;2.5061703;2.0959754;-0.022378983;-2.1494622;-0.045389347;-0.26429513;0.66156816;-0.0022841112;-1.870729;1.3088182;1.8596531;-4.05443;-0.05587177;1.5864997;2.7032535;-0.5583735;3.6509192;-1.3951323;3.1804316;0.6703809;0.26606336;2.8313792;0.019214002;-1.35504;3.626924;-0.04972353;0.15504484;1.6948963;0.023890726;0.026191806;-1.3521746;-0.86351544;0.022336299;1.7061843;0.008305091;-3.6418393;-3.8148432;-0.735201;-1.0453771;-0.19429025;2.7241864;-0.01785331;-0.5036756;-2.6230326;-3.5911202;-0.8111903;-0.44084123;-0.20064576;3.138985;0.65194464;0.02656239;-7.09373;3.6938295;-0.028341088;-1.853033;0.00041870223;-0.005953348;-0.04184904;-1.8233377;0.043011136;0.26053917;-0.0048099854;0.74339056;-0.054821454;-0.83633953;1.2181044;-2.814231;-2.482514;-0.028570248;-0.66469634;0.009511992;0.047286056;-2.6264057;-2.433311;-2.0153685;2.5237572;-0.8731095;-2.7429092;0.97279614;0.041584183;0.030729562;0.7625246;0.021361329;-2.6122975;-0.16587448;-0.5529747;-0.03490701;-4.556658;0.8932366;0.94965893;1.5775526;1.2721275;-0.021739673;-1.9831705;0.009091324;-0.010492004;-0.056565672;-2.1572835;0.55200374;-2.483649;-1.962793;-2.06768;-0.341781;0.012896948;2.54256;0.78753716;0.008132109;-1.0407072;-0.018752908;-0.03532937;2.7509398;-0.59984994;0.009275588;2.1242373;1.5308801;0.004829438;-0.14670607;1.6060872;2.3263755;-0.02607701;0.73870474;-2.078641;0.00506699;0.4295263;0.028434256;1.0615321;1.736479;-0.5192221;-0.047352523;0.017463671;-2.177548;-0.93180996;-0.7725674;-0.501784;-3.229341;-0.36866584;0.75688976;-0.33971834;-0.0032892642;-0.3516986;1.105594;-5.414856;0.03608033;1.298144;0.40326905;-1.0958529;0.9598927;2.1022139;-1.2300869;-0.06910496;-0.001976367;-0.0063036815;0.02757674;1.6061295;-0.5541473;-0.0014734241;-0.62676364;0.6379077;-0.057921365;-0.022097683;1.8230934;-0.63490504;2.3010712;-0.02751648;0.031681046;0.0040898053;-3.0584304;-3.8538501;-0.09027692;-8.687866;-1.7898201;-0.45881012;-0.9246656;-0.5297354;-0.024251826;-0.8806806;-1.0779265;0.021831518;-0.48930264;-0.45027852;0.02622686;-0.3160757;-5.49057;1.6241602;-1.5766797;-2.5634007;-0.044144478;-2.1548812;-0.026998034;0.055239823;2.2994936;-0.76125103;5.0926437;0.35018393;0.8493015;-0.016432628;-0.00674688;2.9159389;2.085069;0.6640259;0.82068336;0.06559355;-0.3622246;0.6335248;-0.54294395;-4.460752;-0.12688735;0.02094978;-0.118470706;-0.076231204;-1.3543462;2.1709363;-0.032676376;-0.014692362;2.098687;0.6049851;-0.009340344;0.035636388;1.8066212;-2.8328218;1.302377;0.39636797;-0.744526;0.005899128;0.2369107;0.7614468;1.1228412;-3.586249;0.017362729;-0.02167643;1.0630672;-0.055206407;-7.239867;0.031873275;-0.03526051;2.3195448;1.7226985;0.021883462;-0.017744027;-0.06559353;0.62817895;-4.1741714;-3.729247;-0.021461934;-0.03751832;3.813306;1.1011829;-4.2522545;0.13128656;2.9242868;-5.7328105;-0.7213163;-15.742728;0.6820562;-0.06899105;-3.090073;-0.004849658;-0.5426865;-0.91974974;4.6494265;1.2752371;0.077001795;-0.004026732;2.243173;-0.07266786;2.5812705;-3.0742776;2.2168884;-0.57221866;-2.7280855;0.079206236;-0.036358606;0.011890942;-0.021141786;-4.776662;-2.8987672;1.2323885;-0.017819878;-0.018333541;2.8011181;-3.5238566;0.9339411;1.4888791;0.027707221;-1.4999601;-0.6098206;1.7457776;-0.01341039;-0.005280845;-2.7237659;1.5940753;2.639436;0.5920111;0.0046631163;2.9066513;-0.24884257;1.943647;-0.08295287;2.399891;-2.5919058;-0.2346702;1.9664932;-3.182255;0.6123459;0.006912298;0.40731013
0.027952515;-4.1872106;2.8834798;0.6704173;0.008704989;0.27771708;0.012492139;0.21107848;2.837803;2.1981964;0.021753237;-4.6517253;-5.5047297;-0.94348973;-0.37982208;0.039839964;0.33437225;0.47646722;-0.012488703;-14.826104;-0.11919198;-0.013396988;0.5389368;-0.06029843;-0.47523317;0.10149071;-4.785637;-1.4365029;0.005480871;4.3933363;-3.3797143;0.09295495;2.987846;-1.2058731;-0.0070692296;-0.02702923;0.2825024;2.958688;0.9681222;3.0779219;0.0284452;0.24168824;3.4661863;-4.7763124;-0.15639004;4.8931584;1.6999351;2.1367316;-0.26184243;0.033190936;1.4317701;0.019830976;-1.547315;-0.14161013;0.94129974;-0.52296925;2.1845322;2.3299258;-0.7012817;-0.904898;-3.3416715;2.0264006;1.081209;-0.063279845;-0.09279929;0.88934946;-0.7230644;-0.0887582;0.8550114;0.04900916;0.017385472;0.7728538;-0.93013483;2.1183002;0.0072158687;0.004702765;-0.025625672;2.6714032;1.5191959;0.30290943;-4.508499;-0.32888147;2.6701024;-0.0072864178;-0.03245996;-0.7042528;2.1500955;-0.00075926573;-1.354409;3.437101;2.2312784;-1.3965064;2.3142822;0.46300498;0.88468516;-9.296924;0.20074627;1.3454717;0.0052578542;1.1631099;-2.6708572;1.0042884;-2.4566069;0.011947349;4.1663017;-0.033510465;0.01688545;0.023005335;-0.004558942;1.096547;-1.7971983;-1.5058982;0.36297017;0.1510941;-0.032720488;-0.07443944;0.02089742;3.350516;-0.028859066;-0.65916234;-1.7204291;-3.8340323;-0.025847519;0.30222964;1.4445426;-0.054414544;-0.03445795;-1.7322571;-1.735157;0.013974404;-0.31035545;-1.649442;0.5726062;0.019696485;2.8564796;0.0013791715;-0.8212906;-0.06322213;-0.012313435;0.0033113994;-1.4562241;-0.5584167;-0.015369038;-1.9659662;-2.5520637;-1.2100565;1.3964131;0.22934817;0.007995766;3.4902546;3.7346187;-0.4099886;-0.10254203;-0.3212595;-0.011551076;0.6926354;-2.9001548;-0.07069725;-0.05153771;-0.02670688;3.2067893;-0.45752102;-0.018642493;-0.028650502;1.0631963;-0.8878123;-2.5329862;-0.6453142;-1.6557521;0.46379206;0.49535543;-1.1600859;0.16571341;1.5160114;-0.014981024;-0.022874868;-2.0524735;-0.022707365;-0.29635563;3.3437154;-0.05711722;0.08447411;-2.1341112;3.843922;-0.0036836327;0.02960064;1.222252;-0.7984171;0.342648;0.9620154;0.9222004;-1.7111107;0.010852535;-0.008729541;0.3870112;-3.0405378;0.5572297;1.1558591;-2.033896;3.0501142;-4.701054;3.2275336;1.94503;2.9432642;1.084184;-0.36078575;-0.12717229;3.9200947;-4.762673;-0.008547284;-0.030257333;-0.017116247;1.3137195;0.009720371;0.008596122;-0.013336679;0.38397312;-0.002055426;0.7235823;2.6648777;2.0508087;-0.38851744;1.9587979;2.1190858;-0.08019461;0.5120345;0.01032551;0.74702364;-0.102801174;-1.8957413;-0.039183896;0.36853927;1.1225368;-0.6208262;0.17568095;0.46033472;0.33806294;0.078967266;-0.08471488;1.9263666;2.042775;-0.9771374;-0.014915413;2.1168723;-0.018456891;-5.0152044;-1.0796702;0.56168324;3.6630993;0.035761256;-0.016476905;0.058947425;-0.09793643;-4.252364;-2.4631207;-3.2780812;0.16351312;0.5665281;-0.36170045;-1.5198551;-4.9693727;4.515379;-5.916682;-0.020598931;2.5059571;0.019673686;3.8296385;0.1577107;-0.6459782;-0.24170092;1.4860338;3.3350391;-0.02710968;-0.43567944;-0.041037314;-0.31363466;0.74362046;-0.00047372477;-0.9184993;-0.06077999;-2.0150456;-2.978265;-0.08576736;-1.1510539;2.6282215;0.23184997;-1.8327912;1.3081447;3.666141;1.0231872;-0.6973979;1.5941806;0.002714813;-2.283064;1.1083769;-0.11279554;2.839385;-0.63823444;0.038950674;-0.04302028;-1.6129853;0.61522955;3.5598718e-05;0.67738605;-0.013417863;-1.5870668;-4.605472;1.121709;-0.07313756;0.5181932;-0.62715983;-0.0014528506;-2.9932048;-2.1894658;-0.3048106;-2.4561996;0.42891404;-0.024080226;2.576205;0.48279372;0.0075660935;-7.382107;4.2583494;-0.01215029;0.049265373;-0.00047892527;-0.037848998;0.022264497;0.22098818;-0.0018320689;0.9854438;-0.07938865;-0.5062198;-0.018109478;-0.716848;0.08757193;-5.4170737;-2.5937283;-0.0010011262;0.28233573;0.042084586;0.008108824;1.1418732;-3.2479873;0.40703347;-0.26464757;0.26903453;-2.278907;2.3905034;-0.017372677;-0.056411467;0.10669607;0.033301283;0.43020838;0.7194103;-1.6011932;-0.04423497;0.32955396;2.208353;0.34298638;1.1117594;2.6387544;0.019902453;-1.8644533;0.00604035;-0.074293055;0.01585993;0.65171045;1.6227101;-2.7376847;1.5332994;-0.52276736;0.25268075;-0.008482389;1.3431326;1.1763594;-0.025292464;1.648053;0.2152071;0.0012004742;2.9045448;1.1327345;0.016391253;2.5393307;-0.5346216;-0.011300833;-0.047298744;1.495928;2.3630338;0.005831328;-6.5949197;-5.430567;-0.025869805;-0.006075882;0.0032504608;-0.076026715;2.550471;2.2168674;0.026023038;-0.012809774;1.6700647;-4.496872;-0.9909694;-1.3406813;0.3718828;0.68823165;2.740134;-0.7052396;-0.018535355;1.2936369;-0.05849908;-3.450801;-0.017195554;1.0610055;1.3364545;-1.3765879;0.58245295;-0.92303044;-7.004581;1.5692029;-0.050462738;-0.030026712;0.005681642;1.4587885;0.20418645;-0.003914156;1.0198548;1.3652948;0.5301342;-0.0294059;0.40203726;-2.9882927;1.4655331;0.06381413;0.010040491;-0.0067821452;1.218335;-4.1673136;-0.16399562;-8.600315;-3.4277523;-0.034163117;1.8867091;0.85239726;0.011236925;0.33981806;-1.9168491;-0.015739705;-3.0112956;-0.87691534;-0.007925783;-6.8411546;-2.7242818;3.7271342;2.216989;-1.5415376;0.85232306;-0.37300998;-0.013879724;-0.032093193;-0.0039407946;-1.2928007;4.7268744;0.53699404;-2.4666831;-0.00041556015;0.0840535;2.2185493;1.1716408;-0.18656169;0.022929968;-0.008332293;1.2863904;0.96396405;-1.728822;-2.3485138;-2.9251049;-0.012951555;0.03763225;0.6256079;-1.0808364;2.7248168;-0.037136577;0.05598285;2.3213916;0.4112996;0.050244886;-0.037780892;0.964299;-2.358798;2.283275;1.1405202;-0.60107464;0.00080088933;0.09901723;-0.025484215;1.9179045;-4.8779154;0.012693552;-0.044009823;-0.40842062;-0.010919032;-5.9616165;-0.013644918;0.017456139;2.189961;1.9405766;-0.024829375;-0.004360104;0.004036414;-0.28697345;-3.362499;-5.2321815;-0.090227425;-0.00045111348;0.562262;-0.41972384;-2.566041;-0.08001411;0.46607247;-6.7159357;-2.2059383;-15.090359;0.7651979;-0.089880556;-2.4154947;0.0028372318;-2.1694314;-1.198851;3.1030512;0.8619803;0.61984617;-0.023333969;0.31076813;0.8389546;0.94813836;-2.790136;-0.7908604;-1.3175689;-2.0350685;0.8059602;0.015282266;-0.057221573;-0.011249874;-2.9918344;-0.9793189;1.5394974;-0.011860098;0.036025044;-1.760289;-5.4100094;0.8046978;2.23137;-0.013087282;-1.7850654;-2.5236063;0.60196817;-0.021126654;-0.093904294;-2.6875722;1.82349;4.1038256;4.319121;-0.026422342;-4.9641457;-2.5071087;0.6108722;0.5657844;3.2143824;-0.847006;-0.36113644;1.4094807;-0.55974233;-0.055024244;0.015183835;0.26823166
-0.0034673351;1.0232074;1.1995623;-0.048366036;-0.0056057815;1.4721849;-0.0064632134;-0.010560643;0.017536694;2.8312721;-0.024019308;-1.9450265;1.0726655;1.9781171;0.24912761;-0.13357325;-0.17793;0.5286142;0.016874962;-15.092602;0.13190153;0.03440911;-1.5061281;-0.89025974;-3.363854;-0.25929397;-2.6080153;1.0428591;0.02278799;4.445939;-3.350622;2.0417578;2.7369184;-1.3438928;-0.01672137;-4.8161713e-05;0.17248455;2.8564763;0.057671428;2.6139526;0.018470053;2.838552;1.0034326;-4.384182;0.7564134;-1.9934118;2.3354943;-0.3941081;-0.42127058;-0.032404285;1.8790017;0.023969343;-1.1574965;1.6363263;-0.70088136;-1.2253733;2.55643;0.961148;-2.0791705;-0.36364967;-2.1637614;2.6029792;0.8688016;-1.9324901;0.5835228;-0.19524275;-2.0635126;1.5628299;0.8169553;-0.027270729;-0.009885964;2.0011978;-1.4997538;1.6765188;-0.013476826;-0.015712725;-0.02068279;2.3477871;-2.466188;1.0556631;-1.9527525;0.95620024;5.9048796;-0.03140812;-0.5297663;3.3188934;1.3548567;0.14205705;-0.60447884;4.797499;2.4152634;-4.7293386;2.6333113;0.49800286;1.7724346;-9.690796;0.077369496;0.6716416;-0.06285675;2.172019;-1.1463729;1.7401187;-3.0826921;-0.03226682;2.1929095;-0.11175042;0.0007845615;0.0051340754;3.916926e-05;-0.069554746;-0.6939553;-1.670704;1.4760177;0.9248982;0.07773791;-5.2102633;-0.00052362477;-0.6246999;0.020641778;-0.9572173;-3.7091405;-1.438198;0.4309123;-3.49674;-1.3266494;-0.029370198;-0.049177293;0.6238054;-1.3042536;0.009747013;-0.9415814;-2.64932;-0.18839793;0.025370864;1.4941752;-0.008141562;-0.3174117;-0.05118108;-0.071596995;0.029629122;-2.376838;0.78261465;0.013583907;-3.18324;-2.469398;0.27714393;3.6331213;1.184176;0.023739839;0.35320628;0.06826316;-2.2356231;0.047021717;-0.29804826;0.058947846;0.8082698;-2.8922114;0.016047586;-0.0004188825;0.002530084;0.6112626;2.4206426;-0.05728835;-0.004679461;2.4096882;-2.218571;-2.0425432;0.4885587;-1.3054085;-1.519209;1.5860125;1.5987729;0.9393322;0.9055499;0.055947524;-1.1481263e-05;-0.34002164;-0.016965616;0.8103604;3.9349747;-0.017860072;0.36639255;-2.213695;-1.2175941;-0.014793993;-0.009191024;-1.8468986;2.5166276;-0.18168783;-1.4320527;0.90582514;-3.504758;0.05006476;-0.01843003;0.01613246;0.4923436;-0.9051569;0.6207068;-1.174775;1.4374897;-0.27016985;1.893804;-0.033172328;1.897884;-0.8838701;0.526553;-0.06019417;2.6341782;-4.0191903;0.017463023;-0.0049652224;0.05798746;3.6956995;0.005008386;-0.024720484;0.0061017475;1.367104;-0.023683168;2.3585887;0.12143277;0.064788036;-2.8003647;-1.0661429;-1.4953604;0.45099056;2.8073564;-0.025989894;-0.4511712;-0.02900029;-1.6491805;0.00774959;-0.75266165;2.136597;0.30867758;1.1131238;1.5852203;1.6447165;0.35743213;-0.014140099;0.4552123;0.829573;-3.4483902;0.05368395;-0.84573144;-0.017971352;-5.2792735;-1.0162966;-0.7113592;2.0388565;-0.028410139;0.04165055;-0.24323232;0.73705894;-2.4298406;0.17210475;-1.2505811;0.55551684;-0.015945263;1.5339583;1.2599291;-5.4629006;1.1590335;-5.009122;-0.021936836;3.0555394;0.019100297;4.0234046;-0.0812035;-2.2397358;0.24877617;1.8368815;4.130299;0.0447079;-1.4706773;-0.015014922;0.118105985;2.9544578;0.010469161;-2.6371408;1.7083848;-2.5060055;-0.052772038;-0.03205227;-0.14655095;-0.5960081;0.21978137;0.08236421;0.5262428;-0.15533079;-0.78574836;-0.7973817;-0.42768222;-0.0065213153;-2.702979;-0.90136576;0.5839357;3.728952;-3.7004724;0.008152516;0.024062004;2.4161935;1.8909707;-0.0043144017;0.57019895;-0.005273852;-1.2022452;-5.827959;-1.2487764;-0.86129475;0.31973743;-0.52866316;0.026338238;-3.7369;-1.0323329;1.7186787;-2.018678;-1.8084024;-0.022519656;0.91034895;0.6615514;0.0015729568;-7.357039;1.9253836;0.008525767;-1.0581546;-0.011897429;0.0057475828;-0.023201143;-1.3368292;-0.010057844;-2.318027;0.040053695;-0.8603153;0.026980028;0.54111487;0.862023;-5.264411;-3.698838;-0.005483231;0.08028096;-0.025752544;-0.056638107;-0.5813942;-1.3641759;3.0011446;0.62229615;0.55252326;-3.4295416;0.6784135;-0.0067780805;-0.041979026;-0.9761628;-0.007313728;0.7628086;0.72237146;-4.565581;-0.001604629;-0.8802181;0.24032734;1.277307;0.4026023;1.202427;0.020003462;-3.6080136;-0.092661254;0.048128374;0.04578466;-2.8553908;-1.7482915;-2.6878874;0.8150509;-1.4400408;-1.492205;-0.04432425;1.0368866;-1.2528399;0.027707085;0.87429786;1.3065355;-0.031958837;2.3685007;1.0273968;0.0050928374;0.45553342;-2.2830915;-0.019650456;0.06629909;-1.0695801;0.6378603;0.016928252;-6.7684584;-0.54115087;0.014400614;1.762227;0.007920355;-1.1909788;0.6599698;-1.4604337;-0.023393746;0.033255804;1.8055108;-3.2699533;-0.45541084;-1.2506374;1.4350023;-0.42933905;3.4170253;0.74511397;-0.021897947;1.1358405;-0.547798;-2.2205672;0.0034917614;-0.018587336;1.8787718;-2.0083704;0.75196195;-1.412271;-4.211315;-0.6840428;0.025236212;-0.022966001;-0.013585066;1.8008813;-1.9732472;0.030434847;-0.34824282;1.7083329;4.7604356;-0.026264856;0.027495995;-4.8479605;-0.20290935;0.019270197;-0.0067839483;0.021792492;0.536823;-2.8762848;0.89060223;-8.716121;-0.9588506;0.780886;-1.2788603;-1.0066549;0.0014667456;1.6913905;-0.784013;-0.024748137;-1.1009325;-0.93980616;0.014520373;-3.464837;-4.9383016;3.2330368;-1.3050077;-0.5446952;-0.65202165;-0.3432325;-0.031183904;-0.038244814;2.6149979;0.060830694;4.9996877;-0.018437145;-4.5610003;-0.058370493;-0.017229509;3.0997999;1.3615434;-0.033769958;-1.5575044;-0.0054794233;-0.44883406;-0.44559428;-3.8609776;-1.6607258;-1.7452505;0.029730253;-0.5117439;0.06965012;1.604913;0.9984567;-0.018913964;0.008208098;1.5158972;1.1884376;-0.026105525;-0.11721116;-0.5654491;-0.45236367;1.5452094;-1.1164535;-0.5269674;-0.03082943;0.14898187;-0.47793782;0.1604509;-2.2483113;-0.005939248;-0.030941404;-0.96070063;0.0025560707;-7.6428933;-0.03827199;-0.040415388;1.559772;1.8655182;-0.006202677;-0.00482704;-0.008667136;1.1314182;-4.288641;-4.231519;-2.312772;0.028690353;-1.7206292;-5.3743143;-2.2416794;-0.03328114;-0.6457568;-6.4607043;-0.73895633;-14.527031;0.1847596;0.788938;-2.5129633;0.014230216;-3.0881257;1.7434496;5.744357;2.635347;0.104444884;-0.008479904;1.807008;-0.13515218;0.96108955;-3.2503963;-0.048186075;-2.0430138;-0.6051905;-0.20534454;0.13209763;0.004171689;0.010850537;-3.97635;-1.2357677;1.1152251;0.24481457;-0.05221355;0.78211373;-3.729921;1.4558496;-0.003384254;0.036977377;2.337542;-2.5161936;-1.204147;0.07158884;0.014650059;-0.044581383;0.22568034;4.8289948;4.294847;0.019476758;-5.2673182;-0.6179611;1.6950431;-0.14115134;0.36794522;-1.1639485;1.5911266;-2.8431976;-1.7656007;-0.07192885;-0.059524544;-3.9739716
-0.008160853;-1.0249376;0.63659096;-0.1510448;-0.06645537;-1.8487114;-0.03871599;-0.032945044;-0.15511957;1.0141257;-0.001841029;-3.318757;-2.5152311;-0.6666633;1.9583879;-0.060271826;-5.0664897;1.8318664;0.042863753;-15.165548;-3.296479;-0.013190351;-2.0844743;-1.4900081;-1.7640558;1.5819278;-4.163242;0.1651152;0.019023828;2.5795515;-2.4350872;0.8784736;1.6337217;1.077895;-0.02165327;0.005424689;0.1446151;3.768879;-2.4064944;2.1758752;0.06449404;1.0584104;0.5967067;-3.2296395;-0.14294776;1.0534375;0.1858607;0.53797305;0.44239286;-0.028634494;1.436116;-0.008828852;-0.7988933;0.20247203;-1.8855708;1.2858121;1.8677405;1.2211727;-1.396389;-1.2214558;-1.2675931;1.1195244;1.4551895;-1.5055851;-0.14919633;-0.042310648;-0.9549034;2.66597;-0.1511903;0.011919193;-0.02860483;1.3428876;-0.25129014;0.58340806;0.0055800495;-0.035245206;0.003038176;0.779656;1.3499848;-1.678254;-1.5835536;-0.6879025;-1.5387084;-0.032847658;1.6758373;2.1627977;0.20211399;-0.07711968;0.4745579;4.4329553;2.3951783;-2.2077787;3.1400864;-3.6056266;1.4991732;-9.29378;0.03285191;-1.4757735;0.11993483;2.7070103;-2.0363243;-1.4308643;-0.8005884;-0.017199866;3.2205637;0.062155377;0.014889536;0.014498033;0.054406147;0.27720818;-1.289951;-2.7724378;1.9397818;0.38413337;-0.016415035;-2.5567358;-0.005910761;2.2225082;0.023925513;0.96303886;-0.7828774;-0.56324756;-0.14255708;-0.32477167;0.23811996;-0.0053088325;-0.022255097;1.2987534;-0.3929188;0.023047237;1.0157902;-2.5010095;1.9044325;-0.04135478;1.5424544;-0.0116213625;-1.0542469;0.64192045;-0.020849938;-0.01202234;-2.170146;0.800115;0.023372734;1.0075929;-2.8888984;5.166155;-0.8197402;0.7289982;-0.020314958;-3.4727137;-5.8676558;4.4862785;0.031513516;0.03935411;0.027269104;0.3141464;0.47421724;-0.0054246397;0.053987026;-0.008061754;-3.1289117;1.4598062;-0.04844783;-0.024749173;1.9522771;0.3797032;-1.5037602;1.384426;-7.169655;-1.0614094;1.29361;4.784153;2.2878442;3.0067174;0.03165197;0.0012571432;-1.1607798;-0.013660421;-0.5856407;2.5390577;-0.015932256;-0.3786486;-3.935226;-0.9513677;-0.044619776;-0.02614501;-1.5910528;1.3573874;0.29113686;-1.5856276;0.6214843;0.75357616;-0.0029390943;0.030894065;2.2079167;1.4693005;-0.1002069;0.8053364;-1.619193;2.8654904;-0.21156092;2.8486223;0.20737654;1.1063596;-0.06430869;-0.030114118;-0.05900982;1.6712779;-3.2074962;0.007866882;-0.012056385;0.00344705;0.97155964;-0.028156023;-0.00943568;0.5542896;-0.7428359;-0.11007918;0.6028592;1.6484833;0.04521591;-2.1282995;0.26879674;-0.121211275;-0.07790473;0.8928002;-0.0015926879;1.986148;0.0025555699;-2.3752468;-0.058896977;0.13554436;-0.09724963;-0.10066186;-0.47652116;-0.28665203;1.6864685;1.4658911;-0.008053147;3.0406053;-0.5219661;-5.3326836;-0.024516212;2.2025397;0.0020796056;-5.514612;-1.1085899;-0.68083966;-0.58283794;-0.016844144;-0.045246344;-9.029722;1.1911609;-0.36229205;2.7370195;0.16186324;-0.087839045;0.96959674;2.9654124;-3.0144033;-1.4824364;2.1719115;0.79522467;0.025696004;2.1326618;0.028785441;3.0506096;0.0648017;-1.0161033;-0.006021602;2.2642841;3.0231583;-0.025219861;-0.838086;-0.03004622;0.3595595;1.1229093;0.011500198;-2.8204336;1.2253054;-0.7667356;-1.6743785;-0.1457804;-1.0465868;1.4718413;2.088089;-0.52913845;4.0090075;-0.9149506;1.7621264;-1.2902688;-0.07489951;-0.00082573196;-3.1161475;0.77917665;-0.19425258;4.1323185;-1.1018586;0.011862213;0.050795175;-0.23412134;2.8556497;-0.0029027788;2.1404605;0.03771206;-0.6108787;-1.4462761;1.5641662;0.48357537;1.8451968;0.50883746;-0.07519088;-5.0795097;0.34496254;-0.8574704;0.59661585;1.2346902;0.0003787796;1.3948371;0.96514326;-0.050612926;-6.9253116;2.6108768;0.05109484;0.67081785;-0.051584996;0.0019337815;-0.02439538;0.1482871;0.0006553886;0.5178109;0.029565917;1.1207087;-0.054859243;-1.464243;-0.89711094;-7.21147;-3.321904;-0.010939579;-1.3866246;0.09671848;-0.022007192;1.7961209;-0.18634228;1.7548931;1.861131;0.28103837;-3.0929682;0.79412794;0.0009482356;0.028340848;-0.34061852;-0.06542064;0.33797657;0.522379;0.008400339;-0.007697146;-0.07757181;-2.8234825;2.6498559;0.43546584;1.3741621;0.009640204;-1.9841722;-0.002521121;-0.029656213;-0.03156525;-0.8874232;1.345301;-1.6147238;1.3474053;0.77108324;-2.4301422;-0.024052963;-0.1920696;-2.12638;-0.020619644;-1.7268057;-0.41745624;-0.017009676;2.7514944;1.3854078;-0.0406321;3.315265;-3.1309671;-0.0062019266;-0.021932794;1.0382686;0.8914762;-0.038096648;-5.248329;-5.3379707;0.5665254;1.8045539;-0.013650749;-3.4503973;1.4768928;0.40551302;0.015065195;-0.03573648;1.967555;2.287193;1.9655081;-1.50877;1.6929263;0.059975304;-0.59535855;-1.7626938;0.022437068;0.8806134;-1.0620233;-1.3712682;-0.00069834874;1.0205344;-0.36599776;0.028355557;2.3568037;-0.9862493;-1.5254878;0.72192806;0.02052102;0.585685;0.0036713756;0.8199422;0.9866408;0.037864782;-0.33482218;2.9917672;3.512378;-0.0053423075;1.6792349;-1.0935357;0.52733564;-0.0074443165;0.013925723;-0.00371488;-0.55075204;-6.4371805;-0.3361568;-7.3355956;0.7132176;-0.2584404;-0.030592225;2.229546;-0.015300104;1.0754284;1.356548;-0.007269719;-2.491448;-0.89868355;0.08852268;0.46970955;-4.7000275;-4.2856975;-3.7336342;-1.7643585;0.35784084;-3.464341;0.011768913;-0.008296551;0.25887114;0.529933;4.95442;-0.4235739;2.5166306;0.20330745;-0.09198064;2.1966057;0.37610018;-0.038643442;1.1231501;0.10664867;0.2632747;0.050349224;-3.1042984;-1.7944887;0.04185754;-0.03940139;2.2121797;-0.11920099;1.4914372;-1.1259644;-0.020823743;-0.030383563;1.3293809;1.180962;0.019923778;0.7403634;-0.42193663;-1.1785662;3.4871893;0.3084296;-1.3925313;0.01337734;-0.12723333;-1.483254;0.9596415;-1.0461153;0.031181403;0.030508954;-4.5678425;-0.055084538;-5.809419;0.030649811;0.051317696;1.5169309;2.0955427;-0.020542564;-0.018145699;-0.04019329;-1.3609225;0.37912184;-0.81073177;-1.6284372;0.014595007;1.9111841;-1.5491569;1.2326158;0.0065708063;0.6085719;-6.965518;2.703774;-12.199218;0.5926814;-0.22942439;2.332056;-0.022931028;-3.163246;-0.36403394;3.2704363;2.8879604;1.3816092;-0.00010862542;-0.08966671;-0.058135573;-0.94847167;-1.1858716;-1.381136;-0.8800859;-3.5710928;-0.08730115;-0.026175573;0.087092385;0.001906709;-3.4672732;1.9702251;0.6010318;-0.1444689;0.022347234;-0.88645035;-5.168357;1.6174148;1.0608435;0.018387375;2.6502693;-0.7756679;-1.2701991;-0.008700158;-0.024263063;2.3502727;0.38233936;2.3380203;4.744953;-0.017973864;3.411593;-3.5670772;3.6879132;-0.1377297;1.8637753;-1.066237;0.87883914;-2.5573344;-4.3826876;-0.016613457;-0.013209392;-0.83004266
0.02714194;-2.88316;-0.623617;0.034193266;-0.03627084;-0.75559866;-0.07974272;-0.02570884;-0.5733871;1.2567093;-0.012620414;-4.4654174;1.4473778;0.27578232;0.83237934;0.0031972283;-3.4297633;1.307816;-0.044702586;-16.927393;2.4317958;-0.023164097;1.9445685;-0.8556658;-0.55375093;0.88091975;-7.363627;0.8782034;-0.023238234;1.872193;-4.172973;-1.2305515;1.144215;0.4515531;0.019335955;-0.02578461;-0.9375602;2.7556808;1.3884236;1.6375531;0.016524483;0.47476548;-1.7019678;-1.700038;0.028617183;-3.927428;1.6067954;-0.5690562;0.63558865;-0.0049246154;0.4960518;-0.0046766945;1.925395;1.7739546;1.6688398;0.37287784;2.6923943;-1.3953925;0.6651695;-1.6303551;-0.9533539;0.22863896;-1.0068702;-0.4513323;0.01329103;-0.035613645;-0.48344606;-0.016131843;-0.44205254;0.03515847;0.01775652;-0.3512999;-0.6464217;0.62676084;0.013307307;-0.012174553;-0.016963532;2.5125682;2.0092177;-0.39170018;1.2561411;-0.82321835;0.004787864;-0.021915471;1.575611;3.4836555;-0.23918185;0.048757937;1.0035278;2.5342865;2.096118;-2.9731429;3.9315333;-0.2752767;1.7669872;-10.1247;-0.026169246;-1.0037215;0.48537126;5.7697415;-2.621392;-0.19623974;2.306802;0.010886459;-0.7756115;0.018062238;0.0019200455;0.057237495;0.011807116;0.8127744;-4.366979;1.2794201;2.046601;-0.108781;-0.007450436;-2.5841155;-0.03933632;0.89012694;-0.025338523;0.78325933;2.1602316;0.25111997;0.12629437;1.7530437;1.4641314;0.8296482;0.033464056;0.5469832;-0.27226782;0.0006765614;1.6694806;-0.53934026;1.3925442;-0.0134676825;0.21256907;-0.040614065;-1.1275779;-0.17207693;0.89234954;0.0065377317;-1.295562;-1.3355522;-0.044125404;-0.44395763;-2.1228888;-0.92156965;0.52315575;-0.57800424;0.017077437;0.17640792;-2.0916247;1.5061568;0.039793193;0.07941491;0.0058993036;2.7534106;2.740185;0.042240378;0.07218082;-0.004277075;0.39211136;0.29564777;0.0107002575;0.066148356;1.7458986;2.4875436;-0.9722209;2.8204818;-0.43575403;1.8619715;-0.53872895;3.3376517;1.6846545;1.9613487;0.047068514;-0.0050912322;0.7596613;-0.04112081;1.0230572;3.454387;0.009256177;-0.6631514;-4.356242;4.0473866;-0.08668013;-0.008802203;1.764867;-0.29603678;2.43076;-0.8207623;0.14436457;0.5287514;0.09281978;-0.0058517614;1.7925951;-0.097859405;0.9581504;0.6186896;-1.6688273;3.0461159;-1.6915654;2.0060124;-0.1032116;1.6686552;-0.03350355;1.5858004;-0.026334016;1.6814283;-1.7221718;0.02275916;-0.0080381995;0.07678916;-0.73202974;0.16912183;-0.042423014;-0.0002885377;1.7338307;0.85451126;1.5819985;1.9439555;0.16937125;-0.34906954;2.3628147;-0.66096526;-0.06023587;1.8561957;0.008740914;0.7648936;-0.0071984427;-1.1195487;0.05209428;-0.23458089;-0.6715193;-0.5503254;-0.974733;-1.3977009;1.3761096;-0.76392895;-0.015066613;1.4078997;-2.447354;-1.5646312;0.021106595;2.1575105;0.020795954;-5.41335;0.19340421;0.94536644;2.4333863;-0.025177907;0.021692522;-7.299787;0.39032018;0.49211654;1.2210671;2.5224905;-0.018177178;-0.95476544;4.012393;-1.2341555;-2.3614757;-0.09093079;-0.91590595;-0.07295982;1.7027785;-0.006551369;0.5504438;-0.02778183;2.3037682;-0.1929595;1.5941116;1.7537013;0.05101295;0.34799814;0.033307318;-0.12975776;-0.2874047;0.022640055;-3.7707148;-0.7956719;-2.8164067;-0.38200253;1.1080506;-1.0510209;-1.4495965;2.1831427;0.33344007;2.0524807;-1.1002338;2.7687755;-2.2025328;1.1569997;0.024370264;-2.7956657;0.98368376;-0.024729835;4.20932;-1.4807836;-0.0031031647;-0.005074661;-0.65030086;2.8528492;-0.030855585;0.77954096;0.049014468;1.6726776;-0.2483;-2.2133067;-1.5716332;1.6032838;1.4884777;-0.018855976;-2.6348805;-0.43027738;-0.0098774;-4.4589124;-2.7646282;0.016546568;2.4219477;0.15684648;0.07319201;-7.834182;-0.39773753;0.026446866;-0.9522327;0.007413552;0.039285444;-0.011800896;2.9001539;-0.0355766;0.47531757;-0.004239891;-0.75268143;-0.0085749915;-1.8382717;-0.25629044;-5.3929996;-2.5919383;-0.016661102;-0.9379493;-0.067077495;0.04561391;-4.935972;0.19617613;1.9574671;0.3233427;0.42400166;-4.152011;4.443798;0.012098072;0.029128026;-0.66950166;-0.018325541;0.017829789;4.164488;0.3807346;0.013409893;-0.75192076;-1.8990717;0.48295954;-0.33253786;-0.32916048;0.024520297;2.65223;-0.089347325;-0.022709059;0.03847553;-0.39846528;1.0945823;-0.65243244;-0.58473194;0.2836455;-3.3731616;0.018540673;0.7085141;-0.59665096;-0.009609461;0.46198815;0.44124222;0.047207724;3.3335462;1.1388727;-0.028935274;1.1635147;-1.3700689;0.093432814;0.12440442;2.0327518;-1.5812342;0.07150558;-5.740075;-3.8887467;-0.049978454;-3.0868385;0.009489888;0.10879585;1.9815522;1.2878109;0.008986049;0.013704272;1.744809;-0.7072245;0.893623;0.49332035;-2.3482833;1.1933368;-3.6476772;-0.6216732;0.013805896;0.41204384;-3.3753276;-2.5547154;-0.03873773;-2.718511;1.1733782;1.0072215;1.787671;1.3556538;-3.0870953;1.257549;0.038704153;-0.144465;0.027995938;-0.4089145;-2.2486067;0.045461606;1.3492998;1.9359668;0.5728383;-0.027258724;1.200433;-0.35376403;0.65218115;0.0015736136;-0.05154514;-0.01127747;0.33800727;-6.8067517;-0.01265483;-8.15012;2.9344645;0.21322387;0.5406606;2.3911328;0.036637537;2.8230093;0.8752802;0.053316448;-3.7084608;1.5080945;0.036758438;-2.2363436;0.49608982;-5.372308;-2.3817086;-1.9142228;1.8394064;-3.0440788;0.041873004;0.057919905;0.990245;2.210385;3.9493325;1.766709;0.7505952;0.039198034;-0.015308155;1.5370022;-0.87788504;-0.073363945;1.245586;-0.029479574;0.25577056;0.87263787;0.29824477;-3.7267206;-0.25986227;0.012870424;-3.6721983;-0.03180722;2.5345786;2.2335854;-0.00081210287;-0.0032508806;0.96494293;0.06064087;-0.047416892;-0.18576375;2.137332;-0.5234933;3.1890526;-4.018168;-1.9590701;0.05451409;0.06263501;-4.2283525;0.4060603;-0.62233514;0.01865889;0.020939311;-6.088936;0.038307164;-5.718678;-0.030826405;-0.00805645;1.1857278;2.842457;0.028166873;-0.029082952;-0.020606121;-0.015252101;2.3511062;0.17221405;-0.6711389;-0.0009278626;-0.8328386;-2.4164765;-0.3504205;-0.0014191949;-0.7995617;-7.9643216;0.78281194;-10.452679;-0.6437779;0.010424698;1.2772919;0.036887884;-2.2647083;-1.2910721;1.4779154;3.7157536;-2.52029;0.038620822;0.9845703;-0.022446299;-1.8234612;-2.210325;-0.0913067;-3.4723763;-2.7402182;0.021024782;-0.021153368;-0.0012186203;0.013278847;-4.2649326;0.27829874;0.8247024;0.048640244;-0.023810219;1.6083835;-5.783001;1.6534487;0.4138629;-0.0139092775;1.9640392;0.12695897;0.7512105;0.013651612;0.04911772;2.6679523;-0.71761584;1.8776485;6.9575567;0.020830246;0.57311696;-3.6262162;1.7433774;0.79082066;0.9421329;0.79304194;1.3316473;-3.8508391;-10.454338;-0.07332869;0.015457401;-0.010331423
-0.031227425;2.1939588;1.3212304;-0.0031089226;0.018137941;0.011708648;0.61423784;0.22363058;-1.8177909;1.2435797;-0.047965318;-0.9990943;-2.4172287;-0.10004211;1.2423773;0.011939245;-2.104329;0.86500996;0.013187559;-16.894258;1.8194329;-0.00030720868;-0.14326723;-1.7474312;-3.200697;0.35204545;-1.9800152;-0.30358765;-0.03569901;3.2638612;-5.7773237;2.7447884;1.5758595;1.2030473;-0.015372623;0.0013360614;0.08033523;1.6649035;-1.9945015;0.40675652;0.016468799;-0.28616402;-2.2437723;-2.6160645;0.013450585;-0.44855475;3.1193304;-3.507406;0.5427379;-0.0060481867;0.25949422;0.021509528;-0.2918896;2.928682;-0.034024253;-2.0713928;-0.63936365;0.9323929;-0.43880492;0.88240373;-1.2876188;2.1876547;0.34411284;1.6532779;-0.072047874;-0.049877163;0.23928142;-0.9383811;-0.7250413;-0.031170024;-0.04340751;-1.6089329;-2.2241774;-0.38169506;0.004275838;0.034350835;-0.0093567;0.03765844;-0.66695255;-1.9936292;0.7649876;1.6402115;-2.0893161;0.037768595;0.77844286;0.25706992;-0.54226273;-0.10803757;0.46891052;0.107078515;2.1829116;-4.0162835;3.0433748;0.6567284;3.5029833;-9.991246;0.17906043;1.5770806;-0.00068828545;3.4723997;1.9447818;-0.31517786;0.8241359;-0.0290751;1.0979302;-0.03162054;0.0007772668;-0.003956459;0.026888685;4.1543117;-6.6490746;-0.73179835;1.9138515;2.0157359;0.038270716;-2.102077;0.008107394;0.2017181;-0.04519172;0.46061614;-2.609579;-1.6780725;-0.10206109;1.037037;-1.8487881;-0.013450688;-0.0037173603;-0.14444874;0.22332358;0.004134703;0.5146753;0.021408109;1.3411607;0.0037942752;0.5512385;-0.018209796;0.03327361;-0.021705259;-0.22564499;0.017523192;-0.939556;-1.5819865;-0.00889098;-2.5237906;-2.4964864;-0.31832176;1.1151708;-1.9645572;0.02826467;-3.2733412;-3.0110238;-3.0328019;0.0016052066;-0.3701196;0.022029601;-2.5225573;-0.49326867;0.0034819397;-0.040356927;-0.048318908;0.7935627;0.15944837;0.020307155;0.020221222;1.0429751;0.66978765;-3.489684;2.6898634;0.99658036;1.0507597;0.2988776;-0.23096061;0.7895526;0.08540454;0.002746813;0.054477174;0.58446914;-0.034881722;-0.8482087;0.3974625;-0.011530441;-0.061825376;-3.8246577;-2.423987;0.8668761;-0.017695945;2.661365;-1.3916086;0.015760373;1.8963826;-0.12116359;0.2924744;0.02878846;-0.045912042;-3.6193922;-3.1136017;-0.38899776;-1.1810578;-2.151894;1.3381399;-1.386728;1.1821876;-0.17936501;0.65907204;1.2886933;0.64426047;-0.026268415;0.66208625;-0.32186803;0.016192606;0.0016458572;-0.06327632;4.0417943;-0.050612878;-0.0028686107;0.007751313;-2.0600336;-0.075720124;0.37532744;1.1027926;0.17780355;-1.1749411;0.10999421;0.1468023;-0.003152175;2.233951;-0.032557175;0.042121354;0.0008677743;0.56537116;0.03185646;-1.6997112;-0.77163345;0.43852627;0.38047138;-2.4807818;1.0109353;0.18319021;-0.011366389;1.2119595;0.13241026;1.6185354;0.0035879358;1.8695207;0.028283821;-5.427433;0.88064694;-2.0258741;-1.6919186;0.015312573;0.027925385;-0.4295856;-0.80200857;-1.9039763;2.8194718;2.49484;-0.0031192491;0.8305162;3.7558448;0.24025312;0.27136946;-1.0113555;-0.41029164;-0.023083223;3.5177703;0.015282282;3.1039176;-0.045047984;2.7910082;0.61847746;3.3701081;1.186438;-0.011134826;-0.4883374;-0.025841743;0.4823371;-1.0699123;0.016349904;-1.9516683;0.12097943;1.6502793;0.040735938;-0.15144403;-0.5057336;-1.6559738;-0.69921094;2.8180482;1.9407833;-1.5240835;-2.2342618;-1.752163;0.11740125;0.04198873;-2.1976516;1.6803491;-0.033962976;1.9542152;0.7253049;-0.023131274;-0.021844199;-0.29172477;3.992775;0.0006611663;2.32195;-0.04509472;2.0601823;-0.5237625;-1.0199348;-3.968524;0.19008033;0.98360515;-0.22806075;-2.1381912;-1.891197;0.88979495;-3.3264625;-1.2478551;0.0029298614;2.4243639;0.9749311;-0.05510831;-7.4364924;0.97258615;0.02660144;0.49633262;0.05970163;0.010418137;0.102903694;-0.8629156;-0.01597496;-0.93431824;0.049434893;2.3471715;-0.0025010162;0.17894697;0.75670695;-6.225851;-2.9973543;-0.01767804;0.94621706;0.029228402;-0.053671293;-6.792994;-1.3946962;0.11932613;-3.9927926;-0.6922479;-5.136894;-0.9752031;-0.017620735;0.0015991618;0.033000484;-0.035729624;-6.1494184;3.6246674;-0.45894477;0.007289478;-4.4285727;-1.1458486;-0.54314345;1.3225663;-0.2754544;0.018951518;0.9088307;0.738851;-0.0042759674;0.015481902;-4.498407;1.9189662;-3.3467872;-0.42815346;-0.8328628;-5.897342;-0.028889002;-0.026941707;-1.8603015;0.005197914;2.5907683;0.14035945;-0.0077715362;3.3202705;1.3656561;0.14505187;0.30168006;-1.8050305;-0.016030192;-0.22456971;1.0272341;-0.9177911;-0.02943307;-6.2853203;-0.443124;-0.02141415;-3.6907349;0.052418306;-0.7061362;2.94238;2.238906;-0.05367756;-0.013343254;0.29084283;1.4915453;-1.1842908;-0.1766455;-3.509345;-0.73498267;-1.2705685;-1.962058;0.023295835;-0.68346477;-0.8292836;-3.0788126;0.0074372813;-0.22772424;1.2929574;0.6801427;2.4555628;0.91766536;-0.33394745;0.76374453;0.03632446;0.016841073;-0.006664703;0.092626885;-0.7696456;-0.0058406265;-1.0585109;2.803554;1.0662297;0.028200937;1.3643372;-5.0337405;0.80372894;0.04777972;-0.0695871;0.014264518;-1.7272215;-3.032334;-0.056308765;-7.912906;1.3405684;-0.04423599;2.0118952;0.52489364;0.024928715;2.22386;0.43041128;0.048164938;-7.1558013;0.78530866;-0.025383241;-1.2118423;1.1984842;-5.84803;-1.4372953;-2.0673316;-2.506633;-0.58719075;0.036622822;0.01717479;1.539974;0.54289246;3.5349126;1.5978202;-3.1402614;-0.017422786;-0.0771887;2.3071978;0.77516586;0.0063508577;1.6893502;0.009848892;-0.19882591;0.8035496;1.8902326;-3.9235716;-1.0407275;-0.05068189;-1.8661036;-0.060998607;0.030668413;1.7882617;0.08371449;0.017387083;2.8334465;2.697717;0.011639793;-0.04797739;0.9920093;1.8302221;6.2969956;-2.249126;-0.6677774;0.0669395;-0.035180274;-2.538243;4.418553;-0.93037015;0.04565156;-0.032153625;-0.7684077;0.045972247;-7.352172;0.041744076;-0.020439388;1.3466376;0.4474981;0.009064233;-0.0033643383;0.03420343;-0.25372025;2.160256;-1.7668747;0.80067736;0.061570454;-1.2716837;-0.61613524;-0.8670634;0.027927388;-0.19918689;-7.147457;-0.8224769;-3.7148812;-2.3638723;0.02585313;0.6561678;-0.035109628;-2.1455612;0.5482013;2.2401824;2.6118877;-1.0685836;0.008612751;1.214228;-0.06839617;-1.6379074;-1.2598733;-2.473145;-1.1899306;-1.0723892;-0.015148287;0.00048781617;-0.03430119;0.0041557415;2.0802987;-1.1730237;0.97469825;0.048768383;0.0075576277;2.3258986;-6.108185;0.82340795;-0.8157017;-0.04570772;2.4437537;-2.5587988;-1.5240377;-0.0078046736;-0.050980676;1.0206314;-0.93522465;0.81196123;3.7745316;-0.0027615563;-1.3699775;0.060724854;0.6247911;0.5656319;0.070067696;-0.7034025;3.6203918;-2.8275025;-4.495719;-0.02751058;0.02406955;2.1622064
-0.05364685;-0.8658708;1.357592;-0.0066605587;-0.04069052;1.1327051;-0.20304784;-0.09870708;-0.2037652;2.867654;0.0075243125;-2.8505197;-0.59076506;-0.023153191;1.6002697;-0.00431705;-5.454801;2.1791503;0.021444008;-19.440887;1.9358125;-0.0414796;-0.2955584;0.3983403;-0.20285688;0.33449212;-5.3838215;0.09840695;-0.015291247;3.5331657;-2.7767196;2.6154313;1.4873942;3.1622229;0.01965994;-0.057019304;-0.8194581;0.24037552;-0.3493922;-0.63681024;-0.13793406;-0.6835278;-4.690586;-1.31546;0.015346858;0.9521159;1.9745382;-3.295797;1.7638593;-0.03207785;-0.35812268;0.015943622;2.7479408;1.863577;-0.9914564;0.5327321;0.030642822;-0.82593507;-1.2290602;-1.9793826;1.3133196;1.4487377;-0.59228253;-0.25784448;0.010966179;-0.044645898;0.64865613;-2.2547781;0.36710125;0.019865904;0.02057839;1.0170196;-1.78089;-0.9209173;0.056646924;-0.05990113;-0.051494155;-0.32456654;-0.2707741;-1.6757754;1.1934243;2.4283328;1.427475;-0.028828694;-1.4173193;2.6508462;0.7760324;0.29005486;-1.4913596;0.67739546;1.7699503;-0.23903324;4.032928;1.6891097;2.443826;-10.9012785;-0.036112312;0.7131651;-0.030431544;-0.010192955;1.088453;-1.3825015;-2.5049696;-0.07491756;-0.30146557;0.019328859;-0.020472081;-0.024603566;-0.030751323;1.5870825;-5.0244017;2.7184842;2.2862167;2.8799675;0.033560652;-2.2281506;-0.069572076;1.2534091;0.008980677;0.89514667;-3.818059;-3.3166661;0.0878954;2.9987197;-0.7707148;-0.15172921;0.016085101;1.1623703;-2.0330422;0.008240308;0.0872562;-3.5093648;-0.23039447;0.06426915;-0.112429604;-0.104504555;-0.80973274;-0.06521314;-0.051322926;-0.02023422;-1.5765613;0.009124601;-0.013883497;-1.1713285;-2.3798254;-0.90210545;-1.1360929;-1.3153361;0.03296113;0.9941432;-3.1077487;-0.30860782;0.022741845;0.09552506;0.09079959;-1.6882429;-0.7030317;-0.038980737;-0.102419384;-0.009608501;2.4859693;0.108067684;0.0037297453;0.027114581;1.1074104;-3.7602305;-2.2662454;1.3529652;-3.681485;1.3801172;0.91248876;1.2992301;1.4781827;-0.1777463;0.08953908;-0.050232373;0.29375252;-0.006434683;-0.8292613;1.5870104;-0.06289299;0.18767346;-5.0580807;-0.85439414;-0.17072476;0.028922714;-0.34268484;-0.9202921;0.2561752;1.25654;-1.9537138;1.4124025;-0.015663287;-0.007461761;0.62259394;-1.433463;-1.0759556;-0.19819978;-1.1433241;3.0582054;2.9674644;-0.17511366;0.29143888;0.54915833;0.5959591;1.381485;-0.008086196;1.2131855;-0.028557261;0.052838624;-0.08041314;0.00053683895;2.9960623;-0.0060571227;-0.0148762325;0.10905072;0.9682919;-0.0019109892;-0.90996087;1.8186721;0.9867986;-0.54065555;2.7622764;1.361848;0.033336066;2.3580003;-0.017737977;1.2111781;-0.03547536;-3.953284;-0.002416829;2.2240732;2.822404;-1.5912243;2.048722;-4.080419;3.940904;-0.92165184;-0.0018567474;1.0612396;0.56618613;3.4595163;0.052539673;0.4750696;0.03704824;-7.1217985;-1.0378824;0.3365114;-1.991141;0.0037830514;0.035058394;2.3629508;0.8951221;-2.9952831;-0.90881115;2.2584128;0.44317877;0.09104543;1.1777228;1.0985794;2.765103;0.492162;0.13826789;0.0091044465;2.3507237;-0.002668848;1.6542083;-0.0142229665;1.8966956;-1.6702875;1.6574436;-1.2615839;0.016179658;-5.7428994;-0.10346195;-0.5348397;0.64545214;-0.035565227;-1.9478984;-1.4667293;3.3981125;1.4359628;-0.11188918;-0.46899062;-3.2260509;0.7294773;5.254422;3.1309128;-1.7306317;-3.7343473;-1.2270283;2.0329137;-0.019919652;-2.3175168;-0.5239025;0.018130455;-2.2071297;1.8799264;0.0012704988;0.019550163;-2.9804392;5.1098228;-0.03862291;0.2004668;0.04796914;3.3288043;-6.200434;-3.2254858;-6.29467;1.7314827;0.6654472;0.013077666;-1.0494711;-1.9956402;-0.23368698;1.4388996;-2.63135;-0.015525674;-1.8709004;0.22374308;0.059243046;-7.741302;0.7236481;0.031289037;-0.7832047;-0.04283007;0.003496287;-0.06638736;-1.6905966;0.01661982;1.057136;-0.045727596;-7.198927;-0.0062175444;1.4035801;0.500144;-1.0718759;-2.4436002;-0.009674098;-0.55861086;0.0032504024;-0.013460484;-0.1498216;1.976259;-1.652912;-3.8879802;1.4072529;-3.021765;0.9931687;-0.013775081;-0.016149685;0.2609774;0.039260447;-1.3857672;2.988176;0.7400765;0.05402545;-5.496845;-3.0591285;1.0752294;2.4655771;-1.6998826;-0.04059782;0.107454516;-0.17715335;-0.014807325;-0.008364764;-6.147925;1.6989855;-2.3824513;-1.0993036;-3.7249038;-2.0907116;0.022434678;1.0100642;0.009807921;0.07882624;-3.676114;1.3883787;-0.028677931;-0.14475176;-1.1135207;-0.15254177;1.8709737;-2.3663177;-0.007933033;-0.083355114;2.5313888;-2.7160351;0.0437729;-1.9377993;-3.2545369;0.007330608;0.36148185;-0.017988553;0.8852033;2.4702663;1.685293;0.011539651;0.01934975;0.45961666;1.0286055;-0.3227253;1.9633638;-1.4858763;2.399922;-0.17622565;0.018268455;-0.10956745;-1.0876486;1.3868865;-4.685038;0.0058618765;-1.7201843;-0.32249242;0.3933514;0.3917645;-3.9507055;-1.0498147;-1.3063455;-0.0014487583;-0.028945724;-0.014608391;2.385167;0.5914081;0.03628384;3.095691;2.0496612;-1.0504544;-0.18592088;0.5360204;-5.794989;-1.3690867;0.0047617215;-0.004921022;0.027297685;-0.43814865;0.13152944;-0.0038407939;-8.082572;-0.13279945;-0.054117963;-1.3301638;0.26106507;-0.06435323;4.7989626;-2.0519302;0.00057969603;-9.214195;0.4678882;-0.009316089;0.397293;-1.2195123;-4.7300477;1.7585595;-2.4293244;-3.1960254;-2.1889734;0.046766505;0.013467833;1.2582511;-0.17055292;3.2953904;1.0361652;-6.543999;0.07947087;-0.1732043;2.188144;1.944194;-0.037299305;1.4624939;-0.022973605;-1.6989819;3.5728416;2.102216;-0.58343834;-0.8205587;-0.019769339;0.81048703;0.002644927;-2.4715514;-0.32854208;-0.018027926;0.10597649;-0.5759033;0.83215255;-0.008854346;-0.08930448;1.3884686;1.6460254;3.5628743;-2.1615436;-3.5485158;0.030990068;-0.022534132;-0.9719938;0.15931302;-0.36626095;-0.00043495803;-0.03191843;0.29537788;-0.021258006;-8.885431;-0.06605281;-0.019596161;0.63305354;3.8384576;0.03486327;-0.0132313715;0.009150874;0.5772052;2.5110047;-2.7097998;-0.47810322;0.025712274;2.9531076;-0.7829716;-5.130658;0.061454788;0.09561472;-8.824065;0.97768414;0.501522;-2.2013166;-0.014251007;1.1612573;0.009531077;-0.95409805;2.5969503;2.7234485;1.6001232;-0.95300597;-0.03199493;1.2819834;0.01782223;0.57458735;-0.89218384;-1.2090857;-8.126106;-1.6831079;-0.08675978;-0.00037365162;0.021258773;0.011897969;1.427639;0.76079524;0.1777665;0.006928408;-0.01793099;0.6784306;0.07697201;-1.1737136;2.6989174;0.058424857;5.5112343;-2.641906;1.6886309;-0.0024103392;0.04111206;1.3684871;-2.8558176;0.06381924;3.699588;0.012136959;-1.2317598;-0.48082453;-3.4551923;0.019356307;0.8930399;-2.1165833;2.9480906;-3.975518;-0.9429353;-0.024948727;0.019598396;1.4184858
0.012904467;0.4523114;0.8667859;0.05257792;-0.026810916;2.19647;0.035870366;0.03288753;-0.19162664;3.3006701;-0.00838467;-1.6625922;-2.5707393;1.1712481;1.4052138;-0.018779868;-0.46588516;-2.0096707;-0.027166037;-18.144518;2.977301;0.0077036596;-1.8656236;1.8594189;-2.5563648;-0.05634304;-2.9215074;-2.0690665;0.0021945878;3.461826;-4.722779;3.4179742;2.4337416;1.8474228;0.040594697;0.13295887;-0.36329085;0.6281334;1.0042186;1.3098761;0.07354766;1.4558853;-0.5740812;0.8862847;0.0036069124;1.3188636;2.4100058;-5.361699;2.2101893;0.006640524;2.848216;-0.007152379;1.7577668;2.778859;-0.31507057;-0.44264644;-0.77465934;-1.7829227;-0.56594986;1.2056854;3.7485101;1.3548765;0.23589516;-1.089843;0.019315181;0.0062440354;0.0992403;0.15080446;-1.888457;-0.0072858958;-0.02530113;-1.6744748;-0.0690446;0.53591305;0.021180943;0.02268741;0.3989372;0.13090557;-2.4409912;-0.777721;-1.5824116;-0.6002587;0.2762693;0.036407404;-3.3335605;0.4521587;-2.181698;-0.12880671;-0.026215842;0.30693588;1.729855;-2.466468;1.2755451;-2.0622716;1.0056459;-9.736908;-0.11245774;-0.22025138;-0.098949336;1.1209377;-0.08343728;-2.1771967;2.0849204;0.9435164;-6.3881903;0.00064050226;0.025910024;0.015462552;0.0030924196;-2.7562006;-2.2039413;-0.9957744;1.6371073;-0.4232221;0.024100674;2.4981534;-0.000549161;1.9137889;0.014656454;-2.274527;0.11538199;-0.48893398;0.010890964;2.5803034;-3.5460136;-0.007845835;-0.007823924;2.305665;0.25410086;0.029425895;-0.118540965;-0.68942165;-0.14870445;-0.011199638;-0.20163171;-0.12145347;-1.3209068;-0.05397411;-0.028588839;-0.02194078;-0.8078432;-2.2489164;0.0629217;1.7383283;-2.7631497;-3.4179854;-0.3441517;1.2606425;-0.030454352;-1.3089098;-0.4095437;-1.505879;-0.034677647;0.24700667;-0.10420717;-1.5114344;-0.6346996;0.013233607;0.023229783;0.093778215;2.023942;0.20901233;0.045533776;0.050446626;0.49264085;1.7851745;-3.3141897;-2.62551;-4.2643223;1.6650192;1.9360574;1.9261923;-0.5957172;-2.6745908;-0.024843942;-0.0414711;0.41661233;0.8544456;-1.6329844;3.2505527;0.066408336;-0.02140814;-7.9499693;0.45605415;-0.05547435;0.010719858;-2.307792;-0.3316928;2.0461845;1.991744;-1.493897;0.06835804;-0.01320037;-0.024002593;1.3123703;0.24337253;-0.6817848;-1.5885265;-0.7791301;2.0499945;0.7511611;0.5572865;0.8740049;-1.9725509;-0.77206355;1.2705413;-0.0005515492;0.48951754;0.8231069;-0.024667753;0.7921136;-0.03535634;2.3353179;0.053874537;-0.003262027;0.032360956;0.30166692;-0.08110239;-0.13804169;4.708602;-1.5447822;-1.9414349;2.1052523;2.704045;0.04545534;3.1479335;-0.0021166005;1.005613;0.033289876;-5.2502856;0.14682402;3.9241939;2.2522182;-0.16954738;0.6124572;-5.40991;5.824417;-1.7688618;-0.046504237;-5.61836;2.1929479;0.88090885;0.07864868;1.3052739;-0.0011688537;-6.807264;-2.6185913;-1.8472761;-3.1155083;-0.086609416;0.07045863;1.4611591;0.6056505;0.31048918;4.56521;3.375402;0.098034285;-0.57616884;1.4013873;-2.5928378;0.18329641;-3.5321765;1.2003855;0.007478481;3.2232792;0.023017742;1.1518308;0.0055679204;1.8188572;-1.066801;0.28999716;1.2098037;0.033644464;-5.6496687;0.9534791;0.24613927;-0.11703076;0.027306775;-3.3860214;0.9456929;1.6356702;-2.02759;-0.037165757;0.21100585;-1.8130499;2.6773741;0.9400009;0.68835133;-0.54487467;-2.0081122;-0.60294837;1.3789204;0.035053324;-4.0263653;0.67494094;0.007747713;-1.3049376;0.6074626;0.036042284;-0.025327755;-2.9346755;3.5172174;0.04369536;0.80191606;-0.0060033584;0.14763972;-2.8082013;-3.995541;2.1301618;-0.24449442;1.0715333;0.21212555;-2.2578514;-2.5921383;0.7901626;0.98529804;-0.8210923;-0.0010858825;0.38012207;-2.2618062;-0.00059979036;-7.6283765;-0.57789403;-0.009068848;-0.7678711;0.21643344;-0.025606457;-0.037722662;-1.4717206;0.00490917;-3.2537134;0.089339346;-6.048299;-0.03964352;-0.10006519;1.5461969;-4.9712653;-2.5614421;-0.017189635;-0.394011;-0.021637894;0.025849255;-0.36456877;-0.2696333;0.5974834;1.8279412;1.1881977;-4.7036395;-1.1255088;-0.046490397;0.013006758;-1.3080385;0.057253096;0.8333495;0.94815046;-0.092329115;-0.004264385;-2.3451388;-3.4297838;2.0299242;-1.4745182;-0.33717605;0.008466364;1.9378482;0.019188559;0.024460606;0.065365516;-3.2495642;0.5613395;-0.1677303;-0.37861967;-1.550432;-0.15918982;-0.01523381;0.42757258;2.7953057;-0.05167268;1.8775402;-1.9272765;0.037982594;1.2793447;-0.5421833;0.17060772;2.0679636;-0.2723783;-0.013183037;0.005557682;2.6866148;-1.5225962;0.03622684;3.0666096;0.27725917;0.008524356;0.8965162;-0.012728815;1.3520645;2.5120583;0.36404824;0.016019685;0.0115701975;1.0452828;2.428396;1.2701751;0.76743525;-0.17001343;1.7735803;-1.8518059;-1.1944562;0.8305052;-0.58908415;0.8072131;-2.868612;-0.0015539762;1.1134531;-2.0275002;0.43574804;-0.49985698;-1.6467186;-1.2095872;-2.5050569;-0.012801796;-0.02536319;-0.02409731;0.76639664;0.9574188;0.045057144;3.7089605;1.9358863;2.7262154;1.118046;0.9794872;-6.740214;-0.10021299;-0.046955545;-0.016720627;0.041890573;-2.7680545;1.4712133;0.008588261;-6.5535097;-1.713142;0.5338547;3.0411067;-0.7136229;0.07739797;0.610559;-1.386928;-0.04610434;-7.4113774;0.83873624;-0.01990414;-3.1629684;-6.518155;-2.3650131;-2.8365521;-3.165376;-0.036487818;-1.5154994;-0.013260542;-0.040498473;-2.5965884;1.9607277;2.8487415;1.8201573;-4.73696;0.032230604;0.010926639;4.1881227;1.5484529;-0.05173103;-0.4709377;0.044674773;0.32140064;3.007144;3.7860034;-1.9268156;0.7294482;0.022250813;-1.147953;0.0040139724;-0.31984994;-1.7606286;0.009704865;-0.017708147;-0.9593433;2.4788074;0.021909896;-0.0023569064;2.051887;-0.5990472;-0.017009566;-0.013626354;-0.0907592;0.046145927;0.029513797;0.92252105;-2.9550393;0.38683298;-0.021150433;0.096822605;2.806628;0.045362204;-4.7495656;0.034456722;0.04101718;1.8270054;0.8323051;0.016730184;-0.01274904;0.054929383;0.7984625;0.1745596;-0.29621577;-1.4541897;0.012508991;5.0992465;-3.5495934;-2.196039;-0.026418809;-1.304757;-8.099185;2.3454356;0.091268815;-2.0904646;0.012643701;2.536741;-0.0053196815;-1.5154576;-2.4338536;2.9971614;1.9399309;-3.7694025;-0.0112241125;0.5547;0.021272114;-2.2314856;1.3161244;-3.232097;-1.2065581;-1.0688553;-0.017845653;0.01953807;0.0012992675;-0.00079819193;1.5765775;4.5259485;-0.20328885;0.010006942;-0.014257704;-0.4133936;2.3948843;-0.587381;3.093591;-0.050550625;3.5931683;-2.4924042;2.0585237;-0.004210219;0.0063596414;0.6516628;-2.3397162;0.5740553;5.034841;0.01182535;-0.2077841;1.0624863;-3.7422824;0.19179976;2.134758;1.5935732;-2.5952647;-0.8302616;-2.5490246;-0.066889614;0.02160469;2.3430998
0.030825507;-1.3571441;0.26368076;0.019311959;0.000299094;1.397918;-0.0071962066;-0.01813064;-0.9090505;1.7088549;0.031691752;-6.1779966;-1.9559324;-0.17620179;0.9373722;0.021629568;2.3985844;-3.2444093;0.07222108;-17.834618;2.4563613;-0.014392411;0.76398045;0.6042146;-0.53717333;-2.008533;2.9780483;-3.5050375;-0.038113557;2.1183388;-3.8532143;-1.6643051;3.403548;2.2140005;-0.000645697;-0.05859444;-2.6505463;0.9332324;1.0971465;0.368193;-0.1572631;0.41729403;0.7947766;1.0712993;0.00480039;-0.37259844;0.7274118;-4.0935535;0.4321099;-0.020972958;2.5578732;0.06210133;4.2282357;1.0893505;1.891026;0.4020222;0.057898674;-2.000553;-1.7660966;-0.33012262;3.6445334;-0.2150131;2.2926528;-2.1954095;-0.0046052346;0.0076912874;0.7658586;-3.2383983;-0.29610816;-0.017513042;0.038001526;1.5546628;0.7430833;0.17470874;0.060007073;0.039096616;-0.14168942;0.56645364;-0.39971066;-2.566029;2.049582;-2.9937758;0.28854552;-0.06863988;-1.364182;0.4730743;2.1887105;-0.021080572;-1.4873128;1.0233067;1.528274;-1.4426612;2.7441885;1.8229853;0.740957;-10.287985;-0.08640644;0.572202;-0.011168524;0.123438485;-0.12175961;-1.8110231;0.59358275;-0.14780155;-0.255276;-0.058742486;-0.008215733;0.11463557;0.009582568;-4.965846;-3.932877;0.8329538;3.0336037;-2.7184086;-0.0030696937;-1.0258318;-0.027032668;4.789587;-0.057614155;1.5434349;1.0338373;-3.704892;0.02510028;0.059518207;-1.471505;-0.0308538;0.018335298;0.9067509;0.29682896;-0.0041016773;-2.173631;-1.863573;-0.47043362;-0.0059014023;-2.8572273;0.9300007;-0.3935131;0.004030968;-0.022104941;0.04789519;-1.126761;2.8904433;-0.009503601;1.4784782;-3.542246;-1.0470678;2.2858212;1.7647301;-0.008022705;-3.842219;-0.21502613;-0.08030634;0.1395046;0.16425537;-0.0210477;-1.4538418;-0.52822393;0.02158563;0.031865105;0.059667278;2.618965;2.4530756;0.041402843;0.046079624;-0.6322651;0.6612837;-1.8687874;-0.6403396;-1.6497939;1.0927608;0.8033638;-1.196261;-5.139473;1.7567943;0.023347663;0.026019203;0.10451592;-0.18122661;0.519467;2.0085127;-0.06547389;1.7334955;-2.8431678;-3.6900444;0.016629219;-0.023398912;-1.7559513;-0.07352977;-0.9405932;-1.5656812;-4.1840067;-1.296444;-0.0074464316;0.063732795;-4.5420065;-1.6681032;-5.171091;-6.434305;-0.42363074;1.5413288;-0.84990704;0.57670826;1.831139;1.4438461;-0.9945548;0.18085688;0.024009394;-0.03890949;-1.2051951;0.037481684;-0.102265544;-0.011147816;-0.88222206;0.048480086;-0.038851403;0.019824196;-1.4864138;0.01054854;0.47854203;0.6518925;-3.5269313;-1.903801;3.85476;1.2671098;0.012380789;2.371267;-0.0066282395;-0.5990279;0.06778052;-3.002419;-0.0040225256;2.0653708;-2.6873417;-0.87149376;-0.016971758;-1.6359041;4.7199774;-0.8290802;0.05473387;-3.7253034;2.7548783;-1.215568;0.012642179;-0.8921106;0.036107454;-6.87528;0.81633073;-1.716115;-0.49313086;-0.006873162;-0.019294322;-1.1318294;0.6030443;2.4908364;3.256071;2.1374176;0.47911128;-0.21763025;2.7544441;-3.8916245;0.48628432;-2.1810217;1.1683344;-0.033812586;2.5879042;-0.040420357;2.7443893;0.0015204324;-0.24697709;3.1044083;1.2101903;2.156465;0.009950184;-3.234694;-0.07550766;0.072184004;-2.1251957;-0.025211886;-2.8532944;-2.0640075;3.3635356;-1.0036124;-0.03753831;-3.1495636;-0.7310741;3.570921;2.866481;3.4468966;-0.07662651;-0.19049187;-0.24303582;1.3975232;0.016349914;-3.13252;0.635338;0.004200557;-3.4416728;-2.15746;-0.05369083;0.0050573917;4.2786465;0.66228396;0.012010808;0.8799671;0.06703328;1.0144567;-4.0433826;-2.149684;1.1011852;-1.5245225;0.22976649;0.08038765;-0.7386644;-4.2905426;0.39547253;-1.5571901;-2.9347057;-0.016961263;1.6283185;-1.5704979;-0.001051609;-7.5559807;-2.7480836;-0.015960334;-1.9704927;-0.00885433;-0.012288244;-0.12870133;-2.0867174;0.011966632;2.536916;-0.039991014;-6.5206375;0.0010167006;-1.2763085;0.22295433;-4.578127;-2.2869575;0.0015319033;-1.5537899;0.04604707;0.07673562;-0.8177455;-4.5871396;2.429605;1.9271083;1.8481109;-5.1391115;1.8343426;0.072035864;0.15798475;-0.18263642;0.019691471;1.9865078;2.0936077;-1.0154085;0.1310776;-6.2346473;-1.6895926;1.3170485;5.0054755;0.6359909;-0.0045363065;1.8159078;-0.0066375704;0.077666126;-5.7717592e-05;0.3596278;-0.092723005;-1.4352516;1.932159;-0.67198104;-1.8680363;0.0021286914;0.9758188;1.2020574;-0.008013928;-1.5904984;-1.3175986;0.03820045;0.9903341;-0.15994683;0.014237586;1.3594128;-0.2793371;0.026795499;0.002079053;0.8013191;-1.6043069;0.02098965;6.356156;-3.0190961;-0.011320054;-1.1897444;0.08911187;-4.3496203;0.1258943;-1.6939912;-0.054074027;-0.045540497;1.6567005;1.6734896;-1.5204444;-0.09624082;-4.043588;2.5431118;-1.6603055;-0.28450426;-0.11779897;-1.7492447;1.2015923;-0.8286772;0.029522631;-2.0007217;0.14941418;0.98126686;-0.59329414;-0.72433954;-0.55302703;-5.2184696;0.03841061;0.0108896475;0.089431845;-1.9769286;-0.095609285;0.020875074;5.1555123;1.0718685;-3.4897437;-0.1936174;3.8387032;1.4929754;-0.798503;0.053863063;0.032448094;0.0692179;-4.3731885;2.7581005;0.005234602;-5.615121;-0.7960561;-3.7611146;0.99045044;-5.342393;-0.023254167;0.5253937;-1.6898397;0.11516443;-7.230959;-0.16900727;0.041619435;0.1629914;-2.8643415;-0.05692476;-3.122322;-2.5966547;-1.7112672;-1.7253609;0.05275038;0.03404122;-0.18030883;2.9023314;1.8452675;3.447389;-2.5467167;0.010235278;-0.14790148;2.9300392;0.8938407;-0.019119794;0.18603966;0.06255718;0.81814754;1.8338957;1.6942096;-1.1399397;0.2990938;-0.0008101762;-1.8395717;0.04977225;1.3228722;0.23532167;0.04927101;0.04649474;0.13371639;-3.3239644;-0.020734062;-0.00041165142;-1.2152206;-3.568884;4.1687837;-1.6967438;0.3861826;0.0074625923;0.043810252;3.8572574;1.3562849;-2.9196205;0.03009258;-0.030157682;1.4941039;0.015337067;-4.481265;0.071774356;-0.01990675;1.2228748;1.3605398;0.025194215;-0.041420024;0.039888725;0.5176096;0.5467971;3.60952;-1.7567219;0.0028035904;2.8419604;-3.34519;-2.4848175;0.15715814;-1.0127052;-8.107462;-0.5736283;-0.16897996;-0.82997465;-0.031241892;-0.6549837;0.05318083;-1.2883699;0.43847358;2.4725115;2.4268475;-5.129891;-0.008123475;0.23679167;0.005932194;0.9967139;-0.3102536;0.6783222;-0.92797136;-0.13686286;0.035463013;0.008455163;-0.017834015;0.0022314165;0.59521204;1.4273391;-0.020831823;0.008469919;0.03224406;0.20950413;-1.4187261;-0.1244806;2.928437;0.03567217;0.08551516;0.16357964;0.31283763;0.050047714;0.08709016;2.846163;-0.24202901;-1.0453995;3.4631336;-0.023078162;1.5578328;0.16217002;-2.720322;-0.15341541;0.12238884;-0.3289737;3.3163877;-1.1891791;-2.1954446;0.024436995;-0.000564402;1.089794
0.0395298;-0.66080666;0.6716871;0.015356993;0.043818273;3.0050182;0.011932093;0.05114711;-0.468458;2.1117358;0.0043625813;-2.055364;1.8325402;1.416205;0.4876936;0.04722437;1.3812519;-4.601058;0.0002208424;-17.3516;1.4757721;0.04265351;-1.6659505;-1.1431997;-3.5870152;-0.3819059;2.2605176;0.30717656;0.12189461;3.8151283;-3.7630801;-0.45651525;1.8299232;2.721865;-0.026346326;0.09561872;-0.4044331;0.94822776;1.2488452;-1.3730105;-0.24021067;1.4036616;0.64719856;1.8182392;0.040025767;0.24969122;0.30419862;-1.1141295;0.545977;0.09014117;1.6770911;-0.012099942;2.5627875;0.63753146;2.0293705;-1.0317069;0.537764;-0.6659216;-0.6521762;-0.07137603;3.525494;0.92106944;1.3255004;-2.2735035;0.02731227;0.005076321;-3.0763214;-0.269814;-3.851309;0.03915666;-0.0030739736;0.5248873;-0.6605841;-0.24883749;0.01376334;0.051848438;0.19743682;0.62754965;0.9537699;-3.2426605;3.6676452;-3.2246008;3.17149;0.08038171;-2.1453505;2.4868677;-1.4162368;0.014656301;-0.66929513;2.633113;1.8428987;-1.59963;1.8052948;-0.3256187;-1.284077;-9.405267;0.06432124;1.1826135;0.02205525;1.7873875;0.14472619;-1.1314228;2.1839256;-0.091022596;-1.6421148;-0.02164249;0.038552668;-0.0054050386;0.01785025;-2.96464;-2.9997797;0.97283065;2.5972116;-0.3389709;0.026101416;-0.14275241;-0.047240518;1.863022;0.09345699;0.70419186;1.9526778;-3.8585794;0.006398794;0.4095441;-0.73284996;0.030850714;0.008994626;1.0433401;0.011495842;-0.00632879;-0.84182906;-1.6556169;-0.36838657;0.06642816;-3.4696894;-0.21718764;-2.180797;-0.09979514;-0.025366263;0.06262293;-0.4171003;-0.9885033;-0.02555668;1.0776837;-3.9949594;-0.6733947;0.36432406;0.8339489;0.7248863;-3.4945595;-0.32592133;-1.8050444;-0.011565529;-0.50589854;0.28818062;-0.87199175;-1.0835007;0.023931354;0.007176505;0.049493957;-3.0670915;0.22093073;0.08800801;0.06129512;2.2365537;-1.2306112;0.5803113;-3.710087;-0.68910235;0.35822493;0.8416764;-2.288211;-3.0165453;2.4099295;0.043138895;0.014644302;3.007462;-0.008056687;2.2061234;-1.8162919;-0.030883426;3.0723536;-3.172616;-0.97207445;-0.021641904;-0.01988118;-1.3811246;0.74523115;0.28298193;-0.71902156;-1.6644479;-1.0921029;0.028144818;0.013325823;-0.23215756;-0.19754101;-8.760747;-2.9404764;-0.5955036;0.25276998;2.021877;-0.3141555;0.97642285;2.036372;0.5322848;1.0983078;0.00125089;0.09143257;1.5663756;0.021056244;-0.02672907;-0.009180917;0.3581649;0.019916292;0.02077655;0.0053145373;0.42658877;0.063605316;3.3668532;-0.24908826;-0.6154561;-3.0121343;-0.83930415;-2.3434362;0.017158879;3.452154;0.03064966;-4.2172933;0.054454666;-4.6689906;-0.06052053;-2.9985714;-1.4664549;-1.5930765;-1.6451806;-2.2426934;4.785021;-0.19276826;-0.0067334836;-6.8531747;1.5262088;0.30711567;-0.026739383;1.287663;-0.0986654;-6.6725197;1.3966333;-1.2495289;0.8742883;0.0053437054;0.01627434;0.92879057;-0.33155796;2.499081;-0.3723685;0.7260639;0.633489;-0.47756207;2.1008809;-3.758648;1.0469837;-1.5707862;2.958633;0.009979305;3.6749609;0.00705449;1.60735;0.06466749;2.112461;0.73445296;3.047771;-0.9832117;0.045561954;-3.1529386;-0.059097003;-0.04600276;-2.236405;0.08112547;-2.5044348;0.054288942;4.0500326;-1.2312998;0.031775165;1.2876927;-1.1114795;1.9294935;3.0657036;3.5263596;-2.0144134;0.23044266;-1.811069;2.1670434;-0.025448123;-3.6015546;1.654699;0.05252535;2.6718435;-1.3713304;0.0734466;0.03192549;-2.5588946;3.4241097;0.02528214;0.54868454;0.02615433;1.5743309;-4.3289466;-3.9557717;-1.0782675;0.7170374;0.1586962;-0.070330076;-3.433549;-2.8159378;-5.060993;-1.975895;-1.5241295;-0.011673123;-0.2586618;-1.604981;-0.010466317;-7.2655864;-3.466477;0.4869848;-1.3358968;0.02091416;0.03938934;0.07361209;1.2102386;-0.017767644;1.1099792;0.063344784;-5.9734783;-0.0062362994;1.3889456;-1.1299889;-1.2245666;-2.3959284;0.021897117;1.0502812;0.05514379;-0.019190053;0.72114354;-0.5016862;-0.976946;1.2230846;1.4253287;-2.4969347;3.080429;-0.14900243;-0.008644986;-0.9372247;0.01635608;1.8426983;0.3178319;0.07158293;0.02562249;-2.4707687;-1.3915707;0.20692706;2.752162;1.0665975;0.031572443;1.3855774;0.023082875;0.7277629;0.0051198313;-2.3917582;-0.071010984;-0.6631471;-0.40913582;-0.06649097;-3.2369146;0.07127624;0.71164113;-0.5299535;0.7076375;1.2578477;0.55251026;-0.006487206;-0.44644076;-0.58142465;0.006239566;0.019587757;-0.54745513;0.036425125;0.6350194;-0.51906747;-2.340096;-0.009488044;2.0701213;-2.6294506;-0.013999558;-0.7215482;-0.02756014;-1.188442;-2.2659652;-1.3606145;0.05541818;-0.011781387;1.0180792;0.66625786;-0.30743238;2.0791864;-1.6448971;2.5457478;-2.020655;0.6836697;0.00468485;-0.59301627;3.2896335;-0.67914796;0.04450401;-2.522594;3.9794722;1.1404817;2.6447184;-0.51459384;2.7244256;-2.726823;-0.011537887;-0.0512801;0.0040555247;0.008945705;-2.3829935;0.045676496;0.4325233;-0.28729087;-3.9202664;-0.030835541;-0.8814613;1.6752352;1.1215714;-0.022284234;0.087978624;-0.017834475;-4.966867;-0.25106415;-0.014837361;0.55753917;-2.6903572;-9.790983;-0.26006162;-4.4867053;0.01526124;-2.727809;1.2383258;0.054744318;-4.093098;1.8873969;0.05439795;-0.10128347;-3.251754;0.7835306;-4.183205;1.4121598;-0.59846413;-3.825904;0.08329825;0.023175254;0.6493468;3.8484452;2.2102149;1.4690117;1.1060209;-0.024972424;0.09048226;3.7426436;-0.48239255;0.028294232;0.45195407;0.015909376;-0.44311583;0.3421395;0.32189575;0.15057011;1.2066363;0.021873709;-5.6129394;0.009443166;3.224709;0.7117297;0.06677819;0.0026013504;0.52967817;-2.305124;-0.011466188;-0.04578677;0.43835518;-1.291395;3.7841313;-1.2371666;-0.42319912;0.03318664;0.02479926;3.1130614;1.3520331;-4.615175;-0.007084963;-0.03535863;1.7949458;0.06077825;-2.1147146;-0.0177519;0.018401278;1.1847869;-1.1866971;0.0353349;0.023429306;0.018969843;-0.96350944;-2.278042;1.2616155;-3.4121904;0.041998934;0.30500084;0.900371;-0.1867013;0.08197253;-1.4835749;-7.157209;0.6590897;0.18310837;-0.8967631;0.01444404;-0.5480579;-0.01836032;-1.076763;4.5989523;-0.48696965;0.16645859;-4.77494;0.054299638;-1.7549036;-0.012434361;-1.02733;1.0354829;0.87168676;-0.32979798;0.0727709;0.03470976;0.042422503;-0.030453132;0.0005753585;0.31100303;-2.0212326;1.9798499;0.030233337;0.010979276;0.08306753;2.060048;1.4667597;3.8233817;-0.0042813467;-0.9894395;-2.9686723;0.11759321;0.014511479;0.072146475;0.96930313;2.4839427;-0.048380066;3.7065358;0.07457832;3.1495423;0.6315753;-4.507958;-0.16643839;3.823764;0.057879813;-0.5137889;-3.9358487;-3.4391954;0.008460573;-0.023810383;-2.8808925
-0.01113703;-1.8756009;1.8796192;-0.008581003;-0.016005645;0.59361166;-0.0074905925;-0.032631025;-1.2981074;2.8001747;0.025636058;-2.8933384;3.258777;2.0554075;0.2846219;0.009310918;3.853649;0.8005399;0.017513292;-18.819838;3.1603765;0.013187513;-2.537383;0.7832567;-0.21561393;0.16706102;-0.46731135;-7.1582146;-0.09519614;5.106654;-5.2404795;3.716009;1.3204333;2.749714;0.027401933;-0.0055552465;-2.3665323;1.4369593;-7.030737;-3.5797708;0.27667043;2.133926;2.6712856;3.004671;0.035162248;-2.6360748;1.2414484;-2.178637;-0.10094342;0.014885284;3.4851105;0.036045358;0.28063452;2.710849;1.3737906;-2.2084644;2.916999;-0.30866656;0.010356215;-3.9012163;3.831148;0.3004502;0.61805123;0.48696283;0.020667601;-0.003977652;-2.3438313;-2.8270245;-1.1327661;0.021480577;-0.0037452907;0.66243184;-2.5145562;-2.0359128;0.022833968;0.022818916;-0.06615143;-0.7806712;3.007199;-1.309189;0.32196626;-5.727433;3.9367104;-9.941461e-05;-3.752328;2.336261;-2.994988;0.08570921;1.4496589;1.2493739;1.804564;-1.4060342;4.019319;-1.8089789;-3.6767077;-9.550763;0.06785867;0.78760135;-0.010510967;1.3843572;-0.8574629;-0.39844158;0.63658667;-0.048036985;1.5964531;0.028607592;-0.032496616;-0.05510325;-0.0045758346;-4.7308545;-1.818329;4.7100224;2.2715905;0.6675081;0.004447519;-1.3994293;-0.034041;2.398041;-0.07357717;0.34847984;0.66252726;-2.217169;0.015327431;2.1994417;0.96651745;-0.0024443157;0.021479527;0.35834712;0.5522873;0.019167705;-0.99367756;-1.4339336;1.7636951;-0.008620613;-3.874084;-0.014312721;-3.8658981;0.5035014;0.008995053;0.02047531;0.5537383;1.944687;-0.039171044;0.6407672;-3.4364698;2.7685285;0.9388756;-0.8395846;-0.08601621;-0.40667558;1.6831639;0.70626104;0.058610268;0.039722197;-0.08630761;-1.2364016;-1.4354047;0.007487951;-0.00035111574;-0.030986713;-1.0492661;0.834281;-0.01801208;-0.014107198;-0.84277403;-2.0432534;3.033333;-7.9996204;-0.33531448;-1.5749695;0.16883117;-2.1239097;-2.7827811;-1.0593317;0.0008741622;-0.014092061;0.34882507;-0.060906753;2.0711985;-2.5812285;0.037717417;2.511053;-3.88154;-0.53447133;-0.026310723;-0.04220675;-0.91932976;-0.62082046;1.3746933;1.3365401;-3.1774504;-0.3599479;-0.029561913;0.055776786;-0.64574957;0.28537777;-4.504279;-0.21432173;-0.42694116;2.0096211;1.5447187;1.5042639;0.15650378;0.73012185;1.2388496;1.8494263;-0.005636016;0.6459325;0.92226815;0.0022833778;-0.04100424;-0.039760347;4.4854636;-0.029605249;-0.04945722;0.009318503;-3.002866;-0.012347189;3.7112582;1.0146514;-1.177584;-1.563175;0.64482254;-0.7786532;0.0012949004;3.2493606;0.013715836;0.7402343;0.012321268;-1.2753801;0.037975248;-2.9011648;-2.36388;-0.24622084;-2.2908132;-4.03867;4.897887;0.0061178547;0.037952866;-0.39008352;0.6461304;-3.5954885;0.02127405;1.2553414;0.72461754;-7.0289736;2.2089608;1.8647673;0.3827592;0.01382788;0.13873692;2.5391767;0.09447068;-1.3875209;0.5497951;1.4303555;0.4671323;0.287631;0.8274253;2.441279;-0.2411186;3.1824794;-0.5630618;-0.00965409;3.3471491;-0.0087489225;-0.98499614;-0.014953932;1.3270681;1.1832144;0.29513523;0.8805885;0.019827232;1.4840666;-0.038927812;0.09574146;-0.71810365;-0.043185215;-3.3674328;0.43866754;3.7361145;-1.0543424;0.019382013;-0.14449124;-3.2878573;1.5387685;1.7750432;4.031003;-4.66332;-0.7461976;-2.8821282;1.2564409;0.032243878;-3.74354;2.7158866;-0.0122910235;2.5175643;0.35399297;0.008483016;0.034065183;-4.1551657;0.81017315;-0.049430627;0.7258964;0.0035755676;0.50247073;-2.605602;-0.899649;-3.424383;-0.88582397;1.4835806;-0.30357423;-3.148814;-2.9905334;-1.5232124;-1.5994756;0.20677441;-0.009544011;-0.21659324;-1.7680246;-0.006091467;-7.9411073;-4.2306776;-0.051206082;-0.34158412;-0.026458642;-0.0076012095;-0.045141675;-2.6163514;0.04698429;-0.71873593;-0.0034809627;-8.91119;-0.045203365;2.2989204;0.01617394;-0.57178324;-1.6406976;-0.026216937;-0.10105463;0.04242671;0.004087646;-2.9399889;0.24368809;-0.82421285;1.4170413;-2.0437765;-1.0370245;-0.62585664;0.89984286;-0.021117209;-0.4068417;0.04078721;0.00446653;1.6281388;-1.3585503;0.016374122;-6.7019286;-1.2747777;-3.8341014;-1.549994;1.6096101;0.08130764;-4.6447754;0.051299173;-0.08221949;-0.0032568008;-0.47879747;1.2185388;-1.3183783;-4.200181;-0.38140154;-1.118032;0.034268208;0.85052234;2.094197;-0.05784693;-0.84934443;-2.7373614;-0.023093129;0.23565125;-1.369228;-0.043596584;-0.31585217;-3.2304173;-0.050828207;-0.29814902;1.637459;0.8203428;0.035608146;0.59976774;-2.3049853;-0.0044444185;-0.030056262;0.019675458;-3.601075;-3.5970078;-1.2243252;-0.06585426;0.025299966;-0.28831413;-0.44216004;-0.03660405;-1.0877591;-0.16049904;4.2027044;-5.735448;-1.8593577;-0.016718872;-1.4939607;1.039152;-3.5057154;0.025652623;0.5203066;-0.31992218;1.4972626;-0.39126578;-0.6179987;-0.1942275;-0.6150511;0.019453036;-0.00084677374;0.0077425838;-0.16062862;-3.86635;-0.03684349;1.0312598;-0.6359174;-1.7377808;-0.10722473;2.3143187;2.1833177;0.046909463;0.0019293496;0.06938746;-0.012174564;-3.113111;-2.8150382;0.030007822;0.06759962;0.117769614;-11.183932;1.3389156;-4.459943;-0.012513201;0.6552496;1.3162246;0.025162242;-1.9045614;-0.0047701644;0.014658444;0.9432886;-3.4796112;5.887314;1.0957426;0.38919413;1.8088892;-6.2732434;0.0051960563;0.082676075;1.1487005;2.4814425;2.3184693;2.9988475;2.6028302;0.06966655;0.012510979;4.2386794;-0.58156824;0.043639664;-0.61055297;0.019956168;-0.47245517;-0.8291713;0.95905584;-2.070808;-2.0965366;-0.004545476;-1.3326465;0.04855682;2.5177517;0.6541227;-0.021412363;0.009059902;2.2875106;-5.8613977;-0.037907064;0.0065117474;0.5689121;1.2558523;1.9450169;-0.062440045;0.061341196;-0.018581113;0.0065564527;-0.28224772;-1.389313;-2.6026928;-0.033512365;0.047353964;-0.66674924;-0.03391184;2.9315739;0.0067204153;-0.043862294;3.061387;-3.7196844;0.029951321;-0.03978974;0.010420443;0.5577903;-2.2848637;-0.9853491;-3.3219786;-0.023914976;0.74301416;0.20176584;-2.1464486;-0.002246065;-2.2888918;-6.8591;-1.0472825;0.14153509;-0.3595403;0.044303227;-0.1358865;0.0143303545;-0.4842165;-3.6055222;-1.0762672;-0.6817715;-0.78010345;-0.022982797;0.708001;0.042744085;-0.23398907;0.4807017;0.34322518;-5.4145384;-0.80623984;0.062595114;0.009396737;0.015998358;-0.033818074;-0.5633932;-3.697424;1.7754115;0.059455603;-0.03201399;0.87440854;4.5354424;4.122864;2.8215392;0.007956196;-2.9356627;-0.2602557;1.1430206;-0.01403179;0.07842556;0.0980112;0.3607461;1.1004281;1.0212063;-0.017603828;1.2564279;2.156996;-1.362104;0.071731955;2.2066782;-0.4414753;-2.0346947;-6.011666;0.038839385;0.038137402;-0.004384447;-3.0942845
0.029593488;-1.5609741;1.1363661;-0.0143279405;-0.027937608;3.4372041;0.13664407;0.034887955;-0.38020337;2.2985363;0.04581148;-5.696151;4.047621;2.355269;-0.7266592;0.010664255;0.9656407;-2.3020008;-0.044092037;-17.819109;3.9671884;-0.01125405;-2.8321388;-1.7620232;-2.251883;2.2638242;-0.13207702;-4.8628716;0.05500571;4.035395;-6.4348626;1.3673747;1.6295543;-0.52499294;-0.010079632;-0.0557141;0.6414863;3.7069857;-1.1705705;-1.1862174;0.036748488;2.5995545;2.1015155;1.0080723;0.011973994;-1.8589334;0.7282161;-4.260489;-0.8674739;0.07142421;2.173606;-0.0013257461;-1.4322904;0.624202;-4.301938;1.5839353;3.2257934;1.3297929;0.22234443;-3.943996;3.0643032;-0.7555692;1.3275589;1.2787427;0.0036567017;0.0031523656;-2.0125527;-4.6272917;-4.811561;0.0075311973;-0.001901081;-3.482033;-1.7258265;-0.6444127;-0.0598822;-0.026368663;-0.041591864;-0.75308806;2.8629496;-3.1797378;0.16049871;0.39443627;3.651353;0.030843064;-0.344362;3.3532526;0.6851798;-0.14428282;-1.1220709;0.32344228;1.9858836;-0.72626626;2.2238307;-3.1613142;-2.0337331;-8.060762;0.058021218;0.9212012;0.015183076;2.1157563;0.34836698;-0.6519043;1.4197873;-0.004929273;2.7614717;0.005276783;0.0416189;-0.008036613;-0.008128639;-3.670988;1.3762306;-0.25335205;1.9369296;-0.99500114;-0.0003183722;-1.1931361;-0.047245663;0.3527012;0.007951852;2.8841128;2.5291686;-0.6742005;-0.013284373;2.8703072;-2.2108963;0.017431458;0.03175299;0.23619772;1.365199;-0.025996512;-1.7413882;-2.993846;1.9514266;0.0064207907;0.17618251;-0.025846872;-2.5447743;-0.123400055;-0.014054215;0.049361132;-0.43964908;-1.7005812;-0.04820373;0.9281064;-2.9428148;-1.6372195;-1.3399061;1.036606;-0.034545578;0.055203978;-1.4709418;3.3810315;-0.05821835;-0.46179938;-0.018517826;-0.96907747;-1.2925454;0.0300219;-0.03049218;0.030886136;-0.49340996;0.765045;0.0063317465;0.04538615;0.05527718;-1.0241307;-2.205285;-3.2146614;-1.335555;-0.36221763;0.22781415;-2.7830572;-2.5705116;0.8161381;0.03638887;0.066233926;-1.6762546;-0.026043823;0.16135842;-1.8094027;-0.18399738;2.5892115;0.42414024;0.15773022;0.003792139;-0.057504565;0.5390426;1.6265814;-1.1927253;1.9228904;-2.3686447;2.2600946;0.010709113;0.021906931;-0.047555573;-0.49518085;1.0124701;1.6327447;-0.64069194;3.0209384;-0.7005695;-1.7419801;1.2576963;1.564893;1.0376825;1.7436869;-0.006181112;-0.49411502;1.8302042;0.015648238;-0.006085911;0.015774675;-0.20235255;0.027306804;-0.07410472;0.0071096066;-4.109879;0.0073460117;4.060851;2.1595125;-3.5877876;-2.8564625;-0.7863187;-2.9525566;0.008715326;0.0059122927;0.0038645626;-0.38395587;0.03521443;-0.7448683;-0.01869579;-3.0062664;-0.22022729;-1.0653702;0.20303836;-5.4500065;2.5280404;4.4828987;-0.00053070113;-2.5777261;2.168608;1.6721841;-0.0025276921;-1.2626745;-0.35479838;-6.273715;2.4250586;-1.1033638;-0.18054897;0.069281645;0.02439716;0.37516993;0.54667187;0.49235368;1.251413;-0.807232;-0.12306257;0.9235862;0.74455863;2.6366613;-0.40010107;0.4196485;1.2896674;-0.053238466;3.0205903;0.0037909076;1.0520386;-0.004775857;-1.2264346;1.434711;0.42451054;3.678781;-0.05964071;1.3694129;-0.02517269;0.15570465;-3.3418758;0.023076147;-4.0730157;0.5366369;2.56956;-0.23132002;-0.034566995;-2.4974236;-2.6575391;0.48672915;0.106540054;2.7164426;-1.9523518;-1.2465687;-1.6382511;0.7606438;-0.0052817822;-3.4929352;-0.25895244;0.027449833;-0.46210605;-1.2444166;-0.0065927254;0.03272319;-0.8168212;-0.8261434;-0.036366638;-0.47256416;0.028265713;-3.0516007;-2.6414223;-4.395333;-0.2625236;-0.9963041;1.1345669;-0.09609033;-2.547158;-3.4867556;0.60397017;-2.1873276;-3.2822576;-0.029478412;-1.4397938;-3.6187303;0.025813233;-6.077103;-5.715991;-0.023759732;-3.3642597;-0.02362054;0.030008353;0.087022;-1.8157485;-0.027645009;1.8114028;0.025506923;-6.1003904;-0.16389453;-2.0463812;2.2487204;-2.219063;-2.006388;0.006644948;1.5426242;0.0042662625;-0.007063669;-1.204887;1.7665267;-1.8712891;2.1893022;-1.0477418;0.11814481;0.8595217;-0.078879796;0.02268063;0.251022;-0.037526324;3.2065008;-5.523773;-0.21026209;-0.019503022;-4.2797174;-0.9719595;-2.8633904;-2.2771966;-0.45710945;-0.028413039;-2.536629;-0.0057121823;-0.05748473;0.019552492;0.2075105;0.9883439;-1.1201048;-1.1933663;-0.54649997;-3.5727763;0.047358345;0.5400053;-1.595519;-0.10663311;-2.5490267;-2.4748456;-0.0030571239;-0.1854531;-1.152464;0.035303365;1.7698417;1.1937994;0.4453639;0.010712145;2.7392452;0.5446951;0.07990864;0.57054627;-0.5299782;0.03987951;-0.03495926;-0.012205521;-2.083715;-1.7202497;-1.136889;-0.0050890506;-0.0012176818;0.41103056;0.77515984;2.6397176;0.8601781;-1.5610441;1.7159691;-6.53058;-4.929658;-0.015554368;-2.7308633;0.32125372;-4.5252595;0.044168923;-3.1465077;0.6384451;0.3733276;1.5776749;-0.6717643;-0.35269904;-1.46855;0.027279712;0.045177482;0.01155617;-1.9973031;0.39331657;-0.014772255;-1.7607784;0.22367193;-0.40789694;-0.010096724;2.3580415;3.769611;-0.34515485;0.04949692;0.026718596;0.066364735;-0.7336276;2.8174303;-0.016677415;-0.2906261;-0.6442152;-10.756818;-1.0307287;-5.391552;-0.0071129836;0.3383951;-0.17041783;0.06337827;-1.8188373;0.5248281;0.015797496;1.1756054;-1.9836034;1.0606308;1.4396958;-0.3680682;1.1382802;-4.578929;0.0031987026;-0.081967354;-0.3628907;3.0729668;0.42735937;2.6726673;4.6134806;-0.0373907;0.07462549;3.356419;-0.12189072;0.042236555;0.69123924;-0.04423818;-0.1581236;-3.422402;1.5482192;-4.0739264;0.6022859;-0.01704967;-0.9393977;-0.07004443;2.160445;4.7273264;0.013934752;0.037255466;-0.20475581;-4.620487;-0.073495135;0.0054606185;0.44718632;1.5908573;3.16009;-3.04913;0.72650605;0.006197171;0.06947275;0.5558296;0.66708624;0.004350622;0.030737879;-0.016869765;-1.5452174;0.07950822;-1.2160248;0.017213881;0.060778767;3.2304673;-0.31213185;0.011330041;-0.023233365;-0.014548951;-0.53634435;-0.19780034;0.03046619;-2.3420274;0.022488447;-1.4625742;0.9267299;2.7405107;0.023825822;-0.28071254;-7.201225;0.31446278;-0.08632863;0.5760932;-0.0019832482;-0.1740417;-0.0010508909;-0.6241834;0.005839165;-2.508287;-0.65847933;-0.62133837;0.012996787;1.8598117;-0.052625805;0.9784372;0.17836204;1.2182419;-2.3210506;0.7993908;-0.028297104;-0.029701736;0.007635948;0.0012888884;1.493036;-2.8512995;1.0567114;-0.028293628;0.06942095;-0.32255375;-0.48866957;3.264719;1.5935581;-0.0037629274;-2.0811348;2.0803185;0.40504125;-0.0019573483;-0.039159015;-0.11832902;1.3562843;1.636845;1.7717148;0.0021935196;4.7625494;1.7276868;-1.0659356;0.45368153;0.68466395;-2.1361759;-1.3248293;-6.4849052;0.256327;0.018466387;-0.039025415;-5.6727037
0.014778705;-1.4520967;1.8399985;0.03641252;-0.020656632;-0.5904928;-0.120858915;0.03806282;-0.99693197;1.1834184;-0.03400101;-3.9390597;3.8114898;0.6498869;-2.1666434;0.010928087;-1.007515;1.9829704;-0.02913681;-17.602695;1.17249;0.023450242;-0.84034246;-1.1139257;-1.2720169;-1.4540823;1.2045032;-8.674196;-0.049811944;3.9538846;-4.2269154;0.610483;0.9004377;-2.4667633;0.039162256;-0.03372469;0.9570066;3.7965724;1.3024869;-1.1923147;-0.021512503;3.4847271;1.9368532;0.2702606;0.043936875;-1.01874;2.506083;-2.8307273;-1.9481317;0.0064029647;3.3136396;0.038911954;-0.63485014;-0.5311;0.89465827;0.72180265;1.9849268;3.957248;2.0953639;-4.2661285;2.0845997;1.3299663;2.8369572;1.0828867;-0.01307824;-0.010468934;-2.038405;-3.3391929;-1.9112097;-0.028441515;0.08340825;0.44656655;-1.5776881;2.3694856;0.03902248;0.016598264;-0.0062773866;1.5539033;2.4993892;-4.9243083;1.2344358;4.3319263;3.6934361;0.031534843;-1.6475794;0.910215;1.6141331;0.27304515;0.014512553;-0.24427387;2.2492492;-1.2943274;-2.4959376;-3.0255244;-4.5107636;-7.1721163;-0.13827217;0.92781085;0.033137947;-1.7981117;0.27033445;-1.5899091;1.0078263;0.05340261;1.9660501;-0.027783033;0.020516405;-0.0009445471;0.022545045;-3.790545;-4.4057775;-0.6985055;3.4032981;-0.18488862;0.017737707;2.286482;-0.057726108;2.0711355;0.033997238;4.182008;2.8010051;0.11891408;-0.070344925;1.3444942;-0.1296756;0.013477289;-0.07361146;-2.5819452;0.43218714;-0.11560256;0.4664447;-1.3825431;3.1697662;-0.0004417232;-3.977734;-0.042900592;0.037300657;-0.03491607;0.023898544;-0.017426996;-1.2091074;-3.555942;-0.061668396;-0.51216596;-2.8229144;-3.013712;-0.12092632;1.7716844;-0.006997688;-1.0718815;1.0336945;2.632899;-0.03807176;-1.685969;0.0064705024;0.880252;-1.5556394;0.034177493;0.06967491;0.022467814;-0.90714806;-3.2811623;-0.029594714;-0.034330387;0.433036;-3.8249907;-1.8292478;1.0103307;-2.7132401;0.79567844;-0.9976007;-2.1580663;-3.1587462;1.9235461;0.023551079;0.012118472;0.82078874;0.09540402;0.4141372;1.6128827;0.48054406;-0.9459558;4.5516067;-0.98349595;-0.0075878785;-0.042293902;0.22871086;-0.5340301;0.075182386;1.5013134;0.17060661;1.4171343;-0.024822483;-0.046154827;-1.6793875;-0.7176508;-2.8099375;1.2412071;-0.97762287;1.0322238;0.8664132;-2.2687185;-0.496254;0.43974173;1.7111614;1.1572495;0.020863531;-1.4734752;2.498299;0.05542022;-0.030871717;-0.030882249;-1.123964;-0.0019646601;-0.068213545;0.034649767;1.0252897;0.022115368;4.3372836;1.4788729;-3.801186;-2.3655896;-2.5016763;-2.540927;0.0028442414;1.2934543;-0.024166679;-2.696015;-0.006790915;-1.0773948;-0.0033935148;-3.538519;2.7428894;-6.247133;1.1847082;-8.2876625;1.6321819;0.18005942;-0.015391724;1.6177832;3.239255;1.9711683;-0.046873346;-1.313914;0.6233876;-5.401416;2.4995856;-0.5068933;1.797635;-0.025477564;-0.01164389;1.6311744;3.0176985;0.048418865;0.89373225;1.7579046;0.46976104;2.2052333;-0.258198;-0.46842974;-2.4541876;-1.130196;0.9943885;-0.0027455988;1.0776501;-0.004094552;0.3802826;-0.021814167;-0.69240165;0.23168483;0.44957018;0.9850383;0.035149522;2.2158964;0.030191036;0.077665985;-3.4567773;0.04236508;-2.2153409;1.1196896;3.6155226;-1.452979;0.007155188;-1.7463468;-2.5415642;-2.1263635;-0.956522;2.8412073;-1.2747178;0.3925312;-1.4097688;2.0076296;0.0035930697;-3.2316642;-0.9894506;-0.032521296;-0.6889267;0.77373874;-0.05458811;-0.048173413;-1.3832856;2.7733734;0.03550915;0.070751764;0.06360446;-5.683419;-1.923297;-5.565701;-2.4783974;0.9283501;-0.37955737;0.023174446;-0.46213254;-3.1980908;0.90507644;-0.37751386;-4.7008467;-0.009532687;-1.330259;-2.4984655;0.0012856604;-2.5354397;-2.9225905;-0.009414222;1.5154885;0.34845892;0.017457921;-0.012913069;-1.8125316;-0.018026816;3.360224;-0.028300993;-7.6976275;1.0676367;-5.921569;1.9875131;-3.4789581;-2.2665355;-0.052632686;0.34701502;-0.046517916;0.091384344;-1.7142475;1.8981488;-0.59571385;1.0906794;-0.0111159785;-3.303326;3.0521603;0.07173052;0.0132356165;-0.58444446;-0.017960649;1.1854377;-4.3242784;1.4219035;-0.0023727468;-2.329646;-0.6498219;3.7013063;-2.0085206;-0.40997577;-0.0026295858;-2.894948;0.01788701;-0.05388528;0.02234954;-4.9774313;2.354354;-3.302381;-0.5230402;-1.3815913;2.2686064;-0.045301672;-0.7574461;-0.24629202;-0.02125263;-0.5033639;-3.6615126;-0.025032759;0.4312718;1.6856788;0.029987121;1.6399834;-5.392413;-0.059424274;-0.042327438;-0.24072173;2.2641065;-0.008996494;1.6260055;-0.070396446;0.0071739736;-3.0010626;-0.04574237;-1.090818;-5.9690895;-1.2699835;0.015200841;-0.07408761;-0.8629853;1.85937;3.4718108;-1.4914382;-1.7867831;0.53279585;-1.9981658;-1.5047157;-0.010285666;-2.4440522;1.1859876;-3.976549;-0.018579606;-4.0628;0.120736614;2.7105958;-0.31083935;-1.8346882;-1.1407385;-5.8299713;0.010143534;-0.022308996;-0.0130404895;-1.8526314;0.9492199;0.019033551;-2.307329;1.6736495;0.24913324;0.026288148;0.36882734;-4.5424643;-3.6967223;-0.031456143;-0.08768872;-0.027332261;-2.8790188;4.0499916;0.023287976;0.2271645;0.16531496;-11.530951;-1.0462126;-2.3699284;0.019940278;2.1368904;1.2695845;-0.016483083;-5.117037;1.7066119;-0.01771299;-0.049497455;-1.7127349;1.8800784;-0.047932625;1.0030115;2.800088;-5.902612;0.0488936;0.006151097;3.9846478;3.993138;-0.7520571;2.5054498;2.2118125;0.058226004;0.026550805;2.789622;-1.8955399;-0.04484736;1.0975848;-0.025919117;-3.9349325;-0.96842784;-2.2110798;-2.5616403;4.4441414;-0.03968386;-1.5018425;-0.016699038;0.37597087;1.74285;-0.01985572;0.012237286;2.8456712;-5.522884;-0.00818645;-0.046450567;0.321583;-0.3082121;5.90404;-4.4475245;-0.1676939;-0.012396698;0.00040289393;0.8946974;0.62242097;2.7443044;-0.034923017;0.009037372;-2.0920422;-0.007975273;2.784316;0.03422754;0.01126171;2.1344962;-1.8951842;0.0626111;0.0040505193;-0.008313548;0.26791173;0.7292073;-0.55318016;-2.194665;-0.0028798603;1.1328502;-0.27401835;1.8563921;-0.007525519;0.86710906;-7.1947465;-0.21802926;0.21416506;-0.0877382;-0.036610827;-4.891725;0.027053215;-0.24222966;-2.9521968;-1.8658328;1.5681525;-0.88166314;0.0027734954;0.2671025;-0.04481175;-1.2363179;-0.066764385;1.1120495;-4.3839574;2.8847477;0.00084093865;0.00255802;0.014996672;-0.005747887;-1.251998;-1.4050742;0.52989644;0.03820012;-0.0074085076;-2.017156;3.0996041;4.4659433;-0.39251032;0.006375779;-0.35410187;1.7807767;-0.6616123;0.018960146;0.01581076;-0.4422227;-0.15157302;0.9357048;4.373785;0.057002313;3.738162;-1.7884167;0.13169524;0.0752478;1.0171462;-0.95307726;-3.5343971;-3.534298;1.1158504;-0.0008294144;0.018040543;-3.9825861
0.018546868;-3.39688;2.7768104;-0.03929131;-0.016256364;1.8715955;-0.016469682;-0.05209249;-0.7486798;0.6685771;-0.01431589;-3.3002744;1.7357069;1.9084612;0.6060924;-0.019666517;-0.3881353;1.81602;-0.02382272;-18.076664;1.1796697;-0.058327787;0.38880593;-2.6135175;-7.229224;-0.8933439;0.44416094;-6.7193174;0.061097775;3.508691;-1.7981802;1.6525376;0.8702898;0.9270635;-0.045506984;0.015269449;-0.39570764;3.3013391;-0.9406744;1.5355756;-0.20127408;0.7433204;-3.28997;1.2056838;-0.0143927215;0.2697751;1.9892713;3.1808681;-0.9601844;0.017109793;2.8580086;0.011846289;-0.9732169;-0.423068;2.6266599;-0.011834994;2.8359969;3.722328;-0.57751596;3.21628;2.831125;2.3846977;1.8482256;-0.47108993;-0.048576023;-0.015649319;-0.7743014;-4.798978;-8.60874;0.008191234;-0.030093106;-2.3051553;-1.3184149;3.1299834;-0.036472056;-0.053561352;0.0068916585;2.345065;1.1010514;-3.6121979;-0.03434251;2.4188957;1.9578357;-0.0823931;-4.030092;0.34279492;2.3731632;-0.20322308;-0.8358421;-0.04362287;2.2823923;-1.8210258;-2.6719818;-3.5588393;-4.943446;-7.0426974;0.6830927;0.6125746;-0.008444116;0.032448355;1.5329258;-2.5615153;1.554901;0.01616731;-1.157425;0.014652634;-0.008444366;0.036013443;-0.008241671;-3.2122595;-2.2076795;0.82121146;4.099413;-0.72133714;0.01728385;0.39411038;-0.113337465;2.8745165;0.044349596;3.1445189;-2.4710824;-0.91128325;-0.030041214;1.5401658;-0.06485809;0.0051204795;0.020842705;-1.4415883;0.5694934;0.74442303;-1.8471143;-1.081331;2.554109;-0.012309503;-1.7528526;-0.04443412;-1.6230953;-0.0899541;-0.009249168;-0.014489032;-2.3615959;-2.0574374;-0.06679632;1.3209035;-3.6375637;-1.9303668;-5.696574;1.8052553;-0.005150917;-1.9876053;0.77475315;0.74574566;0.06932806;-2.3846889;-0.028433686;1.3530736;-1.1299884;0.010893764;-0.024151662;-0.010405696;1.0975779;-4.3629956;-0.018093636;0.0074911606;4.438788;0.5818107;-4.5688477;1.1634908;-2.0709991;0.8767638;-0.86179113;-0.24219324;-0.23277697;2.7104027;-0.023996728;-0.014564813;0.32053065;-0.075304225;-0.25041315;-2.2026968;-0.07710442;-0.56310153;3.3810318;-0.747677;-0.031164918;-0.12406362;-1.1477654;1.4216725;-1.1271745;-0.59416014;0.94888175;1.1019518;-0.031078216;0.041739766;1.0135514;-1.8202666;3.0965352;-1.3068337;-0.81602556;0.6765988;-1.5295441;-1.5980256;1.9034784;0.8535928;1.8252778;2.6336522;-0.017165007;1.5004375;2.4247627;-0.093100436;0.015008285;-0.09204398;3.010518;0.0310783;-0.059585623;-0.040687934;2.103933;-0.021372154;2.7322686;0.07807252;-0.82422906;-1.555979;-0.02296978;-3.2210045;-0.02494827;1.4824055;-0.092234105;-1.9957968;-0.023606827;-2.8007998;-0.020823585;3.3207583;0.5326452;-6.8534756;2.4560256;-9.590931;2.5082645;1.3516171;0.0080267675;1.4488777;1.2378075;-0.89441997;0.014741904;0.64244944;-0.14905053;-6.8419485;2.5625033;-2.3050585;4.3897314;-0.0037249976;0.008350234;-0.23732838;3.1855447;-2.3086824;-2.4950023;-3.6896765;-0.066085525;-0.3592721;0.46137387;2.1616573;-4.2765365;-1.9386572;0.43049407;-0.07416692;0.36172107;-0.0019563027;1.3065615;-0.05235213;-0.18154867;0.58336455;2.8290076;0.8704925;-0.01330432;-3.8885195;-0.0073864986;0.40447178;-2.9529533;-0.038144425;-3.5584147;0.2170003;2.4084182;-2.563877;-0.0334045;-0.4200322;-2.9566572;-5.457608;-0.6739337;1.5474076;-1.9877276;1.62782;-2.013557;1.033879;-0.035119615;-3.4493124;0.53337145;-0.029624406;-1.0842518;0.77414906;-0.008264125;0.0077306926;-1.3990924;2.385937;-0.071630485;1.9530734;-0.015048123;-5.7652483;-2.8202136;1.2883656;0.28476086;1.2182903;1.5520611;-1.48482;-1.974421;-2.2957954;-0.6299972;-0.35791257;-4.060296;-0.03674636;1.5959328;-4.012983;-0.002875363;-1.595812;3.0932133;-0.05674662;0.057007868;-0.03581199;-0.0017638237;0.069805145;1.4957707;-0.027819298;4.3475122;-0.012411474;-3.1398027;-0.2910511;-3.3173163;2.2713387;-0.35712227;-2.6444309;0.00404656;-3.322845;0.014371228;-0.036453858;-0.6038145;1.9477258;-1.0985794;1.059707;-1.6885673;-3.934221;1.4986023;-0.10257061;0.0028392335;-1.8112742;-0.007232412;2.457861;-0.8366683;-0.026668329;-0.010938507;-1.6681881;1.7326411;5.2795615;-2.070939;-2.256962;0.03222462;2.4886782;0.025794044;-0.03334989;-0.041784592;-2.0968645;1.6874762;-1.2023833;0.40097272;2.000592;0.7202036;-0.020492284;-0.39624134;-2.6290073;-0.09346851;-2.2122135;-4.072212;-0.03328182;-0.94090307;3.1795547;-0.10911365;2.0012424;-3.3186476;-0.027163096;0.05563985;1.215073;-0.24083218;-0.0154863605;4.83705;-2.0770576;0.05468264;-4.137677;0.044217262;-2.9533162;-2.05038;-1.7940007;-0.121922515;-0.065897785;-0.123395674;1.3205142;0.28706768;2.0137513;0.08700994;-0.49465856;-7.3134375;1.1224762;-0.022755008;-3.5023289;2.0252342;1.2495475;0.047246028;-3.5850177;-1.0785612;5.0183716;0.59205765;-0.48983383;-1.1562176;-0.42403805;-0.029640032;-0.004509542;-0.0386306;-2.811276;2.419514;0.00583427;1.909542;-2.499586;1.3247675;-0.02836097;-1.1328243;-0.3151676;-0.7943396;-0.030429432;-0.024554403;-0.021998974;-4.983524;1.0617037;-0.0011847714;0.09183086;-4.2643986;-12.732036;-1.3884279;-2.9082537;-0.028081032;3.276746;-4.169068;0.010879531;-9.597712;2.593646;0.014801856;0.21843573;-0.49681672;1.7412688;-3.0120533;-1.3438776;1.6505488;-6.6744776;-0.012837561;0.016398035;0.3735809;0.96133006;-1.1065612;3.2988112;2.1696215;-0.016337315;0.19799049;2.9829104;0.88035876;-0.018983072;-0.3735788;-0.005791767;-5.83619;1.4134494;0.6236304;1.2394795;1.9707081;-0.0039556837;0.80275506;-0.017986348;0.5202506;4.4998627;0.012311243;0.010305747;-3.4859273;2.6279323;-0.055973142;-0.02704393;1.3156875;-4.248496;6.1134977;-4.1141887;-0.8566774;0.011487166;-0.015876718;0.41748345;2.1273892;1.364396;0.095628776;-0.0015983505;-0.05948348;-0.036055665;-1.3871354;-0.05240285;-0.018785724;1.0205021;-3.5175703;-0.035275057;-0.06873921;0.029441087;0.69190407;1.6699756;-3.1366081;-1.1053605;0.0123770395;1.8150192;-0.5189669;-1.3057404;-0.028826268;-0.5433685;-7.9885345;-0.44717208;-0.06189379;-0.25743946;-0.01080731;-1.1606351;0.017499153;0.03166349;-0.88548803;-2.2879984;0.9696205;0.41053268;-0.023773182;-0.4559819;-0.02288259;2.6275566;-0.2412473;4.39524;-1.6319861;3.2101564;-0.014453812;-0.012275326;-0.002690107;-0.015599302;-3.292235;0.64864534;0.9498268;0.028693317;-0.022423485;-1.4010593;0.8322963;4.2771864;-3.61971;-0.01649512;-0.70118505;0.29494667;-0.8539008;0.010374759;-0.0041319393;-0.4327445;-0.25874165;1.8234283;0.80826205;-0.07824049;4.473634;-3.00564;0.14454038;0.04354243;-0.6670852;3.271818;0.26778314;0.34430727;0.008299684;-0.06365177;0.023941988;0.55667967
0.004112588;1.1079129;3.370639;-0.0039060623;-0.066940844;-3.7735307;0.011333562;0.03777538;-0.8481022;1.1978238;0.037338033;-3.8212473;0.43815875;1.7477872;3.1417089;0.018645419;0.24100256;0.45304412;0.030781172;-17.368645;3.1733918;-0.00020911734;-3.3859167;-0.46986577;-4.80453;-1.3548552;2.5052075;-7.2065988;-0.12493396;4.0904026;-5.682062;2.311473;0.21496254;-0.60818183;-0.016381096;0.04928489;3.05886;2.5702753;-1.569903;0.96890193;0.015238377;0.7580148;0.543689;1.5807269;-0.0031409555;2.6633596;3.0726798;-3.1171875;-2.804377;-0.012628681;2.469393;-0.008597743;3.0529547;-1.2369334;-3.270493;-0.34497142;2.4081807;0.5679473;-0.60826296;0.903701;0.789955;3.9259365;-0.5392032;-1.5107344;0.048254278;0.0017593161;-2.0709283;-2.9118848;2.0067973;0.02068036;0.019233186;-2.3216116;-3.1654227;0.8680926;-0.011067967;-0.048811585;-0.016942805;2.341607;2.39885;0.0028866378;0.7672661;-0.9124536;3.1260169;0.009112136;-1.6542097;1.142498;1.7408322;-0.059068292;1.9707882;-1.9670544;3.2702248;-1.8053492;-2.5690718;0.80759203;-3.7008743;-4.2827396;-0.02888438;-2.2750025;0.011203989;-1.399626;1.56709;-2.1625092;-1.500343;-0.005060258;-0.27544126;0.015104601;0.026106568;0.0049346844;-0.0010839836;-2.1428938;-5.2315683;3.178684;4.1985497;-0.76001287;0.040348202;-0.51243466;-0.056224845;3.94663;0.004183193;2.1985228;-2.451408;-3.6184165;0.011878379;4.5128703;-0.44293928;0.034748957;-0.0020383773;2.2297015;-1.3832325;-0.12567517;1.0323414;-2.2089555;2.9857135;-0.0909638;0.3286162;-0.011319563;0.4853149;0.019891521;0.0027016087;-0.029241946;-2.077042;2.9729528;-0.09152706;1.2655861;-4.5306263;3.144185;-1.5800775;2.3278458;-0.010248793;-1.4471842;0.031872135;0.2796023;0.09650683;-2.3666425;-0.016705759;0.6499748;-2.1167226;-0.07216349;0.03350465;0.029586665;0.9609086;-3.4507048;-0.039750565;-0.030275302;3.5138588;-0.6170934;-2.1155362;-2.223479;-3.8059561;1.5486708;-0.2903401;-2.763061;-2.1326485;-0.03994122;-0.0024565486;-0.0019012616;-0.29888827;0.010356808;0.8020886;-1.0602837;-0.13769172;-2.2859523;2.355726;-1.9442378;0.03659125;-0.14322177;-1.0471821;-1.1688937;-0.23677835;-1.8146042;0.95714206;2.5955534;-0.011741437;0.034090795;0.33157152;0.6543039;1.4467516;-0.9424087;-1.8480601;1.6146395;-1.108739;0.474015;-1.6233518;-0.46180654;-0.029793996;2.6355278;0.024699168;-1.384884;0.77548975;0.048774432;-0.04001668;0.06334902;-1.6600155;0.02083613;-0.046266783;0.00417312;1.3680003;-0.02219227;3.9789498;1.3475753;-1.6800792;-2.3204389;-0.0038821741;-3.6727984;-0.0031229828;1.29985;0.21155564;0.56185037;0.0056000813;-0.5357368;-0.025879133;-1.0538627;0.30653852;-4.282077;-2.5058906;-9.707065;-0.43464482;4.390051;0.013734667;2.5044937;2.421338;-4.6271806;-0.047236163;0.5198609;-0.039055664;-4.990038;0.772351;-1.5308791;0.41325918;-0.0051515927;0.0030714453;2.0214524;2.9038541;0.42342296;-0.8862081;-2.0042946;-0.4516064;-1.2899992;-2.2095697;-1.107131;-5.47931;-0.27891475;0.46965852;-0.021095011;1.2644986;0.0074350345;0.38217443;-0.10465142;0.4211161;1.2592902;1.8814251;-0.49750838;-0.005977028;-5.3241982;-0.00022545678;-0.50919944;-0.24509922;0.022255309;-3.573092;-0.064113654;2.26152;-4.6940103;-0.02994878;-4.1527834;0.9048472;-5.4596286;0.25433785;1.939358;-1.9433998;1.1011411;-3.057112;1.8445559;0.027055128;-4.7418413;1.5962397;-0.003623088;-2.7161179;1.4568415;-0.13946286;-0.041045852;0.4023919;1.0790763;-0.1300947;0.92580676;-0.013940691;-4.648462;-5.32466;0.008052686;0.5161221;1.1893467;-0.18526156;-7.180496;-5.738008;-1.0694574;-0.26713803;2.4622247;-3.5349247;0.015098201;2.9631817;-1.6086127;0.01101621;1.6389134;1.9849163;0.02108772;-0.1608926;-0.067557596;0.043276753;0.023666343;3.771313;0.01956232;3.8682683;-0.024230022;-2.7066288;-0.066581674;-1.8072382;2.4932165;-1.016302;-3.707549;0.026298976;-2.0448422;0.039531495;-0.10655449;-0.9036229;-0.45887932;1.8011993;-0.4687177;-1.3228925;1.3786274;-0.19656676;-0.0348086;0.010562269;-2.1605375;0.021525376;-2.3960886;2.7222283;0.07651443;-0.0033439025;-3.8780913;0.9100951;-0.6139451;-3.459086;0.89795417;0.0046132477;0.86074674;0.0032825056;-0.024941657;-0.043626513;-0.4428546;2.144875;-1.6143183;-0.65972424;0.723104;-4.0247965;0.029002897;0.93673927;0.23156369;0.017957194;-2.5553024;2.7513404;-0.030986775;-0.12358287;1.0241312;0.16508049;0.95658714;0.43215778;0.01853457;-0.059661143;-2.7004726;-0.036448635;0.012679628;3.2113762;3.9587831;0.0342408;-6.8934035;-0.022837415;-0.9251718;-1.9718508;1.7550616;0.023023596;-0.024549898;0.96781784;0.99699163;-0.27118394;-1.0168796;-0.709424;1.2911726;-5.0367856;-0.8815015;0.02521568;-2.4865198;-0.8185769;1.1551373;-0.028894993;-3.1102364;1.5498929;3.5053108;1.2196156;-0.09957855;1.0563477;-2.2181482;-0.0059084976;0.015400134;-0.025969284;-2.748847;3.1388562;0.02913714;1.1890012;0.17873168;0.06686018;0.0025729085;0.028961996;1.3308622;-1.624078;-0.06570426;0.0017877159;0.029278493;0.024259958;-3.3060248;-0.0025802685;0.045829695;-1.3986189;-10.819218;1.5018828;-3.2566102;0.0016605447;0.40218696;-3.1754515;-0.050774004;-6.619778;4.538642;-0.014735551;-1.4040573;2.6105208;1.4474785;-0.28281236;-2.0210633;1.9177363;-6.6744275;0.029497208;-0.0013716607;0.2436001;-0.5329854;0.9256334;1.7874132;0.88418967;-0.009710465;-0.0681448;5.0245166;-2.0844672;0.013231933;-3.7674832;-0.0012465328;-4.2857885;0.9142006;1.3675857;-1.5115535;-0.48646638;-0.08443065;-1.6304088;-0.016464368;-1.345931;1.4356273;-0.015411558;-0.014638125;2.827152;-5.463645;-0.11936271;0.019864026;2.6836483;-4.6256394;2.9206614;-3.128983;1.2602851;-0.023493253;0.0196202;0.39984342;2.3351192;0.9992623;-0.07756027;-0.004889157;-1.22776;-0.0048146467;2.9547064;-0.030665396;0.022977773;2.7223032;-4.1485558;0.0043432354;0.8605717;0.045084838;-1.7943083;0.05168678;0.6191475;-1.7991344;-0.026707787;-0.9193858;-0.18343174;1.6531526;0.0049267504;0.92281884;-6.8448896;-0.55856234;-0.0763867;1.1626303;0.033196032;-0.51205254;0.00034535;-1.3024015;0.44612807;-0.5603132;1.8211005;-1.746056;0.050659828;-1.410856;0.040692557;-1.7854037;0.36116374;0.0888534;-1.259208;4.326861;0.014092024;-0.00756145;0.024370505;0.020380432;-3.0372698;0.4204785;1.8923165;-0.015843654;0.0057583363;-0.09451477;1.3999071;3.5057352;4.178985;-0.0072235153;2.656648;2.5164819;0.42341015;-0.031584386;0.007855922;-1.610858;0.5817019;1.7989869;-0.23883979;-0.017016783;2.3061895;-1.4088029;0.0697055;0.26428646;-1.405121;2.2379248;0.018971864;-1.6643819;2.4017556;-0.009944782;-0.016332159;3.7729387
-0.0067302645;0.84386533;1.6615874;0.03869842;-0.094450034;-3.6158397;-0.009626174;0.001901132;-1.277907;1.6005162;0.03987002;-2.7239718;-0.97151583;0.61261123;3.738023;0.014755063;1.1076208;-0.4260705;-0.010672696;-16.525791;2.915457;0.036026448;-3.6412027;-1.4491667;-3.8989136;-2.2997737;-2.985333;-5.3349714;-0.060960617;3.9307885;-7.516351;-0.07014797;0.9527254;-0.6290975;0.030173363;0.03389136;2.111774;3.783977;0.42624578;0.76538956;0.082210995;4.2452765;0.6078011;1.5375552;0.07867728;-2.603405;3.4734814;-3.2947295;-2.6209247;0.03617758;-0.41764212;0.006840391;2.6111143;-3.2176044;2.5468364;3.0949924;3.7918265;2.9369826;-3.9439263;2.427642;-2.0090222;2.7958624;1.2474351;0.5122455;-0.020011269;-0.036732294;-1.9889146;-2.9265893;-1.6627308;0.056724038;0.036803182;0.5835449;0.3788598;-1.2458035;0.028193567;0.057306945;0.07546363;0.7557275;2.0214877;0.5412105;0.20040277;-1.2735014;-3.7027917;0.013978752;1.2424207;-1.3246459;0.8840443;0.09115807;-0.004995682;-1.0361418;2.697504;-1.4592128;-1.6635919;3.022892;-3.1300535;-0.25389394;0.3847286;-4.733097;-0.014941293;0.30771;0.59140015;-2.5132732;-0.3824876;0.031331122;3.9661336;0.018280994;-0.013940541;-0.018967824;0.001206898;2.1064034;-6.434351;-1.1551493;2.8159716;0.37538514;0.006475396;2.3542492;0.8776983;2.6439524;0.02324378;1.1792698;-0.053226903;-3.571151;0.006522266;2.624137;2.308986;-0.016522726;-0.006476136;-3.3837926;-1.493563;-0.01196234;-1.085586;-1.1467808;1.3725786;0.05229194;-2.463446;0.017846493;-0.67857546;-0.0062973616;-0.011041093;-0.021675743;-0.8694999;-0.25908408;0.68578625;0.35400587;-3.550942;2.1617975;0.45824176;3.381482;0.0013036928;1.6801379;1.6070157;-0.4346925;-0.26185453;-1.7438332;0.010211506;1.5641525;-2.0582118;0.02173432;-0.01305962;-0.018725973;-1.5754613;-3.2647922;0.027050212;-0.066000044;2.0605152;-0.8450728;-1.1841899;-3.4816997;-3.3254254;0.99668664;0.19140764;-2.7142289;-0.82550985;0.71015584;-0.024815379;0.0034598599;-1.9468956;-0.030637342;-0.1238899;-0.9179585;0.025971273;-0.9131358;1.1204463;-0.5157175;0.0071297353;0.8972302;-1.4059724;-1.5130167;0.09945184;-3.161604;-0.5159121;-1.4955841;0.013533064;0.02552098;-0.63911915;1.167507;0.74307656;-2.5865102;-1.4469084;0.8218698;1.0004885;0.4465198;0.12612185;1.1243119;0.7765544;2.4909847;0.025615547;-1.9557858;3.8353412;0.012411733;-0.03197265;-0.054803584;-0.8176327;0.05434269;0.8385321;0.0065869824;0.4323381;-0.004701229;3.95473;3.1355572;1.2245226;-2.3836079;0.083036736;-2.488669;-0.014174317;2.3842194;0.29513726;1.0642424;0.014278414;-0.546718;-0.087401636;0.0931833;-1.5807134;-3.717306;-1.4952512;-6.1355004;-0.76380724;1.5285271;0.03493193;-1.1353617;2.9689143;-5.0400376;-0.016578121;-0.18620907;0.032108173;-4.0522933;1.722919;-2.0434206;-0.2893551;0.023615101;0.021912407;-0.6375617;2.0940928;0.8746492;1.195951;-1.2048725;0.68842626;-0.5608655;-1.3797495;0.93738663;-2.4747658;-1.2971224;-0.20240471;0.8877573;0.92086256;0.01370893;1.9533033;0.7321667;-2.13131;1.0232446;0.7568896;-1.5508913;0.033790015;-4.538915;0.012901118;-0.3187144;1.2483728;0.025836652;-1.8309333;1.3046597;0.021029856;-5.313889;-0.04824291;-5.451477;-1.261831;-0.78159493;0.5752899;0.26297417;-0.494663;0.44003096;-2.8061404;1.1446136;-0.060344562;-3.6383853;1.4321234;-0.01991583;-3.3112571;1.342209;-0.05091896;0.040552795;0.5621209;0.936579;0.8969124;0.7211924;0.041985765;-1.8907963;-3.3743227;-1.2621435;-4.4986463;-0.22204283;-0.021639654;-10.384336;-2.4163353;-0.81907666;-0.64530843;0.9082893;-1.3287888;0.015720315;0.33900532;1.6752535;0.00024552364;0.8483083;0.46088174;0.011414286;-0.56643677;-0.0016795999;0.01156751;0.0772076;-2.7081573;-0.0029504644;3.6831667;0.031664513;-2.5440586;-0.10355239;-2.0933375;2.4681559;-0.4880998;-3.1969779;0.034746718;-1.8928579;-0.03207911;0.022720017;1.1142845;2.3482044;1.1913772;-0.248247;-0.9146592;-5.222725;1.6457847;-0.0046038497;0.06014313;-2.191409;0.037337225;0.30744264;-0.13667284;1.7609203;-0.014342209;-2.849843;-0.36599964;-0.913317;-3.170663;-1.8806036;-0.0027359554;0.7188999;0.020461826;0.033772185;-0.00482263;-0.8476468;1.6629747;0.035783283;-3.3930266;2.4354856;0.2786163;-0.027242402;0.81535596;-0.5554593;-0.006203312;-1.8125566;1.4600776;-0.014197885;-0.25032756;-1.2857597;-0.15801035;2.1774154;2.0550306;-0.0180917;-0.18431823;-1.205869;1.925084;-0.02246667;-1.069387;2.7465053;-0.0017776511;-3.437018;-0.0338831;2.2034469;-1.3025714;1.1484122;0.5470551;0.64762115;1.0567188;0.6509036;3.5581572;-0.26660296;-1.7433696;-0.19968998;-5.1126447;-2.466857;-0.025371471;-1.829409;2.449909;3.622534;0.049783994;-0.64391816;-3.003373;2.1745174;-0.27632013;-0.81411135;0.28263992;-0.6550235;-0.08625807;0.030279549;-0.0288868;-1.9981459;-1.0808723;-0.054394666;0.75697416;-1.2133183;0.7291567;-0.021287996;0.77171284;-0.3366578;-2.1644747;-0.02585291;0.0041447473;-0.024723304;-1.6032307;-4.4992466;0.027258953;0.50215095;-0.8595123;-11.153033;2.4042156;-2.4141693;0.006366196;1.4010515;-3.196466;0.011174745;-0.8407114;5.571171;0.04691563;-3.8882244;2.7027934;2.3263986;1.3763943;-1.284851;-0.0055057593;-5.3525677;-0.006691692;-0.060106043;0.27253428;2.8960683;0.7374946;2.5216796;1.1169561;0.044367667;-0.17724685;3.2676737;-1.6322933;0.07384561;-2.5412092;-0.03531852;1.5898492;1.0747541;2.690109;-4.1500163;0.78688526;-0.08537456;2.8877277;0.075715244;0.92944306;-4.7153373;-0.010238225;-0.026189068;2.9343908;-1.639403;0.91383386;0.066296645;0.78642344;-2.7773578;2.5572715;-0.9278952;0.6150603;0.015823653;0.046755634;3.0379748;0.30795583;-0.46509317;0.005800557;-0.017022913;-2.8431225;0.0497738;-4.675362;0.032872412;-0.00042042282;2.9990237;-2.25514;0.03891015;-0.15106519;0.010438947;-0.76993924;0.24120511;2.1920023;-1.3442236;-0.040428996;0.9978313;1.0719179;0.38162664;0.03473659;-2.1409636;-6.354982;-1.3549916;0.023300562;1.516878;0.007692274;-2.6573968;0.0013942225;-1.5814011;-2.8044693;0.20674849;0.4740918;0.16758588;-0.02609446;-1.9410213;-0.020329354;1.9994144;-1.4759718;1.6580687;-4.1433306;3.6557286;0.06515962;0.04342951;-0.0014064558;-0.011340905;-3.8302352;-0.3122548;1.482754;-0.00029332563;-0.04832972;-0.085580274;-0.7415324;2.6802456;0.28500342;-0.015801292;4.558709;-1.305859;2.5389102;-0.017617078;0.03694953;-1.0424974;-0.3238548;1.2530358;-2.2756069;-0.0138064725;1.5752143;0.016109029;-1.3566504;-0.17850687;-2.3332398;3.925551;0.61174136;2.8164084;0.36567187;-0.029291604;0.01833532;1.2424825
0.0443406;2.5931664;1.4302499;-0.009656833;0.900403;-1.6302491;0.045260347;-0.0059653376;0.7311633;1.2081851;0.020068847;-3.2643583;-0.7941747;-0.088600665;3.129429;0.006073905;1.3320286;1.0264555;0.010376365;-15.2909355;2.3442981;-0.022540286;-0.17169122;-0.39819974;-2.4015465;-0.0063927937;1.2172607;-6.9307866;0.44671762;3.207608;-6.2842155;-0.5693429;-1.9420711;0.8046493;-0.018310627;-0.08228984;6.0048504;2.229265;3.142907;1.4528096;-0.46919566;1.077002;-0.66353023;-1.8971882;0.037108283;-3.1881645;3.8769531;-6.108758;-2.5885582;0.005357069;0.41352096;-0.14912441;1.6387776;-5.7749844;0.38263303;0.735839;4.235427;3.111985;2.0581396;0.5365138;0.70669866;1.5853986;1.4686135;1.307954;-0.008474343;-0.0038103326;-1.1433188;-3.5549161;-5.334985;-0.02172135;-0.015134853;-1.9707555;-1.5131891;-0.44665718;-0.027256096;-0.0017253488;0.08202996;0.87195027;0.63867116;0.9242074;-0.22063796;0.6368762;-3.0225568;0.019146685;-1.6610878;0.12089079;-0.3920708;0.06960903;1.14117;-1.9103758;2.7669199;-0.6072024;-1.2444028;3.0646353;-2.0176814;0.2664094;0.12269822;-1.9601353;0.023519058;-1.4519525;-0.120325334;-2.1168375;0.9126397;-0.012263135;2.6905296;-0.016078228;0.04232492;0.06306609;0.0104938755;1.1538361;-4.245838;-0.24338916;2.0303135;0.10141203;-0.030290239;3.095928;-0.19798099;1.0762268;0.05082465;0.8280247;1.814052;-1.4101243;-0.022169411;1.2782269;-0.6911319;0.030437237;-0.005557092;-0.738522;-1.7132361;-0.034570627;-0.647179;-0.14882143;2.226298;0.6624155;-2.721231;-0.09361369;-1.5937506;-0.04744791;0.040337645;0.44070843;0.10540197;-1.2761016;-0.028181238;-0.20245756;-1.7765687;2.9128606;3.0285323;-0.13917573;0.023099301;1.4489492;2.4984128;-0.7846394;-0.09244494;-1.1437585;-0.032145772;-0.03696438;-2.6564698;-0.005079708;-0.09927821;0.008457711;-0.6662026;0.12705475;-0.024013748;0.036197506;0.8728521;-0.46365786;-0.22927673;-2.2408328;-2.8942642;0.91665417;0.23900335;-1.5175396;-0.009434696;0.5248762;0.0033520195;-0.0058975904;-1.7728761;-0.0024785663;0.29193214;-1.9818692;0.012116625;-1.7716862;0.82471925;1.9387183;0.01973249;-0.15579353;0.12686054;0.53955185;-0.20142075;-1.9591135;-3.0406435;-1.843675;-0.002223628;0.0060606636;-0.2283663;-1.0167923;-1.5529152;0.09382804;-1.6135795;0.8327695;0.11012726;1.4298434;1.9220041;1.2837279;1.5034891;-0.66782284;0.030295478;-0.6421326;2.092336;-0.039763317;0.070701055;0.5746441;-3.7720053;-0.007377002;-0.053590544;-0.0358399;0.92652684;-0.014365048;2.5110188;-0.1996368;-1.8553097;-1.4798667;1.2414974;2.4331264;0.026893822;-0.17696685;-0.040600765;-0.07482192;0.04126821;-2.3643315;0.49704757;-0.8105732;-0.09268671;-0.21929403;0.41404516;-5.6730337;-2.347739;1.5475003;-5.4932974e-05;-1.7130368;2.5930026;4.5379558;-0.0030405102;-0.8082204;-0.017255338;-3.8520033;3.6768422;-0.827913;0.2545418;0.025187999;-0.017581578;0.3494142;1.5412245;0.67587924;-1.9193394;-0.6396727;-0.29460493;-0.76343447;-0.6863895;1.1150594;-2.9001718;-1.9832637;-0.3032951;-0.22211936;2.754434;0.008944381;2.5996015;-0.0944185;0.32023484;-1.7848715;0.109730266;0.0078466935;-0.0041342294;2.0472705;0.021811778;-0.16161199;1.2439848;-0.027075697;-2.963895;0.5585811;-2.8366394;-3.5210986;0.03258097;-2.7433767;0.47216088;3.4056695;0.22607768;0.041768856;0.7805561;-0.09206369;-2.0926836;0.83711904;0.0014682794;-3.9575176;0.33554822;-0.026461108;-1.5948479;0.17161538;0.7550734;0.021563085;-0.25215855;0.20191556;-0.1723428;-1.2059209;0.012354234;-3.4576163;-3.4724996;-2.5542798;-1.3815321;-0.23756056;-0.13321906;-11.617478;-2.9730074;-4.7260156;2.6503522;-1.1604483;-0.34269822;-0.0048096115;3.0190911;-1.8385599;-0.027108494;0.84834415;0.15323363;0.19228609;-0.85691506;-0.0036246602;0.052027013;-0.0021302772;-3.3393626;0.008183301;1.781715;-0.029199949;-0.38640338;0.037134476;-4.228474;0.8629439;-1.2875649;-3.0262618;0.023382537;-0.20484771;0.02336182;-0.039433237;1.5703543;0.8289822;-0.72862387;1.1094278;1.5727918;-1.5834832;0.28515953;-0.0026621341;-0.025949582;-2.3214512;0.0057440125;0.6654079;0.73961115;0.2855371;-0.020165978;-1.4297838;-4.146695;-1.8430476;-0.8191892;0.16575202;-0.062276844;-2.0280795;0.036160987;0.044144496;0.033430126;1.8399822;1.2287761;0.3514552;-1.8796724;-0.5185123;0.9132407;-0.03997632;0.8449916;-0.08117275;0.026865674;-1.7752935;3.2771652;-0.012264978;1.3102342;-1.132861;-0.012377231;0.4894021;0.6749493;-0.041740485;0.5154641;-1.6081709;-0.3806286;0.011606128;-0.28839427;-0.17503454;0.013325477;-1.6542995;0.006823529;0.532786;-1.1062136;-1.7807157;-0.02503314;-0.16936217;1.3731513;-0.32996166;2.9533908;-3.6161723;1.8159091;3.991971;0.3321891;-3.9940534;0.03882262;-1.4734093;-1.5018148;0.556014;-0.020257033;0.5200573;-1.6629812;-0.8491462;-0.31535336;0.10483263;0.6935227;1.8092111;-0.025373602;0.005426419;0.0128752;-2.1640332;-0.019181224;0.027981155;2.7052288;-2.2434504;-0.4509098;0.024280248;0.14553967;-2.340184;-2.332975;-0.10243619;-0.012863148;0.044378996;-1.5994074;-6.21669;0.0042947577;0.30098626;0.9194192;-10.892862;-0.18583477;-0.2682597;0.003972269;1.13014;-0.927638;-0.01043399;-2.9046657;1.5401505;0.016804136;-0.6793928;1.320802;-2.8190238;0.55804604;-2.8071995;0.74498;-6.115076;-0.02162979;-0.034181435;0.913843;3.4119096;-0.22915477;2.579411;3.7997699;-0.022265762;-0.054686595;2.615426;0.19234228;0.06254074;2.072574;0.0036967127;-0.111739226;-2.423141;3.6879857;-1.9079452;1.3862865;0.8520329;-0.09056623;0.023867244;0.40529045;-3.8799322;0.0055045877;0.07622549;-2.1120186;-0.36259362;-0.18463506;-0.013200729;0.022734154;0.49891165;3.3471198;0.4132751;0.24006113;-0.03378203;0.030401776;1.7146264;1.8620044;0.83471113;-0.01086643;-0.05261561;0.19751109;0.010274783;0.1354;0.012827884;-0.010663335;1.1796271;-3.9840662;-0.014395087;-0.06938364;-0.011370879;1.2944545;-0.7339502;2.6675146;0.11819761;0.060926042;0.05400371;-1.0126547;-0.48405886;-0.004636998;-0.5533208;-6.2691154;-2.662734;0.00023060117;0.9577584;0.020504508;-4.320693;0.006762948;-1.1602571;-1.425559;-0.038145777;-0.29138184;-0.08188016;0.027510703;-4.067868;0.01710592;1.1031377;-1.2429163;0.2926633;-1.4993016;0.49059272;0.011913276;0.049767274;-0.14567086;-0.050033793;-1.7446668;-0.30882826;-1.0156468;-0.0025518083;0.024814872;1.3579507;-0.07854369;1.8522513;0.53963256;0.0064384313;0.09776292;0.7688064;-0.028816497;0.008629824;-0.038879175;-0.83806497;0.14597647;1.210044;-1.4819844;0.0031186722;1.3181489;-4.3290873;1.5778178;0.026763337;-1.3898269;-0.49179387;1.665321;0.09106313;0.028751025;-0.01838709;-0.0527491;-1.3719069
-0.021169359;-0.027502146;0.6620423;0.020954212;-0.21459061;-1.0724988;0.026925925;0.020336224;2.1950707;1.5071131;0.023907347;1.7486988;1.0558592;0.174346;1.1845033;0.009144604;1.2100456;0.7309805;0.030875636;-13.03707;1.3596547;0.02919413;-5.1962967;-1.7863358;-3.6076891;-2.1233292;-0.034501143;-5.5064063;-0.18207663;3.3627713;-4.9642754;-0.51673937;0.45343593;-1.2884117;0.0037549047;0.052645605;3.9361024;2.657037;-0.86216897;1.4002361;0.19740352;-1.2123784;2.2983332;2.8284342;0.02384192;-3.6034005;4.32619;-3.2330065;-2.3159788;0.010063293;0.63167757;0.4428903;1.1217049;-3.6433659;0.19244963;1.8109971;-0.20688227;-2.078116;1.209346;0.6819535;1.1544013;1.2670509;0.54359037;2.1329823;-0.0090354765;-0.012239751;-2.3903184;-3.3483;-7.0927024;0.0285033;-0.0038805725;-4.0659695;-2.2395778;1.99287;-0.05465207;0.052970905;0.020229604;2.036453;1.3277878;-2.030048;-0.7607684;-1.678363;-2.314946;0.036810674;-2.3558373;1.5302678;-0.6700039;-0.07726304;1.0230134;-0.7797797;2.7901049;1.7767092;1.1167794;0.43017972;-3.0198197;0.16146646;-5.865487;-2.8229392;-0.001725292;-4.190219;-0.70676726;-2.317341;1.8330543;0.019287957;-0.7339304;0.0125084175;-0.013634509;-0.027573075;-0.019028988;-0.74614626;-1.7060715;2.088365;1.7781478;0.021436011;-0.041504044;0.6624891;-0.06875666;2.0283496;-0.005979619;-0.010194936;1.1325525;0.30855563;0.026737152;-1.3269593;1.7136929;0.0024234948;0.025787534;-2.238406;-0.5593382;-0.0042987936;0.11303078;-1.2946652;3.130515;-0.10180263;-3.2688632;0.06300403;0.7793013;0.36717585;0.028022949;-0.16343002;-1.2190831;-1.1738274;-0.051135257;1.2252797;-1.8329608;4.593838;-0.54927623;-0.675112;0.00049337634;1.0254866;1.3847213;-0.3869719;0.85237026;-1.6960658;-0.0051280726;2.0598214;-1.7354434;-0.06818947;0.09010868;-0.0041303392;0.015081845;1.3428054;0.0065420456;0.08087503;0.18032826;-2.0358925;-0.99508554;-0.5600213;-5.282102;-1.5686026;0.88539374;-2.0743864;-0.4748543;1.4554787;0.027398413;0.0026830432;-1.2807024;0.05386922;-0.63673985;-2.6960974;0.018874386;-1.2016104;0.35959387;3.1653147;-0.0026398066;-0.10508057;2.7849183;0.20073745;2.5;0.24812004;2.338665;-1.8481908;-0.08756881;0.014127632;0.52192134;-2.0027633;0.107548825;0.23280999;-1.9002515;-0.3512938;-0.9914158;1.4839165;0.50315225;1.3746673;0.3800774;-1.7844869;-0.008208617;-2.9578772;4.127577;0.010081717;0.014906851;0.0058204946;1.6179055;-0.013289942;-0.064179294;0.025686389;1.4516374;-0.017996548;3.3164809;0.7757994;-0.5459358;-2.7054553;1.6149638;-2.0176373;0.0041228635;1.5543921;-0.10285294;-0.60302716;-0.024022283;-0.18933806;-0.09413994;1.6022028;2.4662645;-1.2007761;0.71685934;-5.595434;1.3725861;4.304812;0.058877714;-0.89790773;2.0405958;4.3414803;0.016001493;1.1307021;-0.020104818;-4.1609254;1.4820622;-3.653815;0.3835456;-0.020710655;-0.0046954746;-0.0330888;1.6233408;0.9831892;-1.8037046;-2.5589278;0.194574;-1.044773;-0.4746316;-0.244785;2.4226167;-0.41486865;1.3931819;-0.09877965;2.8908303;0.0029006202;0.47049588;-0.09866164;-0.8661422;-4.0265102;1.0241712;0.73611;-0.031053264;-0.2481596;-0.0066694054;0.336459;2.1537952;-0.0026489291;-4.328641;0.76761264;-2.616525;-3.277784;-0.007530726;-2.7945473;0.56624645;-0.35185096;-2.8073657;0.6829869;0.0065777292;2.720439;-2.382192;1.128635;-0.057488006;-4.076233;1.0396856;0.046131246;1.4897048;0.56058896;-0.0058357078;0.06577342;-1.4463516;-1.681109;-0.10113126;-1.5740161;0.10870576;2.6369865;-1.3850658;0.14283644;2.8637052;1.3619426;-1.8212136;-12.800261;-1.1610674;-2.640019;1.8244561;-0.101736456;0.5393901;-0.019747656;2.1106784;-0.5268745;-0.012015233;0.12094923;1.1041143;-0.053615272;-2.583785;0.033766657;-0.0066982713;-0.1212601;3.1429827;-0.014320129;3.2271745;-0.011941403;0.40988997;0.016412398;-2.0784793;-1.1693401;-2.2369368;-3.2598019;0.029910244;0.18431112;0.03215178;0.06667224;-0.2408418;2.138396;-2.0292645;1.8526697;0.6674206;-3.4431043;0.18257016;0.004700961;0.018885143;-2.1420135;0.043901462;0.18773785;0.59175724;-0.20889509;-0.015243773;-3.4603794;-1.4203342;-1.643715;-0.90365356;-1.1811635;-0.022663536;-0.7465322;0.04091713;0.036339123;-0.046665817;-2.941092;1.50876;-0.6471785;-2.5391178;0.40245968;-0.5955683;0.031456355;0.69616127;2.0798225;-0.02183571;-1.7424511;-0.27636912;-0.028619003;0.95781726;1.3360552;0.039833017;1.8118868;-1.6981719;0.036099177;-0.24274217;-2.230998;-0.6277112;-0.033959575;-2.07062;0.8970077;0.008669453;-2.3826213;-0.092105724;1.7386494;-0.055334214;-2.6775692;-0.019845318;0.027708171;0.99817765;-0.009731357;2.4352813;-2.439713;-1.3004627;2.3163948;-0.19347169;-9.699867;0.0020261146;-1.1028644;-2.0284214;-1.8449396;-0.0038516764;0.024198767;-2.612585;-4.443717;0.9412827;-0.42247987;-0.09563056;2.2288566;-0.07933894;-0.022470463;-0.008411641;-2.5503857;2.3024993;0.03640759;1.7637151;0.7887242;0.06256113;-0.006806005;1.1242067;-1.9802314;-3.2371325;0.5837139;0.28013867;-0.040561873;-1.6205816;-7.5712595;0.004230463;-0.9169096;-1.3257146;-10.424533;-3.245512;-3.504938;-0.0051192674;2.695048;-3.1474106;-0.039119076;-2.746534;2.0970976;0.02998251;-0.14197747;-1.7900931;-5.389232;-0.73969;-2.327636;-0.22710195;-4.4386945;0.065971844;-0.028603438;0.46543953;-1.5991093;-0.5052189;0.98499036;5.300329;0.10003962;0.14773963;2.8189971;-1.3157524;0.010378962;2.2307472;0.061887477;-0.7014562;1.8890556;-0.92606187;-1.2730113;-0.22728327;-0.10115765;-0.3667678;0.0065054134;0.4916678;-2.0558383;0.017147409;-0.037273984;-2.7208686;-0.4762219;-0.10605386;0.034692712;0.04819859;1.4843335;0.7052806;-0.37353015;2.0782945;-0.009432342;0.063610084;-4.3140984;1.5563056;0.30073458;-0.017107045;-0.0040706405;0.3995355;-0.00068778207;-3.1890206;-0.07799256;0.037825767;1.467712;0.023236316;0.028208792;-0.029718569;0.017954556;-1.7353702;-1.9100864;0.9544815;-0.6786278;-0.017267987;-0.72829133;0.90832967;-0.12655684;0.10342504;-2.8480973;-6.0231733;0.73080367;0.11500442;-1.4945016;-0.018795364;0.6763172;0.020420695;-1.0968553;-3.2932343;-1.071217;-0.35787025;0.33749875;-0.028051548;-2.1626494;-0.012525946;0.88658166;-1.4374236;1.1895047;-2.5719213;-0.5611664;-0.017274544;-0.008739779;1.0252026;0.012083929;-0.78388745;-4.3148246;0.11999796;0.02299228;0.008204335;-1.8603419;-3.179442;1.3599607;2.0575547;-0.07893468;0.28582177;1.5723729;-1.0953002;0.0013275602;-0.013027274;-1.2253747;1.5297987;1.5752114;-2.964432;-0.046894915;3.334091;-2.5203211;0.54026705;-0.004606545;0.6385177;-0.28643665;3.0858526;2.2805183;3.2155576;0.015734835;-0.0018479874;-0.7803755
0.05639764;-3.038817;1.1862595;0.059732974;0.013242478;-7.3435335;0.02041667;0.037306447;2.3348544;2.4555824;0.018947516;-1.9682634;-1.3152983;2.2585084;3.19432;0.063899145;1.2769041;-0.72555757;-0.022869438;-5.2961035;-0.13611908;-0.01675026;-2.6172805;-2.0041478;-1.9440366;-4.6260223;-1.8896614;-4.710921;-0.05409049;3.2820513;-9.149859;-1.5537226;0.18219168;1.2018746;-0.042217847;0.0042176503;1.4975803;3.8501177;-0.13601491;1.0258337;0.014858614;-1.7341467;0.78525037;-0.38802114;-0.0609391;-1.7001867;4.5201473;0.86692274;-3.7516243;0.103748895;-3.5275483;0.013475899;2.4208171;-5.288676;0.4637167;1.0030786;1.6513486;-1.2752086;3.146409;-0.99106807;0.30732444;2.3459132;0.6088808;1.4944443;0.013147136;-0.0160265;-2.0921073;-6.5262933;-0.2778889;-0.014707541;0.020758262;-4.5184183;-3.9798386;-0.18791136;0.026448682;-0.00041025187;-0.01571317;1.3300804;0.23003466;-1.3004575;-0.8632473;-1.7137734;2.8713744;0.028267303;1.0993114;1.2185518;-1.8375798;0.05003548;-0.05231246;-0.93128365;2.7050433;0.028426317;-0.2648593;-0.384816;-0.7925526;0.6889151;-13.221683;-5.253532;0.02655555;-2.863088;1.6129847;-2.3290648;1.0529112;-0.029318493;-1.8936965;0.017408976;-0.0023671298;0.19363645;0.06831021;0.6992004;-3.2317019;-0.13860314;1.5027369;0.9885231;-0.0767017;-1.423547;-0.060688708;4.027646;-0.09264702;1.2021784;1.0511713;0.028577039;0.048890244;2.5500634;0.31246912;0.05741555;0.04424355;-2.7223656;0.17694685;0.032223742;0.6195076;1.7535906;2.3221357;0.01533309;-1.0115834;0.01143485;4.2417984;-0.15883423;-0.00011239807;-0.03503603;-2.1976507;0.10619615;-0.0067198705;0.101414636;-1.6112014;2.6865175;2.2695596;0.6991001;0.0013835466;-1.4898336;-1.547642;-1.9423827;-0.21746267;-1.3977866;0.023958879;2.2596574;-1.9018942;0.017218193;-0.02676251;-0.03748958;0.72197664;0.7228183;-0.040079802;0.014251582;0.17106809;-1.7615036;0.2621092;-0.18707158;-1.9218737;-0.62123156;1.6404417;-1.7344879;-0.95841473;1.3175852;-0.007687765;0.027020816;0.5899013;-0.038563777;-1.4988883;-0.18607166;-0.0013799141;-1.9169936;0.4558814;-0.6714554;0.024630988;-0.01853274;2.4321134;-0.9277042;-1.6342078;-2.2911522;0.8453002;-1.1123327;0.43271416;0.03321967;1.3777726;-2.0408;2.0734332;-0.69247913;-1.7723743;-0.21801673;2.2670226;0.5708505;-0.88002443;0.30112284;1.1036901;-0.46946424;0.04673466;2.428451;-1.804164;-0.004222146;-0.03333126;0.010231587;1.6311305;0.06000934;0.016193422;0.0004563815;-1.5702881;0.07286695;3.6221547;1.6636776;1.1549972;-5.0728397;-0.9296432;-0.08121285;-0.0046581826;0.69006234;0.0067362497;-0.8121609;0.04826372;4.1535506;0.1209204;1.3551605;1.8644085;0.2611352;1.1629144;-3.6841543;0.040206954;2.302591;0.05565879;-0.84437805;1.701552;2.2615035;0.059216645;1.3044838;0.04447931;-3.4363153;0.88380885;1.1631697;1.850458;0.077289015;0.00872285;0.2790603;0.84383076;-0.19553606;-4.527696;0.58197296;0.016291179;0.7140597;-1.2205846;-0.46357018;0.84949714;-2.0023067;2.0493557;-0.01974989;3.480491;-0.011933986;-1.100394;-0.0023302552;-0.8642899;-3.6546729;0.79523516;0.8335444;-0.0124180475;1.490091;-0.040403374;-0.21151884;-0.096055605;0.0014425544;-4.55276;0.8815685;-0.12378842;0.14495148;0.041429624;-1.4514565;2.6844819;-1.1083013;-0.41853595;1.8125352;-0.13415822;1.0776737;-0.92127585;1.0595627;0.0011863394;-2.9720805;3.2320783;0.0297904;0.8826839;2.5125923;-0.13321336;0.012327065;-0.94897157;0.5638701;-0.0247403;-0.33780998;-0.04490173;-5.512921;0.3507626;-1.2808993;1.9781251;0.711167;-2.8507612;-12.35615;-0.47916657;0.60968244;-0.8604226;-1.471266;-4.7468615;0.04402427;1.8672274;4.2059574;0.015186294;0.5175705;2.0874338;-0.027311493;0.12589651;-0.0242207;-0.0011100625;0.38906172;-0.41968694;0.009940555;0.5705054;0.0071552563;2.9044168;-0.017720524;-3.8931677;-1.1563685;-2.5770195;-3.040875;0.026433468;-1.8277454;0.0046547055;0.049870804;-0.16351026;-1.6133125;-1.5870748;-0.2826905;-0.11925528;-2.6802633;1.9861203;-0.00045857497;0.014312843;-3.563102;-0.018123843;0.39845774;-1.0335003;1.2129472;0.07684445;-4.2198358;0.6046715;-2.64105;2.4450939;-0.22683527;0.036436573;0.07435324;0.032094527;-0.014255612;-0.0051662964;-1.1978116;-0.29021153;1.136377;-0.80864143;-2.215701;-1.3539549;-0.012158571;0.9708761;0.14346197;0.012485789;-1.3015546;-2.0615816;-0.004773084;0.19154955;1.5627887;0.033811904;1.5046115;-3.8901443;0.08158501;0.0619712;-0.6861763;-1.513794;-0.07526814;-2.7878065;1.7072893;-0.018742895;-1.3407015;0.45445383;1.0084497;-1.9808124;-2.843165;0.0203231;-0.032673504;1.2714046;0.30661955;2.7326918;-0.024722226;-0.31978014;-1.0405596;-1.2927967;-8.263465;-0.058118008;0.55912566;-0.10808104;-2.6858623;0.024463221;-3.864199;-1.1497389;-2.9566903;2.2034693;-4.1761193;-0.032774527;3.0105321;0.7164654;0.017433785;0.0035253186;1.3004761;0.5494304;-0.017135466;-1.3949187;2.4534967;-0.7009833;-0.023941321;1.112965;-0.6217114;-3.307935;0.24492987;-0.06414942;0.075406365;-0.5990083;-2.9618595;-0.024820408;0.5067541;-0.37370422;-11.415517;-7.3257337;-0.66400594;0.10364051;2.4219706;-3.371459;-0.021310696;1.1248702;0.17641169;0.02617332;2.7519433;0.58589196;-4.1170793;-1.248526;-1.3633251;-0.1845676;-1.5967813;-0.036321122;-0.004527104;-4.997521;2.1366408;0.11328667;0.8779331;3.186129;0.004700135;0.12963751;2.2717557;-1.9127306;-0.018599233;0.95390385;0.02724191;2.9500806;2.0782158;1.7036707;-4.7920938;0.60481447;-0.020600813;-0.7333124;0.014734402;2.281316;-3.2828119;0.004581114;0.022417579;0.9460253;1.9240793;-0.054677177;-0.011322446;-1.2863915;2.6345487;1.7363046;-3.2988179;-0.22282436;0.013477767;0.03647343;-1.036211;0.49625564;-0.28511754;-0.010399037;-0.06616434;0.08837776;0.04974838;-2.2030113;0.06689944;-0.05276555;2.3965447;0.61778945;-0.04764233;-0.024986738;0.00465778;-1.8289883;-1.3926371;-1.407447;-1.7753738;0.036161862;-0.27243432;-0.33608824;3.6032774;0.009682591;-4.449079;-6.3763456;0.8408625;0.028830938;-1.9133701;0.00879748;0.1275276;0.03414811;-1.2074707;-0.15913007;-3.8056436;1.063626;-1.022307;0.032009605;0.48510882;-0.027163696;2.9776874;-2.0168025;1.4782226;-2.7732801;-3.1301486;0.044475954;0.032397527;-0.20379621;0.05766963;-0.870366;-1.7646894;-2.177119;0.013369758;0.034910187;0.34994385;-3.6166651;1.8065075;0.35135376;0.06717321;1.2696784;-0.07846949;3.0601432;0.031583697;0.014503661;-1.2295587;2.8397317;2.9763715;-1.3895895;0.07179003;0.9364821;0.69988066;2.290743;0.03524691;-0.20830852;-0.5878073;-1.30312;5.6097355;0.85351604;0.036614403;-0.0027598846;-5.1160064
-0.0046078796;-3.4753673;2.3954258;0.0061974647;-0.038716435;-4.4357467;0.01574523;0.052317124;2.1210237;1.0373392;-0.023003055;-0.35556245;-0.7170908;0.69234204;2.3083432;0.022180378;1.0990748;-3.4285977;0.0035302697;0.2926963;-2.533772;0.0081903245;-1.8572946;-1.141093;1.8297838;-4.6304913;-2.969836;-4.4122753;0.022930002;2.8502831;-7.7077727;2.7166073;1.3193334;-0.8274422;0.018974502;-0.013198193;-0.53058535;5.8489256;-0.047516007;0.76234627;0.21876879;0.984775;-4.2701573;2.0479589;0.021655133;-0.35829103;4.7392197;2.2122622;-3.6662335;-0.03626595;-4.2676096;-0.05920537;2.3074293;-6.1111946;0.13084528;1.3361115;-0.8716684;-3.313896;3.8768747;-0.69559103;0.4182114;2.3114517;0.65486234;0.7385237;0.0043366556;-0.005715581;-1.8714433;-5.664652;-1.8652025;-0.0091904355;0.009595454;-3.4235945;-4.1237974;-1.465227;0.0062452573;0.0046503483;-0.04580253;1.2011995;0.6346945;1.9240196;-0.7348049;-0.41971102;3.1201484;-0.016351465;0.7376142;1.082441;-1.9878671;0.01617181;2.5658267;2.153307;2.6347952;0.99095356;0.049161363;-1.2068634;-1.9306229;0.42181733;-16.12452;-5.799532;-0.04306242;-5.0715804;1.8262498;-1.7212148;1.0397999;-0.022568593;-1.232848;-0.044909503;0.00042925114;-0.039762735;-0.012992931;1.4062861;0.7743368;2.1894138;2.5815656;-0.7390654;-0.09430532;-3.9189734;0.06694594;0.31080908;0.07950737;2.6649277;2.307703;2.27739;-0.003674627;0.76019114;-1.5952837;-0.019377168;0.03379005;-4.4357486;-2.4949756;-0.039140597;0.26301953;-0.013315283;3.7957551;-0.05862455;-0.5387955;0.022560313;1.390633;-0.03589976;-0.0557546;-0.026271207;-1.3256153;0.59598565;0.039816506;1.0661085;-1.8984288;-1.4348707;-2.043686;-0.18975769;0.011176323;-0.1036725;-5.6145277;-1.6958392;-0.008306978;-1.0843619;0.023773298;-2.0886998;-2.3505273;-0.03711946;-0.06531817;0.025500407;1.0393671;-1.7427138;-0.02143861;0.03215693;0.38655582;-2.2819111;-1.2386448;-1.8551645;-3.1524296;0.2687666;0.91575164;-0.9911983;-0.59629893;0.75245243;0.036746826;-0.03096192;0.62124413;0.014932704;-2.627988;1.0929924;-0.066675276;0.5412783;0.48512003;-1.7017246;-0.026561474;-0.0076976246;1.5730816;-1.8079833;0.9248057;-1.3615152;-1.2458189;-0.9369338;-0.10288123;0.00406378;0.80077565;-1.6344508;2.0975351;0.81455153;-1.5239955;-0.5869525;2.3291686;2.0871809;0.3296034;-2.987364;-0.15834257;0.35965165;0.019708928;1.0569342;2.663457;-0.0266189;-0.05651575;-0.0860349;-0.8782347;-0.03422441;0.037483644;0.013767368;1.4733847;-0.019706516;4.1540008;4.2870617;0.2705604;-4.7344394;-0.72054803;-2.1158428;0.019811291;0.4121271;0.03407719;-1.2569629;-0.0060808966;2.7744443;-0.043729197;-3.3953884;4.111456;0.48782668;-3.4995172;-0.7410498;2.2647386;1.7721851;0.024440672;2.0575233;1.6921564;-0.6327504;-0.025255062;1.9457031;0.007651389;-4.1924467;0.56974024;-2.9793723;-3.1515164;-0.015075183;0.0035672463;-0.6547015;0.120413125;-0.6228837;-0.61928374;-0.043914717;0.059224535;0.62662005;-0.8839276;4.8753715;1.5688024;-3.5889297;2.1811757;-0.0044217217;2.5269177;0.041005846;0.052798048;-0.001034373;-1.1401006;-0.31672245;-1.080589;-1.2839702;0.013462832;-1.4329717;-0.0069644754;-0.10334472;-0.6012929;0.0037057379;-3.1443946;2.5269456;-1.3770514;1.2530674;-0.037801187;2.5862262;1.8419842;-0.8623978;-0.4556083;2.100166;1.3178327;-1.0238243;1.6808462;0.95797616;0.023889339;-1.6552154;3.6206775;0.04435803;2.260412;0.36409986;-0.03439086;-0.04741745;-0.62463444;2.9925282;0.042608965;-1.3872048;0.034479156;-9.529869;0.8176808;-0.4909977;-1.9221365;0.16637243;-0.5635923;-13.933211;1.4161282;-3.0135832;-1.5274016;0.10987305;-4.6265397;0.018971983;2.5769336;2.0468326;0.038475726;0.11316608;-0.055646602;-0.009309887;-0.0558682;-0.010181134;0.0026218733;-0.19459909;1.1346173;0.009833522;1.8997319;-0.025231661;1.4519006;-0.05072825;-2.719755;-0.011073069;-0.85141414;-2.9802952;0.0051565114;0.37582943;-0.01788735;-0.010234181;-2.070676;-2.336111;3.0824537;-2.3128405;-3.0566678;-4.256218;1.5438626;-0.05658087;0.006584039;-2.9753585;-0.0122398315;-0.00082591065;-2.534032;-0.35183048;-0.014607703;-4.782598;2.0347438;-5.677633;1.9741771;-1.6182756;0.012005417;-1.4070101;0.055609178;-0.049858328;0.048329692;-0.7324355;0.28293917;-0.61409616;0.24345641;-1.5054215;0.7220802;0.0294665;2.1425762;1.5992022;-0.025157325;-1.2067235;-0.38709387;-0.048282772;0.13008131;0.18457727;-0.031952806;0.9849779;-4.1826916;-0.06860011;0.009950517;0.34294328;-0.37992403;0.033202734;0.020809792;0.24196784;-0.02477527;-2.3016071;-0.19080731;0.64831793;-4.624721;-1.278695;-0.0097094765;-0.05369119;1.1142403;-1.7429934;3.2989938;0.37671062;0.40646017;-1.1586858;0.35352638;-6.7681017;0.02349761;-1.8227592;-1.5882761;-4.7829013;-0.020920618;-1.7305766;3.5991518;-0.72491354;3.3335629;-1.124298;0.12787834;0.3744282;-0.21018371;-0.010922181;0.01076237;-0.4862996;1.3005469;0.043151163;-2.4936016;1.0868258;1.1799276;-0.023029437;1.7052113;-3.2075467;-2.1115258;-0.12569761;-0.008558592;0.0003547357;-1.758209;-4.27506;0.04780042;0.5670804;0.27171904;-12.764635;-7.8586416;2.2967236;-0.020890225;2.4998622;-3.8295362;0.000706921;-0.6611238;2.065868;0.015162771;1.8237123;2.1717508;0.40081334;1.1524909;0.7245013;0.47529635;-1.3671223;-0.032294273;0.011273038;-1.0976745;1.129025;1.0087264;-4.806098;1.7859986;-0.006287471;0.12343852;1.9667857;-1.9040561;0.024010494;1.5044109;-0.0199382;-0.87203974;3.3376908;0.98078036;-2.1782167;1.876143;-0.07201622;2.1419117;0.0074565513;0.36598063;-0.115027174;0.00038660486;-0.025325403;1.0558041;2.8194327;0.025509356;0.021592611;1.7433791;-2.1100402;-0.5380994;-2.2297418;0.17413607;-0.0078039216;-0.02631977;2.6622283;-0.48309246;-2.0257087;0.0058168955;0.028117545;0.8937918;-0.07992402;1.4845614;-0.03578413;-0.027223874;1.396768;2.5890071;-0.024681078;-0.010901755;-0.034654364;-4.6262302;0.42772666;-1.2706753;-2.1675434;0.03977811;-1.0002193;1.3697811;3.4878507;0.008649867;-5.3376684;-7.4158945;-0.29019946;-0.04274555;-2.3320448;0.008725507;0.5729415;0.028047021;-1.1127385;-4.4781036;-1.9818414;3.000721;-0.05198168;-0.0053102747;0.5579344;0.018611107;1.7341175;-2.583569;-0.23280509;-4.0355353;-4.049676;-0.0022052524;-0.006724879;-0.09714842;-0.016439037;-0.35138652;-2.5125847;-2.8103158;0.0312104;-0.01026772;-0.431601;-8.506198;1.2933468;1.2759209;0.03842488;0.29422188;-1.158338;1.2402478;0.015843803;0.06106825;-0.8601964;-1.6957201;2.0794754;-1.705843;-0.018295234;-5.750364;4.126441;-0.48522502;0.025932886;0.3747853;3.7300582;-0.40845552;1.4544395;-0.55396664;1.6508375e-05;0.004356115;0.2677062
-0.013421051;0.0042898273;0.9332992;0.071366146;-0.036916055;-2.5108435;-0.0387918;0.007119689;2.1088338;0.73840714;-0.0060280575;0.8168171;1.138787;-0.535524;1.7578552;0.024249664;1.750474;0.14161152;0.039580844;0.18096691;-1.4940696;0.015014171;-1.1212115;-2.8767583;-0.46725154;-4.3681436;-3.3703651;0.054329015;0.045033;3.1679578;-5.4009132;-0.13334669;2.502119;-2.0205958;-0.044295076;-0.0525138;-0.44179907;3.751858;0.47081125;0.44210052;-0.077465005;0.2101168;-2.5438309;2.1130865;-0.0024990651;0.14769876;4.9090824;1.0921795;-4.6230493;0.0023961589;-3.4812217;-0.025774468;0.20516206;-5.842344;-1.5712836;1.5299368;1.7963214;-4.3150826;0.92736727;-0.29952174;-1.6471068;1.6593726;5.414302;0.6266637;0.019517783;0.06261149;-3.1907847;-5.727279;0.84716636;-0.02579134;0.033230137;-2.7791443;1.3714507;0.30759248;-0.0129065905;0.048684373;0.010575869;2.3919325;-1.6198378;1.8890857;-0.1436941;4.7589;4.3568435;0.03869892;-2.0680728;-0.8118086;-4.5262666;-0.020216607;1.7243626;0.96843696;2.7455778;0.7627089;-1.4553835;0.06337448;0.8894237;0.5842842;-16.420898;-5.5420237;0.033245575;-3.3552942;-0.12754133;-1.0319592;-0.00965332;-0.030976046;-3.530602;0.057522386;-0.051028714;0.019607775;0.040925894;1.2826731;3.3939595;-1.4252341;2.6917617;-1.6756263;-0.107874654;-4.2441263;0.009491948;0.15009436;-0.02471014;3.2143679;0.986651;2.7141485;-0.005342583;-0.9887585;-4.6381083;-0.034781933;0.043370906;-7.4209366;-1.7647294;-0.011381836;-1.225783;2.1429741;2.9764364;0.01392267;0.20599073;-0.023048157;1.7037264;-0.056333095;0.0023234235;0.032953285;-0.58291864;0.16288953;0.0011381124;-1.1846857;-4.174526;0.73222315;0.16197152;1.325121;-0.020761343;-3.4702997;-2.7489653;1.4667268;-0.15788761;-1.6221788;0.039524786;0.0845509;-1.6496246;-0.06277748;0.019955045;0.044626947;0.84700906;-2.7410069;-0.035998184;-0.0050159264;2.1064067;-1.6145728;-3.542085;0.5800081;1.0058503;0.27227578;1.3252168;0.49273148;-1.7574447;1.6322736;0.055822514;0.008316351;-1.133464;0.03706189;-4.6185994;1.8727742;0.012987957;0.26977897;1.6248007;-3.3100355;-0.019784113;-0.00065736;0.33126596;0.39558232;-2.9547715;1.3156773;2.7842155;-0.7644099;0.007953831;0.040097903;0.66336286;-4.130027;2.588207;2.5281837;-1.609753;1.317834;0.05796209;3.2073805;0.8862253;-2.6011946;-1.0289412;0.1176133;0.034830067;2.686592;-4.7001224;0.014484816;0.0120314285;0.044516068;-0.93799657;0.013265717;0.0028211246;0.028685354;-2.3340228;0.022220932;2.598508;0.04478554;-1.6620462;-2.6504698;-3.0856433;-1.1637787;-0.06441564;0.12684819;-0.008773918;1.5451274;0.046362292;-0.222283;0.000996922;-2.5735881;1.0396218;-0.12631097;-3.9989762;-2.8248405;2.5334177;-0.1444196;0.014285644;2.660767;1.1301078;-2.7931042;0.018434662;0.9571944;-0.06318762;-1.5111908;3.7105625;-1.1532384;-1.5628028;-0.030056968;-0.035741888;-1.1513507;-0.58628136;-0.2828056;-4.4205384;1.5064284;1.0217526;0.010365104;1.8348484;-1.4314445;1.8897859;-0.78531337;4.0399227;-0.006652935;1.724785;0.04044222;4.791932;-0.00596223;0.16801123;1.1121949;4.443311;-3.532777;0.031235594;3.0346274;0.03981389;-0.05929725;-0.9733461;0.009230634;-3.7995782;2.2076118;-3.0107577;1.2982872;0.004593495;0.9422001;0.6976461;-2.7882717;1.3824155;3.1770253;0.080159165;1.9071717;-0.79107356;-0.010655116;-0.010140138;-3.4004955;3.8148932;0.02033123;3.6699955;-1.3678931;-0.020087788;0.030622244;-1.0388308;1.1775132;0.00040340147;-0.27840424;0.0127238585;-8.743853;-0.7207741;-0.90624803;-4.014535;-0.09602977;1.3044903;-14.603764;0.5019919;-2.234094;-0.61651796;1.1998471;-3.1683857;-0.020089054;3.4867501;0.42815712;-0.044806715;-0.80407834;0.26326317;0.0013138223;-4.4761043;-0.005430076;0.023563314;-0.015191611;0.5764035;-0.02025661;4.1995554;-0.01695742;0.19878976;-0.016986119;-3.7289574;2.6729624;-2.5651298;-2.2589073;-0.0009311884;-2.5819066;0.05572822;-0.034001213;0.7488483;0.13679056;3.8773363;-5.2480497;-0.8885085;-3.8760633;-0.33878577;0.030207593;0.016719699;-3.0722651;0.015057444;-2.803151;1.0277606;-0.8796583;-0.015132349;-1.8751774;-0.90009785;-8.511076;-2.3078268;-1.0027912;-0.009971854;-0.28131914;-0.041164465;0.06718171;-0.014575833;1.284594;1.4544948;1.7942109;-3.2244134;0.33073062;0.5243308;0.032047138;1.6202015;-0.95064276;-0.019284653;-1.0129427;0.8795127;-0.034355316;0.2519367;-1.5406052;-0.064785965;0.96847016;-0.8186119;0.014087105;-0.10756504;-1.3910958;0.7003995;0.0068813367;1.1787778;-0.1887015;0.011022277;-2.93605;-0.003511325;1.4411584;-6.4712796;-2.6544025;0.018128304;0.02522761;-0.26402447;1.3576173;2.1571631;-5.16216;4.0330305;-0.89252776;2.338088;-7.285965;-0.0050142384;-1.4658327;-1.9707297;-6.255995;-0.028026767;1.345131;0.9843358;-0.5190155;-1.5933119;-0.87512034;0.76097226;0.76719147;-0.023895113;0.028561812;-0.011098749;2.8685327;-0.19148092;0.010331788;-3.8551023;2.1337235;-0.8663813;0.011541131;2.0009658;-3.267132;-1.3668936;0.030905025;-0.018195534;0.06895243;0.46258906;-2.1882114;0.026784241;-0.16417383;2.7237864;-13.393689;-3.78767;-1.75909;-0.028184105;1.7413021;-5.691679;-0.023665292;2.0952847;1.9599154;0.027634244;0.18516399;1.0375453;-0.61001205;3.0564508;-1.5282156;0.2768034;-3.1416197;-0.0013304459;-0.007162003;-0.42678347;-2.9292486;0.5113417;-1.9563835;0.32911658;0.0040001525;0.050146952;1.677616;1.8013535;-0.025899857;-0.107840255;0.12702036;-3.852093;4.6864796;-1.5428579;-0.6742548;2.3205366;-0.02345409;-0.18935435;0.028433226;-0.8986713;0.08591771;0.034209814;0.027856756;-2.381187;0.622784;-0.009532493;-0.00029348224;-0.6790304;-2.6506014;-2.0524905;1.2223144;0.30962723;0.03907056;0.057208188;2.9288874;1.1579254;-4.790402;-0.033347957;-0.0020607975;0.24518223;0.07225302;-3.235225;-0.06308558;-0.02175337;4.41573;-1.6167301;0.06534429;0.06453297;0.007758992;-5.576208;-1.9678886;-0.7286702;-0.8254019;0.028271006;-1.1887844;1.058558;0.14928451;0.04937165;-5.30549;-8.060713;-0.8679831;0.014580701;-3.0196435;0.0059988406;0.20177399;-0.032801654;-0.5092173;2.194356;-2.4706306;4.0570736;2.3887916;0.08447849;-2.259356;0.030726422;-0.28897908;-2.810163;-1.0792669;-0.82049894;-1.5663416;-0.020493785;0.007245878;0.009380974;0.03574205;-0.042305928;-4.7867584;-1.322269;-0.036123518;-0.035064224;-1.2198046;-7.0376425;-1.2248588;0.31065398;0.022100415;0.3327982;-0.78274864;0.81376433;0.04700503;-0.042872958;-0.80679786;-0.5348478;1.923442;0.30043054;0.026353488;-2.6604877;0.523541;0.89003754;0.02043199;1.9817111;1.9874338;0.029009575;0.7303055;1.9688385;0.023818446;-0.0036046833;-0.7664785
0.025692018;-0.78252494;1.355363;0.016265625;-0.004997613;-1.7467929;-0.07420933;0.009135238;1.7038752;0.51149803;-0.022356275;-2.5766532;1.4744548;0.7652363;0.1390823;0.01630039;-0.05084463;-0.1041578;0.024657201;-0.2592377;1.6963506;-0.034128387;-3.3706176;-0.689283;0.3956423;2.8836577;4.6112604;2.781382;-0.15081924;3.7337375;-4.312966;0.94569755;-0.6607797;-5.712845;-0.03247041;0.005527497;2.9130363;3.149359;-0.570462;0.26876825;0.1780235;1.890654;-2.6737714;2.4287608;-0.03335241;-3.1810079;4.6937466;0.45452628;-3.1179965;0.04797236;2.349525;0.0398483;0.0001982871;-4.1957583;0.9866547;3.9214349;-2.3085365;-4.042515;2.9945998;-0.8249558;-1.73715;-0.4773061;-1.0388851;-0.14709237;-0.040927142;-0.021975573;-2.043605;-3.7133;2.8955622;0.016783783;0.004614416;-2.6327388;-0.9812161;-2.6408226;0.042889785;0.015760045;0.046389487;1.8019615;-0.74701834;1.9933492;-0.9659337;-0.58953524;3.6942384;-0.015003224;1.1716646;3.9820151;-6.855709;-0.05414935;2.9564703;1.0792172;2.9055252;3.9465022;-0.33654597;-0.3269006;1.7376003;0.27033877;-16.822233;-7.343603;-0.03843044;0.4100518;0.35397542;-2.7852805;0.25927836;0.0340288;-0.018537382;-0.051873628;-0.014331038;-0.005534847;-0.0232692;1.8096222;-0.10379714;-1.2280138;4.0874043;-0.3933966;0.7843048;-3.1062572;0.007371281;-2.1319141;-0.027914908;0.7035715;1.4278045;2.6283336;-0.034247186;-0.2861916;-1.3110464;-0.024441967;0.025788993;-8.053721;-3.1236727;-0.03605223;-3.3431723;1.3000352;2.7655346;-0.0060664234;-0.69080544;0.0062739574;0.92543334;0.015747344;-0.010770026;-0.0062386813;1.3875594;-0.39981285;0.0020109273;-0.40264255;-3.164983;-2.2215323;0.35876313;-2.5879502;-0.071641065;-1.5172049;-2.855977;0.1357506;-0.052495655;-1.8057861;-0.007120284;-0.64193684;-1.9131515;-0.099709004;-0.04052324;0.0069242646;0.4093505;-0.64788985;-0.0072358306;-0.011022029;1.5250853;-1.2105566;2.2445056;2.4675796;-0.67063284;2.0105605;-0.26333454;0.30698285;-0.6992688;1.9611266;-0.044948984;0.018656183;-1.2372515;-0.034576286;-7.032426;2.7246194;-0.009610575;-1.2515922;2.102211;-1.1638784;-0.024017323;0.033383235;-0.03527223;0.7170181;-1.9167143;0.838452;1.045758;-0.41958827;-0.021469537;-0.009736096;-1.454983;-4.730388;0.310365;2.0483413;-1.9698848;2.4290473;0.838612;2.8053858;-1.5507196;-0.96038896;-1.6277144;1.004325;0.04772671;2.656748;-5.651276;0.040700912;-0.008911525;-0.042357907;0.8212921;-0.029532935;0.017317314;-0.0021092019;3.4053237;-0.016035734;3.0077333;-0.8540814;1.3218058;-3.5809429;-0.8000524;0.4502104;-0.0012919689;-0.27348158;0.061748855;-1.8787551;-0.011050082;-0.77831954;0.017669868;-0.9399591;1.6729523;0.05086329;-1.9759008;-3.7776778;2.1863143;0.43908173;-0.02842489;-1.0697447;-0.50625765;-2.663914;0.02680315;1.1004878;-0.010196257;0.01736994;1.0181253;0.9311873;-1.6065509;0.04146684;0.017936867;0.8786253;-0.4004093;-1.079271;-2.5958095;-0.9518786;0.36994436;-2.8225985;0.09250725;2.9610689;-0.6219545;-1.7120878;5.0933475;0.016203346;1.2470945;0.00059406034;-0.76077455;-0.04329342;2.0645893;-2.846614;-1.0332217;-4.038285;-0.020284792;-0.23011127;-0.02933103;0.20005846;0.43263388;-0.0070426133;-1.5902605;-2.4051528;-0.57016045;-0.42160174;-0.026198402;-0.018062301;2.0905135;-2.258212;2.486515;1.5337341;0.33313942;1.8706471;1.5481324;0.47201452;0.0077055255;-1.4749266;1.0017116;-0.015064232;3.5849257;-1.9709315;-0.05423186;0.019670581;-1.1076636;-1.1192143;-0.029437674;1.5616264;0.0025486776;-7.484409;-2.4139795;0.42985243;-2.9825144;-0.28614768;0.833979;-14.461444;-0.93833256;0.7916323;5.7853174;-0.407175;-1.4809544;0.005800564;2.4617085;2.318875;-0.0075610136;-1.0495317;-0.08560571;-0.004872455;-3.7202284;0.014158014;0.047290787;-0.039940555;0.24449304;-0.05216819;1.3408117;-0.012792035;3.6583455;0.021473069;0.6153362;2.6758618;-2.1828687;-2.2097487;-0.018692719;0.08439554;-0.025537854;0.0120590925;0.5689618;1.9655402;2.7379522;-2.299505;0.5710242;-3.0754898;0.71847415;-0.018516252;0.00328217;-1.0498343;0.01869779;-1.1341059;1.117238;-0.2913218;-0.029135734;-1.9657292;3.780977;-4.6283455;-1.240694;0.06739635;-0.030785995;3.7312665;-0.0247067;-0.03855928;-0.02326912;-0.56150806;-1.1318585;1.7390463;-5.6883283;-2.9295714;-0.41202903;0.0016731278;2.016925;-7.650555;-0.011159212;-1.0855155;1.2229295;-0.13747689;1.420227;1.7787192;-0.07527186;1.5102355;-0.12735994;0.0019578198;0.057104174;2.7824926;1.6103123;-0.020485835;-2.3185735;0.5942236;0.0024790182;-2.0873654;-0.06252826;-0.7978045;-3.3130527;-0.8651381;0.0028338397;-0.031593446;-0.13213786;0.11927234;0.662898;-1.4553319;3.568965;-2.972977;0.9576748;-9.974605;0.0014270601;-1.6880455;-3.2118347;-2.9260216;0.010485695;-0.06904517;1.4764411;0.49772286;-0.39699906;-0.24605748;-2.9879541;-0.7374295;-0.005134385;0.0049615214;0.0024170813;1.5174882;-0.9892878;0.028334301;-1.0865849;4.3900123;-2.5556135;-0.019649908;-0.23949663;-4.418939;-2.5707421;-0.055244647;0.027195074;-0.10254673;-1.4760929;-2.7529936;-0.024734579;0.66146183;-0.060358714;-13.058489;-6.0783324;-0.42828214;0.03830345;2.2526538;-2.4156072;-0.047607623;3.7507384;3.9334855;-0.030254887;3.8748403;3.011696;-2.1476512;1.632393;-1.0920597;1.5944817;2.8216367;-0.033888847;-0.006468639;-1.3323414;-6.3681936;0.30336952;-0.5545803;-6.352755;-0.0070590973;0.13332994;2.7825105;-0.33735842;0.022153467;0.6710226;0.031977355;-1.2527419;2.6315231;-5.1008573;-0.22156945;0.803659;-0.028077634;-2.659764;-0.024986442;-3.8497286;-2.5933058;0.010418061;-0.0101306075;-2.3955202;1.6255391;-0.027815316;0.08673457;-0.6691878;-2.377864;0.17179355;0.32897857;0.2553798;0.015119891;-0.003305497;2.5863261;1.347522;-2.9465308;0.025180299;-0.030241003;-1.4094632;0.010903758;-0.020401003;0.035790943;-0.006302016;3.67277;-1.7384317;-0.028993359;-0.021427376;-0.041808773;-0.9626677;0.1095122;-2.453613;-2.4513395;0.027084006;-0.07932093;0.17429009;0.82471925;0.017945213;-3.3734787;-7.562036;-0.4154646;0.25636134;-4.0596824;-0.010214874;-0.62170476;0.011810697;-0.97837746;-0.7940975;-3.4243162;3.1110587;3.5813482;-0.015352441;0.6511309;0.015346427;1.2622526;-1.9253933;0.5373708;-1.7477235;-2.0505624;0.06735049;-0.031305686;-0.044059597;-0.0028506285;1.5213284;-2.913764;-4.0755134;0.0068799504;0.031541616;0.51778877;-7.1631775;-0.9414701;-0.26315522;-0.07121641;1.884484;0.44264203;-0.8141843;-0.010226293;0.05404896;-1.4834085;-3.7376175;3.716063;5.199592;-0.020037465;-0.55237573;4.1557474;0.46560457;0.11921646;-0.7217177;2.3092592;0.65659136;1.1558379;-1.2503725;0.04637843;-0.030414974;-3.4257889
0.030930681;-1.4374646;0.19717115;-0.029883271;0.0049024997;-2.639144;-0.007528545;-0.027659837;1.1844149;0.365457;0.010663924;-3.8595314;-0.060899395;-0.41219848;2.1453307;0.020778768;2.9534552;-0.06437235;-0.043575972;-0.13062328;1.1644285;-0.027271755;-1.6548325;-1.645137;-2.0038912;3.7447088;-0.28225133;-0.6551853;0.08174917;5.9925313;-3.9160066;1.9104265;4.5311313;-3.6755264;-0.048725843;-0.021361286;-1.886573;3.6432605;1.249162;1.5450948;-0.110038586;-0.53616136;-1.8034254;0.62578;-0.039462477;-3.0139232;4.5623007;-0.8206927;-5.2327294;-0.02170387;1.0553797;-0.00013266348;3.3169649;-6.913314;2.6679058;-1.859939;-3.1318417;-3.9517474;-0.22936623;-0.18010396;1.1569414;2.83618;0.9201738;-0.016308842;-0.022925593;0.031132298;-1.4499695;-6.504704;3.8444543;0.011633027;-0.0039633755;-1.2965149;-0.46511272;-1.0211389;-0.049295098;-0.023208002;0.013783293;2.246211;1.8704122;0.7380114;1.3563368;1.4725809;4.381729;-0.04723054;0.41191083;2.284767;1.9603057;0.061657116;0.2979942;1.058792;2.9821758;2.7586634;-0.005830809;-1.2479877;-0.9166762;0.08770284;-17.013424;-6.8314776;-0.040596314;-3.808802;-1.5194153;-1.6690392;1.794108;0.023526141;-0.52388173;0.009572608;0.020466235;0.00377586;0.03584923;0.8866424;2.0518222;-0.15396859;4.18211;1.7006693;-0.13819118;-3.4162052;-0.010272156;-1.4577556;-0.035555493;0.83508855;0.85413027;1.3337609;0.009077494;-0.41716337;-0.28890887;0.013089297;0.0279864;-5.6005807;-2.9501848;-0.0045214365;-1.4767126;0.51084375;0.5505323;0.038046133;-2.2977986;-0.051607426;1.0220189;-0.0028341457;-0.011333747;0.010177494;0.3581748;1.3121557;0.02074892;0.59963626;-3.912809;0.46019915;2.0403547;-2.9029186;0.06418365;-1.1760517;-5.1089983;-1.5403254;-0.020163894;-0.88823664;-0.009418099;1.8520638;-3.1459174;0.82149553;0.0655049;-0.056294553;0.8659679;1.6750919;0.028720547;-0.013554271;1.390796;-2.0438538;0.8552886;0.6655298;-3.443554;1.5243613;2.530166;3.457373;-2.527388;-0.14019816;0.041758865;-0.01877908;-4.8496895;0.0520627;-6.0479894;2.469744;0.018005595;-1.5262959;1.801424;-1.545445;0.02336882;-0.018716779;-0.8111015;1.0507723;-0.35515097;0.16034578;2.9523914;-0.9704948;0.03370929;0.03467583;0.37152106;-4.807811;1.5914648;1.7005461;-2.3034282;1.4079818;-0.6512052;1.1403316;-0.7483914;-2.012716;-1.7517288;-0.14641088;-0.029383548;2.4854026;-2.2519255;-0.0021339953;0.025684293;0.016676255;1.0291468;0.027876506;0.0062604425;-0.0017460192;-1.3651102;-0.022201;0.6662657;-2.9403577;2.7484689;-1.5291897;-2.898621;-2.299367;0.24767295;-0.1979636;0.05231976;2.0295684;-0.0009700677;-1.294258;-0.007996193;0.32929668;-1.8220143;0.20085102;-0.04066034;-1.4797456;1.1155311;0.3578511;0.029581944;-2.398658;-4.0804086;2.5083175;-0.025138753;1.5094051;-0.020758;-0.037611216;0.4599206;2.2923195;-4.064903;-0.031184584;0.003084002;1.2667121;0.012317667;-0.79016083;-2.028194;-0.06834236;0.5069064;-2.533751;0.72353977;-0.02163844;-2.9194973;-1.3789505;0.60758924;0.0069925464;2.5712485;-0.013376726;-2.2630482;0.02099158;0.17302689;-0.5737488;-0.5190706;-1.9144433;0.019000664;-0.9030887;-0.0017463474;-0.11093903;2.8842099;-0.004755024;-1.0102379;-1.1016027;2.8785255;1.5212865;-0.04098418;-0.44121942;-1.1851193;0.83669364;1.3784014;0.53889215;-0.36647975;-1.9260542;-0.5268691;-0.18512367;-0.05466778;-1.6594739;0.51355356;-0.01677688;2.6263409;-1.6314374;0.03041533;-0.018506747;-0.92127246;-0.3016965;0.05064211;2.465036;-0.010992939;-2.9390187;-1.1593418;0.8407934;-1.87233;0.051998362;2.0040636;-14.989065;-0.63142437;1.8562344;0.36757118;-1.575141;0.7997186;0.014813584;2.3334851;-0.5761526;0.005365342;-0.33913264;-3.1302738;-0.0017752188;-4.681051;0.07128631;0.026000932;-0.015322109;0.87682515;-0.054902565;0.8445907;-0.073119834;0.16412035;-0.055118732;-0.13049887;1.9353932;-1.6885685;-2.2432199;0.016955975;1.169223;0.05092807;-0.0012912151;2.095342;1.6294224;3.9093907;1.184044;0.638013;-1.5161806;-2.626031;0.009157904;-0.0024950402;-1.338313;-0.015510271;-2.3689082;1.2936656;-0.82479304;0.0942375;-1.0953;3.458202;-0.83172387;-2.3514276;-0.65747666;-0.005586802;3.6365986;0.004808087;-0.01271299;-0.047961682;-2.3147397;1.0969642;2.459993;-7.74674;2.254396;0.39157194;0.0811594;1.4941983;-5.7407475;0.0021976521;-1.2800308;-1.3598952;-0.06050897;3.694544;2.2373111;-0.058014;2.4112754;-2.2770536;-0.022519192;-0.07031222;2.2408931;0.96861094;-0.051531333;-0.91762435;2.046127;0.008253284;0.64667;-0.05034037;-0.6633774;-0.4065255;2.3307252;-0.019493116;-0.04943779;2.2765055;2.3835838;1.2276365;-2.1416354;2.0347364;-1.724972;-1.796271;-9.615753;0.024842754;-1.6242338;-1.5701933;-2.9909065;0.04514917;2.5728428;1.4468364;-2.243043;2.8147697;1.3585418;-4.7529073;1.9778844;-0.035677843;-0.011179518;0.054766893;0.18229957;-2.1137705;-0.03446242;0.0052062175;5.263676;0.09655961;0.03150075;0.09766872;-0.8592894;-2.363256;-0.017490687;-0.022667518;0.016139021;-1.4496814;-4.0038342;-0.06196168;0.26262164;1.5556245;-13.859195;-2.970198;0.5600381;0.016626682;3.5718596;-1.6734827;-0.06546286;-0.7419837;-1.1324595;0.060439184;3.483704;2.5387344;2.0622244;0.34878844;-0.075254515;0.44622186;-0.33300748;-0.081601724;-0.013351026;-2.0947173;-1.0066717;0.112695776;-0.80369854;-4.3760004;-0.034051582;0.30629277;4.237183;0.45005542;0.022911519;-1.5875545;-0.03456759;0.44145033;1.6328628;-1.6218495;-1.8036479;1.5940979;0.060440786;-3.224859;0.04914706;4.3878694;-3.8902235;0.026009822;-0.019638196;0.66812634;-1.69866;-0.009071292;0.005457618;0.2951735;-5.7579513;0.9688308;1.6797172;2.368025;0.016753586;-0.015025739;-1.7022432;3.3038547;-2.7151387;0.054649483;0.046958406;1.1163234;-0.041720286;0.7370407;-4.7004018e-05;-0.036659375;2.965971;-1.2618201;-0.07344706;0.017392442;-0.00012907192;-1.9797009;1.1687889;-2.0132382;-2.844241;0.028510455;-0.008205959;-3.5071225;2.7553964;-0.0034281667;-5.3269672;-7.9927053;0.5361573;0.016377864;-1.9005451;0.0107978685;-0.7555844;-0.00965266;-2.1717496;-0.0015719213;-1.4240804;3.120284;0.9284622;0.0031329861;-2.4912806;-0.008659303;-0.2696064;-1.8032447;3.184437;-0.36736643;-2.1498592;-0.004685704;-0.015285926;-0.029255388;0.0063542034;-0.88435715;2.3536747;-3.17914;0.054836906;-0.037218336;-1.4126837;-3.0831997;0.38389;4.8228774;0.12816764;-0.28444406;-2.2360759;0.2781931;0.04888298;-0.040156063;-1.3857025;0.06431987;4.796293;-0.44474763;-0.0065407474;-3.1933272;1.698126;-0.23924415;-0.03483262;1.8193221;1.4121252;0.14727302;-2.1432083;0.596763;-0.02646985;-0.026691891;-2.21929
0.03466412;1.743586;-1.3558693;0.04932513;0.016045138;0.026029883;0.013534495;-0.018656792;1.3612062;1.2696285;-0.0050652195;-2.7700582;-0.07787009;2.2474697;1.665303;0.03706119;2.787638;-0.8288044;-0.004623828;0.3567661;1.6531352;0.008523688;-0.14330389;-2.555184;-1.7158978;2.8430238;-1.0219301;1.0019325;0.017971165;3.9487972;-3.3965943;3.3134928;2.081021;0.43166175;-0.05396113;-0.0015142276;0.44449657;2.5488315;-1.2842563;-0.90691894;0.30489507;0.61408275;-0.18084168;2.3842459;-0.010998128;-2.8430638;4.5354667;-2.0696776;-4.3055725;0.008176056;-3.3502586;-0.029805282;-0.06644879;-6.829471;-1.1711018;-3.0704389;-2.6757646;-3.0188506;-0.3515615;-0.81380004;0.2784679;2.4525878;3.424569;-0.08003281;0.0077670803;0.0004913613;-2.667338;-5.537362;1.9231342;0.04137834;0.04106504;-3.058428;-0.8786947;-0.7692271;0.030947512;0.021947684;-0.009641446;2.4247572;0.28297073;1.1950964;2.3270497;-0.33490738;3.8017526;-0.0105588455;-0.11476518;2.4426284;1.5324503;-0.018904794;1.4967527;0.79219437;2.7017345;1.136048;-1.4065737;0.90883625;-3.630785;0.740363;-18.14473;-4.824353;0.048123557;-2.093433;-1.8589871;-2.7783883;2.2565181;0.040485665;2.9551105;-0.03595327;-0.015196412;-0.08873316;-0.011035019;1.289998;3.3186216;-3.5711403;3.8041704;3.0304983;-0.06554095;-0.10972974;0.03617613;-1.4088805;0.031729955;3.20933;1.6571665;0.9143584;-0.052523535;-1.9880005;0.90067506;-0.004424536;0.012375777;-2.5212944;0.64299256;-0.0034158388;-1.7349933;-3.8655992;1.325038;-0.03200504;-2.0055423;0.012312515;0.1555041;-0.073484;-0.04230726;-0.012420746;-2.8447423;0.6573679;0.025181994;0.005294377;-4.0748568;0.31779703;-1.2365357;-0.4625389;-0.011069589;-0.7240039;-5.3411274;0.5880578;0.036086507;-1.3603295;0.017221164;2.3694277;-2.834584;-0.07683457;-0.027918661;-0.049227722;-1.0700886;0.96601146;0.00455001;-0.0030018468;2.0365057;-3.0475707;4.2921176;-2.3985744;0.09196887;1.4363471;0.54488397;-1.8759496;-1.0444571;-1.1532571;0.0035226443;0.022425622;-2.3927994;0.008141335;-5.138348;2.694567;-0.047067434;-0.07041444;-2.9713402;-4.4420776;-0.0023880927;-0.00027862;0.6800462;-0.45157957;-1.2368983;-2.9755058;-0.31541425;-0.77081716;-0.015786625;-0.031440098;-3.8037379;-3.0658875;1.0430104;-2.3918786;-2.5824175;-0.65403366;0.30791202;3.003168;0.26590788;-1.0830497;-0.6610722;-0.41672218;0.034530777;-1.6101089;0.9581394;0.03100291;0.015633956;0.015800009;1.7495269;-0.034387574;0.026013969;0.007671352;-2.182575;0.028325783;0.6054328;-2.8448017;2.1824794;-3.2672682;0.13939777;-2.306717;-0.106495574;-0.5215216;-0.039384227;2.3941445;0.024574747;2.4016266;-0.040344164;0.0532047;-1.8662269;1.0862371;0.27582797;0.09296095;1.0781088;0.41931397;-0.015516204;-1.036675;1.4694399;-1.5237192;-0.1839143;1.0622191;-0.043901153;0.71566385;2.2924993;2.2848296;-2.919316;0.010552541;-0.043016337;1.2553078;-1.7237663;-3.327977;-2.4276404;-1.1896107;-0.08120372;0.19287941;0.7116361;0.8401572;-1.4401138;3.1708162;0.7096271;0.013111067;4.238786;-0.022737272;-0.6382033;0.015494791;-1.2403911;0.4286876;0.1477205;0.4959157;0.042279836;0.71569896;0.00088101556;-0.29988506;1.9930489;0.012303497;-0.5931631;-2.8577092;0.67312014;1.169892;0.03636896;-1.2384368;-0.35622132;0.5692749;-3.4178588;2.210554;1.1054819;4.96407;0.56705785;1.2073181;-0.043545652;-2.265731;1.9433495;4.997036e-05;0.94311976;-3.2872689;0.02076455;-0.013456526;-1.1246165;-1.463649;0.052457344;1.2719823;-0.0032966777;-2.221259;-1.1506494;1.7763766;2.672381;0.381361;1.0955482;-14.682057;1.9783561;1.1969092;-0.6867934;-1.8769287;0.78633016;0.02266132;2.0195568;2.8681684;-0.01973979;0.97055304;0.3617093;0.012991958;-4.23789;-0.004689698;0.017325262;-0.19645447;1.9244472;-0.046631306;1.0118369;0.5417287;-1.1163808;0.0012984991;-1.0848494;1.7421751;-0.53269094;-2.3579185;0.01885133;1.2635688;-0.0020957238;-0.034858696;1.7916325;0.17996268;3.365372;0.19624323;-0.8859831;-1.9031633;-0.353747;-0.06390798;-0.023866197;-2.4442747;-0.009461074;1.4636476;-0.74371076;-0.54960614;-0.017962066;-1.9693388;2.700696;3.104296;-4.1206317;0.15833305;0.04047903;2.461734;0.015124492;0.024367133;0.34748518;-4.4053674;0.83106154;3.391378;-4.0709352;1.8554558;0.90543497;-0.04222655;0.72594404;-7.2033153;0.036317226;-4.074856;-0.01676535;0.47131044;4.415853;2.4131343;0.12461236;2.5149632;-1.6051394;-0.011120284;0.09254884;2.435999;-0.43324417;0.029956225;3.1821983;1.5630695;0.022271616;-2.3706682;-0.021971308;0.6707202;-2.5877829;2.03927;0.014497825;-0.06703377;1.6211833;0.22213696;0.61705863;-4.7276216;2.8119757;-0.56895924;1.3106061;-7.2921767;-0.032220807;-2.784136;-3.1165478;-0.25853992;0.0035650649;3.4025388;2.5755432;-0.13143696;0.65252966;0.87275094;-8.594993;1.2207125;-0.007481628;-0.0156671;-0.07521359;0.2853694;-1.6808192;-0.037478454;0.39650178;3.3353631;-1.7472744;0.016325668;0.06793421;-0.3990296;0.89243674;0.04859529;0.0012353322;-0.01730611;-2.5291421;-1.5781168;-0.0009625692;0.8004122;2.8548782;-13.025399;-5.9611635;-0.52414525;0.00788654;0.8470303;-1.0772718;0.07893824;-0.8159505;2.0425239;0.014453528;3.0788476;-1.8594924;1.354276;-0.4707722;-1.6062999;0.33612671;-6.0984855;-0.024872947;-0.06821583;-2.2917674;-0.8172846;0.34428596;-0.34566563;1.496006;0.0030923944;-0.017583901;2.559151;-0.033608224;0.016164336;-0.77954155;0.027916279;-0.04064368;3.1741326;3.770961;-2.8660967;3.4113016;-0.009575156;-0.18676493;-0.022516476;3.9854681;-4.063454;-0.04950125;-0.014336844;1.415303;1.0955888;0.022294402;0.030301904;-2.2620869;-0.9781365;2.053906;2.1911964;2.6811717;0.00601478;0.003926994;-4.2370877;1.3761549;-4.1307416;1.0428936e-05;-0.03784149;-1.5163941;0.04242494;2.7243123;0.06492891;-0.1041821;2.4510036;-3.3992956;0.0049192836;0.022784855;0.03296368;0.7372144;0.88714933;-1.3657621;-0.33537382;0.029599717;0.38698038;-3.3179119;-2.3178453;-0.0020154868;-4.9325514;-7.2792683;0.29329738;0.00093832857;-1.8905574;-0.031149777;-0.10450002;-0.01220853;-2.6245918;2.813161;-2.8259795;4.027951;-1.5855169;0.027258955;-1.7856324;0.0030693698;0.9121869;-1.8415744;1.0703821;3.0302112;-1.4791228;-0.012964035;-0.058050517;-0.009320648;0.02203838;1.1046978;1.9220145;-2.3780458;-0.05600273;-0.02519588;-0.012164785;-1.8976986;-1.6878902;2.589288;-0.07211126;-2.307001;-2.7330177;5.0925817;-0.062196966;-0.026777653;-1.4320022;-1.5780042;3.9935226;-0.32702857;-0.016295193;-4.9683185;0.89673126;2.9385197;0.11123054;-0.72887325;0.3263923;-1.1748589;-2.5674474;1.0144027;0.076186046;-0.06605507;-6.2277412
0.027550047;0.7935049;0.49745813;0.0006829478;0.029371962;-0.28955626;-0.054621685;0.004277757;0.68369955;1.5602059;0.03886502;-5.328555;0.83798724;2.9968708;1.9116772;0.004631908;2.8814511;1.302901;-0.022423277;0.16264214;1.0526206;-0.03876292;-1.5418581;-2.2292223;-2.0198014;1.0512884;0.84524757;2.4692397;-0.030794838;2.5377924;-4.601598;-0.03362292;2.6742072;0.14426208;-0.016879365;-0.023886258;1.8884625;0.99037236;-1.0176396;2.22239;-0.2533142;-1.1770667;0.6226571;2.4660745;0.013369129;1.9579954;3.8403862;-2.2337327;0.020228505;0.013050757;0.9824549;0.0017900247;-0.5177574;-5.463112;1.080061;-8.098983;-1.5854855;-0.82847506;4.1591935;0.5085075;1.1607;2.49708;3.8133132;0.76619744;-0.019337993;0.012769229;-2.2673063;-2.4208279;-0.051511012;-0.018494535;-0.014417256;-0.14131875;-1.5537673;0.56101114;0.008491999;-0.017969249;-0.023947638;2.1504378;1.7479774;4.0423427;-2.2482436;-0.59951675;4.639732;-0.012649094;-4.0971107;-0.9668186;-0.93277276;-0.034355;3.8733256;1.62596;2.6612284;-1.1058984;-0.6585729;0.9596599;0.809847;0.22847793;-17.735384;-0.1789408;0.011214461;-1.2087929;2.4911382;-2.622446;-1.2753196;-0.0069639888;2.2854698;0.014501059;-0.01807186;0.017249258;0.024401834;1.212377;1.0555606;-0.67412615;4.3926244;1.1821713;-0.049394205;-1.33478;0.018728273;-0.05664039;-0.016746933;0.8563778;1.0470624;-4.735688;0.005559445;-0.3669341;0.9009752;0.005168004;0.03378316;-5.418436;-9.54261e-05;-0.01568541;1.2409999;-0.34826565;2.3917904;0.0049034897;-0.8050728;0.0059788395;-2.3025258;-0.013831448;-0.00785405;0.1141507;-4.2531796;1.3141235;-0.018180206;1.8379389;-2.7132542;1.6972473;-5.2430305;2.6789517;-0.030485032;-0.93084973;-4.7466407;0.71873873;-0.0061650365;-1.020723;-0.0008587147;-1.6821034;-2.3120434;-0.17582102;-0.019225843;0.49991554;0.13930456;0.3534248;-0.03961559;0.32960823;-0.4955379;-1.8733463;4.6827354;-3.291456;-1.359719;2.6736069;0.92984366;0.022855388;0.7757654;-2.4281986;-0.009053267;0.00070300524;-4.151047;-0.060087226;0.5812065;3.6812472;-0.008048248;-1.6148481;0.8575761;-2.5482712;-0.011963457;0.01589841;-0.541087;1.2546113;-2.1635141;-6.6577797;0.5366362;0.87114185;-0.039817706;0.037860036;-7.415166;-5.7440925;-0.9140322;1.1037453;-1.9015027;0.023827948;-0.5949772;1.1595346;1.9626338;-1.3626546;0.6497707;-0.302579;0.014454999;0.44198596;1.1519337;0.0033328894;-0.04923753;0.064032115;2.6140451;0.028829431;0.05392354;0.009954106;1.4009804;-0.0031967552;-1.5823334;-2.6977181;-4.1363144;-3.3394945;-0.91462916;-0.6500056;-0.045479313;1.5479441;0.020425228;2.184045;0.02895256;1.6507478;0.1239166;-0.5429659;-0.5838258;1.0487604;1.4039725;1.5641533;-0.75952065;-0.8678821;0.017420363;-1.3347002;2.5392084;-3.0308406;0.61713123;0.27851018;0.06686503;0.49209017;0.59788674;-1.9835296;-1.25664;-0.084036246;-0.0041205646;2.0695531;0.16444956;-3.166746;-1.2385212;-0.12935358;0.13021867;0.10361878;0.26706752;0.412186;-2.5060682;-2.011184;0.78028595;0.022482803;4.1050053;-0.036031038;2.1333318;0.016837714;-1.5150871;0.93280834;-2.1226225;-0.050092798;-0.0025695306;0.63944155;-0.015452975;-0.11520092;-0.33549157;-0.021175433;-1.8166652;-3.1048598;0.24636142;1.0717405;-0.041084714;-0.5333606;0.60872793;-4.9084883;-1.1698787;2.3163764;1.8546673;0.22964972;-2.0600204;1.1407534;-0.088114984;-2.2549944;3.5215533;-0.03263398;0.77854604;-3.7969215;-0.016591417;-0.0042328387;-0.92630374;1.2129827;0.08974145;0.49108583;-0.042187955;4.456594;-0.6279716;-1.6706276;1.6541694;-0.33177796;2.1288135;-15.170082;2.4257498;-0.4994463;1.658853;0.82808167;1.5197476;-0.019876044;2.49097;1.1647786;-0.03085596;-0.46675792;1.5004686;0.028743286;0.3452171;-0.042664815;-0.018518537;-0.17452474;-2.165598;-0.2101261;4.1701136;-0.080817424;-2.0569832;0.038970023;-0.6905672;2.4733624;-0.31530994;-1.9222372;-0.024865938;0.81709236;0.029999109;-0.1295575;1.7522166;-0.7997175;1.735842;-0.54656845;-1.3247856;-1.3169246;-0.48119062;0.021359762;0.021244401;-1.5552057;-0.03383691;-0.7846708;2.32619;0.2513289;-0.06390094;-1.0947051;0.5844896;1.9248728;-0.7070074;-1.588281;-0.007409492;-6.712613;-0.0020967862;-0.02331703;0.39353517;-5.186862;0.6099372;5.036537;-0.4518598;2.3582866;-2.2127542;0.014194852;0.7811848;-3.5430048;-0.0016394305;-3.7406247;1.2966374;0.7396089;3.669218;-1.998367;-0.05792221;3.2990901;-1.8867171;-0.0075409645;-0.022791598;1.337775;-1.6861572;-0.036137853;5.1181817;-0.40811878;0.00713416;-8.122109;-0.029886713;1.9974682;0.24561104;1.5472465;0.03389806;0.072999746;1.7642357;0.59831333;-0.17942;-5.061609;2.5733955;-0.40872756;1.8909843;-6.3953276;-0.012209337;-1.6251453;-2.627569;0.4493174;-0.033566102;2.0421727;1.8596866;-1.9467777;0.054627273;-0.76129436;-10.210233;1.5730538;0.055780556;-0.02478885;-0.029995149;0.23640607;0.801516;-0.026891293;-1.0451354;1.4876381;-0.08767868;-0.09436072;2.412767;-1.2108343;-1.8433717;0.023650834;0.03019522;0.08619597;-1.5239981;-1.2437893;0.018548587;-0.07520503;0.4200273;-12.786925;-4.492815;1.8002523;0.029529843;1.2819722;3.1342869;0.04739481;2.3341324;4.313342;-0.008337361;-1.5561767;-0.15031838;0.8517913;1.5698833;-2.3973732;-2.5945113;-4.0754952;-0.03451954;0.0050312914;-5.7439995;-1.3887025;-0.21915118;0.36510307;-1.2249328;-0.02383938;0.35236314;1.4067785;2.5180364;-0.002835549;0.97864044;-0.044731513;0.7264284;1.8959645;3.4571025;-5.8727226;1.1954317;-0.00026120583;-5.692512;0.03509067;-0.21272436;-1.355369;-0.05603748;0.0116507355;0.6947445;-3.073354;0.041427728;-0.018940646;-2.859051;-3.099246;2.605202;0.93859243;0.5148908;0.0028569202;0.08966233;-2.3284287;2.5451233;-3.7421644;0.038601875;0.004242008;-4.962379;0.09954937;1.2856979;0.034138188;0.4683699;0.79950726;-2.026962;-0.07923577;0.04327423;0.067736536;1.0597566;2.9590182;2.2034867;0.062416084;0.0045023467;-1.231967;-1.6921101;0.5392264;0.023032777;-3.475214;-7.6664257;2.081402;-0.09272541;-1.2131575;0.012360214;-0.14546864;-0.05284768;-1.8134085;2.0648105;0.1617907;0.95490885;-0.85345775;0.0041998206;-2.0423634;0.025801444;-1.2524165;-1.0755837;1.9126796;4.3141108;1.902203;0.045955747;0.037521906;-0.013776101;-0.015689528;1.5629146;0.6652805;-0.31478888;-0.016073385;-0.021668823;0.3830768;-2.1837575;-0.47338054;1.1902181;0.033094864;-2.9321473;-2.0974145;0.28180227;0.0146933785;0.006435671;0.34493074;-4.5780444;3.4173257;-0.30291212;-0.05201032;-4.447787;0.51828265;4.772213;0.5200787;0.5167979;-0.9127946;-1.7535547;0.76363754;1.9516695;-0.038995378;-0.029439935;-6.3997164
-0.0058861324;1.7890512;1.7108911;0.044176154;-0.010437655;-2.2832806;0.03427049;0.043522377;-1.0418347;-0.7624555;-0.026675748;-3.6563113;0.6371212;0.9405621;1.4693289;-0.047853846;0.9462048;-1.5706592;0.57810694;0.037834603;0.8776598;0.022749417;-0.5732654;-5.0113854;0.67325515;-2.8653524;2.4032793;2.551639;-0.06611968;2.229971;-2.2881503;1.4883299;3.7449908;1.5644884;-0.058838263;0.010704767;2.8108356;0.7825159;-2.1030934;1.0884486;-0.005521518;-1.7574214;0.18704644;1.8486617;0.008915692;2.43943;2.5318696;0.94370914;-1.0434872;0.03786666;-1.9870299;0.0687822;-1.9131572;-0.7547232;2.3677125;-9.545234;1.5650744;1.4616412;2.1579227;1.0867338;0.72525615;1.7744676;3.6157932;-0.2998934;0.005686313;-0.016170606;-1.187417;-4.6797123;1.4967428;-0.012722869;0.0025181158;-1.2374511;2.70445;4.0339556;-0.012382739;0.000408463;-0.00064993766;1.8494353;0.02940746;4.5472646;-0.21900117;-0.5620904;1.7626934;-0.008422187;1.8892642;-0.29029125;-1.2166286;0.02384881;2.1698177;1.549997;2.7413845;-0.49382216;0.45168287;-2.357093;0.6026487;-0.017939556;-15.801241;1.0510103;0.03529375;1.6764342;2.569927;-1.2241988;-0.87205255;0.005907509;-0.48941028;0.01684264;-0.011002102;-0.020214716;0.04413982;1.1858579;-1.733941;0.25299534;4.100901;2.2340448;-0.0020975838;0.67694366;0.065213576;2.7000122;0.019446377;1.2475274;0.4729024;-2.7774374;-0.044030257;-2.6007795;3.3433642;0.057957962;0.0023191911;-4.9653945;0.34612635;0.007836549;3.2172925;-1.7374207;0.6205246;0.042404514;0.338193;-0.018837458;-2.9727712;0.062202793;0.13965133;-0.017825603;-2.72975;-0.074268214;0.01967403;0.928978;-2.500498;0.20434432;-4.054812;0.062901065;0.02532192;-0.8274995;-4.9127784;0.1762286;-0.1678467;-0.23387621;0.04082879;-3.994476;-1.6883794;-0.0049661505;-0.056387782;-0.13914643;-0.9825497;-1.1894883;-0.009984621;-0.08750521;-0.05460954;-1.918229;1.738869;1.564778;-0.7613606;-0.41214466;0.6724674;0.3387118;-0.936217;-0.3592522;0.07643601;-0.01759421;1.681307;0.018546034;-3.7270772;3.8597848;0.04521905;-1.0993667;2.4653406;0.22547744;0.025465474;0.0423337;-0.11026992;-0.6122761;-3.3750248;-5.0593214;0.93836164;0.8714552;0.054190166;-0.047707036;-6.349751;-4.100156;-4.1359086;0.012082037;-0.37493408;0.43994474;-1.0712883;0.6921046;1.0056081;-1.5697173;0.0026902356;-0.21237807;-0.019375797;-0.09654227;3.0529768;-0.051522024;0.063263565;0.026353363;0.09631595;-0.009252769;0.025532572;0.06123004;2.8921714;0.08218793;-1.2712858;0.2637661;-3.377365;-2.3987453;-0.37120795;-0.14929026;-0.004096779;1.1581253;0.021831134;2.3652115;-0.062499642;-0.02280651;-0.07191671;0.6672434;-0.751803;-0.4085718;3.4056554;2.117602;-1.4253224;-3.3665552;-0.04849;-2.2155173;-1.0181373;0.34599563;-0.079574734;-0.1309877;-0.037252232;-0.03011102;-1.1202779;-3.2961335;-0.70158315;0.032143388;0.03838606;0.4973943;0.3176986;-1.92931;-1.8175676;0.8809177;0.48605034;1.3600559;-0.7520883;0.73252183;-1.0083936;-2.954075;-0.41471145;0.008932584;2.6532738;0.03719102;0.8562201;-0.0054705334;-0.65607274;-0.18341991;-4.570194;-2.2664046;0.012216652;1.6130381;0.012614681;-0.024232836;3.1334307;0.0050558764;-1.7314508;-4.1526446;-3.371789;-1.5279402;0.11108929;1.5509651;-0.92117953;0.995123;-0.596303;2.7355065;-0.6676822;1.3890262;-3.121272;0.9814308;-0.02364449;-1.3250768;1.4900401;0.05930082;4.2662754;-1.1638579;0.017414916;0.066189624;-0.6366871;1.3189747;0.0074258237;-1.5365205;0.026119715;2.4167774;-1.5771831;-0.3734628;0.23588213;0.022263415;2.5752828;-13.513475;0.07167042;-0.22985958;1.3127241;0.5070536;2.3117354;-0.022808136;2.4327202;-0.73451763;-0.05279764;0.03694941;1.3244021;0.05004777;-1.2117387;0.029022686;0.0345481;0.8359659;0.29175276;0.7553508;2.6869423;-0.04267478;1.9292414;-0.024005206;0.90676725;3.1621168;0.28704903;-1.9675481;0.011326717;0.37322566;-0.0024538033;-0.017929455;1.244265;1.5182569;2.7321339;-0.29965174;-2.7435992;-1.5958923;-1.3779416;0.027745308;-0.036733557;-0.34588984;-0.01595642;0.44680968;2.3713684;1.1503443;-0.015438174;-0.53675336;0.29273656;1.6476929;0.7241714;1.3363783;-0.0037786805;-4.935925;-0.0053145303;0.017655322;-0.17103495;-4.0265684;1.1292529;3.0219593;-2.4148583;1.4101357;-0.73427993;0.021497764;2.6247706;-1.3348582;0.02500209;0.65123403;-2.5750477;-0.18808042;2.1262202;0.295011;-0.010535524;0.764405;1.1825967;0.08295791;-0.050589867;1.6387709;-1.175528;-0.056383118;5.783291;1.574398;0.018649416;-8.127577;0.026715958;1.1995548;0.80682164;0.42504814;0.03232238;0.0628379;1.7405764;2.957062;1.2785448;-6.6147227;2.4258254;-0.071103;0.31952313;-5.4432173;0.03615745;-2.1851745;-5.671462;0.6333347;0.020818066;2.8548245;2.1259327;-2.3801239;0.98103666;0.5370103;-12.237001;1.0877516;0.01770944;0.04775462;0.0014255628;2.7316465;-0.46954915;0.020335613;-0.23009522;-2.0110683;3.6380496;-0.0034155932;0.9849839;0.23307487;-2.487733;0.093975134;0.02780575;0.01092321;-1.5716295;-1.0412589;0.015179008;0.40534705;0.6175314;-10.931471;-2.1118813;3.4044511;0.1042414;0.034122642;3.7320693;-0.002950633;1.2674686;2.0328977;0.043204527;0.48660284;-1.6480582;-4.8246555;5.524988;1.8876228;0.85947454;-3.5212622;-0.0049662855;0.0017798069;-5.418746;-2.2839563;0.2308811;2.2177901;-0.3025036;0.113037646;-0.10080056;0.2876805;1.3621235;-0.023335425;1.0741186;0.023261;-4.2622447;-0.5222187;0.20781796;-1.210403;2.668003;0.009300516;-1.0046372;-0.054392714;-0.94116324;0.81817424;0.28009483;-0.021884581;-0.19932528;-1.7244424;-0.0019131321;0.02185736;1.7947778;0.47819257;-1.7709005;1.0980082;1.4156673;0.013661628;0.014203814;-3.949254;1.8125637;-3.820295;-0.013744089;-0.031240666;0.13859858;-0.05486161;0.18037884;0.05453421;0.06696444;1.0814607;0.27533808;-0.023094507;-0.001499398;0.014906647;2.410394;1.0407839;-1.9814966;0.81599873;0.041153014;-2.4330776;0.4805401;2.1304817;0.011288693;-3.9493854;-6.1460395;-1.0156091;0.0071265534;-1.065384;0.0006168593;0.5433356;-0.008516132;-1.7643663;2.9105017;0.27932715;2.30764;0.4006229;0.048072234;-4.248172;0.0043997853;0.05878801;-0.705417;0.57459867;0.05825796;-0.21565086;-0.01031172;-0.0363039;0.04719555;0.0387634;2.55514;2.0953789;-4.2855544;0.0319333;0.0140139;-1.2116092;-1.9236007;-0.57388765;0.8996632;0.072269775;-2.4056368;-1.4494954;3.178392;0.034263257;0.014071128;0.57566106;-3.6039004;2.8333254;-2.1403532;0.07728307;-3.9393306;0.74353325;1.2095054;-0.1073384;-2.432246;-0.3708277;1.3737854;0.12986712;-0.5450636;0.0100926785;0.03655402;-5.3595295
-0.021639545;2.7096481;1.7458247;-0.014844041;-0.023662878;-3.1703813;0.007089825;-0.019973874;-0.3071663;3.1669405;-0.010715159;1.4095324;-0.00748248;0.95284045;0.43299448;0.01237061;-2.3606572;-0.48319346;-0.21077849;0.17268723;1.3631021;-0.0009594738;0.5768685;-3.49541;-1.9529779;-5.0949736;0.79714984;-2.7224462;0.052671462;2.1993248;-4.577225;-0.31267822;-0.30190322;1.9602796;0.58193284;-0.01770257;2.1795037;2.5165992;1.0493618;-0.14100185;-0.2459758;0.8023713;-2.0164576;1.5682977;-0.0056116586;0.018504322;4.624771;0.9074601;-2.9857237;-0.045415446;0.69299257;0.021688782;-3.9575968;-2.7791858;0.40016016;-9.323434;1.6133907;-0.9367387;2.7467754;1.0638642;1.0304947;3.610152;0.61990494;-1.2265265;-0.07583239;0.021820288;-0.9745547;-2.9768775;1.8075963;-0.003005947;-0.058448028;-2.543684;2.7243109;2.0053797;0.015208273;0.04328526;-0.009813272;3.3218486;3.1207352;2.1362062;-1.6434394;0.051568553;0.093434684;-0.060617786;-3.831149;-0.26506886;-0.41045478;-0.03472678;1.0817244;1.8088448;3.209473;2.2064323;0.6178746;-3.4686947;-0.69783473;-0.08794072;-16.848824;2.3790765;0.036066078;-0.5419453;0.7872002;-1.2198702;1.4683135;-0.0060329223;2.8281431;-0.031950515;0.0096457;-0.009692845;0.009471723;0.26669896;-2.6016083;-2.1106412;4.3243194;0.48778933;-0.03709715;0.97424453;-0.031207973;2.7509494;0.032305237;0.9495294;-1.6889629;-4.4928794;-0.017205453;-1.2996075;2.0894673;0.017856222;-0.07633224;-3.7750921;-2.2291553;-0.057159152;2.344352;-0.55988836;1.2283441;-0.060312252;2.1016371;0.0114124995;-0.39155006;-0.024334231;-0.019441532;-0.008272941;-4.654346;-0.408215;0.007098003;-0.90038854;-4.005433;1.327151;-2.6866398;0.19581634;0.031618867;1.3192515;-4.9638386;0.8219924;0.25046408;-1.2672561;0.005645413;2.427147;-1.2311281;0.011703225;0.0066675213;-0.024161397;-0.45109275;-0.9667498;0.013653279;-0.0057866015;-0.3106634;0.7813152;1.0493591;-1.6955613;-1.875892;0.90381724;1.4399637;-1.9444684;-1.4258496;0.41300458;0.015406352;-0.04487162;-1.5873164;0.04250714;-2.0801992;3.7643492;-0.017356789;-1.5155827;0.6908983;-1.9197484;-0.0049871462;-0.07713251;-1.3984187;0.14493382;-3.357389;-4.5187054;0.31427;0.9461714;-0.029004313;-0.029628498;-4.7148957;-6.7195005;-2.931258;0.26033816;-0.9026614;1.1947541;-0.2341227;2.6104143;1.3815536;-0.4258336;0.31009826;0.09748924;-0.012236897;0.6015223;-0.7853541;0.0017400829;-0.02816278;-0.08608111;0.8936608;0.050737802;-0.0600984;0.033044353;4.6528935;0.017433498;2.5280597;1.5883377;2.671863;-2.5635033;0.71011007;-1.3508164;-0.04174373;0.1869336;0.011265234;1.6606408;0.041000843;2.420635;0.019788792;1.6380061;-1.5142843;-0.94406366;4.9852815;3.8398378;-0.83499604;1.9510658;0.039511137;-2.5541098;0.3787194;2.1616774;-0.060558572;1.8558656;-0.025941186;0.065560415;-1.943114;-3.2570908;0.21853048;0.033927333;0.04017677;0.6710625;-0.33647132;-5.9896717;-0.9315355;2.8845534;-0.025954051;0.7146226;-0.66274107;0.017129017;0.7596404;1.1727619;1.1439223;-0.015939264;4.2376833;-0.009089176;1.0909396;-0.0336852;0.5155713;-0.33893088;-1.9622515;1.7706686;0.0026433028;1.3969897;-0.0025247848;0.7278835;3.3443925;0.011562248;-1.4858994;-4.6087875;-1.9986092;-0.81190294;-0.051688828;1.4536943;-0.5576911;-1.436444;-0.7849807;1.2998103;1.7480448;2.0826614;-0.06878047;1.2234199;-0.0780667;-2.2349885;2.8926032;-0.012661337;3.3209727;-0.09099516;0.026976954;-0.051699623;-0.78591233;2.3657594;-0.057951793;0.072349116;0.030548139;2.407124;-1.1455228;-1.3995965;-1.7326314;0.7804472;0.3443809;-14.280474;-2.2982562;-0.5263504;0.8129462;2.6494055;1.4391631;-0.03197045;-0.8666207;-0.6582484;-0.028097786;-0.019314464;0.21509242;0.021101376;3.2317028;0.064189956;-0.0070742173;-0.042713106;-0.14602461;-0.16387416;2.2850568;-0.016396342;-1.0732821;-0.013550074;-3.9718025;3.7643437;1.1031127;-3.282568;-0.040805925;1.3449261;-0.01539863;-0.019522896;-0.65477395;0.097779065;2.545356;1.7551336;-0.10314594;-1.2934054;0.8731976;-0.046510596;-0.032261353;-1.7347966;-0.026581332;-0.12430068;4.485777;-0.23570548;0.08294615;0.01588857;-2.3986368;1.8559983;-1.7317914;3.026102;0.00095929415;-4.037898;-0.045849316;0.0023587807;-0.07434616;-3.9690788;0.296539;1.5343524;-1.9770116;-0.29297522;0.591033;-0.020966098;2.6129985;-2.125607;0.07592111;-0.78735876;-1.9390513;-0.100334235;2.8363583;-1.8927156;0.02335279;-0.042919587;2.5876467;-0.090409495;0.022015698;3.139949;-0.59253645;0.8672286;3.3046923;1.1153965;-0.022130158;-5.6911836;-0.017618423;0.357238;1.7792199;-0.4651975;-0.016439505;-0.058584698;-0.7977036;2.3146093;-0.5452476;-2.1408741;1.4048324;0.20762962;3.492708;-5.568954;0.00011750744;-2.6751916;-3.8193498;0.6778973;0.026129639;3.1254091;1.9676343;-0.75598437;0.96616495;-0.69751316;-13.460429;-0.65446705;0.0027035698;0.026844505;-0.032131564;-2.7925913;0.9280835;-0.124936186;1.9398026;-0.89512813;-0.49862343;-0.012519358;2.1053712;0.7761458;-2.3123991;-0.09185247;0.014122187;-0.010753964;-0.4509613;1.4947747;-0.0041518803;-0.32562187;-0.27054676;-10.270381;-0.012669527;2.0058947;-0.0040510157;-1.1631415;1.8066751;-0.054794982;0.65188515;4.925472;-0.019584721;2.7411015;0.43865994;-0.13542049;4.539001;2.033385;1.6733501;-3.1722603;0.5287883;-0.123067476;-6.219865;-2.125381;-0.5340843;1.5745736;-0.40195778;0.082315594;0.061179772;0.810714;2.0882418;0.03052104;0.837337;-0.04025927;-1.3050917;2.7752898;1.922399;-2.569185;-0.5077424;-0.0130371265;-1.9227595;-0.031182691;1.3542656;0.9767757;-0.06719642;-0.025158206;-0.37456682;-0.35866332;0.0012945;0.0011415124;1.07377;0.35978514;-2.5250285;2.225132;1.1397625;0.038648233;-0.010366835;-1.3352051;1.4399844;-0.16082774;0.004343555;-0.1498806;4.310246;-0.04426312;-0.40072498;0.01734096;-0.04595558;2.5101953;-0.12757625;0.77101773;-0.023089236;-0.04353929;1.2616901;-5.389374;-0.24417873;-3.0235536;-0.015203969;-2.1293294;-0.8943529;-1.1121254;0.021096077;-1.9643967;-6.762064;2.9783466;-0.18478672;-2.841786;-0.0592319;-1.9724959;0.24551435;-1.9811081;2.2859657;-0.39055535;2.5272386;-1.6578828;-0.0022087279;-1.0724237;-0.015489187;2.3686934;-1.1299503;1.9552568;1.2437829;1.058846;-0.03504389;-0.023344496;-0.024515098;-0.015218165;1.6200333;2.5110276;0.20725359;-0.010745698;-0.048569422;0.23482692;-5.9951653;-0.49641994;1.817287;-0.06644447;1.0211437;-0.9812048;-2.0934486;-0.00027674346;-0.024418594;1.018223;-2.2402298;3.1032913;-0.26582113;-0.03827553;-3.8588142;2.747074;1.7398721;0.33460006;-1.1540186;1.1592857;2.6476617;-1.4745215;-0.58126223;-0.012607333;-0.05080112;-0.12208116
0.027817199;0.39637917;2.0767071;-0.038532946;0.062184885;0.023378361;0.025993971;-0.0045463666;0.08102399;3.2026403;-0.011834994;2.6102872;1.6330154;2.0695457;2.436045;-0.016469479;-1.920003;-1.8772672;-0.019327525;0.37804273;0.82276803;-0.024499916;2.3302279;-0.7326163;-2.946781;-2.5954266;1.087789;1.4213961;0.22665279;2.0951009;-5.0467544;3.383362;1.1525807;1.4980286;0.34095582;-0.021342179;1.002736;5.212798;0.5742082;-0.49627498;0.49150804;0.83587927;0.08716365;-0.9363739;-0.024868552;-1.4257568;3.5208087;-2.248364;-1.6615647;-0.0005649882;3.1447608;0.017575046;-1.0445706;-2.6690779;-0.0077258493;-8.79645;1.4993557;2.635872;1.061167;0.49707487;1.7937777;-0.06892902;2.1978726;-1.4773045;0.1563535;-0.02151471;-1.2203203;-3.0459998;0.6533311;0.08179382;0.0050110263;-3.0293682;1.0700911;-0.36291417;0.0024138263;0.016292054;-0.023876306;2.4250197;1.8986893;1.400461;-5.185967;-0.9413046;2.8810256;-0.008178217;-3.5522957;-0.009038272;-0.058528874;-0.04983692;2.019765;1.1648589;3.0499806;-3.216965;-0.6400015;1.4749782;-0.4839823;-0.115785636;-17.359802;0.2699118;-0.014017878;-1.7974825;1.9512347;-3.1490407;-1.5479057;0.00031406863;4.4873614;0.06439261;-0.035801142;0.02056602;0.0008593367;-0.620486;-2.9381456;-0.7317918;3.8807988;-1.071291;0.033349127;0.9496633;-0.017564004;-0.19164555;-0.027368883;1.8308672;-0.21213564;-1.6956419;-0.011571852;0.058139764;-0.1497664;-0.009163529;-0.027267529;-2.1139638;-0.20186226;0.0031886902;2.064027;0.893582;0.519028;0.05180009;1.4742763;0.039836995;-1.7623696;0.004468277;-0.052230284;0.02790509;-1.8644857;-1.693882;-0.012074332;1.5858651;-4.3326054;4.280122;-2.176292;-0.8941365;0.013109556;1.9316171;-0.19218096;-0.068318024;-0.31043324;-2.777284;-0.04815233;4.584992;-1.3909504;-0.019271223;0.011225959;-0.018399063;0.15083374;0.1981661;-0.07411616;0.021720866;0.33973116;-3.7308495;-0.7507781;-0.03591315;-0.4453684;0.9934545;2.3412752;1.9660522;3.7576663;-0.22415003;0.012635232;-0.028529465;-0.95823085;-0.08802581;-0.47574347;3.6257908;0.0006225763;3.0956266;0.58386314;-0.28042537;-0.019137256;0.054051965;-0.7369826;-0.70566285;-1.0193554;-2.834926;1.6861238;1.0045835;0.04644491;0.06044645;-6.808855;-6.6006746;-4.7223215;-0.47139013;-1.0889353;3.3133702;0.72595507;3.5913966;-1.6657093;0.67946565;-4.1950345;0.8431309;0.014967116;0.47628745;2.1628025;0.006897321;-0.012163855;0.10327151;-0.8807693;0.034327142;0.005235461;0.026489304;3.2034185;-0.023384187;0.89159083;1.347243;1.4906125;-0.77030677;1.0410447;0.95066774;-0.007279512;-0.6198535;0.020846575;1.0089101;0.071926974;2.7919843;0.021683132;-0.0034758295;-1.4920235;0.6856776;-0.53302634;4.572992;-1.5224172;1.5654733;0.03274608;-2.5553195;1.6622288;-0.6957257;0.025026985;-0.87995577;-0.024078906;0.7214679;-1.1332134;0.48720095;0.04729685;-0.040941484;-0.03753175;-1.2162262;1.7635883;-1.4847596;-0.5773397;-0.9330107;0.93880224;1.2039325;-3.2468185;-1.966065;0.4118407;5.153252;-4.182877;0.0137484595;2.359322;0.01445626;2.9316227;-0.03397322;-2.0545309;-0.12999824;-0.39125425;0.96014625;0.013734485;0.91160166;-0.02299083;-0.40782985;4.8836255;0.037438147;-2.264001;-4.2202992;0.81818944;-3.092165;0.011464533;1.0589087;1.297312;-1.9435922;1.3874838;0.38961643;1.6695383;1.208313;-2.38008;2.378127;0.92317665;-2.2044063;0.9048469;0.04056852;1.3990551;-0.13322756;0.025111835;0.028593987;-0.94197977;1.5795568;-0.013450808;2.0095916;0.04246772;-0.2086526;-3.832558;0.12349944;1.0025669;0.40661064;0.9555353;-14.435536;-4.323818;-1.0850004;-0.51788145;1.0955857;2.6516123;0.053880718;-1.6429416;0.50950414;-0.025772415;0.23667116;0.8178164;-0.056956295;1.7184017;-0.042880557;-0.0044693877;-0.58944404;-3.784217;-0.072738096;-1.622825;0.03302506;-1.4051112;-0.046163883;3.0501015;2.3747625;-0.50161105;-3.2491074;-0.054148074;0.012970207;0.028221292;0.040803824;3.392398;2.6865187;-0.5094798;2.1255608;0.6572142;-1.0939051;-3.1416454;0.010266864;0.019956138;-2.7222824;-0.05048837;0.6935946;4.8898106;-0.8180197;-0.03461726;-0.5430999;1.4973816;1.8253719;-4.694523;-0.5896672;0.007889971;-5.055923;0.03403159;-0.01542752;-0.005330495;-3.1701653;-3.1756454;-0.26700446;0.78760046;-1.5249965;0.44986773;0.056246057;2.6495917;-3.195567;-0.03932834;1.2044319;0.8414101;0.019953543;3.0609193;-2.0601323;-0.08101078;0.095928624;1.1317298;0.059842024;0.029024884;0.6094978;3.0975196;-0.07553036;-0.23014902;-0.93294024;0.06069584;-0.90917844;0.06299832;0.9345583;0.99515617;1.1716814;-0.060942024;0.01853683;1.0690888;1.946904;1.8638009;-1.5681651;-0.13662581;1.5554712;1.406484;1.1458056;-0.04623303;-1.9499961;-1.7194703;1.8190937;-0.012559924;2.6511538;-0.2063616;-0.62301266;-4.0936303;-0.18315059;-16.168905;-0.03453695;0.08783848;0.0070245387;0.015482956;-0.72755194;1.3207611;0.56922597;2.571854;-1.7134092;2.1826441;-0.03941668;-1.1068065;-2.3747647;1.0918763;-0.0036462015;0.025972968;0.030408354;0.31710887;-0.7401674;0.014011887;0.08941787;-3.118291;-9.313524;1.1755743;1.1111625;0.006366157;-1.1280208;-0.31062782;-0.034118924;-1.1466128;3.1621416;0.018729366;1.8236398;-2.8912287;1.4118277;2.0421197;0.54726005;-5.3064775;-2.4545345;-0.16213475;0.96543866;-5.8580556;-2.7132063;1.6706462;-0.42012927;-1.3768693;0.2872753;-0.08648672;1.3057811;-1.9992374;-0.017913042;-1.3910875;0.03524441;2.145884;2.1497362;1.3984838;-2.8455439;1.457981;0.02715758;-0.14235587;0.055835143;0.6727773;3.001775;-0.011679645;-0.004771288;-0.6762608;-3.687182;0.049633436;0.006430912;0.43445572;-0.82452923;-3.4887652;2.9830976;0.84162676;0.035519682;0.01904887;-0.09764373;2.1603384;-0.0062031033;0.022930088;0.94940835;-1.2140862;-0.004928322;-1.4485106;-0.07332555;-0.013887672;1.0594444;-0.31367537;-0.17325374;-0.04576941;-0.03479017;2.6407206;-3.8600523;-0.10570566;-1.1111395;0.02377313;-1.3070047;0.05558636;2.1496134;-0.04058907;-1.746492;-6.808656;0.40791255;0.027213361;-0.23747067;0.040278465;0.99724424;-0.17790759;-2.8265955;0.32039118;-0.07567951;4.9970245;-0.091302685;0.02280253;-0.20760655;-0.015353584;-0.68644583;-0.06909736;-0.70384103;-1.7014732;3.118585;-0.051730968;0.003974176;-0.05970774;-0.036010295;1.325665;2.0925019;-2.95667;0.023345234;0.002432482;0.5217097;-7.3460445;0.38440245;-2.8027234;0.043186415;-0.34238034;-1.0483526;0.51891434;0.00044220808;0.1023419;1.1916361;-4.6850214;3.875001;-2.7766988;-0.0069413055;-5.0851707;1.5080096;-1.1317941;-0.09450526;-3.831031;1.9335337;3.7221084;-0.84589314;1.9550169;-0.027796859;0.8798819;-4.0731444
-0.020879606;0.18760645;2.2475858;0.060598813;-0.008502038;1.203171;0.01396643;0.0063175997;0.77285147;2.50324;-0.007572386;0.258644;1.5579535;-0.7603084;1.0713056;-0.026354935;-0.33660194;-2.5240982;-0.06807616;0.05863493;1.3527671;-0.07173297;2.7927425;-2.7316775;-4.67763;-1.5599778;0.4566093;-0.045144547;-0.12447923;1.7311449;-7.3873034;-0.48034033;-0.3422987;-0.21608467;-0.16430058;0.019278374;1.00518;4.303643;3.610894;1.112358;-0.11046853;0.7414639;-0.6679535;-1.5855447;0.0067169354;-1.7610787;3.7774363;3.1940608;-1.6627067;0.018256709;-0.5017578;-0.024934784;-2.8826773;-0.78168154;0.1910539;-10.142485;0.82376814;-2.494247;1.3597894;1.5080029;-0.41986185;0.82839197;4.0578456;-1.4038836;-0.077512756;0.019370029;-3.2985055;-1.7262657;0.2811517;-0.0041351793;0.0004501403;-2.0291014;-3.583895;1.2214135;0.007206473;0.012710646;0.048035875;0.32618827;1.2140045;-2.18942;-2.7737978;-1.6753694;0.12169218;-0.016547523;0.023552401;0.18371376;-0.17745969;0.10146792;3.3809252;2.3739274;3.024034;-3.2594326;-1.0754614;-0.08088599;-1.0238715;-0.5359269;-17.413305;2.6111565;0.013459166;0.32004172;1.2385873;-3.5479796;1.1111991;-0.0085080825;3.112768;0.0073405234;-0.010708182;0.005644991;-0.008020964;-2.3222947;-3.4179294;0.23259601;4.7234883;0.1527457;0.05704466;-0.19151492;-0.020350965;2.1831045;-0.026302718;1.3495134;1.2327207;-1.6735545;-0.004581892;-5.223305;2.4088883;0.070365034;-0.021365792;0.5981199;-2.2998989;-0.022026483;2.430173;2.0743618;1.1366217;0.0066443086;0.352963;-0.049804807;-1.4256433;-0.0023849993;0.027173957;-0.0027209094;-1.6777269;-1.718302;0.027474659;-0.803297;-3.519515;4.0292883;-1.1367891;1.0181195;-0.008963447;-0.36365348;-3.7923698;-0.21742418;-0.04895577;-2.7813845;0.0772873;4.4699397;-2.2692099;-0.0045382855;-0.14230944;0.023405397;-0.57473576;-0.3946445;0.9692928;-0.06294456;0.23134372;-5.5830793;-0.23051468;0.96795756;2.1396694;0.030939654;3.1938848;-3.0237732;2.1700215;-0.8405386;0.091752246;0.0012429025;0.17464125;0.04951941;2.8393812;3.0221066;-0.023372773;-0.8031015;1.3840145;-2.07465;0.039702386;0.0020196922;-0.5565435;-2.3410337;-1.1695236;-2.1944199;0.9735335;1.1288146;-0.001783242;-0.041975837;-4.62937;-5.6454363;-4.648639;0.7199491;-0.94931966;3.6135316;0.81979346;3.5933363;1.6392109;0.47966078;-1.315729;-0.23283531;-0.017149819;0.6349946;-0.42448092;-0.06025361;0.04058128;-0.052855846;1.9070027;0.06513418;-0.03451371;0.017855082;2.0996313;0.019382438;1.2545455;1.9733275;2.8194926;-2.587169;-0.2725706;0.7323117;-0.033409383;0.1282381;-0.014842523;1.4912764;0.049531728;2.1959987;-0.01812887;-1.0595645;-1.7897465;-0.6612823;-0.7855989;3.307353;-0.29207578;1.6446341;-0.041946836;-4.074351;1.8682042;1.1095593;-0.036708616;-0.33848032;-0.019349102;-2.0294843;-1.8117142;1.3298274;-1.2252519;-0.011605457;-0.0010218674;-0.1825341;-1.8561853;-1.433612;2.999038;-1.074227;0.82196844;0.52799785;-3.2745106;-1.9932388;0.12759916;0.872225;-1.6510336;-0.033448458;0.020471998;0.01051356;1.8071324;-0.002137025;-0.08210786;1.3618245;-2.0866995;1.7477134;-0.004846523;-0.9164435;0.0552459;0.06342986;1.3837156;0.022439407;-1.3794218;1.36657;0.18825732;-1.5475633;-0.014630037;3.0488145;-0.3313945;-1.2368855;0.9930019;0.57010865;3.1084654;1.9986689;-0.97710705;-0.46212685;-0.04784315;-1.9956117;2.2910764;0.058392726;0.71140695;1.9621491;0.043264095;-0.013459641;-0.6466945;0.24262783;-0.007972548;0.0077857403;0.008963768;2.9612784;-5.1407676;-1.6649501;0.89334697;1.3938855;-1.22165;-14.08865;-1.1774462;0.1673989;0.38987884;2.3974843;1.7153587;-0.021760808;-0.6541554;0.73232394;0.03874547;0.09592406;3.8270106;-0.025813825;1.3055141;-0.062024634;0.0043115113;0.027563311;-4.3449244;-0.0040901992;-1.186216;-0.05866551;0.35216194;0.03091092;2.5447805;1.9180703;0.05841357;-2.7483144;0.00049575226;-3.766833;-0.026241321;0.7652206;-0.009245298;3.4492087;-1.6195111;3.903265;-1.7822692;-1.5459664;-1.9603965;-0.035637837;-0.034824785;-2.8944204;0.0025235536;-2.4765453;3.0803883;1.3538109;-0.008237965;1.1747583;-3.3325453;2.2047758;-1.0277643;1.5515728;-0.00092691183;-4.1145062;-0.01617002;-0.00901395;-0.057895128;-6.155041;-3.027883;2.2035565;1.5603145;-0.8988986;-0.052207537;-0.043400988;3.3561366;-1.2670324;-0.021187348;2.2876465;0.19548965;-0.05891443;3.127146;-1.8853313;-0.007663497;-0.44635278;1.275928;0.012254591;-0.053198088;2.8465421;0.6166504;-0.12776247;-2.5351133;-3.45865;0.0327295;1.5239292;-0.0016750975;1.1216481;1.4817495;0.863751;-0.00017455897;-0.008327918;1.9077473;0.58496165;1.2299367;-0.44460362;0.27384487;-0.28893775;3.1538985;-3.7171369;-0.0039457753;0.5993182;0.31006548;2.2409837;0.02063103;1.5017678;0.009201095;0.8134431;-1.4069322;-0.34096196;-17.205744;-1.0662798;-0.022513917;0.013816402;0.07656498;-0.060404316;1.672838;-0.12340159;-0.23160864;-2.1196926;0.9721862;0.01201526;-2.0472848;-2.013249;-1.6769031;0.027496988;-0.007811556;0.0112192705;-0.6704119;-1.9918437;-0.032737404;-0.16008326;-0.12551212;-8.204051;-0.5826584;1.0271145;-0.00553757;1.6918403;0.49606842;0.0038490002;-1.1711788;2.5776343;0.011892687;-3.4254787;-4.905136;-0.39194006;1.5676595;1.5016749;2.329594;-1.0766025;-0.07383526;-0.1795716;-3.7446609;-0.690953;-0.19576642;0.9551035;-1.0860844;0.00892198;-0.08136009;1.44473;1.1447048;0.028540391;3.3354034;-0.0030709135;0.92167395;-0.20091698;0.28526458;-3.5584059;0.37216535;-0.006328004;-0.7597768;-0.08156823;-0.45924902;3.6354806;-0.0019796146;-0.07679875;-1.1594512;-0.21859808;-0.061605;0.021430068;1.0087954;-0.6047189;-1.0948529;2.0470483;3.6008344;0.053407807;-0.038869873;1.6948017;1.7548145;-0.8199758;0.0062497696;-0.1900954;0.4903088;0.019763697;-0.012921485;0.053871732;-0.016888343;1.2949057;-0.17442584;-0.04557268;0.026241971;0.09508108;-1.775234;-3.991933;-2.3808053;-2.6552186;-0.018045366;-0.8231348;1.1628577;1.7891656;0.007290952;-4.3437963;-5.578984;2.4276123;0.0076604276;-2.9583054;-0.020840252;2.2441666;-0.0039673005;-2.5488858;1.4483218;-0.021209212;3.6240008;1.2652164;0.04756301;0.38384473;-0.022002732;-0.36152807;-0.8177281;0.9837748;-2.1919448;-0.5896501;0.00801284;-0.022754569;-0.011312122;0.008320101;2.18926;1.6896919;-0.6486745;-0.008297574;-0.0029745202;0.44500342;-6.9065948;-0.29983848;-0.8490527;-0.014154894;0.37118506;-0.43334937;-2.0656383;-0.008677463;0.012207678;-0.07741457;-4.392099;3.1391902;-2.1494832;0.021640064;-4.0002723;3.8552742;1.4152589;-0.10914738;-3.1799433;1.3188779;-0.7081284;-1.2680598;-0.23999378;0.010690098;-0.21382503;-3.9027238
-0.010665509;-1.1137713;3.7143579;-0.017263785;-0.005256641;-0.82909995;-0.048134714;-0.01806745;0.49132726;3.0351653;-0.023639917;-1.3207266;4.8991504;1.2124115;1.0399754;0.04101408;-2.1977184;1.2201338;0.023304386;0.07650897;-0.26588842;-0.16683872;1.1606709;-2.1325483;-3.6195414;3.6576939;2.092485;0.034844197;-0.21874568;2.943293;-1.2681935;1.0609157;-0.68580556;-1.9085617;-0.155954;-0.018433204;1.6027689;1.789678;-0.08273888;2.8061638;-0.6763094;1.45134;0.078403406;-3.6710238;-0.0028825765;2.6030686;4.709216;4.9467483;-3.780772;-0.027578687;-0.62725043;-0.013860435;-4.3467097;2.2550051;-3.8373103;-8.802778;1.501829;-1.1320271;-0.26238388;0.048174437;-1.5602249;1.20802;-1.105186;-0.55147284;-0.04117762;-0.005075337;-2.7385275;-1.2724445;-0.289119;0.005991477;-0.04131786;0.96074563;-0.5118655;-2.0401108;0.02480879;0.010492962;-0.016386459;0.2888355;-1.541047;-0.71989524;1.0093404;-4.5401196;4.1743145;-0.11679564;-7.0505314;2.7438684;0.94648826;-0.09554718;3.8685155;-1.6223309;3.1517315;-4.7132125;-0.000104223574;2.0636225;-0.4371295;0.65035856;-18.395073;-0.16641758;-0.06328874;-4.367121;-0.9061809;-3.9859793;2.3566241;0.018632524;-1.1057163;0.057528857;-0.044201728;-0.033037838;0.029337553;-1.844589;-0.20020595;-0.6995564;6.0367026;1.4759014;-0.017910575;-1.5561295;0.015709968;3.6045313;-0.02022916;0.38770577;1.0981493;-5.824672;0.002647607;-1.5320922;1.3829135;-0.027694738;0.0024253374;0.21273282;-2.3049343;0.014733979;2.5170593;2.1350315;1.0272242;-0.05654726;2.2421815;-0.0018900067;0.64747494;0.03026574;0.0048638205;0.011297889;0.32873878;-1.2746655;0.0012113117;-4.4388824;-2.7997959;0.8005351;1.9322531;-0.8697966;-0.027686028;0.7671639;1.2807928;-1.866085;-0.015231539;-3.5906246;-0.029696;3.7774913;-1.324719;-0.030983102;0.050592016;-0.05370015;-1.3183273;0.26473352;-0.26579213;-0.02546828;3.0223677;-3.7284312;0.6801296;-1.9658376;-1.6553336;-0.02037677;2.9160893;3.0333;-7.409485;0.99713075;-0.010985453;0.030241266;-0.47841218;-0.03179442;0.95528543;2.7793584;0.029505536;0.44068986;1.8445673;-4.655257;-0.026958387;-0.032640256;-0.7192225;-1.8849488;0.054544743;0.16568491;-0.08947742;-0.7694821;0.0068377433;-0.04668223;-3.5439632;-3.294368;-5.5835805;0.5269601;-0.5289632;3.051278;-1.4465582;3.9289734;0.064837664;0.16438742;-4.2467246;-2.7764049;-0.010469423;0.6784473;2.392247;0.012029992;-0.02972803;0.012625558;0.57401425;0.034492567;0.02130625;-0.008373219;2.6367798;-0.020270629;3.936703;2.6076005;3.945398;-4.410208;2.4792173;-0.1312412;0.013216073;2.563618;0.04265644;3.7708254;0.038626928;3.5506194;0.004109644;-1.0403491;-0.6343453;-0.9239203;1.1010653;2.1642308;-0.94816816;1.7186167;0.05465766;-5.775895;2.046451;0.3116795;-0.009627083;1.9566483;-0.013682225;1.6618721;-2.1604917;0.81560314;0.10045399;0.020469325;0.024568986;-0.011393561;-2.2477365;1.249078;-0.63063437;4.0220547;-0.6134826;-1.1397157;-4.540892;-7.6545706;-1.4828749;2.091949;-0.36803666;0.022968987;2.339633;0.0177868;1.7619638;-0.0035579184;-2.8933902;3.7711844;-4.0040445;2.1731405;-0.025953436;2.4780476;-0.04864525;-0.024056591;0.047220476;0.012112871;-2.2931304;-2.7026122;-1.220319;-2.150447;0.005893952;3.9254057;2.4131377;2.616531;-1.8678229;-1.0043942;0.7284824;1.73714;-5.696785;0.4370911;-0.09708059;-3.7245111;2.7846358;0.013368702;-1.9297253;-3.3010023;0.038074285;-0.060931593;-1.2425743;-0.90954405;0.021200348;-1.5386415;0.008411299;2.2027686;-6.7503576;-0.41606465;3.3216305;1.0356469;-1.0695834;-15.38225;-0.18529294;-2.598702;-2.9913511;4.262484;-2.929311;0.016084505;-2.5237923;1.782549;-0.008736004;1.303791;5.2393346;0.024534248;1.9999273;-0.008882095;-0.0012876996;0.17016155;0.13352536;0.012001712;-2.7463486;0.038016666;1.2623451;0.034746744;3.0467453;2.4091249;-0.01981104;-2.739708;-0.012075241;-1.4318637;0.005593144;-0.22325645;-0.05278813;2.591185;-1.7035699;-0.7689432;-1.3294779;-2.3932323;2.588866;0.002900966;-0.025802335;-3.6835968;-0.096292526;-1.919537;2.254433;2.6423113;-0.022638148;2.7973278;-4.699702;1.9678621;0.45015624;1.8018817;-0.057555187;-1.6473051;-0.0018163499;-0.0067412658;0.003705308;-4.563831;0.28176174;0.7940438;2.3572352;-1.8561345;-3.694279;-0.018143313;3.8842971;1.9230502;0.018642286;0.75248176;-0.76162267;-0.0038721762;1.6442288;-3.7547934;-0.019469094;-1.3551223;0.22660945;-0.048403665;-0.145426;1.2563052;-0.06910231;-0.03422707;-1.4862132;0.24658208;-0.02161402;0.49127167;-0.06575971;2.6154063;0.525027;1.2181761;0.047611643;-0.053030953;-3.7483342;0.9001368;-0.8453615;-2.16889;-0.39120203;2.320788;2.9076655;-3.3092089;-0.0357144;0.113160975;1.2917691;0.38302252;0.008476113;-1.8471197;0.015406483;0.1631358;2.8890667;-3.9183195;-16.461424;-4.149261;0.00690409;-0.015370023;-0.07916426;-2.7682967;-3.076401;-0.0713056;0.4225402;1.600214;-1.2882789;-0.024674252;-1.058973;0.6294459;0.48311877;0.008794734;0.009309163;0.050689105;-0.59674335;-2.5901172;0.038042136;-1.3033272;-0.13531338;1.0769302;-3.6695817;0.8105475;0.037792716;-0.2691369;0.1859706;0.01951212;2.9619062;1.7244087;0.011067918;-1.5243471;-3.4720228;0.21450375;-1.178078;0.22968306;-1.3847251;0.06806123;-0.014132128;-0.11341066;-2.8197627;1.790432;-2.0383956;0.87583774;0.8057235;-0.054791443;0.08610084;3.049645;1.831014;0.0032543724;-0.59613436;-0.015780127;0.6360085;4.6356916;1.3260458;-0.73629564;2.1883404;-0.035582744;2.1072016;0.033159126;-0.75108486;3.1963227;-0.0015947919;0.027424756;1.9014812;-2.4914935;0.016809111;-0.013602057;-0.35505998;-0.34976754;-4.3980055;-2.0100398;2.9237185;0.014726039;-0.025961217;1.2650515;0.7117469;-2.4115636;0.008670555;-0.061321873;1.4266357;-0.02155762;-1.7110083;0.038050715;-0.02977528;1.9388776;-0.23967822;-0.043250613;-0.016394077;-0.047920953;-2.1806557;-4.0713024;-0.6316769;-1.3417057;0.011103699;-1.2494489;0.40676653;-0.60822505;-0.020976128;2.559471;-6.171385;3.4927204;0.25378892;-2.0187335;0.0055464036;3.1940978;-0.051243164;-3.5419526;1.8789835;3.9858587;3.665696;-0.21692446;-0.029759126;1.721037;-0.024131944;-1.0687802;-1.4418325;-0.58089095;-2.8964233;-1.4653639;0.01724121;0.012271223;0.015479262;-0.09293314;1.7022271;-0.6650334;-0.7435084;0.0069066994;-0.018594021;0.20616788;-5.5741215;0.8995264;-6.738811;-0.011838557;-0.31643915;0.55023885;-6.9180117;0.024738494;-0.011360765;0.18937472;-2.336707;1.6788721;0.8778732;0.002933749;-9.011775;4.978201;-0.5938707;0.3148896;-0.14356855;1.4261516;-0.7389707;-1.2465574;0.20271727;0.012105056;-0.0066026137;-4.3331723
-0.01570202;-3.6656022;3.0332534;0.034718152;0.019865084;-2.417988;0.019754918;-0.004844733;0.5495455;3.4563906;0.011139241;0.0104477545;3.3612232;2.0618448;-0.06012061;-0.019115327;-4.9101086;-0.17578425;0.0038509858;-0.047176253;1.1036246;0.8673551;1.7245828;-3.2088532;-2.5710633;1.7988752;0.7627425;-1.3257643;0.95143265;2.4942484;-3.4596465;2.2891216;1.6769317;-1.1695743;0.0013949649;-0.0346985;-1.3595066;0.9722863;0.08456024;3.197428;0.21969664;-0.5147312;-1.7670864;1.0763648;-0.018825283;2.6141977;4.6747117;2.9816434;-2.0719328;0.034035772;-1.2356488;-0.048037555;-4.782864;2.3041377;-3.1890287;-8.669177;-0.14127485;-2.0388384;-0.698944;-3.6087813;1.6510466;1.930458;0.30413115;-0.51315683;-0.033699974;0.045108374;-0.6571056;-2.483661;-2.2806082;-0.07669663;-0.0034078753;1.3401669;-1.324599;-3.1072705;0.054688655;0.38335916;-0.010812842;1.3513596;-6.0782957;-3.965533;0.7224356;0.8920802;2.7729173;0.67594045;-5.152303;0.45631412;0.57267207;-0.1015991;2.5287285;-1.0751482;2.7605383;-3.0597816;-1.2179376;0.8806305;1.4155387;-0.16260546;-17.659702;-3.576855;0.031537008;-4.771394;1.0334208;-4.7382674;-0.35954362;-0.025245234;-0.782349;-0.003314199;0.043669887;0.017243387;-0.043705855;-2.8825016;0.94893396;1.3951409;5.1396413;-1.2075133;0.06798629;-0.9214132;-0.035160754;3.7564282;0.011570839;0.30307546;1.4180284;-0.53076875;-0.056782052;2.0073688;1.63255;-0.007845462;0.047085278;0.8583039;0.09570399;0.0028392207;3.1538477;0.84281564;1.4986049;0.03737517;-0.4167248;0.029936774;1.581458;-0.008192944;-0.035404403;0.020393273;-1.8809075;3.175599;-0.010778913;-2.357839;-1.1284422;0.4944146;2.8465414;0.24991204;-0.0017967507;0.07579669;0.049545124;-1.2684423;-0.25294852;-4.084011;0.0024195602;-0.30485508;-0.6545916;-0.014572754;-0.18564725;-0.033915494;-2.7404807;-1.352687;0.17648177;-0.013931224;0.17033623;-1.9054128;0.6037834;-0.061363988;-0.85490066;-0.86036605;2.3295557;-3.4746614;-4.719679;0.5605488;0.021886278;-0.027468361;1.233618;0.0043796403;0.62725306;2.4748323;0.01656958;-0.80236286;0.36714834;-4.450592;0.021558627;-0.01587582;-1.3032129;-4.203509;-2.7851565;-1.2246417;1.7159027;1.0360446;0.0070470376;-0.04411627;-5.961366;-3.3254623;-5.1601615;1.9745476;-2.595254;0.6692429;-0.4292018;2.3990262;-1.8937895;0.46084586;-4.8872447;-0.8353745;0.06291265;-1.1881965;0.7666589;-0.042124547;-0.016596194;0.02668623;-2.5638206;-0.04626424;-0.008123751;-0.050455295;0.914568;0.023927245;2.9325905;3.2745326;4.316641;-2.5948076;1.1388247;-0.3617099;-0.0005759489;1.5974579;0.0022993193;3.3692765;-0.011238613;3.044834;0.0035146344;1.0026323;-1.2290349;-0.29568854;0.215489;2.7155063;0.29270732;3.8669424;0.0061452542;-3.2277112;1.8538673;0.9878568;0.07503819;1.8858235;-0.021380033;-1.5244653;-2.5611665;-1.7630962;0.9876461;-0.032550916;0.0113465665;-1.5438011;-0.31403568;1.4266045;3.5463939;4.777385;0.6429553;-1.1118631;-4.753411;-1.6959888;1.1400003;1.4249413;0.9257295;-0.028399846;2.1854918;-0.030376926;1.0069267;0.009108159;-3.3296885;-0.31877577;-1.3044647;3.1860704;-0.025192268;0.8802349;-0.006317959;0.07979318;0.0069771586;0.006407208;-1.1058936;-2.7191179;1.2501241;-0.8438553;-0.05320193;-1.9607847;-3.424004;1.3556077;-0.54516584;2.607289;1.574873;2.3142965;-4.3350015;2.0739052;-0.049556736;-2.8931713;2.8639228;-0.018074702;-1.6905562;-4.197575;0.021863561;-0.000696269;-0.73922944;-2.1584096;-0.014316358;-0.44449294;-0.012796747;-0.62684613;-6.962841;-0.87876934;2.0107713;-3.701277;2.0391035;-14.643057;-1.3940815;-1.5174093;1.8707535;2.6581566;-1.7395259;0.018569175;-1.8883513;2.4218802;-0.015736077;0.18896125;4.169406;-0.0042157066;-0.2653435;-0.02904006;0.015357108;0.046715412;-1.0268315;-0.011242855;-2.1293972;-0.03186491;0.8920686;0.014624668;1.528749;0.16077822;0.2459015;-3.1610253;0.0016810998;3.0557947;-0.005220825;0.015731195;-4.053208;1.1710147;2.41494;-1.7241735;-1.9404365;-2.4581435;0.98418874;0.0011181347;-0.0097225625;-4.210342;0.69591177;-3.0937514;2.0675013;1.765975;-0.0054722284;0.6157719;-0.9965212;2.0350857;1.4098502;0.4157383;-0.019185891;0.22051844;0.010305348;0.0071787266;-0.016502004;-5.4718637;-1.1612912;-0.3314081;2.0263476;-2.295343;-3.2861028;-0.029500538;2.5456436;1.7133403;-0.041822467;1.5873519;-0.85063726;-0.0061076386;3.5201657;-3.7594666;0.008927995;-0.4543288;-0.04746376;-0.0027624122;0.2274364;1.5052598;-0.22331262;0.035134554;-2.395263;0.64972186;-0.06634026;0.15283072;-0.030066768;1.6913297;-0.7575124;2.476686;-0.0025094866;-0.009226858;-5.2034545;0.95765764;-1.8224198;2.348944;0.8735599;0.7347793;2.0033076;-3.9824712;-0.05599356;2.4662538;-1.6171263;2.120959;-0.034874026;-2.0612774;-0.20195767;-1.8868465;0.6468666;-1.8643405;-12.071545;-0.45868108;0.027251508;-0.04168838;0.00783639;1.9515405;-1.9055855;-0.006123287;-0.93077904;-3.3686855;-1.6017033;-0.027472746;-2.8833811;0.50185055;0.7126924;-0.026754923;-0.023769181;-0.049171694;0.44664082;-2.1104448;-0.022052757;0.3584961;0.6018325;0.8979337;-1.3950984;-0.7664501;0.0024741227;-2.256506;-1.7391856;0.009710248;-0.44367528;-0.38447103;-0.017248336;1.8934861;-0.5975935;-0.048775025;-2.6556437;-2.1307168;-2.348588;-2.0858343;0.019271169;-0.005478048;-0.858472;1.0778942;-0.31271884;0.5142698;1.2150583;0.04203808;0.031962626;2.3770895;1.420392;0.01752211;3.2560136;0.00054986135;-1.2260665;4.077241;4.452634;-2.5164416;3.3589683;0.011129594;1.3987284;0.01125929;0.2317983;-0.42024416;-0.017806605;-0.038669683;1.1390654;1.0387025;0.00070040673;-0.028083457;1.4672018;-0.8075294;0.622851;-1.9077867;0.8254703;0.024103701;0.0076374686;0.23078701;0.98777485;-3.092856;-0.017208438;-0.0043251733;0.6205531;0.029857222;0.4468368;-0.03685469;0.058663577;0.8381126;1.2605575;-0.03349091;-0.01365366;0.012903552;-1.5006479;-3.4415822;-2.242394;-1.2906044;0.0012151768;0.7773895;-2.4484386;0.45474023;-0.008121219;3.632007;-5.603271;2.6684465;0.31016058;0.7201695;-0.010258639;0.09367164;0.011587559;-3.2539523;-2.3564768;2.282888;4.000096;-0.6406139;0.01782521;2.672309;0.02869268;-1.6882821;-2.2314138;-1.3302464;-1.6555511;2.0284414;-0.029352278;0.048694614;-0.038166855;0.28492948;1.2341998;1.056093;0.47434694;-0.023209987;0.027955677;2.123391;-6.292675;2.0236125;0.23116697;-0.013955217;2.998205;0.4253886;-0.42763302;-0.047356483;-0.03386637;-1.8298826;-0.93782854;1.3856533;0.73226196;-0.014421524;-3.7537858;2.8326676;0.83353484;-0.19436476;0.9027327;3.071461;-1.1504434;4.5389724;-3.3485177;0.011730146;-0.04330332;-4.1447034
-0.009840093;-2.6447709;1.7985724;-0.0097486945;0.052349724;1.2361935;-0.027547989;0.012091781;-1.4692472;3.3814018;0.047453217;-0.62358165;4.197405;0.6499788;0.8465469;0.023267169;-3.630593;-1.8436327;-0.0022359225;-0.2978145;-2.9063022;-0.17768848;-0.71192056;-3.1686091;-5.1280847;2.527562;-1.3828875;-2.2623363;-0.17912571;4.276252;-8.422395;3.305401;2.973904;0.7720192;0.010323318;0.0061330777;0.86970776;0.43434656;-3.2828677;4.7916965;0.86468476;1.8361539;-3.0544968;-0.19996394;0.009070371;1.2620013;5.0810876;-0.57568204;-5.3253884;0.0035824624;-1.2357649;-0.021040887;-2.7376955;1.1534692;-3.0267818;-9.280857;2.401219;-0.92381436;-0.56487894;-2.4566379;0.15242894;1.7197833;-3.1419199;0.4908113;0.058436263;-0.029977476;-3.1773243;-5.136281;-2.101396;-0.16699028;0.017426051;1.8781508;-2.572507;-1.0261147;-0.1457749;-0.03250547;-0.0001416357;0.9285423;-2.0252757;-1.8168797;1.4681889;-3.4769819;2.9156692;-0.14657207;0.43451807;1.9895844;2.622303;0.2529468;1.6609085;-0.82795644;3.0380747;-4.441653;-0.4220129;-4.346227;2.3829486;-0.12833303;-18.041302;-1.4361365;-0.029622199;-6.7995353;-3.6228108;-4.0012045;-0.9591046;0.014318925;-0.7176997;0.014098439;-0.008774271;-0.021157274;0.017326776;-3.9074454;2.7550435;2.3449843;5.384675;-2.6806676;0.013268858;-0.6390795;-0.033258043;2.7971196;-0.061959792;1.9831034;2.0485227;-0.7215936;0.0076970053;2.3153222;0.3897523;-0.021129575;-0.040652364;2.6110191;-3.2756746;-0.01602888;3.6811018;3.8862321;0.33826077;0.009979217;1.2370365;-0.0059419866;-2.2593286;0.037210744;-0.016273336;0.00887882;-0.66382986;2.7528932;-0.01936411;-2.2417638;-0.7315082;1.2215486;3.4568326;0.32077593;0.036369033;1.7865914;1.1787457;-0.15171434;0.40128794;-0.9401448;-0.0090786135;0.6697771;-4.052229;0.042561136;0.8513328;-0.012328582;-1.6097964;-2.6038094;-0.12695877;-0.0066723195;0.26882958;0.36949703;-0.19687864;-0.4525218;1.6289251;-0.6063175;0.6576944;-0.030557865;0.68629056;0.010702093;-0.0003562355;0.04735127;2.0234396;0.027546888;-0.5234633;1.1748703;-0.0036901636;0.99251443;1.0832788;-1.9871602;-0.028441688;-0.054823533;-0.32813457;-0.45443755;-3.3374448;1.438817;-1.4128335;1.7027458;-0.04610151;-0.005531314;-0.38759297;-1.5691158;-7.9140015;0.08755015;-2.739141;0.032954335;-1.2339867;0.7630229;-3.772563;-0.2819564;-4.6747003;-0.23292635;0.01233999;1.2273123;1.2630392;-0.1401854;-0.025367253;0.047003567;-5.956704;0.0015698879;-0.027851641;-0.002964682;2.5065238;-0.021124268;0.7980911;1.3115082;1.8143346;-1.934786;2.283497;-0.701322;-0.05728126;3.373472;0.04333576;1.1569159;-0.01948245;1.5828805;0.0018586006;0.47171548;-1.992446;0.9390241;3.1082625;0.75720507;1.5299981;1.3300401;0.009437075;-0.59899634;1.4440764;-0.7068116;-0.051818896;1.0547673;0.016547075;-0.47029278;-2.7246008;-0.05701284;0.81890416;-2.9623357e-05;-0.009877414;-4.7575727;-0.7229903;0.50929075;4.0368786;2.4698896;0.38153115;1.8659121;-7.888212;2.4426649;2.5106485;2.0137637;-0.32048276;0.0029984592;4.2366557;0.0025508853;-4.537427;-0.040113304;-2.6353915;0.3087575;-3.3264375;3.3482773;-0.013117895;3.1244457;0.02779343;-0.37904283;-0.7989635;-0.036207274;-1.973125;-3.6486413;0.5981647;-3.5691242;-0.06901222;-0.5389886;-1.4041413;2.9307635;-0.7708753;0.64995456;1.400944;2.4913063;-4.589335;3.8148236;-0.03969139;-3.1983604;1.3899556;-0.0042963177;-4.330568;-0.8435064;0.010928604;0.010366179;-1.4878943;0.5307159;-0.012385757;0.050242167;0.011403674;-2.979192;-4.743394;-1.0907717;-0.87274045;-9.362885;1.4296411;-15.041641;-1.3378344;-2.6025434;-3.117573;1.4411036;-0.421054;0.039495997;-0.45648578;0.7804587;0.0098865;0.972314;-0.4137789;-0.0018053394;-0.03353109;0.009430457;-0.024929028;-0.26708937;-1.2764117;-0.05316572;-4.168439;0.023491023;-2.5197966;0.017114958;2.866484;2.4957051;-1.7976305;-3.2964597;-0.014411928;0.817415;0.025923816;-0.16437034;-3.2624624;1.5573814;5.123272;-0.20780225;-1.8110435;-4.1810365;-1.1121671;0.0011112307;0.014308386;-3.5008636;-0.1750215;-0.69132555;3.3296528;2.3548326;-0.004386395;-0.45413345;2.432402;1.9067847;0.9909076;-0.3860026;0.0050812797;-2.3830519;0.009392859;0.014736429;-0.009276161;-5.8320374;0.27186736;-0.5054304;1.8421172;-1.9140584;-4.22719;-0.016131328;3.564337;-0.39226094;0.03398437;2.1310186;-4.8004656;-0.023596443;0.7643269;-5.635443;0.04794741;0.07172647;-1.6741021;-0.037062198;0.02178229;1.4601018;-2.5360153;-0.028700054;-1.744036;0.7905307;0.0093519585;0.37982568;-0.07054492;1.3663269;-0.4626675;2.6928663;0.05491167;0.037222106;1.2370245;2.5354333;0.67807055;3.7621615;-0.11441448;1.3604454;0.7143102;-0.21619044;0.023128176;2.6748562;-2.535734;1.761928;-0.027139354;-2.7024379;-0.9880246;-0.64563066;-1.9023477;-1.7817687;-10.652737;-2.0957212;-0.025145078;0.026876144;-0.042449605;3.1139932;3.2712631;-0.038876414;3.5791016;0.21458729;-0.54172605;-0.039843567;-2.9042466;-0.6809799;1.1294545;0.017027214;0.03499457;0.06994715;1.8654823;-1.5343232;0.03862374;-0.1475368;2.0574374;0.769445;0.118342444;-0.17552155;-0.034828622;-2.3868315;4.778244;-0.010622616;-0.74468654;-2.7812412;-0.04410647;2.2736175;-2.7287436;-6.376487;0.66643804;0.6419368;-2.6695662;-2.22368;-0.019895596;0.0122630065;0.73376584;3.448713;-0.6903086;0.45387763;1.7610811;-0.017134894;-0.040395495;3.5494292;2.8353279;0.0048834397;-0.968729;0.036495574;0.029000621;3.625404;3.7404354;-5.139942;2.8903959;0.018221954;-0.21664664;-0.012248622;1.7469119;-1.5597961;-0.062435303;-0.09862678;2.9585495;2.748616;5.2014955e-05;-0.009513811;-0.4530276;-2.1619737;-2.259936;-2.249565;-1.4280177;-0.021547072;-0.013095547;3.0385933;-2.7494998;0.8288874;0.008348885;-0.0070084147;-2.4094899;0.01759996;0.31639957;0.022572646;-0.068309106;0.36928576;3.2832668;-0.0023822887;-0.0029893632;-0.018082963;1.5282282;-2.8976705;-4.0292296;1.0129778;-0.05046157;-1.4294631;-2.7063787;2.8681855;0.03830986;1.949551;-4.9937234;3.8871918;0.13301395;-0.35791883;0.03350798;0.3259551;-0.00971185;-4.240846;0.11807089;5.405366;5.9313064;-0.2226273;-0.011540141;2.0976326;0.0014012833;-1.5384368;-2.3774757;-0.69830126;2.1087437;-0.66508013;-0.022798885;0.039041054;-0.0062322407;-0.09197061;1.0837302;-0.91961956;2.39377;0.014416678;-0.040879916;-1.2108815;-5.1319942;2.1040888;-0.38094455;0.0010276024;1.7446879;2.394019;-1.9315784;0.009034907;-0.013214628;-1.6108025;-0.21888535;0.4819715;-5.389659;0.058120605;-1.0915172;0.0069875903;2.476775;0.024468677;3.0518756;1.8840777;-0.86466485;2.5725992;-1.0878109;0.05599177;-0.0037883772;-2.259298
-0.0047509978;-1.0811493;1.8229808;0.03721601;-0.039654624;-4.7373724;0.023642248;0.02519169;-0.47843176;2.2105494;0.0050079427;-1.2053348;1.5838853;1.963848;-1.2570401;0.030278414;-3.8792524;0.22288173;-0.017721942;-0.11462041;-3.6599395;-0.07453909;-2.1857917;-0.5025079;-5.675276;1.8411251;-2.2218125;-2.390047;-0.21574503;3.945777;-8.320137;1.5930713;4.018594;0.20099813;-0.061158407;0.029332696;0.7736527;-2.9219418;2.9917927;1.4698675;-0.50720406;1.4275924;-2.4539533;0.65658516;0.013699367;-0.7576161;4.3700304;1.1980611;-1.4639281;0.02646899;-0.24422666;0.0107408855;0.33495423;1.4190356;-0.8728797;-8.394336;1.7972237;-2.1540966;0.8553539;-0.65402645;1.7412384;1.7399665;-5.4285765;1.4718236;0.009553432;0.052279867;-2.507902;-3.0556533;-1.5775884;0.5878532;-0.0023872575;0.8619468;-2.0021513;0.30785343;0.88261795;-0.07089248;0.037942376;1.0486345;-0.8362147;-1.3582523;1.4692655;0.4795522;1.5114348;-0.058099188;-0.644128;0.96883774;-0.9591929;-0.107440226;2.0331523;1.1715475;2.8187044;-6.482971;-0.5489515;-1.3664776;2.0285816;0.41931346;-17.262506;0.5608596;-0.0250965;-3.8829658;-5.016654;-2.7936041;1.3204079;0.010174025;-0.27617583;0.044720713;-0.034860633;-0.02179703;-0.021314083;-2.1823916;0.7720712;-1.5679321;5.440595;-1.2088917;-0.00074607413;0.034089763;-0.008770083;1.6770368;-0.048173543;0.83554095;0.3633867;-0.1577416;0.049438342;1.8657825;0.5296282;0.047108624;0.039272707;0.51885384;1.3761153;0.0015074715;2.9654248;1.7584542;2.0428624;0.019686773;2.0480552;0.0034492328;-2.5257118;-0.02628415;0.021589683;0.028652612;-2.692102;-2.9663248;0.027807346;-4.138693;-1.9561031;1.4393957;2.7017298;2.8286989;-0.025735322;0.5338835;1.1199044;2.2051575;-0.11874684;-1.1407895;-0.02633598;1.6295741;-3.802813;-0.04312037;-0.17898022;-0.007030915;-4.4618983;-2.2774727;-0.031986184;0.027137242;-0.97987956;3.6166441;-1.5969025;-0.024330864;0.8008276;-0.5445067;0.9353932;1.9118357;0.047266383;-1.3046529;-0.04186829;-0.048402425;0.074185;-0.013113198;0.5958823;-3.6471128;0.003179942;2.9866238;1.640677;-1.92706;-0.015647931;-0.0020586269;2.3623085;-0.27512017;-2.0344958;1.2338587;1.3425182;-0.055335302;-0.004619387;0.02167905;-2.116423;-0.8744242;-6.8762593;-0.238541;-3.2112658;1.0900276;-0.99024254;-0.30510822;1.436049;0.41782784;-3.358842;1.9593465;0.033366214;-1.1553553;0.23432806;0.92164886;-0.011217968;0.021966085;-4.454484;0.009371801;0.016691396;0.027013091;0.6563158;0.05532219;-0.8722352;-1.9303356;1.4192547;0.028563075;-2.045622;0.005189191;0.0055180327;1.4473697;-0.030216424;2.037879;0.066939116;1.1351265;0.040520784;0.56732345;-0.45749456;-1.1942682;2.8183281;-0.83651114;-0.023022566;-0.36042896;-0.0104038725;-2.6694884;-2.6174557;1.0819696;0.015665308;2.8171773;-0.026725356;-0.21168327;-0.66310036;-1.6086955;1.2569317;-0.03139798;0.0035219078;-2.0995307;1.9455242;-0.85963696;3.1308692;2.6393638;0.12600379;0.83046323;-6.153055;1.6816087;-1.4422832;0.250199;0.9968286;-0.029390048;3.8331091;-0.021866564;-0.5597915;0.02846594;-4.114165;-0.22773623;1.0844618;2.7623045;0.024645446;-0.9017592;-0.0103968745;-0.00075696025;0.31575003;0.025972927;-1.6827794;0.35052052;-0.5675353;-2.3547053;0.057540417;0.00692111;-1.5797808;2.9831047;-2.2116735;1.7134856;3.5778458;0.91087925;-3.8321714;2.7469363;-0.023254627;-1.5465502;1.344513;-0.033344876;-1.1365386;1.2499673;0.046728678;0.018043667;-1.2648405;2.2484086;0.0046048705;-3.7798936;-0.03580701;-2.5914946;-5.092076;-0.6647158;1.0158883;-6.3483553;2.1885085;-14.254757;-4.5477695;-3.1729147;-1.4067894;2.7060032;-1.9924457;-0.004093342;-0.24942969;2.4973462;-0.02702965;0.7092866;0.66297084;-0.013373511;2.7264743;-0.017925754;0.058404002;0.11503957;0.77157325;0.014593629;-0.8196145;0.020748757;-1.7943839;0.012083955;2.228686;0.5126922;-2.8528626;-3.5087821;-0.0039238576;1.4902601;-0.035324212;-0.07329333;0.60565245;-1.5997647;2.1085968;-1.4716691;-2.8691192;-3.8186324;1.2814196;-0.031662848;0.004553025;-1.8138726;-0.09917376;-3.0120423;0.6786209;0.60082823;-0.025866551;2.6785355;1.5830997;0.7496769;0.78229785;0.9176785;0.0045805383;-2.0680873;-0.004672144;-0.035619214;-0.058047533;-5.0809693;0.22175798;-0.5647185;1.079789;-2.6733167;-2.5950956;-0.01761024;3.874972;-1.4983805;-0.006734366;0.9867668;-3.883119;-0.017670259;1.4139258;-2.7981722;-0.23156732;0.6288534;-3.1935866;0.053010296;-0.43045673;-2.4235687;-1.2457055;-0.03323436;-4.567041;0.8634782;-0.020250784;0.21230367;-0.117227815;0.14755765;-1.0447711;3.7238111;-0.02542292;-0.023126835;-1.5512428;3.113405;0.16380662;0.9382579;0.12940568;0.31026128;2.1674032;0.914589;0.018761514;1.9434463;-3.7445369;1.0882819;0.009307548;-2.0253963;1.0187355;1.025932;-0.74334586;-1.7747172;-9.301478;-0.42086095;-0.0480277;0.032920226;-0.069750994;-1.3869174;-0.73483574;-0.0114987055;0.255429;0.032832835;0.47062433;0.0017958106;-6.6256094;-0.7877537;0.0995508;-0.017481303;0.076390386;-0.024974272;1.4053988;-2.9197476;-0.02650616;0.11896599;2.6333728;0.22158672;2.3010714;2.686425;0.0017174175;-1.1277256;1.330035;0.01943827;-0.58311546;-2.4750001;-0.035609968;0.8594346;0.63805205;-2.914831;-0.2364861;3.8733144;0.7650821;-0.82032746;-0.048672784;-0.003332512;0.5415112;0.5578297;0.7013433;1.061656;3.343207;-0.020536862;0.04110102;4.197061;-0.06150327;0.04636942;0.007863148;-0.03707772;0.14601512;3.2658045;0.6284636;-4.500269;2.370594;0.00924627;1.0334384;0.026050746;-0.33979166;0.7953304;-0.050903477;0.85308546;2.7230072;2.7101839;-0.03458607;0.043014076;0.7443796;-1.0099576;-0.04754214;-2.8259208;-2.2067716;-0.031601116;0.013506826;0.84649235;1.2657554;0.3299905;-0.054924723;-0.048577167;0.3544748;0.50026494;0.311074;-0.019761823;-0.035161324;0.34413484;-0.4031472;-0.06182676;0.00736513;0.021821;-0.10970063;-5.0539937;-1.1436995;0.38746017;-0.027256785;0.3573688;0.7604628;0.77403766;-0.0124299275;1.6365287;-2.724543;5.4299183;0.2824689;1.1028544;-0.028264867;1.7494209;0.0031268662;-5.18335;-0.73184174;0.9259583;3.1890721;-4.2460237;-0.0054436335;0.40215617;-0.02742772;-0.08388962;-2.3660946;0.00561361;3.6436899;0.82612735;0.0239829;0.008132306;0.034098037;-0.03003309;2.1989422;-2.2401545;-0.11580765;-0.0019984918;0.02137842;-2.9333706;-3.7808607;1.6435698;3.7013552;-0.012306963;1.9905907;2.0346136;-1.1228921;-0.012626492;-0.116513416;-1.8323637;-1.4612863;2.332515;-1.8897188;0.027688831;-1.1841276;-0.13122696;3.987321;-0.06386795;1.9565294;0.2633084;-1.511695;0.19629076;-0.20790279;0.031566877;-0.03912814;-0.14090252
0.020335859;-0.14607364;2.2245858;0.0538752;0.016776813;-2.8664374;0.04224426;0.04555841;-1.6237174;2.7951388;-0.05847264;-0.29233244;2.241097;1.7561849;1.0926566;-0.031698357;-4.213635;1.0256457;-0.01514793;0.08375643;-1.033436;-0.09387411;-1.8899555;-3.1774366;-4.4734807;3.3681097;1.4777522;0.029757274;0.2070498;4.182237;-6.5474615;-2.1818347;1.807179;1.0171608;0.009175475;-0.024349589;0.45394546;-1.6873018;-1.5830249;0.2588731;0.0133088995;2.5548203;-1.8635203;1.9411051;0.021605613;-0.7263872;3.6396773;0.5559523;-1.6495198;0.0075936527;0.93051213;0.0005645524;1.3378304;-3.4029326;1.9895805;-6.825274;0.83724374;-1.9383589;1.384625;-4.6295943;2.3987167;2.4415147;1.8123356;-0.21661915;-0.023428682;0.009326413;-1.5699987;-3.304597;-0.9493797;0.49517605;0.0076743816;1.466125;-6.3049254;-1.2316338;-0.21830428;-0.007842524;0.011907732;1.2356011;-4.4843473;3.960906;1.9168049;-2.7726061;-1.0921541;-0.03933445;2.294121;2.1355448;-1.1100323;-0.12955344;2.8811502;2.243905;3.225421;-2.7493155;-0.58226734;2.1283216;-0.32260194;0.57155734;-16.37974;2.1023061;0.032284256;-3.6710713;-2.3398297;-3.1371465;3.2765946;-0.008243144;1.169174;0.017476575;-0.0026763487;-0.036117993;-0.024381842;-0.45954755;2.4879785;1.204142;5.3251495;-1.4728423;-0.012721048;-0.6249071;-0.042662155;1.1583182;0.023242831;1.2507075;2.8944523;1.9285423;-0.048130427;1.1964719;0.81951493;0.015666101;-0.03611829;-0.21995921;0.7253202;-0.030868597;2.857378;2.9494016;-0.43080783;0.019863708;0.89671504;0.028801756;-2.3864276;-0.032591935;0.008328008;-0.048706662;-2.8548357;-1.6295624;-0.019013163;0.008485543;-2.9902472;0.44227853;2.9032364;2.2904227;0.034467027;-1.900589;-0.849454;1.754912;-0.024963295;1.826488;-0.026806151;2.2385411;-2.1734173;0.011385492;-0.09669922;-0.01938682;-5.4764466;-0.35549623;-0.036336526;0.00712649;0.03834755;0.7845999;0.7743427;-0.09757932;-1.9850669;0.83905923;4.334935;-0.7306399;1.3389261;0.10362349;-0.028238084;-0.025648378;1.8892577;-0.005648073;0.8519668;-0.8680664;0.02962442;-0.8722648;0.97401345;2.4373577;0.034184992;-0.026597498;0.07264697;2.7216344;-3.3762178;0.83773047;1.8044909;1.897448;0.045022395;0.026343515;-1.1865295;-3.7451065;-5.5728154;-2.0030663;-2.75308;1.3106881;-1.2367091;0.31554872;-1.323586;-0.55517024;-5.888462;4.1172957;-0.026331319;-0.123254076;-1.6096973;-0.21445955;0.042186894;0.01706937;-3.6705134;-0.042741083;-0.03364246;-0.047095917;2.7061408;0.011121257;0.51036096;-4.4853053;1.4096675;-1.3926412;-2.5367932;0.7569498;-0.0029764618;2.0965593;0.035317503;3.754182;0.010318901;2.2302155;0.0163769;-1.0116543;0.078211494;-1.0871394;0.42128327;-0.093471676;-0.32798406;1.4348533;0.011268554;0.4309596;-0.078474164;-0.007912697;-0.012994927;1.0895346;0.16009277;0.6620263;-2.6935427;1.2673496;-1.5320796;0.018640883;0.06452829;-1.1969051;-1.0764477;0.176008;2.9586592;-1.4382203;-0.12172392;-0.13839987;-7.3762875;0.572226;-2.5716832;0.13659914;-0.43725288;-0.01615065;3.943441;-0.009311706;1.4808422;-0.037028316;-2.6817622;-3.4327617;2.3239264;2.3778691;-0.018439505;-0.5794587;0.019619904;0.24302325;-0.95459104;-0.026629949;-0.5239628;-1.5687214;0.5717974;-0.35572174;-0.018432578;1.7680626;-1.7589669;2.9884427;-0.29538867;2.0623684;-1.7957466;-2.657983;-4.124412;3.736094;-0.032515448;-0.5737995;3.59894;0.0006995509;1.7469726;-1.038964;0.004456352;-0.012082743;-1.2080458;3.4302242;-0.04662744;-0.16945049;-0.00994446;2.0151327;-4.719661;1.1255115;0.31922016;-11.950581;-1.0530795;-14.636445;-1.6908481;-1.046998;1.0256417;3.2413447;-2.0651555;0.031925425;1.3879557;1.1223515;0.01858405;0.053210426;-2.0104854;0.024312817;3.9911714;0.020200418;-0.07251663;-0.102242045;-0.5045329;-0.02428195;0.1564103;-0.0046527465;-0.9742389;0.01083644;2.659288;-0.2877042;-0.14593479;-3.205712;-0.031766187;0.5620265;-0.030509928;0.015616762;0.6843684;-2.3353992;0.5938487;2.5576162;-2.883294;-1.6069877;0.50096285;0.05493143;-0.00012002624;-1.3425444;-0.0094429115;-3.7230382;1.434054;-1.2363338;0.009096888;1.3647065;0.21311043;0.9163218;0.95290715;-1.448875;0.007283162;-0.71757144;0.09346047;0.0074997526;0.03755974;-4.9836903;1.9522259;-0.52431035;3.187045;-0.06381879;-2.4586833;-0.011731275;2.7369266;-1.745543;-0.013362378;0.47001502;-1.3394067;0.019839957;-0.66980827;-6.9209332;0.08255402;1.1171737;-2.399271;0.01431325;1.0129164;0.05352506;3.9039993;0.020652244;-4.319859;0.7141776;0.010878726;-3.8813887;0.110491775;-3.258288;-2.9524748;2.4586096;-0.012813404;-0.022271361;-2.3729732;0.74507874;-0.22232568;3.3753872;1.5729032;-1.622332;1.7438625;0.23472033;0.0040911767;2.080684;-0.00395993;1.1496624;-0.037530467;-1.8595196;1.2465177;-4.255643;1.5254968;-3.0871658;-7.734031;-1.6169156;0.014165731;0.046235267;-0.058302023;-1.9421942;-3.8060794;-0.036223285;-2.29072;0.24078643;-2.19456;0.013678453;-3.185557;-2.5007348;0.8781503;-0.06984318;-0.06621953;0.026300834;0.6111407;-6.685549;0.04386436;0.4532614;-0.22535487;0.2375356;1.9538378;0.54822487;-0.032293748;-1.0897951;2.344628;-0.033813212;-0.27771574;-2.5300288;0.009955728;-4.1359224;-0.37084273;1.6675583;-0.2888001;4.3753757;1.9013075;1.3533564;0.04185245;-0.0011109078;-1.9320184;2.4385068;1.1198357;-0.5702765;2.2746875;0.013354895;0.024552753;3.1680744;-0.1832167;0.024962602;-0.6407051;-0.00020507172;-2.3285549;1.2723353;-3.7018063;-2.3472908;2.106404;-0.0055369856;1.489957;0.010222126;3.3958292;0.5100407;-0.016842036;-0.064813696;-0.33531624;2.265497;0.024271594;0.0044415635;-0.6521373;-1.156041;-2.5467546;-2.3556898;-0.4823925;0.023345657;0.030981854;0.12602106;0.65670526;0.37553596;0.015133025;0.023688152;-0.8464576;-0.087667525;0.1315345;0.01663966;-0.037763648;2.1191516;2.0461059;0.02864468;-0.003491246;-0.0051091295;-0.24823716;-4.388465;-0.64841676;-1.1476636;-0.049565043;0.49433306;-0.43341345;-1.5430553;-0.01932747;1.7074971;-3.4396763;4.184982;0.27750996;0.160474;-0.0042388635;0.33176595;0.026979895;-3.3126206;-1.2498952;-1.1081079;3.41616;-2.707961;0.0038649025;-1.2606208;0.112456165;-2.345656;-1.7659358;0.5019798;0.9122548;1.28687;0.024188567;-0.03291868;-0.04246261;-0.060439236;2.6239598;-0.33037347;1.6175165;-0.04496979;0.011494211;-1.1661279;-1.5577866;1.4253837;1.4270282;-0.008171051;3.442953;3.9597268;-0.08576962;0.017880704;0.3713591;-1.1498591;-0.26125205;1.5091711;-0.29958984;0.035175562;-0.2746198;-1.854934;3.4748137;-0.08164378;2.305102;0.5972995;-0.93593955;0.28855872;0.7817735;-0.030231152;-0.020048827;-1.5878
0.022119392;-3.4149566;4.946794;-0.034358285;-0.029380543;-0.48148263;-0.051313743;-0.039973844;-0.5577838;2.5379546;-0.16455874;-0.1254842;3.282324;-2.1176739;2.1764379;0.0071182293;0.39317784;2.4401176;-0.020395227;-0.13025452;-3.1722128;0.054777984;3.440087;-3.2332063;-2.6415734;-2.4720817;-1.2769208;-1.571404;-0.121852174;3.4697216;-6.7420664;0.008763055;0.57094616;-0.18900864;-0.01665012;0.022426847;1.0757504;-3.0936344;1.233004;-1.3336701;-0.16747771;0.7557904;-4.7288437;2.9721336;-0.015019052;0.9332513;3.0974665;-0.30292;-1.2244276;-0.09487447;-1.9961601;-0.029614106;3.2511928;0.43385866;2.1995249;-3.8658273;-0.45742613;-2.2337644;2.2731237;0.0274918;2.0763261;1.7045453;2.116323;-0.9302149;0.004221189;0.002536674;-2.1902988;-0.7738103;0.30247155;-0.20207548;0.03341221;2.6842468;-5.9620404;3.477892;-0.117709525;-0.02254348;-0.018450977;1.7906523;-0.36224288;0.035939723;2.5357728;-3.5424778;-1.0958567;0.03594163;-0.72269607;2.8311298;1.9303356;0.045833554;5.5999737;2.2650332;3.4240048;-3.7184467;-1.8960088;-1.958977;-0.18919587;0.4072469;-15.390632;0.7987374;0.012085373;-4.4915977;1.5273842;-3.5064082;1.3676445;-0.014863632;-0.7583724;0.019279605;0.059000585;0.00080305495;-0.058903534;-2.7815797;2.2033105;-0.4953222;5.506692;0.7191039;-0.008412477;-0.13606042;0.019213742;1.1449429;-0.027613318;-3.1417005;1.3107637;-0.08377308;0.013938957;-0.13807552;1.0388608;-0.013193616;0.0061388593;0.40893894;2.1438172;0.010234581;0.84027123;-0.15350401;1.4622148;-0.014830953;-0.6524912;0.018324226;-1.8523821;0.06609059;0.0042509604;0.034256544;-3.15001;-1.5036076;-0.018890485;0.025779497;-2.2623985;-0.06534007;0.6719058;-0.16269165;0.018764105;-3.812513;-0.33304176;2.0493119;0.035232887;4.228431;-0.037011668;1.18666;-2.6805768;0.02233307;-0.016667185;0.055113856;-5.5907454;0.31034154;0.017100729;-0.013571644;-1.2043875;-3.0912938;-4.207181;0.27800635;-2.3601286;-0.6447265;3.918775;-1.5199304;2.5484607;0.5399357;-0.043116882;-0.037841108;0.45618632;0.02770636;-1.5112305;0.5358113;0.019693255;-0.39666706;-1.140098;0.40408987;0.0042229192;-0.04772774;-0.2524313;-0.5022376;-3.214673;4.4459653;-4.189865;-0.7821592;0.02344661;0.0036157812;-6.279093;-3.6408172;-5.453775;-0.9737132;-2.9430454;-2.1869273;-1.6708459;0.307858;0.14995429;-2.3307657;-4.0216203;1.0682523;0.024463499;0.7734504;-2.095867;-0.11649791;-0.0025730883;0.039569374;-2.0534117;0.020378945;0.02082229;-0.0018314768;2.1079912;0.014033417;0.95796704;-4.9932785;1.5713657;-2.6391904;-1.7918936;-0.46510363;0.009650696;-0.21598326;-0.06380484;2.5729597;0.021729438;0.3241935;0.0029321904;-0.057757776;1.7645881;1.5441674;-0.39056808;-2.9152088;0.5573386;-1.3730464;-0.013647876;-2.042998;0.40568495;0.4754611;-0.04132202;2.7742984;-0.042732812;0.41191274;-1.9915947;2.9776044;-0.6490245;-0.018730924;0.035297144;-0.9387065;-2.279701;0.21346316;3.0422807;-1.3927475;-0.024944376;0.85522187;-2.0490754;1.4965025;-3.0874524;-1.5286582;-1.829588;-0.0067645353;3.1589816;-0.025404107;1.4238082;0.01402599;-0.5383332;-1.3942599;-4.4810834;2.1881456;0.0018646603;0.28986526;-0.009092027;0.48806772;-2.3304565;0.0071595213;-1.375515;-1.3764659;0.884567;-2.6589177;0.032174427;2.7269182;-0.2730661;0.6863286;-0.09440865;3.2102256;-3.7914248;3.0747063;-4.9612565;1.327468;-0.0453416;-0.25430223;3.8236384;-0.012092009;2.8866153;0.43481526;0.012466882;0.026206551;-0.07835987;0.4322761;0.009812523;1.8317274;-0.010460335;0.5236997;-5.132164;-0.1987512;-1.2153372;-15.083618;0.40157473;-14.180917;1.1061236;-2.0901823;-1.2003633;2.8481426;-0.5365287;-0.012357073;-0.79441667;0.45874232;0.05095814;-0.12039021;-1.7269192;-0.023947198;0.9145856;-0.016573774;0.033794593;-0.071889564;-0.457383;-0.0047191377;2.1706686;-0.022445844;0.41548675;0.015134927;1.3329805;2.6455345;0.4042789;-2.446872;-0.043515313;0.20120317;0.056191076;0.0013822174;2.522165;-1.0107232;2.0459545;-0.77006656;-2.145408;-0.720241;-1.6994107;0.04106882;0.00841935;-4.748248;-0.08165861;-3.2818084;0.4299621;-3.066468;-0.0069574676;3.5473752;0.9951793;1.5139183;-0.2572988;-2.9883301;0.0036771689;-2.1840682;-0.04207933;0.011351058;-0.026522137;-4.7606845;-0.9650638;0.49629253;-0.21227142;-0.104102835;-3.2562447;-0.022174133;2.4710774;-3.174248;0.034408793;1.8269024;-2.105889;-0.051471304;-1.2327833;-5.970859;0.07269792;1.7634666;-1.7077216;-0.033304784;-0.27337506;-3.9068775;4.3734236;0.008424996;-1.7461859;-1.0345978;-0.0073077665;-4.321691;0.5800907;-1.02166;-2.2041411;2.3441932;-0.0084026195;-0.0034894398;0.37129262;-0.26368117;-1.0398251;-1.376495;1.5938238;-1.3657098;1.8934937;-2.0731425;-0.018610235;0.6940265;-0.99401796;-1.2724138;-0.00046209458;-2.42555;3.0217726;-1.1655344;1.2626158;-1.923067;-6.567041;-0.2023493;-0.03755354;-0.019683126;0.6739346;1.3828721;-1.1761109;-0.030338017;-1.127715;2.1990626;-0.3831229;-0.07303748;-3.7749858;-2.3453236;-2.5362375;-0.026557721;-0.034363486;-0.005736867;0.03150231;-2.185853;-0.02363535;0.16426955;0.6697036;-0.2981001;2.272496;-1.1314554;-0.0030004228;-0.4401505;2.3288462;0.015405615;1.8305894;-4.3072333;-0.061013617;-5.155704;2.504176;-0.03666871;-1.1845007;3.6973562;-1.2856637;-1.800256;0.0009875478;0.010723928;2.0349681;2.4515805;-0.7278069;0.8211349;2.1315906;-0.009970971;-0.10197935;2.6909108;0.05320913;-0.023701807;-0.80173874;0.0657022;-1.7301133;1.7878124;-2.9577618;-3.5025964;2.3413312;0.038027428;1.2453892;0.026584148;-0.29670894;1.5248764;-0.028828228;-0.07919642;-0.12679091;1.7162405;-0.009805056;0.039053563;0.19904475;-0.13595146;-0.45334083;-1.9446356;-0.38382843;-0.04060082;-0.010212766;0.94213;0.37327132;-4.1362724;-0.011818532;-0.06475748;-0.9528137;-0.10853995;0.47128296;0.011901465;-0.056293193;3.196719;2.2873325;-0.011957892;-0.013598849;-0.01790533;-0.19006582;-4.8064394;-1.338527;0.17474113;-0.039416708;1.5675256;-0.11182027;-2.4221668;0.020265771;-1.0337007;-1.5493978;3.7295117;-0.051634803;-3.8014028;-0.00984794;-0.98086697;-0.014309116;-2.6733272;-0.50324225;-1.0108683;2.5310185;-0.88827056;0.012741071;0.83350885;0.012019747;-2.135463;-2.4204676;-1.8056024;0.5267393;3.0024848;-0.022476349;-0.07556165;-0.07239032;0.03598;2.6906002;-1.6150452;2.2261698;-0.004057128;0.02783854;-1.4522183;0.012874107;-0.0438761;2.2467966;-0.014726476;-1.2764182;2.81152;1.3536178;-0.10932695;-0.033867896;-1.1009856;0.11371668;-0.14475758;-1.1511382;-0.045272473;0.93936634;-2.5604892;-0.45495647;-0.21448226;2.0408814;-0.69651765;-0.7768177;-1.1377192;0.43622532;-0.008820802;-0.013513091;-2.3799932
-0.003788807;-2.8097556;6.8008566;0.010810198;0.006868323;-1.0369164;0.021610241;-0.029772826;-1.3093274;0.18451157;0.3729089;-0.28530946;1.6021041;-2.4606948;-2.8460088;-0.027335662;-1.6100034;-3.2839413;0.015954161;-0.0077226195;-0.62239826;-0.02086871;-0.2289382;-2.9188392;-1.6953915;0.46864018;1.5737926;-7.176278;-0.0016200957;3.8331745;-6.34168;-0.8448765;0.6089797;2.341989;-0.033936262;-0.008529384;-0.8257062;0.13163508;0.77137065;-1.5889783;-0.11873138;0.40211713;-3.4107108;2.8337412;0.0015164191;1.4557072;3.252704;2.972422;-4.854107;0.39551088;0.014599658;0.02137967;3.6990004;-0.29955506;1.1594188;0.15040709;-1.6362729;1.8986585;0.78289217;3.0728452;1.0562247;1.6657343;2.0134344;-1.3190928;-0.012163117;3.718055e-05;-0.07285644;-3.2691112;1.8064821;-0.06329378;-0.0050158184;1.1698706;-3.183714;1.160926;-0.038766894;0.0019008549;0.0076486208;-0.13881011;0.88293743;-2.9876444;2.558615;-0.80931985;-0.022975888;-0.009699374;0.98271334;2.446637;0.65671295;-0.035707295;3.2554429;0.23331656;3.6018717;-4.352722;1.3753084;1.7430153;-3.8812134;0.00089533854;-15.258825;0.22943623;-0.008659691;-0.59889525;2.2981982;-2.3926816;0.26696032;0.034457125;1.2296522;-0.008136929;-0.055257533;0.015426673;-0.03407685;-1.0212984;0.9982815;0.30064148;5.2884617;1.8755405;-0.015992288;-0.6604622;0.0025774762;2.1238215;-0.006391204;-0.5138329;0.41821805;-2.1976292;-0.031470355;1.223254;1.9759717;0.03179251;0.025146816;1.3464112;0.676295;-0.013862148;1.019089;2.3620245;0.81550634;-0.0032024698;1.4092911;-0.007733732;-0.49608985;-0.03388718;0.026014768;0.03480228;-1.6208254;4.4507656;-0.00013087377;-3.5870214;-3.6877964;-2.0810783;-4.6877084;-2.1352122;0.003537488;2.4114797;-1.2971543;1.9088312;-0.035303462;4.2050676;0.0127153415;2.0637753;-2.276275;0.033129223;-0.06656936;0.0136621;-4.4789495;1.8118682;0.0037462972;-0.01266148;1.0051988;-0.67248446;-2.049416;-1.8207557;-0.38629693;1.2859004;3.0447736;-0.189602;-1.4359545;0.31727538;0.003472905;-0.014762621;-0.2492074;0.0037259473;-0.42698136;3.5243404;-0.079138264;0.98588413;-2.8171036;2.9554465;-0.046058442;-0.0144669255;-0.87712306;0.12179344;-1.8089824;0.64083725;0.39731288;-1.0232358;0.013725478;0.06588253;-0.40116668;-3.4776318;-5.2209983;0.589518;-2.2266982;-0.88333845;-0.9484572;-1.991912;0.18688637;-1.238387;-3.8477821;0.36499527;-0.058924843;2.4537594;-0.66180587;-0.072695196;0.011436123;0.04349541;-2.5929377;0.01659058;0.01783348;-0.03323963;2.6958342;0.004817173;-0.66343826;-5.3146276;1.631491;-2.4694045;0.15595774;1.2058307;0.042671632;0.31146207;0.028226666;2.0292025;0.029570244;2.3543892;0.026954047;-1.7647214;0.87393254;1.2333899;-1.8997959;-1.3680637;-1.1560727;-2.9789004;-0.0025971022;1.488207;1.0167571;-1.6796107;0.005153431;1.663607;0.048937798;0.049442474;-0.9129045;3.622502;0.8220375;-0.011787178;-0.04549927;-0.8844937;-3.1116161;-1.7015785;3.0318348;-0.3515177;-0.12988997;1.3819792;-2.5818691;-1.4325117;-1.328242;-0.49794728;-0.16531613;0.021581039;1.251734;-0.020988448;0.21293075;-0.028379798;-3.386805;-1.8493288;-1.4410018;2.9811094;0.02281457;-1.210105;0.051393896;-0.5539973;-2.1992393;0.018421963;0.18227288;0.106347315;0.4022164;-0.9795037;-0.007770454;2.7294831;1.590884;-0.17461851;-0.05885758;3.3835232;-0.21397024;1.9338868;-6.125788;2.3505688;-0.0045295954;-0.3127038;2.8534458;-0.0057465984;2.1213837;-0.21939623;0.017381174;0.0005338058;0.9377911;-2.2167912;0.013496128;2.1503592;-0.023661282;1.5955623;-4.7593627;-2.3191407;-1.0054845;-14.109756;-1.790802;-14.979894;1.495813;-1.2492671;-1.5521736;-1.4154962;-2.4901888;0.029488033;0.14989603;-2.0147305;-0.05061433;0.34806743;-0.3163091;0.0044548893;-4.784837;0.020582031;-0.0020805125;0.8367872;-1.8305926;0.038315404;2.3166554;0.04978481;1.1637453;-0.05227857;1.1702288;2.3634472;1.7316034;-3.757059;-0.0150613375;-3.3180046;0.009032389;-0.032872155;2.3069112;1.3332283;0.45697653;1.9829425;-4.5519977;1.0512083;-2.4599628;0.0048800088;0.053135857;-5.4885755;0.4045027;-1.2031188;-1.0336626;-6.6734853;0.020473672;1.4538697;-0.07042581;2.151271;-1.2148503;-3.9571362;-0.022366157;-2.6570826;0.026067745;-0.026663387;0.07057578;-5.685819;1.4552058;1.0399829;-0.75066066;-0.41684085;-0.39326078;-0.06492152;2.4247415;1.2657766;0.00469864;1.1004139;0.516785;0.008671013;1.494593;-3.8802547;-0.17524315;0.5349347;0.20388132;0.011213264;-0.14622627;0.8060715;3.6880596;0.012913252;-2.2041993;1.6433712;-0.03438024;-1.0032203;-0.08629833;0.61690444;0.5781021;5.3830333;0.028356837;0.04445329;-0.3084572;0.91207457;1.6604477;-0.78965497;0.79259604;0.87090707;1.1078662;1.5096394;0.022369977;0.4169106;-3.0189161;-5.810757;0.055114254;-4.4208922;0.5854028;-1.8996933;3.750227;2.3255172;-1.1765829;0.7562035;-0.05418066;0.012976329;-0.13083896;1.2029979;1.276457;-0.042958934;-0.19280663;0.8999102;-1.6528145;0.074688785;-6.6054325;-1.3163621;0.8734026;-0.04665805;0.038520664;0.040551838;-0.1392419;-1.8266497;0.02858761;-0.10352558;-1.6986892;0.20059751;1.4851191;1.9387213;-0.021692142;-0.74086267;3.0214953;0.0022732539;2.8258724;-6.5165644;0.002857807;-3.4969952;0.28582427;-0.9649043;0.24421266;1.9380081;-2.7866156;-2.9090714;-0.015333493;-0.052751224;0.0044249496;2.6691315;-0.15189497;1.3380468;4.7603045;-0.03612622;0.0669649;3.3843615;-0.44723433;-0.0371002;-1.6193758;-0.023740685;-4.950951;3.2736645;-4.333763;-5.248846;1.2490536;-0.026113719;3.1672173;-0.01602921;-1.3338141;0.7248775;0.030258521;-0.09440816;2.614535;0.06416874;0.04042452;-0.0017177035;0.73716325;-0.58616036;-2.2334619;-4.291103;-2.464136;0.029308315;-0.012653275;-3.6124887;0.029106427;-1.792822;0.002563081;-0.025498325;-2.3821158;-0.082391664;0.6120773;0.011396053;-0.015437987;3.385959;0.9910561;-0.010883571;0.015420757;0.003055013;-1.5915279;-4.1506405;-2.0721774;-0.37885398;-0.06585088;-0.29911584;-1.1811262;0.04294286;-0.06427645;0.72559327;-4.044233;-0.58689845;0.03172069;-1.6714854;-0.025053468;-0.82012326;-0.008859305;-3.153502;-3.4049404;-0.726955;1.724479;1.6316296;0.019024273;2.3756764;-0.0076659326;-1.96666;-2.689647;-1.3903205;-0.6377695;2.0661533;0.23933235;0.6590484;-0.004382847;-0.026524667;2.029597;2.236788;1.16707;-0.010081442;0.0037081135;0.25275818;-2.947865;-2.2760065;2.0195816;-0.00207914;2.0580025;0.104158066;-1.3705549;0.0039395303;-0.006488542;2.451025;2.410825;0.28383702;-0.056839135;0.05833976;-1.3027886;-0.99219036;-0.52123153;0.18546814;2.2818904;0.1647406;2.1091268;-4.7197795;0.58908975;-0.058685105;-0.038070794;0.28175902
0.018778356;-0.5965702;4.3389835;-0.0053915516;-0.016733298;-2.2109952;0.019919949;0.017030338;-0.40501857;2.045445;0.6170086;-2.398587;0.76704323;-0.55417585;1.9668099;0.044599473;-2.755987;-0.68105257;-0.031593975;-0.093036205;1.2255123;0.03169595;2.385683;-4.549026;-0.34269515;-0.5833509;-0.2567008;0.8882939;-0.03292531;1.809941;-4.4100456;1.0285395;-0.45660165;-1.803841;0.019103386;0.041373204;-0.78370744;-1.425346;1.252149;-0.720136;0.07328326;3.1919818;-0.4086943;2.10986;0.019626832;-0.009600091;2.001076;1.711403;-2.3466425;-0.09531807;-1.1360823;0.0647467;0.8589594;2.042996;1.8202863;-1.299693;-0.77182084;-0.40541938;2.8991003;1.1312996;-0.27118197;1.7537024;0.8113537;-0.7403012;0.010991284;-0.042697158;0.6232812;-3.9047704;-2.1607919;0.02868486;-0.031021664;0.1252451;-0.031083563;2.0680275;0.016152957;-0.029923402;-0.025603952;0.6739196;-1.3567141;-0.8449463;0.25191534;-2.1354482;-1.7659302;0.0014924302;0.39078572;1.85851;-1.1111369;-0.022157608;0.119973905;-0.016135152;2.425381;-4.4696827;0.7685324;0.44352594;-2.0657673;0.027339373;-13.089927;-1.7358555;0.013614302;-2.7042108;-0.06965399;-0.36746246;1.8837545;0.010138406;1.779379;-0.027786795;0.0063218027;0.028614473;-0.061428867;1.5733593;1.3505591;-3.7725308;3.062614;2.2300844;-0.034856785;-2.1433313;-0.02473389;2.3175607;-0.04833741;-1.6429828;1.9072998;-2.263607;-0.043649435;1.8354025;0.27372316;-0.045259934;0.017393326;2.5213187;1.1885473;0.02424884;0.941032;3.230172;1.1617868;-0.030336164;0.22213714;0.01536488;-1.3355609;-0.12501939;-0.07708351;-0.025347887;2.5706084;1.0354985;-0.042913742;-0.81862986;-4.2015142;0.94589126;-3.976971;-1.372172;0.012631224;2.7060192;-0.3215458;1.6919994;0.0059938054;4.2745094;0.0013616846;2.5846167;-1.7822489;-0.014015791;-0.037824538;-0.030534405;-2.9207582;1.0430089;-0.044078078;-0.006770695;3.3790078;3.1071196;4.9128413;-6.773189;1.6844823;0.56473786;1.7381098;-0.82416713;-4.5921106;-1.4546425;0.010688154;0.008798169;0.93341374;0.0042905565;1.3587883;0.8244043;0.14472444;1.694209;-0.36206254;2.9541485;0.00087678485;-0.0153859705;0.53596014;-1.0005279;-0.99336827;-1.2169385;0.11284298;-2.4954464;-0.014787224;0.094585575;0.87575;-3.2724273;-4.106684;1.0268708;-1.0766904;1.4141365;-0.24544683;0.66596794;3.1622636;0.3618614;-7.945372;1.2962934;0.012901361;-5.3986487;0.5867708;-0.023590595;-0.020432414;-0.092244916;-1.703407;0.06787224;0.011612138;0.02396121;2.248952;-9.245027e-05;-0.0012570288;-1.4650264;0.51128304;-0.14794205;0.13690656;2.1179087;0.0071623726;0.7531423;0.01620602;1.8225732;0.08109845;3.4080477;-0.027749838;-4.221003;-2.0380027;1.7328068;0.3098837;0.24241617;1.2278198;-1.4262705;0.024013778;-0.1578449;0.8265461;0.30313614;-0.040696;2.9390907;-0.031456966;0.28493762;-1.6624343;0.4851198;2.0393362;-0.008152423;0.030734338;-0.7702525;-4.104192;0.861078;0.45644352;0.1677565;0.3323624;0.94305927;-0.33572277;1.2490901;0.72714615;-2.8758962;-2.203512;-0.017821983;2.151952;-0.05826925;0.29741234;0.0073166946;-3.3379643;-0.3180763;0.12338168;2.0959845;-0.04230704;-1.6867651;-0.015502476;0.49415687;-2.1716623;0.0027913842;-0.5329999;-0.6202423;-1.0121344;-0.91061044;0.0038617146;1.8099786;0.28858978;-1.2062758;-0.17914882;3.174223;0.93041563;0.14986582;-6.02965;1.642078;0.0037965889;-0.9673531;2.1272945;-0.0036073644;3.4200945;-5.184263;-0.005621025;0.024421541;-0.8372296;0.57644224;0.0019965316;0.9570895;-0.108724765;-0.8294207;-6.440373;-2.457293;-3.8693113;-14.802833;1.4267355;-15.050589;2.780502;-1.7443143;1.3185302;-0.047300093;-3.4138186;-0.04347106;2.2066853;0.62343997;0.005880086;0.41324288;-0.96339816;0.018458126;-1.902241;0.01220696;-0.008893771;-0.22665022;-1.1027251;0.021664927;2.147475;-0.019739192;0.14992534;0.06864306;2.4476287;3.3170347;1.09242;-2.895072;-0.022020195;-0.9123146;-0.054724734;-0.028315281;2.221068;0.51305866;0.82497954;0.98698103;-1.6474729;-0.24936172;-0.10135984;-0.0071404655;0.061780304;-2.2937737;-0.122856155;-0.21030504;-1.1519613;-5.8654013;0.054274984;-1.8092601;0.343569;1.7364274;-0.0866063;-4.238633;0.03156098;-0.35579124;0.0206541;-0.030788666;-0.047791097;-6.3932734;2.693239;-0.44161782;-0.09926217;-3.2699192;-0.38422272;0.34724528;-1.0814283;-0.15848264;-0.004775737;-0.7130238;-1.2760544;-0.035134714;-1.744942;-3.2729683;0.050612632;-0.61595017;2.7086623;0.008993792;-0.1004851;-1.6674012;2.8120701;-0.044809062;-2.7533798;-0.85896707;-0.005084761;0.07188724;0.018433234;2.0702329;2.2874765;2.0975416;-0.028135283;-0.032534022;-2.2731264;0.15207529;-0.7951606;-1.7628919;0.7878377;-2.0857437;1.1045632;2.7184687;-0.035917018;-1.5100096;-4.432172;-7.3866224;0.0016882004;-4.5899625;1.0538795;0.71131945;1.2506021;1.6374854;2.335989;1.8164591;0.0014369685;0.006827998;-0.0027825236;0.99767643;-4.242068;-0.07110953;-2.404644;0.17106047;0.5323744;-0.035329923;-1.3878495;-1.7260904;1.3159169;0.021779;-0.006196993;-0.008097043;-1.5517424;-2.503233;-0.014968966;0.0638569;1.2877505;0.2608845;0.9663317;1.6686012;-0.055344477;-1.6290678;0.75019836;-0.043148972;0.9920131;-7.079371;-0.11376813;-1.6411647;0.605216;0.7634467;0.8898206;3.3377414;-0.7161484;-2.81748;-0.019277895;0.013220403;0.29568616;0.3672465;-0.39128378;1.9153197;2.5378418;0.001043849;-0.07248144;-0.12448973;1.4091756;0.026184103;0.34714773;0.020598728;-5.445348;1.3793148;-3.557054;-2.908815;1.811118;-0.040080238;3.6691465;-0.022319432;1.1711091;-1.1437284;0.028879633;0.011718408;-1.8206683;-4.4993277;0.014975386;-0.03464462;5.479945;-0.46286476;-4.1508846;-4.5418115;0.122837186;0.042659566;-0.009316628;-2.3886762;-0.83231527;-0.6592495;0.030185744;0.022549463;0.92836165;-0.002894483;-1.7631431;0.0018214848;0.014297779;2.288658;2.283429;-0.036953926;-7.687863e-05;-0.006691721;-4.9481564;-2.994979;-0.4964416;-1.0914923;-0.03390107;-0.5858016;-1.6575997;0.53324413;0.024155572;0.50672;-5.712173;2.023396;-0.06205616;-1.7405324;0.030312432;0.927344;-0.038974654;-1.797691;-2.2214801;-0.56903887;-0.34313795;-0.69436264;0.0005512016;2.3739011;-0.1265731;-1.9400896;-3.6062527;0.16284917;-0.73968065;1.8789562;-0.15936044;-0.10746028;0.0011095878;0.02509521;0.527786;0.28524104;3.805566;0.022465173;0.034421872;-3.3082483;-3.0098417;-3.7446036;1.1110839;0.10556173;-0.66517496;-1.2147722;2.2457666;-0.054503053;-0.03719374;-0.45720083;-3.3156059;0.06895449;-3.9080365;-0.0014882385;2.0498164;-2.8702085;-1.6990416;-0.06335347;1.2351702;-0.091451645;0.055329382;-3.993444;1.5024416;0.40300283;-0.07087879;-1.2614932
-0.0077588027;-0.3192357;2.2075627;0.0042341864;-0.007936129;-2.7055244;0.01587776;0.008914908;0.20429944;0.052902564;-0.19600242;-5.101918;-0.35111052;2.1011786;0.35053164;0.018975165;-1.7771044;-1.4880469;0.017321602;0.16608374;1.1412389;0.03381809;1.2731358;-4.3099227;0.19890763;-1.6245902;1.6509191;-2.6309493;0.14728132;1.2802417;-3.9862287;0.7754142;0.30798048;-0.53591615;-0.013005142;0.009693054;0.60910505;-0.62661356;-1.9520109;-0.18638203;0.2535259;0.22196783;0.04016323;0.5726888;0.002242315;-2.366204;2.4730077;-0.85057044;-2.065678;0.013747273;-1.1109846;0.0589063;3.9308608;0.8362849;1.3773516;-0.30021125;-1.5009952;1.0544208;0.36299354;-0.9804416;0.16288556;-0.60485214;3.5890694;1.3723681;0.016967634;0.054840714;0.7116955;0.10633527;-0.24391368;-0.06904881;0.015340166;1.0753266;-0.61489064;1.5091578;-0.0127957715;0.051358737;0.08881881;1.3170474;-1.1763837;-0.95113146;-0.28900105;0.27763107;-0.64098656;0.063088864;-0.63705707;2.384871;-1.602739;-0.013115935;1.5199499;0.9528633;2.0094562;-3.733504;1.9177785;0.89209056;-2.367399;-0.1782993;-4.111855;-3.2903943;0.033436645;-1.8860025;0.3929845;-2.1828191;2.1516094;0.015143108;1.8849417;0.050603524;0.016978448;-0.019916698;0.9295226;1.2133126;0.055419154;-3.1045756;1.6212574;0.6913438;0.011668419;-2.6795268;0.11182537;0.6782268;-0.026681926;-1.8159943;1.1844558;-1.4158536;0.017681897;1.7422727;1.3780447;0.03831817;0.024481602;2.2640386;1.8591019;0.026209977;-0.64991987;1.4591111;0.7171253;0.046151895;1.5819633;0.028862314;-1.8426926;0.3822438;0.06779712;0.032083176;4.9062304;3.4946616;0.07488903;2.7606916;-2.7606933;1.303768;-3.104382;0.64240927;0.037748817;1.6987914;0.7128836;1.7018257;-0.17686145;3.1786416;-0.009967152;2.8497655;-0.8784885;0.026992481;-0.07952682;-0.0056648008;-2.8612769;0.58873373;0.09163312;0.006023723;1.3654726;2.6524534;3.742826;-1.6633502;-1.0147288;1.304946;2.7124462;0.6252972;1.2456099;1.1440892;0.004637674;-0.040796086;1.2095239;-0.05331652;1.3075384;0.708314;-0.05744305;2.5763576;-1.8586136;-0.094958;0.0020809814;0.017881852;1.153641;1.8235087;-2.7215934;2.1022012;0.91642773;-2.496082;0.4171;-0.019785905;0.64212334;-2.9091754;1.252227;1.7531413;-0.8476685;1.6186601;-1.4741939;0.8166538;2.4788182;-1.1603054;-8.482751;0.62092865;-0.011617586;-1.242834;-1.4305588;-0.06001478;-0.009657457;0.07861814;-0.027187051;-0.03634369;0.042298764;0.006582646;1.6173722;0.049076263;-0.05544927;0.33441487;-1.3134986;-0.69390315;-3.2300763;-1.0539534;0.12778375;0.11911231;0.0013587023;0.65317595;0.029173927;0.23226835;0.025731694;-4.8353996;0.7508942;-2.2120354;0.7021256;0.4253767;0.29839242;-0.73581505;0.072358795;-3.0369072;0.72125435;-1.6784692;0.001757486;0.7184636;-0.043157194;-0.8947734;0.8343208;2.2429373;0.24510127;0.010373646;0.018368205;0.35603708;0.20938754;1.2638439;-1.1584927;-0.030655693;-0.1292124;1.2335124;-0.48071092;-1.6380712;-0.91032356;-0.4078828;-0.85960233;0.06868802;1.5071821;0.013775676;1.0434201;0.021668604;2.22971;-0.6750655;0.23032999;2.0654285;0.058342226;-4.576039;-0.02498818;-0.017271576;0.197755;0.0077320426;-0.7106619;0.36406964;-1.2503631;-0.61707485;0.0231668;2.328846;2.7318945;-3.367316;2.439505;0.58163744;2.0983994;0.045966562;-5.5936728;3.3665123;-0.007563098;-0.8320261;1.5159024;-0.056393187;3.479307;-1.8273109;0.017598229;0.006863858;-1.1498165;0.0073420624;0.036708258;2.1922057;0.65777266;0.37859645;-3.1937332;-1.3346965;-0.7840446;-9.471319;-0.6039577;-13.484392;2.5533767;-1.113877;1.210114;1.2162106;-2.7298772;0.035313837;0.9713931;-0.5127409;0.017324504;-0.37282595;-0.052240912;0.025673667;-2.2900548;-0.03792581;-0.0017160603;-0.10144616;-0.39262855;0.047439378;0.12087624;-0.015290482;1.2392495;-0.025918549;3.1709154;0.13000418;1.381336;-2.3074265;0.063950166;-4.49001;0.06918768;-0.01854187;1.5886488;0.3840786;1.9139024;-1.6076338;-2.320999;0.64513946;-1.6227323;0.02068748;-0.0109155895;-1.2178178;0.019294702;-4.270271;0.8432442;-4.807015;0.059860088;-2.2991345;-0.7209284;1.4213045;-2.3080971;-1.8800279;-0.016151857;-1.2007596;0.0022430802;0.18025671;-0.044764567;-6.968736;1.1968992;0.033219814;-0.34753945;-3.5537138;-0.4550114;-0.1256622;-0.8344143;0.71249306;-0.0009133448;-1.6082412;-0.22989242;-0.010367244;1.918086;-3.2795708;-0.0833848;1.2425421;1.7333231;0.0039127013;0.35971686;-1.6207314;1.4481095;0.024477923;-1.2603636;-0.9057449;0.044528306;-1.6167731;0.019407038;0.9560272;1.4964373;5.1566973;0.07615571;0.008321667;2.3838067;1.0000001;-0.32386392;-4.074582;-1.9835701;0.022035895;1.2570807;2.2878678;0.007957565;-0.8760907;0.03930223;-8.017348;0.019002773;-1.366639;0.023197293;3.9109645;-2.250667;3.8661065;1.8832995;-0.062261995;0.03497955;0.039746653;-0.05938464;-2.1434977;-3.0132093;0.5934195;-3.8213043;1.513968;-0.56997573;-0.01592135;0.3987631;-3.3207555;1.312671;-0.013253621;0.05441037;-0.029884119;-0.71271175;-1.3652576;0.021518424;-0.3379797;-2.0447984;-0.024867281;-0.16722165;2.778345;0.026941087;0.12352961;1.9232454;-0.006879333;1.8910352;-4.8122168;0.9798349;0.6188457;0.39877984;-0.21708708;-0.050876547;2.838602;0.041251715;-2.9741688;0.013388119;-0.009843672;2.4343488;0.41846135;0.86320984;1.995415;2.3148324;0.004621533;-0.01079825;-0.22528893;-0.5026038;-0.025116047;0.78474826;0.014361772;-6.5710397;2.1684628;-1.1531644;-1.0875486;1.5062172;0.02679339;4.0191317;0.0047773337;1.0254154;-3.438516;0.013613567;-0.042886224;-2.7688637;-4.176673;0.018682702;0.012537089;1.0004599;-4.7422223;-4.30885;-1.7148358;0.6424761;-0.0009171302;0.027228609;-1.2660555;0.080583945;-0.5921288;0.017982537;-0.03927491;0.3601186;-0.02535446;0.35365438;-0.02825796;-0.007081531;1.5591251;1.5710772;0.033469122;0.0019927758;0.02682066;-8.715093;-2.6535802;-0.49286392;-0.557539;0.86399215;-0.6386051;0.30847427;0.11998541;0.0007261508;1.0348532;-5.873045;-2.6645942;-0.080717735;-0.92482;-0.0051449668;2.5710151;0.03596607;-3.13616;-3.187599;3.336518;0.63779694;-1.6721977;0.011581806;0.47244033;0.2358259;-1.4439217;-3.0982773;-2.8372397;-1.0018905;1.6312234;0.009412957;0.031615335;-0.012793101;0.025586583;2.9036345;-0.9548089;1.1820562;0.09214175;0.026408164;-0.41994646;-0.85985714;1.2629273;4.0876145;-0.029916588;-1.759442;-3.2242093;-0.18508752;0.7307642;0.009545455;0.38369545;1.4222784;0.93436426;0.31818798;0.042868968;1.7889344;-2.3362164;3.0082102;-0.12251827;1.8589147;-1.1516037;-0.15186177;-1.147408;1.7144136;0.12387857;0.005532944;-1.0124755
0.04201491;-2.1472356;2.92874;-0.007604063;-0.046987228;-0.07006073;-0.013992565;-0.01831049;1.2708539;0.47250113;-0.07246568;-2.5678105;-1.7223629;1.6532454;0.09268899;-0.0030176556;-1.2468615;-1.2706367;-0.035746302;0.32447368;2.3303986;0.012326295;0.7117156;-4.9296904;1.572287;0.6273745;2.24403;1.5017389;-0.19490248;0.6309855;-1.6379569;-2.5526943;0.77027035;-3.7722318;0.05564757;-0.0057343147;-3.1034412;-0.1444284;3.9562387;-5.125599;-0.53200936;-0.48538697;0.26752335;-0.0641299;0.0013280455;-1.1781509;2.8415866;-0.17860226;-0.70142967;-0.062433194;-1.1226676;-0.009823011;0.2887464;0.64623046;-0.43173337;2.0399213;0.9809144;-1.9275229;3.4914649;0.17933957;1.0678912;2.227094;2.8163254;0.8805126;0.0025032363;-0.0030734313;0.5072871;-2.2316906;-1.0926108;-0.032902785;-0.01771613;1.1603663;-2.10092;0.9280855;-0.026636753;-0.042214897;-0.00083036965;-0.3642171;2.2885306;-0.06903595;-2.0379007;1.6078141;-1.5996513;0.017558116;-2.4261873;-0.038348548;1.5299097;0.03554089;-0.53335875;2.0947773;1.7871807;-3.727831;1.3287132;-1.2896007;-3.800324;-0.22926146;0.35823023;-4.40579;0.008136077;-3.0608258;0.4319508;-2.599315;2.33308;-0.010068405;0.021987066;-0.024937833;-0.018281939;0.01753713;-0.15552033;-3.708144;0.0051511386;0.4903092;1.4165692;-0.3363296;-0.0097891465;-0.59488404;-0.03764467;1.7499475;-0.002586341;-0.24246268;1.4825516;0.05396105;-0.030790668;1.2576008;1.5250047;-0.0057348902;0.018810501;1.8011771;3.027912;0.020507049;0.96880287;2.3510334;0.47719198;-0.022545295;1.8780909;0.010307578;-1.9095634;-0.16134818;0.03186436;-0.021152427;-0.13163887;1.7653953;-0.008703105;2.266253;-1.125624;1.7392492;-0.16705707;1.5686682;0.018132137;0.5201565;2.7963257;1.8234687;0.6758624;3.7941859;-0.01957242;0.9635817;0.8201879;0.03409508;0.016046997;-0.0042113336;-0.5905808;1.2028784;-0.0114795845;-0.022829987;3.9789038;2.6119044;0.8205419;-0.8503456;-1.5468861;-0.16721329;1.9237362;-2.7541559;2.951278;1.453894;-0.021852609;-0.035672523;-0.48913634;0.026973967;1.747186;1.0135051;0.009749096;1.4523318;1.0055922;0.14384241;0.04211483;-0.010759027;0.80105186;-0.31076923;0.5425026;3.9951186;2.128699;0.6693545;-0.010801593;-0.0020033603;-1.8804343;-1.7109199;-0.06188299;4.53216;-0.98971367;2.1881995;-1.4728522;0.5468817;1.2593968;-0.39941326;-9.664566;-2.4187348;0.024414934;-0.34781003;-3.20055;-0.034264643;0.025456397;-0.0057344497;3.5454853;-0.0066074575;0.013539863;-0.043126784;0.78332675;0.030070294;1.4765543;0.27476716;-0.5071829;-1.0168889;-0.47492528;0.06977046;-0.05679302;1.5324339;-0.0049090656;-0.042309813;0.02473414;1.3743304;0.028900376;-1.7034568;0.36261454;-3.0550373;1.5801271;0.15634641;-0.4036033;0.089984536;0.045821004;0.09363994;3.2584035;-4.7535458;-0.012217993;2.6260376;0.059452217;0.82016945;-1.5073192;1.6232812;-0.116630524;-0.011274717;0.0032947443;-0.29084474;0.062325355;0.70966625;-3.4133775;3.2770214;0.28603345;1.785528;-1.1569248;1.1809562;-1.6622416;-2.0648184;0.5446632;-0.035059273;2.8689;0.6935563;0.20454353;0.037459824;-0.37345186;-1.5058641;-3.4507232;2.255925;-0.04034563;-4.127924;-0.0069647958;-0.048189573;-0.28470773;-0.010304137;-0.7441157;0.44267085;-0.97097486;-1.0298916;0.038296293;1.2883446;4.022344;-2.2409642;-0.0050085033;-0.38174582;2.0187583;-1.7023629;-5.128146;1.5185075;0.005324274;-1.2532657;1.0123909;0.16618307;4.420354;-5.700266;0.032742713;-0.009672277;-0.63185924;-0.7058303;-0.0056285555;2.9817495;-0.040570684;-1.0220244;-1.919294;0.3144362;1.4147913;-11.848593;1.8932068;-15.683877;2.2044764;-2.6228938;-1.3621925;-0.14140044;-0.46452454;0.018088892;2.6061528;1.9511007;-0.027977435;0.32662266;-0.7989048;0.011383307;-3.7942863;0.10868494;-0.016852329;0.013723283;1.178544;0.019231759;2.6392598;0.012764414;-0.23548234;0.06373948;2.515813;-1.3029947;1.3573805;-2.1161284;-0.0417949;0.84573144;-0.03262102;-0.14863367;3.421858;-0.6726239;1.1239508;-0.45342344;0.7724201;3.2691445;-0.13721967;-0.007997953;0.0009872955;-1.7710081;0.0013980521;3.1178737;-1.259731;-5.965375;-0.029969096;-0.25337982;1.9150534;1.7766784;0.40998873;-0.025991706;0.023663132;-0.56770927;0.034985315;-0.090056084;-0.013199387;-6.9340177;-0.045099925;-0.7222152;-0.07693091;-2.3878005;-2.6140423;-0.021277439;-1.9008297;1.7597427;0.019195456;0.74601555;1.2443647;0.060771786;0.16044202;-1.6777815;0.38086167;-0.5634484;0.39010116;0.0045728106;-0.19113775;-1.1270273;1.1219212;-0.03925979;-0.7856965;0.7745932;0.007965467;0.02692045;-0.048230946;2.9553952;-0.81944925;3.8262694;-0.014391824;-0.008833516;1.1776203;3.1934106;1.0307568;-3.2310412;1.061871;0.7887733;-1.361608;2.9128132;0.0009230582;-2.9764655;1.561855;-7.447537;-0.028864188;1.9232165;-0.5804513;3.4460905;1.9171944;3.0001318;2.876786;-0.2658339;-0.010505481;0.023960372;-0.010416503;-3.1903963;-2.2069907;-0.10385643;-0.36206087;2.9793394;0.9851245;-0.0062676333;-0.67186195;-0.8951694;-0.1266189;-0.009058349;0.0061431797;0.0825754;-1.6687626;-4.7596865;0.0241144;-0.15837409;-0.5677893;0.01255076;1.8385683;1.2686694;0.0651181;0.62027836;-1.4595003;-0.008957831;1.0961426;1.9932073;0.03161061;2.4652605;3.1544704;-0.92128146;0.21938904;2.12193;1.9031639;-2.7066896;-0.024025034;0.010910403;2.3858688;-1.971144;0.35190678;0.30037233;2.7872057;0.008465097;0.10372623;-0.31725177;0.06691688;0.037230015;-1.0548036;-0.024222832;-6.1866884;1.8350887;1.6132133;-3.554311;0.5084302;-0.040947504;3.247639;-0.04464105;0.21028754;-1.6699526;-0.026621705;0.020076193;0.85962284;-2.06152;-0.03528021;-0.043725286;-1.14124;-4.833314;-3.9422343;1.9354057;0.53118885;-0.011451333;-0.010080766;0.2063281;2.36185;0.8856789;0.027832339;0.01620319;1.4834111;-0.025647813;1.2889295;-0.016362438;0.044989523;0.04433498;1.6749417;0.010590955;-0.037809446;-0.038829964;-10.068653;-2.0175161;-0.5651322;-1.0502797;-0.15877812;2.3366315;-2.2900016;3.548861;-0.010227371;3.0371726;-7.1542263;-2.5243664;0.24396476;-1.9971914;-0.008663952;0.91777676;0.0055281436;-1.740056;0.5774073;2.7820058;2.0850222;-2.552456;-0.031500172;-1.2311951;-0.118432105;-0.67788804;-3.8430114;-1.8308557;1.4689196;1.6848401;-0.028680703;-0.051025413;0.037138313;0.018025205;2.4678135;-0.4534613;2.3275626;0.016681792;0.0020179853;-3.3753834;-1.1602068;1.938906;0.41548046;-0.031180963;-1.9667256;-4.8367167;0.20650108;-0.004808516;0.03513666;-0.45280576;-0.36588186;0.16657418;1.0137473;0.025635587;2.0869071;-5.2161474;3.6834564;-0.024971163;-0.26781026;0.67205334;-1.7418482;-3.5949566;1.5727729;0.015162594;-0.013026228;-1.633888
0.010562994;0.34063736;1.1679536;-0.016458951;0.013009937;-1.2993187;-0.0004131638;0.026140612;1.0732731;-0.41611433;-0.01029652;-3.68293;1.0063685;-0.5386849;-1.8766592;-0.0033381672;0.20012617;-1.6320997;0.041682646;-0.008758558;-1.5045531;0.019917516;1.644395;-5.780162;1.099914;0.7576357;4.96996;3.8300803;0.28082603;2.6320887;0.018605957;-5.018264;-0.2919195;-1.5381591;-0.08295815;-0.0007477523;0.3929991;-1.3190165;-1.2010288;-3.0711389;1.1958592;-0.18831299;6.1656218;1.3999792;0.018509267;0.31782687;2.6007242;-0.6914112;-0.67037314;-0.022597086;0.72465414;-0.026382383;-0.7115194;0.73838705;2.4316442;1.3777622;0.46216345;-2.2817547;-1.766677;0.85947347;1.3322226;1.5303364;2.0668569;-0.38246033;-0.0044438452;-0.04319105;1.1988362;0.26077613;-1.2500049;-0.030581554;-0.031745024;-0.15838614;-2.5538626;0.34042463;0.0016586438;0.019558411;0.061024092;1.209839;0.7810853;-2.9418392;-2.3020508;-0.04259836;2.5397837;-0.04263881;2.3175924;1.0135568;-2.5916886;-0.038597062;2.4386706;2.8730972;2.0340261;-5.415953;1.7643377;0.23672572;-0.011574261;0.3592303;0.38371584;-1.8854045;0.054224335;-3.3136885;0.7661991;-2.1402986;-0.7505712;0.027087135;1.345698;0.0028254185;0.014516819;-0.014617002;-0.090729505;-0.19203575;3.4091341;1.3819344;1.3298563;-7.352564;0.005632836;-1.1886388;-0.01582048;2.930637;-0.110853106;0.5547826;0.6525092;1.9425693;-0.01695343;0.5443653;2.8648636;0.042163685;0.0060720234;-1.0289302;1.588788;0.047948133;2.2921467;1.637735;0.36078808;-0.014952439;4.0912075;0.029342486;-0.47683716;0.024271045;0.011577218;-0.019983143;-2.2407498;-0.22353834;0.052200116;2.4111032;-3.2698185;1.5069928;1.219846;-0.1946478;-0.017835852;0.85887915;3.9177032;1.6604567;-0.23340563;3.6189623;-0.04979296;0.33489326;-0.29728657;0.00920029;-0.042763054;0.009855976;-0.38743934;2.209457;0.030668968;0.04398198;1.3676147;1.3625177;-0.19595893;2.0304127;-1.6335624;0.041792125;1.1648456;-1.8591127;2.1019404;0.33373556;0.043466356;-0.2016903;0.01243454;0.0027224943;-0.32954216;1.9763787;-0.010653182;-0.00065592874;1.6606019;2.6693006;-0.00197953;0.028400859;-0.40250027;0.08576185;-0.64616334;1.5881236;0.44887322;-2.5480883;-0.11989817;0.016963225;0.68100893;-0.6537445;0.49940923;1.0875043;-1.1648679;2.2313766;-2.6807244;1.2000937;-0.6519974;-0.8640539;-8.322712;0.9912573;0.029937636;-0.643108;-2.0115461;-0.0034580037;0.02521457;-0.007453415;-0.9689358;0.012941004;0.0022346315;0.019437853;-2.7367992;0.067064695;1.3306084;-0.3662002;1.1531304;-0.81746644;0.5395021;-0.53648585;0.00945869;1.0844705;-0.01095814;0.031027608;0.03917848;-0.646519;-0.042397216;-0.87233025;0.55545205;-1.2178185;0.008000805;0.34258357;-0.057105087;-0.0024566706;-0.030784016;1.4982023;-1.0653774;0.034748577;0.009863513;2.371422;-0.06538241;1.3555038;0.21489155;3.2305267;-1.8453246;-0.009307013;0.09841434;0.7260259;-0.7764033;-1.9250153;0.34682673;-1.383426;-0.08661515;-0.33087704;-1.7928262;-0.03702115;-1.2538048;-0.4059176;1.8873845;0.0025107306;2.057693;0.08839614;0.8911485;-0.015730817;2.3925598;-13.200987;-3.4800568;1.0616807;0.01974135;-3.956299;0.08296738;0.153407;-1.1658132;-0.009489927;0.5644714;-1.7662288;-1.306721;-1.2960101;0.009831144;1.0335937;-0.14522484;0.2559279;-0.8143321;1.9192281;2.9476779;0.14221655;-4.6067014;2.5214882;-0.012788494;0.7753003;1.9739739;-0.075792104;2.678305;-5.4853644;-0.08384837;-0.01937457;-0.5351924;-1.890898;0.0028391841;2.4570897;-0.04402928;-4.9382787;-1.5232898;-2.9755204;-2.9213197;-14.234922;1.5472403;-14.088273;1.4529967;1.9300799;1.0964211;-1.080791;0.41840416;-0.0010419806;3.7835045;0.78333336;-0.0049465527;0.7842356;-2.0710003;-0.019474868;0.6088233;-0.025333164;0.017427366;-0.021297308;1.3571668;0.014760967;1.7100521;-0.0063677374;0.45807242;-0.00958655;1.4412229;0.4953993;2.5432217;-1.8033291;-0.031607453;-0.5946896;-0.016691798;0.73777485;1.5753803;-0.0043451427;-1.2027364;0.23663384;0.27077118;1.6679205;3.159033;-0.032597106;-0.010746908;-1.8409996;0.05436286;-5.0348334;-0.19368088;-5.954527;0.05647781;0.342838;0.81647825;0.19298407;1.3435628;-2.9175675;-0.0016364561;-1.1283697;-0.044070743;-0.042066626;0.010092887;-4.640624;3.2612543;0.32335213;-2.0009747;-1.047346;-1.3752451;-0.016174084;-0.5486678;-1.3783344;-0.005824425;-0.035952374;-1.0119982;-0.0100449445;0.8075674;-3.447509;-0.15105845;0.6840425;2.8541713;0.0056947493;0.08648099;-1.9187557;1.804073;0.040564556;0.18117692;1.5440379;0.013489635;2.5424674;0.004792937;3.3350031;-0.034374233;3.6010985;0.009887225;-0.019863037;0.6689812;-5.044003;1.7969722;-2.8246799;0.8796454;-0.28623405;0.7853131;3.3033853;0.029002368;-1.3998276;0.4686066;-7.892226;-0.03150358;-0.38841397;-3.03987;1.1744691;-0.9171126;2.7317538;2.6312165;-1.3393307;0.014583792;-0.0021572146;0.02272651;-2.1369197;-1.6511923;-0.02218538;1.4868909;2.1397269;1.1334646;-0.016805295;-0.6217185;1.3109752;-1.2567611;0.0039772876;-0.008906732;0.016264271;1.1253262;-4.9136095;-0.013002382;0.07914979;2.536735;-0.61338323;-0.5554978;2.7001982;0.014105971;-0.39203855;0.7726796;-0.09398414;1.1385229;-3.4636521;-0.13325392;3.8853612;1.9016271;-1.5339472;-2.1666973;1.9166167;0.9998515;-4.1711535;0.03432884;0.0013800276;-0.081281945;-0.44069952;-0.16499105;-1.5925906;3.3368542;0.026910022;-0.08262266;0.3240588;-1.6820757;-0.0008420732;2.3168766;0.010911855;-5.5869527;2.034574;2.5539937;-2.4636357;0.93862396;-0.0041385954;4.6985135;-0.003984744;0.45777366;-3.1024632;0.07204015;-0.032891683;-4.1742735;-2.9364634;0.02878525;-0.0028239926;-2.630547;-3.478014;-4.051849;-0.06381339;1.3352069;0.01819258;-0.02944797;-0.9752882;2.1642334;2.0269604;0.093542844;-0.040389705;0.5977065;0.0004916855;2.6212099;-0.03460987;0.07612518;1.5454748;0.89455587;-0.027846135;0.019144177;0.015786044;-7.9107814;-1.9495152;-0.29209182;-1.9891528;-0.13087966;0.8016509;-2.3897402;0.65729463;-0.0003825841;3.7566628;-6.5755033;0.17386419;0.034900248;-2.0072021;0.038258158;2.4328194;0.029297646;-1.7370269;0.37826243;3.8741088;3.8973167;0.3575929;0.06457773;-0.15777372;-0.00035770694;-2.5139198;-2.4602346;0.32537103;-0.018336806;1.2881705;-0.0007266952;0.023571378;-0.034485362;-0.03131972;-0.2799903;2.1897278;0.5946607;0.028445672;0.028512318;-0.7039046;-2.2627175;-0.5038235;-1.6681261;0.007704189;0.13985854;-3.9515982;-0.64117765;-0.07676925;-0.037696782;0.41211027;2.7598584;1.3602891;3.0387554;-0.023764398;2.4580796;-3.2807388;-0.1511653;-0.011703308;2.4054651;-1.9328727;-0.40342373;-1.7482177;-0.94479764;-0.08323932;-0.027517939;0.39376038
-0.013575852;2.1227772;0.7200585;0.019930588;0.03596396;-0.29403812;-0.06618326;-0.0027831777;2.5365806;-0.87877315;-0.064919785;-2.7057874;1.0341015;0.9301108;-1.0961342;-0.030275263;0.63822705;3.1231666;0.009383476;-0.08045971;-2.6095781;-0.020022208;-0.10698951;-4.255976;-1.3117568;0.7425698;0.7418348;-1.1269562;-0.19588146;2.0939457;-2.455271;-5.0211654;-0.08165173;-2.3032165;0.014988908;0.0059560146;-0.8487552;0.5163494;1.870316;-3.26338;-0.32378313;-0.2996306;-0.3662665;0.57990223;0.020777646;2.059923;2.8586125;-0.8775449;-2.717334;0.0026546135;-0.90608644;0.018317303;-2.0259774;0.46515304;1.9234041;1.3342074;2.1893573;-1.7659919;-3.6101522;1.2453372;-1.7942461;0.89512116;2.0133016;0.110406846;-0.009743556;0.018892415;0.20003104;-1.813436;-3.767886;0.0001950179;0.017503783;1.7780999;-1.1981653;1.3035544;-0.011693702;0.039671343;0.04745687;0.86145;0.594883;-1.0616823;1.9924153;-0.09950109;1.1845052;-0.09419821;-1.0127755;0.7184065;-6.2936664;-0.009443114;1.4085127;2.077056;1.6960862;-4.101861;2.486618;0.4488302;-1.3240687;0.32851455;0.4487174;-0.15686485;-0.006546397;-1.4578462;-2.6848576;-3.0182397;0.6028709;0.024241665;2.6876042;0.016211394;0.009056996;0.042026877;-0.05932615;0.22406705;3.6720867;-2.7675447;1.3780024;-4.334603;0.013211714;1.2440819;-0.019504689;5.5067563;-0.07984552;0.9938863;-0.07814476;-1.9116976;0.051160764;-1.3012322;2.9858053;-0.010658458;0.01919115;-0.52219003;0.08112423;0.030181976;3.5644042;0.6390387;1.3852121;-0.036238443;2.4781606;0.021896623;-1.9791859;-0.048005547;-0.024352966;-0.015262935;-0.47724086;2.40589;-0.025734685;0.8478161;-2.2418954;2.6453958;-0.27686933;-2.9057715;0.035148844;-1.9694073;1.9920617;2.1856575;-0.0730173;0.38172814;-0.010519445;-2.8111193;-1.217441;-0.00973885;-0.021459488;-0.039544597;-0.45269525;1.804278;0.043161888;-0.08151672;-1.6649595;0.5223392;-0.604869;0.53918934;0.8313781;0.50642836;0.9232922;-0.28343457;0.8928554;-0.14529954;0.030323653;1.0237147;-0.4430114;-0.014321799;1.6549108;-0.872611;-0.010518471;-1.0711106;0.30592275;-0.33361298;0.005053065;-0.01897377;-0.27783915;1.2899779;-1.6866075;-2.3000026;-2.200387;-5.8050866;-0.011175001;0.026233194;1.7577126;-2.5169027;1.0251147;0.0772685;-0.8052807;2.4680128;-1.3718293;3.8939338;-0.53137654;-2.7478275;-5.2261457;0.67282623;-0.01082426;-2.5438037;-2.6082413;-0.04006942;0.011751618;-0.024235122;1.1230196;0.0017848192;0.0154712;-0.0024500675;-0.70915335;-0.057237614;1.5666924;-1.1234976;-0.9849675;0.35658377;-2.33929;-0.5555871;0.035579376;-4.3574076;-0.007909315;-1.8516839;-0.027700765;-0.6814754;-0.027108788;-1.0112158;-0.9589113;-3.8798428;-1.5814087;3.3571486;0.9952618;1.9162666;-0.0057849465;2.3142605;-0.79972667;0.29357803;-0.034303647;0.95759714;0.081056714;1.0375428;2.944281;0.3660778;-0.9452468;0.057434406;-0.065197796;-1.8924054;-0.10762756;-1.1490291;4.3618445;-0.11457755;-0.083165444;1.0727651;0.33042246;-0.14975016;-0.9896464;2.7564595;1.9292765;0.007978262;1.2386749;-0.08829808;0.211762;0.017886369;2.0790234;-14.408604;-3.1319768;-0.43221176;-0.0102744;-3.3458064;-0.020257862;-0.2455581;-0.10589684;-0.009661752;-0.015724039;-2.8442326;-0.42161107;-1.0053648;0.010242907;-0.20273706;3.0028713;3.3323748;1.0747558;0.5049244;2.1980689;3.90579;-7.30766;0.6853848;0.04235935;0.6483221;1.9913279;0.03784501;0.71544147;-3.4849885;0.06559647;-0.027397996;-0.8328176;0.84444225;-0.011407759;-0.17566304;-0.024401085;-4.514589;-1.9944267;-3.494775;-4.406991;-11.313814;-0.16699268;-13.331912;1.6965277;-1.7224354;2.0343053;0.18105282;3.1914806;0.01362729;2.5487998;1.9185721;-0.06461664;0.9234042;-0.16336441;0.021853192;-1.1388127;-0.03326973;-0.0010968017;-0.006360023;3.618393;0.018700866;-0.08761744;0.03885774;0.10790027;0.03388523;-2.0761282;1.3269968;2.59355;-2.103007;-0.032954905;3.4237657;0.002635062;-0.12530503;-0.7536128;-0.9299276;3.978639;-1.5820117;-1.1852157;-2.7738593;1.1987807;-0.036117833;-0.020811213;0.1390232;-0.0150063755;-1.3603708;-2.486978;-3.6618114;0.03993102;-1.3810289;2.6317468;1.6875328;-1.8877124;-2.2788522;0.018163942;-0.75580645;-0.0062801563;-0.00025685047;-0.07320571;-3.0944788;-1.1680117;-2.121921;-1.4052255;-1.4894615;0.99460226;-0.0075740963;0.034505192;-0.1336852;-0.011681712;0.10296831;1.1003473;-0.06583904;3.2969828;-1.8315027;-0.15135011;0.46123105;-0.38048363;-0.03411628;-0.117131606;-3.1651793;2.8931596;0.031130329;-2.2766974;3.6626668;0.011799371;3.3218956;-0.031226145;3.1509643;-0.2718546;5.0351224;0.012243737;-0.043689463;-0.19240226;-0.072740495;1.4217658;-0.9160252;-2.467978;-1.7205771;1.6870507;1.8489884;0.012012416;-0.08794029;2.9213085;-10.035815;0.005465278;2.0042129;-1.8048569;2.7866178;1.8774445;3.2660327;1.8207293;0.35906258;0.0003760204;0.06564812;-0.05306236;2.5931816;-0.011617793;-0.002846269;-0.29934797;2.493705;-0.10723979;0.048081487;0.9457632;0.5810294;-0.44730487;0.005170881;-0.0025765004;-0.034742802;-0.8190152;-3.0893464;-0.025761677;0.17745936;2.1527705;1.1728991;-2.2698057;4.337824;0.022243975;-1.3924274;3.5309799;-0.11363582;-1.0372872;2.3317409;-0.052052744;3.316201;-4.327259;-3.3787382;-4.427826;0.66307247;2.7389941;-1.5616893;-0.011529949;-0.016583432;-4.7043076;-1.938497;-0.9700822;0.9153021;2.002392;0.05456039;0.16716261;-0.27332667;-4.545706;-0.014255479;1.3822004;0.031921983;-1.4163358;2.9171243;1.6331643;-4.2598605;2.2707174;0.021149836;2.533158;-0.019263808;-0.1275289;-1.5091096;-0.040807527;-0.015317499;-1.3857636;-1.9140557;-0.04842343;0.058729034;-1.3544338;-1.3155135;-3.1082869;2.2431521;1.6188577;0.040601112;-0.039610676;-1.9856327;-0.495114;0.09433571;-0.051428065;0.052639827;-0.51054144;0.015818622;0.15036662;-0.0592043;-0.007104059;1.7861122;1.7268711;0.01772412;-0.014698872;0.008407407;-8.832073;-1.0945642;0.5220253;-1.0650504;-0.03893152;1.7538104;-1.7607411;0.7443318;-0.022134189;0.29077402;-8.802077;0.043813467;0.003788705;-3.9057958;0.012117126;1.1024541;0.0035863596;-1.9192631;-1.0609173;-2.3905318;3.0943508;-1.3263167;-0.031335663;0.36605963;0.015950825;-2.8458498;-2.7317376;3.3238256;1.0659138;-1.253481;0.008029889;-0.0051537864;-0.012915219;0.040068235;-2.1781046;2.1263812;1.537577;-0.004475826;-0.001614578;3.140085;-1.0370338;0.16615196;-2.111822;0.027091762;-1.2577792;-6.225436;2.5044928;-0.039739296;0.014142956;-0.78942555;1.7186309;-0.09873185;1.9871671;0.02263608;2.4105473;-3.7946281;-0.8942659;0.24199274;1.1602076;-2.0977619;-1.4971863;-1.6320752;-1.3149016;-0.06139633;0.0060396004;-0.41509333
-0.0006433664;3.981593;1.2490774;0.013631487;-0.046177957;0.2872608;-0.049094226;-0.037502542;-1.3362104;1.2164391;0.004098739;-3.2842634;-0.009022386;-0.058291443;-1.0597954;-0.00037975493;0.42032373;-2.3899026;0.019419873;-0.019732034;-2.6588063;-0.01741725;-0.66499573;-4.6631756;-0.6599495;1.2427081;1.1350647;-3.470422;0.065523185;1.7998109;-1.5489234;-5.339493;1.9952544;-1.8971691;0.04462708;0.015411286;2.7429857;0.6117609;1.3871129;-2.1540608;-0.24588875;-0.24180563;-0.047705676;-0.2418141;-0.0457545;-0.91373;1.8709438;0.27945805;-3.9009774;0.050510835;-2.7273862;-0.017956931;-0.24963991;2.8288648;1.7752424;1.3145258;1.6957214;-2.8901832;-3.6892858;-2.3618622;0.018387409;0.16642685;-1.637864;1.8536538;0.0024423094;0.008360791;-0.3998076;0.38739493;-5.7108345;-0.023674859;0.013116795;0.8307495;-2.6434753;1.369959;-0.025256824;0.0104306545;0.022678683;0.22034597;3.7907329;-5.011892;-0.71137404;-1.6825402;3.2784226;0.20462923;-1.2331198;0.0014264651;-2.3055646;-0.051650688;2.4671667;1.7969458;1.3227339;-3.923234;5.973115;-1.0003684;1.3763436;-0.06475013;0.8927762;0.03655011;-0.012376938;-0.18484937;-0.13103805;-1.905681;-4.4962034;-0.012912575;0.49951285;0.03605155;-0.0283455;0.041541792;-0.03154539;-0.99642575;1.1350589;1.4729426;0.83212113;-5.296014;-0.0070087956;-1.4754903;0.0022649723;4.6875;1.1210934;-2.0779288;0.3989458;-4.4452333;-0.031049779;0.24135059;3.361665;0.041678753;0.026993092;1.6693585;-0.63001543;-0.0007612043;4.1724157;-2.1525183;0.6577047;0.036993157;3.0560927;-0.04844833;2.435252;0.0012078903;0.04593717;0.05872335;-0.30449048;0.8827244;0.035010386;2.1949062;-3.1160982;4.005035;2.103911;-4.404453;-0.007382145;-0.581039;3.076075;1.6560556;0.09110781;-0.10049802;-0.022333443;-0.4924664;-0.6148025;0.02091795;-0.094081305;0.0062257345;1.2727238;2.141526;-0.052081496;0.019063652;-1.8578062;1.2234211;-0.060403544;-1.1866835;2.241058;0.9878319;-0.29441842;-0.7789726;-1.4193984;1.4257277;-0.0083604595;-0.11019478;-0.9328262;0.040877126;0.28920478;0.8330579;0.0069896174;-1.1698552;1.6429696;1.5563927;-0.0026502637;0.019485977;-0.14619522;0.2843745;4.24594;-1.5484077;-0.56954914;-3.8955035;-0.023785857;0.060182344;-2.0769851;-1.7814959;0.5684329;-0.87552863;-0.31217122;2.0017245;-1.5917287;3.2667115;-0.9730008;-0.1358053;-7.5556784;1.698573;-0.020798637;0.6124436;-1.0386417;-0.062317062;0.024611242;-0.032052092;0.6335906;0.011801416;-0.0043867375;-0.016280124;-0.09793209;0.03469676;2.5795891;0.43479395;0.30755562;-1.3048716;-0.9887386;2.7795963;-0.0095977755;-3.61681;-0.08719051;0.65793735;-0.08747014;0.963851;0.00031096322;-0.19525713;-0.1424536;-2.9831395;-0.40075794;1.3960732;-0.04832241;-1.1105436;-0.070045896;2.0066807;1.0900798;1.886206;0.01268172;2.945499;-0.08829671;0.5946153;0.33538207;4.7070637;0.05714203;-0.03514673;-0.10571022;1.6624992;-2.1089215;-1.4608542;1.8984313;1.051729;-0.14980137;0.8696804;-0.87706065;1.5843542;-0.6618271;0.07357729;-0.5002164;-0.027050229;1.1661327;-0.017500017;-1.3545549;-0.06880424;2.360162;-12.398648;-4.051486;-0.9456073;0.03150431;-4.493401;0.016079633;0.30130118;-3.1066651;-0.0048635616;-1.0428522;-3.8105428;-0.3525484;0.09346746;-0.014105859;0.21430156;3.5806243;-1.2813447;1.8666162;1.7311906;1.5914562;0.34627745;-4.8889275;2.9712372;-0.008604407;-0.05005087;3.073881;-0.019372107;1.1493703;-5.8995366;-0.055976585;0.014950333;-1.2678207;1.1836534;0.0065579424;-0.24362434;0.052319195;-0.36016682;-3.6379561;-3.121056;-3.3781054;-11.825305;2.1716304;-7.2589784;1.3769846;-0.9946398;0.91797096;0.810435;2.5959625;-0.003995064;1.3949733;3.1121442;0.021854991;0.45617518;-0.47380522;0.029539634;-3.6383443;-0.020113792;0.007420319;-0.03027417;2.75377;0.041124616;-2.3709562;-0.041069124;1.9479979;-0.020836921;2.7567136;0.45342147;2.7001064;-1.1637237;0.9034832;1.560949;-0.042279422;-0.114289925;1.0028048;1.5202274;0.5038497;-1.8439645;0.21879621;-1.5103543;4.1031117;-0.051218823;-0.032549568;-1.2459517;-0.0052134516;-1.3017186;0.30906782;-4.3900313;-0.013101279;-0.76894104;2.1076005;-0.4338086;-1.232676;-1.1368879;-0.041042317;0.093769796;-0.045337602;0.017502755;0.007054367;-3.3952026;-0.8503452;-3.2862828;-0.7261364;1.5617244;1.094263;-0.0380105;0.99583244;0.7578456;0.047008242;2.0655262;1.1035982;0.01378505;1.9816798;-3.2151482;0.057432618;-2.2343247;0.6157586;0.01394307;-0.11254464;-4.841979;1.4751478;-0.010599647;-5.0298047;3.0419667;-0.019507991;2.8958716;-0.022755574;3.963063;-0.6342834;3.1021686;-0.020476364;0.01249219;0.8046265;1.7923892;0.50901234;1.6117618;1.7086043;-0.13798554;1.8132284;3.548688;-0.063163586;-0.73870426;1.3206229;-10.167452;0.031417627;1.4567949;-0.9012877;3.0349386;1.0257468;2.1956747;-3.6674876;-0.63755953;0.00061625626;-0.015031567;0.019480199;2.788541;-0.8460788;-0.03520453;-0.296201;-0.7071513;-0.58352035;-0.004119051;-0.33673435;-1.9367743;-0.80469006;-0.04582345;-0.044808608;-0.052868925;-2.7624295;-3.3469875;0.02017625;-0.03517661;1.4302242;-0.15379123;-1.2830188;0.55761135;0.049773484;2.0615244;1.2406546;0.28100163;-2.907044;-1.4065672;0.022955809;2.3974519;-3.0663166;-2.2321954;-0.64656675;-2.837598;0.79215485;-4.634789;-0.0022988769;0.053391427;-2.9417484;0.43993804;-2.347641;-1.3007693;2.8906863;0.006134734;0.17047082;0.6272216;-5.49401;-0.042140238;1.9636843;0.026133537;-1.936968;1.502087;0.9807904;-4.9529734;3.254395;0.054022685;3.8915362;-0.0032206965;4.4769363;-3.6112468;0.09131885;0.021580748;0.3155072;-1.5252521;-0.008003911;-0.028939987;-3.2376482;-1.4957901;-3.8604007;1.3302568;0.32059783;0.007065368;-0.013100451;-2.3958883;-0.4985036;1.639034;-0.034763593;0.045726355;0.22972089;-0.025235925;0.009282643;0.018966809;-0.020071998;1.2225271;2.74779;0.0073415264;-0.011670423;-0.10461722;-8.917726;1.2502694;-1.5747577;0.5110865;-0.011657748;0.55579805;-3.650143;3.834703;-0.027366608;-0.9051928;-8.526593;-1.2494184;0.31793046;-4.6994963;-0.0678888;4.5572925;0.030146087;-1.5027143;-0.48968366;-1.1624211;3.581409;-4.8105493;0.019737717;0.11442667;0.014002396;0.10564584;-3.9646955;1.1802214;-0.6196526;-0.7604041;0.021251554;-0.019203171;0.033358935;-0.027705569;0.8856147;1.1242726;3.1368597;0.07090608;0.015401305;2.212734;-0.25077516;0.05573634;-0.18708065;-0.0033386352;1.5479494;0.69203645;2.7158282;0.0070347693;-0.01370968;0.05387255;0.83573943;0.3979355;1.0764359;0.0017742708;-1.7396661;-3.3755763;-0.64657766;0.24994606;2.579186;-2.4562275;-0.59745634;2.0373805;3.9321105;-0.05099368;0.011559124;-1.2323408
0.055847112;2.1675246;0.113944866;-0.006119701;0.017504774;-2.0639343;0.013640061;-0.073361255;2.5945756;1.2090194;-0.026744796;-3.7275467;0.07699246;-2.165771;-0.7951241;-0.013810671;0.940505;1.8153961;0.02236361;0.1629165;-1.0321096;0.035784766;-0.16756035;-5.4584813;1.1995322;1.6086735;-0.44599813;-0.95433307;-0.027811682;0.80326;-2.3622034;-3.6658924;2.2669063;-1.0690138;-0.0037034242;-0.027063891;-0.9832025;1.649388;-0.051504407;0.02518101;0.3849399;2.0661187;-0.87718505;0.5524659;-0.0023413422;-4.4424396;1.4499679;1.0790572;-0.9373428;-0.022382908;-0.0548967;0.035938878;1.0988351;-0.15165481;0.46553263;0.32046604;2.337527;-2.465964;1.0172573;0.766493;3.023034;1.7760983;-1.1695267;1.3168186;-0.0035984905;-0.038067076;-0.7915346;-1.131916;-5.242714;-0.008454808;0.0026368725;0.22649476;-2.3561568;0.97681177;-0.022624632;-0.018089393;0.04679245;0.2400516;3.8130932;1.4848567;-1.3896906;0.01943496;1.8886998;0.002849984;-1.295266;0.5479225;0.13376081;0.15619138;0.65195155;4.1393213;1.2946512;-3.0737865;3.882371;1.1221724;1.466242;0.11822661;0.15453686;-0.44710115;-0.01452074;-1.3274316;1.230585;-0.41840273;-2.9930582;0.04195118;-1.4337823;0.026891889;-0.19408548;0.0029604202;0.032773383;-2.7062793;2.7727222;0.5861092;1.6362884;-6.388151;0.011825369;1.611052;-0.016605318;0.6309142;-0.2743674;0.13449337;0.5885709;-2.400342;-0.016716888;0.39060253;2.3830788;0.006840598;-0.0062840595;-3.1081743;-1.6791645;0.011442748;3.093617;-3.2980342;0.048544336;0.020260764;0.2496424;0.020869244;2.2735176;-0.026270412;-0.028454456;-0.013987396;-0.06638807;-2.090529;-0.019947678;1.717876;-2.8488235;1.5757437;2.4731894;-0.48155054;0.010147902;-5.022215;1.4206036;0.844493;0.007925078;0.31550625;-0.0019754698;2.7908733;-0.10917197;0.025338354;-0.19715714;0.00111414;2.194131;0.46973395;0.017474437;-0.031537104;-0.9861428;2.2679298;3.3912935;-1.3445237;3.1060185;1.3759674;0.019520326;-4.278418;-0.58810955;1.8193101;0.0067460523;-0.11451877;-0.74617046;0.026340028;-0.22523738;-3.10762;0.06851672;0.48877317;1.2693745;0.81791806;-0.02815666;-0.032698996;-0.48212948;1.4015234;-0.21428005;1.8541718;1.1063627;-1.355882;-0.04202683;0.012245608;-1.2629315;-3.8777435;1.480195;-2.4271057;-0.6194211;0.7675195;-2.4459355;1.7024181;-1.9640203;1.9838433;-6.2298975;0.86151975;-0.03409739;-3.7173135;-0.50934213;0.108940534;-0.026629202;0.057940595;2.8353615;-0.028776698;0.019194797;3.246491e-05;0.15415455;0.018649278;0.78674453;-0.6742388;3.8407493;-0.30948296;1.1911992;1.4634528;0.06973321;-3.0292335;0.16384237;1.0102216;0.04351036;-0.25456175;0.016885845;-1.0096053;1.2246095;-4.6694317;1.0172056;0.7903961;-0.41141292;1.7913345;-0.016540095;-3.0113416;-0.35091388;-0.038138136;0.025000824;2.081527;0.036807865;0.7180599;4.480527;1.7784753;1.4100301;0.012014598;0.20254402;2.0046856;-1.1177683;-2.4976397;3.116936;-0.1292882;-0.048460133;1.1204748;-0.6369211;0.14437956;0.57684416;0.11369907;1.4111549;-0.05174343;-1.3634362;0.0041357083;0.21038051;-0.015208382;-2.1779106;-13.206064;-2.9860792;0.08366765;-0.04815894;-4.452664;0.02713439;0.0788458;-1.244027;0.03172912;-0.85164577;-3.4892926;-0.3600412;1.0355825;-0.0061157914;-1.5139773;0.8487256;-0.8477438;0.84443724;-1.2347624;4.4716687;1.7916375;-4.451807;3.112536;0.0002714178;-1.292359;2.0953133;-0.0351662;-1.8744893;-4.6240582;0.055270676;0.037925463;-0.7590134;-0.11719599;-0.05070767;0.08080269;-0.016591491;0.117181025;-1.9214902;-3.9950864;-2.7362256;-12.473296;1.9094762;-0.2408238;2.0746503;-0.061047766;-0.6247572;1.0661907;2.694942;0.0077369125;2.4707117;1.6160995;-0.15412642;0.5286438;2.1407125;0.005011625;-2.6599894;0.095779985;-0.036161676;0.15550815;-0.60273254;0.050850395;-1.4865419;-0.006047815;0.7099947;0.030502994;3.138364;0.13305849;1.6270143;-1.4811387;-0.12860781;-0.7509024;0.017771851;0.0010593374;1.901;1.6553857;-0.53589743;-1.6808145;-0.54680634;0.78723216;1.2884107;-0.017240955;0.012939184;-0.9038188;0.0058491845;0.3540215;-1.6716566;-3.333149;0.05266704;0.051891696;2.3101883;-0.40025824;-3.5516887;-3.104948;-0.027875064;-0.16136062;0.055822756;0.0015865775;0.037618738;-6.7609773;-1.9108644;-5.799967;-0.30259848;-1.9918633;0.97072077;-0.007847345;0.5145684;1.5884192;-0.006268936;0.5285616;1.5947825;-0.019542165;3.4953294;-3.1152174;-0.014373435;-8.024337;2.054735;-0.007131348;0.06433813;-8.182866;1.4934765;0.037622064;-0.628287;2.3817165;-0.009536042;0.7584148;-0.04139745;1.5492507;0.059916;1.3775926;-0.018926822;-0.0029960454;0.9037761;-1.8885555;-1.0605857;-0.06627077;1.2162334;-1.3040054;2.860602;2.4706802;-0.049485624;-1.66279;-0.2406648;-9.756984;-0.04917279;-0.20970875;-0.053943343;1.9625213;0.39493367;3.1329012;1.1687002;0.97297966;-0.010080392;0.008577247;-0.00663531;-3.116501;-2.4425159;-0.053677086;0.06766369;-1.9094771;-0.93030757;-0.035328206;-0.7906032;-1.4843533;0.91309214;-0.013680595;-0.004217119;0.12219019;1.3775231;-1.9388087;-0.023181254;-0.04476701;1.6493825;-0.33141387;-2.4267278;3.5723143;-0.025460554;0.57786375;-1.1997184;-0.12539816;-1.1024278;-4.297855;0.027182512;-1.7151134;-1.5017954;-0.44405147;1.8134873;-0.6813825;-0.3708785;-5.967954;0.011175482;-0.0018925205;-0.5372918;-1.0946244;0.10841445;-3.4810536;3.818415;-0.01939184;-0.12557724;0.45512366;-3.8395352;0.0021964351;-0.0814066;0.004587859;-5.74862;3.7655566;-0.7138866;-4.6137104;2.020571;-0.0714994;2.3085985;-0.020496277;-0.99386144;-0.94487447;-0.009872126;0.007303264;-3.7173448;0.98277;0.027541172;0.043463696;-4.3335767;-4.2528253;1.2421381;2.829829;1.2937311;0.08174422;-0.015861724;1.2618082;-0.45338476;-0.08001816;-0.035434537;0.011289397;2.8951488;-0.0053787376;0.70203346;-0.045260873;-0.009358638;0.19494;-0.07349651;-0.0171336;-0.013329048;0.55801237;-10.41211;2.8870595;-3.2531776;-1.788898;0.0020535733;1.8872561;-1.8829592;1.8543165;-0.03238558;-0.762495;-9.049498;0.98247147;-0.16822414;-4.85834;-0.003578437;-0.44893578;0.010457737;-0.9380118;0.15206161;0.58567786;1.4195697;-7.007404;0.018993007;0.84046173;-0.0033791882;-0.026034264;-1.9217011;2.9350038;0.12199594;0.66199934;-0.05876527;-0.02401399;0.030400632;0.02367217;-3.1206903;-0.5122699;3.7251334;0.04199014;0.035314985;1.5507916;-0.05217496;0.9464139;1.6191746;-0.0057370337;1.2929416;2.160857;2.1329327;0.028043687;0.0027083973;-0.22279005;1.7975312;1.7242911;2.0768025;0.056732684;1.5296519;-2.7430494;0.9774637;-0.14961858;2.5182762;0.054139346;0.33302465;0.77994347;1.5775278;-0.019656757;0.02717259;0.01953881
-0.0007566271;1.6620877;0.13105968;-0.060327906;-0.061738458;0.3545613;0.009254601;-0.14203905;1.8580097;0.9212567;-0.025500977;-2.1135168;-1.5542591;-1.9575528;-1.5933878;0.038771972;-1.1285907;0.9279846;-0.06330358;-0.0675544;-3.7664192;-0.061251573;0.119743146;-2.7244408;0.24905528;1.7283899;0.18937568;-0.009397819;-0.084111996;1.2345626;-3.1817696;-3.6630464;4.2810197;-1.2174495;0.06346243;0.0049088257;3.6978147;1.4314765;0.16969575;2.813499;-0.2719655;2.002837;-0.19062604;1.3715863;-0.03918988;-3.05125;1.6615833;1.956445;-0.3534954;0.0046133343;0.97633773;0.005165279;1.8197258;0.10266397;1.1367214;2.720224;2.7798605;-4.9934344;1.4690386;-1.2347509;-3.3857584;0.4766744;0.81319565;0.7078992;-0.004161658;0.0018133982;-0.45630953;0.16544163;-5.081183;-0.016909536;-0.014117399;1.6726987;-2.676895;1.2716146;0.010132501;0.01143637;0.014324727;-0.52195275;2.2060883;3.1448748;-3.923544;2.1625898;1.2927141;-0.009362622;-1.218605;2.616757;2.401597;-0.1092995;0.92033637;3.7176952;1.4863172;-3.4452064;3.480472;0.08687009;0.44256735;0.33829916;-0.24044079;-1.3309435;-0.004568121;-2.748208;1.7771142;-2.045293;4.0189486;0.016349157;1.529921;0.03201;0.75321114;0.05418735;-0.034056153;-1.7208651;0.6734232;0.94928634;1.023769;-5.2227297;-0.0031187502;-1.4315063;-0.023096109;1.2054747;-0.063324265;-3.0593355;0.80822855;-5.87208;0.0019144305;0.82902366;3.2857375;-0.009584225;0.013437935;1.3022671;-0.553281;0.00013270174;2.143883;-3.512645;2.1060042;-0.009934379;1.8986384;0.0074844724;0.40279272;0.028964885;-0.029708954;0.046650626;0.32277927;1.5517801;0.025300315;1.7547631;-3.1012294;-0.29595327;-1.3139168;-3.0591924;0.06563471;-2.085938;-0.9061701;2.1073942;-0.07303582;3.244619;-0.035380296;-0.3612369;-0.12038817;-0.0076276297;0.85509866;0.050144322;-2.601315;0.697901;-0.0033343958;-0.01946956;-0.90810734;6.557187;2.9411647;-4.187999;-0.2143769;1.6698695;-1.5106966;-0.075826176;-0.21185033;1.6505983;-0.010515777;-0.032333244;0.27021554;-0.0012310105;1.1879277;1.1499165;-0.0022556346;-0.43731877;1.9037036;0.31404054;0.052108202;0.033938296;0.38359442;-4.318347;0.59245694;1.0312079;-3.7523394;-3.7824578;0.021403892;-0.035064008;2.132632;-0.08457671;1.1662136;-5.4392424;-1.1214873;0.0075649396;2.489513;0.44048995;-2.4602199;1.7078509;-4.458862;-1.696199;0.0056031053;-6.7384624;-1.004153;-0.08054415;0.013687754;-0.08031426;1.5688325;0.036543835;0.00894091;-0.07014792;0.85220015;0.008798351;1.19388;-1.8850821;-1.170124;-0.38357785;3.9713128;-0.44085172;0.011786402;0.3471525;-0.03425058;1.7602552;-0.027116833;2.7232888;0.0076865526;1.1729152;2.5251138;-4.3423486;-0.99795246;0.63375735;-1.3435553;2.7819204;0.064819366;1.6416954;2.2503061;-0.5760418;0.015325676;0.8577459;0.043083187;1.3939074;4.557013;2.4956875;0.9500753;0.105342254;-0.0021565936;1.5992721;3.6796076;-1.6219293;3.9198122;-0.8919929;-0.0733536;1.2044573;0.956318;-2.1590686;-1.1991165;1.4207585;3.3796406;0.064928316;1.6060529;0.051608913;0.26980314;0.073782906;-2.4582508;-11.354543;0.4413163;-0.3618862;0.01578545;-3.2971358;0.010419136;-0.2866492;-0.096314415;-0.04653914;-0.8437578;-1.8904214;0.09601732;-1.421358;0.004155542;-0.09933292;3.725061;0.023195272;-1.3716654;-1.6807166;3.4635458;2.968647;0.48750308;4.5995193;0.061910547;-2.0318394;0.8720634;-0.009185684;-3.9894793;-0.95187265;-0.002827838;-0.14003076;-0.39825678;0.35651815;0.065994784;-1.3343308;-0.031700235;0.5442072;-2.0352674;-7.213149;-9.184871;-2.983097;2.5267494;-0.091413714;-0.8207261;2.6503887;-1.3994442;0.95832634;2.7984815;0.010932642;3.1767628;1.2100872;0.94977903;1.2749565;4.201663;-0.06535274;1.3776433;-0.013864177;0.029628834;-0.12384728;2.1753044;-0.024863342;-0.83481556;0.091748975;-1.3263098;-0.0106339315;2.555982;1.4638379;2.4389832;-2.1138127;-0.10466485;1.4914296;-0.0038423573;-0.033726793;1.7155583;1.3186209;-0.26206768;-5.08632;-1.4722203;1.477975;4.7178745;-0.012472861;-0.09363792;-2.1008196;-0.012299388;1.3922373;-0.16933164;-7.610343;-7.776795e-05;-1.2778007;1.7021495;4.035842;-0.7521488;-1.4711423;-0.012367064;1.4314461;0.0037706373;-0.004857092;-0.019964635;-4.3090057;-0.72999984;-5.5661025;-2.204122;-2.140876;1.0526401;-0.04654997;0.036351323;0.095610045;0.07724684;0.12816985;1.4030285;0.021962725;2.8802032;-1.0213622;-0.34834102;-2.9274669;2.0791733;0.019046698;-0.06747935;-1.9508926;1.1854496;0.003451031;0.0006093591;2.0570066;0.005263267;1.8392191;-0.023679674;0.048892897;1.0451728;1.4022449;0.006309852;0.011680128;-0.005001656;1.0331109;0.0900781;2.8223746;0.98680395;3.2621677;1.7639062;-1.2350155;-0.008185389;-1.6350243;-0.74819803;-8.86925;-0.062019058;-1.7936857;3.538374;3.6366227;2.5790238;1.8271233;4.2602963;-0.083047725;-0.022285128;-0.037226535;-0.026565768;0.3048082;-2.9613118;0.0488324;3.1826437;-1.4026619;-0.80810285;-0.027695237;-3.1285877;-3.9065723;1.9311895;0.031402383;-0.019499503;-0.0090661775;-0.40116382;0.023163006;0.00020521003;-0.36021042;1.3024125;0.6816727;-3.5980706;3.490402;0.016923508;2.6652746;2.1610212;-0.12325332;1.8088826;-1.9815433;0.014816801;-0.39824027;-3.0590127;-1.9291013;-1.3474045;2.120473;-7.6788883;-0.9588464;-0.029610824;0.018997047;0.55342454;0.7871378;-0.18897872;-1.1602598;-0.2958559;0.02097049;0.05449583;1.5807381;0.4246352;-0.022170192;-6.75482;0.065467715;-6.888564;-0.39554784;5.095921;-4.872158;0.97561127;0.002934633;-0.02637842;0.025718337;-0.6465724;-1.6772443;0.011517249;-0.047672182;-4.135944;-0.8558264;0.008843753;-0.012657147;-4.680878;-2.4598987;1.6961998;0.80106217;-2.5589504;0.011013784;-0.04589454;0.7489142;-0.5919258;-0.9888897;0.50119436;-0.0026260426;-1.7335836;0.030406203;0.53484005;-0.11044739;0.022188371;0.3912915;2.8794298;0.03988647;0.0028490373;-0.1349366;-8.469144;-0.32802007;1.3143972;-1.9516786;0.0035280653;0.34480312;1.2442999;-0.085466936;-0.054578975;-0.86123115;-7.8609085;2.3702052;-0.122844584;-3.4387581;-0.004015346;0.8414914;-0.0025316642;-0.69008094;1.162242;2.7255986;-0.24362826;-7.0561576;0.02486955;0.28145978;-0.008359109;0.14294879;-2.2739463;4.476006;-1.7923319;1.1138108;-0.013433481;-0.00015080356;-0.004292397;-0.00505018;0.45926112;-1.7199469;0.87341243;-0.008935574;0.018613918;-2.1344814;-0.089294106;0.3880596;3.4506392;-0.02729572;1.3837565;0.8579594;-3.2271862;-0.02825969;0.0018731744;-0.16150022;0.9039831;1.5565577;2.71954;-0.020013526;-0.80316204;-2.041524;-1.3983841;-0.2301282;0.82200015;-0.7144708;-0.10568098;0.77841353;0.9825958;0.02317852;0.020365141;0.5922733
0.023704585;3.428666;1.4148084;-0.023042643;0.004244536;-0.68044436;-0.01092622;0.46664765;0.62688667;0.88407016;-0.018791674;-5.7901244;1.3957083;3.098662;-1.6685991;0.0036095364;1.4861693;0.8646183;-0.009506538;-0.14977784;-1.3788188;-0.023009926;0.190991;-2.7269418;1.3193148;0.873667;0.94736797;0.40351272;-0.0049018995;1.3805174;-0.28740302;-2.489869;0.06015522;-0.2210027;-0.030884568;0.0027164286;-1.3779852;0.963299;-4.066995;-1.1861645;-0.025729962;2.511051;1.4498128;-0.9647006;-0.047284637;-1.6180043;3.1155293;1.6866411;-1.086785;0.0485175;1.1548693;0.038044546;0.94007236;-1.9199065;0.51453674;2.3384423;1.8207505;-1.7017334;1.2797583;1.3567381;1.590985;-0.7060141;-0.6449706;-1.7082367;-0.009378302;0.0035796964;-1.3568093;-2.7252972;-6.385416;0.013854166;0.025646258;1.0535829;-1.1291593;0.50638884;-0.0015091001;0.011889844;0.031232907;1.3593414;0.8909763;1.7077549;-7.401263;0.3963249;3.588844;-0.040018834;-3.462647;1.0846287;-0.452891;-0.0024344714;0.33571127;1.6989889;1.4428624;-3.749174;3.0264752;0.92848986;-2.682202;-0.05156132;0.036707025;-3.0607004;0.03006523;0.46021783;2.1585464;-5.166934;2.403249;0.0060581714;-2.5123665;0.020421365;-0.07270789;0.035512336;-0.01743426;-2.0329807;1.1481524;1.1587083;1.4831718;-2.1890159;-0.0053743916;-0.50522536;-0.009650095;1.285716;-0.043173566;-3.4354062;-0.0822411;-1.337852;-0.03925425;-1.2469726;3.5920868;0.030728271;-0.029319953;-3.0503817;0.30117;0.02503093;3.315075;-5.465787;0.972513;0.0026975402;2.027073;-0.012464248;2.2856407;-0.031547073;0.01556341;0.023258956;-1.4466802;0.0058040367;-0.034075417;1.2208906;-3.1177118;0.05218385;1.8798358;-6.2396355;0.009608896;-2.1667483;-0.07202527;1.2367201;-0.05922395;0.57913387;-0.061221827;-0.48663768;-0.95088863;0.0029460376;-0.27163854;-0.021424225;-2.6025097;-0.69059914;0.017124165;-0.023509268;-3.2009444;5.0334067;-0.104956575;-0.59764254;-1.8238126;-2.1548312;-1.8099923;-0.90148157;3.3942015;0.6891838;-0.03188585;-0.06518017;0.33066592;0.0011089613;-0.10613887;1.5938032;-0.012814739;-2.3919778;2.389223;4.4475703;-0.02909134;-0.082473144;-0.057782117;0.15802488;3.6595142;-3.158164;2.186871;-3.4036455;-0.041987773;0.022172466;-1.3531109;-2.3506625;1.978043;-4.6329703;-0.2275401;0.13725607;-0.7999475;-1.4682316;-3.3850265;2.5065181;-5.857645;-0.69715273;-0.0061405324;-5.3020716;2.3773136;-0.0067657847;-0.09063232;0.01928971;-3.2135599;-0.028868463;-0.056731157;0.44838843;2.745683;-0.0035677569;1.7634797;-1.2962178;2.3668966;-0.4817224;1.1165044;0.770853;0.0019526117;-5.982605;-0.0030389545;0.8408149;0.02968265;-0.28791374;0.007168173;1.9888247;1.855718;-1.8121244;-1.6626291;0.6736655;-0.5000663;1.1226386;-0.018419936;1.9565827;2.405226;0.03935626;0.025245227;2.3377156;0.036170535;1.471378;4.5433555;1.2894882;1.4885211;-0.021786297;-0.07726799;1.9577163;4.1754894;0.69314605;1.3150946;-0.89412254;0.08151755;2.209599;0.57903385;3.3804557;0.52726054;-2.985151;-1.9826539;-0.087405644;-1.359317;0.0070961337;-1.4543504;-0.07938799;-2.5246043;-8.398636;1.2365867;0.93361986;-0.06514492;-5.032351;0.003290909;-0.98019123;-0.10416121;0.10483105;-0.49280977;-0.47852838;2.9406722;0.15000136;-0.00086471735;-2.4216886;4.410266;3.2739613;0.6669077;4.4411635;-0.044506304;-0.21293277;-2.1845438;2.989395;-0.041370165;-1.2486881;1.463607;-0.03607843;-3.9534125;-3.8063684;0.03139043;0.25132868;-0.7185815;-0.34685963;-0.080030136;-4.8231573;0.015263179;0.74369806;-1.3256117;-9.591925;-1.6132544;3.7550957;4.4652185;0.005735014;-1.1557707;3.7321432;0.4437991;1.1484023;1.0981758;-0.014013957;1.8258286;2.9334505;-0.21879974;0.314393;3.8926163;0.0023317703;3.1803892;0.040583756;-0.023494463;0.08029089;2.184802;0.018104358;-3.9476964;-0.023156956;1.5326681;0.002599593;1.851547;0.22924179;3.5148175;-2.0557818;-0.025004165;1.6013343;0.0074761696;-0.057418652;0.7531457;4.0653243;-0.3089445;-3.315699;-2.4550648;0.39038956;6.415196;0.019736763;-0.019866874;-1.5409234;-0.026549302;-1.3948334;-0.080360696;-5.850045;-0.023278398;-1.6623158;2.3944726;2.0551195;2.2164242;-2.279853;0.0013421664;1.1192191;-0.01181613;-0.0407984;-0.14724708;-3.6247444;0.5959666;-4.2162924;-2.0402238;-1.3013391;3.7561095;0.78033435;-0.17692718;1.8687593;-0.021386418;0.6114229;0.9950179;0.011773338;0.8211509;-1.7852571;-0.30675435;-0.9337642;-1.2363546;0.03231933;-0.079471745;-1.3024466;1.8163948;-0.028980648;-1.4532396;2.0951948;-0.0008718797;-0.58887464;-0.0059256083;0.792389;-4.007143;2.4802978;-0.016016658;-0.037230276;3.110575;1.9871562;1.2678045;2.877146;0.2086257;0.3818228;0.82927907;-0.52284;0.3487195;-2.4449906;-1.2144469;-9.208674;0.0051871673;-2.718366;-1.4941436;2.6426866;2.672309;2.080389;2.43786;-0.40045872;-0.007146293;-0.017046943;0.001179282;-1.5995873;-1.2644112;-0.022580082;1.9844605;1.2119447;2.333949;0.09145391;-1.4958551;-2.9308352;0.9943173;0.02080328;-0.0014813746;-0.022211082;0.56848377;-2.1347578;-0.014225462;-0.15360515;0.5201013;0.1913212;-5.2236285;2.5528793;-0.013836933;1.9947314;-0.025788382;-0.22181506;1.3497328;0.6175679;-0.019981062;0.5492671;-2.8964303;1.053721;0.117372036;-0.11797843;2.2017076;-1.8591079;0.031590678;0.013101981;-0.43519616;0.03376042;-0.37266532;1.3194889;0.84750587;0.07280592;-0.033018555;2.0129876;-3.6282296;0.061713208;-0.060780276;-0.0021661492;-8.737165;-0.31186983;0.58793443;-3.5911536;1.5771585;0.024084304;-2.4389546;-0.06971067;-1.2548711;-1.3327161;0.038295265;0.054791976;-1.3056632;-0.2418417;-0.050957497;0.0006629571;-0.075908355;0.19308107;1.6056361;-0.5947218;0.6686021;0.024804462;0.09636104;0.13993596;-1.2579291;0.09376201;-0.08864708;0.010684414;0.46921;-0.0011480637;0.97861147;-0.14329469;0.0062155672;-1.0366315;0.4562866;-0.032769967;-0.010574877;-0.04472243;-8.317098;-1.4510778;1.5494318;-2.2569406;0.03880057;2.875098;-1.9992521;0.54121244;-0.13704322;-1.9252454;-5.513639;2.227829;0.033719297;-1.3643763;-0.026974762;0.6159503;0.033451784;-0.8590372;2.322009;2.4671197;-0.037060823;-5.9096403;0.014390736;1.4660959;0.0185976;2.3003416;-0.99353206;-0.10476244;-1.181556;0.56619674;0.04170667;-0.028653419;0.0114480425;-0.018061176;1.4099419;-0.09719393;3.5750494;0.0008893401;-0.03003135;1.2875248;-0.57580686;2.423468;3.7697015;-0.016449075;2.1819832;0.22498393;0.4756082;0.049237467;0.0019566256;0.82433844;0.931489;2.7473285;1.287283;0.047124803;-3.5543177;-2.4801755;-2.2879336;0.012135875;0.35201186;1.5836363;-0.2047561;-1.2616411;-1.1246805;-0.02639458;0.013532931;1.4013226
-0.03460428;1.8784705;1.5262834;0.06976752;0.017422073;1.4661686;-0.02011962;-0.16905881;2.3807049;0.02774512;0.0103808185;-6.533027;-0.30392602;-6.606233;-0.935689;-0.0039781756;-2.4157228;1.4687382;0.021565657;0.02065539;0.35549098;0.021972166;-0.28455997;-0.8126521;1.0645806;1.6095672;4.097815;-1.6176654;0.044631884;0.9980135;1.2573861;-3.4131613;0.045813628;1.3530614;0.0094439555;-0.0074556787;1.0137645;0.17284182;0.09975707;1.3415074;0.066878885;1.6201755;1.4660327;1.5415387;0.024848023;-2.829751;2.2906024;0.7280149;-1.4516908;0.03574341;1.9325883;-0.0010251342;0.9270129;-1.7752583;1.8210307;-0.821468;0.60990745;1.5045408;0.16335844;2.9030423;2.6728873;-2.112539;1.0327674;-0.042069826;0.033646736;-0.001757806;-0.9438002;-0.150893;-8.357456;-0.0060194307;0.035827637;0.377692;-0.3571909;1.047123;0.009275898;0.016900882;0.024246486;1.4388243;-1.7864493;4.796572;-4.723641;1.274093;-1.2943537;0.028319325;-0.92647564;3.865098;1.6348481;-0.0038749522;0.72701323;2.0157948;1.103832;-6.8493867;2.8800282;1.1945518;-0.6711209;0.07632616;-0.051233612;-3.2877028;-0.03888361;0.48903596;2.215321;-5.385342;1.575132;-0.0033184818;-0.8863379;0.047314916;-0.10917956;0.0068968018;0.0012601381;0.50080407;1.0971608;-0.75837755;1.8391849;-4.229657;0.029850796;0.52913535;-0.020658478;0.72238;0.004731841;-1.4098241;-1.8211036;-3.6915238;-0.0029195677;0.3537281;0.9660114;0.0053358413;0.0011317857;0.23649499;-0.16656573;-0.029585915;1.5220215;-8.5597515;2.5015433;0.017065475;3.679148;0.021181017;1.6962212;0.068639204;0.028495565;0.037526082;0.40566173;-3.1688457;0.012727964;0.47544774;-1.9998789;2.952277;1.0867994;-1.3880934;0.031918123;-1.6037674;-1.0412174;1.5235648;0.14101292;1.1493812;0.42132562;0.427422;-0.41624415;0.014950473;-0.005863758;-0.022363307;-1.2338481;1.151095;0.009633384;0.020878587;-0.5730495;5.0146894;-2.7406387;0.05665348;-3.0581465;1.7202536;-3.788063;-0.48437864;3.241731;3.0244534;0.020688334;0.009921245;-2.533049;-0.020392502;-3.6284313;1.5407956;0.02576389;1.1357162;-0.5354575;2.2816885;-0.020771168;-0.0020794284;-1.1271877;2.665649;0.5694465;0.47205037;0.8521011;-3.5867212;0.040205754;-0.023711285;-1.0801693;-3.3806996;3.978509;-7.1702323;-0.30635825;0.77591;-1.2698907;-2.449547;-3.2730947;3.7939305;-8.98761;1.11398;-0.002107399;-1.0127414;0.552032;-0.021355212;0.06957765;0.0115523925;-3.2158298;-0.009440874;0.006876215;-0.14715238;0.7869978;-0.024927171;1.2636837;2.7403817;3.6437943;0.09765432;2.490071;0.9142635;-0.006020361;-3.3075216;-0.012102501;-1.3766377;-0.006214497;0.2694529;-0.026758473;2.5350232;1.5054244;-1.3891599;3.5869644;1.2514768;-0.7482145;4.01651;0.0069840257;3.7830036;2.761685;1.6667145;0.006012655;0.8109322;0.03635643;1.0814784;0.99290717;1.6150576;3.5121517;0.01433764;0.03402025;5.019312;2.4372163;2.0511005;-0.52641463;-1.8846861;0.03266988;1.7460463;-0.364163;1.1055666;0.6330357;0.45355842;1.0941437;0.035310727;1.4661992;-0.010670761;-1.2868117;0.025295582;1.7765093;-4.1486173;0.22355545;2.463944;0.018593423;-5.734943;0.00055604806;1.3723489;-0.31978843;-0.04240563;0.7682515;1.3784809;1.0072958;0.9242344;0.01716424;-2.3943474;0.08626215;1.9668711;-1.0130647;1.6960685;2.3104317;-0.09731936;-3.1810088;3.000519;0.05494026;0.26908296;1.3306576;-0.04057154;-1.5575953;-6.2673445;0.008163746;-0.05157885;-0.540538;-0.45173702;0.04416305;0.93582636;-0.020944186;1.0858266;-4.3860264;-7.2642097;-1.1379375;0.6625852;1.8907944;-0.33570483;-2.1734629;3.6998725;0.36824214;-1.9865731;-1.2350768;0.029026229;2.9207218;-3.1139355;-0.043277435;0.47490096;2.175029;-0.0008113833;-0.20108417;-0.008109796;0.024048228;0.0055313744;2.6293888;-0.013181957;-3.9292188;-0.028248502;1.454802;0.017756386;-3.434905;0.55980605;3.681536;-1.2354116;-0.03148786;1.1370088;-0.017874438;0.21117333;-0.1727216;2.6999054;-1.7679992;-4.629852;-1.099143;0.9126007;4.5175667;0.031066915;0.32346594;-0.92789584;0.013754158;1.1216127;1.0004338;-5.8800025;0.021000631;0.60468936;-0.08544418;-1.8272979;0.8259206;-2.7379563;-0.02589152;0.69246155;-0.038173012;-0.027227225;0.22814009;-6.073856;0.07979564;-1.0726993;0.5837915;-0.36661148;2.6282263;-0.25228152;-0.10579527;-3.4113262;-0.022894822;-1.2009783;-1.3596961;0.0014600672;0.71572495;-1.9095689;0.9223012;-3.5702856;-1.6570935;-0.066783614;0.21797416;0.53144246;2.3397582;-0.0053089266;-2.1261876;1.519933;-0.005217909;-3.183212;0.021817343;-1.7901595;-2.2605884;1.724314;0.053692233;0.0037085402;1.234799;0.83712757;1.4668632;-0.39290532;-0.17639236;2.0959263;-0.7726894;-2.7521145;-0.14565791;1.1975445;0.09505018;-8.193102;0.30137217;-2.8352995;-0.9033689;1.3570405;1.3810548;3.0183494;1.7538614;0.5816566;-0.00385426;-0.02291273;0.033713628;-0.66794455;-1.5331609;0.0036875464;3.2559721;1.542134;1.7461423;-0.016020704;-0.4845345;-0.3976535;1.3186902;-0.007722818;0.0402049;0.04702917;1.8515089;-0.88525933;-0.03103791;0.01886327;0.93872744;0.39814302;-7.0370283;3.5559099;-0.04077071;1.1638778;0.22070786;0.6637986;0.29176337;2.5658784;-0.0239034;1.9696513;-1.5640936;1.0571059;-0.083508685;1.5055858;-6.088756;-0.048370298;0.014784281;0.025362615;0.8005999;-0.14352766;0.26447672;-0.38601;-0.9339825;-0.029982708;-0.009193337;1.3984026;-1.6639965;-0.0053553795;1.0418322;-0.031165771;-6.0831466;1.5062175;0.16341485;-1.7366548;0.6603031;0.032033004;1.0531341;0.00024774906;-2.2243392;-3.1084409;-0.025129218;-0.062302373;0.1156034;-0.2655539;-0.015010141;0.022984613;-6.4400487;2.202193;2.4640176;-0.9088533;-1.8356978;0.044493333;0.020456143;-1.2492691;3.0640764;0.5521792;-0.07167448;-0.0045093163;3.2642314;0.015104878;0.7421491;0.73223525;-0.052439447;1.399713;0.5513017;0.010453965;0.04236236;-0.069095664;-7.7828946;-2.1287875;0.54141253;1.0252684;-0.058318786;2.45546;1.1511202;-0.16581364;0.46788463;-0.9266392;0.59310246;2.0291646;0.0695515;0.18162327;-0.021151932;1.0387924;0.005552901;-0.9542216;2.3034196;0.21428192;-1.1745278;-5.771352;0.013598164;1.8022325;-0.00025557057;1.7324022;0.17120089;-0.35762122;-1.9446598;0.8765757;-0.02088966;0.043415185;0.065576136;0.051722273;1.4935957;0.04591762;2.1318135;0.040109474;0.02837019;-2.9015048;2.4605038;3.0328271;0.2321033;0.016495688;-0.5726007;-0.050752886;0.17699605;-0.047166012;-0.04940031;1.5771377;0.36028135;-0.68549496;0.8113258;0.008647241;-1.9503218;-1.2094383;-3.4122913;0.0497418;-0.5902302;2.2707765;0.52157813;-0.9977961;-0.47633865;-0.01655908;-0.007776589;2.3404334
Bias from input to hidden layer.
-0.0076969443;-0.2813843;-0.30154684;-0.0075593507;-0.0066468185;-0.113101564;-0.0069943285;-0.0043985513;0.05239541;-0.38314858;-0.0030055179;0.53307533;-0.17177814;-0.58318216;-0.2771949;-0.0072487337;0.14314593;-0.4639863;-0.00617771;0.09204935;0.007140953;-0.012251658;-0.4027848;0.26213264;-0.3928373;-0.08348999;-0.24271531;0.09599456;-0.01373057;0.057383373;-0.06323262;0.6035537;-0.24803953;-0.11081368;-0.00824971;-0.0067470935;-0.27061182;-0.17209019;0.038617272;-0.4135828;-0.012943427;-0.28117254;0.12808652;-0.9400998;-0.0061479965;0.1580807;-0.17043453;-0.09005622;0.10068447;-0.005449399;0.41690636;-0.0046026935;0.068245865;0.696806;-0.045661684;-0.14179066;-0.5103993;0.47097158;0.25661272;0.2105999;0.29037216;-0.5342393;-0.056539252;-0.15391977;-0.009196013;-0.0111282915;-0.36771733;-0.1116697;0.46669406;-0.0075239018;-0.008554809;0.049524;-0.21265925;-0.6586136;-0.007823131;-0.008547658;-0.005597924;-0.06874061;0.052329782;-0.043959104;0.24057756;0.19617908;0.5972733;-0.0077829696;0.45046765;-0.32999745;0.16291195;-0.0058104824;-0.3012756;-0.24871969;0.30859652;-0.048490316;0.022493616;-0.12669414;-0.06697689;0.038823627;0.085090294;0.28903294;-0.005796051;0.2165611;-0.26202834;-0.3159092;0.09901195;-0.008075362;0.20451176;-0.0074091405;-0.0036738124;-0.006366889;-0.0072824666;0.4839925;-0.016246075;0.08153091;0.051502194;0.20461197;-0.0068344907;0.005714261;-0.008466192;-0.30439696;-0.0056996844;-0.050219286;0.29299006;-0.020420728;-0.0055382983;-0.42569882;-0.39576253;-0.008309256;-0.006354681;0.018345082;0.16728002;-0.005907712;-0.1764776;0.24665226;-0.33658344;-0.004766886;-0.23138885;-0.0074934084;-0.5875178;-0.008676389;-0.0042127147;-0.006273269;-0.17902058;0.4399592;-0.0068544606;0.42393693;-0.02094812;0.41850033;0.11183612;-0.42033014;-0.0068200845;0.11705751;0.3853323;0.22567287;-0.017825678;-0.12482185;-0.0048989817;-0.49851036;0.21184471;-0.0074938717;-0.013073503;-0.006580228;-0.058634594;-0.2542423;-0.009307016;-0.0052172495;0.24338304;-0.4170694;-0.2927915;-0.01303151;0.24201636;-0.058884453;-0.25339282;-0.14709012;-0.28551686;-0.79734594;-0.0052569914;-0.007068651;-0.032961044;-0.006803603;-0.06634729;0.34156826;-0.007564769;-0.45398888;0.3136814;0.1367124;-0.0061235437;-0.005493062;-0.042891096;0.14000186;0.45793346;0.041886162;-0.4953386;-0.19177735;-0.008301952;-0.0049455576;0.8020662;0.48266104;0.7744249;0.03148253;0.020466356;-0.6272778;0.23567906;-0.4786383;0.71210396;-0.40311256;0.09724684;-1.0220447;-0.0054157176;0.22470823;-0.30308738;-0.009764276;-0.0057971175;-0.007837942;0.32312554;-0.007169104;-0.006584629;-0.005026054;-0.4379947;-0.008306765;-0.05370351;-0.09202905;-0.19585998;-0.0033868807;-0.21962997;-0.3203546;-0.0070199803;-1.0561974;-0.006469606;-0.14482453;-0.004738877;0.40388975;-0.006246919;-0.12612358;-0.15456995;-0.037558794;0.09893259;0.16707543;-0.6334626;0.2949144;-0.006655958;-0.31408513;-0.81693894;-0.04884091;-0.010484659;-0.10445832;-0.010845386;0.17079936;0.44537184;0.028770097;-0.22294308;-0.006174899;-0.009337894;-0.23506205;0.519579;0.083782695;0.23286885;0.13135809;0.025887491;0.34680304;0.16079614;-0.7138834;0.1667639;0.1713569;-0.37849152;-0.009098187;-0.26857919;-0.00222476;-0.5328851;-0.006933224;0.03474944;-0.12619832;0.19663583;-0.14503562;-3.456053e-05;0.31361338;-0.0070430264;-0.0018585244;0.6587801;-0.00647687;0.30241886;0.2874631;0.0749603;0.25316343;-0.009460632;0.24085872;-0.20029452;-0.12281022;-0.17675567;-0.33458468;-0.25576913;-0.15635824;-0.079922974;0.41238827;-0.0075409496;0.090132795;-0.49414203;-0.004196893;0.4610277;0.114060216;-0.005971448;-0.0058662686;-0.14048563;-0.19459309;-0.008392424;0.5511844;-0.003978063;-0.15617704;-0.21049641;0.23176013;0.10232208;0.5936402;-0.55065155;0.07948526;0.54806024;0.016053146;-0.0018327025;-0.06001852;0.20719272;-0.00645636;-0.049281064;-0.50310177;-0.005315893;0.13677876;-0.060340058;-0.0031776521;-0.38331616;-0.0076123043;-0.0011376361;-0.0071198433;-0.24841595;-0.0075687165;-0.12378177;-0.008322954;-0.122616515;-0.009076963;-0.16294044;-0.24437256;0.013140554;0.06074244;-0.0060983305;-0.19624372;-0.0011687527;-0.011212481;0.07578156;-0.038772803;0.00016954607;0.5008475;0.14383754;0.1649114;-0.071738504;-0.009460064;-0.0046079652;-0.009788024;-0.008937239;0.39585924;-0.062585175;0.32068512;-0.006329861;-0.4571574;0.013464037;-0.3185506;-0.5870887;0.06751888;-0.0018285973;-0.31979325;-0.0077374512;-0.0095921345;-0.007665856;0.1962168;0.11637761;-0.116426736;-0.043658666;-0.16441114;-0.30087796;-0.008782318;0.32662868;0.42642242;-0.005659689;0.039025046;0.09712031;-0.0108374385;0.12099974;0.15657617;-0.012421399;-0.6112026;-0.10492505;-0.0061196103;-0.016084472;0.056455307;-0.12667671;-0.010000876;0.096269615;-0.675659;-0.010202746;-0.23511265;-0.0049343263;-0.39971727;-0.44699052;0.69288194;-0.0076653366;-0.0045631067;-0.3249635;-0.5135283;0.5250512;-0.079622924;-0.14643338;0.07177417;-0.29983658;0.1330596;-0.0063161044;-0.0058426643;-0.017205384;0.028000915;-0.003839677;0.13564287;-0.4972454;-0.103232026;-0.050740156;-0.33530027;-0.025428971;0.27772427;-0.008411966;-0.0054607554;-0.0037273953;-0.031085603;0.022362892;-0.008656749;-0.08918967;0.08335052;0.63817877;-0.0081009455;-0.1131975;-0.3080473;-0.18400371;-0.0087746605;-0.0065035513;-0.006041158;-0.02514729;0.3799183;-0.0048291646;0.0466047;-0.06544646;0.10040759;0.06604918;-0.13437453;-0.005791489;0.29010126;-0.1467682;-0.00476813;0.07971801;-0.3700944;-0.0049137007;-0.11572438;-0.07237468;-0.19163364;-0.261401;0.9776526;-0.12256333;-0.12153855;-0.010116196;-0.006804562;-0.45466775;0.18693854;-0.12878631;-0.37302187;0.110768676;-0.0069147395;0.06165007;0.033897776;-0.5041821;-0.0025901361;-0.29438892;-0.0050781155;0.23118395;0.20493652;0.114828065;-0.14743334;0.03060186;-0.005317468;0.014552237;-0.0061166533;-0.11540794;0.4032488;-0.003925221;-0.00806864;0.16750647;-0.23638555;-0.006530461;-0.00692136;-0.036190573;-0.1556077;0.41003993;-0.051460896;-0.14636849;-0.004974796;-0.006586397;0.10246484;-0.48026374;0.36034793;-0.008509575;-0.008679876;-0.057272743;-0.0043749604;-0.23645298;-0.0057551092;-0.0058475044;0.069502614;0.5315004;-0.009338527;-0.009611935;-0.0030912966;0.16832054;-0.063076206;0.33927897;0.013266256;-0.0036288411;0.0657245;-0.011985598;0.6199476;-0.0070800898;0.1419865;-0.00081494974;0.08384146;0.09439521;-0.17636909;-0.006359622;-0.07765226;-0.008373863;-0.20153658;0.1654891;0.23683792;-0.4674428;0.087369554;-0.005227991;-0.1358813;-0.011455566;0.9265774;0.2037242;-0.39184672;0.17014016;0.40851203;-0.011673343;-0.00476088;-0.0074575907;-0.0074483957;-0.114193685;-0.59525234;-0.9209698;-0.0045261094;-0.006387769;0.007744892;0.4189027;0.22221473;0.39437833;-0.0051812977;0.519173;0.45365027;-0.36087772;-0.004624119;-0.008570555;-0.13560389;0.14909111;-0.5046581;0.1301556;-0.010350476;0.18535657;0.017836181;0.16965543;0.06063929;0.040317923;-0.41198167;-0.23130678;-0.15028015;0.4328709;-0.007818528;-0.00651391;0.16854909
Weights from hidden to output layer.
0.032824334;0.03274012
-2.5685852;2.6947536
0.9230059;-1.0368855
-0.07136534;-0.07142834
0.019384526;0.019468624
-1.2625561;1.232615
0.06257396;0.062645756
-0.0056759054;-0.005671605
1.2887919;-1.2915605
1.2579542;-1.1692969
-0.020849619;-0.02090098
-2.988731;3.077962
1.4258077;-1.4451749
1.8641386;-1.8950576
1.2763112;-1.3011427
0.061978173;0.06222145
2.0474186;-2.1949177
1.0812653;-1.1725572
-0.0066246153;-0.006463737
13.203517;-13.319465
0.9858954;-1.0070882
-0.083835885;-0.08491572
-2.6962378;2.7013533
-1.1121333;1.0346355
0.9316371;-1.1248355
2.217281;-2.2793028
1.4582324;-1.4706825
1.1144506;-1.0753671
0.03450409;0.03550666
0.8527135;-0.93919396
-1.572963;1.6514914
2.1875727;-2.3369544
1.7616147;-1.884211
1.4267881;-1.3491932
-0.009184187;-0.008994185
0.014569579;0.014474446
2.0209033;-2.049468
1.6068379;-1.6582279
1.6293578;-1.7243803
0.81759244;-0.91063505
-0.050175324;-0.050521478
1.4774239;-1.5049171
2.4252021;-2.4723527
1.6359519;-1.5406169
-0.04570128;-0.045859728
-1.0123655;0.98418117
1.8695935;-1.8381767
-1.1341132;1.1143265
-1.2855979;1.3120184
-0.0068505197;-0.006790983
1.8464702;-1.8090055
0.0053769113;0.005203934
-0.90688294;1.0383004
1.5895876;-1.5706335
1.4659247;-1.4542117
1.6686512;-1.7265962
-1.1908996;1.1589885
-1.819107;1.81027
-2.6082997;2.7060506
1.9543405;-1.9877898
-2.3800511;2.572266
2.416609;-2.3760784
1.2770833;-1.1906981
-0.28659552;0.32934797
0.05791167;0.058138102
0.011958971;0.0117009925
-0.35696056;0.3240712
-1.0696938;1.1938593
2.502596;-2.5170689
-0.06019697;-0.059870522
-0.06740729;-0.06731706
-2.661625;2.7786746
-1.3016549;1.3194053
1.8330691;-1.8470824
-0.05334623;-0.052369244
0.04038255;0.040940758
-0.038415726;-0.03840818
1.3433166;-1.5265514
0.7932062;-0.7688689
-1.5041199;1.3079152
1.6071992;-1.6460173
0.96546096;-0.88454956
-1.6024466;1.7156981
-0.042270746;-0.041753087
1.5982971;-1.4707592
0.9805016;-0.96012443
1.6570418;-1.7299615
-0.007385862;-0.007294112
1.5442322;-1.4109682
1.2853211;-1.3507377
0.2517918;-0.3679727
-1.4171559;1.5340495
-0.9430585;0.9090836
1.8317817;-1.7375172
0.9232305;-1.0376418
4.2962437;-4.256006
11.962861;-12.039099
1.7056153;-1.6994025
0.037841424;0.03797847
-1.5723848;1.6939386
1.9441357;-2.017331
-1.7165521;1.7550197
1.1528207;-1.1305488
0.015692806;0.015723813
-1.31068;1.3163669
-0.032073036;-0.03139753
0.046025924;0.046208076
-0.019068755;-0.019059258
0.007059076;0.007858966
2.3353221;-2.3372285
-1.4965721;1.5237786
1.2322706;-1.0503634
1.585283;-1.6371317
1.5849862;-1.627361
-0.060600776;-0.060629744
1.1375911;-1.2541367
-0.06492951;-0.06459229
0.93262243;-1.0425602
0.016953213;0.016462287
1.1785431;-1.1525723
1.6050076;-1.5639901
-2.339404;2.3693392
0.04700516;0.046920046
1.6374726;-1.7243993
1.5679011;-1.5090636
0.059706595;0.060119536
0.014993132;0.014890741
2.4208806;-2.3183799
1.2243172;-1.1987871
0.030297942;0.030654136
0.57619494;-0.546025
-2.127612;2.1406229
1.4823871;-1.3779242
0.058855582;0.058959242
-2.8009012;2.777469
0.041752495;0.0420977
1.4351835;-1.4748958
-0.057226196;-0.0571427
0.034910157;0.03497806
-0.09476118;-0.094613984
-1.4856471;1.6138648
-1.4157746;1.3235536
-0.07895682;-0.07837036
1.105429;-0.9633831
-1.2646666;1.2669511
-1.4130156;1.3553047
-2.1797192;2.0305686
1.626366;-1.7703761
-0.03417645;-0.034142364
-1.1054288;1.1269108
1.4579895;-1.3971169
1.1353302;-1.1882213
-0.025987154;-0.026225373
-0.87517893;0.7892424
-0.029178306;-0.029122133
0.8444385;-0.8227407
-1.0850906;0.9633628
0.053460885;0.053757597
0.019213367;0.018972931
-0.06200303;-0.061633326
-2.2889025;2.0968072
1.0899111;-1.0785729
0.014107832;0.014586695
-0.092151634;-0.09211822
1.8872588;-2.0765374
-1.7583368;1.8533115
0.63413906;-0.65344983
0.7972314;-0.761233
-1.8994312;1.9083667
2.0594187;-2.1162896
1.1155422;-1.1449602
-0.9683393;0.97957575
-1.3825718;1.3565273
2.736311;-2.7540169
0.013740979;0.013662692
-0.04257042;-0.042705707
1.3143047;-1.3507681
-0.044604685;-0.04470999
-1.7222818;1.8256948
-2.5102637;2.4252613
-0.006029251;-0.0060378844
1.4928435;-1.3890055
1.0649539;-1.0245384
-1.9910115;1.8324723
-0.020498343;-0.020454489
-0.044893123;-0.044370152
-0.08009683;0.10320171
2.0722194;-1.9965918
1.0821555;-1.0471874
-1.3461086;1.3235389
2.6767101;-2.608759
1.2700454;-1.2702852
0.075607434;0.07574102
0.03140688;0.031558294
1.5064769;-1.443161
-1.486703;1.4861248
2.0989392;-1.9924394
1.9350502;-1.9152678
-0.787718;0.7265888
1.2759084;-1.3331513
1.8912227;-1.8192557
0.9793975;-0.9266953
1.4057848;-1.3535259
-1.2277533;1.2426372
1.472004;-1.572232
1.5351084;-1.5198987
0.048710022;0.04869308
2.0586665;-1.9784738
-2.450656;2.5109823
-0.0038733236;-0.0034146528
-0.075007975;-0.075118504
-0.006792044;-0.0070703225
-2.5239818;2.4868894
0.032554228;0.033092517
0.005791688;0.0061907256
0.0072694947;0.0074823326
1.5961807;-1.5106726
0.03034962;0.030637238
0.30316484;-0.18569286
1.121142;-1.1103414
0.8978246;-0.96380514
-1.1538076;1.1014235
0.7739637;-0.89622456
0.7780693;-0.7320058
-0.024370933;-0.024351776
1.5222247;-1.5046971
-0.007372075;-0.0071290755
0.79794604;-0.8410688
0.026501706;0.026567731
-1.0862786;1.0128859
-0.009578763;-0.009358854
0.6392452;-0.58161783
-1.863647;1.8416928
1.0699006;-1.0771787
0.9211336;-0.81841797
1.2738019;-1.4102086
1.9843318;-1.8445737
-3.583417;3.526578
0.053656034;0.053715404
1.5048815;-1.4409021
1.750176;-1.7680066
2.1178184;-2.1350486
0.018967709;0.019251883
0.65562606;-0.56608045
0.026832031;0.026819097
2.7413042;-2.6124978
1.4716947;-1.5093049
-1.2352165;1.2060021
0.9575805;-1.0490737
-0.01993638;-0.019804308
-0.039947458;-0.039653435
-1.4760426;1.4733586
1.4195461;-1.288878
-1.0338464;1.1186508
1.4779757;-1.3957962
-2.9554193;2.9123168
6.9951935;-6.9853497
2.0212708;-2.11508
1.3239598;-1.4370118
2.0974274;-2.1062233
-0.7723077;0.7789222
1.3347142;-1.2958483
0.7188133;-0.89122206
-0.04502576;-0.044611238
1.3207005;-1.1922896
-0.01253491;-0.013072935
1.3726591;-1.4037583
0.033246744;0.03354896
-1.1748078;1.3595939
1.9654891;-1.9553838
1.6830664;-1.6142278
1.1602112;-1.0341536
0.08846678;0.08823081
1.3163805;-1.2553451
-0.030938357;-0.03094047
-0.060441405;-0.060056563
1.2613505;-1.1653166
0.029359682;0.029819438
-0.5763251;0.5331405
1.547344;-1.5650082
-1.4623501;1.5912179
-1.0651016;1.0517422
0.0032237438;0.0034828705
2.0437875;-2.0784688
1.5588708;-1.5170887
-0.80403566;0.8577321
1.1241014;-1.0844722
0.99568945;-1.0337079
1.0093886;-0.9837766
0.8578938;-0.917851
-1.7904891;1.7138162
1.2238398;-1.2948427
0.017105337;0.017942833
-0.63796514;0.58370703
0.604896;-0.5883588
-0.02744194;-0.027661854
1.3124136;-1.464382
1.5795114;-1.646529
0.0053635673;0.005390079
0.008404769;0.008280106
-1.0740645;1.2314963
-2.34839;2.2312822
-0.0064865462;-0.006840266
1.6611534;-1.4954131
-0.06698038;-0.0667721
1.4500334;-1.4422619
-3.074291;3.0046017
1.8391474;-1.8757925
1.5093725;-1.5098573
3.2404394;-3.1344438
1.9795187;-2.0533426
11.983712;-12.077651
-2.4308293;2.3942387
0.9947913;-0.93389976
1.7155219;-1.6647865
-2.2072773;2.1811
0.93030465;-0.8033587
-0.024509517;-0.024243584
-2.8700285;2.8882835
1.5457418;-1.5273252
0.07345266;0.07349382
2.5610228;-2.557016
-3.0826943;3.1131582
-0.043401256;-0.043507025
-2.7916243;2.793192
0.017910903;0.017518988
0.05206269;0.052136775
-0.0022270833;-0.002028422
-2.1640847;2.1148078
0.048022017;0.04779934
-1.532658;1.443386
-0.024567252;-0.02431099
0.86843497;-0.8204695
-0.018287716;-0.017931866
0.85104126;-0.9678455
1.7430738;-1.6049049
-1.1518462;1.1289384
-0.48545316;0.47236732
-0.06145262;-0.06124475
2.16168;-2.0336645
-0.045838717;-0.04554673
-0.0072251977;-0.007513021
-0.5814167;0.6175853
-1.767424;1.9561987
-2.2655644;2.451727
-1.5894797;1.6168382
-0.9625577;1.0760682
-1.041628;0.94426715
-2.049605;2.0777426
0.008238278;0.007749798
-0.013434494;-0.014776443
-0.7956154;0.72047234
-0.01142052;-0.010855015
1.1789798;-1.2309375
0.7007477;-0.6896231
2.149461;-2.1403582
0.050011765;0.049561504
-1.3425362;1.3158584
1.9756709;-2.0952652
1.8398421;-1.8566854
1.3867046;-1.5170797
-1.1327901;1.3125937
-0.027392719;-0.027337305
-2.1387742;2.093325
0.08568717;0.08594204
0.01672166;0.016572746
-0.03824728;-0.038317706
1.71253;-1.7772275
1.195339;-1.2841241
1.3329582;-1.2678759
0.7272472;-0.8903628
-1.6717496;1.7094141
-2.3668358;2.2000072
-0.02290924;-0.022950117
1.6171765;-1.5356122
1.8275213;-1.8292354
-0.042119503;-0.04225784
-1.7892022;1.9186534
1.6820887;-1.7536072
-0.058517773;-0.05853078
1.0305858;-1.1226985
0.8170286;-0.9061066
-0.007800953;-0.0066616563
1.3480625;-1.3990135
-1.3897346;1.4618293
-0.0005124924;-0.00064448477
-0.073561035;-0.073704064
1.0657903;-1.0999352
-2.3153167;2.2612233
0.029057553;0.029085869
-1.1962496;1.1386449
-1.970284;1.8744239
0.008183897;0.008452775
-1.4633852;1.5985994
0.009124208;0.008934626
1.5705488;-1.51591
1.032319;-1.0448278
-1.2546756;1.223005
-0.050186306;-0.049849436
-0.031923376;-0.031708796
1.8041434;-1.8526874
2.1002378;-2.2717118
1.0097677;-1.1349083
1.378192;-1.2861812
-0.80222124;0.77785796
0.6673848;-0.74218184
1.8867545;-1.8323429
1.3774049;-1.4686402
-0.011764342;-0.011676733
-1.7973509;1.7876742
-1.9110321;1.7801654
1.0312324;-1.1359962
0.01467176;0.014897146
0.86093485;-0.67522466
1.1187603;-1.1232228
-1.3325367;1.4225444
1.8343812;-1.844813
-2.7539394;2.7593198
1.8341734;-1.8451898
-1.0385351;1.0731112
-0.06803016;-0.0682149
-0.0012013305;-0.0013191788
0.06861861;0.06849849
1.0627791;-1.0640216
-2.1927192;2.1769805
0.028786404;0.028870398
0.53142816;-0.46320614
-2.0130074;2.0525644
1.8646027;-2.0109298
-0.01663678;-0.01679042
1.1221658;-1.0367783
-1.5025734;1.3934242
-1.5104046;1.4178313
0.022973306;0.022707999
-0.04317438;-0.043523144
0.011492554;0.011683104
1.6137017;-1.5298017
-2.0188231;1.9107558
-0.0326873;-0.032858156
3.6038346;-3.6480646
1.3940052;-1.3938613
5.3947973;-5.422492
2.0033164;-2.0374534
1.5434709;-1.6547787
0.012992976;0.014069917
-1.210844;1.2181807
-1.2337533;1.2758579
-0.02799374;-0.027729534
1.8783277;-1.8761064
-1.7003953;1.6272881
-0.0344963;-0.033944532
-2.296798;2.2466488
1.1589072;-1.2527182
-1.72904;1.8415159
-2.2687378;2.3349476
2.1093538;-2.1257024
1.6964463;-1.7221096
-1.7442423;1.6888928
-0.0027449762;-0.0032499793
0.033126477;0.033665784
-2.3055532;2.376203
-2.724754;2.883449
1.7831081;-1.7626748
1.7663046;-1.7086973
-2.5490558;2.6666074
-0.033778735;-0.033716526
10.997759;-10.899351
0.35043997;-0.2779919
1.6006954;-1.5076469
-0.027631525;-0.027383968
1.6980716;-1.6628288
-0.0069569256;-0.004504516
1.9553223;-1.8893588
2.2163806;-2.1983643
1.6573082;-1.7426274
-1.3707333;1.3250201
1.4497249;-1.5584185
-0.023400076;-0.023526259
-1.5204257;1.5548059
0.04772748;0.047797166
1.0936598;-1.0774919
-2.8921938;2.9047496
-0.016860206;-0.01718088
-0.06257125;-0.061858512
-2.091223;2.0693865
-1.0488596;1.0212255
-0.009377831;-0.008774088
-0.03601833;-0.035822228
-2.3266642;2.48712
-1.361118;1.4697653
1.1369033;-1.1987149
0.7892451;-0.6847599
0.8107826;-0.89351976
-0.011210152;-0.009427962
-0.07396523;-0.073999844
-2.7054822;2.876552
1.06475;-1.1742696
1.6028526;-1.5313597
0.039107002;0.039314974
0.023151504;0.023686808
2.011629;-1.9115826
0.030133134;0.030652644
1.114934;-1.1489817
-0.011111327;-0.0104843965
0.046760675;0.046722222
0.44902214;-0.4719312
1.4981266;-1.4108504
-0.03126724;-0.031370662
0.044422537;0.04408536
0.024332473;0.024387421
1.28573;-1.2322513
-1.2477351;1.1455892
1.2251446;-1.0970277
-0.95182997;0.93560386
0.022378946;0.022889277
1.5177901;-1.328291
-2.3916848;2.5518978
-2.2477455;2.3085818
-0.044963215;-0.044734813
-1.9552108;2.0024269
3.9118707;-4.070472
-2.372347;2.267739
11.639766;-11.680529
-0.92987996;0.8679819
0.051947605;0.051738173
-1.2872914;1.2491126
-0.019043311;-0.01927757
-1.1714041;1.1218191
-3.3628058;3.1869452
-1.240506;1.0812148
1.5689365;-1.5251374
1.9837786;-2.0143337
0.04264079;0.042679925
1.1027069;-1.1556013
-0.0010306797;-0.0011143541
0.97496516;-0.95131946
1.07813;-0.91184884
-2.454032;2.3683455
-2.5153844;2.3227808
-2.6528141;2.659963
-0.019626012;-0.019694302
0.040743433;0.04069342
0.0118881855;0.011123333
0.018531919;0.01876657
-3.10534;3.185974
-3.2325127;3.2488542
2.0342827;-2.0421565
-0.053658236;-0.05367999
-0.006101514;-0.0059214756
0.652337;-0.6771929
-0.9055296;0.9267898
1.1001388;-1.0532484
-2.1005492;2.1228952
0.048084646;0.048185386
-2.9747021;3.0196605
2.330641;-2.2388117
0.64039856;-0.73781425
0.010393352;0.010714976
0.021220196;0.021302005
-0.83326244;0.7596718
2.1803088;-2.1314795
0.96866083;-1.0172768
-1.5248734;1.4699799
-0.029104156;-0.029085562
1.305794;-1.4872283
1.1187444;-1.2933196
-1.6184218;1.4647737
9.267364;-9.379534
2.1488025;-2.3248208
-1.9639162;1.8245372
-1.0192001;0.95188415
-2.0386488;2.011553
-0.7409564;0.86471236
-0.07378617;-0.0734699
0.0013019737;0.0020010818
1.9761163;-1.9758728
Bias from hidden to output layer.
0.16748552;-0.16746859
