Weights from input to hidden layer.
0.028351687;-0.11589963;-0.022435222;-0.09253896;-0.08467766;0.027266007;-0.054312777;-0.018535977;-0.018643415;-0.057579983;-0.07127135;-0.08605233;-0.18505557;-0.017382925;-0.025803426;-0.010810972;-0.06617294;-0.020457344;-0.03065282;-0.07532952;-0.092568055;-0.09223973;-0.08336032;-0.08656761;-0.111477196;0.004530728;0.038253963;0.019531002;-0.17515886;0.084512115;-0.17435354;-0.018875903;-0.034442283;-0.08336221;-0.12828125;-0.0051766573;-0.048502333;-0.085766315;-0.10085829;-0.0950985;-0.11560814;0.09166062;-0.044559598;-0.122780085;-0.05480145;-0.16411181;0.0036561561;-0.051234134;-0.0023232156;-0.010275176;-0.017402435;0.17788161;-0.10990703;-0.05278474;0.026750159;0.020202644;-0.03555456;0.03687041;-0.005890269;0.0174675;-0.0012036348;-0.012015845;-0.05786493;-0.035966355;-0.10441324;0.07567579;-0.006112374;0.09289663;-0.08473849;0.008504326;-0.038598187;0.041533634;-0.041252483;-0.13309844;-0.023878608;-0.09388163;0.050333567;-0.057060465;0.004002671;0.01292595;-0.06548958;-0.029344907;0.039284036;0.14057052;-0.12822329;0.029634884;-0.1200391;-0.005672913;0.039807655;0.012285043;-0.059254874;-0.02078263;-0.077456184;-0.041532967;-0.017731233;-0.087387376;0.13419423;-0.061776124;-0.027503937;-0.041445524;-0.035259962;0.017877555;-0.012098348;-0.14526395;-0.08714102;0.04245305;0.00065901835;-0.02285233;-0.026264822;-0.031425733;0.04978034;-0.13067251;-0.09327006;0.05572466;-0.078912094;-0.04927718;0.12933967;-0.0949398;-0.20434043;0.08422318;-0.08389398;-0.019088123;-0.06849004;0.026708433;0.017313275;-0.08923455;0.031477038;-0.02849372;-0.08617152;0.015777824;-0.051115084;-0.005827269;0.23163702;-0.038064495;-0.020496782;-0.0857463;-0.021658558;-0.13692026;-0.04673854;-0.0016983313;0.005220402;0.039323527;-0.05373899;-0.11148688;-0.084713005;-0.08862974;0.039842628;-0.06531499;-0.03896586;-0.101856604;-0.07127147;-0.055350002;0.026195643;0.1697142;-0.025034327;0.15599295;0.082324654;-0.06780824;0.004093835;-0.08961628;-0.05484367;-0.044015277;0.1475823;-0.10827159;-0.06161942;-0.01621594;-0.020769512;-0.04137882;-0.21911184;-0.01134977;-0.094279006;-0.033546828;-0.048721224;-0.0951535;-0.06668953;-0.10469566;0.02368896;-0.06564474;0.11945164;-0.12658802;-0.058828354;-0.04735176;-0.105175756;-0.046564624;-0.06688439;0.02765223;-0.058122657;0.08707685;0.005224765;0.03845474;0.0047442545;-0.020712564;0.14234975;-0.017655943;0.02477297;-0.029086305;-0.06620755;-0.0065333666;-0.032380916;-0.09245703;0.030925399;-0.19410309;-0.10132671;0.026579738;0.009727531;-0.025584668;-0.097603105;-0.11028924;-0.11045995;-0.028361522;0.019027486;-0.095286235;-0.011076237;0.036669128;-0.12289617;-0.12357531;-0.027114978;-0.027660798;-0.072128005;-0.081521034;-0.04513424;0.05143862;0.08739022;0.016962253;-0.095845036;-0.01688583;-0.21358654;0.08023615;0.04030256;0.043046772;-0.012439453;-0.14661348;-0.18243486;-0.081148386;-0.031244107;-0.036455017;-0.08450466;-0.04639416;-0.12183927;-0.08828457;-0.09456539;-0.06705097;-0.08981055;0.12542868;-0.083151475;0.040296074;0.030900657;-0.11447409;-0.00058069674;-0.051868126;0.026042445;0.0036755444;0.1305796;-0.21284863;0.038193982;-0.09368402;0.008271334;-0.07373157;-0.1482268;-0.05245852;0.033137947;-0.11964469;-0.07942044;-0.0018073989;-0.051330537;-0.0907374;-0.08833265;-0.034905728;0.0050285426;-0.011135604;-0.09971623;-0.028581792;0.014212425;-0.058807205;-0.070749015;-0.089237325;-0.11206592;-0.019519228;0.0875572;-0.15365969;-0.10207303;0.111922435;0.044008948;-0.053358614;-0.06299942;-0.049966298;0.027219411;-0.11488269;-0.050088007;0.020413803;0.02866275;-0.010576776;-0.053489536;0.024967635;0.026213221;-0.053512532;0.13807751;-0.067288406;-0.10871447;-0.11395694;-0.025097676;-0.19958618;-0.028985312;-0.05876812;-0.13184524;-0.0066762394;-0.036711786;0.00904122;-0.0087037645;-0.12649013;-0.17294934;0.008672539;-0.015173639;0.0019998627;-0.17065719;0.03606574;0.12196585;-0.15390965;-0.07552147;0.084138684;-0.039354477;-0.03142883;0.035829112;-0.028650694;0.02269633;-0.10390704;0.06318253;-0.08462438;-0.13457349;-0.11396396;-0.09399245;-0.12715743;-0.028016595;-0.10328012;0.10748815;-0.05604749;-0.019934246;-0.050804418;-0.08174856;-0.050311502;0.041975405;-0.054633748;0.018005637;-0.00035348407;-0.12085672;-0.14269806;-0.111853026;-0.10455641;0.034203194;-0.005527408;0.06367692;0.080098584;0.00730872;0.004337171;0.038900748;-0.017679442;0.12103326;0.032505497;0.040903643;-0.048014384;-0.019743431;-0.0835302;-0.034018278;-0.1478023;-0.043151397;-0.08798019;-0.11572622;-0.07821613;-0.13671023;-0.089654595;-0.0730168;0.07767755;0.014094855;-0.09717591;0.0020683017;-0.022941059;0.001342049;0.101421766;-0.026266726;-0.03432654;-0.09041922;-0.06333792;-0.09757829;-0.12610872;0.008498346;-0.016300429;-0.1128127;-0.115921624;0.006842475;0.049720775;0.03524927;-0.05684546;-0.09881268;-0.052773103;0.12454342;0.13141511;0.04009124;-0.061353933;-0.072226636;-0.16539238;0.01930229;-0.03813483;0.0685448;-0.08835884;-0.056714498;0.13812166;0.023714153;-0.060051963;-0.074351646;-0.0750074;-0.01580536;0.017642751;0.009825853;-0.014147689;-0.101184785;-0.0013563504;0.0030895036;-0.004275984;-0.07988571;-0.009901733;0.0029922207;0.0010628399;-0.02845277;-0.116036944;-0.096395604;-0.122178055;-0.058761414;-0.1078724;-0.004768213;-0.034055907;-0.020438723;-0.036164567;0.06380308;-0.12512338;-0.06717357;0.09614857;-0.08786529;-0.19746952;-0.070063874;-0.008549777;0.13625789;0.12664224;0.00070454687;0.08104575;-0.02159721;0.066313036;-0.07041908;0.038929988;0.06735488;-0.05637871;-0.14184661;0.026154203;-0.023899555;0.033289496;0.014059861;-0.14163895;0.048928898;-0.0074380124;0.027787494;-0.018896498;-0.08878674;0.027145859;0.080240615;0.0075953887;0.031743273;-0.028981488;0.06432891;-0.031935874;-0.049375575;0.05738007;-0.11224252;0.039321963;-0.106144495;-0.073506296;0.005338392;-0.010126627;-0.00591412;-0.054047823;-0.117428;-0.050920863;-0.05176682;0.04255614;0.19260296;-0.076066874;0.021516604;0.10145389;-0.01798376;-0.07551982;0.030368572;0.028529653;-0.046942312;0.15739983;-0.004127764;-0.051554073;-0.047669172;-0.06175179;-0.054946702;-0.056691315;0.0040434636;-0.08495794;0.15916221;0.16828565;-0.18331918;-0.079084;-0.01490989;-0.005340326;0.02030082;0.14197086;-0.030090839;-0.038813546;-0.01461804;-0.06607818;0.03108048;0.0015716129;-0.009014896;-0.055060107;-0.1631641;-0.013005183;-0.04882116;-0.013833764;-0.071909785;0.027998438;-0.06393176;-0.090488315;0.011912501;-0.045666993;-0.10191202;-0.09273472;0.01186917;-0.06834629;-0.055199966;-0.1281928;0.081797965;-0.09854464;0.08505438;-0.057376616;-0.028439121;0.015390627;-0.20252436;-0.14756827;-0.02538195;-0.10886583;-0.10268847;0.035327416;0.018722989;0.0073694964;0.02548271;-0.08825377;-0.044262383;0.05057033;0.018349191;0.0007437211;-0.061221004;-0.119201325;0.040421195;0.057047766;-0.08161317;0.025896883;-0.019010786;0.04791297;-0.08423563;-0.114582404;-0.062326454;0.12585784;0.02015404;-0.08309466;-0.008440433;0.041682925;0.011496751;-0.02729131;0.06239288;0.06072246;-0.07781807;-0.013991785;-0.024922146;0.011161163
-0.103643976;-0.104229614;0.0014698395;-0.07820908;-0.065673865;-0.09438891;-0.051213503;-0.019543927;0.05685911;-0.18416779;-0.024786053;-0.18585502;-0.11533736;0.014087562;-0.05687934;-0.10566318;-0.0013188664;-0.08352589;-0.08658324;-0.121528916;-0.0756386;-0.012413427;-0.0040495666;-0.09114363;-0.05283613;-0.0037280214;-0.10315106;-0.12418285;-0.08932652;0.06130593;-0.058688834;-0.002742853;-0.0028742638;0.013991193;-0.08636271;0.034739897;0.017270489;-0.061000556;0.0020946562;-0.081534766;0.0102038095;-0.012404709;0.04875501;-0.06343339;-0.029788192;-0.06493968;0.020016236;-0.0113023445;-0.105158284;-0.011894776;-0.015912874;0.043058485;0.018508814;0.016439464;0.0035494056;0.010585519;-0.08117153;-0.05810976;-0.054254066;-0.09047135;-0.10229665;-0.07432828;-0.13157028;-0.061130777;-0.0394802;0.006945024;-0.037402455;-0.011616538;-0.05896635;-0.112924986;-0.05721502;0.05389932;-0.077284776;-0.05553578;-0.08284841;-0.10081357;0.0275401;-0.06724962;0.03203217;-0.09211323;0.029332554;0.010359278;-0.020403948;0.17461886;-0.15622802;-0.03111524;-0.021344472;-0.037611783;-0.02009393;0.06176544;-0.035112333;-0.03539533;0.061703738;-0.05731037;-0.012063045;-0.042034492;0.050034024;0.027586404;-0.036485523;0.056059882;-0.015053348;0.0059731854;0.05139958;-0.14341427;0.039774638;-0.022505578;0.0016237062;-0.08618843;-0.12875535;-0.026489874;0.00583655;-0.0069919666;-0.057157516;0.009833015;-0.032967553;-0.040843576;0.052297786;-0.11964103;-0.21021794;0.100436755;-0.019836197;-0.11348194;-0.13622455;-0.055516858;-0.018596502;-0.13146819;0.03898697;-0.039151594;-0.06854192;-0.07034474;-0.035762798;-0.11305868;0.22686578;0.043245476;0.05064532;-0.09330497;-0.05270813;0.002503133;-0.074052475;-0.121451624;0.05679701;-0.10399352;-0.07050464;-0.011732888;-0.044782944;-0.10132729;0.013587753;-0.09550645;-0.05421287;-0.07616367;-0.034885168;-0.030294938;-0.0018001805;0.069140345;0.056705933;-0.0128364405;-0.029435502;-0.22404812;0.0032079197;-0.081494786;-0.015244171;0.047011293;0.059777327;0.009895765;-0.066258036;-0.027037397;-0.040593136;0.00068690197;-0.19890693;-0.025527978;-0.04802126;-0.024587879;-0.050962105;-0.09805929;0.0438033;0.0037723097;-0.0201842;0.043729365;0.084628016;-0.043275945;-0.1798385;-0.11737093;0.015202424;0.04625786;0.027616283;-0.038933083;0.055109225;0.06724614;-0.06561252;0.021264322;-0.078022026;-0.0331509;0.10447833;-0.0369552;0.017576627;-0.08341291;-0.00033406925;0.057577156;0.07189822;-0.108697236;-0.009736687;-0.21981597;-0.040045403;-0.07556136;-0.032924112;0.0016583536;-0.06586792;-0.100724496;-0.07665293;-0.18413728;0.14755797;-0.08717413;0.04824592;0.20349705;0.029631983;-0.20272127;-0.02002736;-0.053590998;-0.005518061;-0.07174377;-0.018915948;0.11410761;0.03908173;-0.07039514;-0.027907502;-0.12983784;-0.25591213;0.020629482;0.08034716;0.11659995;-0.120617434;-0.034068488;-0.16353112;-0.009212574;0.006372134;-0.011193527;-0.024493048;-0.09678788;-0.09226283;-0.10010597;-0.10120392;-0.08210639;-0.08323987;0.08328433;0.034622956;0.04126452;0.010093652;0.004636295;0.0682052;0.03744254;-0.027039072;-0.051644918;0.14759721;-0.17599317;0.1063386;-0.031387676;0.047160905;0.014688247;-0.028950572;0.015390249;0.029841531;0.0017785659;-0.004784515;0.011207859;-0.107780814;0.043637637;-0.10757684;0.06896149;-0.09346222;-0.050740078;-0.06580378;0.07494837;-0.05229467;-0.009250426;0.014936588;-0.009061359;-0.0050635533;-0.18187886;0.11638319;-0.122243844;-0.0027730176;0.0061390926;0.028867759;-0.1892954;-0.11856354;-0.048885148;-0.01844893;-0.12784192;-0.026454605;0.044931494;0.04922803;-0.05014874;-0.10524433;0.049691588;-0.092474364;0.057477534;0.0063785063;-0.05561584;-0.111323975;-0.07343422;-0.11252355;-0.12833914;-0.052299533;-0.041455075;-0.05680398;-0.12805934;0.0064769546;-0.0742253;0.09007122;-0.10275708;-0.12380294;0.05931499;-0.062420066;-0.08050543;-0.14267828;0.002794611;0.10614509;-0.0021935063;-0.0650669;0.1401842;-0.07641987;0.015012192;-0.044015523;-0.061559934;-0.10861118;-0.030691227;-0.005103736;-0.052730594;-0.12785009;-0.08595794;-0.1441818;-0.14433585;0.020635214;-0.093660034;0.12459146;0.023435164;-0.0075219083;-0.05188584;-0.02656762;-0.032199495;-0.0007716505;0.033569533;-0.026913771;-0.011751075;-0.01574747;0.00070679665;0.0047617555;-0.13282454;-0.09722012;-0.022015832;0.056136597;0.0156017905;-0.059566695;-0.043036632;-0.07800031;0.058161817;0.1657426;-0.10275251;-0.038030155;-0.01450511;0.03514204;-0.015126253;-0.023748135;-0.048840284;-0.009934809;0.019676393;-0.07256271;-0.043015387;-0.11574526;-0.088229;0.023133328;0.06503606;-0.0050703688;-0.06294733;-0.006359498;-0.027525133;0.034828626;0.117962435;0.057116847;-0.015414009;-0.073814005;-0.0054082056;-0.089112565;0.007326136;-0.09356481;0.10404591;-0.08816538;-0.0549792;-0.08088851;-0.02365146;0.037394904;-0.06702399;-0.059366316;-0.04310461;0.107432574;0.067139976;0.0034982834;-0.12513542;-0.13458821;-0.103135526;0.04475046;-0.057701387;-0.015986115;-0.10073527;-0.017849414;0.13530853;0.068313874;0.052612513;-0.08965761;-0.029386105;-0.04772779;-0.06732043;0.04939785;-0.06998332;-0.056360696;-0.057976484;0.030450698;0.13021289;-0.04046972;0.10790376;-0.007298346;-0.04158772;-0.030240983;-0.11511596;0.02664122;-0.012765364;0.027104637;-0.11693551;-0.11713244;0.02814851;-0.033111777;-0.112031914;0.0059427638;0.007863147;-0.10051082;0.074082464;-0.062768936;-0.19161266;0.0025182555;-0.08942921;0.17424321;0.11053897;0.0010919495;0.1314359;-0.021638414;0.046042103;0.104706354;0.0861434;-0.020745793;0.030720294;0.0037498376;0.051180445;-0.10946323;-0.0075201984;-0.022436764;-0.056755804;0.07442849;-0.0022256994;0.058268275;-0.1098661;-0.17639834;-0.08759584;0.064408995;-0.011292724;-0.012161833;-0.045180906;0.011882449;-0.088452764;-0.038919523;-0.07035106;-0.089974016;-0.06181592;-0.04577207;-0.029415546;-0.038355544;-0.020526374;-0.108894095;-0.059054665;-0.07816688;-0.0136643695;-0.095354;-0.040099293;0.1605386;0.0013705668;0.02730046;-0.04689045;0.047051933;-0.093049735;-0.011828005;0.0077306004;-0.09249782;0.10313617;-0.012005601;-0.04739517;-0.0055611264;-0.029631292;-0.0022519608;-0.0023057698;-0.06686015;-0.012318231;0.18244076;0.08274979;-0.2430748;0.0122330785;-0.069434814;0.03487157;0.0026385547;0.070045315;0.01732372;-0.024307854;-0.056711037;-0.04618243;-0.041709393;-0.004425935;-0.03803793;-0.07785962;-0.21804361;0.01155143;-0.0965355;0.03095455;0.010606254;-0.07197323;-0.06582282;-0.10967636;-0.11569326;0.013550694;-0.11781335;-0.118497826;-0.019220205;-0.046418875;-0.121452585;-0.07107989;-0.0049004937;-0.13605238;-0.041384198;-0.020190023;0.0060407408;0.019126747;-0.16750243;-0.042655423;-0.08990536;-0.0074367556;-0.08302888;-0.056384444;-0.108773015;-0.0029083055;0.052178774;-0.05962518;0.038287293;-0.0709424;0.036024813;0.037806552;-0.065595776;-0.1348142;0.045388862;-0.020210596;-0.029918985;-0.10061871;-0.016457962;-0.055072095;0.0104594175;-0.06585675;-0.04642445;0.012916058;-0.06755414;-0.025816502;0.06911982;0.07163273;-0.041103434;-0.11365096;-0.06737554;0.06572664;-0.0095560895;-0.08242956;-0.07394576;-0.022131607
-0.0028967452;0.020041762;0.015777452;-0.034074366;-0.15187784;0.011528369;-0.15139025;-0.053919066;-0.026226727;-0.05620296;-0.043860618;-0.116891064;-0.13914149;-0.114863604;-0.029700294;-0.1028718;-0.07939037;-0.0036158352;-0.10206649;-0.11117018;0.053047247;-0.1277657;0.040832482;0.02606619;0.042298324;0.015258633;-0.08278296;0.008805188;-0.06707181;0.1150992;-0.14506552;0.048410606;-0.07787391;-0.09028083;0.0017054336;-0.026599124;-0.063020445;-0.081479974;-0.06341028;-0.08740393;0.0111596435;0.1543518;-0.063928485;-0.08781229;-0.03806876;-0.16326766;-0.044773664;-0.013822255;-0.0124675445;-0.032996193;0.010280674;0.11047202;0.049933504;-0.06168735;-0.037350282;0.04808208;0.034883834;-0.012899709;-0.090157054;-0.0298561;-0.056251906;-0.10115491;-0.11807509;0.04983568;-0.052732207;0.057658404;0.016276883;-0.02360667;-0.11857994;-0.010905841;-0.041089788;-0.0030268934;-0.017116223;-0.097854406;-0.049152073;-0.012190261;0.017910432;-0.03485828;-0.023131622;-0.12373691;-0.08692189;-0.06636854;0.02197227;0.15563387;-0.16303179;-0.032339826;-0.0785976;0.054238945;0.04570442;0.03683056;-0.10269366;-0.08377091;-0.07270811;-0.07116243;-0.08774299;-0.04526424;0.1368436;0.03313657;0.030008389;0.008190172;-0.14113002;-0.09021799;-0.011589057;-0.15644057;-0.011912285;0.09416031;0.010325515;-0.093916126;-0.16562812;-0.08173103;0.0323986;-0.08086333;-0.05627772;-0.06593707;-0.006323365;-0.09164183;0.10426332;0.014809603;-0.08447273;0.0005360556;-0.09560891;-0.079813674;-0.07580116;0.005973984;0.039599776;0.0208441;-0.04080989;-0.0030448225;-0.04657152;-0.086279176;-0.06845705;-0.14225943;0.16866831;0.036637116;0.10304413;-0.018195748;-0.10015358;-0.090468;-0.04889486;-0.062877364;-0.07421743;-0.107534684;-0.13172957;-0.028886756;-0.1432092;-0.07110166;0.056410007;-0.09281061;-0.080704786;-0.018444633;0.057628337;-0.07072987;0.005251891;0.10902739;0.10702978;0.025526315;-0.06566332;-0.07700919;-0.105413705;-0.0786529;-0.104904346;0.0023250778;0.031405527;-0.03623336;0.035825152;0.058121294;-0.08733338;-0.034444723;-0.11188348;0.0056881555;-0.028532844;-0.04596885;-0.05725311;0.0036783477;-0.02995325;-0.086364195;-0.08727684;-0.06306265;0.007831312;0.0057903067;-0.12360829;0.059730455;0.031388972;-0.06808074;-0.08763669;-0.018158842;0.05729595;0.093989864;-0.06859236;-0.04647101;-0.1116237;0.02096805;0.056789108;-0.049400855;-0.09739605;-0.0670584;-0.050106775;0.045997754;0.020004883;-0.043973096;-0.013013171;-0.16315569;-0.10449671;-0.011683292;-0.060388844;-0.017002081;-0.098118074;-0.04246474;0.038852233;-0.012349194;0.11767174;-0.12041215;-0.09170961;0.038126584;-0.075274006;-0.11358677;-0.037639443;0.010941713;0.002082577;-0.09054128;-0.025021933;0.010515006;0.11698037;0.052066017;-0.02081783;-0.06496803;-0.20066045;0.07013925;-0.061779052;0.06479671;-0.045146056;-0.07561618;-0.11438041;0.020888906;-0.087649114;0.0074796453;-0.06107303;-0.022023262;-0.1283229;0.01453535;-0.10706471;-0.0011822542;-0.06920301;0.03148084;0.03132404;0.11452621;0.025375297;-0.02148474;0.12607965;-0.03025456;-0.078679085;0.019188983;0.14640531;-0.06314164;0.068349965;0.06460932;0.090884894;0.046864696;-0.05135838;-0.110153295;-0.0067054033;-0.00048445386;0.029811664;0.048504792;-0.0635988;-0.030449566;-0.10121509;0.048499316;-0.102619946;-0.021852156;-0.13413489;0.04891378;0.0066359583;-0.041351102;-0.03735229;0.03942593;-0.07994468;-0.055901773;0.013662975;-0.1313104;0.048459742;0.124920905;-0.100767046;-0.060652085;-0.088342465;0.045588743;-0.09908245;-0.11165297;-0.13032335;0.043095242;-0.063329674;-0.095266014;-0.01140668;-0.013286654;0.013647283;-0.06662596;0.14109398;-0.0070912065;0.020759078;0.020782793;-0.07448767;-0.22452734;-0.06305882;-0.07078689;-0.14754608;-0.086438455;0.024780594;-0.0038742407;-0.008243139;-0.121333055;-0.017030869;0.021653874;-0.08626737;-0.073229045;-0.10851794;-0.020723663;0.08639189;-0.17061093;-0.027185455;0.18115708;-0.119987555;-0.10839292;-0.05196538;-0.04744494;-0.103080764;-0.08051462;0.0073770205;-0.044518486;-0.0458862;-0.038224764;-0.06439713;-0.0042036315;-0.0047790785;-0.18094434;0.14656836;0.038485568;0.0629469;0.06165305;-0.08068324;-0.10732268;-0.00064530515;-0.10211565;-0.08272489;0.107858956;-0.038332343;-0.08275154;-0.10010337;-0.093218476;-0.05338969;-0.048720486;-0.03394859;0.05626002;-0.010665975;-0.10304461;-0.08234565;-0.044416275;0.16059102;-0.0043693995;-0.035972726;-0.092326775;0.064427316;-0.023520613;-0.10479101;-0.094986066;-0.0020670528;0.054147985;-0.06871287;0.0504938;-0.043666303;-0.026401393;-0.050993886;-0.021178614;0.033823807;-0.08551138;-0.13763691;0.061170552;-0.012674403;0.17401388;-0.073031634;-0.061121512;-0.078074224;-0.15047172;-0.11275266;-0.005129522;-0.13551539;0.10502257;-0.056946654;-0.08675139;-0.054982204;0.011472241;-0.010249151;-0.026056781;-0.03096961;-0.12385356;0.08623278;-0.015920553;-0.021878742;-0.051470976;-0.14345656;-0.19556609;-0.022463111;-0.05644237;-0.072933204;-0.11182116;-0.05927592;0.09562438;0.040046003;-0.014531326;-0.10282434;-0.060646277;-0.13162182;-0.12806079;-0.0034462619;-0.0109932525;0.040207893;-0.03395992;0.06785094;0.036704767;-0.10399534;0.1408351;0.034519963;-0.01466957;-0.08802967;0.0030153408;-0.07911343;-0.16215684;-0.024204995;-0.1207406;-0.06496446;-0.14131069;0.0033400597;-0.09892092;0.018627865;-0.055132072;0.016576583;0.02207084;-0.07710712;-0.11781575;0.038168535;-0.08241884;0.04610212;0.11070612;-0.061180126;0.037257366;0.014066616;0.13381588;0.052715987;0.07940677;0.02836971;-0.09012884;-0.06661382;0.0052033765;-0.12600982;-0.042987045;0.060765143;-0.07735531;0.08626935;0.004412276;0.010096017;-0.096715346;-0.07381115;-0.021991137;0.0947348;-0.0694456;-0.012214912;-0.07328339;-0.07529948;0.01876798;-0.10623133;0.068406805;-0.04234058;-0.023155672;-0.058861934;-0.03186289;0.043943297;-0.13011001;-0.046124242;0.017658122;-0.14499125;0.012202598;0.028514773;-0.04498211;0.05822743;-0.06450896;-0.11237479;0.04366577;0.0033434983;-0.11728954;0.05874611;-0.008654412;-0.027518507;0.039887678;-0.07731224;-0.0077841976;0.03621461;-0.0094201565;0.050443243;-0.07706427;-0.026269363;-0.10052081;0.13313195;0.056301527;-0.1396418;-0.0960234;-0.09142172;-0.08273784;-0.103976294;0.06939835;-0.095886536;0.04605201;0.025298681;0.029421233;-0.06808866;-0.13091113;0.016399907;0.014629911;-0.1894332;-0.0034112611;-0.026081162;0.010315123;-0.026691671;0.028428918;-0.081497446;0.019578388;0.020181624;-0.10045327;-0.05029607;-0.10570907;0.015880195;-0.022517659;-0.024183312;0.016719839;0.06999005;-0.029903986;0.007263379;-0.02923501;-0.039627362;-0.07063421;-0.10785733;-0.09814553;-0.0027944583;-0.10050671;-0.041196063;0.09747312;-0.0053939405;-0.072640955;0.0667885;-0.073814824;-0.036773644;0.008922542;-0.07052998;0.039907556;-0.041451268;-0.101660095;0.055370577;0.076221175;-0.07723636;-0.0041339304;-0.011402136;0.023527099;-0.11358696;-0.08664093;0.0063929474;0.11265329;0.035067815;-0.038899075;0.11077736;0.00060759805;0.0004462099;0.017704012;-0.08863332;-0.09595764;-0.021918856;-0.051281087;-0.08303597;-0.081318475
-0.06939482;0.008154699;-0.082357824;-0.00394646;-0.108099625;-0.052646395;-0.14300992;-0.06091381;0.040492672;-0.06281056;-0.02317859;-0.049885724;-0.099139705;0.03709818;-0.09885861;0.029612407;0.04521301;0.046573594;-0.071447425;-0.061481945;-0.08033239;-0.08178857;0.084591426;-0.09897105;-0.026425358;0.09792368;-0.03205819;-0.042612772;-0.101801306;0.17386344;-0.10150679;0.0020473106;-0.11763239;-0.032958742;-0.014227644;-0.05904364;0.05175119;-0.0813632;-0.031540215;-0.1076624;-0.04107492;0.068812944;0.026468571;-0.12843825;-0.01775146;-0.10054467;0.01580267;-0.036578804;-0.05042116;-0.04560836;-0.113637775;0.12054471;-0.012440625;-0.04925642;0.03528434;-0.048665583;0.016753247;0.063124016;-0.11825097;-0.013011999;-0.020255994;-0.15413707;-0.06993195;0.057025593;-0.117052406;0.10905406;-0.008393942;-0.04914865;-0.13999909;-0.020017518;-0.1386261;-0.00048014725;0.0037704592;0.041359037;-0.113834865;-0.00023138695;-0.0010853127;-0.04754809;-0.05744455;-0.12054833;-0.022279978;0.011802637;-0.055625428;0.19201784;-0.076400734;-0.13121988;-0.03436807;-0.04959401;0.0012300372;0.019164508;-0.002945836;-0.02226485;-0.09733963;-0.029385613;-0.075931996;0.015425393;0.15783904;0.0020136407;-0.06918397;-0.07002643;-0.090521716;-0.0431315;-0.10296365;-0.07152241;0.023676343;0.035153855;-0.068280615;-0.07871934;-0.13159159;-0.012608561;-0.075355574;-0.13736589;-0.065650806;-0.015894504;-0.07464469;0.030775886;-0.007484492;-0.01870992;-0.2245575;0.03348178;-0.06006973;-0.08664653;-0.16715668;-0.10756128;-0.014210843;-0.07197909;-0.096666604;-0.0643327;-0.04551755;-0.08067238;-0.06646804;-0.16643716;0.09318558;0.008160972;0.017332496;0.04808674;0.03073474;-0.018193316;0.02367193;-0.16769022;-0.0123708565;-0.043348465;0.01955504;0.00611755;-0.120978445;-0.037972804;0.023299215;0.03633004;0.027590211;-0.03916594;0.012567679;0.033081196;0.0006360606;0.15638734;-0.022019085;0.0327729;-0.05506368;-0.110519946;-0.029082643;-0.105459996;-0.072335556;-0.060090996;0.09062342;-0.028839095;-0.10108683;-0.064015694;-0.047973927;0.03154853;-0.21944802;-0.13305943;-0.0213035;-0.085026346;0.04973121;-0.093341775;0.019659495;-0.031181047;0.010938237;-0.12318918;-0.07697455;-0.07017271;-0.15820734;0.031396195;-0.003376498;0.037248243;0.014503304;-0.08240894;-0.018182568;-0.008100412;0.024328105;-0.018087815;0.028158976;-0.014832509;-0.038439196;0.07746923;0.016130801;-0.033639252;-0.10433132;-0.026686735;0.080068074;-0.10393289;-0.11301696;-0.17385416;0.0065621454;0.07180242;-0.0611101;-0.10532447;-0.10796413;0.007086596;-0.01959827;-0.033758886;0.072960004;-0.0283948;0.025663339;0.13563968;0.011300122;-0.088513404;-0.059862323;-2.4574552e-05;-0.08649467;-0.022213921;0.036286667;-0.03358362;0.07011776;0.04967022;0.019981848;-0.022651272;-0.20555525;0.12334614;0.06494288;0.051498067;-0.0854073;-0.11709536;-0.07376928;-0.029337201;-0.11140732;-0.10323298;0.012410557;0.055823367;-0.16712223;-0.10391372;0.027574917;-0.04844214;0.07565606;0.16474876;-0.074744776;-0.021188742;-0.04627743;-0.12453304;0.08275817;-0.059559338;0.037274346;-0.06329642;0.13374867;-0.12677488;-0.007499192;0.056478757;0.010694943;-0.09663635;-0.14925997;-0.11006339;0.032187555;0.031069903;-0.05232833;0.03970221;-0.041101832;-0.05522421;0.04103967;-0.069596715;-0.09755622;0.053863563;-0.030675793;-0.030812671;-0.08465956;-0.00924792;-0.041409556;-0.07886321;0.06853494;-0.04803834;0.07010037;-0.050422702;-0.01641134;0.08975907;-0.1208785;-0.11160477;0.030005986;-0.08237209;-0.041129388;-0.07147132;-0.01067437;0.04115289;0.011585924;0.024344593;-0.09082663;0.0023773583;-0.02121846;-0.08302792;0.048057675;-0.116998084;-0.10520745;-0.055326425;-0.077513255;-0.09971434;0.059325572;-0.09901901;-0.13929176;-0.096949324;-0.036629166;-0.010298878;0.07096621;-0.09658509;-0.15066648;-0.047322202;-0.055573747;-0.07037473;-0.05177402;-0.08894436;0.058314063;-0.09540659;0.008385999;0.12393345;-0.10185006;-0.07514107;-0.110426344;-0.028781224;-0.024545083;-0.07985809;0.061117828;-0.07118956;-0.05225603;-0.00669931;-0.015841803;0.017150704;0.020467868;-0.12903021;0.10105979;0.022409238;0.0004269995;0.063334376;0.011998646;-0.0017472757;0.044652075;0.045758437;0.0245068;0.04489163;0.020043686;-0.018608239;-0.00975826;-0.07582015;-0.056454;-0.03770405;-0.0048960852;-0.036926627;0.035056062;-0.019943738;-0.06204143;-0.045827623;0.015665475;0.013546289;-0.040520914;-0.06621998;0.072438695;-0.10858439;-0.12927349;-0.14490773;-0.066928364;-0.0029532772;-0.090761974;-0.011808853;-0.120423295;0.032600753;-0.0666641;0.111910075;-0.0025412939;-0.08715203;-0.0989611;0.02715604;0.018174766;0.051609736;-0.058370326;-0.073156536;-0.10821391;-0.14086398;-0.13081764;-0.044236742;-0.04583029;-0.01992403;-0.11434732;-0.096648656;-0.0126201315;-0.08916965;-0.03147563;-0.068798736;-0.10962976;-0.09066348;0.07597435;0.11779092;-0.10217836;-0.115249224;0.012663527;-0.0717314;-0.0467711;0.04143297;-0.08363568;-0.095877744;-0.025894353;0.05524502;-0.05096034;0.048130654;-0.071116164;-0.08574116;-0.030847112;-0.03224546;-0.00498632;0.008887143;-0.048547395;-0.14601915;0.03216196;0.017774718;-0.008449008;0.050749373;-0.025062853;-0.06661954;-0.086636536;-0.0633612;-0.07099108;-0.1022381;0.053687345;-0.07753033;-0.11326656;-0.052681427;-0.006213404;-0.029562702;-0.046545297;-0.10387085;-0.07832831;0.109066375;-0.020349585;-0.12161707;0.029032681;0.00096286624;0.13050601;0.10409639;-0.04964375;0.06693932;0.063743286;-0.04411242;0.06444436;-0.0133880405;-0.019437933;-0.04240689;-0.14762403;-0.01808758;-0.11406285;-0.097162046;0.07604396;-0.11682847;0.09672849;0.015994567;-0.03385544;-0.08235749;-0.075456314;-0.05378773;0.0064338013;0.042999245;0.040215112;0.07922868;0.036698494;-0.060331423;-0.110063106;-0.024254171;0.029631993;-0.05030865;-0.1711688;-0.078626014;0.028405983;-0.13295998;-0.077804916;-0.11523464;-0.09823047;0.041657615;-0.07836407;0.030313902;0.08445497;-0.023862183;-0.029976612;0.08276504;-0.0801021;-0.11939204;0.047993038;0.03911047;0.04905363;0.053623628;0.037796732;-0.04445166;-0.059295908;-0.0018764461;-0.03357412;-0.112813525;-0.101393856;0.015474093;0.1105758;0.026270654;-0.09667421;0.0199533;-0.046593606;0.0424845;-0.04051362;0.12484358;-0.011873624;-0.110224225;-0.104646996;0.01996574;-0.064792044;-0.040227313;-0.045091376;-0.04956392;-0.2634713;-0.09643269;-0.07185414;0.08384684;0.010211212;0.0136037;0.01636398;0.0005339695;-0.13359037;0.002409988;0.041151825;-0.0034968122;-0.025893813;-0.06476865;-0.13159776;-0.059053797;0.03285994;0.005095609;0.021652646;0.027851397;0.02859299;-0.10944262;-0.1530785;-0.054979168;0.009722489;-0.060514264;-0.011482424;0.061829057;-0.03261375;-0.08793662;0.04083127;-0.0500432;-0.044886;-0.07396559;-0.10690356;-0.008783037;-0.10405369;-0.074622676;0.018173248;-0.052264106;-0.04145572;-0.0034799445;0.06335953;-0.062073674;-0.12394528;0.022111317;-0.13754217;0.081589684;0.02193894;0.002094239;0.05840024;0.070853576;-0.022736808;0.02417208;0.04586605;0.02932159;-0.016346669;0.018266335;0.03470571;-0.018717684
-0.027145326;0.01578253;-0.118001744;-0.121485144;-0.010510598;-0.015554904;-0.10036263;0.046557028;0.08304765;-0.16202469;0.021276599;-0.045336667;-0.097013436;0.014294814;0.051030867;0.04883509;0.04020293;-0.009904802;-0.12692025;-0.12298865;-0.031582016;0.016734006;0.03963872;0.044515505;-0.060877897;-0.047647484;-0.016549397;-0.026838409;0.008145659;0.124283075;-0.084828824;0.09088201;-0.07459373;-0.08416515;0.008809727;-0.017681606;0.0050166356;-0.08518705;0.022709714;-0.099237554;-0.07661155;0.09472715;-0.01321359;-0.10998353;-0.16394518;-0.13979651;-0.07869142;-0.0057633226;-0.09297803;0.05549052;-0.118838504;0.1474468;-0.09454553;0.06702124;0.038440324;0.055812184;0.027802596;0.0022056266;0.028010432;-0.04274899;-0.09576205;-0.1338072;-0.07824885;0.043171383;-0.1217914;0.0047098747;-0.08181272;-0.041300535;-0.12515394;-0.096325;-0.15210697;0.044974055;-0.028173158;-0.08689114;-0.09285661;-7.209351e-05;-0.07698505;-0.13281515;0.05210331;0.033305302;-0.025382852;-0.014774069;0.048779387;0.17702389;-0.09396415;-0.11382407;-0.018321158;-0.089678355;-0.0859267;-0.09838575;-0.03256511;0.028467834;-0.06973356;-0.05031761;0.029318279;-0.050916083;0.10572924;0.03808289;0.009383984;0.009004782;-0.06043383;-0.055479668;0.037461214;-0.14278547;0.028224783;0.022279764;-0.055860527;-0.062403996;-0.16455369;-0.09461033;-0.079252526;-0.12595676;0.009895176;0.021807466;-0.09613796;-0.074767284;0.02216578;-0.049628474;-0.12739691;0.08353027;0.008047595;-0.11113135;-0.042362414;-0.051661223;-0.0059586456;-0.02952195;-0.042287994;0.017072018;0.0063660746;-0.022812279;-0.101928085;-0.13084492;0.23830311;0.059975166;0.023437569;-0.085355245;-0.051843848;-0.16113806;-0.10431917;-0.117525876;-0.020341618;0.041004967;-0.025393289;-0.025576575;-0.03744655;-0.072347894;-0.08674165;0.051127225;-0.03634904;0.02442545;-0.052450746;-0.06558961;-0.011922978;0.11988711;-0.039550483;0.13331772;0.061351217;-0.08915205;-0.016159795;-0.07225143;-0.006049763;0.069704376;0.00036163826;-0.061687518;-0.10718339;0.005963416;-0.0802629;-0.008519961;-0.22415729;-0.071929924;-0.014145738;-0.09899367;0.020231603;-0.06445643;-0.031196538;0.032018784;0.015056754;-0.04148462;-0.018387012;-0.12602109;-0.13493055;0.030423585;-0.06643139;-0.060652804;-0.012252589;0.014484663;-0.08739681;0.119899824;0.046430852;-0.102023505;0.012913778;-0.09546611;0.038892206;0.018868044;-0.089956105;0.047951076;-0.030287284;-0.10499115;0.10464474;-0.06266947;0.010922026;-0.17299312;-0.07043318;-0.055511933;-0.12884547;-0.044617478;0.019332798;-0.0027968192;0.019975627;-0.07728605;0.025709005;0.013883699;0.0029345367;0.044616554;-0.0018353715;-0.13434972;-0.020408096;-0.0057335193;0.029232658;0.01655866;-0.109098874;-0.00943388;0.019574683;0.028085886;0.029178612;0.0059834174;-0.14406642;0.097812235;-0.0111005595;0.07718898;0.0042012096;-0.14342435;-0.05889712;-0.09344618;-0.09029589;-0.05856361;0.03014266;-0.04900513;-0.14364304;-0.075431444;-0.044632275;-0.016018912;-0.006415971;0.06163978;0.0052625486;0.076480396;-0.075588085;0.0023480568;0.09043285;0.031112678;-0.088873185;-0.07927985;0.09267854;-0.110578075;-0.011638989;0.06498833;0.042230498;-0.06389288;-0.07530538;-0.022916885;-0.07616682;-0.028512098;-0.05398781;-0.037242647;-0.18877682;-0.10332491;-0.05341534;-0.048868354;-0.08602975;0.06031197;0.034289006;0.037777636;-0.045603655;0.056016456;0.053978592;-0.08199183;0.07528558;-0.120856136;0.071912244;-0.11907481;-0.03955867;0.0952068;-0.0833135;0.015700419;0.012689137;-0.055748496;-0.010711863;-0.11142459;-0.011631972;0.023880528;-0.107792735;-0.03929974;-0.06290482;0.009388715;-0.089184634;-0.077298775;0.13856423;-0.0027955568;-0.07537138;-0.067670785;-0.11801832;-0.2096692;-0.01978104;0.0034985798;-0.09207643;-0.0022575525;0.00506956;-0.053851414;-0.0067114593;0.0083069885;-0.13961472;0.063715905;-0.106562935;-0.013369688;-0.11804847;0.011285892;-0.018020134;-0.096220225;0.054720033;0.0357128;-0.007947044;0.007589882;0.02478016;0.03149506;0.00026909733;-0.11792943;-0.0646895;0.0050226236;-0.12173093;-0.10004373;0.02049227;-0.00807495;-0.12291329;-0.057641048;0.049289647;-0.025880469;-0.09405323;0.038337994;-0.021316763;-0.08118425;0.05060864;-0.013332549;-0.13327762;0.082361385;-0.09460625;-0.11740708;-0.08338095;-0.0003100611;-0.05869653;-0.0049620355;0.12659572;0.10506796;0.02708688;-0.12014815;-0.08034569;-0.013724685;0.10920535;0.034954034;-0.105246566;-0.02729658;0.07473191;-0.13047835;-0.11345033;-0.06247994;-0.10574266;-0.006637464;-0.0063703093;-0.10868465;-0.010801457;-0.06389721;0.006465149;0.10078927;-0.011713284;-0.113559164;-0.09334088;0.05594743;0.024131248;0.061376553;0.05028607;-0.0061146044;-0.05425746;-0.12914021;-0.009242868;-0.048460398;-0.10541487;0.022726687;-0.05122851;-0.08856584;0.052877862;-0.09391343;0.030005742;-0.041761737;-0.10065725;0.040369734;-0.022221757;0.0071905116;-0.08801137;-0.02281611;-0.10603281;-0.15413451;-0.10093595;-0.018052354;0.022357764;-0.08557352;-0.046499446;-0.017529048;-0.09164906;-0.0512186;-0.10373186;-0.116262145;-0.1342054;-0.03669412;0.0589347;-0.11762081;-0.039586503;-0.0173679;0.08267421;0.037764676;-0.09761035;0.06196391;-0.010978694;-0.07865376;0.00104782;-0.07882958;-0.09549943;-0.053731013;0.034191236;-0.0069666593;-0.107087985;-0.024858117;-0.06989311;-0.063793;0.039762426;0.012922015;0.03842458;0.09765122;0.022997355;-0.11451872;-0.03852294;0.058500785;0.17250903;0.045321405;-0.009129159;0.044335213;0.07765983;0.009485134;0.1565972;0.1199448;-0.016453328;-0.057654873;0.0017766032;-0.06355676;-0.10199173;-0.064615525;0.14397071;-0.09842378;0.014623795;-0.009621313;-0.043907728;-0.019896206;-0.11871247;-0.08903809;0.10741139;-0.07366339;0.018180924;0.08533739;0.018723601;-0.0059064333;0.0138382325;-0.0560591;-0.06766575;0.065098025;-0.15520002;0.048685335;-0.042385153;-0.035972413;-0.016310234;-0.101193644;0.0029652535;0.024399167;0.044841345;-0.117643744;0.12244618;0.02491362;-0.09024633;0.0313345;0.015328965;-0.14603834;0.07031749;-0.111907646;-0.020343704;0.04371137;-0.007966359;-0.03016085;0.0068473695;-0.02831563;0.023051072;-0.08629546;-0.002794351;-0.022716302;0.049935516;0.06002444;-0.20381497;-0.07162731;-0.079439625;0.010055732;-0.04212022;-0.03396582;-0.052034296;-0.058351703;0.027344178;-0.044401444;0.03625504;-0.05459581;-0.10320007;-0.026502801;-0.15241419;-0.0040864595;-0.028870303;0.07608967;-0.019918518;-0.1119158;0.055919964;-0.09741772;-0.050172064;-0.046773113;-0.025580224;-0.038677335;-0.01008079;-0.04238159;-0.014491087;-0.07226308;0.06539968;-0.12593777;0.01263761;0.018398685;-0.05253533;0.011292974;-0.18537472;-0.097635396;-0.060801774;-0.03324723;-0.07823643;0.011433774;-0.030883202;-0.016026339;-0.060404163;-0.113657266;-0.10149085;0.016993789;0.012481379;0.03552887;-0.04095264;-0.07209115;-0.02590012;-0.016986432;-0.011845594;-0.116487786;0.11405798;0.059568897;0.02764478;0.044174574;-0.02447588;0.021759225;0.049634207;-0.11211102;0.033661973;-0.042681485;-0.008866026;-0.03431779;-0.048591793;-0.110934235;0.079749554;-0.001860152;-0.021438552;-0.06435547
-0.046376973;0.010837732;-0.0055887946;-0.085268356;-0.03110643;-0.004632486;-0.15888295;0.06662034;0.03561181;-0.09141647;-0.1207936;-0.0777465;-0.18159924;-0.060354732;0.06616366;-0.059830334;-0.05311504;-0.12789863;-0.05888425;0.007792604;0.04059012;-0.11250227;0.012824564;0.006937787;-0.09589002;0.050582673;0.0010680704;-0.13989536;-0.14009824;0.13785927;-0.06687959;0.13537009;-0.01294321;-0.0037324815;0.034565076;0.052344397;-0.016337195;-0.0060232165;0.012847733;0.03417503;-0.05775457;0.036109045;0.020373993;0.004701822;-0.07735424;-0.14424258;0.028171284;-0.054815486;-0.12173581;0.07177754;-0.118098445;0.070827216;-0.085923545;-0.047311;0.08267615;0.026321417;0.044669334;0.03257799;-0.10102254;6.4443426e-05;-0.04561445;-0.12972254;-0.16008298;-0.044076145;0.009721553;0.01566411;0.022486264;0.07599801;0.0073483344;0.0069504944;-0.02189206;-0.0141917;-0.08020853;0.037033472;-0.055811957;-0.028593984;0.039487712;-0.13457885;0.069793254;-0.044393137;-0.043516755;-0.027342552;-0.040514033;0.07894107;-0.04435457;-0.15015844;-0.011801376;0.03347238;0.049566075;-0.029973427;-0.01852079;-0.07349028;0.0035136272;0.054745927;0.019286565;-0.054045144;0.17230785;-0.09001841;0.042596597;-0.013719444;-0.1288815;0.015578834;0.028007533;-0.06372391;-0.09782507;0.10397936;-0.067396745;-0.15020186;-0.041349247;-0.021038221;-0.115756504;-0.003068242;0.022841692;-0.0071254238;-0.045517087;-0.031651072;-0.069980346;-0.008294919;-0.24124074;0.10911712;-0.09860897;-0.06630278;-0.11762872;0.005930215;0.016248642;-0.10358167;-0.0087940255;-0.050633542;-0.045637093;-0.08766214;-0.05279259;-0.0364286;0.16035672;0.16631235;-0.041390326;-0.044754904;0.022665966;0.007335238;-0.11473252;-0.09684343;0.009389318;-0.08626671;-0.0078627495;-0.04907763;-0.09815491;-0.013198695;0.053942803;0.01731399;-0.053007174;-0.06709326;-0.027939694;0.043370873;0.062260356;0.094748475;0.12367981;0.023485664;0.038160972;-0.11823431;0.038713943;-0.04967263;-0.06201;0.0125645;0.0032224013;-0.084847085;-0.039015234;-0.09403459;-0.13758138;-0.052007023;-0.101325974;-0.09920599;-0.06024717;0.001961798;0.026987152;0.016915975;0.037991896;-0.0087260995;-0.054830883;-0.117928736;0.042878535;-0.13800243;-0.13377032;-0.088647455;-0.09506054;-0.09287779;-0.084216386;0.017447643;-0.047387652;0.09325696;0.022942686;-0.03794738;-0.017047253;0.009778025;0.051386826;-0.07336762;-0.13019983;-0.12186707;-0.106007576;-0.021300908;0.09740885;-0.073993586;-0.06776148;-0.022989217;0.04287423;-0.082909614;0.0019667947;-0.13235252;0.01146499;-0.077208795;0.041869175;-0.06676475;0.07690535;-0.035298344;0.06196221;0.17276843;-0.09129337;-0.06696129;-0.0661179;-0.04693553;0.01247521;-0.0065636635;-0.031012367;0.015928745;0.058795936;-0.027288076;-0.092155054;-0.11825456;-0.09853773;0.1541009;0.040614747;0.16082866;-0.10375469;-0.08108125;-0.091459446;0.06716213;-0.08035081;-0.037160724;0.010910375;-0.01631783;-0.06974402;-0.12060069;-0.039434988;-0.018648125;-0.025523249;0.07331433;0.027245665;0.08460465;-0.034395922;-0.021056786;0.041765172;0.0062678675;0.039880347;-0.06451751;-0.018732142;-0.03295853;0.06913007;-0.045759965;0.055638555;-0.038297568;-0.0026906629;-0.067006394;-0.018662477;-0.00078896544;0.09772658;-0.11261628;-0.1269641;-0.07144737;-0.007681457;-0.010612876;0.0665295;0.02245136;-0.106552295;0.05229828;-0.08867986;0.049368422;0.046708595;-0.05210879;0.07150408;-0.037218317;0.1584837;-0.15282942;-0.06527549;0.09351597;-0.1245342;-0.007423176;-0.0330483;0.022426276;-0.08028898;-0.023904705;-0.001363004;-0.031256657;-0.069152355;-0.0072764163;-0.10596549;0.058499504;-0.08727929;0.020920306;0.11162174;-0.09223236;-0.030286683;-0.015897058;-0.05484177;-0.13868539;0.062422246;0.02110842;-0.00019885288;-0.07321072;-0.055332247;-0.07177329;0.032991406;0.03726945;-0.12388783;0.03743892;0.010463975;-0.09101624;-0.07919846;-0.09904537;-0.016730893;-0.12569551;0.023313465;-0.0006885424;-0.118496;-0.14214331;0.02063439;0.05491192;0.038177002;-0.020766;-0.028409613;-0.01578496;-0.15874887;-0.027273307;0.055955462;-0.07345784;-0.119259804;-0.10134;0.078847066;-0.023978503;-0.09368;0.00028895907;0.12452954;-0.012632706;0.052865714;0.07870601;-0.1517165;0.12701614;-0.11804463;-0.0022665763;-0.1400643;0.019172188;-0.05732195;-0.07204132;0.05096623;0.088058345;-0.036579154;-0.060372338;-0.121897176;0.08270724;0.14454162;0.025486337;-0.009477795;-0.03734639;0.0786101;-0.12309116;-0.026907612;-0.08757541;-0.071926504;-0.051129017;-0.07863129;0.015952324;-0.08607615;-0.013854545;-0.060851403;0.032962043;-0.010820072;-0.1301402;-0.0904657;0.036546566;-0.018132944;0.055564445;-0.022544049;-0.13369349;-0.07183816;-0.13412069;-0.08874123;-0.068579905;-0.0470062;-0.006836098;-0.07597214;-0.02839302;0.011958963;-0.09216172;-0.012354721;0.030005649;0.014174333;-0.045685686;0.044234846;0.021184744;-0.06290851;-0.10255608;-0.02419114;-0.17127013;0.06585514;-0.03818849;-0.09364486;-0.13986117;-0.11858469;-0.052681472;-0.037819732;-0.004398552;-0.05163823;-0.086177714;-0.043966293;-0.07734971;0.04980991;-0.08543838;0.059993237;-0.106054276;0.05374287;0.094314285;-0.1311859;0.024083303;0.029271863;0.051048104;-0.12456107;-0.09905207;-0.11745222;-0.13520758;-0.03227226;-0.038217682;-0.13824104;-0.12755714;-0.082731545;0.022341026;-0.040686354;-0.06402896;-0.067085154;0.105800025;0.05003378;-0.0720118;-0.08524581;-0.06499551;0.14002614;0.052085895;-0.11559917;0.081847616;0.107508555;-0.02908138;0.031043192;0.057217035;-0.02707544;-0.10470679;-0.029265027;-0.04970308;-0.023400705;-0.09238505;0.11963716;-0.114448465;0.06059804;-0.036815364;-0.042340327;-0.09109395;-0.1673642;0.042776335;0.027189026;-0.018734502;-0.011501461;-0.029548796;-0.054934584;-0.13461688;0.0022725912;0.0432635;-0.082486145;0.10580258;-0.027276933;0.060871378;-0.06707642;-0.03342868;-0.08115667;-0.018967902;-0.049832437;-0.087167606;0.03214423;0.0137583595;0.18518478;0.08944661;-0.03826838;-0.02659874;0.03705244;-0.0802768;0.038719293;0.041648954;-0.091623984;0.070483945;-0.06464926;0.019514095;-0.0062740436;-0.025383282;-0.07584792;-0.0016655696;0.0008162637;0.02894136;0.15964824;0.14888899;-0.21129681;-0.025386963;-0.06524815;-0.089254804;-0.10474758;0.050318584;-0.025019655;0.02411869;-0.007290829;0.0019212243;0.023062998;-0.08387413;-0.02908056;-0.0117478045;-0.23693202;0.024038471;-0.11266031;0.09859431;0.008959279;-0.013320425;-0.09157211;-0.053566154;-0.089500904;0.0005839146;-0.10966839;-0.07201982;-0.05084065;0.026788678;0.005264441;-0.108996645;0.09883403;-0.045811098;0.08988901;0.06693866;0.038650207;-0.062260896;-0.13809256;-0.052130956;-0.030588616;-0.03340907;0.026797593;0.08600146;-0.05506342;0.027729271;-0.039666697;0.005109714;-0.07467947;0.007896159;0.007783905;0.08140872;-0.16253811;-0.0619795;0.02818691;-0.006836088;0.05522912;-0.04939481;0.09325146;0.054754756;-0.11455763;0.016646724;-0.117948145;0.06357245;-0.016037881;-0.048664246;0.070838004;-0.081300534;-0.009146648;-0.09617355;-0.104196675;-0.12917054;0.01145316;-0.11619621;-0.07172997;-0.08294241
-0.08312868;-0.03948439;-0.0027831423;0.013804853;-0.050517917;0.028076805;-0.10852219;-0.0337972;0.06879249;-0.05554896;-0.057799667;-0.17678389;-0.1646031;-0.01924506;-0.060629055;-0.06639644;0.072770074;-0.059974186;0.015398127;-0.10770039;-0.010700202;-0.04028623;0.02784224;0.0066358997;0.018858299;-0.025285618;0.018160284;-0.013818382;-0.035842504;0.043586124;-0.16407812;-8.6604974e-05;-0.06515607;-0.032907665;0.026394486;-0.039567314;-0.016114285;-0.038634915;-0.028345177;-0.013680534;0.055246454;-0.0011651375;-0.0855617;-0.09607223;-0.051259823;-0.04994832;-0.0019246506;-0.044330597;-0.005605728;0.0016370021;-0.08272646;0.053719237;0.05879575;-0.07510189;0.06328219;-0.06772605;-0.07667939;-0.08464553;-0.10485906;-0.04478097;-0.064696595;-0.025715154;-0.18041351;-0.024190502;-0.052765295;-0.058638085;-0.014594228;0.060376942;-0.11227793;0.033645157;-0.14205419;0.0777133;-0.15148029;-0.03255624;-0.16658168;-0.047641803;0.029896574;-0.1015445;-0.038458634;0.012292143;-0.026760986;-0.033800896;-0.022443473;0.086802624;-0.093246095;-0.011853248;-0.0118184285;0.050694626;-0.059039213;-0.0036965294;-0.03518038;0.060142517;-0.07144151;-0.044743944;0.027568223;-0.05748203;0.18532762;-0.008478226;-0.10093453;0.029830221;-0.1393973;0.031880327;0.035454325;-0.1110173;-0.044609006;-0.0029008854;0.07165698;-0.102302685;-0.1531693;0.035413552;-0.038338277;-0.0072443625;-0.11218764;-0.0064676167;-0.086910345;-0.0697646;-0.087063685;-0.06323249;-0.1579851;0.015766272;-0.024576968;-0.10692195;-0.019139268;0.0029635874;-0.021578668;-0.06442733;-0.056481447;0.027749721;-0.08387645;-0.049686305;-0.07274045;-0.021597859;0.17066139;0.16793807;-0.05963116;-0.008776422;0.024327563;-0.15393943;-0.12757978;-0.051649056;0.03748249;-0.06649741;-0.0006544553;-0.077290006;-0.063045174;-0.016869154;-0.025748376;0.024329882;0.018893238;0.032899845;-0.016296193;-0.06723053;-0.0546822;0.08542917;0.036869045;-0.013480501;-0.025669592;-0.1824305;-0.03582647;-0.037451763;-0.059778493;0.061971366;0.044607345;0.029521504;-0.021454396;0.012790854;-0.092192225;-0.014928515;-0.11008881;-0.02664148;-0.10932628;-0.009076004;0.07123388;-0.024582228;0.040252388;-0.048233718;-0.01869437;-0.09052902;0.05214035;-0.100256614;-0.19477552;-0.0061545703;-0.13326389;-0.06472367;-0.10532424;-0.07519106;-0.058526885;0.14852102;0.0014399837;-0.024747854;-0.1176667;0.051977362;0.0135077;0.07043312;-0.11506871;-0.06863616;-0.099712595;-0.043429162;0.014706405;-0.13494433;-0.09412486;-0.13677488;0.04887501;0.030461984;-0.11026558;-0.0073581394;-0.05999125;-0.062073976;-0.09315772;-0.14263986;0.11163273;-0.082158744;0.056718744;0.009694798;0.0342308;-0.14525053;0.034642845;-0.08736314;-0.056978192;0.027716212;-0.09486154;0.09132323;-0.007755682;0.10960451;0.03014251;-0.015137644;-0.14290932;-0.00113779;-0.010170897;0.13184905;-0.122842625;-0.03603748;-0.09674631;-0.009259401;-0.0022781633;-0.049022626;0.005297907;-0.031732887;-0.050137926;-0.06993738;-0.07736414;0.102354154;0.06784698;0.03647633;0.047617495;0.1296912;-0.10172882;-0.08699717;0.0660124;-0.09313593;0.00970063;-0.017016219;-0.03798929;-0.06891648;0.086226426;0.0013393618;0.071614936;0.008040939;-0.027791796;-0.076775484;0.04263994;-0.11647274;0.09051334;-0.060272302;-0.16619927;-0.06703484;0.06094249;0.001512704;0.030315792;-0.067450166;0.028490735;-0.09152128;-0.068123594;-0.007586868;0.03697776;-0.09476128;-0.04769817;-0.080226436;0.15683566;-0.13542336;-0.012780491;-0.014293168;-0.038788088;-0.09923398;0.013330062;-0.05070603;-0.043787017;-0.08146279;-0.008179959;-0.009925341;-0.018356103;-0.06263464;-0.0665889;0.035857413;-0.045712203;-0.07701426;0.09022047;-0.105709165;0.008189093;-0.06845027;-0.12543182;-0.16241847;0.034248848;-0.06971861;-0.13071668;-0.037361667;-0.027676594;-0.13655162;0.05997707;0.026383737;-0.11333997;0.11808908;-0.024209436;0.0013762383;-0.16239716;0.014410605;0.059740275;-0.05974845;-0.09953451;0.045997676;-0.06951633;-0.017789938;0.04170511;-0.05013351;0.0075746467;-0.010584164;-0.03314551;-0.060779653;-0.038628973;0.015878595;0.010832801;-0.112097405;-0.08612505;-0.04424898;0.13235013;-0.072515145;0.010587535;-0.05645507;0.075233065;0.0042857965;0.033423737;-0.028968835;-0.0019121959;0.17220609;-0.050424363;-0.050448094;-0.12699206;0.008697379;-0.02477621;0.044805966;0.06285966;-0.01780236;-0.06118326;-0.03544686;-0.094630554;0.016267529;0.062675856;-0.03152544;0.02304082;-0.059673492;-0.003500181;-0.14744347;0.0046639023;-0.10614644;-0.03409788;0.010918317;-0.013898147;0.003887256;0.009712594;0.03235286;-0.13453174;-0.029131692;-0.07615363;-0.09511302;-0.044006914;0.00031244915;0.019749498;0.097850464;-0.09585421;-0.08345607;-0.119986326;-0.032157708;-0.07953352;0.01896728;-0.021712009;0.1317781;0.008906735;0.03229913;0.05187515;-0.09551873;0.018379921;-0.04352173;0.03497416;-0.11114878;-0.0044016046;0.02536186;-0.03632803;-0.07292648;-0.096150145;-0.23907188;-0.053117305;-0.051369395;-0.07228886;-0.13899209;-0.07183496;0.06289111;-0.06607848;-0.11408741;-0.0750357;-0.034635827;-0.17989518;-0.015427195;-0.02650158;-0.03283468;0.013668134;-0.075491145;0.050333336;0.056077294;-0.016826516;0.102402896;-0.07630663;0.05966703;0.0014342562;0.042172045;0.024153873;-0.14068964;-0.06275943;-0.020001274;-0.04352508;-0.14618297;0.02069676;0.051872198;-0.05147549;-0.06554705;0.011069701;0.111652404;-0.06255396;-0.047656655;0.034598608;-0.084668614;0.12750529;0.07344834;-0.083871275;0.048813585;-0.021907661;0.08336701;0.057711802;-0.0067714504;-0.08017729;-0.091388345;-0.037067518;-0.0035989513;-0.16996646;-0.10180062;0.10109356;-0.15307239;0.04223697;0.00214733;-0.0856589;-0.056826565;-0.06567628;-0.004999116;0.08580674;-0.08088673;0.012449134;-0.06260584;0.009020909;0.0010343833;-0.13136545;-0.059704173;-0.02175754;0.002456951;-0.055431668;0.06284876;0.023871936;-0.10372132;0.018286968;-0.042796325;-0.124384314;0.02500659;0.056421775;-0.04905148;0.09390309;0.08969273;0.018448457;0.094968356;-0.014508453;-0.019695204;0.08384126;-0.038402982;-0.043694824;0.025588002;-0.045838255;-0.08547168;0.035406645;-0.058064707;0.012769514;-0.034985323;0.0032531533;-0.018866476;0.10376813;0.14126937;-0.22647637;0.026717989;-0.041463893;0.06142514;-0.05998423;0.1027469;-0.02682987;0.041215513;0.034563985;-0.08121026;-0.0076918458;-0.09111609;-0.04216958;-0.01631311;-0.25423682;-0.057091504;-0.1271251;-0.03312304;-0.05644858;0.032532703;-0.06631368;-0.000893448;0.0012342811;0.02110164;-0.0035033901;0.03190782;-0.11062708;0.040280506;-0.12854427;5.5732038e-05;0.09344668;0.0036040186;-0.028977722;-0.011165643;0.055413943;-0.015067722;-0.016132995;-0.020344915;-0.04787694;-0.028626412;0.035476867;-0.027876759;-0.07643311;0.07020705;0.013997537;-0.01063442;0.03173309;-0.07510006;-0.088688634;-0.060865413;-0.0144894095;-0.15034425;-0.049206585;0.14941356;-0.036275994;-0.112075344;-0.02358543;0.06622495;-0.106181934;0.051513653;-0.13834558;0.12051846;-0.028777592;0.0465618;-0.044761315;0.049896058;-0.048985038;0.036148105;-0.09142071;-0.1319436;-0.0802119;-0.10141779;0.045762613;-0.015547809
-0.011875393;-0.051634595;0.035554748;0.012753124;-0.062192876;0.04401699;-0.15241562;0.027966416;-0.008797129;-0.073599815;-0.07490163;-0.10897612;-0.14725417;-0.03550667;0.051063962;-0.05720676;0.023536779;-0.10188535;-0.08686143;-0.059916656;-0.081346676;-0.10175818;-0.03922326;-0.10746908;-0.046798375;0.12110135;0.044359293;-0.10412501;-0.18030903;0.09019786;-0.05263793;0.12857601;-0.08331022;-0.04704039;-0.0050008064;-0.02353911;0.027030345;-0.14712164;-0.13324952;-0.037337314;-0.07799866;-0.03819421;-0.047110517;-0.011214295;-0.027800988;-0.09321746;-0.058216557;-0.12589829;0.03874031;0.014542119;-0.10952736;0.046519835;0.034182653;-0.053362753;-0.03265735;-0.013543269;0.036921114;-0.05378681;-0.10963557;0.05455557;0.0031605533;-0.1767303;-0.16152745;-0.02580876;-0.09897034;0.013351091;-0.017470352;-0.024037628;-0.09452526;-0.021425672;-0.0024070546;0.12710032;-0.07400814;0.025116574;-0.113789864;-0.09641889;-0.057931263;-0.035202254;0.030192526;-0.03672385;-0.09052712;0.051521845;-0.10150449;0.12628934;-0.0066323075;-0.11185611;0.031212574;-0.03395619;0.058075204;-0.059853207;-0.050773144;-0.0891436;-0.019092124;0.0111571895;0.0038879344;-0.11209225;0.11738054;0.03907904;0.037536684;-0.089214206;-0.028770514;0.07976275;-0.07862838;-0.16425139;-0.048127625;0.033049356;0.03269676;-0.0879931;-0.08452581;0.00061360793;-0.13094008;-0.0903681;0.04492476;0.062557496;0.011894881;0.04497806;-0.055101715;-0.118401304;-0.12869689;0.07284522;0.03610924;-0.08500425;-0.06452018;0.0041363486;0.042541724;-0.088112265;-0.05385215;0.053101182;-0.046317507;-0.034865916;-0.12003938;-0.03663955;0.10986568;0.05798095;-0.08309791;-0.009215697;-0.12404084;-0.13098197;-0.10663548;-0.1631307;-0.065429434;0.04704335;-0.060267203;-0.0065080742;-0.15959689;-0.09470737;0.049148466;-0.105246365;0.008790928;0.008518027;0.03795243;-0.09788484;0.0062561813;0.16789454;0.053938635;0.034003805;0.03668818;-0.19074455;-0.11633978;-0.0053726383;-0.09331822;0.021932187;-0.0018547913;-0.079476446;-0.06836709;-0.075825594;-0.099322155;0.023113169;-0.19804972;-0.051518794;-0.08704187;0.013054245;0.02740583;0.053070273;-0.0033807165;-0.04022275;-0.048379578;-0.039807484;-0.04209994;0.0012271225;-0.1581012;-0.10432221;0.023299674;0.01950524;-0.049353436;0.038907614;0.01927677;0.06828633;0.054195546;0.043055322;-0.03406489;0.05540196;0.08066586;-0.03171886;-0.04008371;-0.118678465;-0.01583143;-0.0420853;0.11064518;-0.051318385;-0.07313265;-0.082589425;0.04382569;-0.09532632;-0.01869485;-0.026574833;-0.03883274;-0.02895156;0.02998671;-0.15838937;0.04895934;0.0073404973;-0.033645786;0.11564222;0.06725233;-0.06953932;-0.11309379;-0.11045548;-0.02892383;-0.045407824;0.041794688;0.11849188;0.058579165;0.07374205;0.01173637;-0.009282229;-0.089238;0.07474983;-0.0058565;0.11675364;-0.113134995;-0.013662492;-0.11100168;-0.07289475;-0.03703403;-0.15811597;-0.09849;-0.022955388;-0.040700726;-0.023186697;0.010156241;0.056647;0.115007974;-0.025196968;0.04655782;0.07006153;-0.11272228;-0.011969843;0.1308787;-0.031061405;-0.07753695;-0.0644137;0.094401725;-0.14544536;-0.037711836;0.08164368;-0.04492201;-0.10323378;-0.15247123;-0.08615963;-0.110479444;-0.12381205;0.09091352;0.0032775612;-0.06877549;-0.08222536;0.038613345;-0.02652271;0.03410893;-0.011558405;-0.03663668;0.053720325;0.03625449;-0.039055996;0.030566998;-0.054786824;0.012043108;-0.10666252;0.06429964;-0.055398338;0.084991135;0.028850254;-0.040126294;-0.0682798;-0.0805086;-0.062268797;-0.10378126;-0.080774985;-0.08829406;-0.021580976;-0.0034504528;0.04283919;-0.021122685;0.026686298;-0.048057824;0.03858895;0.06509589;-0.005311156;0.05247011;-0.070553266;-0.02609393;-0.13967736;-0.08156566;-0.07502552;-0.07763775;-0.02411191;-0.07024665;-0.061671518;0.10884229;-0.017335474;-0.06948748;0.06592798;0.004138758;-0.042031754;-0.097134076;-0.009144948;0.038546387;-0.118781;-0.05455499;0.0682579;-0.00813762;-0.028844075;-0.013376464;-0.083782114;-0.09401901;-0.051543582;-0.023796873;-0.019710923;-0.13435227;-0.08975217;0.035012003;-0.122368984;-0.114252366;-0.048945285;-0.0026829047;0.03900093;-0.09217432;0.04958945;-0.009905439;-0.102264285;0.07932508;-0.027649399;-0.070662305;0.00093747815;-0.051526055;-0.049127974;-0.14441504;-0.071356066;-0.08232791;0.051197443;0.038205773;0.015277993;0.055015307;-0.10526081;-0.040630043;0.105001025;0.13898863;0.050429888;0.036342986;-0.075733416;0.04501106;-0.12821819;-0.04250912;-0.10263825;-0.12122145;-0.07197454;-0.06869052;-0.089884445;0.0032339261;-0.02196082;-0.030426143;-0.06104356;-0.0025225203;0.029679934;-0.06672579;0.021237975;0.067759424;0.04088684;-0.020290574;-0.020621372;-0.032180917;-0.026986329;-0.10981862;-0.0024201793;-0.083564915;0.091029994;-0.04624615;-0.064360864;-0.02213948;-0.07806129;-0.008301467;0.024181033;0.015480789;-0.025988337;0.0048640273;0.107072644;-0.06973201;-0.061732702;-0.095001765;-0.25226605;-0.09395964;-0.07901748;0.05155274;-0.047267456;-0.11929622;0.03460406;0.037663337;-0.060376946;0.018923346;-0.039771833;-0.18577287;-0.13972329;-0.0066470527;0.018882114;0.061648846;-0.07818343;0.0847285;0.012448583;0.027334606;0.036121875;0.05110469;-0.072140135;-0.012653025;0.03518551;-0.017589021;0.019314045;0.025732098;-0.078860484;-0.104758516;-0.13142425;-0.067758776;0.003798847;0.068940334;0.019035071;-0.034705352;-0.049624655;-0.023888174;-0.20183937;-0.07076479;0.033282004;0.14223623;-0.0054196487;-0.12315063;-0.022092598;0.030502705;0.072367236;0.069278486;0.012197031;0.023865497;-0.0033454795;-0.04249287;-0.10978663;-0.14644434;-0.083279654;0.044170525;-0.09306435;0.059447635;0.0693075;-0.051267397;0.007879253;-0.07962918;-0.04327213;0.08772672;-0.06624189;-0.06816711;-0.061947014;-0.09277156;-0.10781419;-0.11060118;-0.01982785;-0.1266053;0.025948534;-0.06980685;0.05760882;0.017514942;-0.010395044;-0.009507437;0.029436465;-0.043480787;-0.081803426;-0.0009992932;-0.051149614;0.1373038;0.0020182594;0.013111995;-0.014428574;-0.10870805;-0.10563441;0.07159105;0.049045894;0.046337098;0.05695786;0.059637364;0.037968602;-0.06718055;0.048743878;-0.044584796;-0.08309704;-0.024895752;0.024959961;0.14272113;0.15009986;-0.13131168;0.008875739;0.0013203686;-0.01690794;0.011388745;-0.024651919;-0.014781071;-0.024301654;-0.114731684;0.0154669015;0.007264244;-0.096229255;-0.10336734;-0.11225287;-0.12688042;0.06889641;-0.16700974;0.14275345;-0.03939244;-0.055496007;-0.011130829;-0.1751965;-0.020715084;-0.083728224;-0.093379915;-0.05703716;-0.07818592;-0.017625157;-0.075226046;-0.033172842;0.14262837;-0.00964215;0.058409665;-0.083224855;0.031420603;-0.05440094;-0.122562855;-0.012348365;-0.074791655;0.024354434;-0.058900595;0.035287615;-0.051576626;0.0106429765;-0.090977065;-0.018264785;-0.06647734;0.038475346;-0.07245572;-0.05722874;-0.021369109;-0.007696276;-0.07701856;0.05542482;-0.04146674;-0.042821035;-0.040533505;0.021196708;0.0099514965;-0.038714997;-0.028851725;0.019352056;-0.04630718;-0.0903542;0.008152498;0.046470284;-0.08641416;0.038396705;-0.030209623;-0.028589075;0.003593607;-0.029813327;0.00216747;-0.06815515
0.017705549;-0.13765405;-0.065878265;-0.036463182;-0.11638334;0.024670422;-0.1491037;0.026140964;0.030154286;-0.1309735;-0.11490843;-0.03564839;-0.07339951;0.007315618;-0.03708115;0.031166632;0.09361906;-0.121006414;-0.119967155;-0.12924442;-0.015107774;-0.036073573;0.08865872;-0.09556587;-0.108713;0.10884511;-0.092651986;-0.026705772;-0.10797554;0.0012665135;-0.06830853;0.03732629;-0.05457893;-0.02927772;-0.05741657;-0.08367011;0.034216337;0.0342644;-0.06193505;-0.060883466;-0.013072738;0.073958516;-0.07924956;-0.09965059;-0.090714045;-0.16482976;-0.060207017;-0.09986683;-0.05140586;-0.014543826;-0.09641194;0.051527467;0.054320823;-0.04717541;0.09820696;-0.0054162955;-0.026065568;-0.005110087;-0.0767352;0.055453278;-0.014730288;-0.12995073;-0.12863107;0.03843599;-0.09121799;0.044628214;-0.06169614;-0.009778066;-0.040210865;-0.0172587;-0.020961283;0.09920432;-0.022047289;0.008052446;-0.1810843;0.007454161;-0.034664374;-0.16374522;0.14129473;-0.006010315;0.0043673003;-0.048063155;-0.07146162;0.05794096;-0.09858426;-0.06609593;0.046772774;0.06147514;-0.0056337696;0.06266558;0.05788397;-0.079399556;0.011370328;-0.0045859404;-0.041996174;0.028740749;0.02053352;-0.10777913;-0.010144892;-0.052046895;-0.020380693;-0.05944146;0.07109248;-0.020653829;0.042691033;0.0628357;0.07822414;-0.15719163;-0.12586118;-0.0733791;0.0023537017;-0.017481156;-0.10506674;-0.0046144393;0.040482495;-0.036050115;-0.015763605;-0.09062481;-0.12596177;0.048273727;-0.023283197;-0.022768918;-0.1502291;-0.039445534;0.046860375;-0.004179331;0.047184933;-0.011294006;-0.08345004;-0.10352957;-0.11861672;-0.03232499;0.22458163;0.08797956;0.056968447;-0.04276842;-0.08215915;0.021263523;-0.1861335;-0.08683153;-0.066655345;0.020500496;0.010826488;-0.024201185;-0.08726291;0.028797677;0.06752135;-0.08356576;0.02832519;-0.03779941;0.044079214;0.032542937;0.062164545;0.18478662;0.08307576;-0.03154287;-0.10337176;-0.23221865;-0.093856;-0.13612776;-0.109943494;0.021175416;-0.004833803;-0.0870367;-0.0888679;-0.09726719;-0.08816354;0.01697302;-0.118381195;-0.090989366;-0.10415162;-0.0012972492;0.062281772;0.047971833;-0.09819239;0.013019856;-0.05544688;-0.06439851;0.110801294;-0.099292524;-0.055342656;-0.14205578;-0.09685219;0.012642146;0.011211438;0.066560924;0.037116833;0.098446175;0.004966787;0.0104690455;-0.10915113;-0.08579624;0.0091307955;0.04420711;-0.032149788;-0.10941205;-0.13570249;-0.03733796;0.1183064;-0.11430512;-0.068211265;-0.081427015;-0.032752275;0.026295895;0.017252667;-0.021393567;0.036555655;-0.032595437;-0.0865737;-0.0828047;0.1429827;-0.124251;0.04571247;0.11885019;-0.07230357;-0.15382855;-0.039861396;-0.124475434;-0.064576946;-0.04144397;-0.021557936;0.06555355;-0.086959794;0.04039165;0.04191729;0.013410053;-0.09208381;0.0809083;0.023808887;0.17386487;-0.11154357;-0.086355925;-0.14162758;-0.06701673;-0.058599222;-0.07439419;-0.05904724;-0.08090527;-0.08128209;-0.08635415;-0.041516975;0.082199484;0.08398876;0.061059754;0.056946903;0.014442602;0.045752507;0.023744375;0.09829336;-0.03443141;-0.012866365;-0.004068513;0.0705826;-0.082559094;0.042671923;0.044217397;0.03162538;-0.06647209;-0.09691733;-0.045750916;-0.07308388;-0.08342806;0.06309377;-0.11562602;-0.05548205;-0.08233718;-0.07839097;0.077298835;-0.06893072;0.058708258;-0.0020666714;-0.06561474;0.0070746215;-0.057891343;0.046593025;0.040191993;-0.062447485;-0.14837915;0.002730283;-0.026325282;0.11842944;0.07884648;0.030770786;-0.030957952;-0.09249147;0.03640094;-0.012362006;-0.054201063;-0.07055242;-0.09377037;-0.117819406;-0.048815303;0.0004667436;0.06994871;-0.013923684;0.011586504;0.077074915;-0.0063027646;-0.038419396;-0.05121455;-0.023808302;-0.19044721;0.0007833348;0.0602143;-0.043769076;-0.03985322;-0.00770414;0.0022500244;0.14711393;0.014296646;0.0042137825;0.06325502;-0.035701573;-0.10778694;-0.13057132;-0.0830657;0.022709008;0.039266616;0.042036872;-0.010780682;-0.120378904;-0.09950065;0.014683853;-0.084357254;-0.037362017;0.022932464;-0.0012095639;-0.05947677;-0.044682838;-0.12341104;-0.029933633;-0.005335502;-0.07886799;-0.108325556;0.09552073;-0.08622324;0.036875777;-0.061852317;0.12690298;-0.035240818;0.08583046;0.007833049;-0.0514345;0.03900604;-0.043442693;-0.13046078;-0.01738448;-0.033510715;-0.03199114;-0.03157282;0.17414777;0.15926293;-0.057205405;-0.124942124;-0.05204989;0.036979727;0.08031721;0.055754233;0.01269415;0.01404975;0.097610116;-0.09461128;-0.15116204;0.03679441;-0.05186626;-0.064552784;-0.1367483;-0.06127527;-0.026863089;-0.027890664;-0.05648748;-0.001854355;-0.055443883;-0.034769047;-0.022513136;0.033755634;-0.055711072;0.022018839;-0.0529866;-0.04056379;-0.0091337375;-0.013909456;-0.16676053;-0.03154707;-0.06822184;0.058056895;-0.080621265;0.05738209;-0.047418807;-0.05501683;-0.0074982406;-0.11810695;-0.062494792;0.032295518;-0.0060217;0.044241603;0.03108439;-0.03657324;-0.011556214;-0.118084006;-0.037623234;-0.050677296;-0.06636798;-0.06011086;-0.031346146;-0.05410361;-0.09194835;-0.027411776;0.06571859;-0.056514435;-0.05705817;-0.06722844;0.03294385;-0.13575369;-0.008008738;-0.054592807;0.021083191;0.11074983;-0.06903254;-0.041162442;0.004711742;-0.03556941;-0.103062004;0.050887737;-0.098550566;-0.047122154;-0.058614183;-0.01855244;-0.16229843;-0.046593748;-0.030707361;-0.079991475;-0.014705327;0.021384686;-0.018273424;-0.03176641;-0.08156588;-0.12702875;-0.040069833;0.037314616;0.15344714;0.085419096;-4.4042812e-05;0.060505558;0.075651065;-0.0058655324;0.111274414;0.07275566;-0.06263662;-0.08240344;-0.0066519124;-0.06649152;-0.055624027;-0.13742219;0.13394125;-0.12580046;0.07481571;0.0054302947;-0.048793767;-0.10696994;-0.05375521;0.06613475;0.0772739;-0.02933741;-0.031632215;-0.028457372;0.007002839;-0.032843307;-0.07347993;-0.009927544;-0.03934987;0.08116845;-0.14400272;-0.019077456;0.072647125;-0.11501629;-0.11345908;-0.071616806;-0.02365254;0.01923472;-0.07636669;-0.12364662;0.07741469;-0.04934753;-0.021374917;0.022844827;0.013998178;-0.05255675;0.09180701;-0.05085855;-0.040049247;0.10559408;0.06167692;0.04364754;0.052929208;-0.06996817;-0.08561522;-0.06196839;0.0148435915;-0.06622437;0.10668605;0.07941408;-0.20342077;-0.04077899;-0.087017804;-0.027398182;-0.0017897631;0.08902226;0.09608645;0.036846463;-0.0007305895;0.039638266;0.04198844;-0.06995994;0.013842242;0.023074899;-0.15459348;-0.07847159;-0.15791951;0.021795698;-0.037920777;0.04794687;-0.05753716;-0.054408647;-0.006529668;-0.020982023;-0.11825596;0.00074395526;0.008611113;-0.026940795;-0.044186596;-0.035107773;0.06638993;-0.11613466;0.0608536;0.025579717;0.0071137776;-0.10701528;-0.11665864;-0.13878506;-0.0047763423;0.0059480206;0.0813869;0.027735006;-0.14926004;-0.039974056;-0.071261436;0.055570383;0.031984244;-0.10208311;-0.07481704;-0.00930405;-0.11777384;-0.08754889;-0.024458533;0.13181199;0.017879652;0.042417914;0.05588981;0.033368953;-0.027763262;0.04911146;0.0075505534;0.025900379;0.040353704;-0.04333045;-0.05468059;0.06709911;-0.09517601;0.0373759;-0.038328387;-0.11552717;0.0427881;0.009991004;-0.024029855;-0.056356557
-0.02186609;-0.055138037;0.031664427;-0.07774294;-0.15182576;-0.06261017;-0.10670121;-0.020655837;0.08649379;-0.19176191;-0.019450929;-0.14977105;-0.092860214;-0.069318436;0.06449301;0.044609807;0.01978897;-0.063799754;-0.06686255;-0.15956602;-0.08862577;-0.09762015;0.09729034;-0.092618555;-0.0939599;0.088918306;0.039577972;-0.14354986;-0.16594976;0.054690138;-0.06602651;0.079525255;0.017230889;0.046964195;-0.04025951;0.06157909;0.0042750062;-0.049472924;-0.11792637;0.008811256;0.06433147;-0.03804032;0.001634834;-0.13668199;0.01216451;-0.086574875;-0.10219478;-0.10364761;-0.02446046;-0.007898672;-0.20904562;0.032929737;-0.062461726;0.09342664;0.049272563;-0.08591198;-0.0557078;0.04858392;-0.122419454;0.053528953;0.03223298;-0.14468716;-0.050104816;-0.018532995;-0.038732026;0.006694428;0.003832752;0.06538929;-0.052060384;0.037957244;-0.10033563;0.0634602;-0.035884168;-0.01794338;-0.06641314;-0.0027223073;-0.065881684;-0.114624836;0.035674855;0.010921087;-0.057063404;0.01096631;-0.096716575;0.0794681;-0.11934828;-0.1734895;-0.03709373;-0.063092165;0.027272467;-0.090342484;-0.0800885;-0.034304585;-0.10200627;-0.06331144;-0.060492646;-0.09939719;0.13889393;0.050332323;0.054579653;0.043535866;-0.08716907;-0.024272734;0.106934614;-0.14696005;-0.055999666;0.0669884;0.071331516;-0.15961936;-0.09804395;-0.115125485;-0.01599323;-0.09162367;-0.09620662;0.005779548;0.052441843;-0.03321292;-0.1149729;-0.035737645;-0.23707232;-0.070345856;-0.062408414;-0.09550816;-0.012255105;-0.075110085;-0.0016783159;-0.02211829;-0.073591724;0.070691995;-0.027262129;-0.11344571;-0.04949112;-0.14831978;0.21032366;0.16936652;0.093171135;-0.03448778;-0.0948694;-0.04643563;-0.12944247;-0.16403045;-0.10767709;-0.05344877;-0.10204535;0.013372156;-0.06827744;-0.069492266;0.06318106;-0.09990658;0.0065530636;0.04833175;-0.07322992;0.042880572;0.020634698;0.13568792;0.15771784;0.07040889;0.011346178;-0.23485696;-0.079252094;-0.09117047;-0.039018635;-0.06569425;-0.018063404;-0.027997062;-0.052312654;0.030216558;-0.07763689;-0.044932242;-0.131889;-0.09575119;-0.065071836;0.06032093;0.011791793;-0.07441663;-0.057112616;-0.041241962;-0.09223079;-0.017920133;0.019579891;-0.13048452;-0.12386222;-0.13192822;0.015858686;0.0046780226;-0.04084919;0.011769863;0.016543241;0.09249481;-0.040361665;-0.02650765;-0.038435407;-0.10295562;0.013575683;-0.055025768;-0.0893241;-0.09913139;-0.029329631;-0.062698044;0.05142562;-0.026572587;-0.08211342;-0.034641873;0.0024066519;0.019093564;0.002727372;-0.0998991;-0.10377461;-0.020080356;-0.019327858;-0.08205258;0.15600576;-0.064268105;-4.106232e-06;0.0145889865;-0.075186566;-0.05228509;-0.030211162;-0.018289419;0.056579843;-0.089072876;-0.08468442;-0.027930202;-0.023895303;0.024827067;-0.037560623;-0.05270309;-0.16905321;0.0065036574;0.030965798;0.103500746;8.9623485e-05;-0.013290771;-0.04681316;0.061220247;0.016365854;-0.14525974;0.048087478;-0.05094352;-0.16749188;-0.11675974;-0.021444684;0.109246016;0.06232938;-0.0054911794;0.0061820257;0.031026345;0.03504906;0.010619992;0.0034655463;0.06519837;-0.026090905;0.00863632;0.038436104;-0.07640578;0.08300702;-0.038272154;0.015799236;-0.019110402;-0.0819305;-0.050870433;-0.057028607;-0.059146687;-0.027298609;0.02965001;-0.15247554;0.021902619;0.0328669;0.021341685;0.071074724;0.07025884;0.045035496;0.07849708;-0.032732267;0.042116202;-0.04393424;0.0015598787;-0.044848967;-0.029136008;0.046001498;-0.12328811;-0.02424262;0.07167392;0.03244524;-0.104577094;-0.041422922;-0.043379925;0.021465229;-0.15307477;-0.0021914314;-0.054442596;0.021292033;-0.012730046;-0.07517624;0.045937832;0.060256023;-0.072274044;0.15505172;-0.1230247;-0.01443783;0.010123262;-0.12561095;-0.23234226;-0.06815847;-0.05023659;-0.011855124;-0.078035735;0.07222369;-0.09425924;0.018450357;-0.08035623;-0.11021296;-0.005177755;-0.11032535;0.053811423;-0.14344266;0.022927534;-0.040156756;-0.079896964;-0.094212815;0.06933017;0.003989163;-0.05551923;0.03373174;0.048244584;-0.0949021;-0.092259884;-0.025779745;0.076174885;-0.07062587;0.027777413;0.041532308;-0.073267095;0.020320999;-0.1227867;0.14434054;0.02408828;-0.101624474;0.056254253;0.13621578;0.008256326;-0.016357828;0.09212552;-0.03822678;0.08464048;-0.10899866;-0.069573306;-0.011664;0.0056452476;-0.06358346;0.037852637;0.03604803;0.05957013;-0.002610577;-0.038483374;0.05689227;-0.003493326;0.04167818;0.04529394;-0.026009986;-0.09317972;0.0072445245;0.023717782;-0.116713755;-0.04933685;-0.008422912;-0.078113474;-0.09794256;-0.022208676;0.0029246202;0.041317675;-0.0031316516;0.061481405;0.03138838;-0.08656361;0.019698208;0.053403113;0.033236288;0.012828645;0.028132167;-0.12455771;-0.09592198;-0.046301827;-0.052116685;-0.12824447;-0.13315251;0.10711442;-0.08647498;0.008015604;-0.109382324;-0.045439944;0.007098341;0.002410422;0.029850226;-0.06733069;0.06401071;0.068079375;-0.10836003;-0.1286554;-0.12453877;-0.19848296;0.030080015;0.017623434;-0.11553097;-0.043491326;-0.08165337;-0.051555865;-0.1143397;-0.019575492;-0.08655246;-0.11639332;-0.19172977;0.005634795;-0.0054483023;-0.15605755;-0.066641435;0.012683076;-0.0038110847;0.14219724;-0.043671377;0.040251892;-0.10148116;-0.033034272;-0.119038;-0.019043084;-0.055159397;-0.02641513;0.03325195;-0.02700435;-0.1333645;-0.018621832;-0.093241274;-0.028344467;-0.0010665966;-0.05777493;-0.07454462;-0.034037154;0.038217276;-0.06506699;-0.07163903;-0.018045837;0.09961174;0.07810301;0.026310557;0.083526894;0.09936605;0.084318854;0.1267095;0.08727046;-0.07032595;0.037251323;-0.14095247;0.02934165;-0.065116845;-0.044220667;0.09019183;-0.1398768;-0.002962989;-0.03164998;0.07266282;-0.0047981758;-0.042225912;0.04289826;0.003869817;-0.036610696;-0.045735765;-0.037185285;-0.0040482474;-0.052528013;-0.120142564;0.015385204;-0.029505676;-0.060399167;-0.06684956;-0.04442779;0.06216107;0.018009083;-0.044043176;-0.049654115;-0.058901705;-0.048237365;-0.0039014008;-0.06840608;0.19026586;0.047506057;-0.025043866;-0.00784235;-0.0070073646;-0.16018094;-0.026392115;-0.05001908;0.03109217;0.018551737;-0.0835845;-0.044834863;0.0072884103;-0.00088808214;0.033086102;-0.12306563;-0.042511243;-0.09588692;0.08604059;0.10820164;-0.19381072;-0.0031314474;-0.093832314;-0.010481169;0.043365154;-0.015813857;0.07330169;-0.052561563;-0.015789526;-0.04273441;0.04615317;-0.07115477;0.00049848837;-0.088405274;-0.2791914;0.07236024;-0.06408932;0.15002969;0.0013571908;0.004362741;-0.041210677;-0.21552178;0.033327397;-0.086932175;-0.11362284;-0.033695597;-0.047039077;-0.074029915;-0.11025023;-0.06585918;0.16399904;-0.10047215;0.07095249;-0.0724977;-0.078846544;-0.04967731;-0.12493464;-0.054090865;-0.11640128;-0.06781939;0.044326827;-0.066030964;-0.024285208;-0.069951534;-0.060234815;-0.020583337;-0.01301371;0.041789595;0.00992548;-0.071178675;-0.14008026;-0.034157984;-0.11866274;0.10309505;0.06894813;-0.105103716;-0.040227685;0.043498028;-0.019888729;-0.07320585;-0.04519288;0.0040678666;-0.045774233;-0.060914356;0.063131355;0.07152176;-0.044021733;-0.109612115;0.044720296;0.02868291;-0.078353435;-0.022370486;-0.034016397;0.050278865
-0.021351501;-0.070120454;-0.06001243;0.012497983;-0.006819479;-0.12242445;-0.08209691;0.023513542;0.057917926;-0.062498044;0.022042552;-0.10805356;-0.018759992;0.0046487562;-0.096670136;-0.051832687;0.03878549;-0.110205755;-0.09058474;-0.085833766;-0.038049527;-0.05985677;0.03927695;-0.12059455;0.029525582;-0.09929767;-0.024946265;-0.12832926;-0.0056604086;-0.011354156;-0.056503408;0.15538594;-0.122325405;0.0786863;-0.0101388125;-0.058572125;0.026034534;-0.09227982;-0.06252268;-0.0348114;-0.0014795791;0.10744833;-0.060989127;-0.08049601;-0.08007511;-0.045146193;0.0533031;0.03967182;-0.06522859;-0.10602589;-0.1559725;0.018838601;-0.011060472;0.08025299;0.1091801;0.026793323;-0.03378886;0.052408583;0.006084727;0.02538722;-0.06803128;-0.047943413;-0.039162472;0.052435197;-0.0035757027;-0.062346835;-0.05044195;0.069228604;-0.03521663;-0.0035088074;-0.10081512;-0.032165214;-0.11613226;0.046395063;-0.13745454;-0.009899281;-0.0063834568;0.0058682235;0.060758043;0.016688786;-0.02476501;-0.031008985;-0.032960206;0.08714807;-0.036927618;-0.16206901;-0.074376605;-0.062373273;-0.06278648;-0.06960169;-0.041673448;-0.08193441;-0.045999106;0.026478246;0.024555638;0.037485033;0.0757971;-0.08399167;-0.062120322;-0.0762029;0.019338073;0.012712672;0.07153753;-0.057335448;-0.03521818;0.12544265;-0.06918191;0.006548204;-0.03026126;0.031060593;-0.047584236;-0.062371;-0.021336649;-0.04727863;0.027465023;-0.03522162;-0.11285195;-0.023510821;-0.07587426;0.03488205;0.045518473;-0.0145835215;-0.049412757;0.02472967;-0.04571097;-0.11296784;-0.032743823;-0.020516135;0.0009139468;-0.004368378;-0.03430829;-0.08915646;0.13355099;0.13695046;0.09578733;-0.09615378;-0.058949333;-0.048212986;-0.106584;-0.14141999;0.0012429775;-0.025204642;-0.124669194;-0.007226347;-0.124092825;-0.13524854;-0.079025;0.05970079;-0.00038997515;-0.04409505;0.0088173095;-0.053888883;-0.08207978;0.13740718;0.040571067;0.11363793;-0.0029417716;-0.120385304;-0.056293335;-0.10568438;-0.061633483;0.014586913;-0.031860564;0.03472162;-0.083581366;-0.027677076;-0.006707588;-0.08925539;-0.07165654;-0.0983264;-0.03379541;-0.003833157;0.039561898;-0.0341935;-0.08802004;0.03615899;-0.063543856;-0.014223181;-0.055913888;0.029584019;-0.035277676;-0.015017946;-0.070757896;-0.01268664;-0.073297374;-0.0071512205;-0.08940365;0.050810963;-0.052466597;-0.039624874;-0.124888316;0.019831423;-0.061572634;-0.020788787;0.005344333;-0.031832337;0.009654513;-0.03485358;0.07841247;0.0010966442;-0.057770345;-0.08617623;-0.03369647;0.040089052;0.0040970524;-0.108417995;-0.061745346;-0.08018832;0.045631234;-0.18828137;0.041383237;-0.104858965;-0.06034228;0.01870938;-0.022328112;-0.06928759;-0.12023193;-0.015810983;0.0176127;-0.004004983;-0.017875616;0.060884316;0.013731768;-0.024877232;0.033320505;-0.08423329;-0.14970425;0.07117863;0.048092715;0.10217301;0.01994958;-0.062429547;-0.06037981;0.082898214;-0.0490137;-0.093931355;-0.04527313;-0.0516238;-0.046503033;-0.09192405;-0.022776058;0.024423316;0.08825137;-0.034402177;0.030054476;-0.017128153;-0.06430294;-0.054646097;-0.0076339003;0.03511193;-0.062387504;0.021110607;0.022212392;-0.051844224;0.09158624;-0.028503722;0.007261583;-0.030266117;-0.044651095;-0.026995288;-0.07328178;-0.07598392;0.03584897;-0.0820007;-0.09896235;-0.02513915;0.019620081;0.04896449;0.05109724;0.051752694;0.028164921;-0.029047167;0.01286927;-0.011150045;0.013554535;0.043936428;-0.016718557;-0.10616619;0.055411153;-0.065368876;0.10491647;0.080341436;0.037034594;-0.15467428;-0.095852554;-0.037140388;0.014874352;-0.051546328;-0.12690382;-0.048482616;-0.119382955;-0.0942966;-0.010601633;0.0486475;-0.06312556;-0.0042334674;0.09920194;-0.14650603;0.048644233;-0.089287184;-0.12083793;-0.060517453;0.04107406;-0.012688924;-0.1236081;-0.01741849;-0.06449951;-0.021905856;0.085754596;-0.07868049;-0.12908086;-0.0056461236;-0.08365884;-0.007055845;-0.023122797;-0.049177676;0.029897679;-0.103531204;-0.08042919;0.10234856;0.022807688;-0.07273593;0.0009890955;-0.06358873;-0.027796345;-0.08941328;-0.07107579;0.017713116;-0.105637796;-0.0022015949;0.122519754;-0.053114306;-0.106199786;-0.15554795;0.13079023;-0.023761204;-0.006504912;0.064989604;0.09660008;0.02074138;0.014117177;0.06634413;-0.07656416;0.06657221;-0.107121475;-0.017292568;-0.027276617;-0.1025176;-0.08471356;-0.09953123;0.099673636;0.015670225;0.049107593;-0.07476255;-0.0053675314;0.05520049;0.05424812;-0.08243096;-0.05026406;0.042627938;0.06332991;-0.020075392;-0.122779556;0.025988463;-0.12410588;-0.026042538;-0.11161957;0.0009962154;-0.0031639454;0.005173774;-0.00063658523;-0.039409894;-0.043134786;-0.031089388;-0.12161989;-0.022918524;-0.06876348;0.004174763;0.015571477;-0.05938388;-0.06886415;-0.1079145;-0.028995896;-0.016132388;-0.09305326;0.14680433;-0.06886775;-0.10713634;0.053607877;0.042405833;0.010871448;0.033351026;0.052371487;-0.046300627;-0.038400996;-0.0185572;-0.06981236;-0.0513233;0.019825194;-0.22679797;0.05230316;0.05852466;-0.073402904;-0.17715813;-0.07289322;-0.06326608;-0.096861474;0.032260116;-0.05573406;-0.14317079;-0.048716918;-0.084280215;0.033894088;-0.13609345;0.067887425;-0.072650224;0.0010914153;0.025622085;-0.029933495;0.07618373;-0.11143655;-0.057354867;-0.07930923;0.017816123;-0.09405749;-0.123410404;0.13215886;0.0043449267;-0.13323368;-0.044125557;-0.114974216;-0.06887086;0.049144927;0.0054620844;0.009561256;0.071201354;0.016611477;-0.1350597;0.03171088;-0.0448015;0.14325462;0.09343152;-0.08683104;0.048383117;0.021168116;0.063915536;0.13714871;0.06365476;0.037193753;0.023098435;-0.018150581;-0.038648795;-0.02166496;-0.1716035;0.13192761;-0.12244937;-0.011307035;0.051443398;-0.0844824;-0.121463865;-0.031775534;-0.051202875;0.0040360047;0.043790665;-0.039601337;-0.044607617;-0.0069184434;-0.08240408;-0.083406225;0.0075659556;-0.08749178;-0.06760116;-0.057197224;0.007918217;-0.018020384;-0.12301611;-0.07582064;-0.08248021;-0.057742223;-0.08099411;0.046029;-0.03498841;0.06692768;0.06875587;-0.025890358;0.011820803;0.017844398;-0.038703833;0.04464537;-0.06338104;0.023165498;0.12840603;-0.09337243;0.00867562;-0.0840365;-0.03801621;-0.0076952777;0.029786117;-0.04786119;-0.011038474;0.0651513;0.027676415;-0.1235904;0.01597443;-0.104977585;0.04037153;0.023402588;0.030006122;-0.03225942;0.008729704;-0.073778674;0.037742887;0.029488053;-0.051388;-0.13918385;-0.023806512;-0.16353337;-0.071139656;-0.095824026;0.15061629;-0.12307182;-0.096705854;0.04897553;-0.06056882;-0.12729222;0.027706083;0.028862845;-0.08857419;0.03441279;-0.10157998;-0.006493178;-0.080588676;0.1117292;0.031864695;-0.039686054;0.012444281;-0.04201963;-0.064698875;-0.1606304;-0.048875388;-0.012540428;-0.05625102;-0.068837605;-0.008200838;-0.048099842;-0.06744406;-0.12167899;0.047510568;0.0150716845;-0.014663027;-0.11775665;-0.046470005;-0.06665938;-0.046069346;-0.04879661;0.05832574;-0.057224825;-0.08895351;0.06998023;0.089694686;0.012012675;-0.0002373678;-0.051508296;0.05091095;0.014795148;0.012745762;-0.0132472515;0.0014933333;0.03554232;-0.026869206;-0.011819082;-0.032888997;0.0061229686;-0.02701473;0.008512166;0.032389976
-0.01882471;-0.04143066;-0.10338598;0.007359343;-0.03002954;-0.050701685;0.015456037;-0.065395094;-0.060444724;-0.12306641;-0.108536415;-0.17340466;-0.061501067;-0.045309354;-0.010120671;-0.027847013;0.0597727;-0.08684425;-0.07175191;-0.04422703;0.029159078;-0.07120533;0.068434864;0.030846821;-0.09927005;0.048910197;-0.06716179;-0.07613239;-0.07435313;0.013894767;-0.16852999;0.11984221;-0.107298814;-0.018807543;-0.029129526;-0.110357895;0.05610464;-0.032213498;-0.06925559;-0.098679654;0.00322627;0.086551;-0.04925345;-0.08542692;-0.07343493;-0.02818965;-0.08199629;-0.00732839;0.028919391;-0.043523945;-0.18796009;0.0445603;-0.04946795;0.0018375014;0.0023804116;-0.10144536;-0.013110354;0.03985257;-0.08865726;-0.055767518;-0.083300106;-0.12579322;-0.054583244;-0.043364234;-0.065296486;0.0399073;0.029945439;0.038984783;-0.06502272;-0.037966616;-0.06766072;0.13602464;0.0022906058;0.05385331;-0.018118659;-0.011522792;0.037693225;-0.1548553;0.044032767;-0.011626437;-0.0012995828;-0.09242476;-0.020931361;-0.039547566;-0.15050223;-0.0061559123;0.028670285;-0.07532682;-0.108072735;-0.044746276;-0.027867803;-0.08199759;0.027829466;-0.0972907;0.044524822;-0.08223229;0.14862908;0.03816307;-0.08782879;-0.027703946;-0.055815075;0.06967375;0.06860738;-0.05228771;-0.07870634;0.14615205;-0.0313853;-0.03488666;-0.07536558;-0.0957538;-0.024540292;0.014297776;-0.07452878;0.029707657;-0.08249378;-0.06772529;0.0062063583;-0.09629928;-0.14101268;0.009747917;-0.069279365;-0.06180348;-0.0106180785;-0.11439174;-0.09146016;0.03643404;0.03089498;0.07577411;-0.004647842;-0.039019257;-0.12962148;-0.061728805;0.13369416;0.12869936;0.002421272;-0.02537015;-0.039309997;-0.00861654;-0.12075725;-0.12647583;-0.08510834;0.039935257;-0.12421419;-0.0722484;-0.1495811;-0.00075052306;0.035873808;0.02666301;0.042933974;-0.10051212;-0.029619249;0.017089628;0.0465231;0.13539237;0.13498516;0.07146818;0.018939245;-0.19845393;-0.08171123;-0.10745857;-0.014227516;-0.03292173;0.046177134;-0.102020375;-0.050208732;-0.016126141;-0.03390537;-0.101987936;-0.16024825;-0.020558173;0.014046455;0.04363307;0.046037283;-0.08320296;-0.114838846;-0.0007631842;0.010024718;0.018481232;-0.11177865;-0.1243636;-0.074967295;0.015890181;0.039529845;0.047127225;-0.08125673;-0.043200187;-0.023570465;0.12421699;-0.046120428;0.02553285;-0.06653259;-0.07621244;-0.03339736;0.0030601884;0.019219209;-0.03186665;-0.055151712;-0.0056337477;-0.01920196;-0.08129849;-0.06626615;-0.1416134;-0.0929478;-0.056675114;0.01972763;-0.09482215;0.03759839;-0.15758766;0.041782595;-0.21820718;0.08276669;0.03044389;-0.05536383;0.025009077;0.07771586;-0.14427832;-0.040718745;0.043466073;-0.030506821;0.04298828;-0.041177098;0.104284495;0.057982944;0.036067408;-0.034996863;-0.076355994;-0.15875894;-0.002201151;0.08900611;0.056143712;-0.037294015;0.05899051;0.018405125;-0.010753209;0.0051203724;-0.03526801;0.038377915;-0.03746647;-0.049184207;-0.09789058;-0.005151655;0.07218754;0.050894678;-0.04221162;0.0057821707;0.09651497;-0.019948322;-0.14125791;0.0679293;-0.05985369;-0.06341243;-0.056537416;-0.09743815;-0.05323673;0.08152674;-0.059915297;-0.03985055;0.036665626;-0.0891709;-0.061673686;-0.077232055;0.02529502;0.038113393;-0.08702318;-0.15056562;-0.050626032;-0.045494612;0.021912176;0.036499627;-0.047081836;-0.03842952;0.08822988;0.059189618;-0.070255354;0.07850919;-0.03599092;0.06722055;-0.12898779;0.13670406;-0.123696275;0.01416685;0.0061866054;0.0064193835;-0.05335491;-0.023911947;0.025949003;-0.06844588;-0.054843552;-0.062025156;-0.06042904;-0.024789333;-0.05219885;-0.07798457;-0.04814736;-0.077457435;-0.07255944;0.054666128;-0.15775245;0.059504353;0.028972672;-0.0630834;-0.12707365;-0.038549975;-0.12171667;-0.13087119;-0.04423875;-0.11458466;0.020059312;0.07837107;-0.052373964;-0.08611243;-0.04649648;-0.097806;-0.089288704;-0.053182777;0.036941763;0.046682;-0.07180482;0.03789659;-0.028993024;-0.08182101;-0.031133784;0.04736874;0.05708888;-0.08328446;0.039605495;-0.021196192;-0.013406712;-0.043868847;-0.0038866163;0.06627164;-0.1404443;-0.08572417;-0.08058526;0.14800282;0.010474202;-0.0048690755;-0.053578127;0.05724556;-0.07597628;-0.031106915;0.05076676;-0.0038346373;0.024313387;-0.08618425;-0.108969554;-0.060485017;-0.0459713;-0.08187257;0.016138757;0.12522985;0.03984734;-0.076137155;-0.10485226;-0.04045754;0.034352567;0.07841715;0.037386328;0.029251816;-0.00051062164;-0.03550732;0.03905875;-0.006966896;0.09331216;-0.088598914;-0.08402721;-0.0048417156;0.04372307;-0.13090989;0.028851947;0.026789082;0.0017673152;-0.059128363;0.01673735;-0.0143338265;0.005516933;0.041062575;0.07867543;-0.035292715;-0.058842666;0.021792507;-0.010750665;-0.02882532;-0.10616019;-0.023952164;0.14863116;-0.11404278;0.020465376;0.050777335;-0.1066558;-0.110177346;-0.082820535;-0.03422308;-0.114660576;0.091405645;0.006234011;0.037366226;-0.17413037;-0.022236329;-0.22338262;0.10334525;-0.020423405;-0.058193658;-0.080588244;-0.02426468;-0.14138526;-0.12759021;-0.09292241;0.058838166;-0.04130896;-0.06479913;-0.12188686;0.11959535;-0.02621446;0.08288333;0.02114834;0.09381823;0.1269583;-0.05045524;-0.026351523;-0.08628298;0.06148856;-0.075115785;-0.016778687;-0.018321227;-0.095322914;0.1187011;-0.015923074;-0.10606594;0.03737965;-0.03625373;0.023366492;0.00815929;0.020860136;-0.12949094;-0.032194756;-0.023991251;-0.12339989;-0.040083446;-0.025747467;0.1335745;0.104626015;-0.11958332;-0.04010099;-0.010414781;0.13351426;0.07493323;0.010485071;-0.052172814;0.03398912;-0.05446256;0.01872297;-0.059925117;-0.16902342;0.13652407;-0.120666176;0.08021636;-0.006476751;0.06656501;-0.06542239;-0.09800846;-0.08686688;0.03580812;-0.03220291;-0.1114194;0.033643328;0.019886086;-0.11518648;-0.049301133;-0.050849877;-0.045994185;-0.08293828;-0.046988636;-0.012328636;-0.04477017;-0.023205431;-0.058878325;-0.07893593;0.023570701;-0.014622088;-0.014088276;-0.09026251;0.032195784;0.07756157;-0.07842243;-0.11316025;-0.0049730428;-0.08347045;-0.037897132;0.01462111;-0.083198205;0.013943409;0.0016794356;-0.086565934;-0.04102219;-0.01783276;0.011608808;0.0025824287;-0.09788466;-0.112574704;0.05939572;0.07389923;-0.1366286;0.036299303;-0.015802074;0.01395268;-0.060918473;0.016106153;0.004331515;0.011707515;0.023551904;0.03516009;0.060843088;-0.14031643;-0.071982;0.037759233;-0.2643719;0.01182886;-0.098680355;0.12770872;-0.09907095;-0.025091954;-0.034803133;-0.17460248;-0.043002754;0.001906017;-0.015548682;0.024113214;-0.10062135;-0.11024493;0.0069707935;-0.01340151;0.06956757;0.025370244;0.05646272;-0.005237894;-0.04876976;-0.069827914;-0.01775102;-0.10688867;-0.054720055;-0.03170762;-0.08425892;-0.042594902;-0.032633387;0.010833937;-0.11458118;0.010020469;0.040007897;0.038860664;-0.0564665;-0.09682713;-0.14091681;-0.024859464;-0.10379761;0.07515285;0.04287758;-0.07560997;0.0063680764;0.10693596;-0.05882582;0.025269004;0.048398905;0.09638469;0.04313308;-0.08659751;0.13900277;0.018724399;-0.04045572;-0.10728183;-0.06643419;-0.017580291;0.01095632;-0.053671405;0.009781703;-0.031710017
-0.069917746;-0.03572441;-0.0133714015;-0.059517026;-0.03821857;-0.0074482905;0.0029708708;0.076907225;0.019831622;-0.11021676;-0.034507167;-0.06381133;-0.16707806;0.039382245;0.042299543;-0.11674999;-0.04933231;-0.16965926;-0.011555741;-0.14002912;0.016737713;0.0036613438;-0.0034155445;0.030356485;-0.08098345;-0.092722125;0.041719247;-0.0014458713;-0.01793577;0.029068884;-0.06815853;0.1454507;0.02240815;-0.048165314;-0.09551834;0.00062378775;-0.023573227;-0.05566157;0.004466139;-0.023002764;0.050292965;0.012910348;0.061490655;-0.07327271;-0.009893645;-0.09030449;-0.05058035;-0.09319824;-0.027199842;-0.07200147;-0.061015453;0.0174113;-0.008007771;0.02860525;0.10221399;-0.09749934;-0.03158194;-0.038222767;-0.10267222;0.027161231;-0.03921125;-0.09576796;-0.13388503;-0.05656776;-0.09901606;-0.061051913;0.015437132;0.067844614;-0.08461698;0.00020781433;-0.11348266;0.113508366;0.016567854;0.015155254;-0.08795895;0.031079993;0.01569278;-0.13717677;-0.036951303;-0.05863566;0.021257404;-0.052905697;-0.0014658293;0.07797134;-0.091135845;-0.12589075;0.08727961;-0.050282475;0.03220765;-0.04822463;-0.083943605;-0.062802054;0.03438852;0.0032689078;0.013907533;-0.07209055;0.04641104;0.0028374733;-0.08691773;-0.0018556912;-0.034384206;0.01575552;0.082331374;-0.0038411827;0.009155988;0.16921818;0.038420193;-0.007001329;-0.14131778;0.03435898;-0.0063343863;0.021333244;-0.03941947;-0.059146866;-0.08786081;-0.082969986;0.023031985;-0.0982887;-0.15796578;-0.087753214;0.06259478;-0.10259487;-0.025939073;-0.04093352;-0.012212596;-0.064524345;-0.068201676;-0.073687896;0.009015391;-0.06100112;-0.10249541;-0.12839931;0.15069394;0.062692806;0.039513167;0.033974428;-0.029180596;0.04703931;-0.07329577;-0.071774386;-0.04148001;-0.08569773;-0.12248025;0.0052078688;-0.049264196;-0.093726024;0.029751025;-0.044192143;-0.07813258;0.023584953;-0.058552947;-0.0064346096;-0.06815142;-0.0090640895;0.0748754;-0.025702577;-0.04510465;-0.15677947;-0.03104568;-0.06823663;-0.12565443;0.031772193;0.050992753;-0.051228385;-0.1110969;-0.024161171;-0.04918289;-0.023690948;-0.079807475;-0.11343375;0.043771803;0.050000023;-0.014376267;-0.022319982;-0.012419864;0.021356953;-0.07685582;-0.035835322;-0.018000288;-0.0984979;-0.112393185;-0.10328314;-0.09622148;-0.061427835;0.021122346;-0.080716535;0.019814337;0.12648374;-0.052325085;-0.03568618;-0.112527415;-0.057251777;-0.06232886;0.023565555;-0.100441515;-0.04419192;-0.07376418;0.06745312;0.10141331;-0.12063965;-0.019584319;-0.09619569;-0.009585211;-0.061799902;-0.07781795;-0.0012657946;-0.052291438;-0.13064957;-0.026394058;-0.17966981;0.08503633;0.032916915;-0.07103255;0.049497046;0.02508439;-0.13646002;0.03884607;0.0153229805;-0.04900689;-0.11016556;-0.077462584;0.09486235;-0.0053604594;-0.07943591;-0.065842725;-0.04716291;-0.14233896;0.13480859;-0.0083419075;0.00025269197;-0.011685442;-0.014562502;-0.025035102;0.036859162;0.0024175523;0.007447819;0.051407594;-0.037480067;-0.092567205;0.044147402;-0.06861819;-0.021519393;0.05185319;-0.03501983;-0.058549117;0.023433864;-0.085834734;-0.15788303;-0.00056911766;-0.00067550136;-0.06975716;0.015469948;-0.003803875;-0.12144757;0.044544425;0.03006115;0.060133893;0.05062825;-0.15118158;-0.113982685;-0.09234662;0.035151802;0.07076964;0.00025422135;-0.16413264;0.0056486405;-0.022771455;0.058346726;-0.037003785;-0.10303836;-0.050636273;0.02283326;0.010203789;-0.015468983;-0.0072621983;0.04828835;-0.004869115;0.0093585085;0.03461058;-0.09280842;0.0822621;-0.010391855;-0.047622573;-0.040055968;-0.06402627;-0.03372548;-0.026573101;-0.13727789;-0.06420562;0.006409022;-0.07689963;-0.003924394;0.025698546;0.049431436;0.029233582;-0.10433277;0.030028071;-0.119327925;-0.040557664;0.00019650784;0.0025179551;-0.10660556;-0.08086802;-0.09840494;-0.14460158;-0.03929674;0.049152523;-0.027091755;0.05658257;0.011907888;-0.10442467;0.0072677364;-0.0025826753;-0.064348236;-0.10091293;0.049981505;0.08975074;-0.0725544;0.038995832;0.10343327;-0.08008248;-0.04010533;-0.083998695;-0.005641608;-0.057454254;0.041632127;-0.018373417;-0.025504109;-0.12313521;-0.032160006;-0.021902293;-0.046976138;-0.0288722;-0.08298384;0.104012616;-0.034992825;0.031751573;0.05123136;0.028764552;-0.0010666819;0.024516227;-0.011809009;-0.085634604;0.07966147;-0.005695482;-0.06503628;-0.106004536;-0.023704693;-0.00060103566;-0.008314583;0.16450253;0.06627807;-0.017282978;-0.012334249;-0.07999875;-0.019697681;0.028232705;-0.013680681;-0.099237494;-0.022605965;0.032876607;0.033614434;-0.13425472;0.10755537;-0.12747726;0.044638146;-0.059177417;-0.082269736;0.0071273823;-0.006854129;-0.055385116;0.053239066;-0.10039243;-0.012601617;-0.05109668;0.01456699;-0.055698995;0.09183593;0.020643381;-0.094029985;-0.09043757;-0.053858284;-0.15064918;-0.12714021;-0.06985381;0.09852455;0.009241556;-0.00079619937;0.0009978447;-0.08622455;-0.08094345;0.016378747;0.015011628;0.039360058;-0.050608635;-0.106946275;-0.056667335;-0.17166846;-0.048216052;-0.20650123;0.08759002;-0.0057331403;-0.017989306;-0.16489968;-0.0992949;-0.056408204;-0.005930167;-0.066142865;0.019117098;-0.001930396;-0.054661714;-0.11343064;0.054598905;-0.10274668;-0.030817213;-0.10478631;0.036690053;0.115330234;0.034116793;0.010960011;0.040094685;-0.07871074;-0.13302092;0.036989637;-0.086327784;-0.013529346;0.0037982743;-0.0060860617;-0.15100855;-0.056087095;-0.017840711;-0.010602187;0.020909349;-0.095044255;-0.03658565;0.031277444;0.029595116;-0.1765873;-0.024227574;-0.08673486;0.13015871;0.10162943;-0.043808322;0.08692638;0.061100163;0.056253847;0.0658161;0.033909027;0.09909958;-0.08965549;-0.030879492;0.008353061;-0.16242097;-0.10347766;-0.034211196;-0.066657946;0.080421776;0.123640865;-0.0059855264;-0.110974506;-0.047363378;-0.006818098;0.0455434;-0.059983723;-0.09201079;-0.049477126;0.02752791;-0.042262986;-0.049312625;-0.05338921;-0.069841824;-0.054887883;-0.070643835;-0.011086945;0.07622631;-0.024806472;-0.053991936;-0.05735451;-0.022703815;-0.0814257;-0.004470477;-0.010786076;0.08750638;-0.06328121;-0.098772675;-0.003388796;0.035786703;-0.01733303;0.08383166;0.005687356;0.039493635;-0.009793551;-0.03352367;-0.098316915;-0.076818;0.025987042;-0.07747023;0.014823183;0.0079835355;-0.06299002;0.1717016;0.034216896;-0.19541281;0.043482512;-0.10694065;0.0052128993;0.006226737;0.0515517;0.06125145;-0.05390742;-0.05462295;-0.09656044;0.0066676163;0.0069587072;0.02575224;-0.06251634;-0.16610856;-0.019538287;-0.16849352;0.110831976;0.013665772;-0.018898467;-0.11087778;-0.12216403;-0.0847494;-0.03883486;-0.045754183;-0.10736668;0.0012496905;-0.008435698;-0.09954371;0.009930978;0.117657356;-0.07022295;0.06910519;-0.07985133;-0.068345055;-0.050040565;-0.101848245;-0.14369291;-0.017041923;-0.016397052;-0.07706426;0.062304452;-0.13348982;0.043949403;-0.16416001;-0.012313224;-0.028815975;-0.104903944;-0.0096045695;-0.018103315;-0.135598;-0.094582535;-0.07539693;-0.047317978;0.08053614;0.029855404;-0.026396308;0.10590133;-0.066988036;-0.06973387;0.07702334;-0.0428109;0.024731725;0.048096403;0.14507411;0.0067464868;-0.047010403;0.026058683;0.030532748;0.026296306;-0.020519104;0.013311975;-0.01294017;-0.01398073
-0.10453697;-0.024561288;0.034395542;-0.06459162;0.011492334;-0.06305913;-0.0054479605;0.044456262;0.036620647;-0.1831716;-0.061106037;-0.09283531;-0.06791233;-0.07819751;0.048099224;-0.091574684;-0.05599686;-0.11160804;-0.08088281;-0.07910716;0.042273544;-0.062357437;0.0138519965;-0.041751537;-0.10492028;-0.011970009;0.04025083;-0.018000444;-0.07769899;-0.00018111907;-0.20393345;0.09636191;-0.037627522;0.09831285;-0.09910279;-0.11141283;0.0012564985;-0.062541366;0.01608183;0.026161036;-0.08541435;0.1021665;-0.053292733;-0.027727425;-0.114745565;-0.015753308;0.020756712;-0.061957873;-0.07484006;-0.020698005;-0.09707859;0.056975916;-0.006590297;0.0015208723;0.06961118;-0.06690599;0.026345147;0.06582371;-0.09298955;-0.067659445;-0.06341542;-0.009073633;-0.088213824;-0.05230573;-0.005819796;0.009003103;-0.027309908;-0.0050154077;-0.027517859;0.020856503;-0.09666759;0.04668389;-0.07344422;0.0024348863;-0.17896847;-0.11190249;-0.05259638;-0.001364608;0.08796055;-0.00854827;0.020526128;-0.031331856;-0.0721536;0.053959057;-0.013455292;-0.10350743;0.056651242;0.019777728;-0.07145609;-0.09013625;-0.034348145;-0.078072675;0.0026158742;-0.10703625;-0.013087469;-0.06717776;0.16053735;0.05360847;0.0024181136;0.035645906;-0.07240655;-0.025579112;-0.031798236;-0.15250276;0.0099555245;0.21490578;-0.035373647;-0.08932543;-0.050031845;-0.11317445;0.08962145;-0.08765572;-0.072725385;-0.08033218;0.006502969;0.026734332;0.039573964;-0.077499025;-0.10987692;-0.040316403;-0.026080247;-0.05359675;-0.13484438;0.03375377;0.01974621;-0.045409657;-0.0126350485;0.028380843;0.038449723;0.037029967;-0.071929514;-0.1321987;0.033527415;0.102724954;0.12100872;-0.09028004;-0.01118012;-0.077727474;-0.14920025;-0.13487682;0.085332625;0.048062596;0.008397024;0.033065856;-0.16658802;-0.04703287;-0.02252465;-0.07388451;-0.107269585;-0.09707749;-0.05410926;-0.01065021;-0.024629159;0.045893986;0.16455087;-0.009677985;-0.0035424342;-0.13613816;-0.008022291;-0.009077037;-0.04306482;-0.010176992;-0.031054229;0.03459469;0.012678223;-0.017691039;-0.078054786;-0.009776287;-0.04184211;-0.11369192;-0.10796332;-0.009418424;0.0338242;0.036091324;0.028626727;-0.11279152;-0.02837168;-0.05747752;-0.050262634;-0.10120939;-0.08645483;-0.112464994;0.009431846;-0.052738186;-0.07829159;0.034542598;-0.01964461;0.03163465;-0.079535455;0.024785325;-0.12091052;-0.083382614;-0.14948075;-0.089390084;-0.024539907;0.039683558;-0.102468215;0.08517648;0.023112843;-0.0054383934;-0.038804017;0.033324793;-0.096982226;0.041813005;-0.08918479;-0.13046758;-0.07155003;-0.13994892;-0.058607426;-0.10326112;0.087629095;-0.1063921;-0.083303764;0.037273627;0.022247722;-0.16015628;-0.07996594;0.032039672;-0.03907823;-0.10537741;-0.08204312;-0.0076636258;-0.06395287;-0.07707529;0.0046980605;-0.013951082;-0.19404568;0.013801373;0.08117345;0.10047429;0.029016253;0.05692922;0.022741705;-0.049100515;-0.07371443;-0.052814316;0.0062472736;0.035089225;-0.063310236;-0.001863207;0.03702629;-0.00686185;0.010949425;0.03657252;-0.06056881;0.0036720545;0.026397808;-0.04644259;0.048837736;-0.030522993;0.012695372;0.061545324;0.044325903;-0.123696044;-0.0077636284;-0.03109657;0.100799136;0.0028349056;-0.116864175;-0.008097979;-0.048958216;-0.11230748;-0.04303366;-0.07414283;-0.0315692;-0.091221124;0.032714043;-0.022118507;0.0007114819;-0.001159706;0.0115837315;0.023514206;-0.011926201;-0.017747613;-0.05586424;0.047734186;-0.04372028;-0.04139713;0.0013662763;-0.10741901;0.06853613;-0.07424099;0.012504254;-0.12644568;-0.11196103;0.07115638;-0.102825426;-0.022885038;-0.036590893;-0.013981865;-0.07851769;-0.060446337;-0.06278346;0.032633387;0.057283193;-0.14107876;-0.02196339;-0.17003024;0.038381957;-0.05657574;-0.03012669;-0.16934502;-0.074440405;-0.0481819;-0.021956315;-0.09074858;-0.025322242;-0.08236299;0.068588205;-0.010134462;0.039135087;-0.029323284;0.038836777;0.062232766;-0.028185427;-0.0010098257;-0.021700503;0.012000119;0.051419586;0.032195944;0.021509439;-0.0059413966;0.050239895;-0.07901305;0.04022743;-0.0043005073;-0.002424449;0.07187546;-0.082635656;-0.0045308173;0.050362803;-0.101330094;-0.029310089;-0.13200057;0.09360958;-0.093497686;-0.014467893;-0.00593942;0.06687973;0.06268047;0.06250315;0.09451562;-0.024086317;0.01885166;-0.10041271;-0.008885204;-0.022016902;-0.108697325;-0.06747126;-0.074975334;0.15444165;0.04666009;0.037408832;0.022126768;0.024117552;0.054694496;0.07588703;-0.07093989;-0.052510392;0.06484108;-0.04307665;0.003081003;-0.10074815;0.058668595;-0.024494085;0.037017014;-0.0005198719;-0.0740782;0.005162512;-0.08371086;-0.10898489;0.06156389;-0.10655798;-0.002120359;-0.07343671;0.09430534;0.0027312527;0.09483424;0.067833975;-0.13972344;-0.0946925;-0.042500257;-0.0016629215;-0.07230199;-0.050574478;0.024815332;0.01726582;-0.017098404;-0.06768199;0.020013858;-0.023320468;-0.08527981;-0.083475225;0.03633073;-0.009534346;0.0070661525;0.017885987;-0.041007455;-0.085701056;-0.22138552;-0.00097309134;-0.104568005;-0.093567066;-0.07206009;-0.06739031;-0.1607648;-0.06307554;-0.060460925;-0.08496097;-0.154539;-0.13364612;-0.06503077;0.098246686;-0.032226566;0.04326709;-0.08436126;0.06779156;0.05620598;-0.10884427;-0.1359358;0.012031762;-0.058172293;-0.08712744;0.036833305;-0.10803665;-0.14156456;0.118978366;0.0039662416;-0.029650303;-0.07295566;0.030772062;-0.048277557;-0.0681158;-0.106708236;-0.17823358;-0.0049852873;0.03747639;-0.055621915;0.020509971;0.04525286;0.05447689;0.02287485;-0.07795652;-0.014747926;0.010095647;0.022167081;0.03351721;0.0682091;-0.0033053895;-0.04082622;-0.037967302;-0.097741865;-0.024345782;-0.16519253;0.10052029;-0.09190111;0.09822524;-0.015350195;0.06037663;-0.12451303;-0.03898967;-0.01729485;0.08045317;0.07306857;0.007320648;-0.0066871755;-0.025315775;-0.1254121;0.012933642;0.028068617;0.008874905;-0.09337518;-0.049863048;-0.06747264;0.001087657;-0.09665618;-0.0528365;-0.10491736;-0.092934914;0.024339573;-0.09381138;-0.090534426;0.04369017;-0.06505865;-0.10560132;-0.06648856;-0.026108729;-0.1619104;0.10210437;-0.102037296;0.022763086;0.13030766;-0.08009272;-0.029867498;0.0019896175;-0.048608333;-0.08933663;0.016359508;-0.072222315;-0.08736238;0.067083545;-0.032733507;-0.083222285;0.0451853;-0.068534896;-0.0852757;0.012626581;0.0122024035;-0.1139402;-0.039509818;-0.105814874;0.026899021;-0.009899172;-0.102833785;-0.009563459;-0.028054692;-0.17947812;0.019087834;-0.15695484;0.01625038;0.019836264;-0.044489626;0.027555555;-0.17633821;-0.0532214;-0.029999884;-0.045621663;-0.013061298;-0.010404726;-0.12821974;-0.018909471;-0.111042336;-0.006298662;-0.12737897;-0.058410008;0.021368949;0.01641882;-0.076626;-0.064692415;-0.15339671;-0.090686016;-0.05869438;-0.063573964;-0.07227194;-0.12326477;-0.04069815;-0.14032882;-0.04947367;-0.06782308;-0.03736934;-0.07544036;-0.050818585;-0.04431801;-0.061808225;-0.10846516;0.0187025;-0.041377373;-0.011885609;-0.06712224;0.09771232;0.03065079;0.036761798;-0.047574334;0.059605688;-0.033163425;-0.05136696;0.09629614;0.08602582;-0.0766494;0.0014234061;0.053702954;-0.019611962;0.094969794;-0.12825376;-0.09951362;-0.07589916
-0.052330215;-0.088879034;0.036896747;-0.027476832;0.02001383;-0.028135138;-0.11854874;-0.034389235;-0.016940668;-0.06937933;-0.08792831;-0.16787495;-0.04669033;-0.037527006;-0.06740687;-0.028176246;0.053581133;-0.16765617;-0.057351813;-0.07552608;-0.04164433;-0.09289843;0.06082275;-0.003483147;-0.038191292;0.006510125;-0.10256787;-0.05134584;0.012698824;0.11216285;-0.12933356;0.12081285;-0.034929607;0.029872566;-0.011752297;-0.027501345;-0.056209177;-0.056690313;0.029699907;0.046886954;-0.011156879;0.031155493;-0.008978696;-0.096613266;-0.0013202776;-0.1223796;-0.015540201;-0.099836715;-0.009125428;-0.030573428;-0.1498234;0.011735336;0.012321248;-0.033057798;0.032041106;-0.010548932;0.025984032;-0.038111243;-0.051363464;-0.012400606;-0.071442924;-0.014798008;-0.13560387;-0.004387921;-0.11378156;0.0063752932;-0.03910021;0.07403909;-0.0010975297;-0.106950514;-0.068071045;0.093878165;-0.01945612;-0.023315346;-0.090933874;-0.10357514;-0.08724386;-0.14490141;-0.025852025;0.04571562;0.020699153;0.01661547;0.07397482;0.13664243;-0.054419518;-0.008269184;0.05379582;-0.05055742;0.040929403;-0.08195582;-0.06978827;-0.05969667;-0.106104635;-0.100808874;-0.07314617;-0.029661272;0.15239209;-0.028992347;0.005112348;-0.10084781;-0.088281296;0.045912135;-0.009102546;-0.1023038;-0.085429944;0.17668751;0.014680314;-0.083211124;-0.061676126;-0.10995377;0.038721085;-0.030592628;-0.08319024;-0.06711092;-0.05261169;0.018680915;-0.008515861;0.0042571407;-0.07717987;-0.027262626;-0.018852381;-0.032083895;-0.13878708;0.0042175525;-0.028387416;-0.06051314;-0.09618995;-0.025145892;-0.005855416;0.03338523;-0.08731052;-0.0604698;0.11843257;0.061738882;0.06467193;-0.047514614;-0.09911123;-0.061629534;-0.034912247;-0.06846185;-0.0036577266;-0.007509929;-0.042984;-0.072509155;-0.08366271;-0.07796329;0.01697013;-0.082730874;0.012193411;0.035248123;-0.016407156;-0.057360798;-0.07566107;0.013556895;0.1476135;-0.0060722623;-0.020524798;-0.1709058;-0.07155278;-0.05872231;-0.10776037;-0.016946882;0.0052514034;-0.0032867056;-0.03352032;-0.07000562;-0.08604467;-0.0031803455;0.0020230915;0.011218804;-0.06750539;-0.024652282;-0.07278402;0.0509398;-0.04878426;-0.047725324;0.049314525;0.050275996;-0.07473098;-0.00058691076;-0.099484205;-0.10110426;-0.03685862;-0.064783506;-0.020794366;-0.07784305;-0.027632019;0.035805754;-0.04996443;-0.05137059;-0.10141089;0.034863725;-0.1273725;-0.07460773;-0.046880577;-0.071670234;-0.03712421;0.019638123;-0.05965005;0.019286193;-0.042344604;-0.11138922;-0.02135431;0.06088801;-0.10520421;0.010563714;-0.039235763;-0.03012589;-0.09823269;-0.12677604;0.020078799;-0.04218115;-0.05610985;0.027545039;0.02022422;-0.04829933;-0.031976882;-0.08201816;-0.038086414;-0.048274465;0.010607051;-0.021587;-0.02265766;-0.011312808;-0.02596368;-0.02587423;-0.12050621;0.08264906;0.043372393;0.03763073;-0.08203365;-0.010155195;0.006332386;0.019383006;0.03887278;-0.14313072;-0.069814205;0.04065461;-0.109752364;-0.010802917;0.035948746;0.07050201;-0.0026874782;0.050811354;-0.056229662;-0.016870802;-0.11510195;-0.049070913;0.030452648;0.047951322;0.0030753172;0.05204199;0.06973392;-0.055927616;0.100168;-0.08582036;-0.04691097;-0.014942598;-0.044518232;-0.021642191;-0.0006192604;-0.04073819;-0.066827714;0.05734582;-0.056527797;0.04724137;-0.086676784;0.065740146;-0.017645758;0.0120764095;-0.11825902;0.038263492;-0.047778312;0.023950143;-0.058122393;-0.017842999;-2.4528148e-05;-0.0075072288;0.09516125;0.0033636065;0.08150498;0.0059588933;-0.002968625;-0.08526506;-0.11224414;0.016326359;-0.010143848;-0.06693701;-0.1337536;0.03424219;0.03773023;0.0541305;0.009612185;0.023547608;0.07118228;-0.00037302187;-0.02387833;-0.048543964;-0.058392566;-0.010979616;-0.0648643;-0.11707535;-0.057843648;-0.12136847;-0.08236742;0.044828102;-0.11842291;-0.023314836;0.13446869;-0.024479365;-0.047848765;0.0078351125;-0.06020912;0.07617313;-0.09686201;-0.10677366;-0.04701194;-0.05821259;-0.074735366;-0.021600524;0.035495535;-0.083145924;-0.02167692;-0.06871035;-0.03416767;-0.065721884;-0.00037749196;0.03171386;-0.1488974;0.018275186;0.09507854;-0.010267575;-0.07151283;-0.035510577;0.09080176;0.011868075;-0.056513023;0.082532555;0.08546152;-0.01608852;0.11537013;0.024904473;-0.037348736;0.014101415;-0.08976022;-0.05431219;-0.05992728;-0.05537967;0.035389848;-0.049599066;0.15326549;0.09328088;0.061399948;-0.021232422;-0.046719573;0.055765085;0.10441969;-0.03294136;-0.106218666;-0.0098077785;0.0011714158;0.06373705;-0.13611247;0.012217017;-0.107853256;-0.054729447;-0.08663461;-0.10375465;-0.14506401;0.01853822;-0.12144636;-0.028750237;0.008137128;-0.04610718;0.011269056;0.1511578;0.019970838;-0.030771207;-0.09224667;-0.06194763;-0.04262661;0.025725517;-0.0005025336;-0.04997191;-0.05480081;0.03717928;-0.010191988;-0.07898464;-0.05547581;-0.08121569;-0.05450371;-0.04036734;-0.045066286;-0.07409906;-0.0024371613;-0.038521845;-0.09004402;-0.07183583;-0.11356827;-0.10714169;0.08327801;-0.07607387;0.02555014;-0.16877279;-0.018462412;-0.13505393;-0.12855153;-0.00030343485;0.028000144;-0.102815405;-0.097437374;-0.14207192;0.12661384;-0.13821511;-0.02527835;-0.06477371;0.019508656;0.085144594;0.027427213;0.019399766;-0.12138466;-0.01485312;0.010479856;-0.02255276;-0.08323653;-0.069585055;0.0750466;-0.13766302;-0.043190498;-0.021097055;-0.03791543;-0.05744463;-0.0044192234;-0.08379999;-0.08111706;0.01786211;-0.03245944;-0.061727963;-0.055612575;0.04594695;0.1474972;0.0069515496;-0.09711414;0.025548905;-0.013266504;0.013220095;0.11162339;0.13931446;0.017964514;-0.0068361387;-0.15147787;-0.07561989;-0.131972;-0.119902894;0.12282621;-0.09119715;0.04268052;0.078938335;0.116567135;-0.0008562887;-0.08582432;-0.056002207;0.12868476;0.0028808967;-0.042911652;-0.065921925;0.00952438;-0.15835474;-0.10823528;-0.052390307;0.00045344024;-0.07870351;-0.15222663;-0.09281996;0.008438285;-0.0036570842;0.027916657;-0.06311089;-0.10174945;0.04216698;-0.0049592266;0.031992104;0.09880679;0.054626077;-0.08807021;-0.00094447285;-0.09884566;-0.083664164;0.108871944;0.007375952;-0.051838584;0.11263592;0.038954865;-0.06818842;-0.023780612;-0.017280791;-0.061711956;-0.023304254;-0.09644915;-0.040849365;0.061240382;0.10097285;-0.12613691;0.052820347;0.019261198;-0.05721004;-0.08412308;-0.07162799;-0.06693864;0.039166544;-0.083275445;-0.042350315;0.05498763;0.0075182943;-0.07616415;-0.09574076;-0.2673697;-0.07336802;-0.16773988;-0.0028366419;-0.08460061;-0.034290105;0.014426663;-0.17092511;-0.11284031;-0.06211406;-0.063770324;-0.034588404;-0.1059015;-0.09276781;-0.10457969;-0.10036276;0.02627359;-0.054846432;-0.020166919;-0.056307547;-0.005288803;0.013637581;-0.12942758;-0.08766175;-0.081091985;0.003686639;0.033902958;-0.03787242;-0.03468968;-0.04724396;-0.12356186;0.05801604;0.04049157;-0.05055159;-0.101168334;-0.023146084;-0.06424509;-0.00945129;-0.06100664;0.07955425;0.04946437;-0.051210817;-0.0027807506;0.05940733;-0.107243136;0.027140554;0.020404411;0.09475821;0.0021801707;0.011655291;0.057382524;0.0825172;-0.02242247;-0.110068515;-0.021881592;-0.057392094;0.047991596;-0.06448738;-0.0020760032;-0.0806001
0.030262858;-0.10372131;-0.09737521;-0.07619095;-0.10805466;-0.05763016;-0.05777162;-0.04839132;0.035471585;-0.12883824;-0.07661212;-0.081794605;-0.16015291;0.051481526;0.016748289;-0.050792344;0.020459628;-0.1419416;-0.060628146;-0.13982646;-0.0416171;0.024416288;0.021362958;0.034080356;-0.044183407;-0.036313497;-0.07789267;0.0020446721;0.05032007;0.025032826;-0.15794875;0.043008775;-0.033757117;0.115209475;-0.013501356;-0.01884419;0.07421765;-0.025949182;-0.02465761;-0.10138158;-0.08854029;0.11258473;-0.034481145;-0.008975253;-0.07265452;-0.13920522;0.03418142;-0.092532545;-0.024560442;-0.011183191;-0.20564786;-0.06056668;-0.09118693;0.050793577;0.044092063;-0.091178715;0.00019823409;-0.051523484;-0.10705902;-0.004170289;-0.054637842;-0.124750845;-0.10215788;-0.02137607;-0.09909959;0.009222079;-0.11131459;-0.015634622;0.04756057;-0.1087215;-0.12842436;0.09071814;-0.06487437;-0.034577925;-0.12867483;-0.10240724;0.03861245;-0.15442958;-0.023115575;0.02433109;-0.08108511;-0.049075704;-0.05987148;-0.007315321;-0.09276485;-0.048280764;-0.023530725;0.0027206575;0.04042157;-0.01574087;-0.08782807;-0.04540084;-0.009974127;-0.01632943;0.02283365;-0.07844602;0.15313339;-0.02947626;-0.018213069;-0.038956635;-0.12554912;-0.043124586;0.09283499;-0.012846528;-0.06468274;0.194792;-0.10140634;-0.004671969;-0.034209006;-0.011589259;-0.039742224;-0.091694295;-0.0049907607;-0.08525241;-0.006367218;0.055751603;-0.03145812;-0.004748738;-0.19542998;-0.0073669245;-0.023057733;-0.02223939;0.0098364195;-0.05163672;-9.422209e-05;-0.087804586;-0.043161795;-0.012113006;-0.04029812;0.008807922;-0.08172301;-0.11200337;0.15376143;0.12296023;0.1588162;0.0076584746;0.019370446;0.0004179839;-0.082452334;-0.05594789;0.058328163;-0.11308655;-0.08386137;-0.09148973;-0.06056529;-0.07976621;0.0006538209;-0.05567237;-0.05426085;0.040350266;-0.049170353;-0.04250739;0.038181257;0.07353375;0.07056061;0.03334197;-0.08426067;-0.05208154;0.036327917;-0.08695351;-0.07671942;0.016887482;-0.0062127425;-0.01833456;0.0140675865;-0.0659546;-0.11338735;0.02453956;-0.14036521;0.006831223;0.0036187405;-0.022802928;0.010066535;-0.024512144;-0.069488436;-0.073458344;0.038559984;-0.038290933;-0.13002992;-0.017395267;-0.07954342;0.027485;0.017962724;-0.029110836;-0.029361049;-0.06036968;-0.06186117;0.0035781881;-0.06424411;0.019381389;-0.14992042;0.020248594;-0.12668058;0.03679127;-0.105743796;-0.08345464;-0.039966732;0.08251407;-0.05057768;-0.079592675;-0.024446301;-0.12365806;-0.043215178;-0.04074231;0.022078987;0.031342916;-0.060678326;-0.021494176;-0.09766099;-0.079339996;0.108261906;0.007683286;-0.06354781;-0.0018691847;-0.07750526;-0.12728634;-0.08936471;-0.028014814;-0.06073456;-0.11362857;-0.041882176;-0.015436821;-0.012913642;-0.026755042;-0.06916607;-0.057371717;-0.09967907;0.09582313;-0.053876452;-0.06163908;0.04876135;0.036192514;-0.04040272;-0.087373324;-0.006862302;-0.12255742;0.061801605;-0.07195876;-0.023235137;-0.067688674;0.008451026;0.03309906;-0.023198185;0.037419476;0.020650724;0.09547306;0.000574109;-0.0779311;0.030831994;-0.026975734;-0.06301264;-0.0794972;0.03386965;-0.1138629;0.06686326;0.02095253;0.08331638;-0.07894811;-0.11411524;-0.11913159;-0.040992998;-0.08803973;-0.03559436;-0.018582651;-0.12618944;-0.10809297;0.00948545;-0.09101686;-0.04894288;-0.07072397;-0.09194746;0.08531737;-0.08553853;-0.030930286;0.0039995187;0.015154833;0.042761806;0.017583933;0.03647357;-0.04975376;-0.040254816;0.010907495;0.020253042;-0.101573795;0.047137164;-0.07334964;-0.00017656368;-0.09735108;-0.041011825;-0.10165559;-0.00023069406;-0.07401201;0.0034811422;0.026377305;0.030969735;-0.11161408;0.027867915;-0.05447653;-0.02906821;0.0013902035;0.018496586;-0.15042086;0.013761829;-0.115131825;-0.11532313;-0.009245192;-0.034600805;0.019228812;0.025524054;0.047306947;0.0033874987;-0.08808948;-0.086079195;0.039500974;-0.05986345;-0.037465416;0.023297897;-0.015897594;-0.09038154;0.09023894;-0.0935258;-0.0524281;-0.039736174;-0.05839965;-0.012054251;-0.06598228;-0.02439333;0.043584686;-0.13647766;0.030483877;0.057183426;-0.05089743;-0.031361982;-0.034126;0.12854001;-0.012709293;0.03214599;-0.076094314;0.12636673;0.016152192;0.04945863;0.0754192;-0.08809891;0.011163536;-0.097384125;-0.08140097;-0.08584654;-0.11135542;-0.03921555;-0.020156775;0.08700432;0.108070344;-0.036298268;-0.08698301;-0.06254531;-0.06089236;0.119178794;-0.012561256;-0.086530164;0.042056065;0.03521128;0.06120069;-0.007063245;0.015866982;-0.077600375;-0.0481948;0.02104304;0.034227792;-0.05681883;-0.06979425;-0.10187441;-0.02529096;-0.031544108;-0.08756318;-0.080394834;0.14624692;0.011223337;0.03434762;0.013945583;0.024227165;-0.07905622;-0.13133721;-0.021471936;-0.08665715;-0.09084289;0.13812819;0.058011822;-0.025528759;-0.051726073;-0.016266637;-0.009105267;-0.09141103;-0.06144154;-0.002841432;-0.012508255;-0.15235645;-0.04042587;-0.021223402;-0.15478761;-0.101902105;0.08711758;-0.10415167;-0.061664388;-0.09043703;0.027624091;-0.021102648;0.011811838;-0.0825298;-0.049981106;-0.017631706;-0.1254245;-0.13437892;0.05391455;-0.1494166;0.060856704;-0.057395637;-0.011750564;0.03406556;-0.09714334;-0.039384246;-0.092518285;-0.046760198;-0.084844775;-0.09359184;0.013592044;-0.081079274;0.09243639;0.0075084516;-0.14909166;-0.046045594;-0.048237443;-0.043233626;-0.0688579;-0.05455617;-0.015218705;-0.0058560437;-0.09129201;-0.035770662;-0.082085475;-0.030548578;0.028297339;0.08416651;0.008040097;-0.009623094;0.016781798;0.13348244;0.03371109;0.023137322;0.057670116;-0.052140668;-0.0861821;-0.0973304;-0.12227826;-0.04385878;-0.0072957026;-0.16239288;0.010502914;0.09900326;0.111853555;-0.11840097;-0.18198042;0.0030859057;0.07717507;-0.05201107;0.026643597;0.02822167;-0.028836526;-0.11599559;-0.042902518;0.018578963;-0.024642285;-0.107741416;-0.08387321;0.056512617;-0.05687155;-0.09061152;0.014919682;-0.044873472;-0.00905418;-0.0621816;-0.06313802;-0.10901944;0.06018038;0.058363933;-0.073140934;-0.107691206;-0.056358434;-0.095026605;0.016332256;-0.10608843;0.0060244915;0.012276916;-0.03094677;0.040295184;-0.0049358453;0.042908557;-0.10610996;-0.0372043;0.022445697;-0.0887289;0.079077594;-0.042578265;-0.062395487;-0.037704054;0.008305166;-0.07470367;-0.010602001;-0.027344454;0.009341389;0.014797649;-0.029783314;-0.09823793;-0.028699754;-0.1262726;-0.041383438;-0.064498976;-0.21006528;-0.011164999;-0.12775287;0.03460468;-0.056563552;0.012128062;-0.07711443;-0.21215713;-0.008776775;-0.04332412;0.048416708;0.006158483;0.0018205266;-0.106533654;0.03332653;-0.031987436;0.07358417;-0.03959303;0.07494734;-0.041987587;-0.043647975;-0.10229775;-0.00232046;-0.046242252;0.010889959;-0.0060707345;0.05424551;-0.031932186;-0.04990243;0.05324171;-0.1617546;-0.08010343;-0.011383243;0.013385529;0.04094431;0.021193184;-0.0078545455;-0.056349576;-0.0689505;-0.012991484;0.0010136357;-0.074463025;0.004922558;0.015275578;0.036844958;0.036237232;-0.037868187;0.10319831;0.016601942;0.016011417;0.012081234;0.0063634026;0.01452984;0.034729328;-0.045757283;-0.070049584;0.10571125;-0.013715414;0.03150454;-0.09480908
-0.031997252;0.0383233;0.017268632;-0.10048056;-0.078922704;-0.094774865;-0.07238437;0.07719669;0.045712233;-0.16465503;-0.11556609;-0.14188626;-0.13214448;-0.048373796;0.028911099;0.0087827025;0.03553591;-0.021407194;-0.11048819;-0.009602873;-0.03785326;-0.10452131;-0.047209475;-0.09359599;-0.03563615;-0.046347998;0.02812619;0.009775635;-0.006034642;0.054563746;-0.10114357;0.109195665;-0.09963912;-0.039967656;-0.024464872;-0.024089025;0.059029568;0.029932935;-0.005383882;0.016869469;-0.053386245;0.09935702;-0.02533201;-0.09044189;-0.038763188;-0.094033845;-0.059209794;-0.04666789;-0.021856098;-0.11787327;-0.07233071;0.059435148;0.027516693;-0.010542175;0.13502535;-0.0808192;0.025453383;-0.009494246;0.050282616;0.035475343;-0.017075589;-0.09928728;-0.15873478;-0.09895771;-0.09959782;0.047092352;0.01578948;-0.021365361;-0.031632595;-0.0373546;-0.076222725;0.052505888;-0.0145565625;-0.072383;-0.11137765;-0.08790252;0.037123606;-0.092380024;0.02704643;-0.075590685;0.008730052;-0.086451516;-0.07872723;0.014231139;-0.0014693561;-0.021942845;0.06837353;-0.08743297;0.042590037;0.0027479413;-0.009551047;-0.05461159;-0.06543568;-0.05743715;-0.0014655693;-0.024313804;0.10737782;-0.0937296;-0.1053829;-0.05962527;-0.12441105;0.07747106;-0.041486856;-0.07403618;0.029327467;0.18766765;-0.09437897;-0.06806173;-0.10313918;-0.013472232;0.06486441;-0.01888183;-0.026604615;-0.16638926;-0.089013055;0.034997743;-0.063386105;-0.00373055;-0.055314526;0.00046203972;0.06490222;-0.07359476;-0.006013497;0.023225473;-0.0545181;0.017120393;0.015787937;-0.09506695;-0.10593314;-0.04554926;-0.0064245127;-0.09532673;0.16318761;0.073757514;0.075313725;-0.022054566;-0.04012096;0.030809022;-0.017284166;-0.04122091;-0.02674495;-0.1204751;-0.10595892;-0.034751777;-0.15498707;-0.106370024;-0.052303642;0.033672944;-0.08456983;0.013136973;0.042910196;-0.034338783;0.027698547;0.059164092;0.024138449;0.05426422;0.04364384;-0.09199157;-0.09645398;-0.09000471;-0.02596179;0.032883056;0.057255507;-0.0813883;0.043815654;-0.007761023;-0.10943697;-0.05770495;0.009664619;-0.042985503;-0.016041446;-0.008409228;-0.037985127;0.00049174496;-0.046527985;-0.04391722;-0.025599478;-0.029758383;-0.05602878;-0.123308234;-0.06853144;-0.016778812;-0.09772092;-0.053440537;0.022320215;0.042103745;-0.020301169;-0.009991777;-0.046409775;-0.062882006;-0.12219881;-0.07917657;-0.14025196;-0.043299116;-0.110626094;-0.060736492;-0.03722121;-0.03715224;0.06973112;-0.04234305;0.004993373;0.0017078714;-0.041939735;-0.07913479;-0.11602552;0.016417501;-0.03688424;-0.09421144;-0.10316074;-0.21271998;0.11189408;-0.07501447;0.043776896;-0.0004981817;-0.06954812;-0.0710645;0.012796422;-0.057499632;-0.022815952;0.029095788;0.032280114;0.04316564;-0.0530559;0.04581316;-0.08578488;-0.10911601;-0.064547196;-0.029521449;0.07440892;-0.044708155;-0.0069594323;-0.086600155;-0.08922093;-0.037293702;-0.04786478;-0.12584023;0.034084927;-0.062014733;-0.054687843;0.0146739185;0.03416676;0.07303635;-0.003789604;0.105572;-0.047456667;0.07040566;-0.036788873;-0.09907477;0.03806124;-0.05802594;-0.10157309;-0.080798544;0.008463846;-0.14151134;0.05805975;0.05553272;0.04912169;0.0017770111;0.001287299;-0.021602131;-0.055616166;-0.019944003;0.053262055;0.006775471;-0.095507406;0.043072592;0.019543722;0.013944301;-0.05841964;-0.047501482;-0.043642614;-0.027457047;-0.08247167;-0.024228888;-0.062140536;0.05404123;0.033063583;-0.059125867;0.032007292;-0.030051894;0.009349377;0.031177675;-0.048677105;-0.115443625;0.024421109;0.03073235;-0.10916144;-0.12533866;-0.0029552123;0.044821676;-0.11320745;0.011964027;-0.04191997;-0.06470334;0.033199888;-0.06917687;0.06377122;-0.19195929;-0.02430673;-0.040280025;-0.010722442;-0.060198806;0.0037572335;0.027800323;-0.050697703;-0.105884254;-0.014284614;-0.08903941;0.0046903472;0.04679737;-0.03566551;-0.009754473;-0.11362216;-0.053314168;-0.0056059435;-0.0048659025;-0.010496488;-0.09963074;-0.03936695;0.070042945;0.020820457;-0.06457717;-0.050953582;-0.04845226;-0.01587599;0.020420616;0.00018377323;-0.0060006557;0.014978773;-0.11289019;0.0105431285;-0.058660254;-0.013602823;-0.076621726;0.027823225;-0.055443004;0.027787818;-0.08457097;0.044440597;0.04727907;-0.043510586;0.08920565;-0.006769949;-0.0042327917;-0.049488306;-0.10831769;0.0031320557;0.02164213;0.026349539;0.048290342;0.08933641;0.1204722;-0.033663396;-0.08641509;-0.0624865;-0.05457861;0.105603226;-0.0024724018;-0.107247084;-0.037840772;-0.041892014;-0.065556236;-0.10855378;0.022147406;-0.11509384;0.032309234;-0.08636167;0.01071045;-0.024704034;-0.06077414;0.021537922;0.0015993565;-0.040645603;-0.019199105;-0.039361842;0.12820387;0.024097558;0.029119616;0.0070363097;-0.08378783;0.0026107053;0.010422065;-0.050303623;-0.03543676;0.019684717;-0.023325672;0.04026268;-0.011263639;-0.04946154;0.051529564;0.0009454174;-0.098269396;0.038009666;0.009988566;0.09237784;-0.0053847223;-0.03181871;-0.064833194;-0.061181307;-0.20414679;0.031994984;-0.0903715;-0.045067832;-0.07306984;0.060752556;-0.14408144;-0.019211346;0.050728;0.025519071;-0.09416809;0.00566246;0.0019966431;0.15413609;-0.06391455;0.10936824;-0.100782365;-0.008332502;0.05668226;-0.08917652;-0.08575782;-0.014236592;-0.07744498;-0.12973644;-0.075089194;0.009898747;-0.1321567;0.0871696;-0.04380888;-0.07798786;0.0017161195;0.04631868;0.01807527;-0.06749907;-0.007842865;-0.0027525276;0.040715255;0.06309654;-0.14906621;0.028151665;0.003955021;0.048617285;0.0956341;-0.055557083;-0.052090634;0.062036008;0.023299264;0.101935014;0.043499745;-7.607012e-05;-0.08141934;-0.039984457;-0.09341554;-0.016036268;-0.104992464;-0.0001729016;-0.017482277;0.0630631;-0.06871265;0.14440833;0.002271535;-0.08612107;-0.010064241;0.13675499;-0.029583886;-0.07208127;0.05415881;0.04045002;-0.0066783074;-0.03700745;-0.07755105;-0.08550264;-0.11463832;-0.15190405;-0.07708795;-0.047464065;-0.0037618268;-0.097829975;-0.02265441;0.070485555;-0.049567565;-0.03955841;-0.019906903;0.091541685;0.067788295;0.030228976;-0.02480099;-0.083868906;-0.034646507;-0.02793085;-0.024345353;-0.08426346;0.13576691;0.022187317;-0.020421054;-0.041117817;0.089595385;-0.012120623;-0.08115373;0.038950134;0.021874405;0.03767712;0.10021603;-0.15131274;0.016208882;-0.034609284;0.05843424;-0.026640402;-0.020516075;-0.032332987;-0.0667278;-0.041296296;-0.07767122;-0.09372358;-0.09437057;-0.06677037;0.026500193;-0.2829721;-0.104668215;-0.06740914;-0.018394198;-0.101575315;-0.054918084;-0.025316628;-0.11982226;0.027976977;-0.06738666;-0.07859239;-0.054354295;0.014373964;-0.10429838;0.012149478;-0.031677067;-0.015750322;0.0049597863;0.03602411;-0.02736005;-0.023214506;0.01873434;-0.052395735;-0.020401966;-0.00899535;0.052749753;-0.040867373;-0.018244538;-0.01043118;0.0020902262;-0.045047317;-0.077964336;-0.0025162846;-0.010380316;0.04956751;-0.07763819;-0.017350458;0.011154336;0.027909037;0.06029691;-0.04302539;0.011673682;0.0072822273;-0.007964591;-0.018600464;-0.03141633;0.07550646;0.13304393;-0.06640766;0.001003572;0.12809591;-0.06393436;-0.081876196;-0.022304429;-0.052455876;0.034113318;0.016585328;-0.095152736;-0.06700867;0.036468804
-0.06255007;-0.028116236;0.0117560895;-0.021818874;-0.10433032;-0.027331363;0.036589738;0.025101073;-0.0122975325;-0.110509515;-0.02895113;-0.0038153084;-0.057720657;-0.07196327;0.035780374;-0.06293963;-0.049830962;-0.063062325;-0.08783875;0.032515176;-0.067454875;-0.113031104;-0.0036182557;0.024612347;-0.08087752;-0.12142151;-0.11764563;-0.10501522;0.09549482;0.080632284;-0.115311965;-0.001616778;-0.033773605;0.065142915;-0.004672502;-0.039826874;0.03305236;0.07616921;-0.06947717;0.02291703;-0.0019858826;0.05586554;0.082663804;-0.016011458;-0.12948705;-0.019991118;-0.10245245;-0.09971981;-0.08571919;-0.002063377;-0.030044364;-0.07401813;-0.0031718693;0.017590329;0.108556315;-0.10764246;-0.05790203;0.021575615;-0.061759137;0.041534375;0.04956964;-0.011201856;-0.13436843;0.0015275351;0.0043929038;0.0698014;-0.060298376;0.014538215;-0.017968215;-0.045331754;-0.010637364;0.04932186;-0.014004532;-0.08322417;-0.050289597;-0.06261308;-0.020109432;-0.095742114;0.0074642655;-0.066052295;0.01996191;0.0139469765;-0.055030864;0.11826611;-0.04016003;-0.053696252;-0.042677246;-0.037736665;0.0118514495;0.022686189;0.024482174;-0.033551253;0.006236978;0.02603529;-0.12317472;-0.09800157;0.052986655;0.030994762;0.017964372;-0.009191985;-0.09390941;0.06909001;-0.012432537;-0.11084447;0.021167235;0.13709465;-0.07408986;-0.097788155;0.0021666687;-0.094958425;0.04065382;-0.09832939;0.014368072;-0.12968989;-0.046083022;0.036908377;0.048479818;0.028329574;-0.103350565;-0.08561651;0.0155212;0.024691137;-0.023646595;-0.039437924;-0.12082341;-0.09457652;0.045868717;0.030486425;-0.070349395;0.01757267;-0.03868303;0.017973602;0.039912786;0.12970516;0.12907283;0.012887586;-0.032495897;-0.06926585;-0.09794933;-0.003238342;0.068625726;-0.032116722;-0.012677335;-0.11680006;-0.1736548;-0.03805435;0.05978594;-0.030152787;0.021904781;-0.011917736;0.024646703;0.048720453;-0.08500245;-0.013816738;0.08310199;0.12298276;-0.02704777;0.006218821;-0.06604311;-0.07896814;-0.04372605;0.015651077;-0.054200564;-0.08381757;-0.0973744;-0.089348316;-0.09495452;-0.018806938;-0.018165654;-0.11863892;-0.069859035;-0.06683824;-0.004666766;-0.06802328;0.047241155;0.025711866;-0.05580943;-0.02293751;0.041174408;-0.054896504;-0.19351743;-0.07099003;-0.094856374;0.014814215;0.037623774;-0.089227065;-0.026885144;-0.0054618022;0.05873151;-0.10029297;-0.09011404;-0.0377947;-0.11953065;-0.054135844;0.0026452187;-0.07503999;-0.1042446;-0.0364263;0.020156724;-0.07747268;-0.119567476;-0.15512696;-0.077883326;-0.03001755;-0.049481027;-0.036877878;0.019186405;-0.05469471;-0.09967348;-0.15715978;-0.024950894;-0.109217174;0.027828302;0.06748534;0.05395202;-0.109395124;-0.07369581;-0.082266115;-0.02944404;-0.13552707;0.047160067;0.006985743;0.041110247;-0.06822945;-0.029006435;-0.025116084;-0.025098408;0.085366614;0.06042619;0.082785316;-0.10685215;0.02958552;0.0053106085;-0.09996292;0.018112568;-0.032850493;-0.073700935;-0.07659357;-0.10878985;-0.0072197337;0.00781726;0.035065074;-0.003463947;0.013537807;-0.04017176;0.049019616;0.007382915;-0.085554846;0.12185319;-0.004979678;-0.0007202368;-0.0028201723;-0.06354965;-0.11455868;0.0742047;0.00919841;0.03139525;0.049549773;-0.0066432524;-0.13067117;-0.068894655;-0.0026398147;-0.076224506;0.018449957;-0.16221073;-0.11515993;-0.028171096;0.047179285;0.040794414;0.04302527;-0.023644967;0.046570614;-0.0772335;-0.106596135;-0.02883259;-0.10350451;-0.028241495;-0.11017909;-0.088565364;-0.024962114;0.08492226;0.039363943;0.0033391332;-0.10734503;-0.041708793;-0.09918962;-0.098606974;-0.110258386;-0.028796885;0.043213915;-0.18747197;0.0050523714;-0.05406629;-0.070970185;-0.04877068;0.03616944;0.050124004;-0.20169497;-0.01399712;-0.04208186;-0.084444426;-0.12704991;-0.018496966;-0.13866471;-0.106699;0.006216391;-0.09668221;0.03738166;0.07214225;-0.029274331;-0.006529663;0.053950284;-0.08203074;-0.040851172;-0.054132912;-0.023373963;0.082966305;-0.08020896;-0.0832233;0.012754815;-0.03242812;-0.0005084282;-0.073932074;0.03065051;-0.017606974;-0.061474178;-0.05973046;-0.03749388;-0.12821734;0.019525124;0.0956797;-0.022153217;-0.061477963;-0.120610334;0.124669634;0.017841462;-0.038852453;-0.051902764;0.10559609;-0.008042876;0.021305934;0.012155581;-0.051235326;0.08911397;-0.103502974;0.04935183;-0.047851324;0.054208457;0.025685146;-0.0891227;0.098095395;0.029817596;-0.07870709;-0.11626863;-0.11469415;0.046529587;0.13054717;-0.09768466;0.011403846;-0.043702595;0.049034327;-0.06695969;-0.1272244;0.03849468;-0.03776452;0.02929145;-0.13792785;-0.06320011;-0.049042985;-0.092534184;-0.014262023;-0.055779975;-0.06929536;-0.0020138856;-0.034762837;0.14635149;0.0011371382;-0.012633827;-0.06136959;-0.10666725;0.017251454;-0.030180736;0.01565821;0.020959178;0.0039020614;-0.014503604;-0.011134208;-0.0445351;-0.050211336;-0.03732762;0.046661302;-0.014652546;-0.09301176;-0.0755578;-0.059364505;-0.024144253;0.018578406;-0.079693764;-0.11898645;-0.0511629;-0.034174617;-0.06943927;0.025038619;-0.20719756;-0.106420845;-0.028821992;0.051199257;-0.083694555;0.04620195;-0.051079787;-0.08890972;-0.027603295;0.18476778;-0.0068214373;0.03355527;-0.12038981;0.06474407;0.031226488;-0.08986648;0.039683305;-0.08277066;-0.0031476307;-0.12199179;-0.019803777;-0.071515255;-0.09759441;0.11734355;-0.08419736;-0.10821218;-0.06591994;-0.020903125;-0.07862575;0.055897743;-0.14264894;0.032641727;0.036193125;0.0012031943;-0.12558916;0.040192124;0.020706868;-0.015682759;0.02142772;0.025226997;0.0740047;0.038037986;0.10482736;0.03432688;0.0017585709;0.024022851;0.01636855;-0.06082671;0.004012573;-0.090175055;-0.13330631;-0.014038092;-0.10244856;0.08402746;0.040467903;0.13064437;0.006390018;-0.021403937;-0.07146558;0.17010184;-0.004234322;-0.033766888;0.030335085;-0.05637784;-0.010866206;-0.008585237;0.03522049;0.014853637;0.00017422563;-0.051180076;0.009553193;0.05060157;0.031864274;0.032379244;-0.09952026;-0.08164545;-0.08192115;-0.057065733;-0.021995353;0.0229032;-0.023335712;-0.05886653;0.04030116;-0.050776012;-0.085727386;0.038234103;-0.011364692;-0.0954892;0.048326638;-0.011139739;-0.0011911982;0.00927555;-0.024819484;-0.03401927;-0.04830257;0.005948785;0.0011500679;0.06431918;0.03652574;-0.1697772;0.051526323;-0.041704122;-0.04796445;-0.066202365;-0.00577724;-0.13316585;0.006244031;0.016802661;-0.06353518;-0.087615825;0.016176816;-0.09606528;-0.049333148;-0.18689321;-0.03935836;0.00010813799;-0.05895127;-0.09014312;-0.12547424;0.028535547;-0.11613282;-0.11656025;-0.028180748;0.00632398;-0.038843717;-0.08784179;-0.13494918;-0.053590473;-0.059984393;-0.11377839;-0.024381906;0.10018839;-0.050274137;-0.115412034;-0.084123954;-0.00828427;-0.121787176;-0.0012845537;-0.084917866;0.002936499;-0.023862747;-0.13059436;-0.020013055;-0.08631445;-0.056982968;-0.09395443;-0.021906951;-0.09662083;-0.015134196;-0.08215696;-0.076793864;-0.068799786;0.055292986;-0.022714075;-0.075663045;-0.053626817;0.06356306;-0.071509376;-0.025494728;-0.017351784;0.0021154222;-0.09549813;-0.07302199;0.056411706;-0.06377721;-0.0783877;0.035010267;-0.1571598;-0.09489264;0.04670715;-0.1050263;-0.002002466;0.0002952789
0.03193517;-0.09390744;-0.08396608;-0.045510124;-0.024376202;-0.0086816335;0.043429434;-0.005072443;-0.019635193;-0.18020593;-0.10942878;-0.15863645;-3.480206e-05;-0.00745813;0.045712594;-0.09971316;-0.06357202;-0.07529156;-0.06663538;-0.12549876;-0.08612585;0.0040199547;-0.07735988;-0.07919245;-0.08797177;-0.041647565;-0.03013599;-0.0796546;0.05791744;-0.014813741;-0.17655402;0.14761354;-0.11128577;0.06260978;0.0078038666;-0.12110459;-0.0014688502;-0.050049387;-0.041864153;-0.06989482;-0.04102846;0.008723207;0.05515469;-0.0029902768;-0.08481349;-0.041128285;-0.0673543;0.012081969;-0.08080555;-0.01960597;-0.07697512;-0.09596466;-0.0693742;0.104297966;0.13293688;-0.04453227;-0.07352187;0.06300949;0.04316192;-0.062946744;-0.082842074;-0.021705749;-0.12742122;-0.0145234605;-0.05320321;-0.039186243;-0.093990214;-0.047974937;-0.11113995;0.019056804;-0.11176413;-0.054348998;-0.0056519406;-0.1116491;-0.10958245;-0.09840421;0.023754057;-0.15478547;-0.021164205;-0.0252193;0.0428783;-0.054670192;0.019340996;0.02728919;0.00403291;-0.0044210027;0.011403454;-0.05663075;-0.068588994;-0.042560108;-0.00028278536;0.03391385;-0.01706113;-0.09715999;0.009789827;-0.026889767;0.04441338;0.031372067;0.034221046;-0.03622967;-0.06290756;-0.052800257;-0.043302033;0.0069249673;-0.06338393;0.13126208;-0.011275078;-0.093309104;-0.057583958;-0.09791305;-0.011291517;-0.05967642;-0.07863917;-0.14549072;-0.04328158;0.029578976;0.061993293;-0.06737911;-0.054410506;0.024668999;0.03630876;0.025918862;-0.020222839;-0.10911001;-0.114749074;0.06516376;-0.0952182;-0.029953102;-0.0139016565;-0.112000264;-0.11738264;-0.06329901;0.04360818;0.013687425;0.075626194;0.010006754;0.025707303;0.02219082;-0.08287703;-0.0031028746;-0.013384217;-0.11011568;-0.030016977;-0.10269934;-0.12809238;0.03681044;0.018236227;-0.044349674;-0.08989693;0.030547265;-0.04499825;-0.01923546;-0.023643779;-0.0018193425;0.007954848;0.029115392;-0.06608476;-0.06892558;-0.10681705;-0.10069043;-0.11232295;-0.103994995;0.032527745;0.031611707;-0.098346986;0.011943721;-0.10163241;-0.09559112;-0.027940746;-0.10034254;-0.07664561;0.07857963;-0.062703855;-0.07515333;-0.08916212;-0.0693498;-0.021383747;-0.09599581;-0.087168545;-0.099080585;-0.20520277;-0.09625933;-0.09107747;-0.02979328;-0.08484654;-0.023908507;-0.06841452;-0.04277474;-0.018114334;-0.11312022;-0.12051228;-0.096968204;-0.059637424;0.011000135;-0.055890754;-0.011253242;0.015248927;-0.087841354;-0.06207439;-0.06440614;0.022902913;-0.0128627075;-0.010219022;0.07378714;-0.051534977;-0.025532026;0.016467096;-0.068427175;-0.09427513;-0.16898835;0.07752712;-0.07036182;-0.068767406;-0.026723891;0.004533934;-0.13300674;-0.11896592;-0.029720768;-0.10019444;-0.059556145;-0.005495027;0.07818142;0.011114253;-0.0935822;0.031207602;-0.07153744;-0.13724786;-0.048403382;0.08260021;-0.0050735488;-0.0012751542;-0.07567261;0.05235403;-0.14597881;-0.011529323;-0.05089801;0.027087014;-0.013464243;-0.0029240642;-0.036079668;-0.07809658;-0.05730578;0.07424325;0.005836294;0.014573213;0.12640019;-0.02516642;-0.07889125;-0.047404084;-0.069321126;0.00084647076;-0.10145224;0.08029504;-0.10277108;0.01695854;-0.049056854;-0.0010294798;-0.108812705;-0.07488848;-0.12585844;-0.09567198;0.0038424328;0.009429921;-0.05097519;-0.027281005;-0.04595529;-0.09480832;-0.021939158;0.003980572;-0.09020324;-0.14018053;0.08561405;-0.0039433013;0.036133144;0.056105155;0.061641634;0.010325598;-0.056303043;0.018294966;-0.053696685;0.1311843;-0.062219962;-0.050497983;-0.06206992;-0.012869941;0.033275936;-0.047957584;0.009651769;-0.085566685;0.049690377;-0.086895324;-0.04501045;-0.031661168;-0.09626065;0.06906587;-0.05078535;-0.0626389;-0.06846192;-0.05671739;-0.10843631;-0.058448184;-0.19597827;0.02797306;-0.12351627;-0.079221;0.030756386;0.021923935;-0.095453866;0.110271074;-0.0014213014;-0.037631337;-0.06508756;0.02257926;-0.07638295;-0.015633535;-0.109325424;0.03284599;-0.026624367;0.026059277;-0.006725652;-0.043269854;0.001997706;-0.01575715;0.032057695;-0.10747772;-0.03243416;-0.052508306;-0.002667982;-0.051749967;-0.111681394;0.096558765;-0.024037598;-0.08300004;-0.101260774;0.07735363;0.011815433;-0.03523163;0.06564697;0.14558575;-0.10100423;0.01472441;0.14007123;-0.014914804;0.0052113915;-0.024373457;0.0019179743;-0.09222504;-0.07303611;-0.008971155;0.029865006;0.1210558;0.07470066;0.0148211;-0.0046978174;-0.07662269;0.036961816;0.10861743;-0.066280894;-0.009627883;-0.022926034;-0.033725474;-0.03401073;-0.101028174;0.058553107;-0.11921453;-0.10828848;0.019444833;-0.053738594;-0.12849544;-0.06983734;-0.09757961;0.020664396;-0.11446741;-0.024170095;-0.003193836;0.0055199857;0.03605338;-0.036385767;-0.0093419235;-0.012588004;-0.0012429513;0.03403695;-0.12925234;-0.05297624;-0.01421986;0.12765701;-0.06494678;-0.029426146;0.020725666;-0.08813619;0.019752;-0.09939378;0.01746552;-0.0033643472;0.058390804;-0.15540244;-0.007311011;-0.05490243;-0.03874923;-0.12666126;0.06121027;0.0075570946;-0.07439113;-0.15511233;-0.0044862246;-0.03303248;-0.110496856;-0.015796892;-0.012644429;-0.048568856;-0.0079550315;-0.13696241;0.11789537;-0.10167582;0.111704595;-0.006539628;0.018696249;-0.033391785;0.019244041;-0.051855695;-0.03768997;-0.07344536;-0.06360092;-0.058161695;0.036545545;-0.062557235;0.056066453;0.026789248;-0.11480562;-0.08128078;-0.01457718;0.020574862;0.03722947;-0.06381626;-0.07339555;-0.018753303;-0.056556396;-0.089166135;-0.09533844;-0.09764673;0.11904724;-0.006384956;-0.002748885;0.022261208;-0.07857165;0.07429467;-0.039407536;0.11710721;0.046140373;-0.045164786;0.0015545788;-0.09819183;-0.12704432;-0.00606206;0.049821503;-0.034187045;-0.0036321282;-0.024421882;0.09051086;0.01617862;-0.037330482;-0.08134018;0.047447175;0.04686464;-0.08661943;-0.06288463;0.069652;-0.14589053;-0.10068431;0.043057177;-0.040924963;-0.08566773;-0.048753124;0.034436535;-0.058072597;-0.10501825;-0.092058964;0.03149857;-0.06508921;0.063145936;-0.11782453;0.054114435;0.07625829;-0.058536485;-0.0375535;0.0028352146;-0.07129638;-0.15104347;0.022130938;-0.026192047;-0.03796355;-0.014605858;-0.022990264;-0.013787218;-0.09444271;0.00055461505;0.037993684;0.034625784;0.042405948;-0.11471596;0.07203699;-0.01003414;-0.11276724;-0.05006134;0.04150648;-0.023472091;0.025210593;0.04729612;-0.07855694;-0.041991632;-0.052413426;-0.0023094276;0.04342423;0.006230699;-0.11473054;-0.020015668;-0.23319916;0.0113287615;-0.12787475;0.04668045;-0.04540932;0.03460009;-0.025176954;-0.1802442;-0.09123208;-0.042208303;-0.009249719;0.022301288;-0.016850166;-0.049436044;-0.011966981;-0.07111051;-0.04730723;-0.08374271;0.07568716;-0.07022307;-0.017659275;-0.073157355;-0.04991129;-0.11002407;-0.037595596;-0.05270316;-0.02480498;-0.03522723;0.00082328345;-0.041807234;-0.14322582;-0.041883677;0.019203449;0.059623197;0.05447746;-0.06131357;-0.005818062;-0.13821207;0.029813938;0.0036584812;-0.090342306;-0.06773032;0.044226162;0.060410906;-0.0956649;-0.0035990195;0.037836444;0.027720591;-0.08130384;-0.007707835;0.07600038;-0.08315824;0.0049792845;-0.044873536;-0.01854266;-0.009276071;0.14647546;-0.0021945296;0.03885742;-0.06358048
-0.03681655;-0.016013365;0.002987247;-0.04425148;-0.087190785;-0.06694573;-0.1216092;-0.087772824;-0.022454452;-0.015881857;-0.094758414;-0.065813944;-0.1523741;0.050698094;-0.083822735;-0.03652969;0.028796026;0.011610777;-0.0038160572;-0.027278459;-0.0477561;-0.106406465;-0.06586582;0.01785366;0.05244468;-0.09350449;-0.04200486;-0.017288314;0.08616828;0.043996267;-0.12572668;0.13065502;0.04665294;0.033067197;-0.04187249;-0.09047037;-0.012096796;-0.03744743;-0.013746491;-0.068132564;0.0074154064;0.13453266;-0.021931102;-0.0021205836;-0.101049736;-0.07901025;-0.082994595;0.023975171;0.040671047;-0.08186066;-0.21984585;-0.04125223;0.0057555367;0.077984326;0.056602582;-0.006863785;0.014963997;-0.06486792;0.022584077;-0.03999216;0.0055595823;0.00637521;-0.18450804;0.023036137;0.020168733;0.04898739;-0.066970445;-0.027329862;0.013574577;-0.1186101;-0.046272874;-0.06654594;-0.013672754;0.0048435377;-0.0593015;-0.06411635;-0.03918882;-0.14608222;0.0086262645;-0.0921163;-0.028233418;0.035472196;0.079530254;0.11722409;-0.066664316;-0.1342353;0.019592935;-0.08488569;0.026658578;0.032083854;0.03392603;-0.07809263;0.033833656;-0.12464442;0.0073579582;0.045743536;0.099848896;-0.035129663;-0.07299253;-0.02967641;-0.09060506;0.021280611;0.048380237;-0.11779984;-0.03957839;0.11127446;-0.102343895;-0.07944037;-0.127355;-0.11319746;0.08643594;-0.016101958;-0.004780525;-0.032708135;-0.109454006;-0.048787102;-0.0059292796;-0.08423656;-0.17219082;-0.06776698;0.06459951;0.06118727;0.0060877022;-4.0762498e-06;-0.06711206;0.00422502;0.023806326;0.06454486;0.036508992;-0.0058827754;-0.11186251;-0.101554416;0.041236535;0.14364244;0.13154612;-0.074086055;-0.05696915;-0.05961212;-0.08608756;0.012756521;-0.07126038;-0.11973163;0.026517922;-0.06494082;-0.1699177;-0.10123379;-0.022540782;-0.09863223;-0.0051275357;-0.010915143;0.045571104;0.03376142;-0.017432613;0.113923125;0.11423462;-0.0053934273;0.02387953;-0.16046119;0.023680363;-0.061059892;-0.09078585;0.003942541;-0.037413105;-0.06432874;-0.089239135;-0.011903823;-0.0030200935;-0.08326258;-0.105448596;-0.008783091;-0.014301717;0.046138816;0.021153223;-0.010547163;-0.03490493;-0.027672779;-0.055843312;-0.025566675;-0.015822344;-0.04161565;-0.050570812;-0.06435289;-0.08842009;-0.080966115;-0.08501473;0.043859337;-0.07788824;0.0101853255;0.035746016;0.016649554;-0.12951133;-0.10513729;-0.06763928;0.020224113;-0.11898605;-0.014887875;-0.078255974;0.018049514;-0.041067664;-0.052708495;-0.05102995;0.027575156;-0.05871509;-0.012284596;-0.12690929;-0.06997056;-0.02660489;-0.06428637;-0.00086037297;-0.15369235;0.016401734;-0.09091622;-0.09178788;-0.009573776;0.01947018;-0.14403865;-0.062369708;-0.047857307;-0.014032232;-0.100164115;-0.083146445;0.106241286;-0.066446215;0.046128146;0.014736488;0.030155635;-0.12548155;0.09774089;0.07920678;-0.05647531;0.04253057;-0.03642613;0.019622536;-0.07060426;-0.06312789;-0.052069094;-0.04554022;0.035526697;-0.13933398;-0.061654363;0.042572565;0.051775955;0.040097993;-0.04802379;-0.090808906;0.07830778;-0.116128825;-0.0884415;0.06950972;-0.0007956757;0.04412596;-0.07260815;-0.056888044;-0.091254584;0.10564963;-0.09525961;-0.06147773;0.021826662;-0.11105766;-0.09688077;-0.00847977;-0.07537282;-0.10352837;-0.026053242;-0.13119906;-0.03152477;-0.080850035;0.03740467;0.054996647;-0.039868135;-0.14093083;0.08059537;0.06489778;-0.016163103;-0.082130946;-0.04449766;-0.12652516;0.036729198;-0.035865273;0.005305154;-0.040222608;0.043608993;0.01695782;-0.0028541565;-0.10110708;0.06094941;-0.03050197;-0.042309806;-0.061724864;-0.053013798;-0.16737568;-0.08083347;0.04622819;-0.0033370368;-0.075398654;0.04391083;-0.028658126;-0.09983519;0.0070150658;0.0049843504;0.009382987;-0.16580527;-0.08057797;0.001605893;-0.040754188;-0.06552126;-0.040690605;0.024349974;0.009091597;0.060913954;0.033140846;0.006203656;-0.10589612;-0.008956414;-0.040195342;0.031648546;-0.068006165;-0.01019896;0.02919954;0.027252408;0.055980384;-0.058242727;0.017270358;-0.05821831;0.011136007;-0.032287776;-0.05095315;-0.024298688;-0.024186216;-0.011089334;0.101016365;0.038357336;0.030241534;-0.029948125;0.12168204;0.01965994;-0.009640655;0.067300774;-0.012495678;0.025707398;0.059453066;0.15225911;-0.017366625;0.06342808;0.0003280202;-0.02433617;-0.09986362;-0.005737671;-0.10558175;-0.06716581;0.051443376;0.083069116;-0.05935166;-0.040571336;-0.090030946;-0.044793382;0.104155876;-0.08226264;0.023132604;0.043638606;0.02373525;-0.04388747;-0.03460465;-0.0032486294;-0.04331196;0.03960896;-0.061875563;-0.09856137;-0.09442833;-0.017559608;-0.0017105773;-0.02838172;-0.10440427;-0.06409056;0.016216232;0.11504191;0.0058982717;0.01063503;-0.10340652;-0.053619597;-0.124874525;-0.079414554;-0.13209623;-0.06924343;-0.12804252;0.026822995;-0.032481678;0.01755877;-0.07157043;-0.09011943;0.0018681755;-0.12435931;0.018452141;0.032986518;0.020087058;-0.006772415;-0.014873662;-0.07245919;-0.001070527;-0.15332931;0.06034597;0.030956056;0.017062105;-0.099354245;0.022393623;-0.15079555;-0.028513111;0.007730453;-0.06616475;-0.058084067;-0.07908936;-0.08582457;0.12940672;-0.012590666;0.060486995;-0.0053646164;-0.026101792;0.05436705;0.016707566;-0.024564154;-0.05782763;0.008880105;-0.0522817;-0.035976842;-0.078660496;-0.07837269;0.07943946;-0.07438337;-0.09498473;-0.061075136;-0.070071764;-0.08156981;0.035088077;-0.106336385;-0.09737758;-0.026511485;0.0075191036;-0.035413537;-0.02176064;0.025101729;-0.0009994259;0.008790852;0.029219404;0.035282765;0.0017301276;-0.004104668;0.05405168;0.13401301;-0.0396347;-0.08272248;-0.086771935;-0.048492584;-0.09143719;-0.11139091;0.07845306;-0.15733458;-0.03154613;-0.043419667;0.021254392;-0.09762465;-0.13491994;-0.010267433;0.0848376;-0.004641;0.0040471638;-0.071923964;0.07851557;-0.07601182;-0.024979113;0.06308009;-0.04282569;-0.07978772;-0.033653714;-0.016768213;0.057001054;-0.043505706;0.01939629;-0.012464607;-0.03713631;0.0638483;0.005812581;-0.0693917;0.0015115312;0.04427928;-0.028334336;0.020092435;-0.069493145;-0.08138757;0.09402257;-0.066180676;-0.10829649;0.06535683;-0.10580981;-0.031470954;-0.053247634;-0.011534233;-0.008563228;-0.07545878;-0.006847583;0.010410399;0.12944674;0.074109465;-0.043507304;-0.03580941;0.029377492;-0.09850937;0.044716105;0.045860946;-0.138818;0.053447142;-0.037063126;-0.013973936;-0.017524438;-0.009288166;-0.13212043;0.05486604;-0.22690086;-0.08668315;-0.04477953;-0.01945887;-0.016609993;-0.01760782;-0.05062722;-0.1116685;-0.09120431;-0.04589014;-0.03544172;-0.13485156;0.027060216;-0.061037343;0.042274557;0.018935192;-0.08038066;0.028815169;0.006157295;0.057910126;-0.0015237419;0.050381303;-0.085967645;-0.005714422;0.020088531;0.0027126006;-0.035714764;-0.02852391;-0.0076491623;-0.044698976;-0.09586521;-0.06367394;-0.054994673;-0.09432675;-0.006643875;-0.006436;-0.11914615;-0.026080754;-0.033191696;0.10329433;-0.08755268;-0.04874075;-0.036974274;0.07212696;-0.03547892;-0.079785444;0.036382098;0.02588746;0.007432245;-0.050135408;0.12721117;-0.04146299;-0.10976386;0.0075222403;-0.047164254;0.057949625;0.14386924;-0.070002034;0.014107967;0.019483527
0.0056181666;-0.09108182;-0.096701786;0.0015808899;-0.028490955;0.0076120645;-0.0580656;0.020477219;-0.015939912;-0.10667564;0.008191089;-0.06472091;-0.048484143;0.019235302;-0.09161837;-0.075041905;-0.035948686;-0.024004936;0.0010948888;-0.061696965;-0.052881997;-0.054048568;0.018772937;-0.020818051;-0.003279671;-0.13522437;0.032316532;-0.04122903;0.019837404;0.031542215;-0.06541132;0.12092955;-0.09738853;0.008067989;0.0133598205;-0.11514831;0.060565025;-0.04559925;-0.00752152;0.03069408;-0.059403516;0.08271493;0.02469548;-0.082840174;-0.13949056;-0.15569189;0.035891004;0.034210302;-0.028621906;-0.09057009;-0.21098979;0.051398218;-0.024795191;-0.04020381;0.017898027;-0.04346764;-0.055715024;0.020448819;-0.017725868;0.008970609;-0.02363552;-0.0038120968;-0.10185212;0.04839679;-0.1127524;0.056519426;-0.018392418;0.07672801;-0.103741035;-0.09711775;0.008488053;-0.01469112;-0.06560397;-0.018407581;-0.024582807;-0.04841807;0.023938768;-0.15662153;-0.029836956;-0.019101856;-0.08125953;0.031415418;-0.027837982;0.021950468;-0.04278576;-0.08276804;0.0092807375;0.012080651;-0.004666001;0.03417538;0.022921361;0.033582263;-0.09877223;-0.070026204;-0.07926815;-0.06022863;0.08388396;0.032517374;-0.06696693;-0.06968525;-0.049520582;-0.070024304;-0.056953218;0.021851826;-0.012489522;0.14453769;-0.09676206;-0.11563347;-0.10524316;-0.033315916;0.010881123;-0.028605126;-0.09854833;-0.08502325;-0.040497426;0.022778433;-0.020558007;-0.0024278017;-0.0934945;0.052530613;0.06331973;0.034278527;-0.0711972;-0.01062523;0.018637255;-0.015128057;-0.080115505;-0.022294564;0.014396604;-0.032651193;-0.11264108;-0.036210287;0.13445489;0.14648435;0.08594039;-0.08335577;0.053792134;0.01877915;0.01628615;-0.08072636;-0.04713511;-0.02062336;-0.11526984;-0.04693561;-0.019043062;-0.06447927;-0.0045569465;0.02558221;-0.07809;-0.06550447;-0.09255046;0.05709756;-0.031100446;0.0288389;0.09938313;-0.018499574;-0.027445246;-0.11594426;-0.025272224;-0.08656679;0.029740816;-0.071025535;0.024091456;-0.07169686;-0.011070377;0.032298774;-0.09915091;0.041846745;0.019969188;-0.010139894;0.029718209;0.07849166;-0.069855765;-0.084170155;-0.041516673;-0.0060499716;-0.051398765;-0.103616014;-0.039540023;-0.039201435;-0.103708975;-0.06362035;0.043151367;-0.06260677;0.02627356;-0.023341937;0.01254395;0.08188983;0.037245244;-0.08552434;-0.12821531;-0.096481234;-0.10454947;0.039144367;-0.08743861;-0.04317693;-0.014535591;0.06779616;-0.03002107;-0.025888264;-0.05913556;-0.03976798;-0.07320043;0.06619257;-0.13192862;0.035872944;-0.020340364;-0.1426867;-0.088138446;-0.14270085;0.017608484;0.044702396;0.023947705;0.054155897;0.027455593;-0.13803637;-0.064613365;-0.0026810344;-0.057769284;-0.047791325;-0.04820225;0.08923591;-0.029300138;0.042761687;-0.006738959;-0.032724928;-0.17738432;-0.0014111744;0.112252206;0.051765732;-0.062529795;0.035822637;0.006742844;-0.08720427;-0.070403665;0.0126615735;0.052271497;-0.054260235;-0.029221246;0.02771142;-0.0548454;0.07359096;0.035406947;0.06800355;-0.06689243;-0.039211884;-0.029729826;-0.06619268;-0.0021570162;0.013661564;-0.09936014;0.03092145;-0.05466622;-0.10660936;0.104636006;0.01816801;-0.026106047;0.029254992;-0.059040885;-0.13232382;-0.06750797;-0.023318633;-0.009890508;0.04602553;-0.16675927;-0.09673924;-0.028453154;0.008512528;-0.096069925;-0.06644076;-0.119563386;0.060237512;-0.033341788;-0.0033705966;-0.055214603;-0.030969879;0.014780933;-0.020562103;-0.041425865;-0.143447;0.0048012673;-0.00027265502;0.015576703;-0.14540026;-0.079641074;-0.01641221;0.04304955;0.002652423;0.010150103;-0.060497776;-0.05486179;0.042352982;-0.043842692;0.03564065;-0.013269535;-0.10232313;0.02700975;-0.16383365;-0.041786894;-0.08564139;0.017672928;-0.12752748;-0.008201128;-0.05727932;0.00429286;0.02757474;-0.07854496;-0.060937688;0.06596278;-0.047248177;0.027895918;-0.096573465;-0.015885286;0.031046268;-0.017604295;-0.08499226;-0.09332762;-0.004469409;-0.03405227;-0.034014877;-0.030378671;-0.08032709;0.056561757;-0.016711347;-0.03419859;-0.0024831833;-0.060768843;-0.085892744;-0.11724317;-0.057996504;-0.017896926;0.020540737;-0.07174757;-0.11899772;-0.045341935;-0.026550047;-0.00041810225;0.0055892463;0.1427485;0.02698669;-0.058323674;0.12260862;-0.09256982;0.14419588;0.0015573945;-0.09465665;0.007827434;0.03161311;-0.08010546;-0.04493189;0.049884744;0.01647649;-0.047888268;-0.03337995;0.02334966;-0.06540798;0.090675555;-0.09988432;0.027280547;0.053148337;0.08439669;-0.010802336;-0.13299014;0.07045747;0.029388534;0.040993895;-0.0044893306;-0.078357205;-0.040217668;0.06501467;-0.06630758;0.07521256;-0.11683668;-0.021652099;-0.018292034;0.12120975;0.044692133;-0.039017595;-0.109151505;-0.08894608;-0.014340656;-0.025662635;-0.0794738;-0.09355986;-0.068637505;0.10836967;0.014848579;-0.08774842;-0.0812486;-0.024259746;-0.05159799;-0.073160514;-0.09526948;-0.031623557;-0.026271854;-0.15987125;-0.09854376;-0.15615024;-0.13016854;-0.17622772;-0.003444017;-0.054364398;0.04436069;-0.16173038;0.03932209;-0.13266353;-0.08811879;-0.00032312094;0.0056724055;-0.1352706;-0.0149986185;-0.056310713;0.088119864;-0.07003749;0.02273857;0.021745851;-0.058407605;0.061565712;0.035085317;-0.036024477;-0.012885397;-0.09505129;-0.004477444;-0.05628016;0.029919926;-0.058318853;0.10705134;-0.024608191;-0.09300904;0.05903057;-0.08841627;-0.06698482;0.084561676;-0.11391047;-0.06306302;-0.009686803;-0.09957614;-0.13923343;-0.07015131;-0.053687043;0.12516816;0.041464172;0.022984374;0.075006925;-0.06825009;0.09388845;0.03898551;0.089976534;0.044427164;0.0032012698;-0.020198695;0.05132613;-0.059917673;-0.080224335;0.04980618;-0.004174569;0.12962018;0.078316584;0.104044095;-0.09401536;-0.14154637;-0.01518602;0.11135043;-0.0016750958;-0.02343339;-0.044556;-0.030408695;-0.021351779;-0.1077477;-0.02633779;-0.084376164;-0.10126035;-0.07275937;0.053120933;-0.0060041626;0.037476517;-0.058649007;-0.07818655;-0.023367481;-0.028131224;-0.08930856;0.006252787;-0.047069643;0.013446144;0.045133118;0.0041223224;-0.004144743;-0.088075966;0.004198288;-0.063929714;0.016231231;-0.015568087;-0.08983376;-0.05361278;-0.08335522;-0.0122861285;-0.032881316;0.0056817904;0.021280956;-0.047383968;0.18010545;0.120914064;-0.036031768;0.061632622;-0.08386401;0.06489171;0.0087700095;0.03947457;-0.063735686;-0.054693677;-0.031817194;-0.06555839;-0.065914206;-0.05235717;-0.028793868;0.022612011;-0.15698986;-0.004392713;-0.06862775;0.029393008;-0.08523037;-0.046226196;0.061747275;-0.1444922;-0.11571943;-0.09583583;0.045989037;0.0051453393;0.01601067;-0.13562869;0.03109931;0.008927962;-0.099268384;0.027334774;-0.037942562;-0.002085496;-0.07995173;0.006058342;-0.003755572;-0.1205323;-0.07796208;0.031748116;-0.030545056;0.06438064;-0.067943014;-0.08766142;-0.093950026;-0.06849893;0.040998735;-0.040375065;-0.05966564;-0.1100127;0.006439543;0.016230384;-0.008461808;0.020855641;-0.054174226;0.0020233796;-0.04317077;0.06682783;-0.01841483;-0.08970697;0.06320356;0.07607112;-0.07710899;-0.06937871;0.110779606;-0.058213007;-0.07481481;0.02588115;-0.1512708;-0.08723488;0.041213334;0.014406529;-0.07398623;-0.10226363
0.002458519;-0.005629342;-0.065600395;0.06076136;-0.020745002;-0.022733616;0.03135662;0.057764903;0.04199808;-0.11228689;-0.11640965;-0.005042783;-0.13045399;-0.008185972;-0.031294398;-0.09857138;0.042354334;-0.064525306;0.0066239643;-0.043788556;0.045417458;-0.09997478;-0.15686598;-0.089354165;-0.069524646;-0.010204636;-0.06345439;-0.02444326;-0.044002425;0.010986468;-0.16991219;0.09965272;-0.08121731;-0.034885056;0.022558665;-0.057840854;0.0765161;0.011208171;-0.0931652;0.018299023;-0.07241061;0.14285761;-0.025634086;-0.10649382;-0.0516448;-0.013147282;-0.10225886;0.040341325;0.010622227;0.008095127;-0.1728609;-0.04414032;0.04069089;0.042198658;0.02924829;-0.068921044;-0.016745977;-0.0620216;0.057613324;0.029419983;-0.08284985;-0.012457839;-0.1608085;-0.010141333;-0.04405399;0.08600576;-0.033014584;-0.06753264;-0.119976446;-0.002330149;-0.0336077;0.04538997;-0.12368559;-0.046552774;-0.1288713;-0.111963935;0.03862532;-0.065946825;-0.016446577;-0.030012975;-0.046476953;0.024292354;0.028850812;0.007864821;-0.006543243;-0.10399242;-0.05799943;-0.04467186;-0.009306183;-0.065626144;-0.085140474;-0.042171005;-0.04450719;-0.058528043;-0.029663015;0.058532048;0.16674897;-0.11496376;-0.014230014;0.03207486;-0.10023825;-0.06891033;-0.005842296;0.013384015;-0.059946008;0.14140949;0.021726098;-0.012313323;-0.042491343;-0.04622241;-0.0241545;-0.040559333;-0.083358325;-0.10896474;-0.086705856;-0.07202566;-0.00067858014;-0.02260398;-0.11532749;-0.07183849;0.0698416;-0.07292749;-0.0113042;0.033238206;-0.04009909;-0.05823781;-0.09335131;-0.03162354;0.024017572;-0.017017454;-0.10116808;-0.07137173;0.12712134;0.038314234;0.15498133;-0.065825485;-0.08177458;-0.022808373;-0.0154509;-0.11763601;0.017893061;-0.05263124;-0.05371176;-0.038995028;-0.033247866;-0.017472107;0.087810755;-0.081816226;0.015739659;-0.120682254;-0.026867064;-0.035406686;-0.034125082;0.09782377;0.11136782;-0.016625581;-0.023242293;-0.041403215;-0.0037815606;-0.054013442;-0.06828274;-0.07352202;-0.042741686;0.029623605;0.0006833494;-0.044218004;-0.091551736;-0.104268074;-0.12291589;-0.029471762;-0.003318464;0.0654265;-0.035853196;-0.039746266;-0.078127064;-0.10890779;-0.12170502;0.06077165;-0.053507347;-0.004387615;-0.04983771;-0.0042159124;-0.06299282;0.019659907;0.043510474;-0.062078856;0.06298504;0.014663321;-0.032167315;-0.019226452;-0.1796954;-0.026808197;-0.02441764;-0.0045257304;-0.013579458;0.02148636;0.0018203851;0.054914493;-0.0680215;-0.11017062;-0.118563004;-0.12514414;-0.013522206;0.021573057;-0.009274803;0.04595425;0.023916282;-0.0890211;0.013481523;-0.09247258;0.12275765;-0.009321047;-0.004423638;-0.020788211;-0.07518089;-0.023991011;-0.016265605;-0.011666702;0.045339152;-0.10635756;0.005442071;-0.056940947;-0.068718106;0.023443425;-0.13287674;0.026468825;-0.11351255;0.026647456;0.0014697416;0.08907996;-0.10621635;-0.005403971;0.026434219;-0.14589755;-0.06769501;-0.046932675;-0.049372435;-0.006555073;-0.13984016;-0.03431345;-0.011573526;0.01542684;-0.03555457;0.1025164;0.014994128;0.0026028873;-0.03484045;0.057692926;-0.01647604;-0.04701331;0.047425255;0.035455655;-0.0005056777;-0.1138546;0.004547232;-0.009322925;0.031924468;0.019590119;0.006854312;0.0014176775;-0.06399494;0.03182648;0.02754966;0.014442295;-0.15087587;-0.0051270877;0.04107438;-0.07329804;-0.10152568;0.049305987;-0.11091215;0.04665602;0.000111299014;-0.021930026;-0.09589139;-0.077724725;-0.07995815;-0.024955759;-0.06537319;-0.1416532;-0.039878488;0.00024636634;-0.103447095;-0.030653803;0.01283883;0.055764783;-0.1080606;-0.09818167;-0.064726494;0.015095717;-0.13257167;0.041874394;-0.0819788;-0.012446604;0.017961146;0.018797511;0.035904527;-0.22792011;0.0056079724;-0.059518926;0.012121338;-0.06316004;-0.048436828;-0.12753491;-0.1364289;0.0053358134;-0.10732546;0.00087211025;-0.011642887;-0.080738425;-0.08159934;-0.14308289;0.049843006;-0.07091272;0.025222417;0.04978333;-0.0039119977;-0.050851654;0.025246805;0.048518218;-0.013625583;-0.120350935;-0.095384724;-0.06371623;-0.0056425724;0.04738463;-0.027629042;0.067433566;-0.011431959;-0.036195274;0.01370287;-0.031855263;-0.10024988;-0.07697747;-0.05516431;-0.07048833;0.011186845;0.06676558;0.12467496;-0.0016052263;0.029894667;0.0845991;-0.007312882;0.102009065;-0.07339249;0.033530097;-0.030337298;-0.019222166;-0.022096906;0.023136066;0.045568652;-0.018810825;-0.043131188;-0.0254077;-0.06353356;0.077324696;0.05123365;-0.031664006;0.0048303693;-0.09372545;-0.032062992;0.07273235;0.017000776;0.044868946;0.02115739;-0.02514252;-0.13354677;-0.08872842;-0.0687156;0.008819341;0.04351838;0.038458414;-0.10240336;0.008584661;0.04319114;0.027234128;0.093149096;0.11622433;-0.08005048;-0.01126243;-0.07688893;-0.09001662;-0.011024677;0.027237382;0.01418915;-0.012582181;-0.018746713;0.020518607;0.008671967;-0.03747661;-0.075885616;0.033656508;-0.011593231;-0.04869934;-0.053711746;-0.036848433;-0.08711921;-0.04265638;-0.06981789;-0.11360105;0.05678701;-0.07521822;0.057812594;-0.11829868;-0.028038759;-0.10323139;0.040866457;0.011000195;-0.06831274;-0.11624325;-0.061904106;-0.04311867;0.15442872;-0.14922847;-0.05237934;-0.1002761;0.0016917024;0.0053869584;0.021323146;-0.024705004;-0.10739365;0.007903926;-0.11172896;-0.015024256;-0.010143292;-0.13626319;0.026751727;-0.038311534;-0.09175322;0.025381653;-0.07793259;0.012982277;0.09068913;-0.007807796;-0.082011275;-0.038399253;-0.03246187;-0.12901744;-0.041919194;-0.0148085905;0.10884226;-0.025489705;0.058397114;0.03491656;0.037347663;0.072441004;0.08543894;0.018650463;-0.009006884;0.03337337;-0.09530803;0.04853225;-0.0989978;-0.088614166;-0.004124226;-0.02090211;0.11645675;0.09424864;0.03707264;-0.07738082;-0.05460198;0.05464878;0.06469587;0.06766873;-0.018246034;0.052781507;-0.06295962;-0.13835034;-0.075611636;-0.029054994;0.058903325;-0.007623938;-0.060664434;-0.059912156;-0.05906647;-0.022646891;0.0070218397;-0.08361447;0.043627005;-0.04853125;-0.026870945;0.057841275;-0.0046607372;0.06801595;-0.05594732;-0.067562155;0.020248786;-0.04346273;0.023715226;0.011849871;-0.10385041;0.0671721;-0.115673445;-0.014268694;-0.061383188;0.120453425;-0.04234935;-0.019975387;-0.017405514;0.021821538;0.11365079;0.11837527;-0.15745395;-0.03585308;0.0284361;0.051629893;-0.03325956;-0.02952059;-0.13200581;-0.035846807;-0.007708828;-0.07622738;-0.02737255;-0.104856834;-0.04842306;-0.06253245;-0.15684706;0.05601688;-0.04583921;0.03173083;-0.04422763;-0.044503096;0.03834063;-0.05679967;-0.018111473;0.050385665;-0.07161188;0.019034617;-0.028482005;-0.056128465;-0.019226722;0.0060545113;-0.024238795;-0.05387238;-0.02807044;-0.099259846;-0.11500952;-0.04361112;-0.061700262;-0.15301532;0.029500393;-0.0914395;-0.04800159;-0.006102322;-0.04933578;-0.056745682;-0.061973866;-0.08184288;-0.08042969;0.04644539;-0.042023394;-0.107607424;0.037911803;-0.11605848;0.029635707;0.024912084;0.0074996417;0.007990247;-0.038639978;0.094282284;0.03451344;-0.050700206;0.10744793;0.0053503024;-0.05062312;-0.021950498;0.08893067;-0.035110466;-0.10181875;-0.059752975;-0.113166824;0.030155372;0.08090702;0.023377484;-0.06777314;-0.06327907
-0.09465343;-0.01951147;0.017376354;0.022852877;-0.07431371;-0.11856956;0.019237822;0.021352593;-0.06664159;-0.07577593;-0.07196084;-0.030217456;-0.06051889;-0.057741363;-0.10277968;-0.06047825;-0.090714;-0.12359315;-0.07138004;-0.056006953;-0.03456607;-0.0040551466;-0.122579895;-0.024228875;0.004291763;0.024531163;-0.0998475;-0.122021474;-0.025995418;-0.040937178;-0.1018872;0.090751134;-0.10041783;-0.037136134;-0.06542741;0.008604155;0.022987407;0.070237085;0.034400824;0.040590752;-0.12098956;0.16334867;0.10466166;-0.07753682;-0.026385905;-0.08573444;0.019661786;-0.06233185;-0.013254359;-0.07483335;-0.10281718;0.05478136;-0.100498855;-0.024079645;0.004969541;-0.07813227;-0.094554365;-0.054816373;-0.05103296;-0.07175723;0.07189419;-0.00138093;-0.12689851;0.014685311;0.044024624;0.013738617;-0.004014643;-0.029431049;-0.070888706;-0.056228597;-0.0040426576;0.01693999;-0.0036838176;-0.030754933;-0.15087743;-0.0432882;0.040133163;-0.083492234;-0.043227207;-0.016647385;-0.08552976;0.022133037;0.06363943;0.100349635;0.0063952715;0.005197921;-0.01060655;0.04993958;-0.049582776;0.0056301015;-0.09699359;-0.09217965;0.057250544;-0.11217578;-0.016329803;0.019863723;0.1412019;0.007821449;-0.07634866;0.049782015;-0.061368257;-0.06326575;-0.06691527;0.0021899757;-0.060535654;0.10309594;0.023572195;-0.13715981;-0.00020045176;-0.01394773;-0.037070233;-0.045385465;-0.11598184;-0.012631173;-0.03104014;0.015634825;-0.0007103469;-0.12319512;-0.14540611;0.06719465;0.00044941288;-0.10419878;-0.010981913;-0.03499482;-0.066915356;-0.07723064;0.022966377;-0.03268399;0.043125927;0.026444718;-0.03203387;-0.018134883;0.13732369;0.013291398;0.12862088;0.039443597;-0.033757456;-0.09374529;-0.08491315;0.0071515013;0.0135255195;-0.09269649;-0.09894003;-0.047198787;-0.015461506;-0.056210663;0.09792979;-0.013795044;-0.04851026;-0.07709914;0.045688946;-0.02706144;-0.023560775;0.0116866985;0.10750777;0.01623785;-0.100541145;-0.058564644;-0.09201768;-0.07434691;-0.103041224;-0.021665659;0.0040550614;0.02441858;-0.051375967;0.036847685;-0.13108592;0.04897344;-0.05184297;0.013128;0.025787314;0.0387059;-0.09368281;0.035133537;0.027799794;-0.061485305;0.027220627;-0.05901207;-0.045744587;-0.082716346;-0.15745908;0.030680668;0.008673909;-0.06752045;-0.087469876;-0.040194288;-0.001462897;0.0061197863;0.01737822;-0.01087879;-0.073250785;-0.025366707;-0.021585595;0.027560256;-0.078898795;-0.024701258;-0.13137816;-0.07235366;-0.11424025;0.015006069;-0.10047672;-0.028107285;-0.0993994;-0.0031182475;-0.12378763;-0.105574034;-0.008234674;-0.10121179;-0.07365444;-0.09023123;0.041019056;-0.0054482673;-0.005341276;0.06530703;-0.042822905;-0.13273175;-0.11646452;0.036060043;0.036503147;-0.15261021;-0.09129863;0.023314862;-0.04926074;-0.024152633;-0.124970116;-0.09690354;-0.075039886;-0.04478923;0.07128219;-0.013978542;-0.08966254;-0.061140645;-0.017173672;-0.14352734;-0.07492743;-0.047223654;-0.0080393115;-0.054367054;-0.14057596;0.05633422;-0.061342128;-0.004850884;0.06824066;-0.035179626;-0.05017942;0.061462443;-0.003182846;-0.0010751382;0.017631996;-0.06330999;0.01884988;0.012996213;0.04303764;-0.053783868;-0.012980359;-0.01179746;0.021716768;-0.031654906;-0.1144571;-0.063654;0.008415731;-0.06463782;-0.102487;-0.029337041;-0.060671553;0.023807183;0.030112362;-0.046942517;-0.094888546;-0.10400021;-0.0017656366;0.059692446;-0.08927839;0.032517437;-0.060137738;-0.10718387;-0.08981811;-0.0744985;0.020681908;-0.0644944;0.0069549396;-0.058972534;-0.096251555;-0.027970508;-0.022637853;-0.08395447;-0.06477434;-0.026444755;-0.064498074;-0.045572817;-0.078311674;0.028214265;-0.04203726;0.0124086235;-0.03233937;0.03661348;0.041411065;-0.0979509;0.007757734;0.011554792;-0.06330112;-0.06683371;0.058514494;-0.12610158;-0.08750905;0.03603252;-0.049876366;0.036866754;0.064504445;0.050238095;-0.086007;-0.12428701;0.046513207;-0.032125905;-0.01422132;0.015458143;-0.012193004;-0.100176126;-0.06783207;0.070639;-0.06455317;0.007091509;0.027721452;0.021338616;-0.0896185;0.008947873;-0.047993615;-0.0136786755;-0.05159839;-0.12609822;-0.0062566274;-0.05542438;0.0034558056;9.358678e-05;0.07062942;0.024791764;-0.09994964;0.02378427;0.092407405;-0.10245568;-0.039497018;0.05672879;-0.117091306;0.114051476;0.04119885;-0.04308573;0.0029476155;0.019934753;-0.06254077;-0.027464293;0.03719436;0.06832521;-0.06487539;-0.038014665;0.006848318;-0.019358687;0.007878324;-0.06712357;-0.008337356;-0.092972316;0.02912582;0.06715318;-0.0030153256;0.13467938;0.034814447;-0.049809832;-0.11632846;-0.03485872;-0.09910348;-0.09111638;-0.017758785;-0.05567916;-0.11358661;0.01036625;-0.03980037;0.051349167;0.02457777;0.104661524;-0.018936027;-0.09203447;-0.017655905;0.033323526;-0.02760965;-0.00070468185;-0.008799077;0.06501088;0.004020374;-0.07885793;-0.025360461;-0.013287928;-0.04253523;0.01905408;-0.01277663;-0.068545;-0.027931103;-0.034096524;0.022053031;-0.0469144;-0.08179596;-0.040917218;0.09178327;-0.09484387;-0.0036545505;-0.17205285;0.032800745;-0.033364337;0.01934007;-0.04333364;-0.0852463;-0.07996717;-0.050116327;0.0081190225;0.05786642;-0.04330547;0.041653812;-0.06384148;-0.07666285;-0.0010476185;0.046980936;-0.07246029;0.013720629;0.0026377682;-0.14046425;-0.08479778;-0.09337157;-0.17540616;0.06808018;-0.009865715;-0.013084071;-0.09335572;-0.065613836;0.0056401426;0.057833217;-0.077384226;0.04724937;-0.013205482;-0.0857858;-0.054341674;0.0033586791;-0.07221202;0.050085485;0.052306555;-0.10019793;0.045610264;-0.07827269;0.1754521;-0.06611267;0.08076789;-0.038759433;-0.0242104;-0.09215115;0.019653605;-0.12226845;-0.06281312;-0.038968697;-0.15448017;-0.0083738575;0.063773334;0.019964991;-0.016692184;-0.03378582;-0.034790587;0.12703365;0.07666582;-0.12585929;-0.072699375;-0.1026556;-0.08765305;0.023929475;-0.028759114;-0.0025080012;0.048166234;-0.11631658;-0.04497007;-0.08151542;-0.124993406;-0.05690648;0.04816176;0.00032547864;-0.0795457;-0.067960925;-0.033823244;0.043146692;-0.071799494;-0.07293802;0.057698935;-0.093434;-0.13256209;0.01998285;-0.05584277;-0.11763488;0.11014505;0.03655416;0.0074534467;-0.049290333;-0.0011730876;-0.036248844;-0.027036196;-0.051675957;0.038582474;0.15606928;0.010114752;-0.13845739;-0.063468084;0.036614895;0.013981805;-0.027927479;-0.042587366;-0.17302224;-0.03947922;0.05442774;-0.066834785;-0.054392792;-0.041487195;-0.087222755;-0.09696314;-0.2592187;0.026016835;-0.07038016;-0.049255807;-0.015400047;-0.0064270366;-0.08042915;0.0029332563;-0.052958023;-0.00040279873;-0.008520259;-0.05067375;0.047944505;-0.08872046;0.040167067;-0.13066977;-0.03088096;-0.08973206;-0.045194488;-0.10698048;0.049009044;-0.072353475;-0.0888201;-0.081334636;-0.08802831;0.001308747;-0.11789468;-0.06857103;-0.14976038;-0.09881064;-0.10940099;-0.056490105;0.038942754;0.036531333;0.044590034;-0.022065818;0.005300476;-0.081425264;0.026667563;-0.042665336;-0.031416167;-0.011700168;-0.1150614;-0.05206895;0.035658367;-0.025418995;-0.028720606;0.14104457;0.02716702;-0.10640324;0.0991672;-0.12668432;-0.020545548;0.015307409;-0.108469345;0.06772673;0.10899999;-0.042481497;-0.062211834;0.0072344765
-0.07240462;-0.04329568;-0.020608565;0.022119068;-0.0809031;0.032259878;0.006138324;0.005299913;-0.009531391;-0.07346739;-0.058871098;-0.08737658;-0.0057630055;0.016906831;0.011245756;-0.046908814;0.02087545;-0.026309522;-0.06876179;-0.04980122;-0.007718585;0.039746087;-0.037969537;-0.022893857;0.037104804;-0.023482468;0.047940172;0.019459974;-0.026834374;-0.029994195;-0.18055974;0.004087109;-0.11265504;0.0051170085;-0.095307894;0.037656594;0.098026186;0.0065715155;-0.022800911;-0.09397128;0.008465854;0.09408711;0.039276466;-0.038895756;-0.13605106;-0.16577773;-0.04121737;-0.024521174;0.05561221;-0.1065516;-0.22015075;0.082073204;-0.107869655;-0.002229122;0.08730415;-0.05392938;-0.033990208;-0.021042507;0.042970646;-0.09560935;-0.00070851005;-0.12653711;-0.13786703;0.045029353;-0.03319585;-0.065903045;-0.077427156;0.05039549;-0.026711795;-0.008640573;-0.091613546;-0.050499633;0.01760222;-0.08632357;-0.04645852;0.020809798;0.05074915;-0.13012637;0.108514324;-0.09136176;0.019933177;-0.08697252;0.06345806;0.15440114;-0.06356779;-0.110639945;-0.04174446;-0.031657632;0.010439107;-0.097812496;-0.056364752;-0.07807629;0.028748553;-0.0060969777;-0.101109765;0.052111674;0.18945156;-0.06027762;-0.040430125;-0.10159798;-0.065273985;-0.03897705;0.0026006359;0.01047069;-0.011635024;0.102860175;-0.06630738;0.010669008;-0.005246706;-0.040572822;0.08901879;-0.12404138;-0.07032307;0.041514635;-0.026060438;-0.06743188;-0.012832343;-0.028265564;-0.11952601;-0.01863229;0.094631694;0.058169007;-0.10151913;-0.10537268;-0.005987472;-0.09954617;-0.0024271666;-0.031406883;-0.08941973;-0.08448107;-0.09746968;-0.051639166;0.1507893;0.017538803;0.063173406;-0.03555758;-0.05821265;0.004941447;0.07136232;-0.0903407;-0.039335694;-0.019743899;0.0017726022;-0.09167553;-0.16732188;-0.06896383;-0.00029866936;0.04883829;-0.08123421;-0.047933623;-0.06444655;-0.0528685;-0.06601613;0.05569386;0.13936841;-0.056160886;-0.09657587;-0.14970504;-0.042792037;-0.059439182;0.032363713;-0.053721845;0.033461582;-0.097670354;0.03224701;-0.098723516;-0.03147869;0.03751002;-0.08200178;-0.0929055;0.032386515;-0.01659321;-0.0392321;-0.033461705;-0.011804876;-0.0038929742;0.0008930705;-0.069796756;-0.012130182;-0.099347614;-0.05999539;-0.07649026;0.025441958;-0.074125595;0.0033343823;0.058740344;0.018415315;0.041610032;-0.063989975;-0.06664507;-0.103965685;0.039951425;-0.09674199;-0.027277093;-0.0797319;-0.05818487;-0.11331818;-0.043567523;-0.10144822;0.026007062;-0.09833609;-0.12933582;0.05298657;-0.08467959;-0.04389584;0.0022696208;-0.016414486;-0.016941685;-0.02264313;-0.087288685;0.1282773;0.00062616804;-0.049085066;-0.02891507;0.060623683;-0.10177697;-0.099429436;0.012751559;0.011742197;-0.090943724;0.030916624;-0.028707849;0.032687336;-0.002538661;-0.12040097;-0.023452682;-0.014294438;0.053298876;-0.036555238;0.06474049;-0.070438474;-0.09411029;-0.017506743;-0.056841306;-0.07097241;-0.013913501;-0.006400742;-0.073030435;0.008868474;-0.10715884;-0.09251671;-0.029303232;0.004400148;-0.04149221;-0.0598637;0.023005636;-0.07006448;0.05120016;0.07795215;0.03191864;-0.039618272;0.03445719;0.006400833;-0.037605416;-0.039353456;-0.058301304;-0.05873682;-0.09015721;-0.06260677;-0.123203225;-0.026292853;-0.06673602;-0.06483715;-0.06117043;-0.08572297;0.005215448;-0.09782528;-0.029358026;-0.055377193;0.006168133;-0.050329294;-0.053958077;0.040902562;-0.099764615;-0.08846777;-0.011312594;-0.11568585;0.044254765;-0.077535674;-0.043452118;-0.013664257;0.06317422;-0.059644815;-0.15956308;-0.095488586;-0.081604585;0.0003728794;0.0074355155;0.014347847;0.026711205;-0.14352007;-0.009809283;0.04079953;-0.05632946;0.037936043;0.05214966;0.101056956;-0.06787677;-0.05135211;-0.026222728;0.005332514;-0.09362304;-0.0907336;-0.05618223;-0.023194032;-0.08752989;-0.09865923;0.028758077;0.08349326;-0.09891289;-0.064164884;-0.053373966;-0.006137941;0.033843588;-0.107760586;-0.019738782;-0.05502943;-0.03939137;-0.069466226;-0.05984822;-0.09820674;-0.030097041;0.013862838;-0.051109016;-0.045980204;-0.028904384;0.06113449;0.025761815;-0.1032468;-0.017703028;0.016014265;0.0064780405;-0.049477;-0.061440326;0.06789117;0.039631087;-0.0018471668;-0.055043366;0.06596107;0.04382597;0.0023678448;0.1695432;0.006773256;0.055263165;0.016634867;-0.008877866;-0.040343776;-0.091763146;-0.009797306;-0.068270184;-0.0011165595;0.07434552;0.033760488;-0.06924101;-0.056955505;0.08311718;-0.048929375;-0.026771147;0.0067057344;0.03692889;0.018217206;0.07097624;-0.06901329;0.12375386;-0.0060149487;0.030683208;-0.113779396;-0.08903982;-0.008246547;-0.007588359;-0.033800077;-0.10518734;-0.018725919;0.031799596;0.0052397083;0.12894958;0.008223397;-0.008777201;0.037706763;-0.11377248;-0.05986965;-0.064747624;-0.01429191;-0.087396465;0.0008291773;0.11261541;-0.015958522;-0.022361333;-0.06525626;-0.01582934;0.017174715;0.021668954;0.0008243088;-0.045642957;-0.064510144;-0.06217089;-0.097216986;-0.11718438;-0.012521587;-0.11224595;0.041514523;-0.09388731;0.015142538;-0.10848525;-0.06570768;-0.035057683;-0.026338706;0.053177685;0.027550489;-0.099272154;0.014852183;-0.05083475;0.030243963;-0.018689035;-0.030333364;-0.09296393;0.042285576;0.053938836;-0.10957365;-0.03688579;0.033916004;-0.06844837;-0.08402376;-0.095887;-0.037920725;-0.18260416;0.09528301;-0.03455848;6.421611e-05;-0.05192188;0.0451662;0.020376345;0.07894888;-0.08043496;-0.058710717;0.020717071;-0.032737542;-0.08860872;-0.0060745496;-0.0734634;0.04587964;-0.007281718;-0.09496153;0.03762177;-0.0663993;0.15895422;-0.006775224;-0.019247632;-0.06007677;0.02988234;-0.011040651;-0.016655477;-0.11422747;0.01598451;-0.025379349;-0.07016186;0.037215576;-0.014429691;0.028378924;-0.068802625;-0.17371939;-0.08081869;0.17037322;-0.08539278;-0.012385892;-0.08113691;0.024236208;-0.04263511;-0.06506501;-0.019315917;0.011313662;0.06083447;-0.1560459;0.03775728;-0.09677421;-0.082476914;0.015829707;0.0032574253;0.018595759;0.045074727;-0.0342909;-0.07432307;0.047115717;-0.023056189;-0.08557095;-0.07658315;0.011873656;-0.08360627;-0.045400344;-0.087749444;0.04836373;-0.02738664;-0.03519908;-0.076728255;-0.026946735;0.07886321;-0.10007346;0.035624515;-0.022840034;-0.0019123234;0.09226931;0.01091765;-0.20879143;0.06875539;-0.010717893;0.002223767;0.06416506;-0.06449158;-0.13904783;-0.0753682;-0.020992758;0.006546378;-0.009012692;-0.11169553;-0.10467353;-0.06345185;-0.172377;-0.016758049;-0.13902156;-0.055119537;-0.028240807;-0.00039236355;0.009986699;0.013357092;-0.058294322;-0.020260865;0.038265895;-0.116690524;0.023926284;0.018962082;-0.022698672;-0.038053565;0.008034255;0.007542675;-0.051181715;-0.06447012;0.004095836;0.021068903;-0.044882324;-0.060684886;-0.105533645;0.03207783;-0.10250834;0.058731876;-0.12518449;0.013097666;0.0004887948;-0.06562461;-0.022631574;0.012074451;-0.03375932;8.2527346e-05;-0.06765587;-0.05776862;0.034527432;0.09626492;0.001292262;-0.07490484;-0.076315865;-0.015008599;-0.0396169;-0.03278717;0.022808576;0.07362411;-0.060174726;-0.11160276;0.04727828;-0.14530692;-0.12507103;0.029947845;-0.120081365;-0.014755607;0.12504321;-0.050369997;-0.08745251;-0.0039395946
-0.054915737;-0.10903285;-0.010656825;-0.060614005;-0.011040588;-0.08212506;-0.06276312;-0.05100178;0.046499144;-0.15342511;-0.046569183;-0.11883782;-0.08347991;-0.057744768;0.009547269;-0.106884666;0.023932425;-0.0678766;-0.10619895;-0.01069734;-0.00023845321;-0.06491265;-0.03156215;-0.10095554;-0.027728757;0.04327373;-0.10013018;-0.05337554;-0.033347365;-0.064505704;-0.07218343;0.11140935;-0.110526845;0.007734447;-0.076319695;-0.037828673;-0.012444009;0.09200025;0.0078085167;-0.05681403;-0.06319926;0.10404757;0.0069858064;-0.07917828;-0.07646531;-0.045664407;-0.08284007;0.00854238;0.0636669;-0.08428705;-0.12665018;-0.0049234782;-0.087055765;-0.008225793;0.018994391;-0.069965295;0.026298214;0.06434744;-0.03795361;-0.07495913;0.039444286;-0.11719538;-0.1816913;-0.06185935;0.043040305;0.021977702;-0.12285158;-0.005981303;-0.066962674;-0.086431004;-0.10898048;-0.10174645;0.0007785545;-0.101735815;-0.090842344;-0.074653864;-0.034580756;-0.027423253;0.02565936;-0.006050848;0.022449175;-0.078729264;-0.0077589224;-0.004957658;-0.0047983387;-0.02866666;-0.05843126;-0.0080987625;0.0014314775;-0.013634293;-0.014682353;-0.063325085;-0.07969921;0.027896922;-0.08081243;-0.060976896;0.053061478;0.021911519;0.026323954;-0.0018012754;-0.026252052;0.062004983;-0.06791654;-0.10194118;-0.035754226;0.08316199;-0.08936018;-0.039167993;-0.1125298;0.03462642;0.06771535;-0.10965008;-0.09469156;-0.022062872;0.015776705;-0.103383765;0.08631771;-0.032795593;-0.14520438;-0.090123534;-0.0019632278;-0.0696266;0.011757595;0.031940304;0.01764866;0.057614096;0.044595882;0.04378436;0.007563432;-0.08278325;-0.046414956;-0.059044983;0.07264692;-0.01766413;0.100994304;0.016790682;0.01348275;0.050275747;-0.016458534;-0.10286308;-0.109698705;-0.09700132;-0.073783785;-0.050918937;-0.13566032;0.0071053146;0.10492757;0.054081887;-0.02876362;0.04384232;-0.053392626;-0.043496978;-0.006024517;0.020996146;0.017535802;-0.11890372;-0.10735476;-0.0667158;0.014056689;-0.054153387;-0.0062104953;0.014554407;0.015246791;-0.06774757;-0.01770314;0.0071072294;-0.0066858777;-0.033959404;-0.14384909;-0.07860982;0.049735423;0.043136764;0.026750088;0.03221563;0.02824728;0.0433264;0.02076644;-5.2186733e-06;-0.023355287;-0.114586;-0.13701996;-0.058083184;-0.025603496;-0.07185054;-0.044384465;-0.03624242;0.05704198;0.15044545;-0.01751821;-0.09560028;-0.0338602;-0.06573869;0.053596906;0.05851248;-0.059683677;-0.054939218;-0.07930288;0.03050191;0.0061468985;-0.09173072;0.040029217;-0.13056394;-0.09605686;0.010428532;0.023525495;-0.09677467;-0.12476046;-0.04486704;0.051298782;-0.077629276;0.110210575;0.043083623;-0.001982176;-0.0060248547;-0.025065636;-0.17665653;-0.06567779;0.003671514;-0.0025214027;-0.10713852;-0.064094774;0.07310534;-0.0746653;0.021282187;-0.06321912;-0.102489695;-0.15191527;-0.044786125;0.0859608;0.058410276;-0.11028255;-0.0654802;0.011918061;-0.033303153;-0.01063578;0.027285485;-0.0013335056;-0.06189471;-0.09042106;-0.009011896;0.030821884;0.066449195;0.03871729;-4.13155e-05;0.006950613;0.11508158;-0.03837814;-0.0003153899;0.004878755;-0.035894513;0.013055738;0.08179699;0.1107712;-0.07243993;-0.01606856;-0.05290641;-0.05562276;-0.014942451;0.017053634;-0.118431106;-0.00094113784;-0.004140141;0.025308255;-0.06861088;-0.13715272;-0.011430171;0.049881358;0.062612556;0.050638076;-0.09961335;-0.043949004;0.06776538;-0.007547107;-0.07572521;-0.09262192;-0.08572343;-0.11496553;-0.081522346;-0.03127844;-0.0616119;0.11846153;-0.07069716;-0.041148953;-0.04722818;-0.029789481;-0.07892612;-0.0032794406;-0.10681035;0.029786585;-0.0018525618;-0.11279507;-0.059107255;-0.0666157;0.015534634;0.0022788567;0.099151514;0.11536096;-0.07263377;-0.08737003;-0.00035112022;-0.12105386;-0.06790839;-0.044291586;-0.12856236;-0.07642914;0.026993638;0.009976128;0.030257797;-0.027011422;-0.0016617893;-0.04110333;-0.08538893;-0.062428538;-0.13874683;-0.11299038;0.03173593;-0.032784343;-0.06475044;-0.08082915;-0.053695973;-0.01371521;-0.027450528;-0.03643366;0.051202618;-0.025811551;-0.057783883;-0.0012230771;0.11677347;-0.13224693;-0.039020356;0.07060182;0.023583451;-0.025143918;0.0056938287;0.03403353;-0.05772505;-0.023258988;0.0651257;0.1107671;0.013634213;0.07089803;0.06515689;-0.13430333;0.020472225;-0.045456905;-0.13068095;-0.04991279;-0.112555906;0.05069531;0.019030355;0.06062119;-0.03444273;0.0152770905;-0.09023744;-0.025562616;-0.05233258;0.060258258;-0.075640604;-0.07408445;0.022518346;-0.018247945;0.056070335;-0.067848526;0.120444976;-0.104374446;-0.07286538;-0.07365456;-0.034125533;-0.074055485;-0.039773688;0.024325484;-0.010869357;-0.11099404;-0.08532746;0.011226072;0.09882718;0.044396922;0.059242804;0.05707298;-0.021651749;0.008394517;0.012581307;-0.10191564;-0.12651423;-0.09291525;0.053006023;0.04669106;0.033392463;-0.05074052;0.020889888;-0.043762114;-0.07353928;0.0577553;-0.00044074215;-0.097601354;-0.084153116;-0.009293669;-0.11426031;-0.05685701;-0.14158009;0.014014821;-0.0014974982;-0.074687466;-0.11638958;0.07148996;-0.025206484;-0.094586596;0.059994355;-0.054348942;-0.03641246;0.008481817;-0.058681738;0.032727536;-0.11831807;-0.028964553;-0.054185756;-0.08904722;-0.056012213;0.015214414;0.013472379;-0.058878057;0.052650172;-0.032590374;0.0543868;-0.036067262;-0.059355307;-0.0061926064;-0.037354194;-0.022762682;0.020453187;0.031875256;-0.011859775;-0.024702637;-0.06263063;-0.06295907;-0.07252272;-0.040382028;-0.116809405;-0.04381919;-0.07507026;0.050423518;0.062969044;-0.0732158;-0.00015694051;0.05078678;0.058433507;0.026688559;0.08597955;0.05946742;-0.07978088;-0.09874009;-0.022578772;-0.024003752;-0.0654718;-0.008471237;-0.11240252;0.12505001;-0.01581424;0.018973388;-0.048579104;-0.036181588;0.066211455;0.1122881;-0.08564185;-0.00932483;0.022749769;0.0742629;-0.1304728;-0.034777425;0.042640682;0.0041114544;0.019341817;-0.14645168;-0.038045447;-0.010789057;-0.016615426;-0.018210331;0.01042237;-0.03480191;-0.028833538;-0.004267975;-0.1076686;-0.0072004544;0.0527674;-0.084754124;0.015489396;-0.076566786;-0.08463908;-0.016539987;0.057520427;-0.075003214;0.053290494;-0.061757132;-0.011179769;0.05887195;0.039304208;-0.09995928;-0.010174935;0.035467796;-0.0017395805;0.19749062;0.09214013;-0.09569627;-0.065895505;-0.0054922;-0.031095823;-0.07532738;0.062046025;-0.08236643;-0.010602624;-0.05666723;0.022302255;0.0095845545;-0.08272963;-0.06349303;-0.08870276;-0.23707607;-0.032254398;-0.009744727;-0.06390461;-0.11288771;0.042703167;-0.0607454;0.006931785;0.050218817;0.036847714;-0.057402845;-0.029523898;-0.10914652;-0.1110505;0.020257415;-0.050971128;-0.018980568;-0.006915939;-0.036362723;-0.07317481;-0.014234775;0.0019217043;-0.12621048;-0.09922472;0.026339924;-0.09317672;-0.08512409;-0.07868763;-0.05670438;-0.028193178;0.019726379;-0.024029745;0.007900803;-0.074796595;-0.046917036;0.017247593;-0.05138782;-0.047774877;-0.056097455;0.08366586;0.06364212;-0.07827112;-0.011646285;0.0691604;-0.039522376;-0.05743305;0.08964492;-0.043395214;-0.0044232;0.0045005344;-0.029168284;-0.0533649;-0.0020869041;-0.086402275;-0.13606027;0.049431425;0.042792592;-0.095720954;-0.07829877;-0.047404215
-0.06554405;0.0118653355;-0.09749003;0.06582025;-0.09072756;-0.055370867;-0.017797617;-0.046936963;-0.029932791;-0.06137603;-0.03221743;-0.044435218;-0.08564959;0.0417377;0.010756966;-0.016645456;0.0013107111;-0.06463199;-0.10000965;-0.1084242;0.03350611;-0.09049124;-0.056896977;0.029941268;-0.08470158;-0.032453194;-0.04252186;-0.031106956;0.019679029;-0.029065633;-0.06800534;0.10711139;-0.08531751;-0.017148979;-0.053579852;0.0236241;-0.042588163;-0.035070773;-0.08804549;0.048856094;-0.041637626;0.12570694;0.08514507;-0.046175938;-0.02448825;-0.12298244;-0.03607247;0.008358107;0.039202917;-0.05815393;-0.19000474;0.01591689;0.05530941;0.025330275;0.020542707;-0.015995318;-0.09977423;0.023716126;-0.1087219;0.0012878809;-0.0922581;-0.14707829;-0.14026251;-0.0024691455;-0.036673326;0.017592123;-0.053972173;0.13197404;-0.041858926;-0.029928546;-0.07646763;-0.021904422;0.01692521;-0.039156042;-0.102102846;0.009823147;-0.062437784;-0.19023377;0.12956078;0.03881727;-0.010357886;-0.048454214;-0.05192987;0.04614249;-0.020861723;-0.12203575;0.028346479;0.020168353;0.0014811961;-0.037485998;-0.06450654;0.06534644;0.06779441;-0.0066027306;0.02185617;0.040796798;0.20767826;-0.011781454;-0.038530063;0.021589553;-0.10346033;0.094345726;0.0128947375;-0.0318469;-0.03053096;0.0944898;-0.09395108;-0.08635216;-0.13004185;0.0020146398;-0.001008571;0.0018580825;-0.07155999;0.08534396;0.023375334;0.050967373;0.0498508;0.030808207;-0.19206895;-0.09871586;0.074388824;-0.08835337;-0.09463451;-0.041706335;0.03579588;-0.032930505;-0.021359392;-0.05282646;-0.101865984;-0.041508697;-0.1617827;-0.108788446;0.057156414;0.070664436;0.070458844;0.034097996;-0.045710582;-0.009416127;0.028833311;-0.033879016;0.015345168;0.004787787;0.056062806;0.027943581;-0.05634802;0.10141727;0.034411024;-0.055086832;-0.104464754;-0.080794245;0.05851113;0.008573351;0.013103016;-0.036752827;0.015894944;-0.1146578;-0.13299502;-0.14923194;-0.03923403;0.01441221;-0.080108285;0.008940379;0.0055075106;-0.018635446;-0.008472748;-0.016198939;-0.051518165;-0.070958756;-0.046465244;-0.08437107;-0.039939865;-0.029764306;0.02995046;-0.06282143;-0.10266661;-0.059122823;0.023693059;0.036795508;-0.03937453;-0.044580355;-0.21280068;-0.09879245;-0.11117322;0.06068721;-0.08662135;0.013146073;0.016929844;0.15742007;-0.12860925;-0.07536866;-0.09794973;0.06616841;0.0050258534;0.016117996;-0.12972675;0.029792964;-0.10760586;0.004519571;0.014273449;-0.015868478;0.0061657624;-0.08192696;-0.05759277;-0.04415736;-0.018350875;-0.096464105;-0.038902745;-0.01533672;-0.058836512;-0.17109494;0.048484486;0.014638676;0.049242724;0.037689053;0.07765721;-0.12759168;0.039878335;-0.08263868;-0.0014797676;-0.061469182;-0.025875282;0.06301328;-0.083943486;0.08443711;0.033975407;-0.053209882;-0.11273909;-0.020535246;0.10119906;0.056250054;0.05543385;-0.12848778;-0.017350182;-0.10292044;0.02058118;-0.008889102;-0.017394694;-0.004955474;-0.07809685;-0.088416345;0.017384171;-0.00723565;-0.025141828;0.028915418;-0.0027219916;-0.008756315;0.002536751;-0.054425467;-0.061666377;-0.053354368;0.04410865;-0.011697485;0.08189488;-0.0861029;-0.052841753;0.017312514;-0.027730945;-0.08764296;-0.076988935;-0.0031099354;-0.047588684;-0.0058041327;-0.05244782;-0.03280891;-0.13541505;-0.05198548;0.07546038;-0.031218177;-0.046972558;-0.019119384;0.018493986;0.0340378;-0.06298114;-0.03057521;-0.08520971;0.011352037;-0.10034538;-0.12619035;-0.007858657;-0.07985249;0.09420781;-0.10565433;0.0016103303;-0.1457899;-0.04811814;0.068044364;0.04341654;-0.0023211911;0.0067065833;-0.06858532;-0.016621564;0.056333665;0.022577146;0.039429363;0.012173841;0.056269947;0.03674655;-0.07848909;0.040283825;0.011049802;-0.12785758;-0.1624646;0.01930875;-0.1051458;-0.107500285;0.031244164;0.03555544;-0.10867119;0.113537095;-0.07580524;-0.08963257;-0.07384138;-0.080844246;-0.04192062;-0.04722742;-0.02377105;-0.10409441;-0.13551408;-0.08998587;0.046808083;-0.1072405;0.026927358;-0.014644512;-0.075972125;0.028818076;-0.08976359;-0.0039907005;0.11937066;0.017589856;-0.02059305;0.048406255;-0.0025523184;-0.05193842;0.05216938;0.009735848;-0.0695212;-0.07351969;0.055162992;0.11517823;-0.08228228;0.028019287;0.1258221;-0.02699095;0.09083397;0.026227053;0.019185266;-0.053452287;-0.08307725;-0.039720606;-0.039348576;0.071494706;0.09635934;0.059637047;0.04564202;-0.073328435;0.04619279;0.042040512;0.003171122;-0.06697229;-0.087310374;0.06714759;0.08304229;-0.096689366;0.061737366;-0.12466419;0.017687207;0.02058702;0.035282016;-0.017701736;0.0010642412;-0.078000024;-0.018560454;-0.07332052;-0.02793485;-0.027366398;0.002085707;0.056387663;0.062150206;-0.03439244;-0.022249049;0.02279578;-0.014866636;-0.044889014;-0.105056755;-0.017961863;0.07640745;0.04014208;0.0712175;0.057285525;0.043316282;0.026552603;-0.031970102;-0.03816869;-0.106254555;0.036155276;-0.07193568;-0.041476265;-0.04431694;-0.106942445;-0.15469152;0.12790138;0.014151268;-0.035281464;-0.12993199;-0.04375649;-0.09349057;-0.0152032515;0.028344495;-0.026629442;-0.12943524;0.019161124;-0.07457837;0.050623715;-0.15790004;0.05853009;-0.013662617;-0.03932308;0.11468558;-0.04118626;-0.08191083;0.036196984;-0.06964447;-0.07348678;0.0013513421;-0.042702448;-0.12292282;-0.039038487;-0.13262565;-0.1284437;-0.021612445;-0.010664514;-0.086330056;0.06269075;-0.10180207;-0.12270776;-0.049782977;-0.08705935;-0.08972699;0.027014084;0.029560411;0.1064902;-0.012496681;-0.0030836011;0.034680896;-0.05079893;0.106783815;0.05570729;-0.026885191;-0.04972243;-0.0039834483;-0.1203811;-0.037013132;-0.063087195;-0.019296674;0.07165692;-0.07613992;0.053264577;0.082877144;0.08887622;-0.057430837;-0.085174315;0.01840056;0.14284544;-0.05377559;-0.022616917;-0.044901475;-0.04464673;-0.12450017;-0.011398633;-0.05392847;-0.096548855;-0.06742635;-0.068668105;0.07162621;-0.018163292;-0.09546095;-0.09277424;-0.08131303;0.06714035;-0.055555947;-0.031834584;-0.06257904;0.01080162;-0.084979996;0.0043177507;-0.079632744;0.048709445;-0.13629521;0.13779862;-0.020066038;-0.05164233;-0.097444266;-0.06603205;-0.034581855;0.034173753;-0.027690537;0.009672286;-0.024686202;-0.016221222;-0.09083945;0.08864601;0.06977663;-0.24364127;-0.056040358;0.02062031;0.032754466;-0.03667697;0.017627258;-0.11220156;-0.04746271;-0.1267833;0.030266892;-0.053697232;-0.10049211;-0.07956754;-0.08841769;-0.1786203;-0.01565791;-0.15621324;-0.027715012;-0.11388353;-0.07968366;-0.10669812;-0.08059271;-0.054765187;-0.05956991;0.033343002;0.023813238;-0.035489623;-0.09996709;0.042234313;0.018090079;-0.0831088;-0.14201248;-0.07283976;0.034767408;-0.019571796;-0.05063341;-0.101531066;-0.13380615;-0.0637651;-0.075159;0.008007158;0.0141850095;-0.034918826;-0.0764022;-0.11467437;-0.040801834;-0.030512357;0.03418418;-0.066026725;-0.09320123;-0.072797105;-0.11217054;-0.03624659;0.05439011;-0.048682675;-0.0925353;0.021921583;0.039534807;0.020678697;0.056380335;-0.06291025;0.02295185;0.020407585;-0.09936398;0.021471221;0.007660695;0.024832772;-0.030728146;0.0096810935;0.0031641892;0.10196912;-0.006578507;0.0073079555;-0.086184606
-0.055995554;-0.019935088;-0.029422019;-0.034600552;-0.06131986;0.0501881;-0.06255495;-0.013406171;-0.022280527;-0.15292242;-0.006296019;-0.1496225;-0.10568612;-0.023565961;-0.07806409;-0.0718422;-0.05521544;-0.05720813;0.058107823;-0.09411335;-0.09974844;-0.06938188;-0.061066303;-0.079060845;-0.042774126;0.08017498;0.06073298;-0.13608252;-0.003963723;-0.06010015;-0.09660824;0.11509616;0.035664503;-0.055993807;-0.07207251;-0.03815488;0.019777609;0.12174448;-0.08610583;-0.015882367;-0.039582375;0.08125775;0.11585327;0.02441612;-0.0752451;-0.15394178;0.035491098;0.033534523;0.022398323;-0.07624403;-0.14463899;0.07430138;-0.07137288;-0.089525856;0.06558082;0.04500188;0.0032534064;-0.06758947;-0.10225973;0.06628263;0.0069742072;-0.13286678;-0.032670446;0.0043737045;-0.112493806;0.0063498607;-0.008519565;0.092617355;-0.018004399;0.0047805333;-0.14728758;-0.10632232;-0.01118703;-0.09820208;-0.10486185;-0.08710179;-0.0914217;-0.06868096;0.10732118;-0.0033149105;-0.05111142;-0.075512685;0.039378833;0.16049765;-0.11486212;-0.113258764;0.0078098723;6.909702e-05;-0.048211247;-0.03080639;-0.019376984;0.010545781;-0.05262267;-0.06485039;0.055393826;-0.006519166;0.09482995;-0.009087943;-0.007672592;-0.08415427;-0.1074428;0.0037129316;-0.07993541;-0.058334317;-0.0392385;0.08633315;0.015153233;-0.10530513;-0.13754822;-0.027971877;-0.0047087697;0.0061967443;-0.00670045;-0.04212508;-0.0816553;0.043009732;0.050370555;0.034387194;-0.14297478;0.0027509623;-0.011802698;-0.056040116;-0.014954056;-0.057125963;-0.08952332;-0.09380596;-0.0013120248;0.05695537;-0.086295746;-0.08165597;-0.01729273;-0.048707884;0.09856553;0.102403775;0.06386563;-0.06385631;-0.037189443;-0.09821514;-0.060413387;-0.032238714;-0.059911396;-0.03467953;-0.06545117;-0.038943984;-0.110251114;0.10250746;0.12407666;-0.08015453;-0.06433051;-0.05310192;-0.039855782;-0.00074834353;-0.020465843;0.09977059;0.13996752;-0.10327992;-0.1347309;-0.12364403;0.022073096;-0.12989962;-0.058230594;-0.01808528;0.053930838;-0.014066024;-0.07196624;0.014363976;-0.03165189;0.07542827;-0.12324852;-0.13485108;-0.029593019;0.078983955;-0.058184773;0.044606045;-0.10710401;0.005321396;-0.018225325;0.00028623242;-0.040842824;-0.1340417;-0.15073435;-0.1051173;0.0039781756;0.06005949;-0.11268861;-0.019903207;-0.018089905;-0.004178355;-0.08789717;-0.020867594;-0.122118324;0.06852255;0.029506335;-0.08733293;-0.13545513;-0.05953056;-0.11011846;0.040751908;-0.09905462;0.041219376;-0.037571438;-0.057736684;-0.08784761;0.026789539;0.018568669;0.002008216;-0.13687135;-0.07430176;-0.055758614;-0.12894316;0.079310186;0.027545273;-0.06740265;0.07424551;-0.08459426;-0.13371149;0.0008848688;-0.06809263;-0.07035743;-0.05621613;-0.029319055;0.12637092;0.023029253;-0.041035656;0.00042778617;-0.091119364;-0.15968353;-0.038495604;0.014893152;0.02268263;0.00067495153;-0.055858575;-0.12398653;-0.041934934;-0.04764832;-0.09337855;-0.011716501;-0.06042287;-0.06763396;0.017437942;0.04936798;-0.02067961;0.068744555;-0.023899639;-0.041292768;0.15454194;-0.109425865;-0.07290108;0.058220014;-0.09442883;-0.056120988;0.011563074;0.043945875;-0.08513215;-0.053901553;-0.047600333;-0.02554324;-0.057217658;-0.0011887572;-0.086037;0.0009670309;-0.03645054;-0.0328513;-0.034078535;-0.08153689;-0.091048285;-0.019162042;-0.02914229;-0.021027064;-0.06374839;-0.052199308;0.054361742;0.041912463;-0.015031977;0.03269419;0.048946228;-0.11870896;-0.034420967;0.06461136;-0.03315805;-0.02083596;-0.04005711;-0.088427566;-0.038990647;-0.069667995;-0.05794045;-0.106320314;0.011775802;-0.0027006378;0.029489357;-0.062711224;0.0009860385;-0.041542552;-0.0432584;0.017849784;0.108638644;0.06335126;-0.13477163;0.056763433;-0.008536318;-0.07505082;-0.17912309;-0.060247142;-0.052393198;-0.013083177;-0.043524593;-0.05226754;-0.008964689;0.11450173;-0.10068112;-0.046047427;-0.07952257;-0.022590864;-0.1469501;0.0056479275;-0.06857118;-0.031910498;-0.022666922;-0.053041913;0.056016296;-0.016308896;-0.000616201;-0.09154259;-0.0938815;0.025387892;0.008718549;-0.04370321;0.06798817;-0.07951911;-0.09377044;-0.06212537;-0.0045647826;-0.08932096;0.05830648;-0.060833704;-0.09205572;-0.05217071;0.07239151;-0.014687931;-0.04866121;0.023204077;0.039779395;-0.025742367;0.07900008;0.050930753;0.027563808;-0.05335768;-0.12087741;-0.05865649;-0.04590682;0.04743051;0.102642685;-0.039156444;-0.049678396;-0.037188716;0.06661029;-0.009303746;-0.069192044;0.0027621547;-0.07250819;-0.059696343;-0.06290852;-0.049151678;-0.03907582;-0.031296384;-0.006660714;0.030521454;-0.06824277;-0.049695853;0.054061234;0.014429793;-0.07415861;-0.00086950755;-0.0874894;0.013129229;0.0895061;0.007835104;-0.05083626;0.0023724502;-0.006410837;-0.09683304;-0.005043821;-0.09797188;-0.08558404;-0.06867645;0.09004745;-0.06524697;0.006652783;0.014897968;-0.06856873;-0.024545806;-0.044124857;-0.100089185;0.023500446;-0.111937374;-0.06758839;-0.034635525;-0.13931616;-0.19565596;-0.09386655;0.11712095;-0.006469565;-0.038304858;-0.103083834;-0.016629856;-0.080063425;0.038783252;-0.06580477;0.07578093;-0.06294831;-0.103720695;-0.13988669;0.12190977;-0.08912884;0.04760003;-0.020099139;-0.041156325;-0.024333568;-0.1170717;-0.012538261;-0.09789489;-0.009588162;-0.084007055;-0.065130934;-0.0032641084;-0.06291016;0.05713543;-0.11326472;-0.057213683;0.0022934051;-0.047615647;-0.045025013;0.06501276;-0.03119579;-0.027761037;-0.07615848;-0.036179245;-0.07875789;-0.08348523;0.021683516;0.10783737;0.026628314;-0.0048492174;-0.031895995;-0.010855556;0.15725082;0.07564355;0.03457477;-0.0368114;0.0011963608;-0.037001442;0.025847053;-0.16493633;-0.09038043;0.052018933;-0.08065399;0.05000052;-0.03163793;0.120583974;-0.088260286;-0.15471351;-0.06282699;0.2018443;0.011683905;-0.0090945335;0.034777034;0.0025156504;-0.108298324;-0.11972949;-0.037686117;-0.08514816;0.06905211;-0.08661161;0.04960478;0.05845204;-0.056627434;0.019010885;0.016950661;0.0987694;-0.088351324;-0.019778373;-0.07159798;0.06879154;0.021493435;0.022208491;0.02885612;-0.013633702;-0.0767505;0.08291201;0.025742248;0.03394723;-0.09109713;-0.039552793;0.06154937;0.061066326;0.09054083;-0.06364324;-0.029761083;-0.10743301;-0.06556033;0.16558753;0.117955565;-0.114624;-0.05471927;-0.06072367;0.05083128;-0.090630926;-0.054437652;-0.03207721;-0.05082272;-0.08789513;-0.0127814;-0.082437634;-0.03957012;-0.108288616;0.017420948;-0.21166202;-0.075081214;-0.06770472;0.064737126;-0.113941915;-0.08336506;0.03982798;-0.025305025;-0.032409146;-0.01368138;0.02960102;-0.059408035;0.016193569;0.016823692;-0.035351153;-0.10330701;-0.083457306;-0.07640886;-0.08817741;0.025088307;-0.057710398;-0.113451004;-0.09949536;-0.13554206;-0.01803197;-0.05477491;-0.081757724;-0.013510889;-0.16035359;-0.09279396;-0.09044006;-0.028402902;-0.015594584;0.0051210993;-0.049635526;-0.08018221;0.027789708;-0.13290328;-0.101759136;0.117654435;0.061380886;-0.052711915;0.02744381;0.13654633;-0.07706548;-0.026450416;0.07078214;-0.021415103;-0.086452454;-0.10561296;0.051173057;0.04178804;-0.019336583;-0.039739672;-0.092719674;-0.10278425;0.08814388;-0.10159703;-0.09304942;0.027602816
-0.04867072;-0.13283113;-0.06804115;0.026734581;-0.011060089;0.045003973;-0.09942415;0.028757699;0.09878797;-0.057679374;-0.023970282;-0.048739508;-0.03786635;0.051421262;0.03156457;0.05962262;0.01921723;-0.08629402;-0.06491303;-0.09292315;0.06481478;-0.015127913;-0.05893291;-0.04183503;-0.022173442;0.038167104;0.028465826;0.024503274;-0.049708232;-0.03785655;-0.17475016;-0.011000966;-0.0837504;0.06475922;-0.022828594;0.036133386;-0.0064949016;0.07803137;-0.117541045;0.018843176;-0.0014666964;0.12219921;0.10965826;-0.0130854035;-0.1426749;-0.08994462;-0.08525874;0.016377382;0.06749264;-0.021236436;-0.20020612;0.0395142;-0.03839449;-0.06269343;0.10063078;-0.060638275;0.033163767;-0.073548034;0.039592795;0.04737161;0.052850902;-0.02973809;-0.14107485;0.027817903;-0.014194959;-0.0301464;0.013911941;0.06140532;-0.052511748;-0.08546185;-0.032577593;0.020866947;-0.13292973;-0.005845723;-0.19620828;-0.082698055;-0.06804391;-0.09753697;0.11608756;-0.041921366;-0.018490627;-0.016931294;0.013133415;0.042957235;-0.11510977;-0.06607838;-0.024241125;-0.050415184;-0.0022310598;-0.06128608;-0.08765157;0.035014823;-0.08274302;-0.117813535;0.023601979;0.029745722;0.1833982;-0.099796504;0.0630121;-0.096540354;-0.12261831;0.11484435;-0.049055833;-0.14639476;-0.07475103;0.009129822;-0.004880858;-0.013853224;-0.06728795;-0.05604752;-0.035569116;-0.11324674;-0.00901366;-0.02582895;-0.08453226;-0.020062445;0.037082482;0.019622365;-0.19575578;-0.0043238616;-0.031120086;0.010788297;-0.017622583;-0.040288635;-0.04681789;-0.03950439;-0.04056906;0.034897625;0.034756534;0.005767581;-0.067316465;-0.10512553;0.068186;0.020911777;-0.018258115;0.045122813;-0.020052545;-0.056402843;-0.008227246;-0.03089354;-0.018052142;0.00908245;-0.05433361;0.02360079;-0.0351195;-0.0035915389;0.028757108;-0.06395555;0.025101138;-0.07199445;-0.010475732;0.022475524;-0.100169666;-0.038175814;0.092790864;-0.030563675;-0.10790611;-0.052491967;0.024012767;-0.06483934;-0.07042;-0.033751395;-0.048175935;0.0034633356;0.03466185;0.051701196;-0.07433568;-0.06188209;-0.07881977;-0.10594991;-0.052910615;-0.038310003;-0.09708693;-0.0711261;0.03150581;0.010986033;-0.0972008;-0.051242374;0.07738113;-0.12629305;-0.16481404;-0.014893805;-0.04182313;-0.082635365;-0.11022949;0.023501238;0.06701964;0.047861002;-0.11195057;0.036255;-0.11591307;-0.0024917962;-0.03343483;0.042275753;-0.107228205;-0.035970185;-0.13667165;-0.07759473;-0.117239065;0.028669529;-0.05843117;-0.07742011;-0.026181174;0.05759614;-0.07641943;-0.09628013;-0.12598278;-0.03243433;-0.075619124;-0.062314417;0.06891103;0.03950871;-0.05609014;0.12219967;0.05048227;-0.042866066;0.030556215;-0.087720826;0.025817923;0.028627722;-0.097457625;0.13085063;0.038710948;0.08422235;-0.049295016;-0.06762391;-0.108786955;0.03502182;0.016506294;-0.021455277;0.06329388;-0.13714369;-0.1151554;-0.03571052;0.0510732;-0.10253377;0.059968438;-0.0018052849;-0.04914427;-0.0802098;0.024815574;-0.014388838;-0.06895228;-0.02890875;0.022263676;0.11390337;0.032423574;-0.0028926174;-0.006495485;-0.022325872;0.028118933;0.00930386;0.06610598;-0.056693565;-0.08511355;0.01087781;-0.050865367;-0.079150654;-0.089867674;-0.097088635;-0.008041356;-0.0018441782;-0.075765185;-0.055107057;-0.09867018;-0.05886712;0.012359666;-0.03640473;-0.0025853892;0.04526775;-0.06732176;-0.044659983;0.017979797;-0.07815294;-0.099669814;0.05407936;-0.13306338;-0.004398525;0.108262725;-0.13744459;0.07230202;-0.05734026;0.00070585276;-0.03873861;0.054207213;-0.030323483;-0.010358663;-0.0024982635;-0.0005098022;-0.010805456;-0.050558683;-0.008827477;-0.015545296;0.019429602;0.05233505;0.11449306;0.12490551;-0.15129365;0.019614788;0.023831973;-0.13502899;-0.15650696;-0.031522483;-0.08336981;0.038268026;0.002459421;-0.07362357;-0.023044044;0.007090642;-0.016233962;0.031578887;-0.10703449;0.059833698;-0.03197814;0.00831617;-0.07006137;0.010509876;-0.011100599;0.051720623;0.059537563;-0.00054667663;-0.046908755;-0.08364119;-0.056489088;0.061623003;-0.07216979;0.050523654;0.11350836;-0.13602939;-0.090978816;0.032894924;0.014143481;-0.11523068;-0.040829115;-0.08421542;0.008690353;-0.056163743;0.031914726;0.06658017;0.034845915;-0.03280794;0.14204799;-0.013364237;0.027630735;-0.03363398;0.0022863618;-0.016915662;-0.090532556;0.041803043;0.019962046;0.04425092;-0.039554086;-0.028919796;0.033006147;0.065975845;0.10926233;-0.05166052;0.046444163;-0.009886972;-0.039022766;-0.030589126;0.06455986;-0.05509797;0.075567976;0.006820533;0.04153549;-0.067395285;-0.046220146;0.011873565;-0.08383316;0.048100065;-0.059925027;-0.07271172;-0.025592063;0.042634536;0.12932765;0.014590066;0.017130584;0.061122913;-0.011396228;-0.028998928;-0.1155359;-0.17264596;-0.010083756;-0.083904974;-0.04887807;-0.08522028;-0.047127213;-0.022042597;-0.0737859;-0.13293773;-0.007107521;-0.058814432;-0.103195965;-0.08727597;-0.049365126;0.032186765;-0.0006347698;-0.09293531;-0.08284346;0.021143824;-0.006941725;-0.05304055;-0.022644354;-0.020005308;0.025614675;0.04370696;0.0014232695;0.030172596;-0.029395072;-0.05563933;-0.095266886;0.07332938;-0.073694654;-0.019861788;-0.03132972;0.041706692;0.069620915;0.003033162;-0.06695411;-0.040663015;-0.043303106;-0.04890505;-0.08791856;-0.06561029;-0.014526727;0.085047625;-0.059388366;-0.07135702;-0.07360772;0.06823947;-0.037342448;0.064493366;-0.009252754;-0.03353585;-0.028158585;0.00851095;-0.06441475;-0.08488191;0.051905215;0.1327283;0.006140564;-0.05116905;0.03540148;-0.03599511;0.099699825;0.006442227;-0.048575677;-0.05526656;-0.010475849;-0.044690613;-0.054298412;-0.08682794;-0.08868924;0.024020974;-0.018960569;0.12616073;-0.0047986526;-0.043950014;0.027360162;-0.17521544;0.023090342;0.11463957;-0.07841955;-0.048029736;-0.042691;0.024301916;-0.06884425;-0.08439096;-0.047293726;-0.06344015;0.032757793;-0.14915428;0.0027700076;-0.04324734;-0.024952928;-0.018741796;-0.06988073;-0.0020345931;0.007997182;-0.044230014;-0.001535222;0.0034911053;0.07530877;-0.11094785;0.0152384555;0.030728053;-0.14633662;0.021555793;0.01465129;-0.059319954;0.06450863;0.048731502;0.050036356;0.0073513794;-0.06439331;-0.037125695;-0.08629796;-0.04849896;0.015139164;0.09462361;0.021765502;-0.11939686;-0.0074434136;0.039171692;-0.037557986;-0.07769153;6.844674e-05;-0.120472334;-0.020383175;-0.11740166;-0.100592606;0.0026048739;-0.09377673;-0.012093044;-0.034142986;-0.29168552;0.04613369;-0.07705747;0.08151777;-0.06283437;-0.00464266;0.0020765811;0.014314739;0.054677468;-0.03577943;-0.08120394;-0.08729947;0.02636406;0.04276071;-0.0043499772;-0.07426162;-0.09402761;-0.11317956;0.03885429;-0.0020732244;-0.078424476;-0.012717772;-0.072980024;-0.024874669;-0.08295321;-0.017552782;0.030487323;-0.01051339;-0.046745956;-0.07211091;0.00019823688;-0.10135337;0.049530473;0.047751475;0.06616938;-0.096763276;-0.09475815;-0.12445429;-0.012743585;0.02897351;-0.021520898;-0.06409161;0.07606636;0.12378879;-0.08200555;-0.015871596;0.07795932;0.07397465;0.037514053;-0.07979747;0.04224995;0.029815754;0.050363474;-0.05000049;0.018131712;-0.1154119;0.00796791;-0.10386299;-0.082787566;0.067604534
-0.041072447;-0.13842918;0.02192455;-0.023050176;-0.10930277;-0.010699721;-0.043437447;-0.050881755;-0.03795799;-0.04846933;-0.09397423;-0.13427368;-0.050067734;0.059747163;-0.008380221;-0.003457522;0.0017134447;-0.009702017;-0.06413597;-0.12580425;-0.021390993;-0.07408514;0.014035766;0.0069284076;0.038412288;-0.032327034;0.049032107;-0.11282992;0.022888536;-0.015215647;-0.05846702;0.08100029;-0.0164754;-0.05609813;-0.013874339;-0.03271399;-0.0010770402;0.040823307;-0.00966304;-0.034611505;0.033782326;-0.008253116;0.095452875;-0.026534462;-0.10832766;-0.047713887;0.062677026;-0.09479276;0.00972264;0.021310538;-0.11433362;-0.0119044045;0.03631344;0.04082514;0.031662818;0.04784893;-0.061965443;-0.07636186;-0.1028392;0.06305357;0.019692304;-0.045654405;-0.019542657;-0.024284223;-0.052350797;0.04638559;-0.085328706;0.016642973;0.017392494;0.05328155;-0.085453995;0.061409835;-0.06495981;-0.02076575;-0.038100563;-0.00903282;0.057235803;-0.2011414;0.04789111;-0.022459349;-0.018056214;-0.0579522;0.09533457;0.15775836;-0.054388423;-0.10130491;-0.032388847;-0.011833291;-0.013258871;-0.059491355;-0.092788205;0.027330553;0.0077654617;-0.13111497;0.022577047;-0.0014737757;0.2048613;-0.018845025;-0.0928715;0.012583894;-0.059637096;0.081152625;-0.109337926;-0.02726138;-0.037778128;-0.018792504;-0.015119698;-0.13138683;0.009187737;-0.0743733;-0.03266607;-0.088932775;-0.1797386;0.036696028;0.010134506;0.061211374;-0.039228104;0.06202582;-0.09153396;0.01621493;0.053002685;0.046687618;-0.028823046;0.03657796;0.062248997;0.052847385;-0.06663999;-0.03794073;-0.01657241;-0.04843726;-0.09870091;-0.10052645;0.019925471;0.05676325;0.028485835;0.016620267;-0.07976872;0.03434962;-0.053535163;-0.039562456;-0.010975055;-0.0049261274;-0.0412858;-0.08760548;-0.023917383;0.02197324;-0.007580807;0.049105976;-0.050421078;0.025384342;-0.0751936;-0.05389063;0.04076956;0.117763124;0.11716527;-0.07685137;-0.1411728;-0.12526877;-0.038316976;-0.08654627;-0.056868665;0.039460268;-0.024029389;0.036052566;0.041836422;-0.031361617;-0.029695548;0.027934987;-0.1277592;-0.023837455;0.0013643869;-0.0078238975;-0.054210212;0.057285197;0.01828021;-0.019111097;0.029797317;0.04786233;0.1315869;-0.121409304;-0.13537931;-0.082370065;-0.07338646;-0.09348871;-0.09649598;0.027169371;-0.08482631;0.043682884;-0.029343946;-0.1043706;-0.010368261;-0.045796633;-0.015094658;0.026878145;-0.05792718;-0.017692033;-0.08207982;-0.05644987;-0.03167925;-0.013467467;-0.031051032;0.022917742;0.008665981;0.09132539;-0.021391172;0.03576981;-0.08632257;-0.15229473;0.06650171;-0.11647417;0.017674502;0.026945356;-0.033472303;0.03778811;-0.006968251;-0.15891756;-0.011966191;-0.023184683;-0.08281851;0.001357475;-0.080285616;0.11751238;-0.07998611;-0.04656178;0.036629744;0.05416462;-0.18930368;-0.05747226;0.12111326;0.028789138;-0.073664874;-0.05351057;-0.058581702;-0.0383951;0.034491416;0.017762063;0.03941772;0.0534745;-0.14399064;-0.07438949;-0.049022444;0.027798006;0.004854719;-0.12578456;-0.001044676;0.11121234;-0.10678447;-0.08140392;0.0511993;-0.027265549;-0.035945922;-0.0021634607;0.07077452;-0.032131676;0.013667459;-0.042624924;0.04276758;-0.06276569;-0.099888235;-0.018571647;-0.059837673;-0.057933047;-0.0584951;-0.036488555;-0.10652437;0.050917838;0.033565573;0.05094819;0.00239893;-0.07488839;-0.0010117115;-0.041170478;-0.09474833;-0.09916313;0.0032140072;-0.042735256;-0.09827516;-0.1417693;0.12588984;-0.043145947;0.12674266;-0.0539229;-0.107293606;-0.028506508;-0.02918516;-0.011504586;0.025657397;0.0010925353;-0.018477885;0.045496702;0.017882196;-0.08591459;-0.10647431;-0.09073047;0.09473192;-0.012525992;0.09315322;-0.06812434;-0.07959397;-0.045887165;-0.035968464;-0.0784152;0.0033068832;-0.12440271;-0.0729093;0.021354519;0.049240034;-0.034719914;0.03933401;0.011069915;0.019712793;-0.018476686;-0.07987375;-0.026296262;-0.10003002;0.009202212;0.042590566;-0.10095412;-0.008534182;0.0038735957;-0.0547893;-0.01582945;-0.088965714;0.01644204;-0.046956614;-0.1114991;-0.047900993;0.14270647;-0.061235398;-0.12701508;-0.074944206;0.008319982;-0.003051353;0.047394432;-0.059763864;-0.0682164;0.025403155;-0.07504598;0.053250976;-0.006512324;-0.026090657;0.1364825;-0.031130694;0.1293302;-0.002374115;-0.12694934;-0.009554495;0.03263033;0.005159055;-0.0875945;0.003425102;0.04680565;-0.010546332;-0.017637216;-0.0361231;0.04961857;-0.021636056;0.020955162;0.046733115;-0.057691347;0.0004287369;0.01474057;0.00912169;0.02504675;-0.0142006995;-0.025787627;-0.049442723;-0.03189235;-0.09288938;-0.07713492;-0.061207946;0.0056905453;0.03628316;0.0019450618;-0.054320246;0.14133298;-0.06110542;0.10802111;0.010195087;-0.10015432;0.03120579;0.023006415;-0.09005106;0.009771056;-0.041508242;0.06798219;-0.079576276;-0.020441115;0.04055158;-0.08560424;-0.014399152;0.04323406;0.0063402387;-0.090299405;0.024488484;0.0030495308;0.013716822;-0.02743592;-0.06108386;-0.06804803;0.07433783;-0.031159291;-0.038409237;0.021375155;0.02690772;-0.13791446;-0.017388184;-0.01902887;0.08184914;-0.007111092;-0.12339437;-0.017568707;0.09321225;-0.07679561;0.12315307;-0.09574177;0.07066505;-0.01331287;-0.017847093;-0.062344164;0.060320117;-0.061170343;-0.013923877;0.054442465;0.03735194;-0.0030995423;0.07899495;-0.0833725;-0.0709822;0.017914163;0.09287071;-0.081689134;-0.04830885;0.0067305155;-0.094299436;-0.015221729;0.010733483;-0.17460997;-0.049443867;0.06402983;0.13852338;-0.026622638;0.014852169;0.008828024;-0.037326466;0.054909244;0.011660789;0.0034265944;0.088788584;0.008380658;-0.086989254;-0.08464821;-0.16549674;-0.06706872;0.036213398;-0.03475335;0.076047465;-0.009228438;0.06818001;-0.064169265;-0.11853285;-0.0355254;0.089313716;0.00607509;-0.052121017;-0.07577753;0.08038784;-0.13802065;-0.061113942;-0.040220305;-0.074506275;0.03546569;-0.047516514;-0.037942085;-0.061120078;-0.092932396;-0.08543974;-0.058498632;0.051306136;0.03444507;-0.10640377;0.047129877;0.11298999;0.040037334;-0.08804962;-0.049475487;0.06027201;-0.052515678;0.14771836;-0.08710238;-0.04642101;-0.00093505037;-0.05259707;-0.036013786;-0.011996877;0.043058675;-0.034566876;0.005883072;-0.051197093;0.038777433;0.08543476;0.023456194;-0.23938474;0.0012428476;0.018302351;-0.011466852;0.022509838;-0.108909085;-0.02976691;-0.09413226;-0.11262033;-0.09778081;-0.05996279;0.018694187;-0.031374577;-0.026246762;-0.26739264;-0.07065522;-0.008822892;0.0053051463;0.03194047;-0.06905358;0.04539168;-0.16428904;0.043355323;-0.061571732;0.022025572;-0.06194147;0.019890614;-0.07970591;-0.06640743;-0.07503375;-0.03254525;-0.038459398;-0.07276684;-0.03327592;0.053735044;-0.025266966;-0.11369538;-0.017483043;-0.014620851;-0.048721958;-0.04581759;2.2910772e-05;-0.055357147;0.005952116;-0.048174433;-0.01310946;-0.08315835;-0.03541932;0.066156454;-0.0017074398;-0.039008833;-0.08331795;-0.0842415;0.15148057;-0.00021399911;0.03937071;0.011305488;0.12257089;0.003340773;-0.0998737;-0.011690201;0.06306951;0.052932423;-0.06631121;-0.024872718;-0.06491431;-0.04051118;-0.066860355;0.041129086;-0.063836746;0.1564231;-0.042904288;-0.06528661;-0.055413116
-0.0814245;-0.07064558;-0.073864274;-0.0119114285;-0.0666946;0.024120614;-0.099206746;-0.0062842476;-0.038305074;-0.113238305;-0.028444791;-0.12578832;-0.09743128;-0.07429375;0.035621468;0.029379804;-0.030515797;0.003959235;0.0066461;-0.09991402;-0.04646226;-0.06803038;-0.0031870482;0.0046917875;0.03937178;-0.078890376;-0.037850685;-0.09008061;0.06651436;-0.03421674;-0.08210031;0.12918122;-0.08186954;-0.024683712;-0.061524913;-0.0016044138;-0.011448236;0.047760483;-0.10548507;-0.061049722;-0.06019191;-0.028862568;0.083467565;-0.08432315;-0.103214145;-0.09635565;-0.09682073;-0.06997055;0.047155727;-0.079056375;-0.1443238;0.05155181;-0.08290814;-0.060115334;0.11231745;0.048094578;-0.07317755;-0.00023917887;-0.02578871;-0.06763101;-0.003122873;-0.14838654;-0.11064532;0.07163635;0.013675625;0.05605555;-0.10154509;0.069348164;0.049622886;0.018471258;-0.03270896;0.009752823;-0.07205314;-0.029673785;-0.17797868;-0.034871724;-0.0753031;-0.15486252;0.042356454;0.020487498;-0.013444243;0.0071362434;-0.01720857;0.10524986;-0.058280006;-0.066326305;-0.0047794585;-0.09761757;0.04707463;0.026402391;-0.07080398;-0.08629847;0.0015161867;-0.031761464;-0.09775272;0.056010835;0.23531744;-0.09672129;0.049480837;-0.10744766;-0.023189593;0.038890164;-0.0030971416;-0.121507406;-0.0010836549;0.10979317;0.048287794;0.0150127495;-0.04707985;-0.06536739;-0.007883957;0.014361866;-0.09957307;-0.082052976;-0.082674205;-0.02322111;0.03154893;-0.08085427;-0.044672508;-0.03652273;0.05151636;0.046642188;-0.050470036;0.023999287;0.014106915;0.026729282;0.0013953199;-0.036013935;-0.004085238;0.013453373;-0.12384342;-0.056415327;0.029715009;0.049648054;0.06944199;-0.09257048;-0.057397477;-0.03823708;-0.018049221;0.022358103;0.04284351;0.001035081;-0.03751075;-0.10626564;-0.14183356;-0.025446942;0.10574003;0.019882524;0.0015321693;0.026223889;0.035772923;-0.08718303;-0.066797994;0.014590156;-0.02814975;0.050395314;-0.03401513;-0.15778351;-0.08573132;-0.0007709457;0.0005626441;-0.022166006;0.049790915;-0.054723173;0.020485068;0.054039218;-0.05177307;0.06540211;-0.11019373;0.0035563319;-0.105634674;-0.04162916;-0.035763383;-0.06112757;-0.0741056;-0.07152124;-0.05774304;-0.07712687;0.019840248;-0.016559897;-0.12520765;-0.110008016;-0.06421453;-0.08881067;-0.0543762;-0.057087738;-0.093205385;-0.0309962;0.05662389;-0.05085122;-0.15649806;-0.051319588;-0.06723703;-0.05396025;-0.109665275;0.024018066;-0.10930334;-0.008007725;-0.023794828;0.04869492;-0.051263727;0.072435476;-0.08615376;-0.02239914;-0.02575388;-0.11807296;-0.013579269;-0.02085895;0.06329986;-0.02843124;0.05363102;-0.09280631;-0.030322917;0.13663594;-0.08526814;-0.040960066;0.035219822;-0.052190848;0.050416604;-0.07518634;-0.083977655;0.11943261;0.041060284;-0.0137391295;0.023151767;0.057077263;-0.043463264;0.022309408;0.0709088;0.086332165;-0.08602857;-0.080417275;-0.016815295;-0.07792121;-0.05396898;0.00016748239;-0.06774287;0.03588527;-0.1310397;-0.0905096;-0.10652247;-0.0046720286;-0.05765673;-0.07011763;-0.057142697;0.012830837;-0.07826445;0.04246917;-0.038306534;-0.093688324;-0.08869646;0.07189397;0.008805758;-0.13416408;0.032281943;-0.01608071;0.051466618;-0.09447702;-0.020978004;-0.030852294;-0.081506215;-0.10628467;0.05226004;0.028437812;-0.05941884;-0.0038050588;-0.07650191;0.06875797;-0.00420949;-0.036476605;0.050359126;0.023932027;-0.09076055;-0.01178797;0.048016585;-0.059422113;-0.03702541;-0.11784342;0.028096918;-0.032580905;0.07071254;-0.09467662;-0.10598583;-0.0048948694;-0.10135964;0.020139392;0.03370272;0.03439812;-0.03378616;-0.049668763;0.006257014;0.03936132;-0.05737028;0.005373365;-0.022349225;-0.0075603696;0.13517237;-0.05532762;0.051509734;0.0696175;-0.104068175;-0.10878303;0.06913093;0.014392479;-0.065740615;-0.053459506;-0.047737688;0.004674514;0.09721074;0.0023988304;-0.04508166;-0.023963844;0.060464855;-0.04171859;0.010221555;0.048969574;-0.05331586;-0.009905375;0.05894819;0.042647876;-0.098790556;-0.09707499;-0.011956338;-0.06117999;-0.013122137;-0.03604992;0.056496598;0.11489056;-0.06649595;-0.13883363;0.01421789;0.08179743;-0.021698577;0.026669841;-0.012464963;-0.10340042;-0.042225942;-0.019876432;0.03156602;-0.034321412;0.08233563;0.10300793;-0.057133615;0.13988589;-0.044665873;-0.10302922;0.0023191532;-0.05520697;-0.09361878;-0.0725889;0.10085177;0.07668123;-0.082312286;-0.04141408;-0.0061932793;-0.039131846;0.05412389;-0.084529944;-0.022349676;-0.08433883;0.011742977;0.097245574;-0.033678208;-0.018576281;-0.042289652;0.043769713;-0.059975088;-0.047685128;-0.07295739;-0.01447198;-0.08320007;0.07317895;-0.057791006;-0.12285133;-0.058403693;0.01141692;0.043834474;0.022621999;0.061198704;-0.11921613;-0.07724485;-0.012220647;-0.059366077;0.028782938;-0.10190009;0.11918246;-0.08874739;-0.005173165;-0.008364108;-0.06599345;-0.077234305;0.017601049;0.031971373;0.056750935;0.041473307;0.008638101;0.025352981;-0.03878048;-0.0615407;-0.08181537;0.062268343;-0.06837577;-0.094393045;-0.099050015;-0.044489406;-0.045970045;0.045663346;-0.07572705;-0.019864168;-0.020401483;-0.017350655;-0.0036412221;0.07102103;-0.06893518;-0.028182117;-0.062055677;0.052265063;0.105126984;-0.099138856;0.033571746;0.042326067;-0.031045716;-0.113318965;-0.09598777;-0.07537705;-0.062113576;-0.0035154389;-0.07718096;-0.07756743;0.0768719;0.05219311;-0.009184955;-0.044460047;0.0320401;-0.05135754;0.061362527;-0.084046125;-0.085947506;-0.043701205;0.021488603;0.11428066;-0.0541152;0.020389851;-0.034351658;-0.030506417;0.08671741;-0.053333037;-0.036095947;-0.02430119;-0.016603664;-0.042660568;0.04999283;-0.05264007;0.010405919;0.02511839;-0.060380217;0.10700407;0.075207554;-0.021589098;0.025080001;-0.05321534;-0.052648332;0.23258881;-0.08224535;-0.015510662;-0.07209119;0.07296659;-0.15724301;-0.08038112;-0.03412982;-0.066854686;-0.047796976;0.0039278194;0.04486967;-0.014469671;0.0016029988;0.0037538335;0.014540158;0.056337338;-0.012392506;-0.06689385;-0.009275952;0.045200918;0.08881398;0.046261575;-0.053175397;-0.08665846;-0.14297092;0.095232576;0.040632665;0.04569659;-0.0067681707;0.028092112;0.057464585;-0.06128106;0.08037906;-0.040193707;-0.0029504702;-0.0951015;-0.045483682;0.22057913;0.13122538;-0.22143476;-0.103424475;-0.055413183;0.06040691;-0.016427157;0.028448975;-0.10994374;0.021912845;0.015354226;-0.070347585;-0.0040042982;0.009105643;-0.10856085;0.00028782396;-0.21008247;0.020911334;-0.09817966;-0.05847286;-0.026938561;0.039145492;-0.07954911;-0.13143492;0.05026217;-0.089384176;0.027248837;-0.08565428;-0.0013440379;-0.024174828;-0.110679805;-0.05337031;-0.05350038;-0.10626491;-0.04102984;0.055595864;-0.028671663;0.026899789;0.008166317;-0.07926711;-0.001639947;0.06376929;0.011981151;-0.007291696;-0.052600767;0.047307882;0.014969301;-0.08663197;0.005755297;0.034426562;-0.004805035;-0.01779982;0.0053556697;-0.08632407;-0.09553201;0.097942695;0.042394124;-0.03608712;-0.06018416;0.038978864;-0.06257708;0.04405905;0.06635078;-0.0627623;0.00888781;0.033656493;-0.06675262;-0.12678368;-0.00893135;0.05364746;-0.019841366;-0.122487806;0.023426004;-0.020320198;-0.05685823;-0.05118141
-0.09624828;-0.08617764;-0.027847508;0.07656222;-0.059868973;0.01380777;-0.012350492;0.04664569;0.037916582;-0.07495677;-0.0038675857;-0.0313513;-0.14018175;-0.013252546;-0.040966008;0.053313527;0.019627769;-0.0037259017;0.037527088;0.00038039184;0.061822996;-0.025976446;-0.027433032;-0.0043540224;-0.019104972;-0.0049390504;0.03559381;0.014742651;-0.08511168;0.007867528;-0.10694584;0.055341974;0.022323448;0.045609243;0.0037676767;-0.08906025;0.03283725;0.017663304;-0.08791092;-0.005431595;0.055230502;-0.003479663;0.06425975;-0.05617409;-0.11620373;-0.010675608;-0.0747003;0.006891267;-0.0061748815;-0.1083977;-0.2185144;0.11322473;0.0031347417;-0.005090332;0.070286885;-0.005739456;0.033798236;-0.015925586;-0.11440112;-0.03766051;-0.0937981;-0.021248274;0.010901442;-0.01787696;-0.09930174;-0.019844437;-0.10065133;0.050891355;-0.02026892;0.002879533;-0.075315155;-0.1106348;-0.09214186;-0.05001077;-0.05225533;-0.010222217;-0.0677008;-0.1770375;0.11317557;-0.019905666;-0.09779292;-0.016287798;-0.04853112;0.020412391;-0.081520855;-0.072506145;0.055021547;0.04583764;-0.07171253;0.013584565;0.033136077;-0.056175448;0.06393438;-0.015534102;-0.05290202;0.0027366895;0.19069149;0.04032588;0.003280629;-0.024052812;-0.06377944;-0.048723187;-0.067699924;-0.08428944;-0.09673136;0.07802901;0.026689006;-0.1110627;-0.087173775;-0.044509575;0.032270156;-0.02520839;-0.045630712;-0.06459799;0.010017637;-0.036891505;0.009255392;0.016688865;-0.115652636;0.008403572;-0.013046409;-0.10635695;-0.11523082;0.024701053;0.047447417;0.0067570675;0.05659508;0.040498;-0.09520329;0.02542011;-0.14005774;-0.05954968;0.008062598;0.13445042;-0.0422776;-0.08536826;-0.09999479;0.03202282;-0.07392405;0.05373385;-0.09341874;0.068216436;-0.03365349;-0.010773485;-0.15607494;0.11290012;0.1355059;-0.03049922;-0.014426809;0.031390455;-0.020381242;-0.08743999;-0.09079642;-0.04057019;0.10821549;-0.05930293;-0.0020602462;-0.16316213;0.0345116;-0.0025323248;0.036754433;-0.071669914;0.009401197;0.041803967;-0.046138603;-0.07257346;-0.03964622;-0.0057373815;-0.02691116;0.0012463601;-0.066795416;-0.07409084;0.0095482515;0.04471489;-0.07469805;-0.054709904;0.029317355;-0.011859572;0.11154405;-0.05285055;-0.2063177;0.00071535335;-0.0037271974;-0.08682934;-0.10096883;-0.005859576;-0.036372688;0.09512034;-0.022288783;-0.088590786;-0.10787571;0.0031462254;0.093645565;0.008359843;-0.083422564;0.030743318;-0.09508523;0.058640808;-0.015184457;-0.011222892;-0.00892895;-0.02913498;-0.053726397;0.02954633;-0.06275754;-0.008291594;-0.021078223;-0.09984506;-0.07275912;-0.0523544;0.13582042;-0.0027278014;-0.0834491;0.1326272;0.07019804;-0.11759465;0.017120913;-0.018412333;0.060868524;-0.036143426;-0.034665465;0.119151816;0.028444337;0.020632021;-0.03714952;0.06514222;-0.17257653;-0.085317336;-0.0054716025;0.106426574;0.010541001;-0.068093464;-0.020715483;0.026372159;-0.027628873;0.022170464;0.042520188;-0.012381292;-0.02995803;-0.050668035;-0.029693527;0.008752024;0.031030959;-0.11223731;-0.004446888;0.073080905;-0.014075297;-0.061248463;-0.050295692;0.029130284;-0.04991346;0.012979502;0.114523076;-0.11450318;0.06320857;-0.06442878;-0.056770645;0.010468522;-0.0006340251;-0.041920032;0.051570658;0.040252235;-0.06057707;0.010710696;-0.033623368;0.01102422;-0.035257038;-0.047074884;-0.07977748;-0.079771355;-0.084310465;-0.008060691;-0.028181745;0.038500376;0.038509697;-0.07908052;-0.0427075;-0.13036874;-0.014798128;-0.11909596;0.019920623;0.039787557;-0.042071;-0.10443336;-0.08537572;0.0153371915;0.030735571;-0.023046978;-0.028068498;-0.05323758;-0.002318633;-0.009902902;-0.018223906;0.021070018;-0.008000222;0.08083914;0.11045643;-0.03710183;0.0076942733;0.03544599;-0.10255707;-0.06237202;0.0778805;-0.07551733;0.0063681123;0.02352479;-0.085043125;-0.027714046;0.093529254;0.040732056;-0.05346796;-0.07204637;0.07075101;-0.13630621;-0.01279838;-0.022374773;-0.035289384;-0.04419167;0.05783532;-0.016603326;-0.07923265;-0.01361709;0.055689283;-0.051849302;0.048751075;-0.0035815386;-0.0840333;0.076761924;-0.13009539;-0.10290936;0.025212815;-0.011440419;-0.081277445;-0.028606648;-0.025122128;-0.067168914;0.05619846;-0.033624694;0.0063702953;-0.07928501;0.12808016;0.07415421;-0.07122898;0.042408414;-0.026266376;0.016272938;-0.10744019;-0.033825554;-0.09856334;0.052460387;0.068468265;-0.07014368;-0.01458349;-0.074800566;-0.01188181;0.026456255;-0.0821631;-0.03218265;-0.06319987;-0.03941002;-0.03818573;0.122416824;0.023162395;0.070813715;-0.069888905;-0.07854796;-0.04776426;0.049510606;-0.0012033485;-0.01776728;-0.059603993;0.07165043;0.035807915;-0.0050469856;0.07161125;0.037447393;0.0082057305;0.09546775;-0.0695837;-0.12077281;-0.06448174;-0.009184459;-0.19114304;-0.115274355;-0.10796579;-0.0218344;-0.038999043;-0.033565074;-0.0363072;0.0382765;-0.074319534;0.033110943;-0.08313989;-0.038168184;-0.08479866;-0.11300143;0.032434963;-0.058368154;-0.12731947;-0.035928253;0.08244081;-0.05544962;-0.12945528;0.040557362;0.0037383784;-0.021115866;0.04156276;0.01138374;-0.007462697;-0.060369417;-0.10451233;-0.028973322;0.02004356;-0.013003168;0.036614724;-0.025559999;-0.042741563;-0.051341444;0.009030961;-0.037564453;-0.0051897448;-0.009268539;-0.118906066;-0.06780979;0.015619514;0.017704884;0.0152468635;0.0009441849;-0.034927085;-0.035879683;0.04604505;-0.025236968;0.071044534;-0.11549743;0.02188706;0.0003558235;0.0277911;-0.021428619;-0.09784593;0.0012541319;0.07944276;-0.086206906;0.049077127;-0.049472596;-0.010415735;0.057738483;0.0004649582;-0.009136939;-0.0061003068;0.034493756;-0.11629404;-0.022773875;-0.11466582;0.033886217;0.007711238;-0.04894322;0.07764668;-0.053419743;-0.034764692;-0.11407506;-0.13581634;-0.056805752;0.19386318;0.024338115;-0.021066157;-0.05811009;0.02154878;-0.082024395;-0.037234012;-0.061019827;-0.0037145505;-0.05342748;-0.09446787;-0.06481301;0.035333388;-0.12741834;0.021896632;0.011049714;0.038010497;0.032709494;0.04035559;-0.09306892;0.07223101;-0.014557884;-0.010917456;-0.008461643;-0.025649553;0.00067118945;0.123750366;-0.052710798;0.03374377;-0.00060908287;-0.0026532842;-0.04907929;0.05616239;-0.07523637;-0.079096496;0.0127116265;0.030048449;-0.05999786;0.21995302;0.11698951;-0.17282929;0.018081855;-0.060822204;0.014414227;-0.034580007;-0.02378864;-0.12027032;0.055319015;-0.11077391;-0.033954583;0.0014871027;0.008122812;-0.11281126;-0.056372218;-0.21495242;0.031601373;-0.16158177;0.08612159;-0.031294167;0.021317804;0.037598386;-0.1482253;0.01927293;-0.064987525;0.01410983;0.037218206;-0.0112542305;-0.023410976;-0.055117816;-0.08209255;0.0097770905;-0.08518946;-0.051433656;-0.06419952;-0.061234474;-0.017922286;-0.011268196;-0.123666145;-0.095402054;-0.052060436;0.070836015;-0.07827537;-0.09568189;-0.004843641;0.014293936;-0.04756494;0.03390101;0.049721755;0.029392965;0.05224272;-0.057936188;-0.060869005;0.052153993;0.027655408;0.022921177;-0.028642388;0.0138404155;0.14663355;0.0671151;0.0011545874;0.064977795;0.07300226;-0.097174555;0.04919967;-0.010449599;-0.0656178;0.008883057;-0.0962296;-0.02712132;-0.0303051;0.03879385;-0.098945774;-0.06307296;0.02176268
0.0030809245;0.015389547;-0.025651446;0.091421254;-0.002007493;-0.004318754;-0.101241104;0.06074183;0.0025941243;-0.0557159;-0.04865542;-0.09347755;-0.09462544;0.03829715;-0.055433247;-0.092610225;0.080980085;-0.05152673;-0.06321957;-0.10595722;-0.08631464;0.061634384;-0.08497803;-0.044549078;-0.003407095;-0.028171957;-0.0827161;-0.08086415;-0.057392057;0.022307772;-0.08340208;0.01890589;0.031729322;0.014215886;0.02837832;-0.09455233;-0.07574125;-0.017943535;-0.006674738;-0.07087032;-0.050892282;-0.030934103;0.105997115;-0.07253945;-0.04947467;-0.028538778;0.016917614;-0.046238407;-0.030873073;0.010079826;-0.077113084;-0.019030195;-0.028014952;-0.077711605;0.025066206;0.032038365;0.045733966;0.024517043;0.027708877;-0.083465;-0.04600892;0.004583725;-0.04001257;-0.02904753;-0.08127341;-0.069432475;-0.04029976;0.04694605;-0.026763186;-0.049298286;4.779733e-05;-0.08805872;-0.05973555;-0.016691336;-0.029394915;-0.06845503;-0.032742042;-0.20697734;0.027787376;-0.107072465;0.040292796;0.0040452825;0.009516534;0.10616633;-0.008417647;-0.059849747;-0.06489166;0.02471461;-0.029312188;-0.004877991;-0.008200206;0.025824513;0.016957907;-0.10223309;-0.021864444;0.05640567;0.18502225;-0.038990032;-0.038116787;0.055673163;-0.016519124;0.082799844;-0.056387737;-0.054004967;-0.0045929477;0.00071707985;-0.05774614;0.016300904;-0.0067874105;-0.044403207;-0.09711854;-0.053038575;-0.09572427;0.05364121;-0.08295036;-0.024408147;-0.020278137;-0.07548489;-0.19421196;-0.06756505;0.0074680583;0.018624492;-0.13169178;0.037578195;-0.029259626;0.00019116973;-0.049070228;-0.047129914;0.039105456;0.017525546;-0.13948381;0.0029064177;0.006080835;0.08130931;0.0075337915;0.023553338;-0.07509112;0.03915618;-0.12305444;0.031109989;-0.07598057;0.013865354;-0.0001836315;-0.025996685;-0.12579203;0.069725476;-0.028138997;0.0629645;0.016383337;-0.09186722;-0.0010535042;0.031252734;0.010169229;0.054414906;0.10410901;0.071634576;0.006161708;-0.060008634;0.019028028;0.0281708;-0.0337692;-0.095348574;0.02619239;-0.018037112;0.001122382;-0.023731472;-0.020364529;-0.014737641;-0.097367436;-0.11447568;-0.031692352;-0.014582882;-0.04961978;-0.052488573;-0.08268738;-0.10911917;-0.0702333;-0.07372048;-0.037704553;-0.036359977;-0.17037214;0.042679142;-0.057327554;0.023645291;-0.018993355;-0.0039251256;0.01794852;0.015426979;0.015211689;-0.04369441;-0.106750645;-0.010139723;0.046091568;-0.016648265;-0.07240035;0.0032422317;-0.024099285;0.049767427;-0.10213542;0.027995255;-0.11502274;0.0046027005;-0.035566848;-0.042879205;-0.05040633;-0.04135723;-0.0010079659;-0.07056506;-0.07693701;-0.11375025;0.07597256;-0.035440054;-0.082147844;0.09332425;-0.06030665;-0.13664539;-0.02100005;0.049121894;0.009838822;-0.03203942;0.016615836;-0.03229988;0.011606676;0.02677513;-0.0060998015;-0.09534037;-0.046582367;-0.031199835;0.10670287;0.11864894;0.0084893685;-0.13207057;-0.060801182;-0.035688184;0.05278413;-0.09917067;0.028874265;0.06469305;-0.012321103;-0.030385658;-0.049946506;-0.06380971;0.05997454;0.015824256;-0.09031247;0.10460769;-0.11458871;0.064783834;-0.021779202;-0.04857996;-0.021133615;-0.022836832;0.113314;-0.044627704;-0.015799986;-0.08102554;0.015311811;-0.07189425;-0.05428128;-0.13733074;-0.09184918;-0.054669388;0.008213286;0.06401715;-0.14914249;0.0561795;0.011664471;-0.032643545;0.059270218;0.058866624;0.0041322038;0.01941179;0.037996396;0.004467111;-0.054281063;0.0115645705;-0.119141705;-0.10668193;0.05729447;-0.12503985;-0.030560978;-0.1007539;-0.02774554;-0.02413613;0.0621242;0.027686143;-0.1121781;-0.057295486;-0.0012502042;-0.034206524;-0.0061478447;0.0042988406;-0.005217367;-0.099600494;0.057247162;-0.032017652;-0.027127363;-0.09885658;-0.0553366;-0.04067959;-0.09391854;-0.053847246;-0.05124469;-0.06339743;0.04114431;-0.07680936;-0.010722541;-0.11419525;0.0037587625;-0.06306756;-0.11939023;-0.13966219;-0.0044035334;-0.14607243;-0.120430775;0.063202925;-0.022851376;-0.010086791;0.01348373;0.038769633;-0.008948056;-0.056312695;-0.045052793;-0.028726479;0.049048435;-0.037650142;0.001775386;0.11580916;-0.070665196;-0.031675585;0.087111905;0.05779266;-0.062377296;0.06183294;-0.06142968;-0.09691606;-0.07838837;0.015332536;0.021168387;-0.034604017;0.11520455;0.06581812;-0.10000474;0.14778842;-0.0953339;-0.062439766;0.0277079;-0.05461344;-0.04118176;0.036993176;0.0051712953;0.03797208;-0.07830028;0.0242786;-0.08857597;-0.014966271;-0.040612176;0.02416425;0.025478348;-0.027674474;0.06360725;0.034648843;-0.047838323;-0.0076946327;0.024993826;0.05593084;0.030582877;-0.094102085;-0.10015398;-0.03232336;0.044877045;-0.10148177;-0.11619535;0.031642392;0.07558945;0.07535631;-0.00061447645;0.073636256;-0.08572264;-0.04636069;-0.05104894;0.010329715;-0.02828067;0.012721958;-0.011870859;0.01455094;0.058084395;-0.06222846;-0.054961298;0.0046290276;-0.024357464;-0.021877104;0.012662405;0.006820061;0.0022817478;-0.08988656;-0.02114675;-0.046301022;-0.03858313;-0.07921445;0.04011827;-0.058925793;-0.114546925;-0.07086084;-0.057297327;-0.061794028;-0.05345393;0.02658876;-0.07381569;-0.10449561;-0.09625244;-0.114805676;-0.015895233;-0.062465575;0.046587385;-0.06262826;-0.036075484;-0.060136285;-0.08501122;0.014948304;0.019987794;-0.05342972;-0.03538071;-0.0021975723;0.051541083;-0.0873338;-0.027801463;-0.057906147;-0.014839308;-0.07128095;-0.06065668;-0.09043875;0.022186974;0.00439082;-0.0777405;0.02042636;-0.02836306;-0.11401363;0.053768978;-0.046165463;0.09732473;-0.00950582;-0.04355617;-0.056900784;-0.0018312259;-0.025178049;0.039855484;0.09908548;0.029261865;-0.0976376;-0.036310785;-0.025622865;-0.058832143;-0.04764412;-0.0428082;-0.06936344;-0.03887273;-0.054021645;-0.07011909;-0.1023705;-0.034165997;-0.02531799;0.23878051;-0.009457582;0.052759238;-0.082294494;0.018711459;0.0032294304;0.03718446;0.0033682524;-0.008022777;0.080942236;-0.12805332;-0.07779502;-0.09528295;0.027021272;-0.07586129;0.006221348;0.047777392;-0.078595966;-0.0730308;0.0046112733;-0.040968355;0.08350442;0.01732144;-0.06803903;0.029759811;-0.1072256;-0.012550965;-0.020131199;-0.018682884;0.023040244;0.05876073;0.051053394;-0.025911234;0.056530073;-0.034406956;-0.054209992;-0.102742344;-0.021727484;0.17376044;0.0842752;-0.04026898;-0.09031179;-0.034989737;-0.057859693;0.027002282;-0.05262686;-0.08447073;0.046566527;0.030237595;-0.0037508253;0.032971986;-0.059235923;-0.13891038;-0.06111409;-0.20588778;0.03347567;-0.097571924;0.053872738;-0.0024888837;-0.0028604001;0.051721703;-0.10944552;-0.0070410683;-0.05518736;-0.00278457;-0.0021895913;-0.1007761;0.032909192;-0.040389176;0.0020149774;-0.10119814;-0.005379758;0.0402444;0.04501569;-0.021846546;-0.034168486;-0.12141693;-0.07025129;-0.073845595;0.06038517;-0.050978933;0.008420059;0.009304822;0.019751813;-0.09803127;-0.086738095;-0.07517577;0.054686338;-0.024453081;-0.070654675;0.01062337;-0.10065812;-0.02368436;0.07599755;0.07549514;-0.10458631;-0.04456916;0.14718759;-0.07125309;-0.071534;0.036374036;-0.018304072;-0.058359247;0.025787884;-0.05429071;-0.13391697;0.0013834545;0.015821753;-0.072973415;-0.024807006;0.017727293;-0.045350745;0.046589367;-0.0015452976
-0.01964328;-0.07675397;0.028655613;0.0031322942;-0.12322451;-0.06465589;-0.09139162;0.01682584;0.07018173;-0.06889268;-0.0051229917;-0.08951949;-0.055922117;-0.0265421;-0.05479582;-0.01879325;-0.017431762;-0.050421808;0.0046250126;-0.13663316;0.00442119;0.07208191;-0.04438462;0.0010525875;-0.06827557;-0.07701869;0.03636609;-0.01016253;-0.02862405;-0.042183902;-0.13922815;0.058051012;-0.056097243;0.021794925;-0.035308406;-0.036665216;0.03820965;0.060600467;-0.0140379155;-0.052053124;-0.05871321;0.09052458;0.003008877;-0.05799391;-0.035185333;-0.10440242;0.0081832595;-0.06068889;-0.102875315;-0.088179655;-0.085879;0.08857409;-0.08662713;0.04558452;-0.0050411224;0.053972237;-0.049192835;0.05394157;-0.050555274;-0.07497949;-0.011736024;0.006464426;-0.03938343;-0.01783485;-0.022512425;-0.06990822;0.040139645;0.016575761;-0.056692116;0.0025412657;-0.1301527;-0.040221304;-0.11874501;-0.07186424;0.009240434;0.035927176;0.010782541;-0.15088178;-0.007789209;0.035724092;0.0440203;-0.058569677;-0.0049349614;0.11149363;0.00111972;-0.11240956;-0.03995094;-0.009205591;-0.06423227;-0.069195785;-0.099200934;-0.08989146;-0.08794953;-0.006836207;0.006160106;0.056433503;0.21439011;-0.06479257;0.0052490598;-0.053692117;0.023909176;-0.009341211;0.018994322;-0.11276876;-0.029038316;0.07508178;-0.07978175;-0.051043183;-0.099291936;0.027057303;-0.04079082;-0.06409668;-0.005172057;-0.0431442;0.04499464;-0.0005274232;0.0893615;-0.018556667;-0.15431824;-0.041254323;0.08410652;-0.086570576;0.00934998;-0.10482882;-0.031865478;0.055844128;0.045227695;-0.03956458;-0.020995593;-0.02724405;-0.13654867;-0.077480935;-0.012008383;0.061658114;-0.07107777;-0.050260257;-0.10862942;-0.06739802;-0.05192154;-0.054518864;0.020553907;-0.041938987;0.039308548;-0.106712975;-0.105833665;0.05607726;0.017247304;0.0029647304;-0.10406515;-0.03244939;0.0039133932;0.059233617;-0.07784006;0.07264534;0.041625973;0.015225927;0.06547922;-0.13838634;0.032534257;-0.09729155;0.013517559;-0.07316121;-0.015881522;-0.06770719;0.04119327;-0.043355905;-0.012448098;-0.008172794;-0.021099297;-0.08071635;-0.03510338;-0.11351787;0.041552864;0.0040142406;-0.062065292;-0.08122926;0.04690432;-0.056573573;0.075686246;-0.018051928;-0.06104076;-0.049228076;-0.008710222;-0.063904025;-0.090511985;0.021560526;0.00060602877;0.020381043;-0.0039996626;0.013369763;-0.01834834;-0.09618805;0.0637334;-0.10579598;-0.021367135;-0.065845646;-0.03206057;0.08109164;-0.051450558;-0.063951865;0.027810551;-0.023508089;-0.07815089;0.031238418;-0.11349438;-0.03046179;0.0071161776;-0.055883724;0.00016768974;-0.0649541;0.11513391;0.041340716;-0.06735724;-0.0074532772;-0.08210854;-0.022466652;0.04226297;-0.00861923;0.008923597;-0.11004207;0.056704495;0.08097159;-0.0979713;0.049549673;-0.017535646;-0.0071938676;-0.054708663;-0.12801363;0.028072286;0.06600701;-0.03012079;0.02758361;-0.011267573;0.072415255;-0.06366106;-0.04465051;0.020043304;-0.078717396;0.012126233;-0.055205442;-0.086954616;-0.032328725;0.048934374;-0.11077432;-0.08730482;0.09037917;-0.06609595;-0.009085915;-0.031925578;0.03580806;-0.02648912;0.045041088;0.12113236;-0.01639725;-0.049861494;0.036787383;-0.008615477;-0.014973221;0.0014812102;0.016102951;0.0006204764;-0.0014951975;-0.011915872;-0.06370998;-0.055473626;0.052193996;-0.036290623;-0.039108384;0.033677425;-0.01711112;-0.015950678;-0.07815839;-0.022844063;0.014986029;0.040138748;-0.05225923;-0.067249194;-0.100468926;-0.04456701;-0.07586213;-0.0026402604;-0.061020516;0.04746194;-0.06284647;0.0099031245;-0.0041285274;-0.070089616;-0.0736043;0.032963738;0.021343129;-0.09107031;0.02592221;-0.03930687;0.0126767475;0.020986155;-0.015348853;0.07835638;-0.08394008;-0.04454686;-0.09950062;-0.07271374;-0.088950865;0.0279455;-0.09214753;-0.061159804;-0.028215628;-0.09458415;-0.07019429;-0.06706096;0.02668954;-0.1128016;-0.091468394;-0.06734778;-0.14939478;0.015541697;0.0042408025;0.0063020447;-0.054636333;0.04496266;-0.08881871;-0.08191661;-0.03805942;-0.05919396;0.0016140656;0.06064277;0.048227973;0.04638484;0.04273293;-0.004371166;-0.014180108;-0.004097769;0.06564892;-0.1015021;-0.055463023;-0.045184553;-0.08451403;-0.062335525;-0.016042633;0.014874085;-0.00041974126;0.0024530673;0.13450651;0.007269065;0.11920669;0.03426338;-0.025803726;0.014157524;-0.074363574;0.020398652;-0.04549794;-0.026525037;-0.03370098;0.052356426;0.06552034;0.038988076;0.05017763;-0.06808941;-0.04876142;-0.09884432;0.014928758;0.08112349;0.0624303;0.0080014635;0.10227289;0.024915205;-0.08265852;-0.037556425;-0.00022640437;-0.013508223;-0.090662085;-0.05043012;0.017643651;0.019450562;-0.09216587;-0.04211028;-0.0054295715;0.06695381;0.05089797;-0.013948343;-0.045365985;-0.014245323;-0.0875235;-0.13261019;-0.11048974;-0.07287321;0.08401864;-0.09610899;0.07527313;-0.076765604;-0.0031772633;-0.010768749;0.0346825;-0.07251869;-0.102247514;-0.09284058;-0.16594717;-0.006695592;-0.026880853;-0.118252315;-0.11332935;0.0018211758;0.028033964;-0.099284045;-0.072329;-0.044246156;-0.10878244;-0.05437456;0.015574535;0.024629448;0.0049415953;0.00018852777;0.0016317362;-0.0022785075;-0.0023411345;0.048523735;0.028951015;-0.05417059;-0.013363896;-0.033220198;-0.0034047165;0.045402974;-0.08694226;-0.1039108;-0.00977122;-0.045076244;-0.10705011;0.061117817;0.013106923;-0.005356041;0.009241153;-0.072155066;0.024776567;0.08416713;0.03312433;-0.042220503;-0.07530454;-0.07089083;-0.16651528;-0.056523256;0.009203;0.0466829;0.043721538;0.05503885;0.007474124;0.04226431;0.10554485;0.057796612;-0.005034148;-0.056666642;-0.046749897;-0.1351253;0.065307386;-0.00577171;0.0059206756;0.040216036;-0.03201623;0.114452094;-0.073043294;0.011933588;0.0006497807;-0.16042973;0.051779166;0.15157452;-0.038038142;0.007254564;-0.080928355;0.07465722;-0.099117555;0.03193724;-0.041355014;-0.06998366;0.0058377474;-0.05612581;-0.03405652;0.020358386;0.020990716;-0.075849704;-0.009442959;0.0604679;0.029137027;-0.08228275;-0.08485776;0.03857716;0.005519933;0.01815953;-0.09759773;-0.07340771;-0.055485748;0.039074995;-0.029523453;-0.02603576;0.021776117;-0.054958317;-0.070349045;-0.011683285;0.06969108;-0.07228227;0.019468794;-0.09879446;0.018619275;0.24937683;0.03135787;-0.19346492;-0.095317155;-0.040943235;0.008513805;-0.08525108;0.003226082;-0.0003479629;-0.028551888;0.03888415;0.007211192;-0.097415864;0.008553035;-0.15568748;-0.10447138;-0.25262383;0.0097397445;-0.013142654;0.0859224;-0.08398132;-0.020506775;0.024027692;-0.07961777;-0.038678274;0.037417624;-0.014629946;0.02082153;-0.05102017;-0.10186069;0.020703621;-0.13758388;-0.12113705;0.013835847;0.00019474357;0.06468935;-0.08532367;-0.06352877;-0.1669309;-0.1334842;0.0006781373;-0.042334992;-0.034437064;0.02418853;-0.040129896;-0.08429287;-0.018141912;0.05544319;7.925127e-05;-0.076575525;0.04879572;0.021783654;-0.061329797;-0.012311855;-0.026837094;0.050499372;-0.07799329;-0.056611314;0.08607865;0.13464998;-0.07193128;0.022375606;0.03340605;0.04507331;-0.03231944;-0.048229445;0.024187295;-0.09907237;-0.0583524;-0.060142606;0.026361067;-0.02420101;0.11751838;0.027005063;-0.05260564;-0.07680992
0.0248911;-0.09026213;-0.060673762;0.070466265;-0.058955703;0.011616776;-0.13623965;0.03324241;0.0720349;-0.081821896;0.02134664;-0.040296588;-0.143679;-0.019607842;-0.044688318;0.028488215;-0.0701227;0.042556487;0.040972542;-0.032390736;-0.048376523;-0.06619768;-0.00898106;-0.09309608;0.0036874784;-0.040182266;-0.05653512;-0.04793075;0.03405413;0.029672252;-0.09245914;0.05303754;-0.106757544;0.0104627535;-0.06956294;0.012839637;0.04760854;0.034026094;0.04557444;-0.03069812;-0.020145604;0.10922841;0.004057555;-0.11615944;-0.10844414;-0.11226921;-0.051265664;-0.09112098;-0.10063267;-0.09581857;-0.16328795;-0.030861843;-0.10031631;0.004233061;0.021022102;0.0066494625;-0.014921341;-0.04720233;-0.016398173;0.06407398;-0.045620598;-0.025533002;-0.089560375;0.012787381;0.021305649;-0.08313014;-0.08077387;0.1144158;-0.08070982;-0.0014881232;-0.11405761;0.030516407;0.02005846;0.033671785;-0.04460647;0.023694254;-0.07946707;-0.051199585;0.088571176;-0.10204094;-0.01759417;-0.037411667;0.053201918;0.15712164;-0.12574488;-0.09557378;-0.10069536;0.051129714;0.016835952;-0.009007921;0.030383637;0.057096623;-0.05352409;-0.06628807;-0.09628025;-0.08518979;0.11245539;0.056606643;-0.10347376;0.042567298;-0.035014093;0.053782467;0.013327521;-0.0075063356;0.02553738;-0.007138715;0.060143378;0.0048086;-0.06439204;-0.037651874;-0.034479167;-0.053316895;-0.103433475;-0.04031136;0.054937076;-0.08883325;0.108145885;-0.077814996;-0.080384485;-0.047457498;0.07393377;-0.01649278;-0.06252463;-0.061662387;-0.09712833;-0.035947327;-0.029584266;0.025372157;0.0013461777;0.03484422;-0.08168356;-0.061973892;-0.011928086;0.042501766;0.08760866;0.023689328;-0.03548916;-0.012520363;-0.016487699;-0.09799989;0.049301986;-0.10015983;-0.0030489836;-0.07689518;-0.06957253;-0.0013005771;0.06467946;-0.078923054;-0.09539793;-0.08084075;0.05432982;0.012207873;-0.032832053;-0.03367902;0.12590961;0.08277596;0.039150506;-0.095392674;0.022159066;-0.0051893764;0.017047795;-0.08377467;0.06672046;-0.021646328;-0.092275485;-0.071712464;-0.12433188;-0.048252184;-0.091572456;-0.12664977;-0.019036291;-0.105216146;0.052081138;0.047595903;-0.03072318;0.021689408;-0.011561803;0.05915562;0.12160464;-0.0060853604;-0.059415434;-0.0029036955;-0.0147597585;-0.063498;-0.12073409;-0.08553362;0.012350476;0.019799449;0.045737136;-0.03633243;-0.18426916;0.0108092865;0.04098173;-0.09899542;0.03326471;0.018667433;0.017983625;0.016781626;-0.022612078;0.019102387;0.033665888;-0.06145973;-0.05850716;-0.0027927188;-0.11353785;-0.10601633;-0.076599374;-0.048086993;0.0428781;-0.009408027;0.14805503;-0.096501715;-0.08986222;-0.0055544907;0.04093538;-0.08468489;-0.09273642;-0.09946438;0.0765656;-0.051402897;-0.052835267;-0.022132438;0.061601333;-0.09154547;0.024661534;0.030510945;-0.13300942;-0.010944998;0.07402129;0.10105783;-0.06963852;-0.019058915;-0.009194252;-0.01645373;-0.011529739;0.00089571124;0.027622676;-0.07143413;-0.12446788;0.03332609;0.03983923;0.08249808;-0.03532734;-0.09130466;0.0022248249;0.08620472;-0.0005757972;-0.0065564066;-0.031474423;0.012953119;0.0426955;-0.021805769;0.092380784;-0.10376304;0.018133333;-0.04591002;-0.053426467;0.0069903824;-0.08164221;-0.09086893;0.019930929;-0.014426584;0.03599973;0.009973569;-0.077082366;-0.02565032;0.04696043;0.08954568;-0.046058606;-0.067742884;-0.03579006;-0.018390628;-0.022940034;0.04460597;-0.047429353;-0.007868707;-0.11215358;-0.047372572;0.009003235;-0.023310658;-0.046172675;-0.09166157;0.020853292;-0.1551007;-0.016151922;-0.010355221;-0.055370588;-0.022149319;-0.011452223;-0.006656544;-0.0819623;-0.022953495;0.02120734;-0.07719482;-0.07700486;-0.0053859847;-0.01504037;-0.11864524;-0.03508177;-0.043523725;-0.088204205;-0.15226743;-0.023196949;-0.016252795;-0.03634774;-0.04624692;-0.09161891;-0.118296;0.07299369;0.05809568;0.02140931;-0.12595968;-0.0553368;-0.13168068;-0.116044044;-0.045357373;-0.052469745;0.002997801;0.064078264;0.040029973;-0.0023205997;-0.049323205;-0.08549838;0.052194204;-0.055573117;-0.0038922748;-0.0099905245;0.05333256;0.031877674;-0.08349502;-0.032064617;-0.033391174;-0.10442018;0.014839472;-0.076859325;0.049490515;-0.082283445;0.0042623784;0.0640115;0.053651992;0.09070097;0.08406128;-0.010123128;0.12709114;0.032993637;-0.08138262;-0.047391925;-0.10044575;-0.04537532;-0.001390898;0.085526556;-0.037765946;0.032174155;0.036269087;-0.0672967;-0.040415317;-0.053487886;-0.032238178;-0.022817113;-0.104245275;0.07415044;0.03258235;-0.07435657;0.103223786;-0.0065835644;0.058455516;-0.0627982;0.028483948;-0.13521056;-0.07931059;-0.06917069;-0.03372852;0.008943425;0.03255116;-0.03029359;0.05405664;-0.06631709;0.10101846;0.056958042;-0.050512474;0.017736671;0.007634497;-0.14625321;-0.07026678;-0.097935244;-0.004474515;-0.07912744;-0.014578399;-0.05174586;-0.010345985;-0.030034367;-0.11177045;-0.053974405;-0.086312674;-0.0073915953;-0.063493505;0.044546116;-0.089319296;-0.01448194;-0.03940697;0.0140575515;-0.024947496;-0.08910039;-0.018951606;-0.06823962;-0.07579843;0.073497914;-0.016017549;0.05890191;0.012867783;-0.096388526;-0.0385493;-0.04639383;-0.04835513;-0.052509136;-0.031539384;0.020083392;0.04298453;-0.053139444;0.064825125;-0.038329553;0.05860962;-0.10577257;-0.030129982;-0.013317963;-0.05706212;0.027945591;0.011148589;-0.09949901;-0.013163878;-0.025759945;-0.022588616;-0.03753008;0.024251627;-0.088454865;0.063555904;-0.06687789;-0.009608758;-0.04636775;-0.08552415;0.06588831;0.008829555;0.035138234;0.062416926;0.057562422;0.05134658;0.046071168;0.039841026;0.019239768;-0.079142116;-0.06908132;-0.022361092;-0.08151789;0.06999643;0.05749389;-0.08057589;-0.023470696;0.03338473;-0.036596872;-0.121487856;-0.13405001;0.021664623;0.19267936;-0.007525354;0.008175585;0.046356656;0.04726562;-0.022687558;-0.049280938;-0.062984824;-0.0144870365;0.009938852;-0.13698526;-0.07727248;-0.08683648;0.022058938;-0.0078371735;0.051175453;0.015696777;-0.08365314;0.038625795;-0.10989477;0.0419667;0.065929785;0.038360327;-0.008017841;0.03296011;-0.13019304;0.07611618;0.018770939;0.025285808;-0.04896818;-0.06425499;-0.012482789;0.002091853;0.027788093;0.029439176;3.4887846e-05;-0.09678369;-0.024922067;0.12716626;0.050452817;-0.1569909;0.012855582;-0.08337332;-0.020528711;0.072747886;-0.07507851;-0.055244528;-0.041243613;-0.079202004;-0.05271526;-0.030234683;-0.08763797;-0.16245258;-0.08473259;-0.20435856;-0.05125638;-0.14884618;-0.07454783;-0.0593172;0.020254157;-0.02837413;0.0037723945;-0.051573455;-0.07617177;0.059357658;-0.033718992;-0.11281316;0.016517539;-0.044932134;-0.039288647;-0.032080144;-0.009818104;0.037621517;0.03754546;0.013457566;0.009584689;-0.13284028;-0.1189582;-0.09686774;-0.015435492;0.033964165;-0.10549854;-0.12738407;0.058686055;-0.042299386;0.001605802;-0.078448296;-0.024896068;0.04801044;0.004209138;-0.03940485;-0.04868209;-0.075398736;0.13598245;0.039284013;-0.06173972;0.03030073;0.12093939;-0.027478086;-0.06823334;-0.014433182;-0.030092444;0.031093935;-0.01736893;-0.104035646;-0.13108505;-0.041588828;-0.10499885;-0.070915975;-0.12361537;0.03983375;-0.046728186;0.05084088;0.060853023
-0.077195905;-0.13814852;-0.06722205;0.059958953;-0.08800604;-0.029486846;-0.1432324;-0.03203585;0.12542869;-0.03812074;-0.105120644;-0.14426734;-0.11121716;0.044018287;-0.08148362;-0.016176337;0.077240765;-0.09158419;0.048904866;-0.12529576;0.021566479;0.025060805;-0.095815085;0.024510704;0.015136128;0.030836096;-0.026132444;-0.091668196;-0.008602061;-0.117852904;-0.15004176;0.12016162;-0.044892382;-0.019573221;0.05758441;-0.04235824;-0.10246831;0.075049505;0.028996874;0.042084627;0.04970782;0.02794859;0.085226506;-0.07133747;-0.036495134;-0.14628765;-0.03958782;0.048226673;-0.009020828;-0.07345688;-0.07740989;0.013957275;-0.0035602283;-0.06516857;0.091091655;-0.022588639;0.004113315;0.06033372;-0.0054696715;-0.078253545;-0.046174277;-0.13414378;-0.0998065;0.051872447;-0.0035160452;0.0041359896;-0.014787498;0.04546721;0.04943005;0.032644983;-0.027117075;-0.084463395;-0.04881397;-0.035526235;-0.05821874;-0.081471376;-0.037069894;-0.10364601;0.100632936;-0.0057073175;0.009468885;-0.07808437;0.010451786;0.15957324;-0.0063276477;-0.005060482;-0.06826243;-0.082082085;-0.038240284;-0.09004977;0.015771246;0.04238807;0.011702243;-0.13204952;-0.021026878;-0.029185744;0.17654736;-0.065494366;-0.06805912;-0.09008702;0.009116151;-0.05900016;0.02508523;-0.12714949;-0.03679124;0.0397129;-0.053271353;-0.017376855;-0.03282712;0.04515547;-0.0035159069;-0.07732742;-0.06916713;-0.006853017;-0.010737869;-0.052438844;0.047372364;-0.0054860045;-0.122852944;-0.052630983;-0.040365152;-0.05860801;-0.10818346;-0.10641842;-0.0044325786;0.043972507;-0.011339149;-0.0707237;-0.0015395505;-0.07267051;-0.04819723;-0.015541204;0.11247528;0.12149358;-0.046586275;0.045584753;0.037633613;0.015824169;0.05415538;0.00972109;0.0012698225;-0.017413396;-0.10383641;-0.08230254;-0.09811434;0.03826023;0.0062852814;-0.0591987;0.0303922;-0.093400195;-0.009404139;-0.044228137;0.06215891;-0.03198137;0.02845808;0.050050985;-0.029426796;-0.15088306;-0.016380604;-0.069016;-0.049790435;0.04490801;-0.003541639;0.034086596;-0.069473974;-0.013101461;-0.0030154067;-0.039779667;0.047581907;0.0024411895;-0.08046962;-0.06260087;-0.070443474;-0.0024480687;-0.026399301;-0.012462003;-0.03103322;-0.059813496;0.061416347;-0.122526176;-0.17138232;-0.09919088;-0.04746587;0.042011365;-0.14420411;-0.021352407;-0.05000954;-0.016860474;0.024054918;0.017184868;-0.04626857;0.0497569;0.0424396;0.028247721;0.035359774;-0.093715474;-0.100821815;0.054806918;-0.014601963;-0.041145213;0.036078267;-0.02031362;-0.057933126;0.026264958;0.017704707;-0.026546543;-0.020999655;-0.013054385;-0.018541545;-0.07993383;0.1263117;0.027435469;-0.019442925;0.062808625;0.045716383;-0.08806936;-0.019271433;-0.07162125;-0.015462868;-0.018749075;-0.08037027;0.026305372;-0.06700955;-0.019560093;0.005044809;-0.020882387;-0.17770958;0.020832168;0.0716813;0.104168676;-0.07259997;-0.08232965;-0.079122275;-0.053257015;-0.021149267;-0.060937274;0.023919687;-0.055011556;-0.056496263;0.03986937;-0.10146614;0.048081648;0.084491625;-0.112109676;0.06999041;0.09255314;-0.018362185;0.00353419;0.038610954;-0.02419892;-0.033563577;0.020312365;0.104268566;-0.14464447;0.0609145;-0.013592934;-0.0041032913;0.036114175;-0.042981215;-0.12137643;-0.05295702;0.012523374;-0.020094201;-0.034413572;-0.075680666;0.045597296;0.04785114;0.039489333;-0.042271625;0.011321931;0.0044177743;-0.020844588;0.0120203225;-0.09260885;-0.04437237;-0.04627702;-0.101932205;0.027230667;0.11165407;0.014404287;0.09228404;-0.11707803;-0.057630755;0.0037532023;0.022307722;0.06344791;0.038138058;-0.11299432;-0.055773698;0.06693016;-0.0058631673;-0.057229914;-0.020190677;-0.08884289;0.06811506;-0.07820374;-0.02019603;-0.107924506;-0.008026773;0.017797295;-0.0035834115;-0.15819296;-0.045538094;-0.06284236;-0.064823054;-0.009192121;0.039981242;0.022695934;0.022529129;-0.023770949;-0.11784815;-0.10134057;-0.06960907;-0.02740022;-0.14928311;0.05921582;-0.070998155;-0.06283283;-0.052310914;-0.1209287;-0.041237414;-0.035967898;0.011616754;-0.039347954;0.015616726;-0.11952095;-0.017606905;0.04780761;-0.065818354;-0.13024001;-0.07172526;0.06462693;-0.007159028;-0.054871954;0.060853392;-0.089628555;-0.0980463;-0.017239824;0.058810733;-0.08226425;0.1196154;0.19209996;-0.10789511;0.13079162;-0.08120447;-0.014598548;-0.041166224;-0.010930577;-0.097599655;-0.08010145;0.022885082;-0.069248356;0.032884892;0.023791352;0.014627775;0.06905572;0.019455958;-0.096347205;-0.027124349;-0.004398521;-0.014990021;0.035321046;0.002403381;-0.032722663;-0.104290076;-0.08346269;-0.07580032;-0.0563312;-0.0475146;-0.037696436;0.023543183;-0.027006488;-0.043701462;-0.047893163;0.024586022;0.082129315;-0.0074279923;0.06000398;0.063515164;-0.049780153;-0.08302366;-0.08410434;-0.037631877;-0.01131145;-0.110809304;-0.043481275;0.0026130565;0.055251107;-0.08582114;0.038415838;-0.0945879;-0.0512517;-8.9460686e-05;-0.019592902;0.014339554;-0.012300147;0.043102633;-0.15794376;-0.077265024;-0.112575956;0.089825965;0.020038573;0.033155613;-0.05471511;-0.03806468;-0.106536984;0.086228594;-0.0025938228;-0.031691354;-0.014802366;-0.08933606;-0.089806885;-0.0929152;-0.17080988;-0.031589385;-0.039047852;-0.114734106;0.082659625;-0.039047357;-0.080603555;0.0012040426;-0.061050773;-0.011851436;0.04322305;-0.040117502;0.0126382895;-0.005391083;-0.057911728;-0.12331517;0.065307975;0.040446497;0.04638581;0.050727513;-0.06695576;-0.06482896;-0.037304264;-0.031908993;-0.1528476;-0.09707563;-0.006625346;0.13733628;-0.0992081;-0.015784739;0.008126567;-0.029020058;0.0054746186;0.053815518;-0.008092888;-0.037688844;0.05133142;-0.093508475;-0.026367292;-0.082482405;0.04272631;0.044253174;-0.11973365;0.084062174;-0.058524292;0.0024731718;-0.08628952;-0.16299082;-0.08504839;0.14541632;-0.104966424;-0.041794144;-0.00957945;0.027563939;-0.047601078;0.020994395;-0.0071972557;-0.083318025;0.0008535706;-0.08066084;0.009164572;-0.091769524;0.012743743;-0.044423;0.027608816;0.008065277;0.040389337;-0.10344012;-0.08059214;-0.020456271;0.073551305;0.022965167;-0.027509496;-0.07519029;-0.060691148;0.13003728;-0.052698478;-0.033749618;-0.047480747;0.0049249185;-0.045748547;0.011554059;-0.11868432;-0.05637925;0.011453569;-0.029497582;0.05589998;0.11515102;0.10321497;-0.03409409;-0.0279157;0.021662273;0.033297066;-0.04015973;-0.046996716;-0.12539442;-0.032262262;0.001190824;0.016957985;0.046471793;-0.11106378;-0.043734934;0.0012535283;-0.17802878;-0.03778137;-0.03947702;0.0049039316;-0.10722774;0.038164906;-0.06907434;-0.10088055;-0.09089187;-0.027777895;-0.08563383;-0.050169747;-0.018691069;0.028681671;-0.03760163;-0.120981425;-0.054539062;-0.053600363;-0.13110207;-0.07289928;-0.03699306;0.040484425;-0.011643829;-0.061834037;0.030358473;0.019403938;-0.04384234;0.012310817;-0.0015079108;-0.092372134;-0.061203573;0.022952914;-0.03936402;-0.07342603;-0.06669682;0.0044875955;-0.0022489347;-0.06547756;-0.011675913;0.024300775;-0.0117351115;0.02392923;0.012816982;0.10334706;-0.02798894;-0.01088629;-0.09281635;0.0018404633;0.052155532;-0.08963;-0.007253171;-0.050378013;-0.004886119;-0.10324813;0.017325398;-0.0062280963;0.06754951;0.004065635;0.023623822;0.023588235
0.009483299;0.020559072;-0.03327961;0.008370515;-0.11174122;-0.008924575;-0.059599403;0.06774088;0.1138807;-0.1830342;0.022287883;-0.13066037;-0.03454323;-0.022151364;-0.08449439;0.00027759446;-0.052534696;-0.0768218;-0.09613972;-0.044637073;0.06711184;0.05813862;-0.055974837;0.042473827;0.0111494055;-0.027578942;-0.031452507;-0.059958912;-0.029695148;0.028351443;-0.075062245;0.12313209;-0.08447313;0.030465033;-0.022305394;0.015059294;-0.0631657;0.11307296;-0.022293063;-0.09426977;-0.04730811;0.116687015;0.045550074;-0.12274864;-0.032346163;-0.09877405;0.06393667;0.024932912;-0.10200165;-0.036693208;-0.12234978;0.009119086;-0.041311003;-0.085880704;0.029887727;-0.022659246;-0.07728725;0.051605497;-0.08158408;-0.008390796;-0.0024833756;-0.13985702;-0.07849364;-0.098864876;-0.113504216;-0.037810758;0.030562716;0.14889497;0.0014074488;-0.026900917;0.016455984;-0.039321877;-0.09767491;0.06628881;-0.089855365;-0.0049992036;-0.0728677;-0.19949679;0.022055557;-0.011858501;-0.04898222;-0.028329741;0.0050510396;0.09448727;-0.09033936;0.0072760484;-0.017577609;-0.09103564;-0.06465832;-0.075268805;0.05835525;0.010488804;-0.06727164;-0.052166145;-0.0055369167;0.009027288;0.16113193;0.011874591;-0.031147132;0.025698066;-0.046041206;-0.03989119;-0.021574194;-0.11836136;0.0038202738;0.009166243;-0.04669811;-0.062407658;-0.058220245;0.038224038;-0.06798424;0.00907609;-0.006201899;0.07659055;0.023973268;-0.05099433;0.080471024;0.008210019;-0.11711914;-0.08023277;-0.04556119;-0.0052443882;-0.0863186;-0.057164036;-0.053619206;0.0058957194;0.050072376;-0.070389755;-0.07290627;0.03247353;-0.07527996;-0.010008707;-0.026473064;0.11333002;0.029522082;-0.021394597;-0.11671226;-0.03121558;-0.041852966;-0.027795283;0.06064657;-0.025377128;-0.025115868;-0.052472055;-0.15787217;0.04495361;0.0977758;0.017267384;-0.11478732;-0.014480863;-0.10494791;0.04323767;-0.07795619;-0.0077916966;0.04587413;0.05612589;-0.027829226;-0.094902426;-0.03176668;-0.034276955;0.030213986;0.010422183;0.008415594;-0.10708141;-0.09325616;-0.007629246;-0.0012529829;-0.05235668;-0.011553636;-0.031208342;-0.069460556;-0.024730783;-0.07456642;-0.07722246;-0.038596313;0.0025957008;0.0592576;-0.034865104;0.046402723;0.0032354381;-0.1962295;-0.06416228;0.014564211;-0.023663074;-0.059922896;0.06753229;-0.050321426;-0.06794516;-0.039037924;-0.10285017;-0.104344495;-0.0423801;-0.006972406;-0.110693425;0.026446752;-0.108478636;-0.03898848;-0.020440167;-0.08686464;-0.008004049;-0.031392917;-0.01796436;0.0026232565;-0.011853701;-0.09379472;-0.007098358;-0.11726436;-0.0455228;-0.08427481;-0.17446746;0.102459416;0.0047674538;0.058548193;-0.0158508;0.03739147;-0.099705525;-0.060383495;-0.072716035;0.04082074;-0.071318805;-0.059401814;0.07821651;-0.048839338;-0.034812357;0.008973366;-0.047240246;-0.118300885;-0.03104186;0.08565451;0.036786426;-0.0007030384;-0.0701316;-0.13589004;0.0058303783;0.009237058;-0.031043706;0.0053256103;0.03480013;-0.020050047;-0.09474441;0.011096984;-0.028995605;-0.0029647525;-0.114903904;-0.03285317;0.104101606;-0.0032385215;-0.05199502;-0.077504404;-0.060123432;-0.072826475;-0.053444136;-0.032315552;-0.12582225;-0.002200658;0.011152728;-0.037758894;0.055795334;-0.10871075;-0.0640996;0.05369002;-0.07741376;-0.04542068;0.009658099;-0.16005066;0.01878393;-0.07568218;-0.0034601528;-0.08423266;-0.08316723;0.02434891;0.052460156;-0.07413808;0.0279363;-0.024421783;0.010964763;-0.08354547;-0.08901924;0.06842811;-0.111736834;0.0633399;0.02859065;0.050912805;-0.12172274;-0.08750261;-0.024776086;0.04079631;-0.1024719;-0.06404799;-0.08046889;0.02528331;-0.051725905;-0.07135159;0.032138616;0.08319494;-0.030413829;0.022029307;0.0030732546;0.027010808;-0.003084173;-0.09226552;-0.082069516;-0.08888573;-0.102936864;-0.08950059;-0.043271217;-0.0013992264;-0.05308056;0.06998955;-0.05128262;-0.09267338;-0.080833755;-0.013645181;-0.16149159;-0.03830882;-0.06510115;-0.04774608;-0.0061883805;-0.07335591;-0.13030568;0.00017615895;0.014091392;-0.0045980904;-0.0710453;0.007270798;-0.038726047;0.02512677;0.037729405;-0.024338609;0.015066888;-0.07943256;0.093624346;-0.044081107;-0.0033581567;0.02239535;-0.06017702;-0.07861861;0.031984426;0.010553677;0.073769405;-0.009794343;0.18624252;0.0001980637;0.18317798;0.030383412;-0.1019864;-0.08212649;0.027587749;-0.08202051;0.06549261;0.037874866;-0.074586704;-0.024258284;0.01581106;0.0384815;-0.00045694844;-0.06471076;0.020290893;0.012709751;0.009046632;-0.05825728;0.12775882;-0.108339086;-0.077948414;-0.11514213;-0.01919377;0.00024934497;-0.045843028;0.011831548;0.041667357;-0.06747407;0.011700042;-0.029698644;-0.113095656;-0.039233122;0.07142396;0.004252931;0.13754411;0.03142254;0.03460851;-0.09378285;-0.06326656;-0.17209454;-0.06475849;-0.12529686;-0.023943624;-0.07563851;-0.05843269;-0.02655105;-0.03881711;-0.022619462;-0.09469362;0.039168783;-0.034061104;-0.003882138;-0.123512916;0.019420186;-0.06865922;-0.06796885;-0.111788444;0.12820436;0.004128657;-0.110305265;-0.007802385;0.005610518;-0.060356516;0.0004475314;0.0018385025;0.012911823;-0.0069939164;0.0016736143;-0.077651;-0.015662959;-0.036606923;-0.046351537;0.032584593;-0.09455065;-0.045540605;0.02766072;-0.073229805;0.0002959624;0.032674965;-0.0070116874;0.04292441;-0.107995;-0.115765244;0.07428374;-0.038054172;-0.04996056;-0.03290371;0.040124286;-0.06500232;-0.020817796;-0.10054039;-0.026794465;-0.11326861;-0.0036667364;-0.17014442;-0.05913135;0.04141719;0.021662321;-0.07076422;-0.06804812;0.033836413;0.018419014;-0.033458598;-0.0062602973;0.053702522;-0.10382668;-0.109167635;-0.023531308;0.034027748;-0.13249435;-0.10630726;0.016055996;-0.07048844;0.08213076;0.015141355;-0.0042427047;-0.07757737;-0.10347467;0.012289505;0.19484864;0.03403132;-0.039337292;-0.039632816;0.029081132;-0.12498186;0.018777197;-0.08151417;-0.10083668;0.017184118;-0.119155146;-0.01736445;0.029856667;-0.120221466;-0.042316068;-0.11462369;0.071527034;-0.037822198;-0.046731394;-0.11638443;-0.023339352;0.09056108;-0.08206609;0.036142576;-0.015092975;-0.010463984;0.033448327;0.010540192;-0.01546072;-0.024896946;0.06921043;0.061764322;-0.066815;-0.07097369;0.03367934;-0.015498539;-0.071085684;0.03879199;0.23687117;0.15831769;-0.19239566;0.004872657;-0.075784676;0.019889863;-0.07496395;-0.09086173;-0.0073645916;-0.11067644;-0.09491494;-0.10741577;0.033529483;-0.047228117;-0.06821714;-0.03427946;-0.20291702;-0.0058224495;-0.10674192;0.07965232;-0.062298793;-0.09356246;-0.0956532;-0.07317095;-0.0022574875;-0.075939886;-0.017349586;-0.07899845;-0.015978148;-0.03784969;0.0014314178;-0.14693943;-0.0328096;-0.06738103;-0.032246597;-0.028847342;-0.012488915;-0.11059406;-0.058078047;-0.046706256;-0.0106579205;0.00065368187;-0.06523349;0.0046354276;-0.02708633;-0.042995416;-0.12140825;0.049545348;0.024941985;-0.0022527173;-0.0375038;-0.023087408;-0.07022711;-0.07710405;0.039190136;-0.01036164;0.033170626;-0.0370268;0.042840827;0.074641354;0.02462906;-0.09968579;-0.0026975977;0.094772324;-0.038302295;0.015935112;-0.021360362;-0.052766405;-0.023696786;0.04929714;-0.089662425;0.001924175;0.02689982;-0.101831764;-0.11831347;-0.016750881
-0.11209589;-0.14012581;-0.12276015;0.12699036;0.0038827332;0.054818016;-0.08273492;0.069419295;0.019374462;-0.13964054;0.021447787;-0.028434042;-0.17004472;0.04284647;0.054229498;-0.06679882;0.0673696;-0.116073795;-0.06645417;-0.022640614;0.017958978;-0.08140975;-0.08009701;0.03659463;0.042497054;-0.028035898;0.025476467;-0.14099738;0.06183128;-0.043872103;-0.17931567;0.10877198;0.020867119;0.042627275;0.05495711;0.04151835;0.0026982552;0.014036576;-0.06788936;0.04834115;-0.046301898;0.08241817;0.038001478;-0.06919257;0.038394302;-0.028795615;0.05699102;0.037747778;-0.025442462;0.01376593;-0.11189845;-0.01014897;-0.006060175;0.041167542;0.008755345;0.024247028;0.055534825;-0.06262645;-0.073562674;0.023563022;0.03552407;-0.10763362;0.036466207;0.03789674;0.009655417;-0.048188128;-0.03010084;0.054141246;0.018699253;-0.054122515;-0.06419668;-0.037923165;-0.05543826;0.006629101;-0.1386668;-0.03197345;-0.10121503;-0.18460035;0.11152899;-0.041669577;0.041192427;0.026704133;-0.061436832;0.12689301;0.015105523;-0.116991915;-0.06334492;-0.045066316;-0.044996005;0.013633003;0.05435541;0.011821508;-0.042771988;-0.11276263;-0.019030683;0.025942978;0.10777195;-0.0660109;-0.02484983;0.009959608;-0.06250162;0.08957886;0.01660531;-0.15574491;0.0043280264;-0.010984779;-0.02609717;-0.12259906;0.0017154152;-0.01894667;-0.017990869;-0.04371705;-0.05695289;0.029096445;-0.040127136;-0.056693163;0.039338548;-0.009201238;-0.060031746;0.09087734;-0.042216208;-0.10176279;-0.014484708;0.0011767095;0.040904943;-0.064357154;-0.031180428;-0.0008892212;0.0014106184;-0.0896583;-0.1721558;-0.007394823;0.08916852;0.11235306;-0.10138216;-0.07243171;-0.03412323;0.017145546;-0.107955016;-0.034570966;0.043823544;-0.017934607;0.041601345;-0.10337482;-0.0647194;0.005310014;0.087819636;-0.10672642;0.031933554;-0.09855247;0.0025323813;0.05608891;0.030940885;0.05136283;-0.0026824854;0.062057786;-0.017760757;-0.06660958;-0.063384086;0.026836364;-0.025303198;0.04617669;0.013257052;-0.010050166;-0.052527964;-0.06489487;-0.15676738;0.016870845;0.04524359;-0.073157825;0.060457107;0.015132623;0.004938858;0.008772017;-0.07378618;0.023669586;-0.044661976;-0.07568272;0.0009337069;-0.12352317;-0.06852996;0.006466617;0.04025346;0.036633726;-0.14882004;0.039097853;-0.014652743;-0.09247334;-0.01797516;0.0050477274;0.0045348504;0.005350973;0.100748576;-0.028697906;-0.09416754;-0.018169098;-0.026938202;-0.04640428;-0.013426171;0.018808449;-0.09167179;0.04669009;-0.043303765;0.02454816;-0.0768346;-0.031337008;-0.107392244;-0.1058885;-0.010134887;-0.053544644;0.093855426;-0.100074686;0.06980715;0.06390878;-0.08266759;-0.1720031;-0.04163185;-0.04453846;-0.004790691;0.010986184;-0.059336487;-0.010531021;-0.06727713;0.018818509;-0.08784605;-0.078324676;-0.13535264;0.0072457907;0.10999383;0.0077650407;-0.019552303;-0.072193585;-0.07842497;0.0479787;-0.008431677;-0.004313779;0.04227776;-0.06377595;-0.10083496;-0.07260042;-0.08379454;0.07364923;0.09384229;-0.12891293;-0.037786152;0.057188984;-0.03561019;-0.015797315;-0.060028546;0.080062926;0.0071443836;0.094314404;0.06486395;-0.001151984;-0.0749949;-0.032769322;-0.027979342;-0.06647116;0.01818436;0.006111431;0.03690181;-0.101480916;-0.08127371;-0.10012742;-0.011853736;0.006706128;0.016098332;0.07672632;0.055626303;-0.062660754;0.035214253;0.013571462;-0.05354805;0.032003034;-0.04585916;-0.05465659;-0.015143704;-0.04495592;0.013858614;0.02020053;0.074833;-0.019947872;-0.03849507;-0.034112956;0.022497749;-0.043982875;0.02240835;-0.0019093924;-0.05431748;-0.0322491;0.06813271;-0.04013952;-0.04763499;-0.051995568;-0.041693896;-0.012063743;0.07509462;-0.02352847;0.048032;0.0050363303;-0.071892954;-0.073521055;-0.08617329;-0.021910444;-0.051867146;0.031847205;0.0039409795;-0.04353496;0.08454941;-0.09175124;-0.04409989;-0.055358455;-0.0721692;-0.12155605;-0.01005157;-0.008869415;0.037588228;0.06705689;-0.087697275;-0.097593315;-0.090603665;-0.09525534;-0.012489456;-0.0041184756;0.062332887;-0.021250531;0.01943664;0.041406333;0.027165908;-0.020194957;0.04140121;-0.031266935;-0.05103254;0.0059164786;0.01640297;-0.05671581;0.038216386;-0.07427449;-0.040666625;0.01926554;0.091630846;0.2022562;-0.09378707;0.12358665;-0.072266154;-0.029207913;-0.07405944;-0.00057652924;0.026609391;-0.0589028;0.0031191204;0.026554596;0.057966128;-0.043768656;-0.020645162;0.13112187;-0.13242503;0.03614558;0.044982336;-0.045658138;0.0092801405;0.07539612;-0.06301211;0.019674031;-0.022647575;0.06619765;0.0031590129;-0.046485975;0.0064326026;-0.008153264;0.033480912;0.119102344;0.034066387;-0.006341828;0.043756988;-0.048940647;-0.026263053;0.08414986;0.055627894;0.010735647;-0.058515824;-0.051078383;-0.13332677;-0.11685301;-0.045822855;0.11924684;0.008154519;0.035725538;-0.08851857;-0.07743787;-0.014618196;-0.045817234;-0.0980373;-0.095885314;-0.042713437;-0.08804064;-0.052371148;-0.12949817;-0.18275821;-0.17640187;-0.011205173;-0.051375575;-0.011023824;0.03621425;0.054099906;-0.12104227;0.06409011;0.01681655;0.0637271;-0.010392664;-0.08677969;0.016250337;0.0037015872;-0.052644838;0.026576018;0.057420656;-0.018635485;0.012560287;-0.01838289;-0.056423817;0.037669633;-0.027836444;-0.10943742;0.06535348;-0.094574325;-0.07365936;0.0014065945;-0.03888754;-0.026298605;-0.013377293;0.050402466;-0.036753654;-0.0426463;-0.061591;0.011936493;-0.102668285;-0.08307153;-0.11556503;-0.035252195;-0.072861634;0.104123525;-0.05450275;-0.030227566;-0.047492668;0.017878184;0.02037693;0.11423393;0.036358293;-0.08853776;-0.058515057;-0.014502961;-0.06273089;-0.11173132;-0.10882069;0.0865401;-0.025340218;0.13312958;0.08821821;-0.020702088;-0.019490473;-0.19350174;0.03606639;0.18966521;-0.099403635;-0.0129013285;-0.08031324;0.02987111;-0.035910435;0.019499687;0.026743157;-0.019271072;0.0074852393;-0.123940416;-0.059694197;-0.013707817;-0.13649757;0.011395933;-0.010529731;0.076879315;-0.06823977;-0.06431019;-0.08006979;0.04184479;0.022712855;-0.11104258;-0.012718448;-0.068122774;-0.16653101;0.113970816;-0.0048276735;-0.027759135;-0.042006288;0.0018237077;0.03555628;-0.076380156;-0.11838916;-0.0071374434;0.0028497293;-0.097232416;-0.04925006;0.1017002;0.13863051;-0.16803618;-0.11408065;-0.025868887;-0.011100779;-0.045643046;-0.1040034;-0.05349321;0.036717746;-0.020709999;-0.072515555;-0.08343659;0.0060301484;-0.11772468;-6.104168e-05;-0.28949043;-0.09290968;-0.11627358;0.07866678;-0.058376383;-0.024667991;-0.025638765;-0.15553048;0.038150933;0.005513227;-0.0029850893;0.0050050085;0.0025322633;-0.0051118815;-0.0783636;0.004107555;-0.06415125;-0.11718688;-0.073680475;-0.053020895;0.004068487;0.009751563;-0.096224606;-0.10548194;-0.03762284;0.05978025;0.01406974;-0.080514446;-0.047324337;0.01971988;-0.13987668;0.058623005;-0.003431875;0.020135527;0.053257275;-0.016667202;-0.035340436;-0.07943944;-0.021791434;0.008117335;-0.046266623;0.008203531;0.085728556;0.16583665;-0.08492725;-0.02778023;-0.09891804;-0.06074933;-0.059242718;0.008537414;-0.06648192;-0.07694756;0.011418174;0.018680796;-0.046998966;-0.122989416;0.0019193018;-0.0073780064;-0.09547046;-0.0078202775
-0.10515045;-0.05219304;-0.096758254;0.12601487;0.009584438;0.052984487;-0.1185292;0.018512156;0.042592034;-0.10119265;0.022833575;-0.008686795;-0.14225473;-0.035317596;-0.074752994;0.009958071;-0.017045418;-0.01636289;-0.0016451617;-0.15799724;-0.0038044218;0.07746217;-0.07531431;-0.008635084;-0.009294377;-0.027731115;0.045765337;-0.02907574;0.045250002;-0.08989006;-0.16703555;0.07107291;-0.12279538;0.052564602;-0.056575615;-0.03771296;-0.086326994;0.04723653;-0.0019044898;-0.054455478;0.0052577103;0.09351626;0.018998962;0.019033458;-0.07272649;-0.0055136983;-0.0982021;0.0013348258;-0.015092923;0.032867894;-0.12970775;-0.028510554;0.046644986;0.052579813;-0.022515355;0.015964521;-0.069262095;-0.0466189;-0.10248111;0.036102694;0.082214504;-0.07766255;-0.107675605;0.04619637;-0.1127482;-0.06602532;0.055844456;0.021622196;-0.020099746;-0.05013531;0.027166674;0.012875359;0.021362592;0.08559766;-0.11879319;0.0570591;0.05654488;-0.1817305;0.084082104;0.014137916;0.012921378;-0.087769374;0.07317569;0.030535476;-0.087945156;-0.14125222;-0.054237496;-0.012756931;-0.02978103;-0.029775143;0.013480327;-0.083524995;0.054710012;-0.15608792;0.025315506;-0.045401853;0.08900146;-0.04370007;0.026703887;-0.06920032;-0.13589264;0.0125236595;0.0324981;-0.1274865;-0.08491675;0.054919437;-0.064780705;-0.0882655;-0.04019504;0.034146525;-0.060593817;-0.03078662;-0.004234159;0.07499778;0.043641426;-0.110572144;0.05958645;-0.0029254744;-0.13726477;-0.060225893;-0.08809321;-0.017279191;-0.07515573;-0.016984064;0.051694177;-0.091506906;0.069088824;-0.017018313;-0.005801833;0.043729726;-0.15815654;-0.05038291;-0.04215174;-0.05369527;0.044386923;-0.10313757;-0.076711774;-0.025942659;-0.045010258;-0.1260979;0.006007685;0.011939133;-0.08955997;-0.062237967;-0.12890837;-0.048270643;0.028949732;-0.043882098;-0.11557873;-0.07786417;0.009472269;-0.007725254;0.03051278;-0.004311888;0.06585666;-0.014175065;-0.024789058;-0.09573847;-0.070579655;-0.087812096;-0.08709309;0.040351547;-0.051249146;0.012657984;0.022019586;-0.05607733;-0.15461275;-0.008700253;0.031946164;-0.029731972;-0.030201368;-0.025579639;-0.07604014;0.016893528;0.0343049;-0.020823782;0.028474636;-0.043622926;0.04765691;-0.05564221;-0.039418165;0.023963455;0.01569628;-0.07571061;0.00528874;-0.05757484;0.012246025;-0.11249106;0.046048254;-0.019151086;-0.13377343;0.047922965;-0.047297295;-0.07311438;0.0050248443;-0.09791047;-0.057866827;-0.078117505;0.026066272;-0.021070614;0.020856146;-0.021437105;-0.019612813;0.04042732;-0.047331322;-0.04532087;-0.073710166;-0.03676865;0.033840984;-0.083090074;0.15804845;0.017215088;0.032938264;0.070800304;-0.017354008;-0.14470504;-0.047044836;0.018191604;-0.027876716;-0.08036492;-0.002308022;0.08542281;-0.05586583;-0.07905854;-0.097781986;0.064016044;-0.14124292;-0.046351258;0.11760799;0.021776626;-0.039578866;-0.0064457865;-0.10036716;0.059327465;-0.11272613;-0.08152587;-0.07914837;-0.079934634;-0.12174218;-0.06950992;0.02237824;0.031662304;-0.06135713;-0.039611846;0.05449206;-0.0054248977;-0.008279708;-0.07011878;0.052444257;0.05977818;0.031340413;0.04029895;-0.023336576;-0.1190262;0.04051501;0.05419497;0.006027448;0.031705312;0.028932279;-0.017599361;-0.06967928;0.020226184;-0.06381891;0.007721806;-0.044247407;-0.063156776;0.081474274;-0.057659127;0.017603144;0.031732984;0.036176346;0.10679248;-0.100902565;-0.06675177;-0.0040956014;-0.011849002;-0.085218504;0.040334728;-0.0429937;-0.05224353;0.04324969;-0.13774821;0.012191196;-0.044462394;-0.043617602;0.07181412;-0.11507017;0.00012700395;-0.023237359;0.0451149;-0.031261697;-0.08152452;-0.049300842;-0.09178812;0.018727519;0.027019199;0.04356584;-0.08154086;0.022169411;0.0049514733;-0.07884172;-0.18943065;-0.013311669;-0.05267253;0.009745107;-0.030876625;0.043467678;-0.10961794;-0.054214124;-0.0074349917;-0.033372693;-0.12889794;0.036945503;-0.0905314;-0.043153007;-0.074214675;-0.010863669;-0.022471191;0.025342025;-0.055827376;-0.014024639;0.012920444;-0.022488138;-0.04211431;0.022083648;0.021110183;0.03601732;-0.017249724;0.026439404;-0.1418696;0.045870557;0.004163624;-0.113234155;0.09066858;0.004210022;0.019113965;-0.098101966;0.030067397;0.09514587;-0.08363566;0.029263536;0.13956787;-0.119991995;0.04685897;-0.004286543;-0.05911651;-0.062514655;-0.090459235;-0.06791309;-0.0169126;0.021950975;0.0735991;-0.008557007;-0.048805468;0.056685455;0.02437536;-0.058864325;0.028368572;0.02214718;-0.025396816;0.0686109;0.033998437;-0.018234583;0.022823235;-0.096413985;0.037348323;0.03764222;-0.088636294;0.005554227;0.057375953;-0.093624026;0.09883964;0.0051275417;-0.031042524;-0.052907947;0.069787346;-0.021513589;0.04907711;-0.061486106;-0.06980091;0.053306557;-0.06690684;-0.10877596;-0.007598989;-0.12543772;-0.033723585;-0.05191514;-0.03529174;-0.018982114;-0.0039673676;-0.07832722;-0.0032304851;-0.09156347;0.03595152;-0.017485714;-0.08161927;-0.02790058;-0.06009074;-0.1414141;-0.14844938;0.027137702;-0.010725668;0.04063866;-0.10041433;0.023488734;-0.09314624;-0.077346474;0.029378932;-0.065330066;-0.07455005;-0.010773433;-0.13659754;0.0070905806;-0.09845291;-0.03543211;-0.06471884;0.017156826;-0.007211784;-0.02545921;0.030371688;-0.002561712;0.010988276;-0.09782642;-0.08055192;0.042304825;-0.07853209;0.022005392;-0.13212937;-0.05594021;-0.048970904;-0.019396642;-0.06601838;-0.0012943735;-0.09686109;-0.08839004;-0.043027587;0.0058298036;-0.13404067;-0.02342646;-0.0056374045;0.035652563;-0.008008646;-0.031965494;0.010729561;-0.043261804;0.037446022;0.077362284;0.05595147;-0.014788908;0.0022017488;-0.12767738;-0.051095217;-0.070386626;0.0061112856;0.08984839;-0.07855659;0.019737868;-0.040680725;0.052286666;-0.011649689;-0.1947739;-0.065936364;0.11573452;0.022395005;0.040398065;-0.05105962;-0.020284824;-0.07956034;-0.08375607;-0.09611799;-0.09571367;-0.0602134;-0.14664383;0.036434438;0.06720512;-0.09572589;-0.009936902;-0.021626897;0.09994179;-0.06256648;-0.021549866;-0.00094208255;-0.052267402;0.11757752;-0.024583535;-0.04589419;-0.008939048;-0.10353011;-0.022088785;-0.035716478;-0.044041548;-0.06507437;-0.06767164;0.03286706;-0.02998515;-0.08807645;0.030638382;-0.092082225;-0.07362418;0.015139129;0.22538918;-0.0055863806;-0.18909198;-0.100599594;-0.023691146;-0.04304155;0.04198096;-0.059458856;-0.07002688;0.007366785;0.024090711;-0.08421212;-0.01644243;-0.024735674;-0.014303047;-0.11680099;-0.206088;-0.051744446;-0.15873252;-0.0012948852;-0.0065796347;-0.05621282;-0.06265358;-0.036899723;-0.06588918;-0.02209504;-0.023426685;-0.029064206;-0.07628802;-0.013164151;0.032983933;-0.07494889;-0.038093008;-0.12719424;-0.12485592;-0.016017647;-0.014298085;-0.12110497;-0.14343134;-0.076720774;0.040099047;-0.011706145;0.014080182;-0.024556395;-0.12980285;-0.031968866;-0.06846738;-0.034097526;0.049228318;-0.053233046;-0.010806175;-0.030614454;-0.0033468124;-0.1241989;-0.114345886;0.13745227;-0.07219234;-0.009863303;0.083653405;0.14255005;0.06862002;-0.030912777;-0.07020476;0.009117204;0.008616228;0.05446586;0.023552993;-0.040656194;-0.07986636;0.019317523;0.013470602;-0.09897818;0.061410636;-0.12562913;-0.052987475;-0.050445933
-0.09815474;-0.04993277;-0.0059808674;0.0055936547;-0.054206975;0.008120689;0.030300964;0.030968674;0.009967036;-0.18178986;-0.00078671816;-0.0024124195;-0.16899593;0.03025111;-0.072118774;0.036131285;0.008193852;-0.08045265;0.0715648;-0.10389589;0.05650725;0.007297689;-0.111496635;-0.017390816;-0.041514035;-0.08285769;-0.043850686;-0.0035439252;0.073114716;-0.040145468;-0.022030482;0.084315024;-0.0858399;-0.0052169827;-0.042332195;-0.084462106;-0.08618697;0.09130984;-0.064184226;-0.018693628;-0.013301719;0.06577868;0.070074484;-0.09189651;-0.03166494;-0.013954463;-0.0102773225;-0.016187742;-0.11828157;-0.10131601;-0.0905937;0.027246878;0.06301671;-0.064743064;-0.061914936;-0.08641583;0.017047687;-0.016110191;0.0023916478;0.014025257;-0.06449996;-0.028793655;-0.013842998;-0.09817305;0.008674698;-0.09199847;-0.06884045;0.019205067;-0.07496689;-0.07014805;0.03128614;0.018822562;-0.056706153;0.04280539;0.01353584;-0.0316881;7.872266e-05;-0.07778923;0.1370211;-0.03173843;0.01226053;-0.059603166;-0.048407245;0.06985759;-0.109408975;0.0030638294;0.031832583;-0.013802382;-0.043984298;0.053542893;0.062031165;0.06310097;-0.07087149;-0.066328414;0.011684368;0.006135198;0.21771386;0.073464155;-0.09113203;0.024556492;-0.026610533;0.0896673;0.0029895771;-0.11343922;-0.094857685;0.013668705;-0.0060855066;-0.012706725;-0.0751189;-0.056088507;0.048448905;0.00999569;-0.047257204;0.11062889;-0.084443286;0.0014418318;-0.010213331;0.07374092;-0.10891857;0.035015877;-0.02933707;-0.06496034;0.023653531;-0.11160142;-0.09235175;-0.0075081764;-0.07627124;-0.023936234;0.0008550646;0.021455081;-0.007968213;-0.005521345;0.0804878;0.009504337;0.06583031;-0.057069767;0.0069881966;0.028528785;-0.13882084;-0.08472989;0.021524418;-0.066527225;0.011715404;-0.08405288;-0.10788679;-0.029274426;0.04486383;0.046454508;-0.07865373;-0.048746992;0.030300736;-0.033276327;0.052099153;0.061193783;0.043039158;-0.050465547;0.072267756;-0.15690686;-0.033755466;-0.011513807;-0.068360485;-0.005388494;0.007685476;0.042790905;0.0034868543;0.04474217;-0.1348464;-0.016074337;-0.0007772855;-0.024205469;-0.06514512;0.036855824;-0.06850512;-0.05612185;-0.08989703;-0.07040709;-0.06672794;0.0417695;0.09371676;-0.0065907803;-0.09582366;0.002353382;-0.041451406;0.06814861;-0.07925157;0.06034617;-0.00896711;-0.12696575;-0.014103782;-0.10418094;-0.09716894;0.022070918;-0.03841406;-0.006831695;-0.06769792;-0.052086923;0.0052697035;0.018955998;-0.0042210417;-0.019203551;-0.094768606;0.016672397;0.03971668;-0.006219069;-0.09604428;0.049869943;-0.034226205;-0.0069854693;0.0057969904;-0.1658101;0.1340869;0.014586253;-0.083503924;0.069023445;0.027869128;-0.18025461;-0.07033778;-0.08448884;-0.06803366;-0.08214088;-0.10949578;0.045546144;-0.014607094;-0.030427072;-0.016098365;0.01629916;-0.050984282;-0.06459337;0.08410942;0.06851783;0.060238533;-0.026835926;-0.13602158;0.045892578;-0.0398975;-0.14061889;0.039226286;0.011673732;-0.012407053;0.0005728074;0.0031927626;0.030541217;-0.038803644;-0.10936595;-0.049543604;0.0067997077;0.0066584977;-0.11012209;-0.037463542;0.033874642;-0.09027606;0.04001381;0.041077342;0.0005945354;-0.04736513;-0.014200533;-0.0013594993;0.009370645;-0.04867746;-0.088875435;-0.051333573;-0.09948208;0.016999688;-0.09958345;-0.15111138;0.05465778;-0.08341117;0.03181343;-0.015658822;0.07097257;-0.071366206;0.080648266;0.038064733;-0.074337006;-0.053646807;-0.054908793;-0.111483015;-0.06638429;-0.078985;-0.044836387;0.0767911;-0.11566577;-0.045262147;-0.0937548;-0.07966642;-0.033044964;0.03398266;-0.036674693;-0.08110124;0.041950412;0.020121187;0.05069755;0.0072960653;-0.08482774;-0.037420888;-0.05456137;0.071336344;-0.015472377;-0.02534333;0.050162245;-0.0025403271;-0.19141558;-0.004580468;-0.05313767;-0.005802756;-0.017507462;-0.0827513;-0.11707655;-0.059229873;-0.041946504;-0.076414496;-0.08062474;-0.06397378;-0.14535435;-0.009754294;-0.087913245;0.059802298;-0.017107464;-0.015523177;-0.08196158;-0.028626736;-0.029981773;-0.026497163;0.07890545;-0.036063395;-0.035817742;-0.059716146;0.09198157;-0.12005301;-0.115273714;0.057961006;0.08474224;-0.10775631;0.056942713;-0.08135535;0.013863119;-0.012729847;-0.08855028;-0.028413106;-0.014930497;0.07390531;0.20165691;-0.124955215;0.078742646;-0.070846684;0.0049645095;-0.051701985;0.022200795;0.01276653;0.05404706;-0.052549284;-0.038038604;-0.035412997;0.020761473;0.06450621;0.11098508;-0.0063671274;-0.01463829;-0.075740546;-0.04182842;0.017642507;0.015424832;-0.064902015;-0.062276185;0.029234316;0.014892937;-0.12001979;-0.016370032;-0.08284282;0.01848903;-0.09798268;0.094887674;-0.037276305;-0.006610056;0.014608678;-0.034109496;-0.058128156;0.06908088;-0.033981908;0.018547192;-0.01832653;-0.11281113;-0.18485798;-0.09163136;-0.037535693;0.0021756839;-0.02892636;-0.024867663;-0.058671795;0.05171805;-0.118071355;-0.032250807;-0.033460848;-0.033155046;0.021357486;-0.19095656;0.0043110214;-0.119690344;-0.17140536;-0.1402676;0.097829044;-0.061677754;-0.05508759;-0.06147175;-0.071171865;-0.14252621;-0.07497963;-0.06877352;0.05211966;-0.053502783;-0.106073745;0.01586573;0.06889695;-0.093999825;-0.06080883;-0.06988622;-0.021769175;-0.07624287;-0.0065883026;0.031087663;-0.020496188;0.022640064;-0.079320975;-0.034160584;-0.049889762;-0.14619067;0.06906882;-0.1278238;-0.119511865;0.04135298;0.05790355;-0.069543265;0.07738425;-0.011195983;-0.01540267;-0.08662459;-0.015118209;-0.14324379;-0.040536482;0.046763726;0.07819715;-0.010448645;-0.010998924;-0.0393125;-0.09015608;0.11980596;-0.027986893;0.049591344;-0.1037351;-0.100212954;0.003173275;-0.077660955;-0.10648847;-0.09649155;-0.007507868;-0.17607316;0.033869546;0.014140546;0.0875729;-0.060764685;-0.08131293;-0.07885251;0.12405719;-0.12299895;0.04105864;0.001628922;-0.03967964;-0.13749292;-0.11359467;-0.07059458;-0.043264158;0.003775428;-0.07438387;-0.02093585;0.018797014;-0.043701414;-0.026546286;0.025012406;0.06635117;-0.055034395;-0.010207154;0.019768935;0.034052216;-0.006946412;-0.10290439;0.015244022;-0.06564588;-0.12960538;0.035655405;-0.015654294;0.00036367794;-0.0457453;-0.03627794;0.06403861;-0.044353522;0.041331563;-0.026689215;-0.07808802;0.024181616;-0.10263429;0.15463127;0.0024134188;-0.16891484;-0.0047157975;-0.0041362275;-0.04925315;-0.08044604;0.0034775774;0.008662266;-0.029105674;0.02507415;-0.0016557736;0.019006105;-0.07231155;-0.05338883;-0.07379879;-0.20797643;-0.092192926;-0.15400867;0.0036066335;0.0018309676;-0.024257371;0.049372964;-0.026319267;-0.006260443;-0.03904425;0.049197875;0.0088356;-0.060359746;0.05406667;-0.10879191;-0.12060713;-0.021830803;-0.056280065;-0.070969716;0.037831172;-0.06432981;-0.113786556;-0.18987763;-0.004404716;0.00529153;0.018561635;-0.060616907;0.022651915;-0.12408477;-0.057800632;0.007127885;-0.05027959;0.00735234;-0.11035419;0.035127368;-0.12374935;0.033700947;-0.026804578;-0.12018036;0.034692027;0.04299365;0.02225247;-0.01339351;0.04583109;0.011358313;-0.01294353;-0.09403718;-0.035093565;-0.02938535;-0.085879974;0.05886754;-0.02187931;-0.044773977;0.053777836;-0.105850354;-0.10741839;0.04133439;0.010218351;0.010641925;-0.072096646
-0.11282095;-0.12921199;-0.029904805;0.07002526;-0.08264015;-0.087009616;0.023497492;0.04538372;0.06897071;-0.041490447;-0.10581231;-0.097237244;-0.15978464;-0.01893232;-0.0683036;-0.028973086;-0.04734689;-0.024107197;0.0031160617;-0.14778224;0.06004259;0.029727682;-0.12198217;-0.020320173;-0.038655233;0.07745654;-0.08751796;-0.020432796;0.009832542;-0.09601941;-0.17769922;-0.0054625766;0.025455333;-0.024346389;-0.029344719;-0.004626456;-0.026614614;0.093812935;-0.08709868;0.031848386;-0.039877035;0.105888516;0.038550276;-0.09543538;-0.0003171221;-0.03624546;0.0070883986;-0.04203241;-0.048656307;-0.060227793;-0.027675727;-0.066057526;-0.08073617;0.06019498;-0.06782475;-0.07167528;-0.08704204;-0.052105818;-0.08221356;0.03331226;0.06294889;-0.03531091;-0.10614896;-0.08939654;0.013148131;-0.12817074;0.03043753;0.12213989;0.059947535;-0.049264614;-0.07347049;0.04489737;-0.019751003;0.07592485;-0.012787365;-0.0023827183;-0.05181859;-0.028747812;-0.0007181097;-0.068943515;-0.014211251;0.023690619;0.045840763;0.08184524;-0.13429435;-0.0061197896;-0.0010267555;0.0069812518;-0.030981645;-0.0077517363;0.039832197;0.06036424;-0.008144605;-0.17336805;-0.08786205;-0.05284058;0.21685022;0.020469496;-0.06459641;-0.040763993;0.009368285;-0.05458618;-0.11702075;-0.046677113;-0.075995825;0.045942765;-0.03172272;-0.11812803;-0.071717635;-0.085519955;-0.043427527;-0.102134146;-0.0063073603;0.0939705;-0.008627976;0.047701627;0.016053388;0.076100826;-0.11623366;0.019221485;-0.07162666;0.02844397;0.0062300386;0.031806927;-0.045433197;-0.045890447;0.039813086;-0.07678663;0.065171935;-0.09453947;-0.10864127;-0.036561005;0.079344824;-0.042562988;0.012587225;0.04655321;-0.08776989;-0.062006332;-0.05262676;0.039668698;-0.055198938;-0.0021251142;-0.04420332;-0.10677575;-0.043127757;-0.06556036;-0.020865835;-0.00029424176;0.009412477;-0.09547368;-0.072224975;0.015311507;-0.040460706;-0.00041853014;0.05830043;0.013559289;-0.09633736;-0.05553559;0.028900625;-0.11834242;-0.06628081;-0.07151183;0.011134912;-0.016683271;-0.09056034;-0.05141168;-0.026304865;0.06718055;-0.08345682;-0.0012511703;0.02235754;-0.041990004;-0.009081449;-0.06971426;-0.047492653;-0.11535169;-0.030590355;-0.06314094;0.067212924;-0.091169864;-0.094146244;-0.09097585;0.009634405;-0.002807203;-0.1306326;-0.07398354;-0.016052432;0.028637152;0.047856715;-0.0023333973;-0.13634351;-0.027163789;-0.083209336;-0.09558734;-0.067032866;-0.11418451;-0.07817464;-0.010728411;-0.040026397;0.047453493;-0.024777867;-0.06652282;-0.07327276;0.058420617;-0.015905596;-0.10696554;-0.09083567;-0.14495301;-0.058456987;-0.11256475;0.05344673;-0.12875482;-0.02737397;0.053083338;-0.031396843;-0.12339318;0.017023759;-0.111499146;0.05854665;0.022108175;-0.015925737;0.045156524;-0.056700453;-0.030138742;0.0029272384;0.051471446;-0.0074858097;0.021899734;0.011369305;0.012497283;-0.08299094;0.0011068722;0.0113913985;0.05184824;-0.022126801;-0.1358862;-0.040745195;-0.01642832;-0.05289875;-0.03933089;0.022033822;-0.017862879;0.0640167;-0.08508668;0.053594;0.017799715;0.006531495;-0.033393167;-0.019108308;-0.012454338;-0.08578862;0.09315569;0.046374645;-0.021746662;0.0044766264;0.01887879;-0.04103011;0.019591153;-0.00046630704;0.03337777;0.021973424;0.01625488;-0.07924158;-0.04858971;-0.020104863;-0.07251824;-0.051412657;-0.057466764;-0.0584679;0.01577125;0.05409152;-0.021332331;-0.0993314;-0.069108695;0.011652818;-0.01848638;-0.09161456;-0.0074078455;-0.05897307;-0.06082347;0.022112317;-0.118414775;-0.0033506413;-0.1141948;-0.08930746;-0.00061256194;0.004163461;-0.012321103;0.022240296;-0.08189825;0.0003429575;-0.090544045;0.026788693;-0.08030466;0.09477954;-0.07394482;-0.017812137;-0.043599572;0.045912914;-0.018597918;-0.0067319646;-0.055147354;0.060723975;-0.0758264;0.020646732;-0.030092094;-0.10124202;-0.028287584;-0.03135034;-0.106600426;-0.014372216;-0.17572689;-0.03823352;-0.12827227;-0.06830585;0.028335925;-0.06269903;-0.045834295;-0.00027653674;0.019200154;-0.05181223;0.014148275;-0.0894218;0.021173915;0.03556722;0.037961807;-0.017251866;0.042200457;0.027597288;0.017588876;0.0801602;-0.0015488282;-0.08725067;0.08609458;-0.073949955;0.015343017;-0.09355685;-0.041308805;-0.054765522;0.009574326;0.0048853913;0.17871638;-0.06339151;0.10227481;0.05327093;-0.027369736;-0.044337247;-0.036759183;-0.06760514;0.035417058;-0.07633103;0.08554767;-0.10093321;-0.030481765;0.080134414;0.03352108;-0.015318923;0.04834381;-0.0113228485;-0.068076074;-0.014283498;0.118758485;-0.04752492;0.03749404;-0.040142186;-0.049443725;-0.018830707;-0.058820263;-0.12064751;0.017493067;-0.10978872;0.014783718;-0.036486827;-0.0060658716;-0.021776281;0.051719196;0.011940482;0.20121185;-0.0007189286;-0.09648085;-0.06111455;0.00874016;-0.18164712;-0.018142872;-0.09631562;-0.014446201;-0.07565959;0.0397232;0.041625097;-0.10011455;-0.05832868;-0.04143137;-0.042298242;-0.03593049;0.012755786;-0.194771;-0.10423982;-0.1204847;-0.11153358;-0.08564241;0.05200956;-0.06138193;-0.021311961;-0.05290507;-0.029379433;-0.085299484;0.03540322;-0.02571691;0.022474166;-0.06326406;0.007026897;0.019383913;-0.06719692;-0.111174405;0.01409864;-0.052242283;-0.0915994;-0.03716777;-0.06786689;-0.05144896;-0.045893207;0.078588866;-0.10258992;-0.027013656;-0.07127029;-0.10042567;-0.016982256;-0.032372426;-0.07321858;0.007020633;-0.056763146;0.049952593;-0.013696328;-0.08926435;-0.030559914;-0.053141616;-0.066647805;-0.15251768;-0.099379174;-0.008067615;0.10710876;-0.092137784;-0.07652959;-0.056853358;-0.081631154;0.019144485;0.07931234;-0.042210925;-0.10548924;-0.010754757;-0.045500286;-0.00574554;-0.010240945;-0.0075286683;0.0043343566;-0.02031537;0.011180853;-0.06350035;0.005537349;-0.024731535;-0.1918609;0.07725516;0.14823142;-0.065106705;-0.03833698;0.016172964;0.030481014;-0.16686764;0.021296808;-0.10039381;-0.0137072755;0.015223807;-0.061577827;-0.06739626;0.003887238;-0.09873824;0.040620197;-0.0072957496;0.02517004;0.0006753103;-0.022026028;-0.07293493;0.0077191;0.123841934;-0.0033572058;-0.07373137;8.121382e-05;-0.08217165;-0.027297558;0.003801429;0.020952888;-0.01565549;-0.051808577;-0.03443554;-0.025442218;0.033391587;-0.11206677;-0.0604241;-0.033570357;0.012824018;0.20179616;0.031444468;-0.13290097;-0.060428295;-0.09448752;-0.086583875;-0.017701395;-0.11168599;-0.083628096;0.042381186;0.0037685558;-0.0153210005;-0.03197758;-0.117528826;-0.04119559;-0.09662576;-0.27905467;0.019796532;-0.0508973;0.05217872;-0.12744103;0.018926982;-0.037061445;-0.060601838;0.013005561;-0.08835861;-0.01654456;-0.031660713;-0.030890746;0.044278573;-0.04178647;0.0065740827;-0.097583674;-0.052519597;-0.036951028;-0.0262317;-0.07292205;-0.0284018;-0.16892566;-0.107605204;-0.093199424;-0.046974815;0.04420401;-0.10814758;-0.036064148;-0.08402627;-0.061512817;0.010105688;0.027026076;-0.066791914;0.019451119;-0.072484985;-0.018491507;-0.0648407;0.0020439744;0.083905734;-0.06643064;-0.023473425;0.0668931;0.13058975;-0.028010793;-0.0715949;-0.039091434;-0.03798836;-0.03167652;0.017945511;-0.018201523;-0.1320435;0.06634117;-0.008511988;-0.012041345;-0.08338457;0.018497117;-0.056532785;-0.070581324;0.049377386
-0.058067735;-0.037226863;0.024536418;0.07375263;-0.013737849;0.052202262;-0.02319784;-0.051997796;0.07266469;-0.15732273;0.010286799;-0.022580482;-0.14089611;-0.068374686;0.07128013;-0.058142085;0.001701525;-0.13882038;0.05905138;-0.020578016;-0.0099089565;0.058646787;-0.022397038;0.06711917;-0.10646801;0.0065921955;0.055097595;-0.05349895;-0.024551317;-0.039027702;-0.16699103;0.044697624;-0.110514894;0.07156268;0.0027924897;-0.053944677;-0.07718852;-0.0010151505;0.023877103;-0.03468738;-0.045288555;0.088456295;-0.023728285;-0.11750867;0.07730248;-0.02813986;0.007125714;0.026745323;-0.06990805;0.05087331;-0.08894204;-0.12326499;0.061451413;0.057605557;-0.04676049;-0.060381554;-0.032598518;-0.058311045;-0.09016529;0.041543733;0.068260975;-0.13927853;-0.006145204;-0.0082639055;0.0097213825;-0.106060356;0.04791965;0.04811939;-0.020293245;0.05842848;-0.053412866;0.029316686;-0.044349466;0.035659917;-0.002744958;0.004296987;-0.028109847;-0.0651423;0.1528226;0.063062206;-0.047697295;-0.06125578;-0.0019757978;0.095402546;-0.08475108;-0.07275126;-0.1014951;0.05120214;-0.0403648;-0.0213638;0.05384841;-0.028453402;-0.027918488;-0.16625153;-0.06732364;-0.004264996;0.16359378;-0.028940901;0.047256216;-0.014100065;-0.08806044;0.023799095;-0.11082462;-0.15435736;-0.038534947;-0.095603056;0.020418778;-0.113656126;-0.10073761;-0.053621635;-0.03828172;0.007402182;-0.019717293;0.08462955;-0.017590135;-0.012981489;0.0016036184;0.03937896;-0.1926027;0.0030936354;0.050736986;-0.051111232;-0.048448328;-0.08992507;0.040712297;-0.09344082;-0.06946078;-0.007747267;-0.052213136;0.0015894835;-0.081824064;-0.14992529;-0.02446772;-0.07301402;0.0029675486;-0.032864712;-0.09792695;-0.008119742;-0.084906824;0.018992482;-0.051919416;-0.07504338;0.03587423;0.015048891;-0.051180195;0.0817399;0.12627439;0.013493921;0.0221385;0.030186776;-0.06289156;0.0057613817;-0.0153368935;0.008116094;-0.02140037;-0.03401847;-0.05550229;-0.07087642;-0.070692725;-0.050333023;0.0056010815;-0.023408942;0.006411714;-0.00042957388;-0.04941201;-0.10113382;-0.046155073;0.035430655;-0.04126017;-0.059643835;0.05882805;0.05962528;0.013600053;0.0021894954;-0.08384148;0.035511155;0.03160287;0.043412294;0.07308241;-0.04591914;-0.109214574;-0.10840525;-0.044396676;0.03463701;-0.15858753;0.023035092;-0.09699334;-0.11155577;0.0066047674;-0.025345376;-0.15299077;-0.014120902;0.053216398;-0.056689236;-0.014315651;-0.013934766;-0.037997834;0.045359764;-0.017916841;-0.04690383;-0.07758811;0.10142083;-0.08311687;0.07673477;-0.07440418;-0.056641873;-0.1369353;-0.023263318;-0.061508667;-0.19638348;0.0013062321;-0.043076955;0.039018076;0.013422195;-0.0114389965;-0.15039212;-0.025139032;0.0018476351;-0.06014544;-0.099643245;-0.08385118;0.034580402;-0.004896143;-0.08419104;-0.05476065;-0.012398018;-0.0058917864;-0.09291852;0.0053368774;0.09673578;-0.027869167;0.018763997;-0.116372555;0.028789679;-0.104707524;-0.0943073;-0.091171235;-0.05506681;-0.06364182;-0.07532142;0.027422328;-0.034941617;-0.03689671;-0.06839006;-0.08123802;0.015506193;-0.014777603;-0.11130978;0.020727275;-0.009179428;-0.05974322;-0.059217095;-0.06381017;-0.09335916;-0.017758992;0.013074342;0.04607455;0.04820224;-0.04926182;-0.011332797;-0.01783134;0.03314758;0.04953787;-0.028419672;-0.14579599;0.062370416;-0.048310827;-0.020399;-0.07557419;0.0007219899;-0.030101558;0.07519425;0.009087572;-0.032926008;-0.027915318;0.038660303;-0.12760545;-0.04459044;0.02532463;0.015718775;-0.071550444;-0.016157482;0.008715141;-0.08479583;0.021140167;-0.03790702;-0.051201683;-0.09436301;-0.103549354;-0.0154932365;-0.03990809;-0.02300157;-0.072165124;0.054194584;0.021386;-0.06336237;-0.004853117;-0.05786342;0.013840608;0.0077573946;-0.15212524;-0.112027675;0.030298593;-0.033840097;0.05934496;0.04520472;0.034223147;-0.1116665;0.060098525;-0.037425052;-0.0721225;-0.009180278;0.076212384;-0.11519721;-0.14944449;-0.032937203;0.06927172;0.079949684;-0.006006864;0.0075004306;-0.002693212;-0.03713935;0.002889245;0.07247915;-0.01111882;-0.0137721095;0.035619006;-0.021526387;-0.10887228;0.020519672;-0.040901966;0.032772295;0.013520677;0.13443603;-0.058065727;-0.015691468;-0.006823235;0.074895665;-0.010745079;-0.014218566;0.071999855;0.2161483;-0.11100096;0.18723913;-0.0042149937;-0.06646135;-0.029785376;-0.0128152445;0.026603304;0.06191204;-0.0069201165;-0.009827652;-0.09399743;-0.06575824;0.09961194;0.13233748;-0.1163312;-0.07832297;0.03256843;-0.036986522;-0.07472424;0.12911361;-0.029281378;0.037586536;-0.01530886;-0.024750499;-0.0073237387;0.051388055;-0.0069233235;-0.040939555;0.002887123;-0.004268983;-0.033207633;0.022632983;-0.012772092;0.019902762;-0.03544943;0.11690468;-0.0507916;-0.047280703;-0.030060725;-0.061876368;-0.13996048;-0.08384223;-0.07843538;0.07470584;-0.038511474;0.003080132;0.014728989;-0.05769509;-0.011196708;-0.0028627631;0.029576972;-0.09303396;-0.030755855;-0.08475424;-0.07847658;-0.13460489;-0.10602222;-0.09928927;0.07327522;-0.0384553;-0.040038783;0.031035855;-0.022219775;-0.13276207;-0.028900413;-0.10357462;-0.0412461;-0.13620979;-0.12452642;-0.12060958;-0.036646195;-0.09758878;-0.027132008;-0.06931968;-0.097458094;-0.002283463;0.012519728;0.05550277;0.0093187895;-0.015152285;-0.07429429;-0.06650755;-0.0653902;1.6252437e-05;0.056744676;-0.028001834;-0.024642535;0.08728497;-0.045862347;-0.0015551886;-0.024512492;-0.080874614;-0.12321732;-0.061219182;-0.11732992;-0.07169781;-0.013811463;0.022090193;0.12344361;-0.103685744;-0.0039246147;-0.0056570605;0.03732449;0.08241591;0.08206431;0.06754398;-0.11330088;-0.07135003;0.0026227112;0.009174602;-0.013287059;0.003233765;0.05414577;-0.07014483;0.005992995;-0.01531749;0.015258186;0.016914807;-0.13233952;-0.0107672885;0.13509342;-0.0047873217;0.054529347;0.0156882;0.09370072;-0.103953406;-0.05850202;-0.040411;-0.049922805;0.02976465;-0.097590774;0.019439926;-0.070902586;-0.119882464;0.050007045;-0.12101152;0.09611846;-0.010958855;0.04670941;-0.047134317;-0.047784608;0.069076076;-0.10056839;-0.035720155;-0.06694399;-0.053480677;0.080586486;0.014661344;0.010485733;0.00986606;0.051975716;-0.063121445;0.02328858;0.02685477;-0.050079532;0.010320769;-0.063813865;0.053882238;0.17293416;0.02540497;-0.08211466;-0.084962055;-0.03856885;-0.047366604;-0.036888488;-0.07651126;-0.0945204;0.04605558;-0.014085367;-0.07522564;-0.0777198;-0.11324714;-0.111293435;0.008878909;-0.18519501;-0.032525506;-0.0359723;0.074707;-0.0003366312;-0.03474055;0.038261037;-0.15651914;0.041164726;-0.022255745;-0.01018289;-0.03306602;-0.062242564;0.03281754;-0.108281516;-0.10232665;-0.118126094;-0.13059856;-0.10780252;0.016350249;0.02745355;-0.05743761;-0.0833529;-0.026705027;-0.08527876;-0.03852383;-0.037805736;-0.034809783;-0.09765154;-0.07186327;-0.025604796;-0.08518891;-0.022574427;-0.067897126;0.06351892;-0.10419366;-0.034558356;-0.12541565;0.0305222;0.11616873;-0.049973745;-0.065823026;0.062369883;0.014553833;0.038042475;0.014708171;0.032855965;0.108267486;-0.03031726;-0.031595543;0.043548364;-0.11219618;-0.034950346;-0.0918627;-0.0990169;-0.060006153;0.0015841195;-0.07143502;-0.032519415;0.053302508
0.014825958;-0.10481453;0.027055254;0.009654677;-0.088261165;0.037135705;-0.0014023422;0.02276113;0.012295817;-0.16485216;-0.048128057;-0.05801831;-0.13630375;-0.022055577;-0.0013314597;-0.0036934456;0.017914323;-0.13751313;-0.0683961;-0.007723036;-0.031379;-0.052170657;-0.071231835;0.02207956;-0.0410331;-0.06796683;-0.07744852;-0.060545906;-0.0031114442;0.029249802;-0.028107392;0.12772995;-0.06871239;-0.0044447933;0.028571606;-0.07326322;0.0836078;-0.0098843975;-0.007085854;0.0036055467;0.026014017;0.08352144;-0.08355836;-0.05308677;-0.0016241639;-0.12987654;-0.029736659;0.00966476;-0.05912378;-0.016316388;-0.08183432;-0.07153971;-0.06767109;-0.07499139;0.07182632;-0.082012594;-0.08225825;0.03817904;-0.026815828;0.04704153;0.096673675;-0.12357868;-0.010913617;-0.09069886;-0.10237707;-0.08734863;-0.081003465;0.15458837;-0.020489711;-0.069125585;-0.11151139;-0.013747853;-0.08764977;0.07027178;0.036350664;-0.050784323;-0.042262018;-0.1247573;-0.013951116;0.052337047;-0.04068923;0.057451192;-0.052676357;0.14125095;-0.04994486;-0.006163117;-0.08685313;-0.036730807;0.018560983;0.007176607;-0.03802353;0.024393886;-0.00057242636;-0.08827508;0.029864885;0.020043148;0.14253418;-0.060172867;0.06341714;-0.010974534;-0.065375745;-0.015810853;-0.07494221;-0.1376591;0.05703365;0.04174576;-0.03629442;-0.063448966;-0.0404476;0.047917187;0.021171048;0.013894393;-0.06960522;0.048193537;-0.030468158;-0.08957781;0.027802879;-0.048204046;-0.07047888;0.017781131;0.009247139;0.048791118;-0.071422316;-0.04335374;-0.066686705;0.014265738;0.026125833;-0.025349364;0.035833932;-0.04136148;-0.013019591;-0.08773142;-0.012278116;0.045156002;-0.06984307;0.05271325;0.0154618705;-0.02813195;-0.102572985;-0.02830266;0.058313057;-0.06380979;0.037819095;-0.004714433;-0.07277045;0.056438666;-0.015232363;-0.02414638;0.038915668;-0.02844385;-0.038783208;-0.0050954637;0.04905192;0.04865588;0.015185057;-0.09890787;-0.06382314;-0.10848042;-0.06445978;-0.086221136;-0.03256535;0.04998436;-0.03922281;0.0514606;-0.066007845;-0.054627992;-0.03369433;-0.020651376;0.015880655;-0.09836831;-0.050245248;-0.11241623;-0.07600846;-0.004653413;-0.056294408;-0.09214975;0.030971317;-0.07909567;-0.009021164;0.019612176;-0.07590357;-0.018990379;-0.12169097;-0.05698785;-0.101175584;0.02890077;-0.013415769;-0.110029094;-0.018651647;0.03162498;-0.10804317;-0.07660594;-0.05020631;-0.017161747;0.01398094;0.004946254;-0.11820432;0.00739452;-0.028390901;0.048969265;-0.020690905;0.025102647;0.049495127;-0.05011911;-0.009987946;-0.08248962;-0.15708594;-0.06258465;-0.036257572;-0.17807123;0.1268197;-0.065691195;0.05738269;0.010097781;-0.07036951;-0.10267009;-0.104153045;-0.1071533;0.0074758595;-0.027931036;-0.095027186;0.0764349;-0.036229305;0.038057566;0.034813743;0.06708612;-0.07921559;-0.046383858;0.059992608;0.08183264;0.02290915;-0.0782208;-0.033195328;-0.074259885;-0.1087215;-0.06182984;-0.073989734;0.06235916;-0.08098122;0.026184056;-0.020223115;-0.015042926;0.03985588;-0.07352645;-0.047588326;0.040283408;-0.049299285;-0.04205647;-0.056594398;-0.08644368;-0.074063554;0.078673;-0.033001833;-0.02837114;-0.0004104152;-0.008448693;-0.020373486;0.031056162;-0.07417811;0.003632534;-0.018223854;0.024207687;-0.02357217;-0.08703142;-0.109981015;-0.08221482;-0.062079225;-0.0010830362;0.024879279;-0.029932067;-0.030010816;0.010579893;0.011745311;0.010592057;-0.07405964;-0.042775903;-0.022054385;-0.03263387;-0.08326256;-0.03778308;-0.029083388;-0.107847005;-0.025307981;0.018627016;-0.06322622;-0.06829635;0.020803923;-0.003064268;-0.07372623;-0.040051144;-0.08360268;-0.05619968;0.022008855;-0.057472285;-0.0049794596;0.008289225;0.06098951;-0.11160609;0.019028924;-0.03958443;-0.050479922;-0.14692876;-0.022130612;0.02939109;-0.06853049;0.022136556;-0.04576213;-0.06690389;0.06551226;-0.047649752;-0.021869335;-0.0683414;-0.06359634;-0.13310733;-0.044478357;0.021423282;-0.06950183;0.07664538;0.058973677;-0.007951514;-0.08415018;-0.102771975;0.017334398;-0.060639784;0.056454383;-0.096914195;-0.0814274;0.08753252;-0.093475275;-0.034197994;0.08057733;0.00781445;0.04735457;0.08904354;-0.02061786;0.038494818;-0.08697235;-0.08432511;0.022689193;-0.01599937;0.07318824;0.17221625;-0.048578374;0.17941353;-0.05316417;0.011381001;-0.08299257;-0.0969569;0.03671185;-0.028637448;0.02993716;-0.06188085;-0.0900462;-0.0733344;-0.0213034;0.058147714;-0.063681066;-0.018475145;-0.09038172;-0.049375888;-0.097400606;-0.04622192;0.012679566;0.08539419;0.02438321;-0.07208793;0.040572844;0.036964923;-0.05270982;0.07772152;0.039142627;0.034967028;0.030545568;-0.07396849;-0.0024084821;-0.013471579;0.0020058448;0.08767091;-0.054923728;0.0055020526;0.030019846;0.013635523;-0.09447427;-0.05450178;-0.028876344;-0.025801986;-0.08802358;0.030511774;-0.033076823;-0.09653332;-0.04264583;0.057370268;-0.07433248;0.016708972;-0.12464139;-0.1449505;-0.016923456;-0.099852346;-0.16572718;-0.13401099;0.045579914;-0.02175414;0.029013772;-0.009642789;-0.05829375;-0.119954124;0.019063346;0.04150456;-0.069398835;-0.09695157;-0.008932584;-0.083757214;-0.0311386;-0.08311803;-0.022299165;-0.09237878;-0.08085322;0.040635623;0.020932788;-0.009912268;0.013232046;0.058797058;-0.0046443613;0.06001927;-0.10239151;-0.10667501;0.07467933;-0.061121527;-0.060579028;-0.005322954;0.01916113;0.0012373595;-0.07279374;0.01298879;-0.080063656;-0.067492254;-0.018345961;-0.14437011;-0.0147463055;-0.062459882;0.07772127;-0.038986143;0.031793162;0.016460514;-0.051483188;-0.041296594;-0.03549207;0.07022248;-0.049126178;-0.086149395;-0.108595334;-0.018051233;0.00042827617;-0.025113123;0.058930714;-0.17987628;-0.044495363;-0.014472996;0.06769134;-0.09259737;-0.13071528;0.069974564;0.1331447;0.025907846;0.03057745;-0.003198603;-0.081863716;-0.087945074;0.037448432;-0.09313298;-0.008695462;-0.05675116;0.00036235614;0.06502002;-0.0411948;-0.09879872;-0.04901342;-0.033965472;0.022844229;-0.043167166;0.06283729;-0.04436215;-0.058737997;-0.025291907;0.02491607;-0.08527765;-0.04545098;-0.12182739;0.043617506;0.019237082;0.036585454;-0.12460097;0.033882245;-0.03804076;-0.08341736;-0.09279389;0.028778648;-0.11617166;0.023698037;0.030001784;0.086706005;0.072290644;-0.15635952;-0.08770615;-0.06363869;0.0064834356;-0.0053879237;-0.07535422;-0.13576263;-0.008764203;0.014476841;-0.075902365;0.011949284;-0.08532617;-0.088135004;-0.028636869;-0.20392883;-0.12140618;-0.040082898;-0.07205423;-0.0032636637;0.008701463;0.032054093;-0.031014886;0.019685661;-0.04070858;-0.10086189;0.056895107;-0.054073542;-0.050937634;0.016669737;-0.06813194;-0.06655513;0.02510708;0.0029199235;0.0024026886;0.033373505;-0.02290808;-0.09657758;-0.05495869;0.04720687;-0.060192104;0.06085014;-0.04288271;-0.144272;0.03938074;-0.06503876;0.030380657;0.014673944;-0.034547307;-0.04939752;-0.11129015;-0.0425209;-0.09349124;-0.087738775;0.06812479;-0.0013825544;-0.08143108;-0.023098504;0.0292473;0.021705275;0.035520453;-0.022151202;0.002086917;-0.09876286;-0.06782527;0.089694194;-0.074776836;-0.0926295;-0.054382693;-0.062025495;-0.078714296;0.06671738;0.0013511858;-0.07790434;-0.0046314457
-0.02922242;-0.06478555;-0.06974007;0.09141503;0.02187883;-0.08266195;0.05647196;0.017054763;0.09276884;-0.09661769;-0.0014773833;-0.11568765;-0.007924132;0.069458164;0.05906728;-0.096985556;0.02002755;-0.15646249;0.007323423;-0.08055705;-0.095399775;0.008694246;-0.08574935;0.057815734;-0.006141483;0.011353762;-0.027462987;-0.08737039;0.053501137;-0.10481837;-0.106109664;0.12797049;-0.08881097;0.0668468;-0.075774826;0.031148309;0.015798848;-0.05541418;0.0030707063;-0.07485827;-0.003334177;0.05216001;-0.064976744;0.02267468;0.07949854;-0.018889818;0.055660136;-0.06922777;-0.068916656;-0.117364526;-0.12442566;-0.061256006;-0.004875707;0.009042483;0.07421742;-0.021605551;0.010745854;-0.083131805;-0.10711281;-0.0638147;-0.02810926;-0.13773715;-0.11461429;0.030737897;-0.047605466;-0.036142826;-0.020994235;0.06102904;-0.08255284;-0.085234575;-0.06524467;-0.047484823;-0.038874973;0.04334315;-0.05250462;-0.029734295;-0.0044686142;-0.14782135;0.014509095;-0.0060527194;-0.09516898;0.04794552;0.055358045;0.019801378;-0.05784847;0.010077253;-0.07298584;-0.036933966;-0.068915255;-0.06145581;0.010366488;0.05198887;-0.03910158;-0.112823814;-0.029053144;-0.02317072;0.15560625;-0.0042737974;-0.07366719;-0.038403135;0.021113519;0.049185023;-0.038166206;-0.034851573;-0.047768846;0.007664536;-0.0068527395;-0.05965042;-0.0037779785;-0.09849233;-0.0722923;-0.05474853;-0.10931864;0.08807373;-0.09477944;0.039927874;-0.010030674;0.002212702;-0.1628635;0.077789254;-0.001063754;-0.007967209;-0.04989185;-0.0109816855;0.052846167;-0.00687326;0.06959294;0.01906093;0.04897281;0.005929184;-0.13303076;-0.04445402;-0.033345744;-0.09396756;0.044113617;-0.029375356;-0.039389137;-0.08097074;-0.09780315;-0.0047770166;0.11037177;-0.04062103;-0.020746805;-0.03373658;-0.14665954;-0.08053878;0.06116815;-0.044071343;-0.0040976284;0.015110077;-0.030803079;0.033426985;0.008462956;-0.004199663;0.02678922;-0.08980518;-0.094972596;-0.11568719;-0.10454919;0.02205782;-0.011503378;-0.0042020828;-0.09588997;-0.038415886;-0.06900699;-0.094242096;-0.090520136;0.037136313;0.052188665;-0.03890018;0.0056948024;-0.077019535;-0.03153278;-0.03756793;-0.08914823;-0.09179467;0.047891982;0.006452234;-0.012692732;-0.05158469;-0.080683514;-0.019237142;-0.11760234;-0.02831253;-0.13873133;0.039763514;0.02610478;-0.13765052;-0.033949833;-0.060267698;-0.15209001;-0.048831183;-0.022974215;0.035241626;-0.033577256;0.008765091;-0.11253148;-0.05160135;-0.0074604363;0.050709564;0.011506277;0.07279606;-0.024521312;-0.06613569;0.012317198;-0.044915397;-0.09193445;-0.13061306;0.03940596;-0.0373611;0.12253111;-0.039340034;0.038007326;0.046918813;-0.08033902;-0.08847953;0.013706314;-0.09768651;0.056423265;-0.11463778;-0.097518384;0.03934131;-0.10116371;-0.027700119;0.01062563;-0.039816648;-0.090749055;0.021999156;0.07990928;-0.04713705;-0.07367021;0.028052278;-0.016589502;-0.08222789;0.04041635;-0.033100173;-0.058653157;-0.05112721;-0.072110094;-0.015189943;-0.114382595;0.045724258;0.0555047;-0.09009539;-0.089692466;0.14033517;0.020169972;-0.101615846;-0.06383529;0.031737555;-0.052775744;-0.0130719375;-0.034547813;-0.06885581;0.08088426;0.015144848;0.019050023;-0.055004593;-0.07385583;-0.12921497;0.0072265747;-0.057404425;-0.08168106;-0.010148496;0.0023509741;-0.064275496;0.017979205;0.049405333;-0.016658142;-0.0065602185;-0.06730583;0.117970094;0.028586801;0.01276665;-0.055012703;0.046028595;-0.08200537;-0.02049802;0.034522835;-0.06484447;-7.07282e-06;-0.09861676;-0.10292869;-0.110559344;-0.05924655;-0.07315681;-0.07511021;-0.04453495;-0.055901784;-0.040822435;0.05335584;-0.027216211;0.010845259;-0.06218829;-0.007900024;-0.09206371;-0.046625655;-0.101142704;-0.009266385;0.046096314;-0.0059449067;-0.056929544;0.031308994;-0.061334003;-0.04882951;-0.008293694;-0.0032076114;-0.05295713;0.023697989;-0.10785884;-0.051964797;-0.12852834;0.044828855;-0.105845965;-0.037238453;0.00719326;0.03196262;0.06334422;0.061573483;-0.12527056;-0.027535345;0.009837609;-0.0050628893;-0.07662601;0.008297049;-0.013474901;0.036701784;-0.023648966;-0.035968073;-0.05202887;0.045616582;-0.01515046;0.031781193;0.04161086;-0.03276672;-0.024877641;-0.073469594;-0.05816794;-0.012525247;0.015853513;0.04401;0.10379178;-0.07321227;0.22399597;0.026091766;-0.07724081;-0.10384082;0.033748444;-0.07350311;-0.09324272;0.014853745;-0.09773249;-0.037682902;0.01592936;0.090548426;-0.0066017103;-0.12448876;0.046645164;-0.08390222;-0.0726146;-0.08654776;0.10153537;-0.078670256;0.012136561;-0.052958578;0.025209514;-0.08730925;-0.061338346;-0.012581857;-0.073409945;0.0137682455;0.08115465;-0.020287871;0.027276125;-0.061633185;0.044827048;0.028015435;0.07531014;0.04776626;0.0073855068;0.050835487;-0.018861396;-0.19791988;0.027631693;-0.11214768;-0.04799518;0.023281267;0.018652972;-0.10299841;-0.024047209;-0.06866242;-0.07546947;-0.10830985;-0.06368058;-0.07847242;-0.17651004;-0.09015728;-0.026426597;-0.018625377;-0.06310681;0.047660623;0.009112048;-0.023483785;-0.08373855;-0.03379661;-0.07899167;-0.02925105;0.022918351;-0.07020003;-0.14272784;-0.10006927;-0.072477825;-0.11575672;-0.06914756;0.00078786165;-0.10567454;0.012366332;-0.054721016;0.029879417;0.023105837;0.01161697;0.07653251;-0.0076251947;-0.0782229;0.031003116;-0.02502165;0.053379387;0.0028082163;-0.13246705;0.009968548;-0.077136;0.047345817;-0.089775294;-0.09480722;-0.031052917;0.020668508;-0.11050195;-0.03222604;-0.040419087;-0.08022296;0.098985925;-0.07757018;-0.069928244;-0.087087795;-0.08325684;0.065193586;-0.045578048;0.07574643;0.008483686;-0.11207132;-0.006916831;-0.041907977;-0.006720861;0.015205273;0.00040831126;-0.05688079;-0.02574003;-0.06543073;-0.0613569;-0.0062715556;-0.05888608;0.01279855;0.14086945;0.0006889371;0.035996556;0.0032432182;-0.049002375;-0.05270401;-0.10791423;-0.05137896;0.02135453;-0.11461313;-0.008199204;0.01113678;-0.09140107;-0.057549004;-0.014946912;0.027141904;0.06086524;-0.07961654;-0.03855826;-0.073433936;0.0208634;0.09067375;-0.054314926;-0.06810907;0.034644682;0.00058920926;0.002504583;-0.015004118;0.003849314;-0.09363724;-0.053603694;0.03342722;0.016135449;-0.019834394;-0.050759837;-0.03089793;-0.03372291;-0.017053995;0.20171212;-0.04826632;-0.073327444;-0.08913156;0.013493827;-0.100784175;0.042501528;-0.06614648;0.021133274;-0.061395735;-0.06860576;0.03212379;0.0044582826;-0.040336676;-0.048480246;-0.07395971;-0.22368574;-0.10035189;-0.04677279;-0.014151886;-0.032537136;0.019330751;-0.109478325;-0.13032314;0.002978138;-0.04453269;-0.06264885;0.056916013;-0.09320514;-0.057168793;-0.017992182;-0.0062746895;-0.040391885;-0.09035833;-0.120446354;0.05969196;-0.0043702573;0.028977672;-0.10343196;0.030133726;-0.023645228;0.051480643;-0.054214872;0.03119783;-0.030301454;0.027768645;-0.10877855;-0.07213645;-0.056773175;-0.09777133;-0.033567272;-0.047036402;-0.08550904;-0.014277934;-0.04062747;-0.020502904;0.03395186;-0.05355643;0.0024200324;0.067160115;0.08530706;-0.07779302;-0.10699779;0.090199836;-0.04228777;-0.07722962;0.04947115;-0.027234424;0.033558868;-0.012494643;-0.1136772;0.02962772;0.010515442;-0.07820138;-0.07503526;-0.08352421
0.026621731;-0.12960109;-0.08683661;0.0674353;-0.06724329;-0.075474694;-0.10839243;0.011126676;0.02153691;-0.06900691;-0.047561996;-0.021024661;-0.046946183;0.010063858;-0.09588699;-0.034081843;0.01706284;-0.09337482;-0.054839816;-0.08001282;0.02913613;0.04011192;-0.096245885;-0.083452724;0.016774151;0.08655583;0.0043680104;-0.027351052;0.053718023;-0.08907255;-0.07825931;-0.014299994;-0.08816434;-0.043434203;0.06907846;-0.05124;-0.015315183;-0.00636983;-0.07220355;-0.043634575;-0.08189561;0.018267639;-0.06280826;-0.08207783;0.0053438093;-0.025928788;0.028807344;-0.038059063;-0.06365975;-0.08079299;-0.059045162;0.011673181;-0.050532546;0.009616369;-0.025573334;0.04379407;0.03932894;-0.09416044;0.032719474;0.03622068;0.040569738;-0.11642673;0.047428813;-0.013104363;-0.038310338;-0.11703161;-0.024632042;0.18825918;-0.04619732;-0.031548213;-0.043288156;0.040697735;-0.10355561;0.073594764;-0.120854765;0.05054776;-0.042292;-0.084985346;0.09342548;-0.088685706;-0.010173213;-0.026048405;-0.020515753;0.08268605;-0.09658634;-0.029813295;-0.029778818;-0.01591535;0.03997598;-0.0061966185;-0.013235803;0.006765868;-0.06474421;-0.07093501;-0.05942463;-0.079591505;0.066775955;0.0627193;-0.02228251;-0.015143305;-0.09024289;0.056935664;-0.10268519;-0.12954965;-0.0617858;-0.03385068;0.0589799;-0.08852991;-0.14230329;-0.07390754;-0.058028825;-0.0067418246;-0.07067127;0.0042162025;-0.06429236;0.026999466;-0.05368288;0.086843275;-0.0681823;-0.086645894;-0.016331075;-0.11328511;-0.038394473;-0.034406018;-0.08536985;0.033297267;0.045805838;-0.011932954;-0.080543675;0.04093442;-0.09284079;-0.040100336;0.08124249;-0.024228774;0.0048666974;0.039937925;-0.08540451;0.04173009;-0.08915171;-0.08108107;0.06501877;0.018386895;-0.07102721;-0.013952563;-0.05977447;-0.014768509;0.08136166;-0.018487247;0.020051228;-0.06824468;-0.099814005;-0.050888162;-0.043396216;0.13265416;-0.06494933;-0.027554372;-0.016654419;-0.1263433;0.028718937;-0.10052729;0.0328538;0.03714547;-0.00454694;-0.04786168;0.022485487;-0.044961352;-0.057875082;0.0012212999;-0.10398836;-0.03277224;0.024255775;-0.03692704;0.07057908;-0.077081636;0.002434969;-0.0060254256;-0.07303856;-0.0014207595;-0.015727505;-0.088315144;-0.07701124;-0.03657261;-0.04302438;0.03177791;-0.1209362;0.06859153;0.0011053905;-0.12151598;-0.05535448;0.0149149485;-0.06133408;-0.04127121;-0.02859835;0.02532549;-0.036737952;-0.010892972;-0.016652528;-0.0064843358;-0.049231995;-0.01065793;-0.0130931055;0.12027511;0.061028283;-0.016528029;0.0139361555;0.023847815;-0.12905128;-0.026697202;-0.015980372;-0.19088998;0.13470845;-0.060962435;-0.070804946;0.02648035;-0.090401195;-0.074715726;-0.0013418893;-0.026606152;0.014433521;-0.0886988;-0.051175047;0.1170715;-0.1161455;0.057139695;-0.050694045;0.06845256;-0.1292379;0.044177163;-0.0064023207;0.089005254;0.03196366;0.02274783;0.007409341;0.06907265;-0.09355093;-0.066766486;0.006731199;-0.029728472;0.009652446;-0.024861626;-0.09430715;0.026426222;0.030873585;-0.15179804;0.013556333;0.12982386;-0.006383962;-0.08789311;0.020213313;-0.031279728;-0.08362563;0.048533794;-0.10626512;-0.07109471;-0.024200117;-0.054143716;0.008417912;-0.016395906;-0.13610971;0.035057664;0.041639682;-0.006503037;-0.0051480676;-0.008315159;-0.11216739;0.023586793;-0.02636931;0.03648095;0.026401317;0.07486036;0.061052244;0.112799324;0.03558207;-0.096353516;0.07586314;-0.06341322;-0.073393784;-0.10285922;-0.063682556;-0.081317216;0.02906345;-0.034220416;0.044387612;-0.051415995;-0.08627755;-0.0281298;-0.10524983;-0.06379008;-0.06478543;0.0369583;0.06052038;-0.0049297065;0.05597359;0.021949952;1.4111047e-05;-0.0007819327;0.08082993;-0.037090138;-0.00055639446;0.014581981;-0.14405036;-0.081407875;-0.07267704;-0.036147844;0.0013363028;0.005071821;-0.051057626;-0.05339258;0.042224888;0.005094444;-0.015266428;-0.1020649;0.030968778;-0.13407803;-0.091716856;0.040293455;0.0070890184;0.10073928;-0.10209687;0.0016478166;-0.05536473;-0.07568652;0.050950248;0.014842663;-0.06452847;-0.03301985;-0.08392514;0.02760987;0.013006764;-0.059855003;-0.055240657;0.08047556;-0.118145555;-0.008773312;-0.10535534;-0.028350014;-0.012444075;0.030985853;0.08107757;0.051353242;0.07027136;0.07246947;-0.11784786;0.08075171;-0.06922566;-0.09632637;-0.086963646;0.018814731;0.01341219;0.06725291;-0.05787626;0.07805458;-0.036382712;0.010372989;-0.014941633;0.13411354;-0.119653404;-0.074352145;-0.008197892;-0.13101694;-0.010869447;0.073384725;-0.051532473;-0.004502633;-0.0554296;-0.06819944;-0.004808152;-0.083110824;-0.10051738;0.021801863;-0.11303128;0.101367414;0.047096282;-0.07845126;-0.023314295;0.047104664;-0.07162237;0.052369293;0.060373332;-0.008097652;-0.042568177;-0.014282328;-0.16475905;-0.09181156;-0.04929308;0.024466306;-0.011949462;-0.050175864;-0.0020155879;0.029415533;-0.036599927;-0.0534024;0.02774569;0.0051342994;-0.07230305;-0.14887358;0.019384548;-0.14033434;-0.11828961;-0.07944171;0.046830963;-0.022691775;0.04331734;-0.004481668;0.03855326;-0.024764739;-0.07548794;-0.109877095;-0.016471975;-0.016973704;-0.078159705;-0.11503119;-0.012011583;-0.018675558;0.02351363;-0.110259965;0.00519844;0.07724038;-0.0675728;-0.023575926;0.022384826;0.06839322;0.017504985;-0.021480056;-0.08039218;-0.080279574;-0.022680717;-0.0477801;-0.09985389;0.020322321;0.013820781;0.058095995;-0.09283657;0.017107565;-0.12816739;-0.010525662;-0.04094582;-0.11355772;-0.09223554;-0.08203938;0.008420659;-0.0560196;0.018568242;-0.13562411;-0.007470902;0.024936713;-0.03139843;-0.06843905;-0.06266291;-0.08677114;-0.012588338;-0.082945704;-0.14921565;-0.1079394;0.07371054;-0.08736928;-0.046333756;-0.031576198;0.07521449;-0.029778667;-0.12308342;-0.058069456;0.14122318;-0.136484;-0.0012893798;-0.0589517;-0.0019064994;-0.15319544;0.024198884;-0.037204877;-0.0488631;-0.046592176;-0.006882269;-0.015289616;0.05149581;-0.08494848;-0.044670247;-0.07729994;0.12918542;-0.045349214;-0.047539517;-0.11851536;0.0031165376;0.06070582;-0.09545457;-0.069692485;-0.08218291;-0.1401342;0.015599134;-0.0038000117;-0.073349275;-0.07301348;0.007522987;-0.094958894;0.09585587;-0.108946264;0.038126785;0.031291246;-0.07879574;-0.09567987;0.15798908;0.083019264;-0.019061884;-0.005232288;-0.06106686;-0.06760518;0.036313508;-0.10842353;-0.07873324;-0.08834999;-0.012772905;-0.035685774;-0.068971254;-0.079456255;-0.13598423;-0.08946825;-0.14517814;-0.0036830818;-0.039575674;-0.010921518;-0.004164103;0.023773262;0.030578556;-0.12851252;-0.03471001;-0.061460424;0.0043122857;0.0076835873;-0.009558713;0.015731752;-0.10136112;-0.024962861;-0.0856902;-0.07636312;-0.10935313;0.054142777;-0.008113407;-0.053694405;-0.10821349;0.057536196;-0.07805097;-0.014235564;-0.015501764;-0.12276596;-0.09936606;0.065518014;-0.14534117;0.002671431;0.016588558;-0.0022628512;0.014416875;-0.13864581;-0.03130728;-0.03008371;0.014613477;0.077379;0.046054084;0.050586447;0.087120414;0.082655825;-0.009820648;0.034267444;-0.10011743;0.05454419;0.05974828;0.016949873;-0.058824338;-0.09983424;-0.08615271;-0.014944992;0.014991978;-0.038767334;0.11850305;-0.023526201;0.016950097;-0.043991156
0.024045244;-0.024429472;-0.07210335;-0.0109519;-0.115813985;-0.011579375;0.010950591;-0.011625014;0.057842243;-0.12770098;-0.13436641;-0.10718419;-0.11173572;-0.09363101;-0.087234706;-0.08522784;-0.02241842;-0.095634244;0.05040735;-0.14488094;-0.07345534;-0.017854342;-0.013116582;-0.0671679;-0.04284478;-0.03439309;0.019258514;-0.13383728;-0.018459748;-0.08051713;-0.13553573;-0.031316794;-0.031470373;-0.05357144;-0.089553654;0.06820184;0.060090974;0.06579149;-0.08263461;-0.08869759;0.070738204;0.08677997;0.057669684;0.02161419;-0.040135607;-0.09051927;-0.08983451;-0.12093772;0.0031820142;0.056723822;-0.089279555;-0.10220736;-0.0018081627;-0.08142472;0.0051312484;0.053495202;-0.074924685;-0.08180087;0.021804528;0.06342695;0.01947405;-0.10080928;-0.049338043;-0.074809626;0.031968612;-0.039060757;-0.090505995;0.13342878;0.0306445;0.019845905;-0.017562449;-0.032091748;-0.13284276;0.00789641;-0.015772033;-0.05134737;0.0115613025;-0.14329404;0.08223113;-0.06411445;0.063894756;-0.069032796;0.020258648;-0.03497566;-0.12494185;-0.031780865;-0.041438602;0.01737428;-0.043556415;-0.06897661;0.018492129;0.02929352;-0.008293856;-0.04744149;-0.0058326516;-0.05972249;0.09092178;-0.06098718;0.059918795;-0.05691598;-0.12346013;-0.008628161;-0.013728107;-0.150253;-0.03292694;-0.12784494;0.04054711;-0.039140407;-0.012025572;0.013648661;0.01865671;-0.06442232;-0.11727159;0.07188606;-0.018713811;-0.10557454;0.0045076786;-0.07607761;-0.058464855;-0.014693759;-0.010209908;-0.10031989;-0.07033064;-0.009116959;0.050740257;-0.09487288;-0.0452665;-0.070917435;0.031251993;-0.035713047;-0.13469306;-0.024261704;0.045847904;-0.07002023;-0.079834774;0.044994086;0.008635105;-0.1099181;-0.14980821;-0.01654718;0.012148793;0.02326401;0.035011627;-0.0019109607;-0.10326039;-0.054896206;0.06337623;-0.0038264985;-0.07558769;-0.065177344;0.029260872;-0.09989131;-0.043694925;0.013094989;-0.005538374;0.027527967;0.06170835;-0.060274042;-0.08040289;0.031656966;0.0076321657;-0.06988076;0.05393725;-0.09222706;-0.040405106;-0.05718122;-0.032501783;-0.021071695;0.03912035;-0.13557276;-0.08650124;0.06485367;-0.01593714;0.042869326;-0.10485008;-0.016898843;0.008394736;-0.09223326;0.066340394;-0.080136806;-0.031770784;0.041219216;-0.111271285;-0.0076166587;-0.10771756;0.05722226;-0.038063694;-0.11921289;-0.030878557;0.040090024;-0.16676497;-0.05852847;0.026078835;-0.028892256;-0.12789217;-0.020624835;-0.07298326;0.0428404;0.0451703;0.009683162;0.03528901;-0.03559073;-0.042668637;-0.028672783;-0.048244867;-0.07059128;-0.059706267;-0.07066756;0.07008285;-0.06433901;0.09454781;0.025041273;0.062440977;-0.07873281;-0.036155283;-0.21854109;-0.0063346373;0.015790166;0.044885267;0.040508427;-0.059750635;0.023132222;0.0220188;0.03765246;-0.100183226;-0.056193855;-0.14822613;-0.08315558;0.07597598;0.07950071;0.008016708;-0.04548815;0.015873209;0.04731198;-0.07329604;-0.027680175;-0.088132374;-0.05053454;-0.13334636;-0.08992089;-0.07741187;-0.00037503085;-0.028762767;-0.10043739;-0.08430359;-0.005834139;0.024628995;0.009980413;0.094136015;-0.079777144;-0.010975372;0.032272432;0.038242355;-0.04522573;-0.08529148;0.025536554;0.06310108;-0.088478155;-0.09104793;-0.00767941;0.05296032;-0.035822727;-0.08397342;-0.07782167;-0.044810504;0.0047881985;-0.072408944;-0.05343888;0.016375214;-0.08036665;-0.014960566;0.012666319;-0.08453753;-0.06649458;-0.00073034235;-0.026411895;0.02456417;0.013289474;-0.016919252;-0.071473725;-0.06641414;0.0039269747;-0.034448314;-0.011693137;0.04958515;0.06173429;-0.0060620997;-0.014571519;0.027037282;-0.013574827;-0.08415191;-0.07182463;-0.05987354;0.037954587;-0.014958903;0.03259979;-0.014723062;-0.066867374;0.012791964;-0.06246934;0.010966346;-0.18606439;0.004114006;0.01500946;0.021807168;0.02093572;0.0017934492;-0.10723164;0.041783467;-0.035382945;0.039974064;-0.014694714;-0.033253934;-0.05296679;-0.016659848;0.06130003;-0.032307386;-0.012903174;-0.05396734;-0.094737366;-0.071411334;-0.07741481;-0.096587524;0.060727723;-0.026940668;-0.11552219;0.008120615;0.05816247;0.015725829;-0.00085036707;-0.03991098;-0.016700426;-0.016030641;0.1151361;-0.064816326;0.008663923;-0.055671625;0.016685091;-0.009370131;-0.019951684;0.015246233;0.07578678;-0.04562154;0.19251482;-0.040945496;-0.12028397;-0.13080005;-0.079369426;0.06332668;-0.004441663;-0.06518106;-0.03578164;-0.102436565;0.048045386;0.07743259;0.02284755;-0.1349148;-0.023218302;-0.08904319;-0.07456154;0.04628971;0.021608513;-0.0885495;-0.014725324;-0.06600125;0.037399665;0.012835491;-0.061297115;-0.025648298;-0.035364766;-0.074503966;0.14731595;0.01340068;-0.08555035;0.08958166;0.0668597;-0.11134662;0.020133369;-0.0077401185;-0.036485363;0.011419249;-0.12961455;-0.20675862;-0.10810047;-0.04114324;0.077096224;-0.017456952;0.07621588;-0.057142664;-0.06351324;-0.09497697;-0.020014344;-0.021507999;-0.06950682;-0.12691416;-0.069503754;-0.035620145;-0.05827835;-0.10056541;-0.10694263;-0.010934261;-0.023317277;-0.029159455;0.0011522586;-0.07065315;-0.009577837;-0.0054652574;-0.020519212;0.0027773;-0.09729422;-0.061571375;-0.027605029;-0.005198959;-0.14585982;0.073060125;-0.074810326;-0.04460563;-0.030016262;-0.005349685;-0.06473183;-0.047911882;0.022257706;-0.071647115;-0.040361583;-0.10400074;0.013002666;-0.007917454;-0.0076128007;-0.117854506;-0.036333557;-0.07697102;-0.019212175;-0.036884923;0.027267152;0.02432819;-0.054779768;-0.04837258;-0.1747059;-0.07698856;-0.07046849;0.010640148;-0.034095477;-0.08961273;-0.057226602;0.04557993;-0.0049348576;0.0645938;0.072775625;-0.017125389;0.04328129;-0.123813786;0.013759849;-0.053700577;0.053792458;0.07941588;-0.019772587;0.08945288;0.06595105;0.043412212;-0.0707594;-0.11071142;0.043264702;0.089076154;-0.06235395;-0.055070594;0.006759684;-0.007833865;-0.10632595;-0.005637826;-0.08751556;0.02841627;0.009180334;-0.14692792;-0.052472334;0.024167297;-0.05946584;0.0017033062;-0.025838949;0.07706231;-0.059576504;0.03482692;-0.11871199;-0.0072076023;0.09908408;-0.027936948;-0.0817438;-0.036036618;-0.011416268;0.07948833;0.05200494;-0.0056125573;-0.0029398706;-0.012927291;-0.062362336;-0.060839787;-0.06304135;-0.10531266;-0.12097849;0.010324215;-0.022546625;0.1077942;0.055700757;0.0019235942;-0.11505975;-0.03700326;-0.013558181;-0.038705382;-0.004697311;0.00012608262;0.030527623;-0.0042105513;-0.08235248;0.049126413;0.00020197207;-0.017054288;-0.09524708;-0.22971179;-0.06323663;-0.07207417;0.0742039;-0.06712466;-0.020777717;-0.10365336;-0.19051474;-0.035174303;0.020183144;-0.06633498;-0.029876245;-0.026762394;-0.09309646;-0.07309523;0.013749079;-0.03300891;0.010920834;-0.039696;0.038133197;0.042579573;-0.092158936;-0.010252198;0.035059407;-0.057555065;-0.017027073;0.01469766;-0.08752271;-0.04949643;0.048230834;-0.10397646;-0.04948999;0.021816522;-0.004429472;0.06302865;-0.083693564;-0.015321905;-0.13200797;-0.0062000393;0.045117386;0.03982529;-0.073543556;0.13055293;0.06816053;-0.026928496;-0.07485426;-0.04322803;0.036899187;0.010535782;-0.01653879;0.07730286;-0.085885055;-0.00732588;0.014731002;0.036394592;-0.11874186;0.08230866;-0.09404066;0.03869509;0.04567004
-0.107859515;-0.14111039;0.00824813;0.11482437;0.0021018942;-0.06910288;-0.018221367;-0.08018102;-0.02602226;-0.08270771;-0.11366373;-0.16625443;-0.09413752;-0.06732451;-0.09210225;0.03709529;0.071605206;-0.018805703;0.0521108;-0.14307266;-0.07058433;-0.05769351;0.02460373;-0.013415329;-0.0024341831;-0.007921915;0.07006903;-0.049028054;-0.02463848;-0.08764687;-0.028713781;0.042936016;-0.05787305;-0.07714452;0.011235134;-0.05219346;0.015466515;0.008303935;-0.044075962;0.044685323;-0.016493706;0.096670166;0.013036203;-0.05067152;-0.057393454;-0.121126264;-0.014451964;-0.031608917;-0.06265909;-0.073551506;-0.07919753;-0.09251897;-0.09163195;-0.04628561;0.0043473043;0.01392956;-0.078932256;-0.0402969;-0.089580216;0.04506148;0.030650392;-0.13666482;-0.059222504;0.04571958;-0.03096468;-0.002407732;-0.018654985;0.17012402;0.031428322;0.0584677;-0.10201694;0.042658057;-0.07872885;0.07635923;-0.09275475;0.011099329;-0.07977797;-0.10532714;0.09266914;0.044422805;-0.0056419135;0.043284044;-0.01684959;0.062703334;-0.072718754;-0.07497361;0.038214516;-0.038273532;-0.033600956;-0.026328212;-0.034675892;-0.027392227;-0.06909353;-0.07978586;0.012410905;-0.041369308;0.17307934;-0.069352426;-0.05561364;-0.036301613;-0.12164019;0.020854449;-0.065745376;-0.03006792;-0.006234158;-0.09165935;-0.0101575535;-0.13209218;-0.061469372;0.013992956;-0.07444846;-0.091910034;-0.11041292;0.12936284;-0.014075084;-0.112416364;0.097769946;0.039207466;-0.18862058;0.068206064;-0.1277859;-0.051189993;0.033628967;0.017927801;0.030589357;-0.04008117;-0.049993843;-0.05161603;-0.0050156345;-0.07252361;-0.03656507;-0.10872251;-0.06359674;0.0021698128;0.0415217;-0.054449823;-0.043367792;0.02591117;-0.109073736;-0.1594989;0.05714103;0.06472274;-0.08053894;0.0075267046;-0.13532381;0.012012089;-0.025675418;0.018228028;-0.124946974;0.06472629;0.030809242;-0.06926184;0.05067071;-0.02715453;-0.05852066;-0.03707876;-0.053074423;-0.028628247;-0.013974533;0.015111955;-0.05250303;-0.063069694;0.012510659;-0.08188295;-0.01266608;0.012243007;0.009043744;0.06712588;-0.034663785;-0.14727095;0.047203574;0.05446664;0.03069255;0.00036622336;0.015342511;-0.0717379;0.053370487;-0.033793274;0.0031279458;-0.02819966;-0.11184012;-0.029827524;-0.07336037;0.00823;-0.014520228;0.043013383;-0.064741865;-0.073909245;0.059509575;-0.051838454;-0.15510063;0.027822575;0.020215768;-0.059443828;-0.036783088;-0.0294515;-0.057504978;0.053964064;-0.05044302;0.03948344;0.026984554;0.11152623;0.046162166;0.05324593;0.03476666;-0.09872846;-0.14215857;-0.012341566;0.012017243;-0.103508644;0.07112405;-0.085601516;0.0075666076;-0.019338148;0.036388148;-0.20467855;-0.013532313;0.021749519;-0.05851607;-0.010391731;-0.03229379;0.13920215;-0.11171545;0.004999299;0.05441833;0.025619337;-0.16964425;-0.050970472;0.07302424;-0.029910317;-0.012946031;0.048524484;-0.044384725;-0.05648002;-0.038531598;-0.13516672;0.020555105;-0.07056098;-0.10326075;-0.10171794;-0.011035884;0.03596505;-0.03870041;-0.12933072;-0.007295463;0.051083207;-0.0003745542;0.0002429357;0.06826899;-0.042734746;-0.0797865;-0.063508414;0.028612748;-0.16926995;0.022606304;-0.014784955;-0.013702762;0.0032593228;-0.13780694;0.01963623;-0.06922101;-0.095067754;-0.064225785;-0.07730605;-0.08673751;-0.054133076;-0.07547915;0.0075552724;0.044385888;-0.028961508;0.030801438;0.1241076;-0.040173374;-0.07894931;-0.04060502;-0.058191735;-0.08595675;-0.0067846566;0.022406917;-0.0002817279;0.020268865;-0.13752107;-0.08697141;0.020741625;0.008014262;-0.01218559;-0.07541083;-0.056663223;-0.109514005;0.04943048;-0.05122841;0.017849136;0.04265638;0.02430196;-0.009355069;-0.033847813;-0.021829419;-0.09505549;-0.029369632;0.005072383;-0.09729871;-0.10889391;-0.02169466;0.023830365;-0.0297244;-0.053449024;-0.08633887;-0.06043287;-0.026062306;0.040084515;-0.017741406;-0.01989341;-0.011746051;-0.118964925;-0.15678644;-0.0410128;-0.021687217;0.050175343;-0.014966658;0.021713462;0.035992317;-0.032530785;0.037331823;0.05865453;-0.08441726;-0.033309676;-0.022318594;0.05963448;-0.077055916;-0.11591161;0.030364571;0.020591266;0.023820076;0.09772224;-0.039883845;-0.0161461;-0.10997867;-0.016994093;-0.021232242;-0.008989393;0.027501676;0.16139334;0.012396462;0.155538;0.056303702;-0.07157677;-0.14191853;-0.06648557;-0.0906854;-0.030204933;0.05673117;0.051894877;0.010308231;0.04661727;0.11536219;0.05103437;0.016699115;-0.0008717261;0.028255094;-0.15294069;0.04044887;0.01051907;-0.08519777;-0.049732633;-0.045231923;-0.09240067;-0.04355681;-0.09061334;-0.03441388;0.065356106;-0.028513424;0.008757688;-0.09232854;-0.083296694;-0.041831072;-0.04082692;-0.12143523;0.10348845;-0.03781528;-0.0789131;-0.07295788;-0.08548409;-0.07276979;-0.10345201;-0.13054161;-0.025416361;-0.092213266;-0.032039694;0.044473037;-0.107268855;-0.122450806;-0.0328488;-0.09400387;-0.07794962;-0.092365004;-0.07764535;0.041516665;-0.08131157;-0.031314638;-0.16589373;-0.030891158;0.017856175;0.042375453;-0.031075316;-0.015319886;-0.06969067;-0.045607794;-0.06939967;-0.03223083;-0.12525086;-0.07280585;0.007503862;-0.10970016;-0.016302254;0.07965765;-0.057400413;0.0283604;0.026377948;-0.07254627;0.017352086;0.067037344;0.08641799;0.04457971;0.017052434;-0.0245269;0.04100543;-0.04866547;-0.053584915;-0.030203743;0.07536528;-0.0643336;0.046436906;0.004655593;-0.09537664;-0.0403555;-0.0067302897;-0.06940719;-0.08264983;0.043848153;-0.0035876972;0.026742773;-0.051558103;0.04363395;-0.10828583;0.055259645;-0.0248373;0.013074024;0.03436342;-0.098637864;-0.034652688;-0.009417096;-0.07809154;-0.10492716;0.018484345;-0.00030886606;-0.12488431;-0.041090745;0.040299814;-0.07865435;0.034922097;-0.0615589;-0.039456163;0.13498425;-0.105756484;0.015172247;-0.050374564;-0.011436923;-0.05209628;-0.048452657;0.034110054;-0.07458919;0.025810681;-0.10528484;0.03967764;-0.0036234774;-0.00097416475;-0.029704574;0.03324911;0.004445705;0.042431112;0.050826963;-0.03935164;0.053661242;0.044579137;-0.010844117;0.0015343311;-0.0036140233;-0.061773043;0.009203072;0.029437976;0.029590296;-0.08072618;0.010168646;0.059587732;0.04828573;-0.013276694;-0.03150114;-0.07538521;0.027297845;-0.095883906;0.1220684;-0.058519404;-0.06362058;-0.11481043;-0.03354464;-0.084802695;-0.08499371;-0.014699841;-0.13937041;-0.011572437;-0.05014727;0.020075701;-0.029579801;-0.0053197956;-0.03049537;-0.11185792;-0.11445437;-0.05339525;-0.022981063;0.078858174;-0.12862104;0.0002273627;0.04604423;-0.13295704;-0.029644879;0.03021974;-0.04048171;-0.08644475;-0.050892986;-0.08115441;0.02521504;-0.100854546;-0.124698505;-0.09475634;-0.099225685;0.0668628;-0.080554634;-0.0112655675;-0.12738056;-0.044589136;-0.07668643;0.05853346;-0.0030256675;-0.009059326;-0.12473741;-0.06289938;-0.08335223;-0.09445239;-0.047865555;-0.09013229;0.00426367;-0.09643145;-0.028306438;-0.084747806;0.013160475;0.08751214;0.07395162;0.048110753;0.03919617;0.06837083;-0.0064456947;-0.013368258;-0.100119986;0.07811415;-0.071171016;0.045458898;-0.0056469664;0.033285577;-0.07501068;-0.07657425;-0.07617251;-0.101210006;0.051547877;-0.01134807;0.03910859;0.03751704
0.019616604;-0.10201313;-0.078411385;0.10454185;-0.10197835;0.043243438;-0.054646343;-0.0896138;-0.012296995;-0.14351842;-0.12446443;-0.16916032;-0.089400366;0.051212277;-0.04683184;-0.008272224;0.036497377;-0.014452438;0.02411278;-0.015602944;-0.003402085;0.010574011;0.052662034;0.07377639;-0.0430423;0.091505535;0.026923763;-0.09237245;-0.02078447;-0.043392364;-0.105180226;0.0035034255;-0.063658364;-0.024940016;-0.082629286;-0.056003764;0.053326853;0.04664086;0.0020185458;-0.032462582;0.0023225679;-0.01181;-0.10166851;-0.039055437;-0.01388629;0.0035005077;0.0024617272;-0.030281097;0.013087903;0.035956196;0.016347826;-0.02768023;-0.054408073;0.054210752;-0.004863721;0.059793282;-0.048194986;-0.016429158;0.018641684;-0.07829106;0.0075802286;-0.0374165;-0.08792751;0.015522906;0.0034535693;-0.066990465;-0.03208877;0.07654684;0.027086414;0.018942205;-0.061304968;0.09692023;-0.06216816;-0.023294749;0.012162556;0.011300222;-0.08810379;-0.17129944;0.030746544;-0.012008463;-0.0033820649;-0.04401264;-0.04476471;0.048304282;-0.08761021;-0.07216855;-0.035639916;-0.011481878;0.05068872;-0.02903643;-0.055073593;-0.04700781;-0.08293463;-0.15121311;-0.045781653;-0.07248693;0.042313267;-0.06392116;-0.042589054;-0.105121695;-0.06839556;0.042901088;0.03207637;-0.16375132;0.004508564;-0.13294977;-0.08225778;-0.14824541;-0.040399227;-0.009173346;0.06247281;-0.05711887;-0.063540086;0.07831451;-0.039929044;0.03734868;0.04473983;-0.042821463;-0.059900492;-0.08151235;-0.13954133;-0.112537295;-0.023876663;-0.099696614;-0.035564587;0.0023842647;0.0136666875;0.018605337;0.005791114;-0.10005658;-0.13607259;-0.1532128;-0.055815347;0.0446089;-0.0801521;-0.074940324;-0.03239394;-0.026062647;-0.07954858;-0.01114374;0.11460292;0.06620827;0.04991727;-0.054587737;-0.10383667;0.102436684;-0.004634588;-0.018619012;-0.11749077;-0.052428145;-0.11133479;-0.05881636;-0.049956877;0.027019791;0.08419969;-0.12232979;-0.0973153;-0.06221573;-0.054970425;-0.042595882;0.037476856;0.06497271;0.0054410906;0.051002964;0.023851113;0.051561605;-0.12208113;-0.033323858;-0.11269505;-0.15164383;-0.040255997;0.008555472;-0.08834029;0.05932835;0.0067332904;-0.0028480894;0.039866906;-0.008216941;0.023299862;-0.1281277;-0.030048748;-0.118910626;0.037379835;-0.057592195;-0.08756412;-0.0742414;0.025477191;-0.0065820403;-0.05028949;-0.014188193;-0.15486534;0.046348326;-0.08902606;-0.022808533;-0.10874826;-0.06984215;-0.08337708;0.07322773;0.028614866;-0.018228076;0.004219636;0.0886112;-0.013195375;0.0397038;-0.084966116;0.015504941;-0.17356315;-0.14744787;0.006768189;-0.13542753;0.05125164;-0.084141314;0.052717037;0.021985952;-0.0069855237;-0.12821369;0.048539314;-0.008551031;0.0462029;-0.018874437;-0.09503301;0.13318536;-0.109228775;-0.014698753;0.043428145;0.009390441;-0.15754011;0.034709107;0.036711223;0.05889604;-0.007334894;-0.027449833;-0.0155472495;0.082817145;-0.0070434855;-0.14997205;-0.08780031;-0.020761272;-0.08518105;-0.11156446;-0.06343341;-0.057685822;0.047979854;-0.08158555;0.07607898;0.097540684;-0.0340163;-0.061079293;0.0028431304;-0.045027986;0.007586668;0.08244779;0.029232785;-0.07249075;-0.030378843;0.019464705;0.014350857;0.00012459129;-0.08855537;-0.012107903;-0.013693021;-0.041524265;-0.035157662;-0.021026801;-0.1413834;0.019755172;-0.04331748;0.054325573;-0.04239793;-0.0045618336;-0.018715454;0.009473077;-0.071803175;-0.0442338;0.051842265;-0.049723484;-0.066207655;-0.09536799;-0.07249931;-0.11568308;0.028979033;-0.14108083;-0.031168334;0.042034496;-0.015176401;-0.086535685;-0.048071526;-0.112732664;-0.033336893;-0.076058865;-0.056160934;-0.0009966727;-0.0958225;0.0086662285;-0.04813682;-0.081659205;-0.03878343;-0.031612042;-0.0034308487;-0.04871675;-0.081329696;-0.111877054;0.029401787;-0.015129379;-0.019068167;-0.022407984;0.020212263;-0.07020429;-0.016171027;0.014867212;-0.010398347;-0.053179998;-0.05735571;-0.16571392;-0.03929168;-0.041719396;0.04751428;0.12123326;-0.030161353;0.037941318;0.045258;-0.11099329;-0.015802963;-0.08569272;-0.006479103;-0.100838274;-0.0031769294;-0.061753053;-0.12754643;-0.0943034;-0.003979682;0.11676923;-0.119087644;0.010208344;-0.024851102;-0.09136776;-0.0423611;-0.030749854;0.007023975;0.036369823;-0.008117813;0.10937628;-0.05007067;0.10456333;-0.04112966;-0.052789286;0.013933825;0.02752754;-0.08254529;-0.022598475;-0.02093492;0.0041131033;-0.0940486;-0.03418965;0.044902112;0.09218892;0.015801422;-0.075446144;0.02155822;-0.15309371;0.001886278;0.054366507;0.0050218534;-0.070647314;-0.05856672;-0.057699922;-0.05636933;-0.015292536;-0.011903772;-0.07341658;-0.11230416;0.09928351;-0.057110827;-0.08584188;0.0779601;-0.036929663;-0.088940024;0.053515017;0.05153839;-0.03708268;0.04418366;-0.011757156;-0.12330142;-0.069388755;-0.05518368;0.013883167;-0.08341789;0.031752527;-0.021448338;-0.038086753;-0.113452345;-0.07966711;-0.11335807;-0.10366108;-0.03194119;-0.111182384;0.046239153;-0.14103438;-0.04608491;-0.041181013;-0.01830422;-0.07844827;0.058675848;-0.05899432;-0.0034839837;-0.059662085;-0.0064276243;0.015212025;-0.045345176;-0.057538223;0.014413631;-0.0337623;-0.15419123;-0.12823655;0.046828482;-0.039795697;0.047028687;-0.006216814;-0.022070337;0.012008943;0.017485822;0.08112805;-0.031487875;-0.040742937;-0.106217794;0.024289547;-0.050615646;0.0014604477;-0.026138911;0.04209667;0.060332734;0.059589658;0.041160107;0.03912792;-0.005234377;-0.09627936;-0.028618693;-0.08058758;-0.02860291;-0.014488313;0.12615451;-0.05950403;-0.03547648;-0.015381381;0.042529732;-0.008715533;0.058643766;-0.01732477;-0.10668211;-0.11962016;-0.0022660056;-0.079569615;-0.12541659;0.049899712;0.12205789;-0.093294255;0.09554253;0.012383249;-0.07905091;-0.028391074;-0.14242211;-0.008530226;0.19435555;-0.052148636;0.035132274;-0.05941748;-0.03987359;-0.12682077;-0.040764887;-0.06186663;-0.009416878;-0.11072908;-0.110857844;-0.07889335;-0.057543773;-0.01183783;-0.017851492;-0.062023267;-0.012297572;-0.08691182;-0.04364684;0.030977834;-0.08113567;0.019895919;0.0050934684;-0.009766371;0.022994317;-0.12252589;0.14868942;-0.050073296;-0.07299401;0.0038165005;0.046904676;-0.029991614;-0.035945386;-0.06345037;-0.06821101;-0.09468018;0.023613598;-0.017374914;0.13856925;0.008369902;-0.10407474;-0.10442856;0.026480246;0.037443943;-0.0580115;-0.0057424894;0.020415438;0.012555008;-0.06456391;-0.060523007;0.003600417;-0.12951408;-0.015873842;0.028871462;-0.24733958;0.04486789;-0.08590967;0.09923536;-0.12929384;-0.06632033;-0.06839548;-0.053790487;-0.046098858;-0.07201217;-0.018096004;-0.10297342;-0.030864188;0.036291018;-0.082701616;-0.064360455;-0.046701483;-0.03399772;-0.0669938;-0.0072111613;0.08351517;-0.0018404034;-0.12584843;0.0081520295;-0.0897999;0.041294195;0.011842936;0.0082554445;-0.12788883;0.0353775;-0.09695551;-0.05377611;0.019792123;0.028202169;0.067513496;-0.06441826;-0.13275805;-0.08221443;-0.045724984;0.039831795;-0.080191374;0.05695855;0.052270647;0.13647799;0.031098243;-0.095819965;-0.03738078;0.04714741;-0.008630555;-0.05934843;0.07296027;-0.056127228;0.04241543;0.05682358;-0.033964645;-0.08712735;0.027957058;0.020108579;0.0030615993;-0.06593875
-0.044495013;0.0007256295;-0.0866565;0.050071757;-0.13520814;0.05814144;0.04330513;-0.06415749;-0.025855388;-0.09462557;0.028934699;-0.065836996;-0.12345298;-0.018426558;-0.009484429;0.064461395;0.013517303;-0.16395855;-0.010132391;-0.025182525;-0.053272843;-0.029269502;-0.04278883;-0.018017288;-0.11501318;0.06445556;-0.036142964;-0.0592335;0.03801906;-0.041611902;-0.12768435;0.112647556;-0.092807956;-0.062637225;-0.04443601;-0.08085981;-0.031699553;0.005392076;-0.021968497;0.05986203;0.027631294;0.1129325;0.037943274;-0.015918912;-0.0636248;-0.09290369;-0.08910723;-0.033521213;-0.056269355;-0.08799167;-0.02847141;-0.12947334;0.039701637;-0.017609129;0.036773413;-0.04834829;0.05420095;0.0028110973;-0.094739445;-0.004577979;0.03574068;-0.13755256;-0.08787346;0.02241103;-0.049650434;-0.011558283;0.0042309607;0.14253855;-0.066282965;0.060242057;0.0026116192;0.002003542;-0.12783577;0.05540508;-0.11024952;-0.03354242;-0.07743397;-0.025588298;0.10595434;-0.048274517;0.064001076;-0.071925595;0.044141445;-0.010984508;-0.0075092325;-0.03727852;-0.09401912;-0.037109822;-0.04456865;-0.06743549;-0.039100997;-0.060915444;0.0095521305;-0.03185271;0.016851995;-0.06853919;0.048152346;0.02010312;-0.08594387;-0.0928431;-0.00031793356;-0.09178944;0.01996337;-0.053019866;0.031461645;-0.058044694;0.05070119;-0.02534637;-0.1009358;0.024327036;0.015572798;-0.008800209;-0.093824424;-0.0019467865;0.022881411;-0.059607882;0.0096435;-0.013546653;-0.18173546;-0.087953925;-0.0675508;-0.04712228;-0.029360188;-0.09613197;0.055602454;-0.005078234;-0.04693452;-0.08216975;-0.108927675;-0.027068403;-0.13021727;-0.10143309;-0.003951451;-0.062106222;-0.026538456;-0.044090707;0.04215572;0.0015040678;-0.16837536;-0.15988703;0.13111064;0.023757994;-0.05091606;0.03677381;-0.017880315;-0.044519782;0.062034722;0.034010086;-0.07699018;-0.08315191;0.04513094;-0.09226875;-0.0037176122;0.093349904;0.0098425355;0.0007057626;0.05013158;-0.062278144;-0.10659124;-0.114400394;0.018787313;-0.009974121;0.07412235;-0.08351924;-0.06496222;0.03249608;-0.04274525;-0.047898173;-0.09176108;-0.11076929;0.0025994198;-0.036299404;0.011071047;-0.03970834;-0.10052417;0.0019303367;0.029215433;0.007684131;-0.06531035;0.003906869;-0.045574486;-0.0137683395;0.034262836;0.003146578;-0.073557384;0.040922713;0.039269343;-0.026852153;0.024235368;-0.04884547;-0.10711953;0.05999856;0.008804785;-0.08956115;-0.085910216;-0.083424255;-0.14423324;-0.043768473;-0.084430754;-0.01132311;0.004496709;0.091939814;-0.06444229;-0.02515803;-0.014831598;0.05239718;-0.1845535;-0.14866287;-0.06540869;-0.16945788;0.041488204;-0.10716476;-0.08186035;-0.052540764;-0.078141525;-0.20195793;-0.08021399;-0.09801787;0.06413159;-0.0001917437;-0.029523065;0.082813315;-0.102696344;0.024663229;-0.016086588;-0.005395928;-0.0014303377;-0.057858758;0.0006457758;0.06368269;0.04843666;-0.02063856;-0.14654589;0.07038543;-0.027471043;-0.030133694;0.021744167;0.015711155;-0.0374277;-0.0047725774;0.015991054;0.08283527;0.021847308;-0.041262716;-0.01577195;0.008095216;-0.076470934;0.03788512;0.035712786;0.056194153;0.004998501;0.030426944;-0.08846237;-0.11829677;0.052985486;-0.08559064;0.06807436;-0.081289396;-0.12194133;0.033139437;-0.042605594;0.034749668;-0.04789887;-0.08899827;0.02025557;0.01406498;-0.024675677;0.019236343;0.053621057;-0.01908483;-0.037169438;0.09294084;-0.032287553;-0.010543493;-0.058769625;-0.073287144;-0.096423484;-0.0637694;-0.06003284;0.014760156;0.008304043;-0.077105835;-0.04618447;0.029613694;-0.09897262;0.01904085;-0.0054653934;-0.05158046;-0.033904348;-0.046742577;0.018299524;-0.017938837;-0.007591787;-0.07151091;0.015164049;-0.01421586;0.09360849;-4.4053886e-05;0.054205846;0.0037726471;-0.023547139;-0.12818718;-0.01874117;-0.0836729;0.089599006;-0.018552635;0.039996073;-0.09169565;-0.08111097;0.03498957;0.011972018;-0.100923456;-0.011020802;-0.21176584;-0.037321545;-0.02936787;-0.05660678;0.11658088;-0.08371163;-0.026624842;-0.017389359;-0.093570545;-0.04035579;0.057293966;-0.0010147208;-0.085811086;-0.105020374;-0.047110453;-0.09009565;-0.11452038;-0.064447455;0.02701204;-0.06460048;-0.02730806;-0.12800099;-0.061647214;-0.07839542;0.014575231;0.011397976;-0.10627429;0.029745448;0.10467689;-0.036492035;0.1902004;0.010264703;-0.049743935;-0.032084797;-0.03857626;-0.053335916;0.015925406;-0.019230936;0.056146882;0.040640205;-0.00062256434;0.07111043;-0.011941795;-0.009142922;-0.030974628;-0.09411747;-0.07091073;0.060028955;0.016448239;-0.053061917;-0.11409153;-0.03985924;-0.098437995;0.015534849;-0.07515278;-0.12624207;-0.016933747;-0.11278766;0.10723578;-0.08643039;0.00021943248;-0.04830271;0.072369255;-0.01990945;0.13457672;0.055896137;0.040735513;0.012807609;-0.09263655;-0.04890947;-0.07865467;-0.09270826;-0.020532405;0.023628484;0.06721979;-0.057426855;-0.050326217;-0.0065258183;0.037091643;-0.09220134;-0.0845825;-0.08128518;-0.13902764;-0.06049086;-0.12145099;-0.1212568;-0.104663365;0.075876646;-0.06807879;-0.028938409;-0.025177065;-0.022141337;0.03861711;-0.10486816;0.07535179;0.056016725;-0.115440495;-0.058100853;-0.123424105;-0.049161173;-0.060936026;0.06877708;-0.044790655;0.034166295;0.075419;-0.07732008;-0.016631909;-0.012453693;0.04803685;0.019996531;-0.04167378;-0.092321575;-0.053227115;-0.039315525;-0.12426931;-0.12583646;0.07797935;0.07174045;0.0716176;-0.027278764;-0.0536243;-0.124303505;-0.11576615;-0.116833545;-0.042073213;-0.0071419408;-0.047285087;0.07653042;-0.05616236;0.039881624;0.0034493767;0.022633616;0.04449536;-0.02534183;-0.02056859;-0.12991554;0.018417552;-0.0530507;-0.05715508;-0.14801683;-0.0881891;0.102344036;-0.016189741;0.04333886;0.063428685;-0.02112188;-0.052998025;-0.16555625;0.026747784;0.17725997;-0.029336454;-0.016103746;0.0015885042;-0.06135826;-0.009460599;-0.003168208;-0.058808435;-0.09555617;-0.057435136;-0.13768;0.057390288;-0.0854725;-0.13406053;-0.09864104;-0.03860234;0.041269634;-0.095996186;-0.003045456;-0.12425371;-0.020065328;0.062095895;0.006478998;-0.02230867;0.05064027;-0.06568428;0.029516721;-0.04387767;0.07872662;-0.11840284;-0.02274619;0.03369488;-0.059002087;-0.036052167;-0.11702857;-0.022264067;-0.050591532;-0.03173983;0.13707736;0.027035465;-0.13028812;-0.015145541;-0.042847916;0.01197251;-0.05678738;-0.052197944;-0.1107212;0.03657371;-0.042398043;-0.056685507;0.03749179;-0.012868199;-0.08374719;-0.12469326;-0.22809148;-0.0648394;-0.09016309;0.112249546;-0.014719738;0.060201876;-0.03763411;-0.08463224;0.05184233;0.00037951116;0.021247754;0.021277767;-0.037076026;0.06035604;0.04464047;-0.09740757;-0.031697705;-0.13355403;-0.002064542;0.08419667;0.06887837;-0.011961167;-0.15429658;-0.06044346;-0.04896067;-0.01037714;-0.029725747;-0.12545982;-0.07462546;0.011965771;-0.058568723;-0.07147421;-0.009190579;-0.049901444;-0.014840271;-0.05717653;-0.123925336;-0.09612702;-0.004468176;0.048914026;-0.067426525;0.03127234;0.1366234;0.0032635084;0.0801062;-0.0761831;-0.104468815;0.08724698;0.019917691;0.002229621;0.07678497;-0.04796888;0.04840727;-0.031777743;-0.107906304;-0.1452007;-0.017679166;0.0049132453;0.035764895;-0.067012094
0.038803156;-0.09014387;-0.02765858;-0.0013090743;-0.04382678;0.021281747;0.116981775;0.05895864;-0.020333303;-0.111269824;-0.12260013;-0.107784994;-0.09156694;-0.08216251;0.00978079;-0.05838557;-0.0098329;-0.042717036;-0.02254705;-0.11038564;0.04983621;-0.07559881;-0.09178805;-0.0651549;-0.05769383;0.024836708;-0.057631414;-0.07062088;0.05121127;-0.010407852;-0.036052123;0.07812186;0.0040288568;0.0033858095;0.016277697;-0.010638282;-0.026880352;0.031835012;-0.079182334;0.05681252;0.044634696;0.0097612785;0.022034368;-0.044058602;0.0014025103;-0.10066632;-0.065614;-0.076769285;-0.049054775;0.029121267;0.010202238;-0.10656341;0.033066772;0.010520013;0.07391123;0.0015685139;0.0063934084;-0.052497864;-0.015687926;-0.068057865;0.07770749;-0.12329599;0.0038620087;-0.051589172;-0.07842397;-0.05237078;0.015005928;0.04878791;-0.0793784;-0.058875214;-0.1313607;-0.023800295;0.025977187;-0.036113802;0.033914562;0.05503769;0.048986405;-0.14427176;0.07036824;-0.029172463;-0.09146656;-0.07955518;-0.06726381;-0.011308586;-0.03638723;-0.0117537705;-0.024430793;-0.015458212;-0.042483527;0.028407091;-0.07089988;-0.06996006;0.028265325;-0.07179225;-0.08418163;-0.034300055;0.17645678;0.08349942;0.039025873;-0.008189369;-0.06534731;-0.09395115;-0.033125065;-0.08135977;-0.0069530685;-0.0028017522;-0.07931348;-0.019855576;-0.051071048;-0.07238859;0.02676226;-0.033081472;-0.025633998;0.090358615;0.0520477;-0.08354713;0.074279696;-0.0057854485;-0.18212125;-0.070140705;-0.014580133;0.036476653;-0.10651945;0.0389702;0.037699442;-0.021408357;-0.03723133;0.047237486;-0.11098498;-0.112771265;-0.042974606;-0.041076552;-0.020627076;-0.08357435;-0.027341217;-0.020917717;-0.024465177;0.061639767;-0.12220628;-0.091860265;0.14073125;-0.09166379;-0.05352544;0.021701733;-0.086733796;-0.051489882;-0.024811968;-0.0928813;-0.08771493;-0.07199093;-0.024199933;-0.013234228;-0.057036914;-0.016029283;0.03491023;0.011591049;0.010832882;-0.052542917;-0.090506524;0.0036515335;-0.1067857;0.059662886;-0.011351135;0.02502613;-0.019914666;0.051255263;-0.107078455;0.065709814;-0.088162355;-0.0592701;-0.10480893;-0.07993184;-0.06767582;-0.023213588;-0.07525873;-0.056353685;-0.07922228;-0.067419365;-0.004846116;0.020415634;-0.12046498;-0.038079463;-0.050437596;0.0074127465;-0.008310687;-0.08167671;0.0016002296;-0.038829524;-0.007212071;-0.079744406;-0.06765667;-0.016443217;-0.03577044;0.04479247;-0.08941958;0.04105131;-0.030069737;-0.040113527;-0.04404494;-0.013385916;-0.010093332;0.06272284;-0.07629934;0.03698525;0.021857176;0.00092521706;-0.09324319;-0.11102933;-0.023558652;-0.10051486;-0.014365588;-0.09519249;0.047602303;0.024926443;-0.084504165;-0.18640526;0.0037792947;0.05419293;-0.0034526975;0.047051225;-0.09404393;0.064941265;-0.015097602;0.050458033;-0.008345405;-0.0486346;-0.11622819;0.033353243;0.031766318;0.0338991;-0.007646423;0.03838453;-0.11492644;0.04377315;-0.10463675;-0.010060628;-0.08019744;-0.067655616;-0.030542044;-0.09114174;-0.052409578;-0.061087087;0.06538186;-0.14882332;0.040502872;0.06643185;0.012706317;0.008272329;-0.05300867;-0.09037554;-0.09107297;-0.010994183;-0.051965196;-0.13825025;0.0836716;0.011930085;0.006865477;0.016151672;-0.085602574;-0.12783277;0.013122836;0.035495788;-0.02529313;-0.103111885;-0.082854636;0.021575304;0.04706494;-0.06746182;-0.013017138;-0.06893261;0.011809218;0.085456796;-0.069503844;-0.05985916;0.06964856;0.025713434;-0.1322768;-0.07740073;0.03672105;-0.07256926;0.043670304;0.007497494;-0.0030812193;-0.06629107;-0.058787;-0.057778746;-0.027242301;-0.087307945;-0.030738363;0.0024819123;-0.036823027;-0.012848751;-0.03875947;-0.0065434165;-0.02171663;-0.13983905;0.07009619;-0.08202161;-0.045132417;0.0400707;-0.109692045;-0.12179152;-0.08357809;0.0125122685;-0.041541785;-0.04281591;-0.016633112;-0.077718936;-0.017152818;-0.031939883;0.070664965;-0.12564519;-0.07427728;-0.1474089;-0.04664219;-0.04003638;-0.04077853;0.089967005;-0.05321894;-0.035738792;-0.074402876;-0.0072373343;-0.041850906;0.04376187;-0.023577735;-0.07697536;0.039736096;0.062093735;-0.10306901;-0.11045892;0.031852446;-0.032238744;-0.1100771;-0.026471507;-0.10600626;-0.098691866;0.010018149;-0.054295365;0.05250513;-0.020474508;-0.024347356;0.16282728;-0.050897498;0.17775173;-0.067080185;0.0057216575;-0.08056769;-0.02719858;-0.014911455;-0.02506442;0.05950939;-0.034990616;-0.113379076;0.058616713;-0.033234302;0.0013264247;0.0040425216;-0.10174501;0.038254574;-0.14411883;0.02426668;-0.08718909;-0.037330754;-0.0051217456;-0.063649364;-0.04036186;-0.04696431;0.033444412;-0.020264551;0.03292053;0.028644072;-0.004004751;0.01782621;-0.08575102;6.376302e-05;-0.014726654;-0.12321618;0.07710858;-0.011125525;-0.11928233;-0.016641105;-0.0071417866;-0.19618742;-0.092765965;0.0012029598;0.03273823;-0.101577625;-0.044674687;-0.014736121;0.048126236;0.0053829253;-0.09362791;0.011066262;0.049239952;-0.00087503914;-0.10764519;-0.030995797;-0.14871468;-0.050125957;-0.0620037;0.0764155;-0.03712624;0.038105976;-0.08666989;-0.053514797;-0.07259416;-0.09466766;0.05740518;-0.0010440589;-0.0042505865;-0.0012317352;0.009815682;-0.015694102;0.0039053438;-0.056451432;0.0098439455;0.013148254;-0.076027475;-0.03601971;-0.014856426;-0.0037849487;0.076811805;-0.11511285;0.056178045;0.0024997222;0.028320316;-0.02727634;-0.10918464;-0.09141076;-0.0021282083;-0.024079071;0.030189306;-0.060577445;-0.036563557;-0.14006014;-0.09304863;-0.008651225;-0.07124368;-0.08250923;0.059203472;-0.048626166;-0.05249833;-0.051729497;-0.016597152;0.06081303;-0.058510054;0.07159303;0.028232353;-0.07975659;-0.020299682;-0.09971755;-0.07134331;-0.09901713;-0.04132673;0.0027449755;-0.10469466;-0.0060529616;-0.06521706;-0.11559736;0.026528321;-0.12462781;-0.03960974;0.18416838;-0.06939645;0.013391743;-0.05922817;0.00465226;-0.096949995;-0.06463149;-0.05788735;-0.035238594;0.022726081;-0.12010638;-0.10106631;-0.06945843;-0.11028293;0.058390886;-0.045722798;-0.027608568;-0.064261936;-0.09031674;0.010232868;-0.08720877;0.08929677;0.038411815;-0.058300737;0.0029525228;-0.025113212;0.07340129;-0.025399882;0.015639389;-0.118818685;0.02106557;-0.030546388;-0.051976267;-0.008654825;-0.008025795;0.011933985;-0.015981851;-0.098206826;0.10978221;-0.043051533;-0.12037845;-0.06620301;0.0126103945;-0.08906619;0.03485691;-0.001432607;-0.055758473;0.044765692;0.023809684;-0.028515844;0.0036139518;-0.07534985;-0.009082914;-0.072818056;-0.1646793;0.004129834;-0.1552847;0.012656025;-0.086351;-0.012358008;-0.108794324;-0.19447632;-0.03698286;-0.043842897;-0.07841706;0.015979294;-0.050234698;0.059190027;-0.027638486;0.015315953;-0.088243276;-0.004449;-0.037681304;-0.050809585;-0.052536424;0.013086542;-0.07310026;-0.080188684;0.044009075;0.01893617;0.051691025;-0.028943058;-0.06141632;0.023389563;-0.10321735;-0.009802087;-0.021273814;-0.033370104;0.023231624;0.025651745;-0.005201108;-0.15426476;0.02886115;-0.07530731;-0.038745042;0.022143153;0.13036233;0.11337889;-0.07214699;0.022967536;0.00091181527;0.11487397;-0.067131475;0.055541553;0.01143389;-0.102259815;-0.07584017;0.009047168;-0.03750954;-0.06721773;0.041016314;-0.07434042;0.024117135;-0.09140479
-0.08264153;-0.13992204;-0.007944931;0.08590976;-0.1102624;0.044487122;0.07379548;-0.05827963;-0.07267761;-0.12997428;-0.018820837;-0.1320564;-0.1510987;-0.0016470983;-0.0421484;-0.037984844;0.045338716;-0.15517546;0.036160003;-0.11091993;-0.0058135623;0.03928124;0.0043429355;-0.030274453;-0.019734103;0.017678194;-0.07237229;-0.08070043;0.10035512;-0.05564757;-0.042145565;-0.024908608;0.006645923;0.017806733;0.019505149;0.03198438;-0.023018787;0.03361903;0.026035791;-0.08849764;-0.06920175;0.064854644;-0.07073424;-0.13659784;0.03194835;-0.10250514;0.023185939;-0.12392556;-0.07209268;0.0071182935;-0.0006724912;-0.025126748;-0.051818255;-0.022807635;0.028226463;-0.012063962;-0.08803748;0.02732822;-0.104732506;-0.049264587;-0.02445102;-0.05133765;0.09271862;-0.04848565;0.030094326;-0.10792735;-0.10940159;0.1229646;-0.07426178;0.033638462;-0.11327297;0.0025942533;-0.097301915;0.054784458;0.05441495;-0.075192966;-0.06526336;-0.023511047;0.04908454;-0.05871414;0.0027532934;-0.010093651;-0.079930626;0.058173068;-0.10401035;-0.06764641;-0.065573946;0.052250843;-0.051618516;-0.014714097;0.03406856;0.008696784;-0.009494792;-0.072432615;0.059012406;-0.041947518;0.09274585;0.017737936;0.033505764;-0.065914586;-0.012254238;-0.07878213;-0.1104843;-0.058251034;-0.05090779;-0.17064492;0.0019248195;-0.09071857;-0.026268516;-0.043268833;-0.058432937;0.03184199;-0.10733572;-0.021978863;-0.0043946276;0.058186684;-0.019855103;0.029440526;-0.18286413;-0.036760237;-0.12236778;0.036498144;-0.023963323;-0.07725816;0.05348394;-0.05169526;-0.004890252;0.049744964;0.045244493;-0.107986495;-0.15414646;-0.08467488;0.008925413;-0.07651902;-0.013066041;-0.05485693;-0.09916402;0.027615327;-0.12182478;-0.13371353;0.11276594;-0.061748657;0.056723107;-0.045353454;-0.17272955;0.04076741;-0.0027175108;-0.029804926;0.009394275;-0.026431011;0.052506056;-0.0745813;-0.0140580535;-0.066994965;-0.10703292;-0.05380056;-0.08723829;0.007292639;0.023823263;0.030905597;-0.11331929;-0.038811054;-0.049541652;-0.053176053;-0.0024996074;-0.055815;-0.029773794;0.010440474;-0.058924884;-0.0020321754;-0.072449915;-0.10609299;0.029269617;-0.021850146;0.0095542455;-0.01405672;-0.09492991;-0.0042038336;-0.018494429;-0.010766848;-0.07779678;-0.10776091;-0.041126654;0.025651019;-0.10179415;0.035883375;-0.021159586;-0.07009573;-0.0372389;0.031935778;-0.02797774;-0.02584355;-0.038401656;0.023108557;-0.09016188;-0.1088003;-0.07858475;0.051931668;-0.006946045;-0.047139056;0.020605747;-0.06976085;0.062484637;-0.06713972;-0.09282696;-0.009025721;-0.06711334;-0.026264956;0.0015833715;-0.20948261;0.05937782;-0.10034336;0.016473264;-0.021929968;-0.034164526;-0.23375757;0.043776456;-0.08318062;-0.013050012;-0.050107718;-0.08679176;0.06839919;-0.039592538;-0.07037316;0.015129565;-0.0016190561;-0.096716635;-0.075118355;-0.04943758;0.026072254;0.022791613;0.000550776;-0.12274705;0.043853786;-0.036649033;-0.06796985;-0.048690565;0.049538992;-0.053745873;0.013342157;-0.06337235;0.051160708;-0.08673914;-0.005045293;-0.05032134;0.07981271;-0.037244316;-0.06997498;-0.027183998;0.03539018;-0.04423435;0.035900164;-0.120751545;-0.1388076;-0.023416119;-0.025099307;0.07496871;0.043219186;-0.013208516;-0.12284971;-0.07123871;0.017859979;-0.072888985;-0.02617683;0.012310321;-0.039542962;-0.06987678;0.06424939;-0.06538273;-0.078295745;0.074938275;0.037323005;-0.065832846;0.059076123;-0.019132638;-0.081862964;-0.09979005;-0.064545125;0.038511608;-0.10041259;-0.060165416;0.011242913;-0.0418035;0.036788285;-0.084806226;-0.08929315;-0.032587267;-0.048688583;-0.11796263;0.048543163;-0.08295784;-0.034292486;0.027370812;-0.060669884;0.05778194;-0.031422;0.07152843;-0.03650217;-0.041556038;-0.015326516;-0.066167586;-0.19539402;0.04977447;-0.07062154;-0.054290816;0.03665128;-0.055384073;0.016886385;-0.063043356;0.0254722;-0.04907343;-0.057424575;-0.041748606;-0.12197613;-0.090542495;-0.09625943;-0.015317556;0.07852503;0.022659993;-0.0732263;0.020585323;0.0024116747;-0.03363451;-0.08771238;-0.078486726;-0.09334237;0.015536241;0.0585657;-0.040224437;-0.05105867;-0.01533616;-0.049021933;0.00815567;-0.014677733;-0.01291257;0.03417982;-0.015392762;-0.01059904;0.0608453;-0.026620666;0.0075681256;0.1505915;-0.06317218;0.042393796;0.005732428;-0.037478767;-0.07955779;-0.07119953;-0.012137075;0.02977573;0.056884304;-0.09676902;-0.08911376;-0.02951522;-0.0141083645;0.06805217;-0.12132283;0.018907204;-0.07822552;-0.047578607;-0.035690732;0.024628066;0.011404576;0.020157466;-0.115589336;0.01587471;-0.0794372;0.06275199;-0.060090534;-0.0057985373;-0.010640031;0.0055045136;0.03653256;-0.09548925;0.0021140678;-0.031291842;0.035263136;0.13899228;0.0028407546;-0.018235503;0.019621108;-0.016571416;-0.060733348;-0.05938929;-0.02335226;0.021105528;-0.036816806;0.04624947;-0.06322947;-0.009757556;-0.072995774;0.039143994;0.007213552;0.013406876;-0.012343807;-0.16626202;-0.041561693;-0.05269492;-0.11547883;-0.19340345;0.06815049;0.057343025;-0.028895887;-0.005457751;-0.029227754;0.04730185;0.057347793;0.070199214;-0.022242557;-0.031384073;-0.1223372;0.01158989;-0.082191266;-0.01230291;-0.035324413;0.04755971;0.029061416;0.075033315;0.016104827;0.07045419;-0.021500912;-0.08489435;-0.090517886;-0.058134317;-0.10688945;0.05117874;-0.0043569244;-0.03164778;-0.12512673;0.06440457;0.07318992;-0.04245993;-0.006324673;-0.03095412;-0.032854617;-0.019791938;-0.09429351;-0.06915356;-0.025054483;0.014403067;0.023702279;-0.09468242;-0.07173783;-0.030670114;0.004120442;-0.028664814;-0.05794664;-0.028875237;-0.0009463234;-0.02111861;0.014478043;-0.08716786;-0.06240273;-0.047753148;-0.031149922;-0.12362941;0.031339653;0.05004625;0.0334605;0.0068268697;-0.015668323;-0.07224771;0.1175339;-0.11067832;-0.08681828;0.025876455;0.025775924;-0.012917978;0.005978409;0.031411186;-0.043388158;-0.10128172;-0.06812572;-0.09724262;-0.033589087;-0.12736475;-0.10389578;0.044783328;0.037676618;-0.026494604;-0.032716252;-0.050827388;-0.02092341;0.035502084;-0.06706838;-0.11138564;0.036565848;-0.11811188;0.14210993;0.011978127;-0.008911933;-0.076896764;-0.01125785;0.038355388;0.056861542;0.036565077;0.003979031;-0.016277276;0.017260011;-0.09091469;0.019041358;0.03097576;-0.1134196;-0.090608746;-0.05918815;-0.053206068;-0.031142935;-0.1172539;-0.05653861;-0.004090027;-0.118673235;-0.036258835;-0.055358957;-0.113681965;-0.11585775;-0.043146305;-0.26267955;-0.045045037;-0.08659604;0.023290483;-0.12383;0.050082;-0.05531314;-0.13802269;-0.074935414;-0.08483212;-0.016031614;-0.017778076;0.049685813;0.03877664;-0.026646035;-0.069377124;-0.05514946;0.022729183;-0.03874312;-0.029630482;0.023406137;-0.069223195;-0.13722712;0.030651279;0.026824223;-0.019790087;0.05375005;-0.03536985;-0.16938084;-0.04000072;-0.16014089;-0.07539668;0.0010974789;-0.01973391;-0.062741935;-0.094753385;-0.108735204;-0.048665263;0.037598167;0.023460653;-0.03740094;-0.019692296;0.055481028;0.02022212;0.016012536;-0.08825577;-0.105110936;0.008539914;0.028591828;-0.033505738;-0.01256238;-0.041456435;-0.012074746;0.020592846;-0.079171196;0.004539953;0.075947285;-0.091564424;-0.016004771;-0.06579581
-0.07413602;-0.100793146;0.02881669;0.07793347;0.0048314948;-0.045253888;-0.011290879;0.047610473;-0.058197595;-0.14820802;-0.1038154;-0.14359407;-0.027933167;-0.060548488;0.009043987;-0.08824601;-0.023550471;-0.085176826;0.061150376;-0.14102316;0.026787361;-0.06982798;-0.07840182;-0.061041165;-0.06863101;-0.04344066;-0.009039059;-0.0976306;0.020056022;-0.0025162762;-0.17527892;0.089040495;-0.011624765;-0.04012323;0.04494623;0.049725834;0.025644053;0.040829435;-0.013695053;-0.0344835;-0.047411907;0.054669846;-0.06952716;-0.1253324;-0.0278342;-0.10533948;-0.022686778;-0.033593196;0.052351795;-0.07069632;-0.056936927;-0.044807713;-0.09876458;0.095780134;-0.050483674;0.018424006;0.04383491;-0.045340803;-0.024290267;-0.027640041;-0.046080384;-0.09012191;0.068307295;0.055249523;-0.08365067;-0.10075066;-0.014962968;0.15152141;0.00030382755;0.029940657;-0.15332825;0.08078221;-0.0046073375;-0.01149392;0.054274473;-0.016056042;-0.07830639;-0.12807302;0.11469578;-0.031078437;0.026360512;-0.015783781;0.04482936;0.076261565;-0.07274879;-0.096625626;-0.05495866;-0.001877079;0.052923735;-0.07205968;-0.044939816;-0.06320849;0.020204052;-0.1562641;0.04963567;-0.0137454085;0.038312685;0.025067797;0.05972545;-0.07316098;-0.13206266;0.02377087;-0.04468021;-0.06262648;-0.018507736;-0.14761409;0.023082612;-0.021964448;-0.100681655;-0.061835494;0.032952823;-0.11300186;-0.086216085;0.08460853;0.026920686;-0.022474848;0.09111507;0.023296613;-0.19339329;-0.09156324;-0.101119526;-0.02597898;0.035880707;0.005476773;0.025806658;-0.046165563;-0.06562942;0.024197435;0.017726969;-0.03789499;-0.15153317;-0.14197153;-0.04578789;-0.09353951;0.03726067;0.0007765729;-0.038125787;-0.03584331;-0.13263345;-0.044738423;0.17410044;-0.096715115;-0.027150283;-0.017106531;-0.09675988;-0.04435783;0.09868881;-0.08317785;-0.11309225;-0.05316408;-0.072855175;-0.052466612;-0.030216794;0.045852315;-0.096081555;-0.0080871815;-0.098385766;-0.13358049;0.035788566;0.012652883;0.026080083;0.039907042;-0.04961969;-0.09857951;-0.11657656;-0.041997895;-0.026525792;0.022923576;-0.07029154;0.008432026;-0.09404752;0.0012673504;0.026385792;-0.038372114;-0.083737075;-0.10759764;-0.051832687;-0.079030946;0.0056190733;0.025256144;-0.084716424;0.03634882;-0.088936105;-0.08418236;-0.12819852;-0.08393126;-0.07943427;-0.064298615;-0.03102323;-0.07168292;-0.1026289;-0.021545378;-0.00076472934;-0.10705798;-0.11127237;-0.018784007;-0.018333051;0.11414707;-0.021017106;0.038555592;0.017474087;-0.01613327;-0.07612703;-0.026739199;0.006668928;-0.07589718;-0.09338872;-0.10752362;-0.037171457;-0.10423139;0.016942099;-0.008729754;0.060929004;-0.035806417;-0.07066642;-0.23543546;-0.10555064;0.041023515;-0.026956862;0.005519092;-0.09837959;0.024350243;-0.049428493;-0.014101114;-0.029068658;-0.059171397;-0.12061329;0.019187432;0.07501262;-0.040581387;-0.05347683;-0.035471406;-0.089950934;-0.087074935;-0.1099074;-0.036359552;-0.09098268;-0.03190456;-0.057077475;-0.004224525;-0.06289461;-0.037733927;0.013191291;-0.0006630336;-0.026660142;0.13640223;0.036416028;-0.07057349;-0.021879937;-0.018469108;0.037746698;-0.019629529;-0.023207627;-0.031841386;0.043397326;0.023452066;-0.031046627;0.025085373;-0.09679933;-0.020085748;0.046010494;-0.01874644;-0.11124453;-0.020913506;0.011485376;0.024123706;-0.018053032;0.031489328;-0.023395566;-0.0012473825;-0.010645504;0.06007529;-0.07058415;-0.07462218;0.053403337;-0.07072086;-0.04149051;-0.04566193;0.016070923;-0.01717529;-0.033086386;-0.0464118;-0.022736918;-0.08524152;0.016812226;-0.03170113;-0.05617028;0.003890069;-0.1005249;0.008257766;0.01670544;0.05281201;-0.10501562;-0.06920889;-0.024820052;-0.15160608;0.077640936;-0.02982238;-0.002241594;0.053215533;-0.114727125;-0.20504154;-0.059295427;-0.06441273;0.09906199;-0.064182155;0.020042734;0.0060371165;0.024090707;0.028516045;0.07620278;-0.10002163;0.07291511;-0.09908877;-0.09992884;-0.008730721;0.02051679;0.06650453;0.06480644;0.053266197;-0.06550225;-0.056754176;-0.09131118;0.033097427;0.012131127;-0.054911748;-0.07512408;0.077828296;0.020378435;-0.124374166;-0.049404774;-0.0026011134;-0.025060186;0.073553495;-0.06287947;0.037535623;-0.04908515;-0.0035366812;-0.042739503;-0.085828945;0.08145752;0.16654617;-0.06177981;0.193882;0.041413847;-0.120087914;-0.064165816;-0.054771606;0.02194618;-0.048775747;0.043404903;-0.11516473;-0.093211755;-0.0037495717;0.04566632;-0.0023345703;-0.07881335;-3.8804435e-05;0.030644715;-0.011149535;-0.026134705;-0.04748466;-0.11356829;0.0047340603;-0.09795294;-0.0706575;-0.054088462;0.019379698;-0.062519304;0.033050183;-0.1179207;-0.00992396;-0.0764257;-0.10112125;-0.036040347;-0.040248692;-0.031069506;-0.0050544823;0.049298495;-0.01261326;-0.048261996;-0.016295217;-0.14759172;0.009862855;-0.097229585;0.11042704;0.030182648;0.06633829;-0.013015291;0.01628175;-0.05866861;-0.058429677;0.026041418;0.029601695;-0.006196738;-0.15025006;0.015118693;-0.081100106;-0.13621852;-0.10081531;-0.00503898;0.03562984;-0.016796134;-0.0279555;-0.001986174;0.054121014;-0.03355544;0.055406626;-0.039911434;-0.14914653;-0.078644164;-0.12941827;-0.1254907;-0.067531794;0.07029619;-0.0031746053;0.03634555;-0.004017961;-0.05693024;-0.044257324;-0.09666469;0.008562443;-0.07699341;-0.003741989;0.051392455;-0.055683605;-0.021030592;-0.12932059;-0.1325337;0.018642314;0.049901493;-0.0028738799;-0.07435355;-0.021729039;-0.14367142;-0.007487691;-0.026531337;-0.024179742;-0.06338293;-0.050414655;-0.08223807;-0.030293737;-0.013948278;-0.10361377;-0.09321166;0.03618099;0.057781707;0.04406465;-0.04508872;-0.05405669;-0.11207563;0.03211964;-0.13238387;0.04484783;0.07107542;-0.058840107;-0.027312417;0.04931917;0.014190687;0.024860978;-0.08317078;-0.06577387;0.16453508;-0.092303075;0.032925114;0.05587081;0.04597643;-0.13618399;-0.024606077;-0.054255057;-0.0038943624;0.015944948;-0.058508154;-0.040669776;-0.083596095;-0.05873555;-0.07480444;-0.11106019;0.10888803;-0.036579926;-0.027801692;-0.04560623;-0.019192882;-0.00048527835;-0.05739205;-0.07893936;-0.02136768;-0.08462745;0.005401062;-0.031192906;0.04389246;-0.03227608;0.02532667;0.031882793;-0.042818394;0.014200441;-0.041222703;0.036009196;-0.009580863;0.022966964;0.15199654;0.0379018;-0.02374898;-0.02269503;0.039753355;0.03450254;-0.08503265;-0.012642242;-0.041354474;-0.021152508;-0.031221649;-0.007846272;0.0031709326;-0.11731848;-0.1021215;-0.06246773;-0.25126263;0.050238032;-0.06858347;0.009446012;-0.07165003;-0.0069740205;-0.04708247;-0.10769289;-0.05556039;-0.06758426;-0.08048971;-0.07594551;-0.105164476;-0.056748763;-0.002608714;-0.07035018;-0.07667392;-0.09663916;0.0015972649;0.099547155;-0.023753632;-0.09334922;-0.07550628;-0.07934461;-0.014267313;-0.03802146;0.014966943;-0.121351026;-0.09443066;-0.015669271;-0.109264135;-0.020786498;0.039436474;0.04384351;-0.09085405;0.00243771;-0.12260706;-0.02854333;0.039240807;-0.047069736;0.0439374;-0.054099146;0.09872388;0.06731962;0.029515542;-0.026150022;-0.08204178;0.08555567;0.041588288;-0.047116008;0.10585719;-0.03309847;-0.071357384;0.017961053;-0.09672985;-0.06887608;0.08438738;-0.054764733;0.03930309;0.05232927
-0.116362184;-0.01237461;0.035310518;-0.008692417;0.019913888;-0.0033600996;0.054831676;-0.10431249;0.06384273;-0.073085465;-0.07822968;-0.034427;-0.16241278;-0.029561408;0.066338904;-0.06644939;-0.0050624823;-0.060192805;-0.036457874;-0.07544443;-0.05184406;0.058156565;-0.07727245;-0.06352883;0.008822245;0.067728184;0.032881983;-0.10974591;-0.02602122;-0.061757;-0.13034754;0.036327843;-0.051138956;0.10629432;0.013248447;-0.05507538;0.04199647;0.043269817;-0.011632662;-0.0057014413;0.046652522;0.03087432;0.062209688;-0.045203216;0.046364293;0.004951342;-0.042985283;-0.0057563204;0.082897246;-0.05941434;-0.08821621;-0.14893493;-0.07901244;0.058573324;0.06234149;0.024077471;-0.087111615;0.012002305;-0.04167927;-0.015780384;-0.043630216;-0.12861454;-0.042757023;-0.059220947;0.052472115;-0.02066885;-0.019145526;0.07142431;-0.041647565;0.044615395;-0.077582195;0.11534546;0.02422973;-0.049957354;0.022490747;0.007012031;0.051188443;-0.044998005;0.028656403;-0.0751555;-0.031829383;0.020454409;-0.09471423;-0.065256834;0.007443611;-5.8069734e-05;-0.109295405;-0.03236798;-0.03615294;0.041561972;0.015528127;-0.09363593;-0.0076462966;-0.14999177;-0.021435073;-0.02859461;0.013231185;0.040478677;0.01830356;-0.043601554;-0.048638448;-0.048683774;-0.109205104;-0.020535028;0.024099125;-0.16216;-0.06958149;-0.0059634657;-0.06676392;-0.04603305;0.083666325;-0.033972528;-0.07330471;0.071099386;-0.068682246;0.023371644;0.035190307;-0.060948458;-0.1528309;0.009043101;-0.05852352;-0.029349158;-0.122222744;-0.07841828;-0.030130928;0.037163176;0.058812678;-0.06444033;-0.08504822;-0.03396385;-0.0013268188;-0.022840159;0.014522241;-0.0070174043;-0.09396841;-0.07071294;-0.097762235;0.0033116078;-0.19874913;-0.09133001;0.090447366;-0.008583226;-0.06647347;0.010809158;-0.116740674;-0.079785556;0.0472852;-0.0053661903;-0.11832155;0.0036214183;0.018366098;-0.011196411;-0.049924407;-0.048207916;-0.0354481;-0.085001;-0.096688;-0.12507577;-0.0092374245;-0.045292486;-0.11111322;-0.085914984;-0.09341239;-0.039574966;-0.116935104;-0.050219834;-0.095083475;-0.046290763;-0.008313994;-0.007872929;-0.08452748;-0.05472974;-0.09940738;-0.08918686;0.0056337384;0.002826608;-0.070862025;-0.06648097;0.07725338;0.013247817;-0.12509641;-0.059346702;-0.08595187;0.06752499;-0.14818358;0.035156474;-0.04033969;-0.027453775;0.05847666;0.062236533;0.015689086;0.0070361914;-0.0317798;0.01237048;-0.019953156;0.015278943;-0.043059196;-0.025439363;-0.07353551;0.06074569;-0.08529079;-0.042432513;-0.050378136;0.018063568;-0.030439977;-0.008098588;-0.006499793;-0.12320763;0.008359885;-0.13956799;0.06241643;-0.11737861;-0.022757137;0.030583605;-0.08358365;-0.18043503;-0.027925448;-0.071471825;-0.07286027;-0.012349145;0.05574557;0.13512158;-0.015389202;-0.035759263;-0.0958026;-0.025126083;-0.15136337;-0.021125456;0.04253098;0.038582947;0.0020704782;0.0972429;-0.054362662;-0.04533618;-0.029161455;-0.040872023;0.05563414;-0.03938033;-0.027483532;-0.024294674;-0.010699101;-0.082997076;-0.0056384783;-0.10517432;-0.019602833;0.06802988;0.0064657363;-0.057732116;-0.02180025;-0.03419313;-0.10564465;-0.05907148;-0.020030575;-0.17056465;-0.005929031;-0.08362594;-0.05002749;-0.1005975;-0.045482617;-0.1082668;0.008455624;-0.02354819;-0.0077345646;-0.102126524;0.005542537;0.057850923;0.009888679;-0.04730629;0.043514658;0.036869176;0.10709996;0.14827201;-0.037372835;0.019601472;-0.07470543;0.035380285;-0.06083161;-0.056984674;-0.0786019;-0.073047444;0.06713953;-0.040073764;0.0038406327;-0.080883965;-0.0663027;-0.0769458;-0.09389074;-0.056745514;-0.12816817;-0.01424346;0.032447483;-0.055178422;-0.01342979;-0.090549216;-0.10566296;-0.12364922;-0.045342267;-0.05698864;0.021547856;-0.07399694;-0.07513573;-0.09810531;-0.082524545;-0.013487434;-0.019879233;-0.08031085;-0.06994337;-0.009897267;-0.047665816;-0.033467997;0.016359577;0.018336853;-0.027684366;-0.19060093;-0.11292642;0.009957735;0.0698625;0.13692749;0.02683403;0.042158745;0.0062820604;-0.11161715;0.05741324;0.03807817;0.007538921;-0.08473555;-0.0594813;0.010389105;0.04107879;0.007416707;-0.054916903;-0.021533212;-0.05556463;-0.0013943253;-0.05678522;0.009872056;0.046680417;0.07365814;0.08214644;-0.089834206;-0.0403023;0.0767057;-0.057172246;0.14696237;-0.041365076;-0.02190535;-0.009403055;-0.10280844;0.008793341;-0.04663487;0.0046196897;-0.003920332;-0.07492191;-0.009952521;-0.025363624;0.08668353;-0.032326885;-0.07057941;0.06368155;-0.13731205;-0.0765771;0.029659614;0.0030678774;-0.118752874;-0.12594879;-0.081887186;-0.03817004;0.009476627;-0.03973759;-0.03586211;-0.037955485;0.07839511;-0.029724898;-0.06928477;-0.009431828;-0.04729675;0.008409228;0.060688168;0.00050109724;-0.090199865;0.046823584;-0.105671436;-0.12779595;-0.09423049;-0.093845025;-0.021579716;-0.0014002965;-0.038600106;-0.0075568;-0.041554864;-0.06751878;0.012356359;-0.105394214;0.02136942;-0.0534537;-0.05729532;-0.02324721;-0.16391999;-0.13788253;-0.17251506;0.07108074;-0.07621733;0.08505896;0.10417314;0.06651718;0.027971787;0.0022610826;-0.036514178;0.030805329;-0.12932892;0.017156152;-0.089336246;-0.079725035;-0.049589902;0.017848246;0.05054249;-0.080550775;-0.06356148;-0.012729328;-0.020657808;-0.06642227;-0.011553429;-0.049617033;-0.030023841;-0.08811993;0.013926093;-0.080076285;-0.11738077;-0.030740531;0.062932566;0.051553126;0.051772606;-0.078593865;-0.09881161;-0.08154739;-0.02718038;-0.124445654;-0.15925303;-0.09528181;-0.01463298;0.0648496;-0.09141049;0.023709195;-0.0025335588;-0.037232026;0.081325695;0.058979332;-0.040440623;-0.08624521;-0.07741814;-0.06774461;-0.0716586;-0.11788321;0.038721994;-0.025411468;-0.09382705;-0.07177366;-0.033971388;-0.04414435;-0.052137565;-0.11716069;0.06165624;0.15550107;-0.08265349;0.013481864;-0.07173391;-0.028941898;-0.14155906;-0.080850616;0.04251839;-0.038804088;0.0052869376;-0.10231627;0.05704782;-0.053152412;0.029889746;-0.09718628;0.01232557;0.0067669135;-0.082485914;0.005626868;-0.039627124;0.04207245;0.09817262;-0.11030279;-0.05503452;-0.03183572;-0.052264616;0.07528534;0.020607652;0.07317461;-0.13594718;0.024656432;-0.07375989;-0.005410434;0.03792986;0.008717383;-0.01793394;-0.113428906;0.029907765;0.13952611;-0.079710044;-0.018520903;-0.040353924;-0.040704183;0.0041788253;-0.021806529;-0.12430593;-0.042920325;-0.08952143;-0.12289618;0.044823594;0.030599715;-0.084331594;-0.043689672;-0.10305411;-0.25853592;-0.065212615;-0.041846875;0.12537496;-0.027020566;-0.06253764;-0.05163565;-0.15135513;-0.0164348;-0.08499584;-0.053658765;-0.116903424;0.038730107;0.057434008;-0.012281191;-0.009216522;-0.0036508963;-0.075975716;-0.04926698;-0.0030370012;-0.08508719;-0.039286546;-0.09709792;0.0532885;0.030542893;-0.06473087;0.073141195;-0.054456234;-0.029742243;-0.03662738;-0.07374454;-0.03561969;-0.11193242;-0.063119635;-0.022487545;-0.03533288;-0.0865674;-0.13241024;-0.11145822;0.0955724;-0.08094581;-0.0050516482;0.021421246;0.112437926;-0.015917731;-0.02607382;-0.09426912;0.016183259;0.014269437;-0.002185344;0.08427789;0.07260174;-0.088623;-0.07061107;0.044272605;-0.05333676;0.14467275;-0.024188813;0.023689378;0.048735637
0.0044443207;-0.12959984;0.00041216254;-0.08188538;-0.06886483;-0.041686665;-0.013247698;-0.09262525;0.0060103885;-0.06678446;-0.075034164;-0.028481018;-0.07299522;-0.06801272;0.0077752345;0.0109869875;-0.05927151;-0.042400923;0.06422427;0.014141548;0.028280793;0.047541372;-0.031154914;0.012731428;-0.080899514;0.018914632;0.0407289;-0.081465505;0.03228237;-0.05262746;-0.07298392;-0.023184257;-0.099979684;0.106967434;0.013037097;-0.05764301;0.037021983;-0.040981553;-0.049512684;-0.07667715;0.032359745;0.10412831;0.06834637;-0.07115892;0.054629825;-0.09824592;-0.06994726;-0.0829099;-0.023652922;-0.03709655;0.016322704;-0.02987656;0.00041337957;0.08223417;-0.021694718;-0.060456313;-0.017845346;0.049522124;0.03342825;0.061507527;-0.06251779;0.0077884467;0.035121825;0.04078313;-0.03451058;-0.07433748;-0.009758027;0.044690073;0.051491022;-0.070965186;-0.039962787;0.037570782;-0.081097215;0.085072204;0.07437152;-0.018998442;0.002681686;-0.09704341;0.07084377;-0.02024458;0.046833355;-0.06291348;0.016155126;-0.017260497;-0.07498351;-0.028193878;-0.06261668;-0.03594267;-0.09145716;0.033494733;-0.04307182;-0.08589711;-0.088005394;-0.073834464;0.061093938;0.009747993;0.04667745;-0.07539979;-0.011517854;-0.03253745;0.025060108;-0.013992279;-0.07934205;-0.008644357;0.047159806;-0.06844598;-0.04416706;0.012377587;-0.08103679;-0.11234332;0.041097075;-0.04029962;-0.038760234;0.09014392;-0.11881257;-0.09255443;0.12316791;-0.018667057;-0.15351498;-0.03005114;0.07133702;-0.10654825;-0.056196198;-0.050783653;-0.06657689;-0.0668256;-0.0911345;0.0067167724;0.01612843;0.009873531;-0.010623649;-0.08806462;-0.06390333;-0.047820147;-0.012088161;-0.10992705;-0.07879546;-0.07428779;-0.17095485;-0.023212323;0.051481288;-0.079972655;0.05499163;-0.0856759;-0.13829929;-0.05050487;0.10928872;-0.09296311;-0.0820026;-0.080759875;0.021374248;-0.081924155;-0.051241927;0.041228414;-0.056656566;-0.023583312;-0.062417183;-0.034742825;-0.055500757;-0.029821007;-0.07807311;-0.08967497;-0.011678935;-0.10064109;-0.09593944;0.065673344;-0.018354412;-0.044090517;-0.071893506;-0.044307657;-0.042390082;-0.1174229;-0.10341418;-0.006737225;0.03702857;-0.05583211;-0.064229436;-0.020826112;-0.060951207;-0.08614505;-0.18086657;0.022287296;0.058946185;0.03077158;-0.013395817;-0.01318086;-0.014757294;-0.11408258;-0.07374567;-0.053140137;-0.09965252;-0.01747925;-0.11648532;-0.049513023;0.018882107;0.02514745;-0.023432897;0.0237581;-0.015614827;0.005603171;-0.028828772;0.0988857;-0.005573434;-0.06460157;-0.119313344;-0.097765386;-0.04892628;-0.023481991;0.029001143;-0.11666206;0.07911713;0.04429193;-0.01801811;-0.048217766;-0.00017340417;-0.15523829;0.0435001;-0.08715971;-0.00028738842;-0.014979253;0.038652956;0.11624783;-0.017545007;0.02320654;-0.049703896;0.046720393;-0.15393402;0.04943313;-0.08312863;0.051060274;-0.014787119;0.077090435;-0.098811865;-0.1273107;0.017265182;-0.100304864;-0.020661429;-0.08303012;-0.030696174;-0.027004963;-0.013225249;-0.07642164;-0.06080364;0.03062605;0.00036111168;0.041290127;-0.0017633026;0.03239954;-0.0002111205;-0.05561157;0.025387732;0.011323135;-0.021725643;-0.06394122;-0.016090231;-0.13408792;0.08467327;-0.03667159;-0.070776425;-0.025484586;0.03483752;-0.08595065;-0.044185404;-0.06722685;-0.13867839;0.0052941698;-0.09135045;0.033220343;0.031148216;-0.016955957;0.003449552;-0.008061953;-0.004602836;0.038364984;0.040513854;0.0007123724;-0.00066859706;-0.025183337;-0.13497083;0.004982541;-0.006387791;-0.053965427;-0.07073107;0.022659635;0.0409171;-0.07055104;-0.0849853;0.013718621;-0.07864898;0.041739557;-0.0022718476;-0.06862605;0.011105019;-0.0018707596;-0.049370635;-0.036854208;0.07046752;0.027046291;-0.09998465;-0.021051453;-0.06978908;-0.041829396;-0.07413993;0.044097938;0.030688485;0.043869935;0.0022388385;-0.020389365;-0.05543002;0.05061491;0.029024733;-0.031789646;-0.0067565725;-0.15621586;-0.07581895;-0.07468686;-0.035405334;0.066843204;-0.0051890435;-0.04815179;-0.09263772;-0.11719566;-0.0828238;-0.0675819;-0.0003895016;0.0027051908;-0.03841603;-0.07510593;-0.013438048;-0.04226408;-0.09227096;-0.022952925;-0.064164296;0.10748618;-0.064740345;-0.090959996;0.05684237;-0.07805797;-0.09016601;-0.026025055;-0.040309943;0.15440795;-0.032433096;0.16918024;-0.046642933;-0.04433062;-0.049528554;-0.005178552;-0.065382674;0.045466676;-0.024032008;-0.015854705;0.028753085;-0.060521536;0.13450186;0.06512687;-0.04438159;-0.02628122;-0.07765103;-0.011344468;-0.003686669;0.015926633;-0.040761065;-0.10409924;-0.05697698;-0.10946176;-0.05261605;0.0067965277;-0.031150825;-0.075044714;-0.05091321;-0.03454723;-0.0057656458;-0.0410901;-0.089714564;-0.050379183;-0.0029725141;0.115114;-0.09907207;0.050935224;-0.044471968;-0.09303782;-0.04483792;-0.08317945;-0.06242264;0.09524855;0.024226245;-0.077185735;-0.07477925;-0.08935801;-0.087824054;-0.065430254;0.053823918;-0.004049236;-0.080099255;-0.13126191;-0.034785464;-0.14810377;-0.1360521;-0.03924829;0.052122585;-0.072753035;0.08974668;0.020045644;-0.047446873;0.06705685;-0.05308926;-0.032947566;-0.07485813;-0.077582076;-0.022213781;-0.10395369;-0.10392919;0.0029744266;0.061946314;0.0042848885;-0.09697681;0.041476823;-0.0805201;0.1114679;-0.024465002;-0.07542233;0.008117211;-0.055823065;-0.020600807;0.08394167;-0.07699967;-0.04491218;-0.121547244;0.019731313;-0.047427665;-0.012861851;-0.066954605;-0.08493757;0.008145836;-0.04489987;-0.03153108;-0.15543164;0.03478343;-0.028218118;0.04272253;-0.07887077;-0.06894181;-0.013247468;-0.067854606;-0.041124593;0.04476304;-0.016144222;0.052567974;0.007385952;-0.095311955;0.043401156;-0.122588284;0.09892259;-0.018406263;-0.035019588;0.029479107;0.00253266;-0.07075824;0.032524683;-0.06253726;0.041449506;0.028929321;0.03337961;0.010465332;0.0069542206;0.05849031;-0.12414018;0.043124545;-0.03199116;-0.086574614;0.00023073086;-0.0376363;0.013518345;-0.095675446;-0.012332582;0.044723857;-0.011893797;0.0019274936;0.04656199;-0.060423154;-0.012801868;-0.1075218;0.0362584;-0.093331166;-0.08893982;0.05024594;-0.13623545;0.0053053093;0.0063179154;-0.01184469;-0.11756345;-0.0036106326;-0.09120226;0.02413794;-0.042282276;-0.027907124;0.032173313;-0.029719654;0.04763129;0.12592484;-0.071610734;-0.1185629;-0.02107657;0.010729499;-0.090413846;-0.047213454;0.0052450406;0.034335814;0.05293459;0.00012237846;-0.08209651;-0.108799145;-0.08366351;-0.02232802;-0.054858997;-0.23081186;-0.1007418;-0.07684774;0.020862363;-0.017391339;-0.11313125;-0.017927755;-0.098680444;-0.011476081;-0.04114698;-0.08878516;-0.06618772;0.020588567;-0.063592404;0.04979368;-0.026377412;-0.12232949;-0.03738632;-0.004400387;-0.0013148886;0.015708968;-0.048090212;-0.11518876;0.054405615;-0.0129941;0.05969234;-0.03884642;-0.04582293;-0.09964896;-0.0064418204;-0.11714669;0.014601607;0.01198779;-0.033554457;-0.06932211;-0.08418994;0.035625685;-0.13022102;-0.0037341316;0.09741243;-0.042106826;-0.09873847;0.020932836;0.082962416;0.0021518304;-0.042832483;-0.020731721;0.036926083;-0.045960665;-0.051464938;0.10262236;-0.0059768255;-0.025257116;0.048358276;0.04578435;-0.10397718;0.09608567;-0.0745526;-0.0545691;0.03771461
-0.104818605;-0.009171861;-0.020869486;0.0631405;0.017513864;-0.09922893;0.08091932;-0.03769336;-0.10149563;-0.09846164;0.012932742;-0.07008197;-0.041027963;0.020509554;-0.03505112;-0.038655244;0.02544754;-0.062302794;-0.04705002;0.021681953;-0.026510857;0.040953413;0.02447104;-0.10205361;0.018374097;-0.08932171;-0.05029017;-0.10605044;0.12670045;0.021407088;-0.06844184;0.11259471;0.010959331;0.012156489;-0.08896852;-0.082870886;0.10927909;0.03959176;-0.07021136;0.048610542;-0.017825717;0.13312486;-0.008354358;-0.12833658;0.014559222;-0.099059284;-0.0033587085;-0.038039476;0.0038298024;-0.0017047192;0.033081453;-0.06629179;-0.001396746;-0.014730077;-0.04121047;-0.022919923;-0.04915475;-0.013793604;-0.087956995;-0.100135915;-0.008561829;-0.0010822244;-0.025435137;0.03656725;0.023443045;-0.07287297;-0.098874845;0.1281787;-0.03648043;0.013609072;-0.031513676;-0.010046717;-0.024173852;0.044368766;-0.07751562;-0.0033096143;-0.08276916;-0.06983519;0.017896485;0.010147637;0.043173566;0.045584127;-0.09722109;0.063046806;-0.013754111;-0.05548173;-0.05383327;0.025717504;0.049106084;-0.031577565;0.0014052606;-0.015757047;-0.06182016;-0.052898802;-0.043480065;0.013147229;0.16910183;-0.077263296;-0.05937334;-0.07429253;0.02341235;-0.07558308;-0.02761519;-0.11556279;-0.0020382917;-0.11320257;-0.0027877418;-0.03806072;-0.02182331;-0.07512503;0.032791346;-0.046026345;-0.12070808;0.05043482;0.016704693;-0.06066381;0.123840526;-0.005115376;-0.19684623;-0.07782109;0.00017932575;-0.0661678;-0.12665048;-0.027654853;0.055028014;0.041295934;0.030290527;-0.030551003;-0.041439842;-0.09848238;-0.12109818;-0.042337105;0.037731864;-0.07172429;-0.017600415;-0.009826823;-0.041545082;-0.015687574;-0.13664056;-0.050352544;0.10208906;-0.00804641;-0.08835386;-0.037419956;-0.15887332;-0.07505012;0.024006417;-0.003958634;0.01737093;-0.062985025;-0.04740598;-0.059585158;-0.055943284;-0.08667336;-0.09339391;-0.13383804;-0.10596395;-0.0006107443;-0.08880098;-0.07623267;0.04353128;-0.011762088;-0.01414545;-0.123147264;-0.11665094;-0.051232677;-0.047241196;-0.025569728;0.028521096;-0.05826111;-0.047851168;-0.05733992;0.02744196;-0.058023635;0.03890518;-0.056594066;-0.06697475;-0.0025682487;0.028821029;-0.10330587;-0.03847345;-0.046102054;-0.034474954;0.06406612;-0.02164143;-0.025900912;-0.007926529;-0.026571443;-0.056189068;-0.04216945;-0.123457536;0.0071211546;-0.11028078;-0.039742272;-0.048091244;-0.01851965;0.0041959877;0.099103674;-0.09559989;0.03997344;0.010647126;0.08316714;-0.012337732;0.060384408;-0.11769196;0.049017973;-0.091858625;-0.008565568;0.055733588;-0.12933196;-0.037711456;-0.044212036;0.034531847;0.04310199;0.022699852;-0.13725977;0.015942195;0.026243815;-0.11583466;0.04136547;-0.037785973;-0.010831052;0.034407616;0.0022203082;-0.06198409;-0.08544437;-0.009805473;-0.082246274;-0.010498829;-0.0741352;-0.0749656;-0.009730695;-0.022306632;0.021639975;0.035832413;-0.105429105;-0.0043101436;-0.021049615;-0.042430136;-0.07409269;-0.0068581873;0.0029321632;-0.02714829;-0.093718514;0.0025233137;0.0653507;-0.11924825;0.019870935;-0.032429423;0.046349086;-0.09150299;-0.035427332;-0.056916434;-0.13915245;0.05268726;-0.10894276;0.093514115;-0.11230347;-0.013836299;-0.041591965;-0.06857077;-0.11060501;-0.115956746;0.026185064;-0.078840345;0.02695647;0.027339417;-0.05341456;-0.016076509;-0.025821164;-0.0070943283;0.08134631;-0.058164038;-0.088676654;0.004189452;0.04512086;-0.051820483;-0.027527008;0.011849264;-0.05823275;0.044742156;-0.056972552;-0.049391177;-0.01599487;-0.09804801;0.036845263;-0.09491217;-0.059576027;0.0014930562;-0.089212894;0.063287176;-0.07861766;-0.055481825;0.010675972;-0.041723177;-0.11995055;-0.0075111366;0.07871454;-0.028103234;-0.05437067;-0.082484476;-0.056601346;-0.016480997;0.016801286;0.06754757;0.03305531;-0.08982106;-0.08630608;-0.09909736;-0.028923022;0.002375699;-0.03921953;0.06582824;-0.07431106;-0.030956063;0.03404208;0.093013175;-0.027834067;0.0207536;-0.022531297;0.025720429;-0.059881277;0.047927648;0.0038483993;0.041453756;-0.03437231;-0.096148096;0.067781515;0.038331043;-0.085000455;-0.032267235;-0.03929384;-0.0549746;-0.03608477;-0.110510476;0.03934201;0.0665041;0.02457683;-0.0070949662;-0.020769767;-0.058955982;0.079927705;0.031224515;0.02805628;0.040904846;-0.086169794;-0.12079233;-0.100319065;-0.017713165;-0.07020989;-0.10294529;-0.12324508;-0.049980726;0.03963039;0.09780192;0.079422615;0.040960535;0.055698793;-0.08189651;-0.12844102;-0.07178554;0.051385913;-0.07726805;0.05656973;-0.100699276;-0.07674661;-0.018622693;0.061168436;-0.121723235;-0.05191794;-0.10816175;-0.039059866;0.034468934;-0.12140119;0.035608772;-0.0045243055;-0.091526665;0.104188584;-0.0142126195;-0.03836747;-0.09029472;-0.020392101;-0.18460825;-0.060952175;-0.055236027;0.032871038;-0.011242759;-0.07552234;-0.019865062;0.034049116;0.03012497;0.015950277;0.0027503422;0.010857249;-0.024175314;-0.18241031;-0.014847715;-0.102468625;-0.12274249;-0.042167705;-0.07078388;-0.057332035;-0.06185962;-0.040435538;0.04978527;0.016974304;0.018426131;0.013483997;-0.009629671;-0.12224233;0.04887619;-0.026644405;-0.045311652;-0.032324158;-0.016731849;-0.065180354;-0.019425193;-0.019141031;-0.10666468;0.045725323;-0.094010785;-0.08591587;-0.063447274;0.011226832;-0.041555963;0.07466644;0.07260967;-0.074949086;-0.0004709578;-0.02136249;-0.036618724;-0.040612556;0.0019948296;0.008263641;-0.06490924;0.013527368;0.01501314;-0.04051103;0.06507273;0.021291334;0.01133522;-0.051560197;-0.036815435;-0.07839505;0.049610324;0.022989698;-0.04693876;-0.047509644;-0.0291408;-0.048274692;-0.105821155;0.052386943;-0.012654746;0.08864445;0.05496046;-0.14059752;-0.052061383;-0.107786976;-0.08908534;0.001099257;-0.1695852;0.06567427;0.058837175;0.005342436;0.019148065;-0.08314702;-0.0051070065;-0.038401827;-0.03253589;-0.090701945;-0.0027425336;-0.09259671;-0.120821275;0.034757614;-0.08194162;-0.08048914;0.05951901;0.02811215;0.015624674;-0.045464095;0.05396287;0.04154923;-0.03429923;-0.0519487;0.019757992;-0.056453314;-0.07224126;-0.089534834;-0.033838674;-0.018376159;0.03420477;0.0038328322;-0.02032;-0.0024560313;0.021357134;-0.08528068;-0.008161337;0.040175974;-0.03250239;-0.07109031;-0.012388996;0.042523276;-0.031405218;-0.08222089;-0.035093043;-0.080935255;-0.09719392;-0.11484462;-0.028241675;-0.04704715;-0.029575638;0.050046705;-0.0023904298;0.026632499;-0.062318485;-0.034753457;-0.22522719;-0.020853736;-0.12183832;-0.024629483;-0.08628894;-0.06763211;0.05138034;-0.12781516;-0.09064169;-0.055311467;-0.013321738;-0.08855404;0.054958448;0.0034514589;-0.033198282;0.016494371;-0.0820875;-0.13339621;-0.07063241;-0.03817295;-0.004017922;-0.058075305;-0.11924449;-0.08308688;0.04510263;-0.085319474;-0.08573814;-0.11124709;-0.05090688;-0.0029056072;-0.10348608;-0.05457637;-0.010147014;0.015095999;-0.02234556;-0.11664226;0.03247058;-0.09928447;-0.106037386;-0.024780435;-0.06748579;-0.0346201;0.050846983;0.051136035;-0.049142774;-0.07321299;-0.00955357;0.011450566;0.04053548;-0.049139187;0.011329386;-0.09106283;0.002768061;-0.071611345;-0.06943225;-0.086983085;0.05590772;-0.01583558;0.01680448;-0.014558212
-0.096702546;-0.041875266;0.03732313;0.04368138;-0.114280336;-0.021273408;0.101524845;-0.10710288;0.011572359;-0.08096542;-0.04906245;0.01956108;-0.034849353;-0.041203905;0.025142267;-0.008006756;0.057613555;-0.12751694;0.001284681;0.005368778;-0.082755804;-0.09484841;-0.051607147;-0.037656676;-0.029810028;-0.09203608;-0.028577665;0.017003328;0.00026024628;-0.049418386;-0.07483911;-0.01606981;-0.094268456;0.07620618;0.02400685;-0.033792466;0.1314893;0.020364737;-0.07461454;0.04953574;-0.057497345;0.026058115;0.09266029;-0.00794376;0.08288621;-0.00046006322;0.022335062;-0.0315449;-0.085743465;-0.06068435;0.016036822;-0.06833537;-0.0528615;-0.034023214;0.00015651883;-0.016572556;-0.06901558;-0.06685811;0.0061715087;-0.045140605;-0.08044556;-0.03883656;0.121379964;0.026314767;-0.0033632994;-0.026671106;-0.07675099;0.13151142;0.0567046;0.030468041;-0.07965012;-0.012223666;-0.118265495;-0.021204578;0.058401003;-0.08185283;-0.005988543;-0.027699448;-0.097740605;0.027838001;-0.05705623;-0.031966176;-0.07788156;0.08882226;-0.07009277;-0.01239099;-0.03718136;-0.08337508;-0.099663414;-0.074525796;0.013026401;0.04986078;-0.04686271;-0.14775203;-0.017099231;-0.07681777;0.14084755;0.05819287;-0.105685264;0.048374187;-0.043864395;-0.10426282;-0.08115562;-0.03177344;0.031870164;-0.027328316;0.006705079;-0.065009765;-0.14385621;-0.1092778;0.057990685;-0.059204433;-0.090471245;-0.11176677;-0.030075911;0.04082954;0.039775748;0.0012513066;-0.12624522;-0.02021627;-0.060567543;-0.010444776;-0.03151464;0.002022629;-0.06275949;-0.050384868;0.07384466;-0.097477205;-0.08474681;0.019408979;-0.12267043;-0.010294174;-0.087175205;-0.049920056;0.020854177;0.019254116;-0.054093234;-0.10227714;-0.17064051;-0.016647074;0.183897;-0.027904283;-0.07879118;0.00912669;-0.049535006;0.038987055;0.03813291;-0.025543746;0.012331891;-0.01805421;-0.059911095;-0.08426133;-0.07024326;-0.06959983;-0.10105713;-0.07950648;0.018578894;-0.0969379;-0.05203305;-0.028407969;-0.09468088;-0.047124885;0.028204264;0.0042300783;0.00040431353;0.0109883435;-0.043860514;-0.08860359;-0.0035908914;-0.04703839;0.007402802;-0.095077716;-0.04272581;-0.064198285;0.044744685;0.024972819;-0.01211629;-0.08725663;0.058098424;-0.048086837;-0.040798504;-0.017480437;-0.02027777;0.033671472;0.009018734;0.023955034;-0.06483458;-0.1633966;-0.004637783;-0.062032316;-0.12408317;0.011537828;-0.021325745;-0.07069037;-0.09447643;-0.059851248;-0.025984498;0.11936062;-0.11504342;0.0069639217;0.02910154;-0.09035831;0.028173348;-0.09534916;-0.114867315;-0.033762537;-0.0059533454;-0.10555381;-0.07187919;-0.13098854;0.05361199;-0.020786216;0.022734342;-0.09912357;-0.07503487;-0.18974403;-0.03022161;0.024365254;-0.07469226;-0.013346596;0.039791234;0.07225481;-0.040653877;-0.113173954;0.0098619405;-0.11221495;-0.0019007517;-0.0668671;-0.00692641;-0.052943677;-0.08616485;-0.03404707;-0.04018185;-0.090813756;-0.00044556157;-0.1113275;-0.07897355;-0.019116258;-0.090106085;-0.057238612;-0.11375578;-0.082853705;-0.031492688;-0.041913323;-0.103588425;0.11892657;-0.0619318;-0.03793432;0.03605753;-0.10609257;-0.021228584;-0.029776923;-0.02242037;-0.07473484;0.009828669;-0.10272056;-0.022240654;-0.051278457;-0.11010491;-0.06729039;-0.038399186;-0.0051978757;-0.099832416;0.04060893;0.020265274;0.04880334;-0.045890108;-0.01331185;0.009017095;-0.027902003;0.009305816;-0.0060910876;0.07756124;0.01265056;0.058699515;-0.022133647;-0.010602424;0.022663405;-0.035185836;0.009580795;-0.12020779;0.06026096;-0.053570323;0.020332742;-0.09143986;0.045946952;0.029661762;-0.04066943;0.014395764;0.03927998;-0.04165731;-0.04765883;-0.005742837;-0.067150965;-0.10937508;-0.024276268;-0.110623345;-0.041257042;-0.07161621;-0.109304875;-0.08385736;-0.041484777;-0.037815113;0.029945277;0.10711281;-0.080938816;-0.049782217;0.050080005;-0.11666728;-0.058130234;-0.03322319;-0.075706735;0.008796901;-0.11965196;-0.099513814;-0.11081911;0.09359753;0.04357026;0.006135339;-0.0020669985;0.00914093;-0.020418402;-0.06736347;-0.102068804;-0.05990943;-0.018284854;-0.00943085;-0.039806947;0.025622206;-0.044823233;-0.010181066;-0.04425247;-0.079626255;-0.07151026;-0.007608105;0.041564092;0.03819673;-0.03681996;-0.06467982;0.015745668;-0.017090999;0.11656394;-0.020153424;0.044500038;0.016051406;-0.046787743;-0.115353666;0.05003476;0.04731555;-0.039192807;-0.014103384;-0.08691107;-0.10862009;-0.05235506;0.12829152;0.04879632;-0.09097983;-0.06906255;0.04809881;-0.06766431;-0.088291;-0.012364564;-0.11985673;-0.08234844;0.026954867;-0.10555436;-0.090764664;0.011792822;-0.11772048;0.04954754;-0.008844391;-0.040395137;-0.12498695;-0.09804923;-0.08671756;-0.046667542;-0.026028607;0.07461886;-0.10120545;-0.057258945;-0.008479064;-0.083680205;-0.16410664;0.05198955;0.015323872;0.063887686;0.03694771;-0.069292836;-0.020253247;-0.059559625;0.01502557;-0.066700704;0.047746476;0.041258723;-0.09577535;-0.19143097;0.03134431;-0.14653426;-0.14134575;-0.16097149;-0.09566302;-0.059399225;-0.021931106;-0.055011947;-0.030707937;0.057053197;-0.03297259;0.048340145;-0.09463076;-0.05072053;0.024260422;0.007853057;-0.13087343;-0.0011506529;0.038205087;0.04175569;-0.01048239;-0.06726577;0.04880322;0.0120776165;-0.025875216;0.06466964;0.0018150518;-0.025609612;-0.013393279;-0.005448775;-0.017745975;-0.06786565;0.020605706;0.029127264;0.035546575;0.029395087;0.094759434;0.0024089746;-0.10502806;-0.026028078;-0.0079044495;-0.11361224;-0.02045174;-0.030236162;0.009714055;-0.09987997;0.028878862;0.0452991;0.02851657;0.088885285;0.018610327;-0.08905632;-0.027261652;-0.06246184;-0.055401985;0.016214205;-0.08138639;0.05180237;0.011323614;-0.048136227;-0.09198652;-0.090073794;-0.120531745;-0.106014766;-0.040033635;-0.06748733;0.0796864;-0.015883433;0.014804444;0.00041675073;-0.043473545;-0.10988811;0.045621883;-0.014662445;0.03766351;-0.16950516;-0.0056569623;0.014297342;0.009523239;0.02583194;-0.024391716;0.053436235;0.006025788;-0.04546614;-0.080669954;-0.014103319;-0.0507522;0.030847715;-0.017208625;0.02768972;-0.098819226;-0.06338218;0.06417041;-0.09110489;-0.052335445;0.035555307;-0.07504092;-0.10803673;-0.08916479;0.0668149;0.016543573;0.026520953;0.042603645;-0.08298682;0.12814605;0.002680456;-0.061431207;0.049766492;-0.050815906;-0.06206066;0.017991336;-0.025662903;-0.1204608;0.013778212;-0.09416472;-0.039821733;0.024412626;-0.118280105;-0.11364437;-0.10327539;-0.22217289;-0.11628597;-0.06648556;-0.060136765;-0.03344738;-0.054451272;-0.035487752;-0.11429523;0.035118748;-0.064217195;0.069950834;-0.07874459;-0.08515054;-0.018968774;-0.03481044;-0.06535596;-0.07637184;-0.123713806;0.011208705;-0.03399032;0.049613435;-0.003383209;-0.0503834;0.030768892;-0.07424216;0.052162733;0.019544268;-0.101717696;-0.13030705;-0.091055654;-0.12159403;-0.03133834;0.030612724;-0.05114335;-0.0017952605;-0.09802766;-0.104880765;-0.10814379;0.022580378;-0.062213335;-0.0762023;0.008911115;-0.004195596;0.0675965;0.052122876;-0.073791414;0.005801658;0.102116734;-0.048427444;0.028564041;0.13376659;0.058536742;-0.05466286;-0.08363371;0.027880726;0.03702574;0.021669712;-0.015437635;-0.03411216;-0.11369284
0.049660847;-0.049996264;-0.11189536;0.007160466;-0.014329845;-0.10920579;0.07967573;-0.04270664;0.011722063;-0.064195216;0.0065499567;-0.12115582;-0.0701741;-0.08559135;-0.057171088;-0.091601044;0.054797474;-0.0011593733;-0.04097774;-0.10242659;-0.02132772;-0.102164894;0.030602962;0.009951815;0.027348844;-0.1473012;-0.05815164;-0.050267547;0.016456325;0.029589746;-0.017162045;0.009264652;0.049882583;0.048942283;0.031902518;0.021372115;0.07079072;-0.01246156;-0.024396691;-0.10639913;-0.0073724515;0.11976885;0.08546232;0.042035032;0.0552921;-0.108730786;0.031537898;0.01808025;-0.059565876;-0.052244604;0.069913305;-0.13088764;-0.007084002;0.1221267;0.039765805;0.039704394;-0.1024625;0.023054717;0.038878445;0.013968837;0.055212233;-0.0743012;0.05170861;-0.074500285;-0.088204406;-0.05993716;-0.004888415;0.11308129;0.0066265673;-0.038207006;-0.083132915;-0.012902201;-0.10520152;0.04658619;0.08285549;0.017320985;-0.10599099;-0.11202647;0.02307476;-0.025500476;-0.039949473;-0.031426314;0.018470138;0.0024144608;0.038962618;0.05485342;-0.05565549;0.019617466;-0.024294829;-0.08334821;-0.087217666;-0.007738876;-0.004717474;-0.09813029;0.025027307;-0.09378904;0.1773724;-0.04550587;-0.04819083;-0.07709964;-0.014068305;-0.060247425;-0.03761271;0.009721148;-0.11102033;-0.09856832;-0.09647286;-0.09138546;-0.1356693;-0.09759854;0.024898648;0.047546513;-0.0676334;0.03395222;-0.09544614;0.02767057;0.049209423;-0.033933572;-0.15986359;0.03919041;0.017532064;0.037207536;0.0302602;-0.099005215;-0.00046439536;0.04289921;0.026180716;0.05425356;-0.05218697;-0.111661606;-0.07333702;-0.014882101;0.03352178;-0.10506025;0.051971022;0.040169157;-0.07953015;-0.07374336;-0.17071112;0.028354676;0.11490322;-0.09332122;0.006579089;-0.024100592;-0.027644832;0.03496899;0.0026853606;-0.07473577;-0.041405484;0.035957366;0.061618377;-0.044230424;-0.031036695;-0.017385393;-0.093522325;-0.060817204;0.011829151;0.007722366;0.00025176088;-0.024264902;-0.07992932;-0.13441935;0.0030624105;0.0028666374;-0.07207645;-0.0827731;-0.042322338;-0.012066127;-0.027853545;-0.111328386;0.025087586;-0.18556051;-0.063665435;-0.081424594;0.014051053;-0.048983436;0.034858216;0.01605481;0.07108171;-0.06866598;-0.043766722;0.043095727;-0.0929874;0.038194828;-0.10759395;-0.03535562;0.046271972;-0.17816375;0.100552015;0.024513533;-0.118403785;0.0033960466;-0.09878622;0.01233586;-0.005695134;0.059510093;0.004966284;0.15103805;-0.1370054;0.025882177;-0.023133695;-0.013573471;-0.01370642;-0.050527226;-0.0030511217;0.0010339605;-0.10701675;-0.034019396;0.004970786;-0.17118363;-0.016607368;-0.010048423;-0.10734529;0.0073723258;-0.0035313247;-0.15376255;-0.026047446;-0.09257155;-0.108864985;-0.0718992;-0.07729127;0.06241704;0.05828477;0.0026916135;-0.08554229;-0.0032284514;-0.03504218;-0.036679972;-0.10458884;-0.12031431;0.023047077;-0.07527429;-0.12624776;0.0055240355;0.061398804;-0.039263014;0.03936188;0.044608504;-0.024419317;0.03024996;-0.03404995;0.0051864963;-0.11692122;-0.03066468;-0.03173123;-0.023668757;0.030401057;0.07538995;-0.08109548;-0.08152706;-0.011442757;-0.065517806;0.053455632;-0.08734601;0.056643832;-0.08904136;0.009020698;-0.104441665;0.011176481;-0.025254821;-0.053416654;-0.00782342;-0.005703966;0.036277752;-0.0012185763;0.02809403;-0.034767028;-0.00775825;0.052247386;0.041027263;0.031593576;0.07503649;0.06758313;-0.04638256;-0.042752083;-0.0846758;-0.06251489;0.013504573;-0.1240352;-0.11685307;-0.075501285;-0.08225676;-0.046095323;0.0017277813;-0.102898926;-0.039850477;-0.08555528;0.011744792;-0.079719;-0.056290373;-0.046551056;0.028163934;0.0003590507;-0.08526616;0.0072898776;-0.0119459955;-0.05298176;-0.03957554;-0.04963038;-0.023740519;-0.113543406;-0.12231474;-0.08467959;0.0066751204;-0.024540212;0.030051827;-0.040406816;-0.0066504106;-0.01848287;0.026503142;0.0031104512;-0.046967126;0.034463014;-0.04488183;0.023236416;-0.10855335;0.03180483;0.0059128297;0.028117431;-0.056134813;-0.0935015;-0.09193216;-0.05331072;-0.00078490056;0.043446437;-0.014863081;0.030662509;-0.01504792;0.008432137;0.04040984;-0.09713443;-0.08442337;-0.035355408;0.059951916;0.038283896;-0.02698999;0.025084108;-0.047806107;0.05537107;-0.08390455;-0.06257419;0.1414664;-0.07102104;0.15823516;0.003883674;-0.10475256;-0.042140618;0.0027842845;0.045045972;-0.06630184;-0.04643105;-0.04695853;-0.13915144;0.059031546;0.03777584;-0.0668688;-0.008420253;-0.02262274;-0.053482417;-0.12649056;-0.018024055;-0.096669294;-0.021513732;-0.028887255;-0.048852276;0.001991491;-0.060308956;-0.014174298;-0.059263248;-0.094235756;-0.05104032;-0.0657849;-0.039172072;-0.088207096;0.04714643;-0.096716635;0.026936917;-0.015767304;-0.051661845;-0.08068728;0.003642488;-0.0024621484;-0.16616182;0.03759083;-0.04183445;0.009373982;0.056935016;-0.07239542;-0.09169958;-0.09127629;0.065735824;-0.09090828;0.0044328966;-0.105871804;0.0448762;-0.1714144;0.0004094575;-0.11009716;-0.11662521;-0.087182984;0.021152996;-0.0009345053;0.08527037;0.03484127;0.020925935;-0.0032858197;-0.029773979;0.047792435;0.04015135;-0.023140501;0.037323404;-0.01717689;-0.10574116;-0.10829049;0.027607033;0.04157808;-0.099235006;0.0046981354;0.0042573786;0.10431133;0.010628723;0.04508021;-0.047429517;0.018265119;-0.04206711;0.0787622;0.052819293;-0.05599945;-0.06749315;0.087649174;-0.064149655;0.013433244;0.07406685;-0.10676734;-0.059059937;0.011459959;-0.014757405;-0.15051503;-0.09228351;-0.10362169;0.035272315;-0.036432743;-0.006984204;-0.07763733;0.0358875;0.09299367;-0.04579419;0.094361484;0.023909904;-0.06993111;-0.028650321;-0.012728995;-0.07908694;0.06486685;0.008950595;-0.13774276;-0.09800838;-0.07773984;-0.13846005;-0.04823309;-0.13235767;-0.021677062;0.074659556;0.017181601;-0.11651796;-0.092037745;0.08720522;-0.09419513;-0.03797366;0.056049228;0.0023744567;-0.05723469;-0.08469566;-0.062028207;-0.051404368;-0.012225203;-0.04227425;0.051404674;-0.047692318;0.06258721;0.027591318;0.039269354;-0.042988144;-0.012273825;0.02556521;0.022414848;-0.002963231;-0.024198594;0.008075939;-0.047339093;-0.086368345;-0.06867605;-0.043863486;-0.06453311;-0.08300512;-0.07412211;0.040606994;0.04500265;0.04900189;0.013305223;0.08409152;-0.053522583;-0.068397366;-0.011421336;0.041898835;-0.05855381;-0.028954238;0.039584126;-0.13533913;-0.045436196;-0.0728045;0.02565598;-0.12253183;-0.05220087;-0.11150147;0.03648165;-0.17593862;-0.025567098;0.010343095;0.07888571;-0.08982322;0.03981721;0.007602579;-0.07532649;-0.04477453;-0.020799149;-0.017563233;-0.09942307;-0.008971601;-0.05516032;-0.031395253;0.040372673;-0.002080253;-0.061487332;0.04865588;-0.0605751;-0.07372397;-0.035003178;-0.17233106;-0.09621052;-0.07373021;-0.08867738;0.032845452;0.0039620697;-0.050175007;-0.016915178;-0.07786278;-0.022017661;-0.10531277;-0.031351134;-0.08329454;-0.09320544;0.01811533;-0.043919202;-0.070827946;-0.05848996;-0.03256332;-0.04820339;0.087564446;0.10442869;0.044440266;0.033297066;0.082852565;0.037949298;-0.035698365;-0.053774517;0.13293007;-0.051411763;0.029693356;0.011846654;0.06465248;-0.09272968;-0.051796854;-0.0047783274;0.022261532;0.041620363
-0.049923494;-0.047094893;-0.086190015;0.056771744;-0.0825416;-0.023768244;0.023170047;-0.09937489;-0.030268995;-0.15978126;-0.12681106;-0.050627477;-0.05407411;-0.04108594;-0.041687604;0.029620737;0.043140754;-0.06355968;0.045168303;-0.018849453;-0.0012416275;-0.09539466;-0.10404117;0.03619192;0.019831916;-0.09410637;0.014942456;0.015782041;0.100584775;-0.10728566;-0.059267074;0.03062191;-0.0011694661;-0.033143368;-0.05689494;-0.08551353;0.05405214;-0.019531613;0.024048207;0.02617292;-0.019150443;-0.006934685;-0.0067479266;-0.111832365;0.068011284;0.015270368;-0.08701128;0.014361832;-0.041738328;-0.010612893;-0.023758758;-0.047493856;0.010265781;0.054658756;-0.07276147;-0.062744364;0.045548193;-0.05576937;-0.0618986;0.015111153;0.059156846;-0.062408667;0.14488463;0.034928173;-0.009296399;0.016809687;-0.08692598;0.10541989;0.027562443;-0.02816631;-0.1332438;0.02306512;0.006289444;0.004396859;-0.04127948;-0.0061587617;0.0024798089;-0.08999319;0.066061236;-0.005505588;-0.0039654444;0.0020697238;-0.11804373;0.0132011045;-0.1258784;0.014967286;-0.12474573;-0.095218875;-0.037366472;0.013988338;0.037850358;-0.026024275;-0.028093187;-0.15253963;-0.036113296;-0.042343695;0.1301875;-0.0708712;0.038371872;-0.014975141;-0.06316393;0.02026887;-0.11603959;-0.08478224;0.037110522;-0.11891738;0.03115148;-0.11065121;0.009771879;0.005698817;0.07051418;-0.098774575;0.011018174;-0.11061715;0.013178361;0.06280662;0.11359279;0.033120878;-0.09310658;-0.072658226;-0.037609648;-0.04289705;-0.05682812;-0.0720941;-0.015966441;-0.065100655;-0.067708164;-0.057136256;-0.016765492;-0.039231673;-0.11341993;-0.05942153;-0.021910237;-0.004113559;-0.009251999;0.04248264;-0.066813804;0.035080496;-0.1588113;-0.026606044;0.15025036;-0.030257149;-0.036182627;-0.01548622;-0.035546698;0.031378593;0.016167272;-0.0093181925;-0.08908406;-0.034805745;-0.03533272;0.059851218;-0.06835555;-0.014531131;-0.088308945;-0.10273921;-0.013745439;-0.07523782;-0.06436152;-0.095868304;-0.025047379;-0.122505374;0.0017484131;-0.11590516;0.00836984;0.05050774;-0.11230823;-0.00929729;-0.087897725;-0.028218046;-0.048128422;-0.12429049;0.0064082234;0.006635047;0.0075201346;0.019734705;0.038945455;0.040902402;0.0026204616;-0.0991592;-0.1744761;-0.04282175;-0.036288537;0.011681324;0.032947086;-0.011077466;-0.044818737;-0.12848741;0.057544455;0.005133565;-0.00545008;0.04949082;-0.05894744;-0.033558916;-0.08184248;0.0365016;0.035967637;0.030204697;-0.039359506;-0.106645234;0.011854503;-0.035515513;-0.07422752;0.0060011293;-0.06949306;-0.053303476;-0.021956574;-0.022401044;-0.07740628;-0.21924452;0.007993915;-0.08083496;0.050779756;0.053579107;-0.091394395;-0.19182563;-0.08658633;-0.060563184;-0.010682697;0.065881625;0.036285345;0.08083883;0.01437343;-0.009278565;-0.11026571;0.035327125;-0.01642665;-0.011209931;0.018858142;-0.0049297237;-0.07932222;0.08275191;-0.03480583;-0.042605836;-0.097032726;-0.10757101;-0.007610264;-0.09926213;-0.09486004;-0.014583383;-0.0492008;-0.108523026;0.024431935;-0.080661446;-0.017093413;0.081073254;-0.06701326;0.040890805;0.01131026;0.008886545;-0.038491562;-0.06324939;0.021509903;-0.028741088;0.08009408;-0.005443857;0.051206663;0.011757015;-0.029767066;-0.11937459;0.06815902;0.028078742;0.0037562517;-0.006092677;-0.0020037594;-0.039396826;0.005244394;-0.1011453;-0.04740884;-0.027256452;-0.06261573;-0.0063183918;0.012362368;0.011653475;0.07033752;-0.07889447;-0.05355277;-0.00040633845;-0.11068404;-0.06516873;-0.0969588;-0.021732483;-0.099119306;0.044396125;-0.01706957;0.0064559756;-0.09754468;0.01418077;0.023651369;0.0026826786;-0.027792336;0.02206191;-0.012111597;-0.07907633;0.044072364;-0.038098156;-0.080206566;0.020770984;-0.07746322;0.03058666;0.025157945;-0.13411616;0.026929079;-0.05991789;0.042158104;-0.0798499;0.002554472;0.020427095;-0.00087920984;-0.05704879;0.09139797;-0.00910795;0.049231157;-0.211355;-0.0499681;-0.037278112;0.079850964;0.041105185;-0.07369716;-0.0042162226;-0.0051794206;-0.13247739;0.024541758;-0.09505064;-0.06617098;0.03870634;0.04466942;-0.038584433;0.034095492;-0.0926352;-0.046822246;0.037205797;-0.09914168;-0.010259346;-0.004015971;-0.03909802;0.06950777;-0.059457023;-0.065884136;-0.014401157;-0.05938195;0.08139935;-0.04608822;0.048621405;0.023994789;-0.014870003;-0.09966965;-0.05424659;0.013011066;-0.06651886;-0.053923838;-0.116123766;-0.049217224;0.008150535;0.008186555;0.082086444;-0.09255983;-0.10630981;-0.00013720301;0.0044580395;-0.02011808;-0.019029213;-0.047306787;-0.07337398;-0.10561149;-0.019075017;-0.12316599;-0.06906355;-0.03101052;0.0013663087;-0.069567904;0.00019885425;-0.10825279;-0.10357174;-0.08525335;0.018164445;0.004397773;0.073571354;-0.060324255;-0.071288414;0.019488923;-0.11823124;-0.16739486;-0.09232288;-0.09286437;0.039658662;-0.058528427;-0.08775878;-0.022645105;-0.058445845;-0.052385483;0.020119874;0.047410116;-0.048174813;0.012024561;-0.1780672;-0.098506875;-0.07820336;-0.13412493;-0.17586116;0.039850272;0.012689787;-0.0484188;-0.0005640533;-0.013330099;0.034234777;0.029493816;0.0978099;-0.062212665;-0.02705068;-0.079802155;-0.029052734;-0.095874615;-0.055972613;0.060699776;-0.0055284775;-0.014626879;-0.053548004;0.050969545;0.025662072;-0.110065386;-0.05822542;0.027319053;-0.016060637;-0.09026273;0.009008369;0.056982365;-0.085709564;0.0304555;0.043932207;-0.026595322;-0.06634664;0.016398514;0.012900129;-0.046460576;-0.059731647;-0.054887388;-0.075199544;-0.067669034;-0.10387671;-0.10681754;0.032591008;0.038119424;-0.103482634;-0.057809614;0.044945695;-0.12500754;-0.03261615;-0.020580787;-0.034029577;-0.037986528;-0.014206072;-0.041179772;-0.0035008553;0.06536687;-0.03179948;-0.13033047;-0.06996478;-0.04991364;-0.06079656;-0.102694854;-0.048168942;0.080111876;0.00024788617;0.039336544;-0.014029037;-0.02531657;-0.008123257;0.006441242;0.004336356;0.059967358;-0.07470454;-0.022932542;-0.049598187;0.052136764;-0.08727743;0.05739824;-0.041360617;-0.026566193;-0.0683068;0.00571453;-0.09703755;-0.08488606;0.052896522;-0.07873392;-0.040069427;-0.009803881;0.00795303;0.056218974;0.06334136;0.029019134;0.03368973;-0.10589498;0.021471616;-0.016420864;-0.06295845;-0.083754234;-0.025616683;-0.06311681;0.03913412;0.11859235;-0.034720343;-0.06370453;-0.011242379;-0.03515555;-0.007644119;-0.034328707;-0.012366184;-0.04510862;-0.0127136335;-0.024980724;-0.0014897835;0.020860039;-0.0122947665;-0.12447158;-0.10614915;-0.20682473;-0.107178636;-0.11573955;0.05773968;-0.02290558;0.042633772;-0.029956926;-0.024242945;0.04102564;0.020744825;0.034754068;-0.08385688;-0.04457135;0.04768369;-0.050425928;0.0010073257;-0.011893516;-0.07072103;-0.044703975;0.067447715;-0.022063252;-0.043727376;-0.11573363;-0.071831234;-0.001407408;-0.05725979;-0.027218945;-0.09847818;-0.14959335;-0.01829619;-0.11202812;-0.020665703;-0.040125035;-0.04302221;-0.032017037;-0.12225362;-0.09852826;-0.123587064;0.019620031;0.0073283585;-0.01541259;0.003605557;0.033908997;0.05185521;-0.039883725;-0.10275744;-0.024601845;-0.011140378;-0.07081612;-0.06892723;0.19067575;-0.06443872;0.023632996;0.05000011;-0.06405057;-0.054548733;0.10869285;-0.095399305;-0.09889398;-0.023395056
-0.11198233;-0.12119893;0.009223048;-0.0038626194;-0.09868317;-0.07309011;0.02180481;-0.095813185;-0.021391474;-0.16802807;-0.011432479;-0.12542573;-0.09575962;-0.011663414;0.0072508757;-0.05205131;0.08020711;-0.034673467;-0.052232396;-0.029211823;0.034201276;0.019275514;-0.028515544;-0.05310834;-0.08396154;0.04948332;-0.074398465;-0.028249262;0.072203696;-0.054577287;-0.161792;0.066220246;0.012808457;-0.018230023;-0.011579963;0.006609649;0.09237648;-0.09753895;-0.060882207;-0.10578969;0.0054176515;0.017826319;0.11209097;-0.007708271;0.086110875;-0.0016714197;-0.065656655;-0.02567928;0.018993527;-0.07204385;0.011041578;-0.05830387;-0.078965604;-0.012857712;0.050728574;-0.10405352;0.0078965435;-0.041519597;-0.047895294;0.0018783882;0.01277356;-0.09297106;0.0036409416;-0.017828867;0.02177166;-0.046774045;0.034874;-0.034193903;-0.051594205;-0.045948084;-0.06517288;0.010679059;0.015784478;-0.08269381;-0.034882084;-0.02947191;-0.09080455;-0.13338694;-0.03130577;0.047896132;0.016719973;0.053843305;-0.04563214;-0.04111239;-0.033136114;-0.016171334;-0.063506134;0.023722174;0.051892634;0.016195785;0.013397349;0.02261336;-0.009684791;-0.15185559;0.03808006;0.04037084;0.093652554;0.07387201;0.03501236;-0.006467477;-0.09814632;-0.032143004;0.037032016;-0.0041948617;-0.04667889;-0.0126595255;-0.077779025;-0.024291325;-0.06295788;-0.03557858;0.1014212;-0.115348674;-0.01676904;0.021152794;-0.089352615;0.030403998;0.117704846;0.06256304;-0.124030456;-0.10834757;-0.02974296;0.005412679;-0.07048326;-0.042769734;-0.009613879;0.014621039;-0.07599896;-0.07094302;-0.0072706454;-0.02304357;-0.14019395;-0.05169967;-0.052754298;-0.11680701;-0.0311373;0.0064550247;0.010272857;0.04072307;-0.08318601;-0.068408035;0.17880248;-0.097794265;-0.02293219;-0.042418957;-0.0038447133;-0.049415473;0.09393046;0.058657736;-0.05104605;-0.00062669936;0.014053867;-0.0855112;-0.03164363;-0.0053795306;-1.5595244e-05;-0.0469479;-0.07604963;-0.12045388;0.003482162;-0.040363893;0.011530097;-0.057602536;0.0563567;-0.023791036;-0.030584058;-0.030623386;-0.07661244;-0.061415315;-0.106316105;-0.07211529;0.05119137;-0.17962074;0.046173643;-0.076192245;-0.005586139;0.045644373;-0.08124601;-0.026819;-0.0052013425;-0.0041117426;-0.1175298;0.025285725;-0.082897246;0.018072592;-0.022878787;-0.10648348;0.022351312;-0.14819244;0.06844049;0.053552542;-0.04254861;-0.042665724;-0.069700345;-0.100161985;-0.10867733;-0.06325395;-0.068497024;0.08487257;-0.1258961;-0.028572138;-0.087722704;0.039609637;-0.0051485123;-0.021280585;-0.033400733;-0.080866314;-0.110764995;-0.031660143;-0.04212791;-0.19131158;-0.06317086;-0.081901744;-0.0013232712;-0.079614975;0.032833155;-0.086208805;0.0016897701;-0.019360669;-0.020639112;0.03257452;0.022385255;0.08949438;-0.033822477;0.004176962;0.012020576;0.046752516;-0.13487524;-0.048504822;-0.1148405;-0.038227603;-0.02446572;0.09629644;0.007713682;-0.054039996;0.064235374;-0.027046265;-0.0036011536;0.057404988;-0.07834311;-0.009185334;-0.02590525;-0.061719667;-0.060657766;-0.11229686;-0.04192361;0.07271384;-0.12760468;-0.096661665;-0.10688948;-0.014238013;0.026144883;-0.0967076;-0.06785565;-0.106545374;-0.014062099;0.0100956345;0.08778639;0.044954233;-0.103263475;-0.013456568;-0.06836585;0.014535919;0.013174734;0.053342618;-0.024255993;-0.040354386;-0.024526583;0.028248029;0.030076567;-0.06363197;0.06456802;0.06180218;0.07452037;0.004944779;0.014825901;0.03168628;-0.09141391;-0.0037002366;-0.048198674;0.025640693;0.04425668;-0.045571767;-0.04462127;0.046149697;0.022018015;-0.023323724;-0.06828826;-0.022852233;-0.05157874;-0.09606696;0.07967404;-0.0062516164;-0.07210135;-0.084167026;-0.11789262;-0.09174814;-0.051193085;0.02662517;-0.09917033;-0.0718457;-0.018909415;-0.1290527;-0.058853596;0.011365336;-0.02663791;-0.08313766;-0.008069211;0.0017543449;-0.1574451;-0.045196466;-0.024089826;-0.0073973574;-0.0006117056;-0.08116189;-0.09234329;-0.077822715;0.016297163;0.050082643;-0.07878312;0.0064840913;-0.027864963;-0.040417086;-0.069142886;-0.05439866;-0.041153543;-0.036454383;-0.06964816;-0.07417638;0.028561173;-0.12104387;-0.048899505;-0.054579273;-0.095852636;0.038741294;-0.031538997;0.015717855;-0.0045950445;-0.050837677;-0.07878438;-0.04762162;-0.08289204;0.12902977;-0.10724797;0.124943;0.061279718;-0.08578345;-0.027994618;0.041981388;0.043731656;0.009665256;0.04656845;-0.07650068;0.0016434138;0.017182594;0.037735786;0.0794022;-0.11505338;-0.10270031;0.015298995;-0.07630243;-0.11615539;-0.03387773;-0.10109491;-0.06575967;-0.058889307;0.026938144;-0.111409515;0.027550135;-0.014609124;0.060642563;-0.097747594;-0.01714673;0.033896334;0.029112143;-0.042266883;-0.06833763;-0.07786752;0.019947307;-0.036930703;-0.027555563;-0.01954331;-0.11383062;-0.060817078;0.010608956;-0.124073274;0.05437785;-0.05761433;-0.02373086;0.06610535;0.007904055;0.041382242;-0.044669874;-0.070200115;0.0060948743;-0.006722664;-0.08483936;-0.05337227;-0.12790114;-0.111257665;-0.19124028;-0.03262518;-0.064933054;-0.028696885;0.07232943;-0.036780618;0.01879017;0.007903771;-0.024866113;0.021169502;-0.017451968;0.03767589;-0.0033864074;-0.08542164;-0.07009694;0.027823381;-0.02969444;0.002477268;0.09016148;-0.08886531;0.09374193;-0.04570766;0.07566572;-0.0022966238;-0.03706703;-0.027985264;0.053818062;0.0094302455;0.018285688;-0.03940581;0.044364907;0.024089022;-7.4954776e-05;0.019975834;-0.0669482;-0.021826956;0.036168028;-0.04971637;-0.15651117;0.063355826;-0.032451604;-0.056431368;0.046536773;-0.08761225;-0.050652694;0.05167828;0.01580635;-0.079634175;0.015091702;-0.01285748;-5.1203715e-05;-0.072127104;0.037065163;-0.06864131;0.08967775;0.05725418;-0.17108887;-0.1140459;-0.08760854;-0.07608971;-0.12109153;-0.026377406;-0.010415001;0.14328605;0.030191509;-0.011958911;0.066807896;-0.040791906;-0.07933729;-0.077870145;0.03497502;-0.036718838;-0.13881871;-0.06638429;-0.022237713;0.036382373;-0.009284222;0.020680897;-0.06342061;-0.095260985;-0.06671247;0.03878944;0.032952275;-0.063068435;-0.038178574;-0.021994786;-0.036147125;0.017681617;-0.14357597;0.024645574;-0.05356729;0.05826227;0.038393855;0.018474435;-0.09470757;-0.03726084;0.059557606;-0.013714889;-0.025401115;-0.027126303;-0.074743666;-0.010909134;-0.049325004;-0.08296295;-0.056216475;-0.0032377972;0.026395906;0.06350411;0.024187695;0.049899574;-0.04419852;0.005871005;-0.07181013;0.032521233;-0.09612528;0.0031230191;-0.006382272;-0.090653375;-0.07846805;-0.12411176;0.06293796;-0.107174434;-0.07975626;0.0020882275;-0.05946643;-0.09584144;-0.0634917;-0.0072945617;-0.114173405;-0.054375272;0.048092633;0.01505525;-0.08987232;-0.061354425;-0.040426776;-0.04361349;-0.08811687;-0.0844354;0.04959787;-0.09784708;0.0014787165;-0.035101674;-0.10170264;-0.05358545;-0.11040896;-0.16232911;0.022717733;-0.024361085;-0.03764892;0.01658384;0.017431334;-0.07796722;0.03348749;-0.1004137;-0.07865256;0.036767356;-0.006621825;-0.033323422;0.030669743;0.13668664;0.08785559;-0.07241762;0.049775694;0.041154526;-0.0009990715;-0.0013904524;0.04289894;0.08497001;0.011931717;0.028306559;0.010749889;-0.006427794;0.013976461;0.07028181;-0.12095195;-0.026637852;0.026355151
-0.11435346;-0.087229975;-0.11228325;0.04517946;-0.095626995;-0.0398023;-0.07152851;-0.02853343;0.050080694;-0.034738693;-0.13092472;-0.07265073;-0.16196813;0.014668843;-0.038416963;0.016069176;0.11739093;-0.1094869;0.059807632;-0.124162376;-0.03168195;0.0779873;-0.08301594;-0.0057777246;-0.08895667;0.0797527;-0.061960883;-0.022493584;0.04271959;-0.0059119607;-0.17791753;0.08227336;0.017956045;0.006853183;0.057683975;0.035375252;-0.018299581;0.08492794;-0.014096197;-0.0453048;-0.0354293;0.1066058;0.024844479;0.015022284;-0.034351237;-0.10104943;0.05006499;-0.02659784;0.07021536;-0.07324323;0.057885077;-0.13902982;0.033405103;-0.048080593;-0.0019685994;-0.051508598;0.03065326;-0.06739681;-0.052529365;-0.03496019;0.012584517;-0.13188493;0.13356313;-0.030807305;0.01804861;0.012892542;-0.08175906;0.03743346;0.0027629004;0.020124447;-0.08046092;0.16349518;-0.021121742;0.032519486;-0.086142585;0.04210574;0.050037876;-0.112927295;0.093086615;0.018682888;-0.028550632;-0.10061261;0.024804547;-0.10432447;0.017932601;-0.03804282;-0.09784772;-0.06952896;0.042575676;-0.0073397295;-0.007755965;0.032855485;-0.07352295;-0.0914818;-0.056636997;-0.05716409;0.09538734;-0.027044833;-0.021421732;-0.101972476;-0.08571569;-0.006007767;-0.08770448;-0.05100127;-0.044698413;-0.13298082;-0.048511554;-0.007908704;-0.14304808;-0.100528635;-0.017478144;-0.09483792;-0.10761404;0.0090674395;0.001172196;0.01885765;0.063041165;-0.058559466;-0.1246953;0.051304154;0.03558041;-0.084370546;0.025964793;-0.08036197;0.04687793;-0.07349539;-0.022435458;-0.06608974;0.029688898;0.042482268;-0.015489198;-0.13098112;0.022766937;-0.09458749;0.0001669518;-0.08214091;0.024236925;0.075480774;-0.12362466;0.01967258;0.16492403;0.013397751;-0.04244581;0.02513109;-0.1587103;0.09112134;0.11830371;-0.06681493;-0.032900218;0.022762442;0.012642999;-0.04729562;-0.028380692;0.027385857;0.0020381103;-0.09596628;-0.085181944;-0.0885584;0.06034819;0.024656221;-0.104686834;0.0070518963;-0.0061863735;0.020062957;0.028892912;-0.07287554;0.001584927;0.04767445;-0.042910445;-0.060033053;-0.0010740554;-0.13641725;0.06361121;-0.07277191;-0.02087044;-0.097766615;0.061396863;-0.012892858;0.036379836;0.020180147;-0.11637902;0.0057771434;0.056427542;-0.06364425;-0.1287749;-0.007583172;-0.0011436954;-0.0678743;0.0048526847;-0.08672022;-0.013985664;0.011764769;-0.00028534594;-0.09012958;-0.070444494;-0.10816232;-0.01973482;0.05449612;-0.12302492;-0.04759572;-0.013449786;-0.01467911;-0.0042806217;-0.06534272;-0.019670088;0.042915776;-0.123995006;-0.14496078;-0.07206914;-0.13290519;-0.061287437;-0.081801124;0.0041562538;-0.047196403;-0.008319732;-0.15856476;0.008596039;-0.05326281;-0.0013527108;0.09216286;-0.05807941;0.13040091;-0.041521836;-0.11919075;-0.0409839;-0.090904295;-0.13406362;0.022520332;-0.01614864;-0.05297057;0.007939931;-0.014294475;-0.11762973;-0.08552262;-0.092608795;-0.019895526;0.02963823;0.055877924;-0.10781547;-0.05112723;0.051065177;-0.011783019;-0.09352853;-0.017932171;0.036942426;0.07503653;-0.0139493225;-0.06388124;0.0066990894;0.057919763;0.061692383;-0.06377013;-0.10397179;-0.12889887;-0.060681432;-0.058534488;0.06376332;-0.012882901;-0.077515446;-0.06521462;0.044176944;-0.026505355;0.008500466;-0.06046389;-0.0012243282;0.026420647;-0.014622513;-0.054081477;-0.004505134;0.09763667;0.10988321;0.10298416;-0.05930886;0.021115651;0.008609437;0.06917083;-0.1283406;-0.08692462;-0.0199727;-0.0671119;0.042299498;-0.13339376;-0.10023055;0.033667505;-0.02889288;0.036727734;-0.079915375;-0.072736345;-0.06561425;-0.018568061;0.024926499;0.044365317;0.042919468;-0.06380501;-0.04320757;-0.14754328;-0.0076475493;-0.013439212;0.021106027;0.04108436;-0.0149441445;-0.13633884;-0.048169363;-0.03491371;0.046108134;0.007852615;-0.09497301;-0.01917354;-0.105671585;-0.044880748;0.0013084195;-0.011363457;-0.022290062;-0.18623498;-0.007498719;-0.01669799;-0.031644374;0.055856835;0.04003527;-0.0100588;0.0104658995;-0.03988615;0.02971603;0.062899284;-0.05795331;0.03720927;0.036664564;-0.020861633;0.030144876;0.01965932;-0.140441;-0.086072505;-0.049471565;-0.0313851;-0.00026040658;0.035952665;-0.039946556;-0.040696777;0.083485454;0.009344615;-0.034072362;0.12663567;-0.017793937;0.07091673;0.04302719;-0.09322472;-0.077860855;-0.10017418;-0.035070304;0.0062706093;0.09805563;-0.13820617;-0.0377129;0.10577094;0.16721752;0.0796567;-0.0046146717;-0.0016609455;0.02349365;-0.15010746;0.026078286;0.012567232;-0.09432481;0.04682039;-0.04781668;-0.00017634414;-0.04271479;-0.019514892;-0.12939267;-0.0071728374;-0.04101919;-0.0085164085;0.05068996;0.018751476;-0.036139175;-0.03315404;0.015103394;0.09726482;0.06274372;-0.0626699;-0.07026746;-0.023621062;-0.19445416;-0.0016150157;0.0013147271;-0.0040210946;0.018260216;-0.06805691;-0.08467419;-0.0961436;-0.10373957;-0.06606705;0.028322343;-0.0437085;0.009149048;-0.07246301;-0.098426305;-0.14902964;-0.09707276;-0.054227043;0.033086233;-0.088841416;0.040444326;-0.013949288;0.093709566;0.09676885;0.03656941;0.060287878;-0.07551015;-0.14410605;-0.12121719;-0.021744657;-0.055490885;-0.109600835;0.09196675;0.0847684;-0.052075293;0.04354326;-0.028619895;0.0103482725;-0.059798706;0.008912022;0.060078375;-0.037255425;-5.5066026e-05;0.03315685;-0.04244257;-0.01451413;0.0075650066;0.15163025;-0.09467734;-0.03166259;-0.04463612;-0.075999744;-0.018099895;-0.11205749;-0.12295514;-0.16527902;0.040144913;0.0022845461;0.036773454;-0.050000757;0.015893593;-0.11220352;0.03661619;0.007135626;-0.034183234;-0.07941371;0.0630684;-0.014964841;-0.03260917;0.03271474;-0.040472068;0.080425605;0.11741624;-0.09318196;-0.04664097;0.0039320644;-0.007049844;0.005616341;-0.029831627;-0.0015148299;0.028683554;-0.08488984;-0.023209939;-0.053674005;0.10003477;-0.12478879;0.021978175;-0.016656745;-0.023986014;-0.070657745;-0.15091862;-0.08914863;0.03678321;-0.052820902;0.041371003;0.0026785263;0.03307941;-0.02805602;-0.016317165;-0.063686945;0.07640041;0.05076823;-0.052737284;-0.063862905;-0.04631373;-0.077669546;0.06293265;0.02270896;0.018079674;-0.015140792;-0.043648038;-0.04083154;-0.0009001937;0.008170523;-0.010565707;0.024183463;-0.09115922;0.02355395;0.09681077;-0.017161291;-0.045522746;-0.10365895;0.04375199;0.06391239;-0.022615483;-0.12116572;0.039756235;0.05907003;-0.0461328;-0.029243026;0.01340595;-0.12616123;-0.07730844;-0.08910349;-0.1963187;-0.04425333;-0.043668948;0.10237334;-0.042755615;0.031771805;-0.013921067;-0.041054558;-0.08343709;-0.037364516;0.022039745;0.012870126;0.044320453;0.0071982923;0.044544462;-0.045755103;-0.099697754;0.002778313;-0.08582497;0.0693986;-0.07413866;0.007597062;-0.13119566;-0.004216406;-0.078825876;-0.06940078;-0.07125384;-0.0891823;-0.13085853;0.057493117;-0.056946278;-0.03460223;-0.024733124;-0.09818023;-0.07870153;-0.06791131;-0.0021246339;-0.04226912;-0.00071785355;0.06356578;-0.06305477;0.02812914;0.10482074;0.08410345;0.038656306;0.02514823;-0.03189887;0.05292367;-0.10291918;0.06073524;0.16710608;-0.011117294;0.01446168;-0.011283913;0.024119796;-0.07084766;-0.028338786;-0.11001149;-0.09160202;0.0064555304
-0.005985311;-0.06378603;-0.07916284;-0.070520595;0.012749487;-0.0130964555;-0.10075404;0.061891608;0.030828258;-0.07664233;-0.019848952;0.0011488947;-0.14244936;-0.059915584;-0.031401817;0.040421885;0.096305855;-0.07824976;0.059800852;-0.08665326;0.022002853;0.07104594;0.046183676;0.06154694;0.03796471;-0.028251436;-0.06498344;-0.020268077;-0.0006607631;-0.14356485;-0.047342695;0.07043166;-0.029084833;0.0070092687;0.04760186;0.052015968;-0.022057842;0.06408792;-0.0050031487;-0.10036182;-0.008406188;0.036182903;0.03166744;-0.056096368;-0.013885823;0.013237845;-0.0072118375;0.006964338;-0.038205203;-0.082132235;0.020545544;-0.106088944;0.036481615;-0.082888454;-0.02664324;0.05755801;0.060328495;-0.019826293;-0.05317977;-0.019312862;-0.024345001;0.0023146889;0.05198331;0.05415539;-0.101081744;-0.028071882;-0.08494638;-0.024352357;0.058949765;-0.0341352;-0.09960893;0.12503421;0.0141005125;-0.055518556;0.048859525;-0.09026957;0.06892408;-0.019336287;0.08234154;0.024503568;0.049870316;-0.03385812;-0.005698113;-0.041324776;-0.103337064;-0.09092906;-0.11464169;-0.0046071657;0.037528217;-0.089342006;0.0045978073;0.03760629;-0.059222337;-0.21556236;0.044932224;-0.08219226;0.03328869;-0.062570825;0.0521294;-0.036038704;-0.015001208;-0.06554383;0.054215904;-0.09767769;-0.0030512724;-0.14390147;-0.016550431;-0.12326024;-0.029318172;0.030980714;0.1423511;-0.014229797;-0.08021505;-0.09243421;-0.048152316;-0.09959281;-0.007091012;-0.009252875;-0.16606562;-0.07906978;-0.063881174;0.01691941;-0.054772515;0.020628124;0.008225235;0.022162441;0.071139686;0.061053146;-0.010449711;-0.006231497;-0.1262222;0.010235728;-0.024314249;-0.0621764;-0.01954056;0.015788019;-0.06994613;-0.050428163;-0.17935269;0.040827245;0.13412887;0.03982394;-0.05504964;-0.08716742;-0.10418268;0.006492163;0.1760937;0.057224706;-0.06060179;-0.055403408;-0.08026115;-0.095937125;-0.059247255;-0.03399506;-0.08905192;-0.037089292;-0.12504928;-0.12367736;-0.024007004;-0.041838996;-0.046415597;-0.07006721;-0.0047145477;0.051987775;-0.12790631;-0.077486314;-0.14521234;0.07160742;-0.010581367;-0.061408468;-0.0012035259;-0.06446203;-0.013923318;0.0020120624;-0.015944777;-0.103580624;0.032989368;-0.1023459;0.14533982;-0.111966476;-0.061734278;-0.12455539;0.02141205;-0.032945134;-0.06835197;-0.0063504074;-0.07876197;-0.1161644;-0.06385693;0.05659284;-0.09480181;0.06520113;0.051729094;-0.08977383;0.029234035;0.026239898;0.010964846;0.100445814;-0.076509625;-0.021470603;-0.057543088;-0.042188387;0.027791815;-0.003449855;-0.0090338355;-0.085738614;-0.022616152;-0.09807912;-0.011670632;-0.20911872;0.07240343;-0.0019124658;0.017119275;-0.039109964;0.059374325;-0.1089974;0.023378951;-0.0044976175;-0.06275988;0.017101837;-0.0761928;0.08182995;-0.08138414;-0.03577303;-0.005289016;0.00854946;-0.15637194;-0.083450936;0.0073501645;0.027057018;0.05599977;-0.018179908;-0.060427114;-0.08979183;-0.10142729;-0.04893294;-0.08855122;-0.036710057;0.0059641213;0.011409301;-0.03641047;0.059294622;-0.028406719;-0.1534986;-0.009337572;0.08752949;-0.023233918;0.0113550825;-0.12566349;0.05271117;0.020932062;-0.07447458;0.035228234;-0.17241485;0.007991559;0.019177638;0.095279604;0.047823276;-0.10799843;-0.09899524;0.06026139;-0.09466039;-0.0657825;0.010806349;-0.021684345;-0.017111605;0.06713014;-0.11485779;0.03383927;0.098359816;0.0049824417;0.12758455;-0.03114164;0.037368324;0.07346586;0.024837974;-0.015819153;-0.03866654;-0.1408334;-0.07859067;-0.041119713;0.00017762941;-0.020209609;-0.019694796;-0.04195838;0.04310314;-0.014284629;-0.07943289;0.008785545;-0.06495886;0.11691939;-0.03321876;-0.009645649;-0.05044867;-0.07903522;-0.14515106;0.049523547;0.10334872;-0.0039854934;-0.057341818;-0.029889403;-0.13105033;0.06457657;0.058900457;0.12916707;-0.035360623;-0.08245147;-0.008271508;-0.14157876;0.017332934;-0.0012828506;0.008816791;-0.04830405;-0.10932618;-0.05109931;0.019827308;0.1381579;0.053488452;0.048411883;-0.060136;-0.044372644;-0.11439125;-0.04531273;-0.0088549545;0.008682859;0.030951528;0.05479238;0.05660182;-0.027527135;-0.08092719;-0.09574619;-0.029476004;-0.0037097523;-0.0080988575;-0.011356587;-0.033057738;0.016732272;-0.065110154;-0.006339739;0.03390436;-0.11096612;0.06556638;0.010380619;0.07670196;0.061045274;-0.09300327;-0.030085186;0.025650779;0.04294931;-0.079226755;0.010366027;-0.11013967;-0.12009431;-0.04161125;0.16756593;0.017594608;-0.050627027;-0.08544794;-0.09420538;-0.10570293;-0.0013569051;-0.059107963;-0.07676269;-0.07841883;-0.08755439;-0.060355637;-0.0020229856;-0.07281759;-0.02967143;0.048047297;-0.047705993;-0.090216696;-0.04309546;0.0006163691;0.06754003;-0.015571174;-0.016826501;-0.016274748;0.00486808;-0.079835005;-0.07040934;-0.08861108;-0.16236065;-0.06782176;-0.12352227;0.06234732;-0.12494454;0.0051629264;-0.029005144;-0.0066379826;0.0009672458;-0.06853159;-0.07932806;-0.06987554;-0.004075524;-0.041742627;-0.03000648;-0.015097529;-0.059513513;-0.052616645;-0.0005220426;0.0063535916;-0.020933073;0.028073799;0.027094794;0.11798579;0.03522394;0.008004508;-0.07917044;-0.12079506;-0.051761914;-0.13581516;-0.15213461;-0.059316248;0.0749703;0.057341114;-0.01783386;-0.060481172;-0.08445611;0.01978089;0.04878526;-0.011827161;-0.013431431;-0.082583115;-0.07276349;0.013652121;-0.066815086;-0.11250922;-0.12546374;0.03795326;-0.011233661;-0.048387133;0.05352273;-0.037087265;-0.13083082;-0.02012908;-0.085548446;-0.024573535;-0.07555964;-0.045555137;-0.07746888;0.01833599;-0.035804145;-0.035909034;-0.010875195;0.034943562;-0.00927289;-0.09141467;0.003868107;0.028117029;-0.08998068;0.00072038523;-0.021378804;-0.027655741;-0.0046532652;-0.04822726;-0.045066167;0.026013676;-0.06333246;-0.112497956;-0.057209928;-0.040949915;0.069196396;-0.020392356;0.053914778;-0.02300317;0.0070506297;0.013205381;-0.04774233;0.015454599;-0.036296923;-0.09448849;-0.08418236;-0.07282815;0.05735318;-0.04976407;-0.026752265;-0.08285647;-0.022551326;-0.0062709204;-0.047100138;-0.039192665;0.0020336988;-0.053645875;-0.049136166;-0.15778184;-0.07508384;-0.07265045;0.09628209;-0.048260942;0.011061405;-0.03795694;-0.102304585;-0.029102763;0.0031907468;0.007895157;-0.088694684;-0.012424591;-0.0852106;0.0008229323;0.033653907;0.07174004;-0.11989604;0.031070229;-0.043568216;-0.018376052;-0.077706106;-0.016991712;0.028028155;-0.03552166;-0.07177771;-0.06001527;-0.0609543;-0.027237877;-0.12620093;-0.11082697;-0.13185255;-0.07598222;-0.043024614;0.041081965;0.008861594;-0.045343537;-0.10318469;-0.07174147;0.057649404;-0.02588438;-0.056009203;-0.048263893;-0.052340947;-0.028984;-0.06499874;-0.06726934;-0.13414544;-0.09467887;-0.096684515;0.09693669;0.0665337;-0.07271713;-0.06934525;-0.048659604;0.06317785;0.041767996;-0.034812354;0.024209827;-0.06052764;0.016841257;-0.20030916;-0.0506727;-0.02852108;-0.038718987;-0.048666205;-0.019710483;-0.08519843;-0.15409054;0.008302072;0.12721993;-0.054490324;-0.037424244;0.0047548558;0.13464811;-0.023037584;0.012164358;-0.040582065;0.04291792;0.051672786;-0.08146062;0.1400758;-0.060420025;-0.07231185;-0.07402684;0.040874116;-0.034980368;0.10311407;-0.10245211;-0.0006272152;0.053146698
-0.019986326;-0.017025381;0.003941479;-0.046745956;-0.026593236;-0.044997294;-0.112179935;-0.020978115;0.10657843;-0.14069007;-0.032292075;-0.109439865;-0.15220764;0.010972049;0.012433146;0.005352227;0.110584386;-0.13177776;-0.041844234;-0.11000885;0.035504516;-0.0017627481;0.006411713;0.0076860413;0.0010645683;-0.008135524;0.068651475;-0.05033142;0.043991532;-0.098990105;-0.05399504;0.14642686;0.037158288;-0.036376756;-0.059470057;0.042064555;-0.06543961;0.0931679;0.024392784;-0.043581814;-0.05354862;-0.028029477;0.070816234;-0.08493316;-0.015729278;-0.1143463;-0.06107642;-0.05212529;-0.025621468;-0.039253578;-0.0268749;-0.15625013;-0.08386083;-0.0668522;-0.07857658;-0.04371588;0.06704143;-0.0936676;-0.113675006;-0.0844274;-0.087191835;-0.04672171;0.1551051;-0.029608872;0.016157473;-0.005911934;0.049163148;0.07034088;0.021079851;0.041450143;-0.13602963;0.13964248;-0.12449534;0.07072598;-0.055009604;-0.02337315;0.059789993;-0.09442484;-0.062469494;-0.008662601;-0.04519139;0.052950155;-0.080384195;-0.04224924;-0.07793153;-0.10306482;-0.05007421;0.048453644;-0.07970635;0.014859746;0.005293275;-0.055840924;0.05893787;-0.12048597;0.030631877;-0.06493835;0.028527724;0.034845732;0.0044878395;0.03611366;-0.055475354;-0.0511247;-0.07727349;-0.026644738;0.012790093;-0.099368505;-0.031433824;-0.10825703;-0.15363786;-0.06571101;-0.023340678;-0.108471364;-0.15848492;-0.033470664;-0.0058795344;0.06019634;-0.013919727;0.005481837;-0.1486306;-0.005304345;-0.07391855;-0.089869596;0.03237337;-0.10498154;0.00066415453;-0.07458797;-0.057578124;0.06523191;0.0013464418;0.0020954246;-0.105665214;-0.012800437;0.017301375;0.030522313;-0.059588194;-0.09846076;-0.030748876;-0.07623122;-0.20546883;-0.05541893;0.1264271;0.017181063;-0.076374404;-0.02028043;-0.066071056;-0.039189614;0.06424477;0.030763894;-0.0010093908;-0.02978907;-0.023615405;-0.045955412;0.012322579;0.107593045;0.019753948;-0.09262586;-0.063695244;-0.019900508;-0.08301962;-0.069212176;-0.0034941742;-0.08067341;0.07278693;0.0042357068;-0.035853174;0.025461404;-0.056750122;0.027460072;-0.13358504;-0.086285815;0.051393375;-0.04921452;-0.013938247;0.045588605;0.016857006;0.006321189;0.019401198;-0.11533469;0.14155267;-0.09297102;-0.052944563;-0.03587159;0.034152582;-0.07015877;-0.11408593;-0.09234224;0.041483413;-0.043925297;0.008322316;0.04643789;-0.047092948;0.02736558;-0.04983364;-0.12930104;-0.076900996;-0.10834902;-0.08457376;0.047023762;-0.016004307;-0.01006293;-0.016497124;0.108454816;-0.08951967;0.05312215;-0.05121031;-0.002814515;0.029343447;0.0013588135;-0.0030266072;-0.08337859;-0.07079866;-0.052956786;0.016925946;0.07326528;-0.0735562;-0.14396988;0.03548542;-0.10320776;-0.10498116;0.01154426;-0.0031420693;0.01450567;-0.0505341;-0.06344249;0.05568595;0.040940903;-0.038678322;-0.021683356;0.029248733;-0.08325408;0.049772818;-0.023368705;-0.08523502;-0.092882775;-0.00273508;-0.0033549578;0.008154632;-0.048856422;-0.13622528;-0.118380874;-0.02189439;0.049873456;-0.12505046;-0.035302248;-0.030940987;0.15511198;-0.027018603;0.047330417;-0.080263026;-0.005313279;0.07194455;-0.07346912;-0.05777345;-0.16719678;-0.05413183;-0.10342696;0.03177043;-0.044852227;-0.1228827;-0.10493696;-0.02773262;-0.058883253;-0.09145061;-0.027382076;-0.11302856;-0.044496853;-0.03396866;-0.116032384;0.027097065;-0.00088054145;0.08066852;0.022444114;-0.074014336;-0.06903904;0.05081001;-0.030803649;-0.1055858;-0.06039793;0.010240514;-0.0065290565;0.04799885;-0.040780094;-0.11130495;-0.06542958;-0.10348357;-0.03831954;0.018714333;0.0011692871;-0.044884495;-0.059458714;0.011014713;0.031442884;-0.0734437;-0.036501195;-0.012499331;-0.12386871;-0.015902365;0.071892366;-0.036738127;-0.016536454;-0.15017559;-0.15818293;-0.051153686;0.033984557;0.014521111;-0.005650204;-0.024063418;0.003403924;-0.041293766;-0.029775366;-0.0059630047;-0.036986697;-0.06988634;-0.10649354;-0.14600308;0.059009496;0.06948547;0.036064748;-0.022677017;-0.13843136;-0.08492178;-0.054041408;-0.042090688;-0.007001659;0.056718487;-0.037554823;-0.08407808;-0.023843115;0.0040583303;-0.13254072;-0.0727489;-0.04792527;0.0044856393;-0.032779142;0.037587676;0.0216046;-0.10483139;0.022075538;-0.057818223;-0.01118059;-0.09182997;0.09224165;-0.004225793;0.097283475;0.04160128;0.0035366784;-0.13330537;-0.118929125;-0.045908745;0.062276717;0.026010528;-0.059993804;-0.07572386;-0.028241655;0.047833115;0.017015852;-0.14037782;0.025418561;0.03736367;-0.1454431;-0.13005944;0.0047255936;-0.13594307;-0.084280096;-0.1197126;0.053279176;-0.061593354;0.03885431;-0.027533019;-0.032746382;-0.04845002;0.038859855;-0.027712723;-0.057179753;-0.036648788;-0.027970245;-0.11457282;0.07570967;0.0022755053;0.020468693;0.011602502;0.008869405;-0.10483882;-0.024588898;0.021698944;-0.05665748;-0.085062794;-0.07184864;-0.06660992;-0.09728285;-0.047331046;-0.050702732;-0.049951322;-0.024018351;-0.08628243;-0.03696604;-0.060090825;-0.09327663;-0.17439817;-0.15732169;-0.034961578;-0.05712268;-0.039288923;-0.052968025;0.063214056;-0.0017577637;0.07783014;-0.050683897;0.01676019;-0.145423;-0.08118849;-0.059231423;-0.17179208;-0.13132288;-0.013567406;0.053470675;-0.03762606;-0.006519403;-0.07768227;0.03244328;-0.05239859;0.027227778;0.053453527;-0.011301401;-0.05050198;0.11871706;0.038440604;-0.06928518;-0.052873317;-0.00801764;-0.056406647;-0.062878445;-0.04204689;0.041045144;-0.08739194;-0.11338254;0.018451646;-0.011076977;-0.021486498;0.05692472;-0.040066347;-0.044496115;-0.070044614;-0.13066399;0.0125051085;-0.013120795;0.01577061;-0.10519841;-0.03952091;-0.11820296;0.015541148;-0.047762606;-0.14737351;0.09260914;0.075241074;-0.032343127;-0.14019193;-0.04849977;-0.005576724;-0.004539757;-0.040943567;0.020769216;0.038399834;-0.09922908;0.018942196;0.017659653;0.028872583;-0.030074375;-0.017374685;-0.039458442;-0.08680785;-0.069463775;-0.05549509;-0.02188379;-0.056547433;-0.11753837;0.007460472;-0.10623003;-0.10388328;-0.049896855;-0.08799622;0.024352612;0.08520612;-0.055053383;-0.016329074;-0.07946228;-0.08097686;-0.10687412;0.02003761;0.041792143;-0.010357882;-0.060722128;0.020448025;-0.012099968;0.04324409;-0.056462537;0.039541047;0.025734678;0.029985055;0.07880315;0.08717064;0.035590295;-0.0057386137;-0.07314892;-0.05721866;0.052295856;-0.081661694;-0.06855831;0.10068038;-0.09749711;0.020558653;-0.03996672;-0.05505851;-0.040468544;-0.07619169;-0.03262321;-0.26408464;-0.08275442;-0.16474189;-0.038019784;-0.0012181515;-0.02000161;0.007560383;-0.03923561;-0.07159427;-0.047829323;-0.0853383;-0.034677587;0.014657747;-0.022316907;0.009523843;0.0104019325;-0.0020075238;-0.0064656534;-0.043796495;0.0070070736;0.051155563;-0.017905258;-0.056870516;-0.06388057;0.02926562;-0.05448547;-0.042662907;-0.06809758;-0.15335192;-0.068578705;-0.18731678;-0.028646937;-0.0032774706;0.014486216;-0.10446686;-0.004959886;-0.109517395;-0.06940146;-0.12536018;-0.031303767;-0.04647988;-0.055173855;0.0089664925;0.035303466;0.060301594;-0.06204587;0.09088876;0.03973467;0.028126372;-0.012186793;0.07546481;-0.05113095;0.03158333;0.037127685;0.077866934;-0.072078094;-0.032508608;-0.013304195;-0.08129846;0.052294254
0.0032461972;-0.07886733;-0.105484635;0.05627518;-0.069876194;-0.08047417;-0.032350257;-0.015635502;0.04314102;-0.11004239;-0.06792954;-0.055784542;-0.12659077;0.016234487;-0.072489195;-0.04863902;0.033549022;-0.074640006;-0.028475376;-0.121506475;0.011323255;0.07866615;0.027614072;0.06796884;-0.08223079;0.014869132;-0.028063951;-0.14558174;0.026699794;-0.14948064;-0.12623179;0.12812497;0.03217215;0.023119092;-0.053304654;0.017033827;0.043052185;0.12997471;-0.10160205;-0.028663572;0.012809958;-0.023296067;0.08938293;-0.12589605;0.04645544;-0.08529328;0.011931173;-0.08320738;-0.06608169;-0.012927843;0.026292376;-0.13197914;-0.027785372;0.002627681;-0.04929596;-0.026840748;-0.053593658;-0.020001542;0.02996009;-0.07363084;-0.12575303;-0.02243992;0.117561154;0.04019503;-0.08370212;-0.10505842;-0.022070037;0.10484364;0.031011174;0.034079764;-0.05505558;0.03208553;-0.101090945;-0.057399817;-0.087618835;-0.0374471;0.022774328;-0.1476638;0.026961017;-0.007556339;0.021515528;-0.051651143;0.053448554;-0.024096189;-0.07410067;-0.028465008;0.012111872;0.030242177;-0.020094536;0.04691753;0.022966767;-0.046857122;-0.08799678;-0.22044632;0.009960102;-0.060584385;0.09666414;-0.012940443;0.013182565;-0.0040800744;0.0011545887;0.030245839;0.016938195;-0.05766211;-0.01157911;-0.18656059;0.054932535;0.015067327;-0.069319956;0.052700803;0.047921352;-0.11773536;-0.15986136;-0.04534213;-0.11242023;-0.08521294;-0.016804054;0.05011799;-0.06453376;0.019892793;-0.03186536;-0.018212039;-0.05937535;-0.08829104;-0.03247982;0.04081984;0.0014936159;-0.04307526;-0.08704726;-0.010511071;-0.0135588;-0.067642555;-0.045418266;0.06703785;-0.07329206;-0.074556686;-0.12894762;0.07813618;-0.14488;0.0021077094;0.04852923;0.019766834;-0.046540044;-0.040022135;-0.032858998;-0.0007255803;0.13322224;-0.014558055;0.021867776;0.032113656;0.027465748;-0.043465007;-0.034156293;0.06719434;-0.004856749;-0.04300506;-0.07713442;-0.17759396;-0.0485754;-0.041806996;-0.013578576;-0.069175005;0.090723485;-0.008180083;-0.094118655;-0.04274828;-0.01677443;-0.036718126;-0.059721567;-0.09612905;0.03458494;-0.09114968;0.01017939;-0.021752384;-0.02361037;0.01486565;-0.08852034;0.052151483;0.14542365;-0.104293756;-0.08879618;-0.03795891;-0.030261949;0.016516045;-0.13121037;0.038889386;-0.0641408;0.034385234;-0.026145134;0.05071573;0.014041096;-0.034308948;0.086595386;-0.101632066;-0.04910737;0.011049712;-0.0404277;-0.05278189;-0.027972244;-0.0427476;-0.085860476;0.11523536;0.033864886;0.105293006;-0.018562648;-0.058219828;-0.053737376;-0.15503952;-0.025176225;-0.081792206;0.04180968;-0.06402571;0.014231348;0.015910229;-0.0025894085;-0.22001858;0.05303909;-0.03944268;-0.022054346;0.093848884;-0.02960675;0.13470522;-0.13771527;-0.085752785;0.00920797;-0.025011636;-0.15636298;0.07475366;0.03554297;0.035516616;0.0077248886;0.04758952;-0.09536284;-0.042254798;-0.03786276;-0.031978212;0.01202804;0.03608073;-0.0609189;-0.07732658;-0.09156648;-0.06425496;-0.05932742;-0.07969871;0.049581956;0.13204974;-0.05953925;-0.11692422;-0.017157136;0.03286379;0.018808162;-0.049440347;0.0046687163;-0.15762123;0.07536192;0.011957591;0.09126649;0.04360143;-0.09986079;0.034449592;-0.013205523;-0.07751837;0.003619851;-0.11740648;-0.10194127;0.034745604;-0.051446065;-0.10953923;0.03857518;0.09061619;-0.052574817;0.16859445;0.019534806;-0.085629925;-0.037176825;-0.037999216;-0.05710432;-0.07490613;-0.11358608;-0.015745973;0.13340239;-0.010352639;-0.004974131;0.0033117225;-0.024667567;-0.02687682;-0.08779635;-0.0067277383;-0.068274826;0.014882993;0.104354836;-0.073381595;0.061291493;0.014094648;-0.122541875;-0.17712176;0.045453873;0.08071715;-0.056029767;-0.06540143;-0.050790675;-0.045754682;0.05473418;-0.0028724787;0.06637632;-0.06968499;-0.035173237;-0.022072585;-0.1471455;-0.026051281;0.07510109;-0.045557998;0.07080753;-0.15054159;-0.15262088;-0.014163237;0.106359445;0.11418808;0.022685198;-0.058673188;-0.089122996;-0.020483539;-0.065750144;0.04251523;-0.009131688;0.038965523;-0.034921203;0.081030145;0.042917103;-0.107260376;-0.049568605;-0.052062765;-0.014865237;-0.01229073;-0.044529893;-0.009036025;-0.04386417;0.016947003;0.03244635;0.003904586;-0.05299945;0.08761705;-0.123006314;0.05271886;0.0012921196;-0.14434697;-0.13288175;-0.022060113;0.031027919;-0.07399061;-0.025089791;-0.096311375;-0.07938344;-0.040927462;0.13909765;0.087044954;-0.16326988;-0.037006132;-0.05782695;-0.06802305;-0.0875165;-0.12863077;-0.08106636;-0.10514019;-0.11093654;-0.07823253;-0.043059118;0.022077117;-0.10557962;-0.0683701;-0.046374913;0.017703533;-0.107000045;-0.016804801;-0.07455973;0.034009118;0.0057706824;-0.039697558;-0.07417962;-0.047499057;-0.017044632;-0.12274418;-0.20175835;0.026674846;-0.06266358;-0.010098677;-0.01709047;0.060696267;-0.09038482;0.030431928;0.003552674;0.054991815;-0.10437029;0.0031742402;-0.023750026;-0.006881386;0.016753593;-0.06803658;-0.050177217;-0.12665974;0.006842304;-0.023209382;0.07972606;0.07456534;0.038906798;-0.03508588;0.0017394841;0.05745665;0.040493555;-0.13189991;-0.011039737;-0.06732339;-0.17700562;-0.014569525;0.1654855;0.11517113;-0.0054971473;-0.0335628;-0.12051011;-0.01756988;0.016965395;0.04736803;0.04906655;0.012715481;0.0047204043;0.11248649;-0.06477082;-0.017448617;-0.13037083;0.15972443;0.0024178883;0.070924975;0.035859413;-0.115030736;-0.14764895;-0.12404795;-0.054421037;-0.12429912;-0.028666003;-0.08968473;-0.004600596;-0.12502201;-0.08734332;-0.07282508;0.0046134028;-0.040378734;-0.12756044;-0.038131468;-0.0281457;-0.10895737;-0.013022366;-0.036734205;-0.17180592;0.020705966;0.035315912;-0.092048325;-0.020440688;0.057200603;0.046986405;0.0074178297;-0.06310914;-0.03314818;0.12666123;-0.015603278;0.07243643;-0.032974258;-0.05092488;-0.06142201;-0.063746445;-0.08152848;-0.09262489;-0.06658538;-0.14658894;-0.09618683;-0.05504709;-0.02126782;-0.039714012;0.02186036;-0.003662957;0.025754532;0.0500786;-0.059212044;-0.037562635;0.04202841;-0.06578454;-0.17089461;-0.07157331;-0.07139747;0.14218308;0.06651868;-0.017141456;-0.026099453;0.060032148;0.018134331;0.041259445;-0.019358294;0.018686183;-0.051340155;-0.097330146;-0.008703204;0.021218242;0.07176619;-0.1576839;-0.025155973;0.009934459;-0.033734996;-0.0874249;-0.06629685;-0.0129488325;0.017879937;-0.116441265;0.00929858;0.011027658;0.026805257;-0.09554262;0.007185731;-0.19487287;-0.06754785;-0.10780168;0.005029372;0.02631301;0.017627075;0.040300228;-0.15561369;0.056340493;-0.08243052;-0.0022945923;-0.10495415;-0.05497533;0.10817658;0.040914215;0.022946889;-0.040578842;-0.10489241;-0.11690258;0.07745143;-0.03756625;-0.03651687;-0.043762967;0.060305193;0.01154655;0.0529953;0.06853032;-0.06624789;-0.12538292;-0.0032431094;-0.05399814;-0.049201135;0.00021210786;0.010151043;-0.050104864;0.024527611;0.012545912;-0.06991426;-0.12848164;0.07177638;-0.04643724;-0.008351218;0.17028144;-0.010186433;0.060534753;0.02137112;0.00059630827;0.002147812;0.00085143576;-0.03400962;0.16103654;-0.00080010033;0.03418134;-0.09027764;-0.005649672;-0.025481619;0.010767653;-0.011680769;-0.029230798;-0.061880376
-0.017503912;-0.07940767;-0.09741392;-0.025096338;0.019743824;0.04868835;-5.957213e-05;0.008049761;-0.036248244;-0.08322003;-0.11934188;-0.08075054;-0.07323022;-0.023344085;0.019596545;-0.01411408;0.047591668;-0.07443678;-0.044023342;-0.14139448;-0.09336848;0.020619784;-0.052088924;-0.016886177;-0.05406554;0.05613545;0.056501783;-0.09866088;-0.116458386;-0.17212938;-0.04024769;0.029708212;-0.033479;-0.01857411;0.06331647;0.046074696;0.05736121;-0.010508357;-0.06289889;-0.08363656;-0.08091087;-0.036600024;-0.06576414;-0.08474585;-0.055500902;-0.06928578;0.006174401;-0.055746578;0.0042307517;0.04504528;0.03410207;-0.082739115;0.011591379;0.005684725;0.054488294;0.046080463;-0.055228937;-0.034652077;-0.05968741;-0.101098984;-0.107447915;-0.017955838;0.16385822;-0.07914337;0.04743118;-0.13955899;-0.09873681;0.015932329;0.042744026;0.037525196;-0.14832465;0.05580282;-0.1369746;0.024594942;-0.011858812;0.02049864;0.07806722;-0.04005103;-0.01455338;-0.051122084;-0.063614175;-0.026431503;0.03115311;-0.09650244;-0.057277147;-0.06630104;-0.08089075;-0.027272949;0.02108843;-0.0402533;0.033265658;0.00376896;-0.055441793;-0.07261562;0.006245682;-0.10014887;0.0552875;0.07495602;-0.09423112;-0.108699664;-0.14527498;-0.05491577;-0.09567784;-0.057118665;0.014870216;-0.058643952;-0.021525884;-0.0446262;-0.086768866;-0.0018944199;0.031860366;0.025570603;-0.07398155;-0.10659867;-0.03610643;0.0084372675;0.06568581;0.041274708;-0.11668387;-0.11100454;-0.05541807;-0.08564831;-0.058484234;-0.010085077;0.0559402;-0.023098424;-0.021652982;-0.08703731;-0.09018417;-0.048828073;-0.08058461;-0.0702656;-0.0593091;-0.02796447;-0.12611148;-0.11944925;-0.11742874;0.034624826;-0.16877995;-0.03458682;0.072846994;0.03353081;-0.037550833;-0.0076031;-0.07189096;0.069644615;0.11899733;-0.0241266;-0.034972977;0.02646017;-0.06563987;-0.08952529;0.033833604;-0.01606772;-0.010179741;-0.14114267;-0.017608754;-0.15852554;0.009779553;-0.055697206;-0.10133996;-0.060643505;0.08689615;0.01859743;-0.039844237;0.0516047;-0.107453905;0.053895723;-0.010087619;-0.052536692;-0.023222879;-0.1035189;-0.08605296;-0.08384122;-0.05114488;-0.07001157;-0.011738048;0.008959348;0.071096726;0.015140426;-0.08005113;0.0039048726;0.017215734;-0.08687321;-0.126989;-0.008915588;0.051243264;-0.05966199;0.03739094;0.061764672;-0.13425694;-0.008575647;-0.055550095;-0.0779589;-0.12456853;-0.08974431;-0.06152525;0.04058255;-0.09040539;0.034472853;0.027050912;0.04306998;-0.0004700953;-0.02861893;0.023841757;-0.01117485;-0.1113635;-0.09856235;-0.0026361132;-0.10745431;-0.0594235;-0.0025499226;-0.04358585;0.013965355;0.00815638;-0.18071353;-0.10308361;-0.073366575;-0.0057516014;-0.027154721;-0.063949004;0.088091835;-0.15847757;0.023958102;0.029851003;-0.019146191;-0.10425726;0.0033753095;-0.06707404;-0.08650534;-0.049631756;-0.018134147;-0.15357101;-0.11711827;0.024514679;0.0078654345;0.042988703;0.03621446;-0.04956759;-0.11969877;-0.0753374;0.03373151;-0.08008335;-0.12991285;0.08719602;0.015086994;-0.10736946;-0.09979302;-0.14790115;-0.07551174;-0.064743176;-0.06455508;-0.07979102;-0.07252376;0.012735583;-0.041887213;-0.013456964;0.03380552;-0.030985985;-0.11172379;-0.08166238;-0.026752003;-0.1018137;-0.043164503;-0.058421567;-0.05645315;0.00712231;-0.015092107;-0.046342734;-0.04176178;-0.0060459236;0.15677455;-0.08253408;-0.024069527;-0.05308744;0.018210622;-0.13855012;-0.11935436;-0.01629265;-0.14297058;0.064437926;-0.039780688;-0.0876895;-0.061832603;0.052349385;-0.062364165;-0.07743483;0.0073381457;-0.1330745;-0.029887315;0.06222549;-0.03840632;-0.087234646;-0.036233034;-0.0218857;-0.17585656;0.03635429;0.06439081;-0.085210055;-0.065014735;-0.07282578;-0.12776846;-0.07836249;0.047233414;0.13077557;-0.09329503;0.003853742;-0.090364106;-0.0918307;0.05521907;-0.008598518;-0.09341375;-0.021051554;-0.1582055;0.008195277;0.036491875;0.10582361;0.027704287;-0.042703036;-0.07671102;-0.1086691;-0.029222453;0.0034595365;-0.037705943;0.008483956;-0.013147895;0.035522327;-0.03610065;-0.039308038;-0.1409981;-0.1068985;-0.040453915;-0.03708793;0.014984527;-0.04223851;0.037441738;-0.03810661;-0.050027367;-0.033177134;-0.05081385;-0.045095466;0.09841411;-0.012641469;0.12162619;0.09090326;-0.12224388;-0.06546897;0.021267138;-0.06796346;-0.029441953;-0.040919606;-0.039284755;0.009693488;0.059485734;0.02487725;0.122921795;-0.031537946;-0.056817915;-0.06285832;-0.07140815;-0.06468302;-0.073657066;-0.056413606;0.017869366;-0.070226885;0.008140936;0.031657744;0.031953167;-0.010619383;0.04965559;-0.08061613;-0.041044172;-0.00217868;-0.096679375;-0.040953208;0.04011602;-0.13312878;0.01752044;-0.05419399;0.040325332;0.033347853;-0.040799323;-0.21110779;-0.014355759;0.027810188;0.068253614;-0.10427641;0.035998058;0.0028272981;0.025339726;0.02925794;-0.107303806;-0.0062762015;-0.042325944;-0.15603223;-0.04810397;-0.0799193;-0.027818715;-0.10107194;-0.059888214;0.028479079;-0.085579135;-0.05324767;0.049394507;0.0059180153;0.07158422;0.051322997;-0.026809234;-0.027555397;-0.0121554;-0.09244892;-0.015736125;-0.17521955;-0.09158661;0.082449995;0.048021253;-0.027981365;-0.05466918;-0.09427472;-0.026849274;0.05424845;0.055868115;-0.034635443;-0.09438071;0.049132507;0.113140784;-0.11395526;0.013806781;-0.024704456;0.09011395;0.0121938;0.07728189;-0.09953181;-0.042066973;-0.013633635;-0.15231997;-0.087238565;-0.032396093;-0.04203109;0.033330876;-0.002359908;-0.050333746;-0.06688631;-0.17718044;0.036078326;-0.00963316;-0.077572055;-0.18357745;0.01969306;-0.09324147;-0.0924779;-0.03716761;-0.11872126;-0.023917263;-0.0449;-0.102024585;-0.014403628;-0.07683097;0.02896609;0.030435124;-0.142554;0.018786462;0.031933647;-0.012669874;0.015755368;0.05208952;-0.05650999;-0.12342709;-0.063178234;-0.12221721;-0.04219447;-0.04799435;-0.1298076;-0.0014227026;-0.09628689;-0.015782384;-0.015562468;-0.031121626;0.024059089;0.04222788;-0.072124824;-0.07423257;-0.054856725;-0.03655586;-0.055774458;-0.15555744;0.0010490994;-0.14226218;0.01979315;0.020438893;0.011070954;-0.13910115;-0.051045842;-0.048962407;-0.047984097;-0.049531423;0.043710936;-0.028621769;-0.13364252;0.026612755;-0.010012738;0.06121248;-0.004098503;-0.12772627;-0.091545194;-0.010798338;-0.0052770963;-0.018472634;0.00012079522;-0.10363605;-0.13703401;0.054033756;-0.11485502;-0.13042383;-0.09408775;-0.020135785;-0.16615494;-0.024797777;-0.04045598;-0.0019309078;0.0017379448;-0.08384407;0.030372214;-0.08086982;0.0006803183;-0.06411462;-0.03736814;-0.09399145;-0.06044748;-0.03151052;-0.05252004;0.025520885;-0.013958443;-0.07596282;-0.07628852;-0.018007006;-0.05214666;-0.0012398259;-0.07688858;-0.052228335;4.320388e-05;0.0588939;0.044699233;-0.08670382;-0.18159053;0.03363481;-0.08390201;-0.0013780483;-0.06458069;0.04430849;-0.02123398;0.06297969;-0.1253686;-0.054175504;-0.011395999;-0.0051367907;-0.031680517;-0.06647715;0.08482024;0.085217506;-0.064460345;-0.013300587;0.020232717;0.09205105;0.005311775;-0.012091945;0.07145651;-0.02425072;-0.028279616;-0.100070536;-0.024319895;0.049666267;-0.0028568106;-0.058343515;0.00528479;-0.012644101
-0.060904555;-0.04558337;-0.119082086;0.033458073;-0.03655333;-0.02534922;-0.055439364;-0.039324768;-0.017603585;-0.13375206;-0.041330684;0.009523571;-0.0049389484;-0.06507867;0.036527175;-0.03037691;0.014145323;-0.015822394;-0.00019785015;-0.04034325;-0.022729596;-0.03949084;0.03275224;-0.041222997;-0.008922055;-0.076196514;0.030650385;0.0070804725;-0.014732532;-0.120967746;-0.09341962;0.12443153;-0.044009;0.07007271;0.041480828;-0.0047613815;0.05764999;0.07562668;-0.08510329;-0.056370243;-0.062684566;-0.039657325;0.122741;-0.13430794;0.03318041;0.010868118;0.032387752;-0.047325123;0.021666395;-0.016706014;-0.002543813;-0.07960141;0.027989384;-0.049590964;-0.008541606;0.007861824;-0.08762248;-0.017198676;-0.0460301;0.032320037;-0.10557976;-0.12559222;0.15187153;-0.0033749435;0.042580016;-0.056726504;-0.0057001472;-0.062614106;-0.0066181095;0.05361233;-0.17068177;-0.015885618;-0.1136251;-0.014087015;0.007701936;-0.04811039;0.026470523;-0.059812166;-0.018389467;-0.049367927;-0.06783668;0.029431546;0.047897458;0.022738373;-0.0237116;-0.10371524;0.009141386;-0.04506635;0.05419096;-0.0031149462;-0.055230703;0.008766422;0.019503098;-0.1915228;0.057927996;-0.081729345;0.016854528;-0.0788706;-0.058381952;-0.07585383;-0.0066125183;-0.092402294;-0.08699219;-0.14892761;0.05239098;-0.03138337;0.0078099123;-0.05241548;-0.08247107;-0.047448047;0.099839985;-0.0027061296;-0.0466302;-0.12824786;-0.054465167;-0.10084794;0.006633035;0.035051037;-0.09534503;-0.027421784;0.02367424;0.0006096152;-0.111874565;0.044018112;0.039280374;-0.0075436663;-0.07522061;-0.0812647;-0.04314951;-0.011886074;0.012113558;-0.0021397953;-0.023484891;-0.021752013;-0.16373225;0.006846764;-0.009687538;0.012483238;-0.08205674;-0.08945975;0.08363255;0.0016850122;-0.033365183;-0.028265253;-0.084534116;0.07796114;0.017052168;0.04106821;-0.040987574;-0.09027856;-0.083239526;-0.06492841;-0.047334418;0.06070052;-0.028376695;-0.003559548;-0.0014074096;-0.044682715;-0.0072804675;-0.098179765;-0.08303345;-0.07164158;-0.046832934;-0.02513636;-0.10460573;0.059337188;-0.07864084;-0.08965784;0.016099617;-0.08986475;-0.02095168;-0.06798261;-0.06183879;-0.07120248;0.04059975;-0.09671135;-0.034939084;-0.08229989;0.14942;0.0005958879;-0.17105763;-0.096831195;-0.06885699;-0.017222341;-0.1309686;-0.10117778;-0.006153684;-0.09962288;-0.028337957;0.043720867;-0.12156334;-0.10327273;0.048194107;-0.15301086;-0.05331816;0.029150927;-0.10603498;0.0654431;-0.09146394;-0.11745618;0.01423523;-0.009754988;-0.039620604;0.02818548;-0.03523671;-0.120101966;-0.0918804;-0.06365189;0.053670634;-0.09302035;-0.09382326;-0.019063655;0.06645267;0.010791738;-0.055624444;-0.15404968;-0.058402047;-0.07141891;-0.00011297935;0.04473512;0.045768715;0.12686221;-0.005137332;-0.0054219747;0.01815851;-0.014504262;-0.07810953;0.048349977;-0.03328846;-0.01032181;0.05627225;0.006222601;-0.03228345;-0.16063248;0.05429538;0.001112239;-0.017645469;0.009470444;0.009329102;-0.081186526;0.006989195;-0.084256545;-0.049784016;-0.067862265;-0.07291139;-0.0064764805;-0.061614875;0.05091272;-0.021132423;0.05045013;-0.077015184;-0.06852989;-0.023835575;-0.05241927;-0.012861075;0.016462082;0.14500578;-0.06747722;-0.08669954;-0.03606578;0.041364353;0.020698886;0.04148017;-0.016334867;-0.030495737;0.044738326;-0.03722715;-0.13232507;-0.0010831313;0.038249496;0.0009763692;0.04821994;0.056810185;-0.070588;-0.03951115;-0.046032388;-0.09341069;0.018796474;-0.09250725;0.018523889;0.056498922;-0.046828434;0.050685454;0.054390334;-0.049461983;-0.013799308;-0.040085267;0.031104023;-0.031227281;-0.081979424;0.09814826;-0.0032763188;-0.06509575;0.038802452;-0.07661998;-0.025416056;-0.0237513;-0.002657541;-0.04514579;0.020615103;-0.10854604;-0.055346444;-0.0002321138;0.0016506924;0.11236349;-0.049896825;-0.093751565;-0.05045835;-0.02528149;0.062584005;-0.028766267;-0.06154962;0.06688243;-0.11096573;-0.087720744;-0.026148368;0.0565791;0.11830963;0.038304;-0.10131399;-0.049841247;-0.07420512;0.051499385;-0.012336646;-0.09918483;-0.08565365;-0.041961893;0.019313626;-0.027377483;-0.07564234;-0.094288185;-0.0032204834;-0.05013599;0.056978464;0.016248167;0.03126361;-0.10708243;-0.0741409;0.03286786;-0.09325769;-0.01699032;0.06946456;-0.10668393;0.042517293;-0.05583435;-0.09874519;-0.10050633;-0.016439434;0.0006002413;-0.09417573;0.055276692;-0.049122907;-0.10421799;-0.008274647;0.021558104;0.09971273;-0.022713697;0.020480637;-0.09723592;-0.095430456;-0.07905363;-0.106562376;-0.04532954;0.04999478;0.0216492;-0.044746432;-0.07042849;0.0047859987;-0.05567733;0.06020303;-0.107522085;-0.1455556;-0.030994438;-0.032919575;0.059454657;0.036133118;-0.00887523;0.026017;-0.05139055;0.054279875;0.012204403;-0.10510551;-0.1347684;-0.09427807;0.025272232;-0.0013344784;-0.07186845;0.06129474;-0.083711304;-0.031014076;-0.08644112;0.04470344;-0.03959372;-0.06200131;-0.10798647;0.036441214;0.009938715;-0.013232018;-0.07806943;-0.18045837;-0.09898742;0.035230987;0.085307896;0.06108212;0.012110099;-0.013190862;0.08326775;-0.040300183;0.038497724;-0.10260424;0.06667103;-0.09440607;-0.053162698;-0.07167578;0.081008986;0.00476608;0.027683012;-0.07317575;-0.047853254;0.049545433;-0.07406816;0.042461198;0.028684834;0.040318433;0.04073331;0.078699104;0.044326678;-0.12403209;-0.057175867;0.13271777;0.039970722;-0.074915476;-0.013260359;0.01858139;-0.09416296;-0.023333374;-0.107959785;-0.07682101;-0.006694233;0.010759423;-0.09206698;-0.12885456;-0.08044932;-0.09570859;0.054426614;-0.10085219;-0.024685755;-0.14604652;-0.0824782;-0.064125575;-0.09675253;0.03302239;-0.0649764;-0.023109779;0.061885253;-0.09829761;-0.024558447;-0.023843959;-0.016566243;0.04174445;-0.08154048;-0.028121188;0.077104084;0.008737622;-0.0747161;-0.026029078;0.013794421;-0.07071254;-0.1158272;0.03299027;-0.058860496;-0.0872902;-0.041589916;-0.030096319;-0.08775667;-0.113253236;0.036013752;-0.059892617;0.0052410616;0.012657719;0.041310575;0.01868866;0.06930624;0.037492387;-0.041595507;-0.06551379;-0.024022568;0.0024525346;-0.028184451;-0.07641579;-0.013254787;-0.13549094;0.010206932;0.04132861;0.030294066;-0.039124656;-0.020141222;0.01140518;0.008898015;0.063565485;0.03771842;0.015396944;0.018518267;-0.06923076;0.032923076;-0.007830739;-0.04475303;-0.030317761;-0.016107056;-0.015297271;-0.07250431;-0.05018769;-0.102880195;-0.015714552;-0.12075965;-0.023235582;-0.16742498;-0.07027359;-0.021623038;-0.009340557;-0.12202684;-0.05119507;-0.08812744;-0.020504393;-0.018973587;-0.011433731;-0.09970555;-0.03075871;0.002583301;0.039516978;-0.00066410605;-0.02691662;-0.0737753;-0.024713757;-0.123990655;-0.0650324;-0.08185511;-0.005668372;-0.082592264;-0.012609377;-0.0049578813;-0.03452021;0.07048119;-0.02857066;-0.059400707;0.07643409;-0.13605212;-0.012500621;0.045716286;-0.07046088;0.02074605;-0.06885826;0.020123405;0.0012302902;-0.11098667;-0.035260927;-0.10617422;-0.06026812;0.07811178;0.10612639;-0.08705476;-0.06312835;0.08804307;0.051077608;0.004965247;0.043441076;0.12191446;0.014088896;0.004853815;-0.020947436;-0.05789522;-0.039851427;0.09797784;-0.08048241;0.04190196;-0.029893497
-0.032706607;-0.023398945;-0.08154059;-0.08443707;-0.088035926;-0.0071792793;-0.024409385;-0.09197781;0.0759275;-0.0258534;-0.02383346;-0.08578448;-0.09388828;-0.09949175;-0.044081416;-0.03992264;0.02017585;-0.16799659;-0.06735041;-0.091933906;-0.043879453;0.027787369;0.061919533;-0.01950088;-0.032558925;-0.063781165;-0.09364736;0.0005718821;0.058881424;-0.1141191;-0.113208994;0.13844258;-0.05641207;-0.101929456;-0.111287214;0.01756909;-0.03329909;0.081933774;-0.09021498;-0.07267591;-0.020613028;0.0909605;0.051454544;-0.027411675;-0.03937672;-0.13359629;0.023640048;-0.09460021;-0.061672233;-0.11830247;0.035933807;-0.16571762;0.014431663;-0.044483032;0.0005735354;-0.09823923;-0.028572513;0.05008639;0.038639434;0.037934013;0.0038936373;-0.096245825;0.16465464;-0.028384281;0.01592427;-0.101930834;-0.08850321;-0.006055399;-0.020472094;0.04290517;-0.07919627;-0.0135538755;-0.013241069;0.031488262;-0.09876535;0.054793444;0.007112633;-0.010120664;-0.07927674;-0.027705712;-0.07293806;-0.049310084;0.027576458;0.027346015;-0.124343194;-0.06365376;0.009446637;0.010381622;0.008395967;0.019360807;0.042496197;-0.06469043;-0.061460536;-0.16363169;-0.06293402;0.040962763;0.0923072;0.06094809;-0.020165654;0.023972554;-0.123643585;-0.07864497;-0.051017333;-0.09543666;0.044867054;-0.0865298;-0.022842066;-0.076520994;-0.07310315;0.035076044;0.095041186;-0.123809956;-0.037179813;-0.09876136;-0.0039470205;-0.0050814496;0.102171496;0.027179968;-0.07248892;-0.06358392;-0.053522922;-0.08600263;-0.0402295;-0.018069426;0.004909677;0.045262024;-0.026109802;-0.012608221;-0.017118199;-0.016451795;-0.056957085;-0.054145493;-0.049996536;-0.027862241;-0.13208376;-0.115951814;-0.0041688927;-0.015476473;-0.09396361;-0.014754563;0.069918334;0.038585924;0.010991016;0.033232745;-0.17045607;0.10496734;0.12706612;-0.009699387;-0.07845547;-0.026982993;-0.027000029;-0.08724805;-0.089037456;0.011065606;0.04699151;-0.08200673;0.0050522382;-0.11964213;-0.009434494;-0.122191474;-0.06411716;-0.08715052;0.07570029;-0.057086963;-0.100960284;-0.048293766;-0.14948052;0.006880272;-0.12154735;-0.068322495;-0.10238264;-0.15726593;0.045181733;-0.060031943;-0.0016359618;-0.091802835;-0.033046756;-0.10433796;0.16256863;-0.09093448;-0.0732691;-0.12529716;0.0144843655;-0.07603425;-0.11240385;-0.11099493;-0.05196981;0.025930524;-0.028248407;-0.0527973;0.011578208;-0.059534527;-0.004767607;-0.1667177;-0.08922997;0.03517825;-0.062397394;0.089743584;-0.008991636;-0.07987918;-0.059846185;0.0039099553;-0.07662008;0.08362024;0.031298194;-0.039085425;0.040649857;-0.16766818;-0.08653012;-0.12679398;0.055462815;0.009275275;0.0056331824;-0.08050383;-0.016471742;-0.1642573;-0.0899603;0.00071404217;-0.0750589;0.041387275;0.0031947754;0.07840207;-0.08314291;-0.061308958;-0.024469987;-0.039598126;-0.087367855;0.007713291;0.03784324;0.019953616;0.017062578;0.08719624;-0.07296034;-0.0644375;0.017567612;-0.024314635;-0.035136815;0.041042764;-0.13134463;-0.056189038;0.037616536;-0.058895957;-0.106209494;-0.06940038;-0.023352014;0.05478025;-0.12381223;-0.087931044;-0.06989816;-0.092471115;-0.032275178;-0.067934416;0.027170293;-0.18284391;0.04125053;-0.11093446;0.1028319;-0.013116013;-0.064340726;-0.065206036;0.054551132;-0.0867576;0.008766609;0.032825526;0.027244775;-0.08126817;-0.092278205;-0.021682857;0.052833643;-0.013149804;0.07149638;0.06839694;-0.029738065;-0.10383273;0.028185653;-0.07370732;-0.04356472;-0.09603903;-0.14417587;-0.043101985;0.11936455;-0.11959953;-0.08717763;0.058176868;-0.09959134;0.036997244;-0.03148037;-0.11377058;-0.056211676;0.018674072;0.049092703;0.044215757;-0.08628102;-0.049428016;-0.11923501;-0.14097415;-0.056351647;0.10136463;0.037095614;-0.041420735;-0.086866096;-0.18279468;-0.027515808;0.124342255;-0.01083918;0.024108782;0.024712652;0.026374325;-0.1575712;0.034556907;-0.049406875;-0.06717895;0.02678968;-0.19480348;-0.06500318;0.039685924;0.14822638;0.08071654;-0.06767395;-0.096214086;-0.008274734;-0.06244964;-0.096275695;0.027688717;-0.09259317;-0.060097087;0.04584617;0.032579836;0.019353412;-0.119293414;-0.11669821;-0.006093157;-0.06495036;0.08103607;-0.05624292;-0.048519343;-0.086611345;0.026404409;-0.014945624;-0.029988693;-0.052086446;-0.010153511;-0.006719506;0.09021593;-0.014582754;-0.030730758;0.009401241;0.01218563;-0.019552873;0.024887204;0.04908766;0.019534763;-0.00936995;0.042831838;0.10909553;0.01710918;-0.14875627;-0.042323004;-0.05345071;-0.068349086;0.018687818;-0.082871884;-0.060643137;-0.028407648;-0.034345057;0.026897537;-0.045406476;0.060547125;-0.048250157;0.0181263;-0.11303226;-0.030310739;0.03386544;0.013015199;-0.0040639765;-0.065871395;-0.08641864;-0.06293986;0.05019637;-0.0027842415;0.058001395;-0.11165082;-0.09932036;-0.06310672;-0.10902344;0.0374438;-0.08184794;-0.062403865;-0.042526376;0.025254888;0.05721282;-0.04639939;-0.05671521;-0.09339704;-0.15106992;-0.08933929;-0.103712134;-0.10005616;-0.162975;-0.13913706;-0.1343441;-0.009949247;-0.0765637;-0.039965753;0.041725982;-0.00010824362;0.072715215;0.030937951;0.050266188;-0.085617185;0.022353623;-0.022928296;-0.08905256;-0.014245769;0.11754136;0.025013983;0.057205524;-0.021366008;-0.08978635;0.015114127;-0.06589404;0.075086;-0.101528;0.026653882;-0.06286804;0.120546624;0.022600114;-0.08383598;0.028154694;0.14081879;-0.0018854568;0.008691377;0.03600544;-0.049140625;-0.11738615;-0.02703297;-0.1330879;-0.03104579;0.060506992;-0.0607517;0.013871743;-0.07008139;-0.019017557;-0.080392264;0.0720761;0.01525724;-0.15767014;-0.10689194;-0.025349025;0.039520543;-0.05864722;-0.029672148;-0.11705534;0.010654751;0.07263318;-0.13092867;-0.10585473;-0.01955549;0.0031328544;-0.07798897;-0.04025342;-0.0014997699;0.078765005;-0.061520915;-0.0646964;0.013250504;-0.05004941;-0.056611683;-0.115088485;-0.07552892;0.04066069;-0.11105326;-0.012891098;-0.026908793;-0.0047950633;-0.0031886925;-0.05308531;0.025746293;0.041075464;-0.045199066;-0.051892534;0.03459712;-0.06386498;0.014983438;-0.011673388;-0.10784224;-0.06638572;-0.035660356;-0.012744542;-0.079855844;-0.07444313;-0.047892675;-0.098118976;-0.080649585;0.058579713;-0.021245396;-0.010946053;0.011996002;0.016543947;0.036973722;0.0810673;0.008894963;-0.011194983;0.014175316;0.008064832;-0.060947347;0.025580075;-0.048056237;0.003453282;-0.07554063;-0.115861244;-0.036639877;-0.06252685;-0.09670727;0.003407866;0.016106132;-0.13315617;0.02321581;-0.07310706;-0.030514648;-0.06928683;-0.07864586;0.062284425;-0.15100816;-0.088579774;0.038878836;-0.08288848;0.030784264;0.033453375;0.06072804;0.037873525;-0.030963697;-0.12695965;-0.1414746;-0.06990436;0.097187094;-0.07399823;0.02275638;-0.06191621;0.06768383;0.018249173;-0.010191957;-0.026033256;0.006595956;-0.048610803;0.05632634;-0.19973351;0.0322333;-0.08556049;-0.061640225;-0.1051295;0.07157444;-0.11624728;-0.047457647;-0.13120884;0.06772732;-0.073054865;-0.0056970594;0.09418497;0.13144355;-0.0024921675;0.034062907;-0.023521617;-0.013216476;0.013356411;-0.05249708;0.17351845;0.038390987;-0.02836317;-0.07108917;-0.04232311;-0.023042588;0.018863535;-0.037674822;0.04757331;0.0020943186
-0.04026206;0.0068467306;-0.08178422;-0.058481872;0.030402975;-0.12315634;-0.038373712;-0.0039740037;-0.06444984;-0.0040547918;-0.096060894;-0.05634236;-0.12311541;-0.06720463;-0.015583079;-4.775205e-05;0.10139311;-0.024220703;-0.06882541;-0.10917337;-0.08138571;-0.09709526;-0.034450013;0.037829813;-0.09145716;-0.090682395;-0.01001994;-0.0979127;-0.06482514;-0.032521874;-0.009884833;0.08217143;-0.021323446;0.0479577;0.034476466;0.030886164;0.053132344;-0.0022474162;-0.09788342;-0.02911342;-0.077975065;0.069029525;0.08823708;-0.043290287;-0.04766782;-0.08794601;-0.07003843;-0.01572334;-0.004794826;-0.13907735;0.16025417;-0.052272163;0.00078564696;0.063200645;0.0003970434;-0.086589195;0.016030042;-0.021986235;-0.08883666;-0.029436275;0.06900724;-0.07987455;0.06913329;-0.023713484;0.032480102;0.015531996;0.033854697;0.024023147;-0.04389927;-0.014942647;-0.13272053;0.089804314;-0.05310925;-0.09128732;0.039543074;-0.10931031;0.017270455;0.0050588436;-0.08211587;-0.0934543;0.00849282;-0.001395377;-0.052854758;-0.005914428;-0.11948942;-0.051529277;0.0036272116;-0.007935909;-0.037996422;0.013554001;-0.0076740915;-0.015621386;0.012183474;-0.11266618;0.060307987;0.014756975;0.15504746;-0.055680756;-0.051558804;-0.056644943;-0.07843177;-0.12294141;-0.08849408;-0.036105026;0.031081535;-0.055153046;-0.09682781;-0.13026716;-0.03285979;0.035786163;0.024683334;0.03850492;-0.12670974;-0.18302658;-0.10120911;-0.07758514;0.11082846;-0.085063025;-0.056611065;-0.103168845;0.11617456;0.04642508;-0.103595704;-0.107102;-0.033064656;-0.039883025;-0.016739575;0.033661213;0.078974016;-0.040252015;-0.024010852;-0.07973036;-0.017369686;0.016317677;-0.16052368;-0.048640057;0.031034835;0.05124814;-0.058774605;-0.006867432;0.16059513;-0.05545602;-0.04283178;-0.06521691;-0.11574336;0.05429596;0.007923896;-0.007967362;0.036644883;0.021123972;-0.10036681;-0.05034495;-0.11089488;-0.10260978;0.005779338;-0.06443533;-0.03524008;-0.049418803;-0.022105627;-0.06986365;-0.095956184;-0.0040729274;0.058222212;-0.0036857459;-0.031326856;-0.07461297;0.013922749;-0.035673123;0.016588861;0.016051618;0.00082618586;-0.18907824;-0.06841868;-0.07408217;-0.068601206;-0.09169122;-0.0005837799;-0.081683636;0.10396114;-0.01959399;-0.119946264;0.0035672663;0.022158729;0.0048361425;-0.105436884;-0.009490917;-0.034961335;-0.028036885;0.11545692;-0.09421705;-0.11939928;-0.0021848648;0.0063596526;-0.13883615;0.030625671;-0.031175816;0.011002228;0.12983035;-0.024950804;-0.0119856065;-0.007955762;0.12729064;-0.020008655;-0.09405924;0.023757912;0.033563834;-0.041991405;-0.12620357;0.03456857;-0.15233679;-0.10493164;-0.09855229;-0.022497801;-0.04483362;-0.11033033;-0.12288384;0.04524232;-0.07623346;-0.042153142;-0.07893309;-0.07372141;0.06261302;-0.13131532;-0.06317554;0.037912223;-0.08809488;-0.14136912;0.080709994;-0.043511037;-0.08516489;-0.073904626;0.045602415;-0.025812348;-0.17343599;-0.087612286;0.014955518;-0.103813305;-0.035194095;-0.06340017;0.03101157;0.02581568;-0.031069132;-0.15201966;-0.0892623;-0.09733305;0.04447708;-0.006959977;-0.013844716;0.025994446;0.02479356;-0.065891005;0.028554888;-0.039469663;-0.11026714;0.05074583;0.013545034;0.16565724;-0.0874733;-0.00784553;-0.036752027;-0.047304243;-0.0059295055;-0.094859146;-0.07867113;0.013663703;-0.10877117;-0.015744628;-0.0072872513;0.022113802;-0.07090083;-0.016814299;0.10841404;0.048652228;-0.04599693;0.0029599646;-0.02294166;-0.0353931;0.04085582;-0.067967966;-0.018071145;0.12586485;-0.08656311;0.013300431;0.030190712;0.013917481;0.027674291;-0.019223182;0.023643253;-0.114594825;-0.016338388;-0.07023459;0.031181606;-0.0531653;-0.053031538;-0.0558671;-0.14279377;-0.1104082;-0.036190383;-0.029234841;-0.0913391;-0.037436392;-0.061238293;0.010402915;-0.04596194;-0.041874867;0.021378314;-0.03184502;-0.06476539;-0.13959196;-0.0018485151;-0.0017842532;-0.05590823;-0.036112018;-0.16641521;0.03338122;-0.1004814;0.13354267;0.069252424;-0.07965937;0.0048335125;0.025695562;-0.09151253;-0.10425037;-0.08806817;-0.037326563;-0.06811953;-0.061458144;-0.13558052;-0.07939073;0.031698406;-0.0010680777;-0.005328423;0.049832717;-0.075102784;0.004725203;-0.006647721;-0.021445077;-0.047084577;-0.028620293;0.03714743;-0.095932655;0.0726261;-0.044604667;0.0032392396;-0.059012514;-0.06716424;-0.04108934;-0.059131347;0.050593417;-0.01049457;-0.08659292;-0.099730335;-0.07605455;-0.059553497;0.09169046;-0.005679859;-0.0466145;0.018605068;-0.04755056;-0.069710664;-0.15019989;-0.21557955;0.016337909;-0.07322898;0.04383384;0.040224098;0.026463158;-0.071808256;-0.044356763;-0.09906389;-0.09051505;-0.10695188;0.03310442;0.016672872;0.03759941;-0.15092757;-0.001464784;0.09146229;-0.028332263;0.04294516;0.034850467;-0.10081949;-0.18121724;-0.01916058;-0.09898362;-0.07761759;-0.08588324;-0.016381055;0.006829882;-0.09457957;0.08833892;-0.080039315;-0.044316843;-0.11453516;-0.047356963;-0.07518861;-0.0031676462;-0.13308997;-0.03463268;-0.10004875;-0.12793261;0.04979691;0.029727697;0.047741275;-0.08941608;0.020101674;0.081921786;0.014360675;-0.0059751538;-0.042901333;0.08364634;-0.10315845;-0.14262931;-0.015800178;-0.020295221;0.013817705;-0.10056963;-0.06786518;0.04230324;0.0786689;-0.089309014;-0.052846935;-0.020470848;-0.018986316;-0.09529935;0.101108216;0.01305529;0.007563513;-0.07250231;0.08549427;-0.108769804;-0.11340697;-0.059791807;-0.088810004;-0.02748353;0.011729535;-0.08730924;-0.037518147;0.043975424;-0.105528995;-0.11707092;-0.050889052;0.033436764;-0.009130256;-0.03257035;-0.016407322;-0.079401925;-0.07355302;-0.033479877;-0.0012370287;0.02251222;0.0293555;-0.109658815;0.10408788;0.040556483;-0.12604657;-0.10268578;-0.01206382;-0.13334432;-0.022685288;-0.15238316;-0.013044102;0.14650975;-0.06784606;-0.016430791;-0.076279454;-0.10755101;-0.11592797;0.018401533;0.059631743;-0.058921464;-0.0089320885;-0.14348641;0.039438933;-0.05004353;-0.008474751;0.0467433;0.046637125;-0.12388192;0.02728068;-0.09822169;0.028563675;0.04547372;-0.028772429;-0.06675021;0.039541066;0.058910966;-0.08941402;-0.03792845;0.02923384;-0.093770504;-0.032270096;-0.078376286;0.021506704;-0.10643897;0.0040447586;0.045366243;-0.05596809;-0.078227974;-0.0731349;0.01425695;0.06459374;-0.037525125;-0.036257893;0.038945254;0.022990432;-0.014457417;-0.051686827;-0.06252217;-0.07668728;-0.027910113;-0.098051846;0.014713272;-0.07938626;-0.03746746;-0.067357;-0.15358895;-0.084450975;-0.116403036;-0.051235907;0.021566274;-0.016127747;-0.00405011;-0.13039103;-0.005427031;0.029205577;-0.061115254;-0.10298764;-0.06688715;0.025535475;0.048363496;-0.059660215;-0.05626812;-0.03676328;-0.028621629;-0.038249273;-0.030676657;0.03106807;0.025303137;0.029622797;-0.032037362;-0.06298092;-0.0031462794;-0.060048085;-0.12676987;-0.093368135;-0.06415438;0.0013964297;-0.02648159;-0.06764697;0.056583486;0.00329806;-0.095761;-0.052867554;-0.051293794;0.06258811;-0.07542402;-0.07997953;0.1559335;-0.059018128;-0.07120111;-0.0656517;0.16106987;0.04724207;0.01062601;-0.08821351;0.061410498;-0.09787127;-0.063724026;-0.06720341;0.046624184;0.003213664;-0.03169986;-0.09511536;-0.004495386;0.017857475
-0.03184586;-0.040011175;-0.110062584;-0.1366894;-0.07114756;-0.016518611;0.031714316;-0.07134195;-0.06108589;-0.10676544;-0.06980031;-0.002488269;-0.11018369;0.0390915;-0.015056317;-0.03338231;0.08473777;-0.12337058;-0.08406062;-0.00460172;-0.010703453;-0.060811263;-0.046466798;0.05180086;-0.103369966;-0.11635524;-0.030203832;-0.012783872;0.036106832;-0.013923207;-0.023538971;0.17095545;-0.04332763;0.003757451;-0.011437967;-0.062525496;-0.072167315;-0.08354283;-0.049475335;-0.017012445;0.049120627;-0.012163531;0.089588486;-0.12917018;0.0616493;-0.1195674;-0.09680612;-0.018624393;-0.08140562;-0.075552605;0.15081845;-0.009394917;0.032863915;0.07111532;-0.07068189;-0.017986638;-0.07511783;-0.07842959;-0.04867136;0.019549835;0.08602458;-0.050936606;0.035715926;0.04855845;-0.05164561;-0.13259003;-0.08407173;-0.038015313;0.0034138716;-0.019294372;-0.079572946;0.09965174;-0.07659398;0.056167964;-0.06318328;-0.018127238;0.00059365603;-0.11033588;-0.033739362;0.04500746;-0.036196362;-0.0398006;-0.0050039245;-0.06212429;0.0009684662;-0.067466065;-0.046131272;-0.039618466;0.03722351;-0.010681194;0.03656123;-0.07791976;-0.016121887;-0.13934821;0.039202586;-0.057028856;0.030373424;0.027809542;-0.010687236;-0.054289166;-0.13530977;-0.088871606;-0.11372221;0.02789524;-0.09858953;-0.033142377;-0.008998244;-0.03187125;0.01606643;-0.10232054;-0.0084249405;-0.062804595;-0.13651395;-0.05129483;-0.04684328;0.02216172;0.10339601;0.007842487;-0.16417891;-0.0150583945;0.043409295;-0.08084651;0.028665684;0.002907122;-0.064448446;-0.11399304;-0.09727796;-0.01682066;-0.023387183;-0.060918916;-0.10162714;-0.061502494;0.045531794;-0.050086502;-0.050907314;-0.10164845;-0.07372641;-0.04350821;-0.17056556;0.013508324;0.18877307;0.018656727;-0.0007966155;-0.059579197;-0.037765753;0.0138049135;0.06195648;-0.049106482;-0.03126513;-0.048864923;-0.030573362;-0.021479262;-0.08620487;0.021941002;-0.10469142;0.014233137;0.024536531;-0.04383601;-0.10658073;-0.094064385;-0.079514556;-0.077497244;0.011664825;-0.06303048;0.023531113;0.036251344;-0.036021963;0.050980527;0.057162184;0.0015468356;-0.00982835;-0.1491743;-0.056157656;-0.09297382;-0.056264613;-0.034526825;-0.0021286907;-0.010004957;0.11652766;-0.057923563;-0.14756277;-0.12757275;0.005669862;0.020656304;-0.08340106;-0.015271012;-0.07038032;-0.07625884;0.07823086;-0.10043646;-0.016995316;0.014600336;0.027749553;-0.116049476;0.028688742;-0.080517665;-0.02684042;0.10445247;-0.078691386;-0.058082245;-0.016887205;0.07129202;-0.07096614;-0.015784258;0.014030394;-0.09869908;-0.05335274;-0.14119673;-0.024599386;-0.11397715;-0.09602987;-0.09644385;-0.07457876;-0.09805399;0.038158283;-0.21547961;-0.11471037;-0.0047896067;-0.0020300893;-0.069898166;-0.062273763;0.002731435;-0.11700899;-0.047174737;-0.095176585;-0.075324714;-0.08068891;0.049088806;-0.061940417;-0.07651257;-0.04139754;0.07865567;-0.0077691996;-0.18324055;0.06515728;-0.011303046;-0.11126597;-0.04316236;-0.067941085;-0.027131444;0.03643064;0.032327175;-0.013200488;-0.06324996;-0.103851005;0.12514625;-0.078628235;-0.07993711;-0.04744124;0.04010954;-0.025003523;-0.10413785;-0.04883207;-0.18626647;-0.0012763456;0.0275273;0.088387646;-0.026302697;-0.101002805;0.019332295;0.0033821147;-0.091534555;-0.09220611;-0.024133433;-0.008696134;-0.036774866;-0.0014672965;-0.070053875;-0.018150577;-0.0625637;0.06479608;-0.011028061;0.013480668;-0.024273148;0.09319039;0.043151937;-0.03603439;0.0446035;-0.124876395;-0.024801515;0.09276282;-0.019403208;0.045076746;0.07550634;-0.08737929;0.013544871;-0.10994007;0.003815831;-0.06799631;-0.009004856;0.0072135148;0.026555171;-0.092591375;-0.033224225;-0.13263178;-0.12025107;-0.073332205;0.10768909;0.029531766;-0.062323447;-0.05504105;-0.147057;-0.07216669;0.056422956;0.0479895;-0.11623026;0.013555205;-0.024561133;-0.14036028;-0.033398893;0.053917922;-0.072929524;-0.07950064;-0.160939;-0.096408874;-0.067230485;0.09766807;0.059394732;-0.09617692;-0.09419139;-0.07899193;-0.024710743;-0.007861219;-0.044320174;-0.020510018;0.012460924;-0.026606087;-0.058481105;0.039308798;0.0056184395;0.03262376;0.03534831;-0.030104227;-0.04270264;0.019413939;0.025475353;0.028712833;0.06291439;0.0022182001;-0.05501913;-0.12830035;0.01728761;-0.015132804;0.06886594;0.031970486;0.0108851055;-0.049029745;0.03292057;-0.097498156;0.024327727;0.063378036;0.034546755;-0.011600483;0.013781406;0.07708271;-0.024383226;-0.07161927;-0.080852374;0.026847495;-0.09047474;-0.034855593;-0.13721487;-0.13574299;-0.035396133;0.029334608;-0.0045606694;-0.04767743;0.07319677;-0.08074646;0.04095866;0.029611327;-0.010819546;0.004355462;-0.024642121;0.025896583;-0.13085221;-0.04291535;-0.01726294;-0.0087180035;0.06388515;0.040806986;-0.06908917;-0.10030925;0.05283157;-0.040023953;-0.076458074;-0.01159891;-0.020854805;-0.09069206;0.040436838;-0.015726846;-0.08645958;-0.050432634;-0.019697005;-0.12588719;-0.06853285;-0.06657098;-0.021786269;-0.09055393;-0.06818665;-0.095879145;-0.009023356;0.0721271;0.036212478;-0.009296457;0.060719214;0.03230371;0.05780153;0.02391057;-0.057001837;-0.016859502;-0.05460075;-0.061275043;0.031330302;0.06603576;-0.06716171;0.018896412;-0.095885046;-0.059448;0.14778453;-0.09985395;-0.06926209;0.04747578;0.0360906;0.04084758;0.021983273;-0.044844944;-0.03237191;-0.004701555;-0.021011923;0.008014156;-0.049877923;-0.01212569;-0.004007754;0.018105935;-0.011303675;-0.0024267554;-0.01742251;-0.032713804;-0.10482614;0.053043064;-0.095144875;0.014953562;-0.12838179;-0.0016421789;0.050858285;-0.058622424;-0.044130802;-0.05336319;-0.103846274;-0.11803706;-0.0755914;-0.115797;0.04020052;0.021228123;-0.039521802;-0.090095766;-0.094407864;-0.066393904;0.033298135;-0.16173418;0.054225992;0.16716342;-0.061252866;0.0368008;0.016524538;-0.12262614;-0.052110374;-0.0502001;-0.017442081;-0.057315573;-0.010799769;-0.08891307;0.023122014;0.026483128;0.023384092;-0.065810405;-0.03212432;-0.0787641;0.036726408;0.042915598;-0.10988965;0.058013804;0.111580215;-0.10220645;-0.06754509;-0.026148695;0.0047863615;0.077469006;-0.02220494;0.034375582;-0.047344405;-0.08959375;0.02085478;0.04394718;0.07583994;-0.0020205257;-0.11235846;-0.056232862;0.05386146;0.13856967;0.09978925;0.030096952;-0.015595651;-0.08119772;-0.0586064;-0.048705764;-0.099853426;0.04914838;-0.08721841;-0.07449157;-0.08300393;-0.012658549;0.014499201;-0.063786395;-0.03498545;-0.20939767;-0.011390725;-0.06595116;0.0023500153;0.04340177;-0.06961508;-0.03676874;-0.09567903;0.048069157;-0.023116548;0.034075707;-0.02562906;-0.014942562;-0.06382896;-0.05052312;0.026732426;-0.0420965;-0.053621687;-0.030271662;-0.047934167;-0.027870692;0.01900597;0.01655439;-0.04363397;-0.013459894;-0.026948666;0.010271331;-0.07322884;-0.053202044;-0.052064244;-0.09924403;0.01696886;-0.09821216;-0.009782333;-0.041851122;-0.02015763;-0.08051786;-0.024570845;-0.028027037;0.015193692;0.0022379581;-0.040976368;0.17998675;0.10472365;-0.03791847;-0.102758534;0.078719646;0.009975025;-0.09201794;0.044350524;0.043516543;0.012463689;-0.08724115;-0.043245055;-0.08949923;-0.0121419355;-0.0031992598;0.019520272;0.055324532;-0.027199803
-0.038936745;-0.052216873;-0.02499159;-0.015280822;-0.04324396;-0.121499896;-0.053290427;-0.003736143;-0.10066344;-0.040047385;-0.045389425;-0.050323047;-0.11142684;-0.026555458;0.01452096;-0.031206392;0.03392439;-0.106471345;-0.09907314;0.0067908536;0.012638913;-0.030896218;-0.074594826;-0.07980658;-0.0916452;-0.07196553;-0.077528104;0.039664194;-0.03399085;-0.043616634;-0.13897626;0.036131106;-0.007082549;0.0177211;-0.113977194;-0.025690567;0.008984179;-0.057136323;-0.10534899;0.046260398;-0.065114684;0.0023262112;0.034722496;-0.059849266;0.055733547;-0.10395938;0.034078468;0.010864081;-0.020990927;-0.11699528;0.06723449;-0.0300007;-0.08897838;0.07716862;-0.14259933;0.013553336;0.005267736;-0.09474362;-0.026130758;-0.05083904;0.10945712;-0.039420694;0.08527743;-0.041910652;-0.088576205;-0.10742816;-0.026743932;-0.13757639;-0.01076061;-0.01616156;-0.099236526;0.07092221;-0.110821806;-0.10343987;-0.06778663;-0.1026469;0.014330391;-0.026768517;-0.149417;-0.02675124;-0.033600625;-0.07322749;-0.1385313;0.06857003;-0.116634145;0.023040108;-0.10250103;-0.08433541;-0.117490835;0.046624307;-0.10518962;-0.052786756;0.0035831793;-0.1384262;-0.024424516;-0.06800254;0.14781906;-0.08674948;0.0055670654;-0.0040340885;-0.09782727;-0.08270225;0.0045883493;-0.019586725;0.016694669;-0.059955206;-0.1054371;-0.08403362;-0.04136412;-0.04722546;-0.029132532;-0.09424013;-0.044650853;-0.0708108;-0.1285583;0.00015986148;0.030192409;-0.0406877;-0.140304;-0.03807176;-0.0061746715;-0.11130031;-0.061799604;0.029642796;-0.07296839;-0.04199674;0.046390936;-0.047930326;-0.06362686;-0.0065640523;-0.023930931;-0.12821001;-0.119912446;-0.02247015;-0.060251232;-0.09210365;-0.051135786;0.020890666;-0.019588709;0.015012106;0.14153647;-0.039489392;-0.014659264;0.011958169;-0.06450263;0.058431074;-0.01438086;-0.09438475;0.0007737;-0.09383329;0.049142577;0.040518288;-0.0937066;0.07005808;-0.08183408;0.028480139;0.040305607;0.026239041;-0.122938246;-0.08492187;0.041790467;-0.06352659;0.01961657;-0.006276955;-0.04385114;0.0024955445;-0.13882147;-0.013275988;0.03946829;-0.042656213;-0.096860975;-0.18665108;-0.09883101;-0.096997894;-0.023289882;-0.09733368;-0.10243763;0.024780296;-0.0061813043;0.01823486;-0.1997;-0.092950046;0.023334384;-0.08000726;-0.03146228;-0.033099987;-0.011379932;-0.12227927;0.1597047;0.023112541;-0.029174557;-0.104818515;0.043734714;-0.04989515;-0.079923004;-0.064389944;-0.07634655;0.090488516;-0.03977597;-0.037132464;-0.090796575;0.10649162;-0.06042348;-0.091146834;-0.055724345;-0.0076093334;0.046904612;-0.013300436;-0.11092313;-0.08165117;-0.035848353;-0.018766984;-0.06519485;-0.1443268;-0.050686296;-0.2236758;-0.05146238;-0.008690113;-0.07453451;0.045337614;-0.01929291;0.050528124;0.019012962;-0.011549254;-0.047782168;-0.08942601;-0.09131125;0.03396515;-0.15783101;-0.1108881;0.009794756;0.0026349125;-0.13435908;-0.18419027;0.0038466076;-0.03536754;-0.03528544;-0.08785026;-0.07747097;-0.014857124;-0.01802558;-0.05373252;-0.17080088;-0.03137676;-0.104489185;0.008135861;-0.029085973;0.016996892;-0.0825699;-0.049557824;-0.11346533;-0.12022843;-0.010637067;-0.07250066;0.052413605;-0.08379255;0.03157932;-0.06312429;-0.07438461;0.021363255;-0.092054404;0.01519995;0.03528821;-0.04227146;0.030611465;0.01590406;-0.09187184;-0.03142677;-0.07861998;-0.055637028;0.0008771263;-0.005085402;-0.058386315;-0.07731931;0.02733593;-0.06422646;-0.06799707;-0.08197456;-0.17698321;-0.087528475;-0.0047956975;-0.11280124;-0.087531395;-0.08573351;0.020895664;-0.046901003;-0.027467063;-0.10555788;0.026952723;-0.015040469;-0.10116306;0.010336584;-0.07096644;-0.03196086;-0.100635104;-0.06841634;-0.045006707;0.047917727;-0.05236816;-0.07080466;-0.031205859;-0.15126596;-0.040212188;0.06676359;-0.03901064;-0.059593428;-0.049495306;-0.097571574;-0.13531588;0.024286646;0.02586457;0.015276679;-0.09584214;-0.1522113;-0.1246038;-0.08040846;0.03187878;0.02095366;-0.010672059;-0.024664719;-0.06390218;-0.10730927;-0.094893605;-0.04026752;-0.092765704;0.027486546;-0.10484204;-0.1553486;-0.09054099;-0.033837203;-0.021637946;-0.041334815;0.042967074;0.002679348;0.026157314;-0.0057923663;-0.07145067;0.012021278;-0.00011222036;0.013929317;-0.12867664;-0.06491257;-0.068133116;0.16436717;-0.040293805;-0.06902265;-0.13229254;0.0152860405;-0.02656415;-0.027787443;-0.10488275;0.017512731;-0.08556866;-0.011723637;0.10980656;0.07248041;-0.1254502;0.029461382;0.0003450226;0.0020585195;-0.08536712;-0.1826432;-0.071296126;0.012782387;-0.08582288;-0.048407324;-0.030550934;0.059951793;-0.08705913;0.043406162;-0.032194927;-0.19805646;-0.0017431973;-0.04783523;0.014569759;-0.14538106;-0.03101269;-0.015441649;-0.061373368;-0.07028515;-0.040061545;-0.009570722;-0.10909897;-0.07833394;-0.123260245;-0.110843204;-0.010039394;0.040275026;-0.009078906;-0.08197964;0.035367172;-0.05978217;0.017864892;-0.015009928;-0.08064423;0.0037402224;0.017778927;-0.13613166;-0.095628954;-0.17990217;-0.17666028;0.026472023;0.057831343;0.049744185;-0.023318252;0.05655009;0.12426085;0.102865614;0.0009792843;-0.016482417;-0.026594948;-0.12541822;-0.09467339;-0.051244907;0.09001591;0.053640246;-0.109714724;-0.031807885;-0.02204755;0.14691697;0.002875976;-0.011276896;-0.087140396;0.013727066;0.041807465;0.06498897;0.03698344;0.010945933;0.03255339;0.10180147;0.022793323;-0.030098477;-0.031677563;-0.089892216;0.06463142;-0.05102234;0.022563659;-0.092988305;0.031625014;-0.10880486;-0.06154886;0.006509154;-0.033386454;-0.0954188;-0.089288935;0.034510784;-0.17703602;-0.15711403;-0.09402589;-0.036741998;-0.06448436;-0.054726228;-0.048525866;0.006268977;-6.543135e-05;-0.06835632;-0.22228083;-0.005634602;-0.16837533;-0.12607183;-0.084407225;0.05624329;0.09524107;0.010457568;-0.049860995;-0.019723102;-0.12629227;0.0077312696;-0.0648638;0.0048438013;0.0089601325;-0.0936737;-0.04502717;-0.08271597;0.021426888;-0.044152528;-0.088788785;-0.047693104;-0.0077780373;0.034930553;-0.10289698;-0.05219515;0.023261046;-0.032969553;-0.00037402302;0.06341141;0.058804404;-0.0032902486;0.043788265;-0.025969915;-0.075250074;-0.04432737;-0.02277424;-0.015496998;0.014355364;0.030412033;-0.022254763;-0.09764031;0.02009728;-0.0935197;0.09539254;0.016210685;-0.06087123;-0.055845153;0.051641665;-0.08835902;0.050994493;-0.08301411;-0.04687787;-0.06582178;0.036565125;-0.100229286;-0.11559517;-0.07674807;-0.17881241;-0.056584984;-0.20391575;-0.076531425;-0.0120470915;0.017459273;0.036277596;-0.0658766;-0.055420175;-0.11804984;0.04156045;0.004887157;0.028542243;-0.062499363;0.039882097;0.039928902;-0.04336546;0.03925756;-0.04020963;-0.034743756;-0.11772515;-0.0063943453;-0.094677076;-0.10467891;-0.014873954;-0.092165716;-0.04743013;-0.11408762;-0.1157636;-0.117043726;-0.04625088;0.019310106;-0.12547894;-0.031915676;-0.08850951;0.0033203333;-0.07428012;0.03520917;-0.010113487;0.0038541541;-0.01510544;-0.05430552;-0.126433;-0.08820147;0.17496815;0.031076511;-0.07051683;-0.12612109;0.12348105;0.032870054;-0.04563599;0.026257923;0.113701746;-0.042210042;0.03066776;-0.052448586;-0.06682328;0.083221994;0.053884417;-0.033807095;-0.0590653;0.008850844
-0.008692864;-0.051760864;-0.08766144;-0.13478854;0.016785363;-0.00422853;-0.009228514;-0.08334028;-0.103960045;-0.02703068;-0.011403182;0.041014086;-0.080318816;-0.0051658843;-0.03340693;-0.022740597;9.769031e-05;-0.016204951;-0.06055651;-0.008178664;-0.091345385;-0.012317446;0.04885934;-0.028535249;0.038009908;-0.11478916;-0.018545778;-0.07421192;-0.012641902;0.0016237405;-0.11813849;0.10414632;-0.082730696;-0.037057683;-0.021566201;0.02706167;-0.024975944;-0.05462228;-0.017104197;0.004446144;0.045796175;0.12290409;0.008610689;-0.029590454;0.05473276;-0.11536293;-0.010676016;-0.03986762;-0.122881435;0.00061646104;0.100485854;0.013797918;-0.030790245;0.019182641;-0.074718475;-0.094936185;-0.026668373;0.0136930095;-0.07840905;-0.056475487;-0.035636898;-0.0024647445;0.037092;0.016847994;-0.048015058;-0.07854396;-0.031422008;-0.053656127;0.028884938;-0.103547156;-0.015390077;0.02924506;-0.046763815;-0.08963349;-0.098562896;0.0068503884;0.011312525;-0.065064095;-0.06767535;-0.07101497;-0.1030121;-0.047250167;-0.008190799;-0.033931363;-0.02686806;-0.025960984;-0.032393273;0.03255999;-0.07909422;-0.023157198;-0.032718927;-0.109973766;-0.052475903;-0.061356254;0.017232917;0.0013120096;0.19154789;-0.006197786;-0.03421941;-0.023377974;-0.12330666;0.022187328;-0.112347595;-0.048255373;-0.1125207;-0.037852336;-0.06041853;-0.011531122;-0.09149051;0.039165486;-0.025404368;-0.07201079;-0.037471548;-0.053541627;0.022073546;-0.08886112;0.06363906;-0.10733207;-0.1585533;0.07539891;0.036073104;-0.09008847;-0.0073796418;-0.074475616;0.008859262;-0.042254195;-0.037289586;-0.107700065;0.06749034;0.0037727363;-0.041770887;-0.022131747;-0.113507085;-0.068906;-0.12672202;-0.09190916;-0.018499576;-0.0805243;-0.07736636;-0.04703682;0.1701092;0.014203763;0.041590482;-0.04338814;-0.074321516;-0.065440714;0.007140767;-0.0570517;-0.08602868;-0.011492607;-0.09760511;-0.015080705;-0.070808895;0.015487602;-0.0036190145;-0.038394816;-0.07032557;-0.0010534386;0.005654126;-0.019754427;-0.07832252;-0.042996578;0.121794336;-0.09146475;-0.075216085;0.008103158;-0.034567032;-0.11312558;-0.0016096801;-0.07868738;-0.00090475456;-0.13100876;0.0252823;0.028446585;0.059616394;-0.112246856;0.039225202;-0.11197647;0.08306816;-0.027680703;-0.20846494;-0.066643864;0.052867144;-0.061022915;-0.04101047;-0.12269581;-0.06450326;-0.032773137;0.06279915;0.024680816;-0.074503444;0.035962675;0.06540859;-0.11999977;-0.05454803;-0.040129755;-0.12696828;-0.0006846224;0.035141874;-0.06234009;0.002472528;0.11053076;-0.035719533;0.0065247193;-0.08137957;-0.10903103;-0.067957975;-0.036248267;0.039560616;-2.3571476e-05;0.011645315;-0.10110503;0.033318732;-0.091217145;-0.008106539;-0.18070294;-0.10934604;0.05076771;-0.027692713;-0.04580814;0.033755206;0.0113681825;-0.09539296;0.003253083;0.034169555;-0.1118946;0.020430584;0.039957374;0.004158202;-0.020580873;0.0031288117;-0.018611524;-0.0339292;-0.08420922;0.0341286;-0.032697733;-0.03199767;0.04948407;0.016332855;-0.10725436;-0.037527535;-0.08401742;-0.102558605;-0.0013582963;-0.015828429;-0.048163563;-0.00630542;0.073419996;0.0010510365;-0.052659567;-0.048959926;-0.08561818;-0.07625386;-0.017262505;0.10238265;-0.13387145;0.05473649;-0.0005036406;-0.12665597;-0.03152323;0.015530227;0.009168766;-0.0757899;-0.024356032;0.0036434443;-0.11682753;0.019081995;-0.15789582;-0.07514295;0.05920013;-0.057489924;-0.04735844;-0.033456683;-0.08755832;-0.094213724;-0.0931211;-0.20933242;-0.06866962;-0.16277057;-0.047947925;0.10387784;-0.08413828;-0.039357018;-0.06499861;0.0581731;0.025509093;-0.10137777;-0.067349456;-0.069266014;-0.076117404;-0.10426189;0.07332138;0.032240245;-0.040125273;-0.16163053;-0.0754218;-0.083046705;0.07069015;0.021109477;0.008828232;-0.008895824;-0.1306057;0.051157203;0.063646734;0.07563146;-0.12010749;0.027276015;-0.10915167;-0.21191439;0.047465414;-0.06533803;0.031231042;-0.014981395;-0.18239969;-0.14030497;-0.12020713;0.08489382;0.13397953;-0.018736131;0.014077543;0.060189348;0.01610407;-0.01933478;0.020185707;-0.11475161;-0.047027826;-0.12447538;-0.105075605;0.007513794;-0.05278008;0.004211696;-0.06525766;-0.1025047;-0.048334707;0.06546449;0.038859334;-0.09263236;-0.053237844;-0.040318068;-0.026342023;-0.14075007;0.015755141;-0.051431462;0.073904246;0.052512456;-0.037574638;-0.065352954;-0.019719904;-0.06936409;-0.048685197;-0.10519497;-0.07321638;-0.015877575;0.01603657;0.12924756;-0.008070835;-0.07157827;-0.02874945;0.009024497;-0.11311753;-0.11689525;-0.11042117;-0.0324876;-0.06830558;-0.054885294;0.048132923;0.015131405;0.052851785;-0.013198202;-0.029906496;-0.107207105;-0.07123684;-0.052947875;-0.07344056;-0.085950255;-0.10608659;-0.035737224;0.028781068;-0.03216599;-0.027351603;0.035833366;-0.07931023;-0.1810586;-0.005293571;-0.013464095;-0.0042750444;-0.08382788;0.051039696;0.020579915;-0.024196193;0.08900144;-0.026946206;-0.07102898;-0.0386062;-0.091543905;0.0029482138;-0.020303968;0.0012165414;0.0128197465;-0.06843247;-0.05050169;-0.07225282;0.10300075;0.027766993;-0.0066431966;0.056187525;0.04539819;0.13094185;-0.09964445;0.02259871;-0.008638005;0.02510954;-0.025923457;-0.058251016;0.06258637;0.068520926;-0.074802175;-0.04965661;-0.030678662;0.14280874;-0.09827373;0.0053438423;0.05539698;0.041701786;-0.08667368;0.034872044;-0.008002044;-0.053644612;-0.010609646;-0.01962845;-0.0004236394;-0.076085456;0.07551471;-0.019890226;0.061935112;-0.055217676;-0.0022803328;-0.101045504;0.003393082;0.017546048;-0.15196624;-0.04967171;-0.05583699;-0.04624146;-0.009134345;0.044607814;-0.12775825;-0.06613847;-0.122791104;-0.09682799;-0.067967884;-0.10209809;-0.007858594;0.09969753;-0.046930563;-0.1247165;-0.20189132;-0.035692092;-0.08901532;-0.06778642;-0.11505442;-0.048719462;0.21854146;-0.055237025;-0.09928669;-0.05496808;-0.16967852;-0.08656928;-0.021750472;0.00865344;-0.0036996857;-0.026478823;-0.028655207;-0.05541626;-0.10292706;0.012645434;-0.08806584;0.040038858;-0.12176369;-0.028594429;0.029959721;-0.035452142;-0.08229499;0.11113606;0.016817475;0.028368937;0.028020179;-0.112789415;0.004353246;-0.09895078;-0.09454844;0.00029198438;-0.015397799;0.040332906;-0.08562375;-0.0435681;-0.024880039;-0.09383425;-0.118140645;0.019130373;0.062214166;0.0903204;-0.018738193;0.021221848;-0.029666802;0.0070109605;0.052630898;-0.063065656;-0.061822727;0.028636534;-0.07283868;0.0006133218;-0.06666643;-0.091479346;-0.18820691;-0.057120092;-0.16676751;-0.041502293;-0.14671358;-0.027693952;-0.038793314;-0.104677126;-0.025245205;-0.12634158;-0.09823726;-0.028037494;-0.008146901;-0.0010607287;0.020597491;-0.022766776;-0.039987773;-0.03179945;-0.024830243;-0.0390584;-0.06423581;-0.06594728;-0.10236128;-0.005479986;-0.096609585;-0.09925253;0.011883596;-0.049242057;-0.017883971;-0.08636179;-0.14155097;-0.03823426;-0.20020571;-0.0012257114;-0.055902068;0.0022900517;-0.08685717;0.0072055636;0.047268037;0.018786827;-0.052896675;0.07263817;-0.087965615;-0.07642148;0.102081835;-0.006913663;0.036013465;-0.03498362;0.10629128;0.12437571;-0.05324387;-0.08933452;0.10996644;-0.059030365;0.017204609;-0.0029525412;-0.10810558;-0.026415411;-0.0441515;-0.06499307;-0.00510339;-0.0028932674
0.043662317;-0.043989435;-0.09707738;-0.091164276;0.014795456;0.02106775;0.03966422;-0.08207652;-0.089703955;-0.053004343;-0.076130345;-0.05982729;-0.03108878;0.017717404;0.033435374;-0.032909565;0.09896107;-0.08667255;-0.056557577;-0.018801048;-0.016024828;0.03177732;0.05321379;-0.07219131;0.028047409;-0.08598285;0.01721627;-0.109115005;0.08104639;-0.13625535;-0.009043535;0.17001222;-0.07875165;-0.031604994;-0.051442;-0.056422308;-0.073902324;-0.11222411;-0.012796167;0.06406277;-0.07519628;0.037120376;0.01784717;0.03507122;0.07753287;-0.039276477;0.042914014;0.048639692;0.008535247;-0.009608474;0.105561055;-0.05685174;-0.07341846;0.011632029;-0.08821312;-0.10236105;-0.01753889;-0.10265172;-0.0007573758;-0.085720226;0.034505356;-0.100159094;0.019366702;0.040036485;0.044021923;-0.13597956;-0.10179439;-0.069236204;-0.07241564;-0.09485651;0.0072396933;-0.0060009393;0.00046230186;-0.077644005;0.009079193;0.034925163;-0.08300507;-0.11670913;-0.002431067;-0.0064897407;-0.026026227;-0.034788243;-0.1321805;0.001429983;-0.12025676;-0.049618177;-0.08315199;-0.08309326;-0.028908946;-0.038484287;-0.03412828;-0.026962034;-0.0014363911;-0.015436222;0.036743164;-0.053812057;0.18513864;0.036328994;-0.035081916;-0.10528648;-0.1405014;0.026512984;-0.10324256;-0.08224239;-0.0018516126;-0.115137875;-0.089342155;-0.067360714;-0.12455648;0.009259233;0.05063394;0.00811015;0.0074329963;-0.101007216;0.003529453;0.06903673;0.13295901;-0.07621984;-0.16899332;-0.034624066;0.0012094288;-0.04981638;-0.12041178;-0.103992134;-0.03988702;0.041209318;-0.09801317;-0.09383152;0.07388277;-0.100152254;-0.13875437;-0.12490957;0.024411153;0.004473804;-0.054221597;0.04058971;-0.06816972;-0.035472892;-0.07309418;-0.078196704;0.041830633;-0.044347007;-0.08686522;-0.01606359;-0.12416555;0.00052814384;0.052472644;-0.061200935;-0.018190326;0.062298175;-0.09175866;-0.0287123;0.00823574;0.06609086;0.02809449;0.03691497;0.05593403;-0.11121363;0.0296685;-0.08667077;-0.0021402484;-0.06297658;0.11969996;0.0013180684;-0.104042456;-0.078750804;-0.06091328;-0.10229067;0.027517805;-0.10364337;-0.11102092;-0.20513363;0.033565395;0.035141334;-0.06887541;0.047729753;-0.06379674;-0.049915522;0.05513743;-0.008179134;-0.12712723;-0.11105975;-0.086110935;0.007440517;0.018448133;-0.03915895;-0.04563164;-0.057691712;-0.02894413;-0.046033878;-0.1289736;-0.00044877443;0.043426484;-0.09587884;-0.020816432;0.029609162;-0.10730507;0.059315205;-0.014491325;-0.079999715;0.0361995;0.033966605;0.053617474;-0.019121405;-0.041321892;0.01743121;-0.053978704;0.0029008007;-0.05629329;-0.035298526;-0.09591161;-0.015849765;-0.064413205;-0.18054678;0.017944511;-0.08998807;0.014299549;0.014263754;-0.052669734;-0.03213026;0.043327298;-0.0002189097;-0.07477124;8.7830354e-05;-0.11111589;-0.067329444;-0.11404287;0.02199007;-0.055117957;-0.15553643;-0.08655399;0.053452265;0.0027690595;-0.054326218;-0.053537924;-0.07579985;-0.09095156;-0.0016288708;-0.07801935;-0.07615336;0.04058354;-0.09405366;-0.12030365;-0.10442998;-0.051032506;-0.015975997;-0.09533309;-0.027837824;-0.07967173;-0.015559441;-0.06518631;-0.042368803;0.033754632;-0.16061772;-0.043494888;-0.11971985;0.039799985;-0.085992895;-0.081828736;-0.12293583;-0.048515573;-0.011567381;0.005651392;-0.019942537;-0.10364008;-0.024133576;-0.053702634;-0.047270734;-0.07537393;-0.0665902;-0.006303806;0.090986095;-0.09234228;0.0033001672;0.018106157;-0.04982847;-0.11699214;-0.027349731;-0.08876221;-0.028669676;0.04930106;-0.05398513;-0.0938184;-0.044473574;-0.09773192;-0.088154696;-0.034773093;-0.083840676;-0.020451924;0.0013812563;-0.082645185;-0.009635571;-0.015632153;-0.006176711;-0.14280576;-0.116788894;-0.0037006482;-0.021665385;-0.063232645;0.0037663577;0.010161645;-0.055301536;-0.100440964;0.03496131;-0.015574184;0.005866265;-0.006612719;-0.03902374;-0.08851802;-0.0974872;-0.07130167;-0.082255594;-0.05491463;-0.21267101;-0.10622427;0.018973956;0.06522253;0.020596746;-0.026054388;-0.046254214;0.019175502;-0.027720502;-0.07863196;-0.06675792;0.0010709994;0.05878523;0.015485778;-0.010835603;-0.04032912;-0.10513153;-0.08332586;-0.12039005;-0.06669381;-0.1202935;0.0054449444;-0.031537697;-0.08046224;0.062888555;-0.021393096;-0.04613646;-0.09821038;-0.07358809;-0.0047068875;0.11071154;-0.0740587;-0.012842688;0.010947379;-0.07437136;-0.011555364;0.04447727;0.046655435;-0.0059105386;-0.08741427;-0.0037989297;0.13468711;-0.025074285;-0.11736547;0.009938682;-0.006293982;-0.16661602;-0.023950126;-0.09135524;-0.0058690803;0.0006855387;0.012130474;-0.10207683;-0.083568916;-0.0046558436;-0.09560561;-0.0958759;-0.0986646;-0.14672144;-0.05934488;-0.088651925;-0.05003284;-0.04552068;-0.040498387;0.115728974;0.0044445707;-0.09955796;0.008823744;0.008879493;-0.0373977;0.051354893;-0.0903914;0.018631298;-0.06308935;0.0063086855;-0.05077327;-0.04827511;0.09665316;-0.023399822;-0.04968137;-0.05884772;-0.08373278;0.012943193;0.022580542;-0.10388112;-0.085800394;-0.04517692;-0.18106839;-0.055517122;-0.0043916316;0.006106896;-0.09769823;0.15948291;0.028791416;-0.0052371835;0.044893086;-0.112463206;-0.004053565;0.003265721;-0.051911447;0.013791512;-0.01089925;0.06436228;-0.016945908;-0.050219122;-0.068760395;0.1059887;-0.09249495;0.06296284;-0.07913969;-0.07760461;-0.016201397;0.011017005;-0.10285919;-0.062209602;-0.10199019;0.11064276;-0.10702316;-0.073682845;0.09326559;-0.12480054;0.036451448;-0.1302459;0.016089782;-0.092966184;-0.006239575;0.024311041;-0.046041805;-0.09043679;-0.013925765;-0.08826239;-0.05188995;-0.05968347;-0.14199236;-0.06792625;-0.04159002;-0.091697775;-0.027040472;-0.00016982418;-0.1221272;0.017198471;-0.055409078;-0.03428786;-0.2034703;-0.006848236;-0.14155056;-0.097583905;-0.12443258;-0.01775009;0.14822549;-0.072289795;-0.040175293;0.055551667;-0.078829944;0.049202524;-0.03070401;-0.005082229;0.05327734;-0.14689426;-0.105037875;-0.022287562;-0.108992614;-0.06309206;0.027888518;0.025368912;-0.012640662;-0.10141848;-0.06877899;0.049089186;-0.03176103;0.06613951;-0.045591623;-0.0261547;0.03622667;-0.13412456;-0.0031832398;-0.061492953;-0.107557304;-0.13653171;-0.041907895;0.034357663;-0.0448626;0.082813226;0.05239516;0.016276171;-0.12367414;-0.066019386;0.01793291;0.038482256;0.01679187;0.05682982;-0.023284644;-0.10004302;-0.0713733;-0.074791975;0.031017905;-0.029059876;0.0125797605;0.025977425;-0.03627021;0.007646775;-0.15033878;0.060682587;-0.055247113;-0.054329928;-0.016406141;-0.024388703;0.015411334;-0.10598576;-0.03345258;-0.06942375;-0.08124221;-0.1014908;-0.09541336;-0.11585921;-0.10014543;0.07139538;-0.034513168;-0.018771444;-0.14282268;-0.003083242;-0.118885145;-0.0040419283;0.040783957;-0.064562865;0.043803975;-0.10821235;-0.080475636;-0.08580726;-0.05868121;-1.7863953e-05;-0.17871007;0.013872686;-0.078966506;-0.118517525;-0.07828617;-0.06244537;-0.019882169;-0.0057542846;-0.020135444;0.009905546;-0.09875414;-0.05112508;-0.08753929;-0.023519153;0.09070463;-0.04840233;-0.049160212;-0.11294303;-0.01905709;0.0682664;-0.04962311;-0.061369345;0.14388855;-0.08408671;-0.09480494;-0.013729207;-0.12257311;-0.0620425;-0.019313898;-0.03530768;-0.10082998;-0.018281616
-0.09710197;-0.091567025;-0.02039417;-0.09715733;0.026543813;-0.09148113;0.07941101;-0.08610962;0.025752075;-0.14064895;-0.054130577;0.01835627;-0.08412494;0.039391648;-0.08999578;0.014937794;0.0045081843;-0.13613427;-0.0776599;-0.04111139;-0.10432555;-0.102911234;-0.061047472;-0.0063391663;-0.03113515;-0.00038823186;-0.032465998;-0.04242263;-0.020695813;-0.04231354;-0.012328914;0.13716675;0.036288705;-0.007951009;-0.044559956;-0.047068186;0.052372552;-0.090352155;-0.118690915;-0.016436638;-0.067938626;0.10317096;0.15197766;-0.07881177;-0.06512962;-0.019940153;0.018373344;-0.066489264;-0.05587499;-0.010735793;0.12469026;-0.0022907485;0.008261855;0.027782727;-0.06408197;-0.0063514225;0.013157866;-0.07317671;0.013042971;-0.13372634;-0.05528356;-0.067402765;-0.05543436;-0.05057812;-0.09353793;-0.12658435;0.013130865;-0.029114362;0.045061547;-0.055386648;-0.12923294;0.080077596;0.0032450827;-0.022607477;-0.08431281;-0.06760004;0.051397625;-0.11789263;-0.08603308;-0.010352122;-0.024466341;0.019755984;-0.05774101;-0.019658165;0.0020823749;-0.09135539;-0.10296788;-0.102287345;-0.036488198;0.04669671;0.014903831;-0.067724936;0.011026752;-0.018419165;0.022169994;0.027423652;0.19921026;-0.0060209804;0.024908097;-0.05568699;-0.124862686;-0.12071532;-0.040762085;-0.030750608;-0.07986033;-0.18057233;-0.008670167;-0.13218588;-0.14627376;0.016341899;-0.02955718;-0.09970968;-0.022184232;-0.079820685;-0.09740558;0.037490353;0.048001103;-0.00849893;-0.12015805;0.07248417;-0.070311666;0.03906876;-0.0061814385;-0.0924192;-0.083232895;0.009390942;0.017576113;-0.0847725;0.062778875;-0.10455328;-0.109353594;-0.07148716;-0.014467372;-0.00873307;-0.15858243;-0.0036811542;2.096369e-05;0.014799854;-0.14602505;-0.07431342;0.052916937;-0.070433505;-0.019488148;-0.12218337;-0.121710226;0.061720524;0.10992614;0.011797053;0.05002102;-0.051170535;-0.08710888;-0.013665391;-0.11052039;-0.05006369;-0.1016249;-0.05700824;-0.009775427;-0.07608684;-0.036066096;0.024346028;0.032646567;-0.0056370413;0.048485853;-0.122763455;0.030859105;0.017367285;-0.10123382;-0.07952019;-0.024641374;-0.0692021;-0.09084823;-0.07630462;-0.012549533;-0.05981391;-0.015518575;0.041403178;-0.03867093;0.031353652;0.0038668925;-0.019007912;-0.22588414;-0.13383503;0.023736699;0.05603246;-0.07965269;-0.07101402;-0.06102027;0.0031350867;0.043890215;-0.05052861;-0.06434771;-0.06554848;0.013896485;-0.07801345;-0.016880848;-0.015200275;-0.1053404;0.026758036;-0.08344368;-0.09610369;-0.02689962;0.012943794;-0.0034816493;-0.031401716;-0.014618736;-0.08049918;0.004032421;-0.06647681;0.012014816;-0.09180711;-0.0999115;-0.019211434;-0.11168019;-0.18893616;-0.04029002;-0.08950835;0.03810811;0.033314653;-0.041701168;-0.07206598;-0.043716814;-0.04572452;-0.046355397;-0.071306214;-0.09095396;0.0072006327;-0.08778562;0.023185287;-0.022686439;-0.15441407;0.055658687;-0.04107212;-0.031172954;-0.17322162;-0.089123435;-0.07327644;-0.058523547;-0.010812605;-0.121187024;-0.084498465;0.025652604;-0.08840265;-0.15113544;0.0059606037;0.03285751;-0.022223374;-0.13450006;-0.017559024;-0.053728845;-0.07623663;0.046333052;-0.01764941;0.0352605;-0.10777017;0.06942804;-0.01905895;0.058859207;-0.016788619;-0.02191641;-0.0507675;0.016165322;-0.10488667;0.023014665;0.005403495;-0.086369276;-0.0882384;0.042509336;-0.06716952;-0.09601627;-0.055333328;-0.0035990686;-0.013391982;-0.01068102;0.0034944017;0.026540292;-0.029344017;-0.20368955;-0.029171083;-0.049057283;-0.137005;0.12382209;-0.02993161;-0.06302918;0.07036119;0.030668259;-0.040424142;0.049685508;-0.022406342;-0.024428539;0.040502124;-0.03158142;-0.03973162;-0.030485675;-0.07924342;-0.009571947;0.03670346;0.031538628;0.1047742;-0.13726193;0.013016914;-0.029722843;-0.11548649;-0.08104794;0.08403926;0.011651331;0.021856828;0.011822455;-0.067787446;-0.22101061;-0.032174475;-0.055724796;-0.050363015;0.052615937;-0.20234007;-0.13910729;-0.0136991935;0.116188556;0.1294901;-0.08886622;-0.09377082;-0.007081583;-0.030116718;0.029847886;0.031521935;-0.08028869;-0.043803252;-0.08077271;-0.10336609;-0.034803867;0.04026065;-0.086605124;-0.098640405;-0.09942904;-0.07065097;-0.01741024;-0.101744495;-0.024110962;-0.06750943;0.08472704;0.0045490973;-0.02119327;-0.1034496;-0.078363284;0.11966587;-0.08037002;-0.02686956;-0.10553252;-0.052249346;0.013698151;-0.089192234;0.034273226;-0.14172772;0.0071086446;-0.00092316186;0.083338946;0.08154017;-0.06559915;-0.10503377;-0.04218734;-0.15101996;0.005559849;-0.1430938;-0.07767041;-0.10022959;-0.06923525;-0.1012051;-0.08612727;-0.08681968;-0.07388363;-0.10423542;-0.10529841;-0.06429802;-0.116402335;0.029087367;-0.026515853;-0.1545283;-0.058398873;0.008200118;-0.055127908;-0.09075422;-0.06926393;-0.034490403;-0.13333394;0.06611916;-0.032434687;-0.090622984;0.002533467;-0.082045525;-0.08108317;-0.0046390286;0.04138207;-0.058763355;0.06139;-0.066340104;-0.11757722;0.05082698;-0.07265309;-0.060752455;-0.14730933;-0.045727756;-0.06371255;-0.05091254;0.028964765;0.0387208;-0.079658866;0.07160569;0.09208674;0.13106535;0.0037670822;-0.09208862;0.011268971;-0.08320476;-0.18986206;0.01985312;-0.05484305;0.051541734;-0.13220157;-0.10077861;-0.040905762;0.10569571;0.007021836;-0.0046742647;-0.024209028;-0.08601513;0.05493097;-0.026704479;-0.027498089;-0.06398336;-0.039662406;0.058059692;-0.090564966;-0.10305746;-0.025849078;-0.0295027;0.10757074;-2.5288424e-05;0.011715958;-0.054299362;-0.012067049;-0.040210586;-0.138762;-0.04631825;-0.07314253;-0.13903078;-0.011774491;-0.03349902;-0.035706267;-0.13247342;0.023534313;-0.09141256;-0.008612396;-0.05905947;-0.008200203;0.07865304;0.094804175;0.00025698083;-0.12490741;-0.09885793;-0.12408518;-0.036054213;-0.016416745;-0.017261656;0.07352864;-0.14372645;-0.08848105;0.017974488;-0.10890624;-0.094876744;-0.12147043;-0.032351952;-0.00097138085;0.011134493;-0.1508976;0.054972433;-0.08726784;-0.04159688;-0.04508752;0.026590629;-0.17560016;-0.0053981836;-0.09294503;-0.04309031;0.016767256;0.02019292;0.042928297;0.08048662;0.052171793;-0.101240225;0.071731545;-0.09712897;-0.06980689;-0.13626982;-0.026581977;-0.054467745;-0.02694733;-0.046654962;-0.05892624;-0.09820759;-0.049192816;-0.006124937;0.13670847;0.12333935;-0.09419417;0.070378274;-0.10372823;-0.011824756;0.007547962;-0.065484315;0.014516718;-0.009073581;-0.090651646;-0.084098384;-0.052052952;-0.054179933;-0.03845242;-0.07639345;-0.1312495;-0.099118985;-0.091341525;-0.0120834075;-0.094874606;0.006748948;-0.03851081;-0.028065896;0.017980594;-0.099164024;0.034637887;-0.037692193;-0.071186244;0.03473488;0.046102475;-0.056502264;-0.09782245;0.0064619477;-0.020486608;-0.03924616;-0.004175476;-0.09251661;0.04584618;-0.030251747;-0.090600565;0.0049205213;0.00418828;-0.123215705;-0.15045905;-0.002453106;-0.19019699;-0.08116805;-0.033312626;0.027471967;-0.03501724;0.055655513;-0.042226166;0.009009158;-0.06282512;0.039950464;-0.088685334;0.013707552;0.08776017;-0.007944185;-0.07629732;-0.05153628;0.054340158;0.059451696;0.002415752;-0.027883032;0.058662355;-0.10029865;-0.09555155;-0.04677593;-0.07484162;-0.08778317;-0.07155606;-0.059681043;0.04629768;0.02808848
0.033247035;-0.0729995;-0.07919334;-0.020302167;-0.101788424;-0.027816866;0.06409156;-0.057837456;-0.00021063187;-0.0056741587;-0.056349073;-0.021294296;-0.12503959;-0.03039786;-0.012538066;-0.046033815;0.019196687;-0.044854425;-0.11736918;-0.047993224;0.02310419;-0.076878265;0.035138372;0.027359921;-0.10925587;-0.005698237;-0.093951;-0.109431475;0.026350435;0.005334634;-0.02549699;0.053879034;-0.00073119294;-0.0190803;0.021092227;-0.030941006;-0.003662879;-0.009840552;-0.04107843;-0.054056693;0.04126712;0.15914266;0.038411114;-0.09765983;0.0033261362;-0.08132532;0.009030577;0.0069237067;0.0065852846;0.008250876;0.19569196;-0.14487214;0.00032262472;0.012178285;-0.14053988;-0.113996625;-0.09630688;-0.0388697;-0.04082394;-0.13726239;-0.076069914;-0.15198255;-0.0020264795;0.039901014;0.06098873;-0.062175695;-0.020526856;0.00621948;-0.09502012;-0.027901912;-0.04641312;0.026400207;-0.11879659;-0.07661329;-0.13175796;-0.09693185;0.017927313;-0.011874488;-0.10511259;-0.090359375;-0.0734038;-0.07950632;-0.10197588;-0.008799924;0.020511758;0.04045035;-0.0759034;0.024688024;-0.038988847;-0.06355586;-0.12782004;-0.10729573;-0.024153858;-0.090509765;-0.08557505;0.010409003;0.15161741;-0.07882285;0.019742073;-0.09445513;-0.027871162;-0.077005774;-0.03769984;-0.04048773;-0.107501276;-0.11255531;0.030544177;-0.03509518;-0.13684575;-0.084428154;-0.032834385;-0.00078005827;0.012095927;-0.14906716;-0.053233456;-0.024380352;0.019034365;-0.10851216;-0.06311745;0.08935638;-0.009793407;0.033003695;-0.123839706;-0.043637384;-0.13150108;-0.056160994;-0.0031844995;0.04860851;0.052181166;-0.061437648;-0.024058811;-0.08188453;-0.062032577;0.037734527;-0.02073782;-0.0391554;0.024692127;-0.042372093;-0.0751518;0.023327604;0.1718994;-0.08066282;0.054753873;0.0008312234;-0.115246475;-0.025341235;0.004159232;-0.07759964;-0.010018454;-0.07114237;-0.009400282;-0.013931782;-0.048998896;0.01978455;-0.12636226;0.018600551;0.040522393;-0.11268796;-0.06934016;-0.11735511;0.028605472;-0.04347323;0.034243282;-0.10736278;0.024631754;-0.06957306;-0.041861545;-0.07435939;-0.03647432;-0.079625525;0.02580304;-0.10970114;-0.042194523;-0.11160392;-0.09586353;-0.00025429807;-0.103983395;0.024122024;0.048239302;-0.1253786;-0.13812213;0.020006215;-0.101627916;0.020252306;-0.030829135;-0.10680144;-0.050922982;-0.08955993;0.07405523;-0.0691756;-0.046371665;-0.042365775;0.031277932;-0.040863022;0.033762395;-0.03506467;-0.081985936;0.027095104;-0.016148746;-0.073440224;-0.112810545;0.06538697;-0.09145001;0.050645784;-0.08356868;-0.07685014;0.083046265;-0.11675557;-0.053923897;-0.005125459;-0.08778707;0.013811807;0.002791;-0.14071615;-0.0019343048;-0.24697408;-0.01917743;0.01876508;-0.014894457;0.036037948;-0.046187364;0.09038569;-0.00025725242;-0.0061083254;-0.00021589817;-0.0014903828;-0.019564675;0.07479576;-0.12802908;-0.07027894;-0.06352676;-0.07044529;-0.10052305;-0.07561825;-0.074224934;-0.10535669;-0.035876244;-0.015230967;-0.0025362165;-0.09778668;0.064154394;-0.117968746;-0.14239864;-0.057518;-0.0056292475;0.062298954;-0.032281775;-0.059220545;-0.10443339;-0.008441822;-0.0023145278;-0.1314281;0.035977066;-0.08434906;0.10687956;-0.008224648;-0.02091693;0.039891418;-0.027900606;-0.0853506;-0.03976211;-0.021079151;-0.081931725;-0.016587911;0.037763253;-0.102188595;0.018726816;-0.12124929;-0.020597914;-0.0026747375;0.012372778;0.030502168;-0.015790457;-0.09015524;0.016012313;-0.02698618;-0.13174535;-0.03102167;-0.076679826;-0.12838773;0.08124662;-0.068228744;-0.0020306292;-0.044806965;-0.05053864;-0.06164024;-0.018968303;-0.08203723;-0.0745864;0.054857783;-0.054497063;-0.074462436;0.00054112746;-0.061099876;-0.15264373;-0.011557843;-0.10523408;-0.016606089;-0.06923043;-0.10247295;-0.104724504;-0.03934282;-0.018068604;-0.051749077;-0.03830833;0.028993092;-0.030938348;0.010418019;-0.13745132;0.0036663243;-0.01579965;-0.0882703;-0.0044106604;-0.05515857;-0.00306052;0.029080335;0.10743953;0.09576715;-0.048696496;-0.035819072;0.0026607702;-0.13250603;0.013954106;-0.060164973;-0.042810563;-0.056199215;-0.08756068;-0.13949716;-0.011385162;-0.020148516;-0.11920055;-0.06007548;-0.10203137;-0.12632124;0.1042439;-0.079046786;0.019144105;0.061722893;-0.05038144;-0.004883423;-0.112137996;-0.09123978;-0.1273039;0.13149838;0.026315685;0.013457159;0.0024242178;-0.0811598;-0.07860758;0.0026863713;-0.042687442;-0.08312359;-0.034117863;-0.05849204;0.090735674;-0.07144884;-0.05624329;-0.051566593;-0.038398024;-0.16836374;0.011618685;-0.07891005;-0.04697328;-0.09364536;0.044869926;0.02670291;-0.019841967;0.054088462;-0.09802637;-0.016607352;-0.03042368;-0.20755298;0.003922064;-0.03092257;-0.13404866;-0.13575578;0.08834047;0.10881106;-0.096499234;-0.061310716;0.029881397;-0.11678312;-0.10137325;0.036908187;-0.12554367;-0.012410388;-0.08656125;-0.09783138;-0.08478593;0.02697016;0.08181283;-0.01898948;-0.012022109;-0.07198375;0.03955106;-0.048786826;-0.036686953;-0.13562761;-0.12349968;-0.10450321;-0.097393975;-0.09896486;0.043671966;-0.05797112;-0.11893775;0.1785184;0.10772171;0.077598125;-0.038861193;-0.12614715;-0.020921534;-0.042299286;-0.15464105;-0.007602414;-0.07589208;-0.07243566;-0.13948321;-0.0088760555;-0.012123836;0.07357643;-0.02784811;-0.083686024;0.008634968;-0.036669806;0.048802804;-0.05405504;-0.09046581;-0.04811179;0.013192191;0.035750628;-0.13000347;-0.006169093;-0.01284425;-0.028629834;-0.002301093;-0.054108962;-0.03041212;-0.024691422;0.060915224;-0.08550573;-0.089101285;-0.012443376;-0.10870932;-0.07065447;-0.10359064;0.04151478;-0.095721304;0.0031675978;-0.023391958;-0.08984876;-0.047860496;0.012825002;-0.019278206;0.013949218;0.0045596105;-0.13483989;-0.08135462;-0.095520295;-0.14983156;0.023308227;-0.052350137;-0.10755424;0.12528239;-0.11404476;-0.066885054;0.03690287;-0.12841257;-0.0980728;-0.09113939;-0.057612;-0.011793748;-0.14696394;-0.053672154;-0.012826969;-0.099660285;-0.13035719;0.03699947;0.04014049;-0.06717901;-0.061277945;-0.04648782;-0.008747972;0.022463499;0.039209068;-0.035361454;0.051936083;-0.00622961;-0.070507586;-0.034050453;-0.03507233;-0.019470885;-0.057194915;-0.08519409;-0.100754194;0.015019413;0.07520751;-0.058476474;0.03734848;-0.06620532;-0.059857715;0.06650586;0.07007752;-0.09821595;-0.0573736;0.0132373925;-0.098008156;-0.007046929;-0.040747665;-0.019040754;-0.00020871655;-0.004601912;-0.12150523;-0.08180564;0.004784522;-0.14119877;-0.0838653;-0.13203265;-0.056093827;-0.11011001;-0.096855104;-0.08188061;-0.06563141;-0.033391666;-0.004484891;0.05203446;0.041690364;-0.034851346;-0.0721422;-0.029298266;0.033752784;-0.07697771;-0.03087114;-0.11343429;0.0123215495;-0.0560436;0.03708261;0.002518497;-0.012755077;-0.07189606;0.003685036;-0.02792437;-0.06377958;0.014456891;-0.025222495;-0.033188496;-0.029351356;-0.0999152;0.0025153612;0.02337968;-0.017678631;-0.07966008;-0.03841919;-0.09684645;0.012100467;0.021336397;0.00231027;-0.052889407;-0.061781015;0.11329798;0.047057237;0.034983784;-0.11001031;0.0035670283;0.025975063;0.016264645;0.03360084;0.13267161;-0.10162595;0.020620672;-0.022562154;-0.08815305;-0.02024661;0.018495698;0.012437689;0.03842395;-0.1059148
0.05732031;-0.07112072;0.04230626;-0.05798069;0.08600347;0.06619524;0.083972335;-0.025481546;-0.024679273;0.07151937;-0.0075563905;0.036565654;0.08745666;-0.014874383;-0.04214782;0.03459449;0.118037775;0.004024749;-0.022226544;0.11761098;-0.05657426;0.0683961;-0.06586331;-0.038216937;0.12618122;-0.068546206;0.08494148;0.031636257;-0.024251001;-0.2135528;0.074936815;-0.08037596;-0.033074014;-0.031292677;-0.07807609;0.0061228075;0.12233699;0.045649223;0.049083244;-0.029029049;-0.02635698;0.13861589;0.097197026;0.05739954;-0.03462346;0.06839892;-0.043538954;0.11477007;-0.06254824;-0.08459601;-0.07268841;0.01572054;0.05110334;0.0065603587;-0.029204546;0.06644167;0.03937996;0.058849234;0.10912145;-0.04129068;-0.07143115;0.11654558;-0.11597684;-0.03844268;0.07240763;-0.05686791;0.051434375;0.095212504;-0.048413392;0.072778784;0.11916725;-0.114489414;0.1259884;0.046375915;0.18057942;0.06472696;-0.108013615;0.006203512;0.13355036;-0.074810915;0.009419387;0.05450335;0.0030821706;-0.02638869;0.13597317;0.096531756;0.052105475;-0.039678875;-0.0082372455;-0.069008954;-0.020863615;-0.02168089;-0.040185068;0.07419832;-0.085814826;0.0065165437;-0.038315404;-0.06887643;0.065751225;-0.044754826;0.12651499;0.12961553;0.07383012;0.04180363;0.018519066;0.05080525;0.071130544;0.048033252;0.020316135;0.04456136;-0.059887033;0.09112313;0.14401993;-0.16607153;0.069843836;-0.02174269;-0.033154693;-0.056622084;0.16360351;0.006312574;0.016366217;0.027837152;-0.027410617;0.052595798;0.0035906422;-0.033476055;0.0020560198;0.0041990275;-0.009008979;0.020708743;0.12964545;0.07045918;0.019354641;0.078220785;0.13896528;0.10629822;-0.056998987;0.068577066;0.112152226;0.07786972;-0.09771336;0.031462878;-0.018896809;0.093791485;0.021908907;0.030326257;-0.11826568;0.00549854;0.09896484;0.05073463;0.0021483474;-0.054191742;0.030020235;-0.06236433;0.042101063;0.15262873;0.03399536;0.012860403;0.115057565;0.094871305;0.096685655;-0.055568203;-0.050096057;0.08599966;0.030174565;0.07684046;0.038366567;0.07622363;-0.0073221796;0.089018665;-0.012426103;-0.00032553056;-0.010191762;0.03118339;0.08954082;0.09830369;-0.023155177;0.032411113;0.07603804;-0.01739919;0.07996979;-0.03828155;-0.036393005;0.019224975;-0.08297243;-0.0061268164;0.02617569;-0.11000659;0.07660755;-0.00982517;-0.11675468;0.07813485;0.009763258;0.017407924;0.021193726;-0.039597765;0.06022007;0.040815547;-0.0016072338;-0.052862253;-0.006329047;0.089908645;-0.0390699;-0.08396734;0.098600864;0.15157467;-0.026627768;0.092459634;0.08169869;0.05447614;-0.11310109;0.08517935;0.059664626;-9.918927e-05;-0.024347065;0.08049268;0.1019277;0.06272533;-0.04379306;0.0029892807;0.06864505;0.052662008;-0.0074058524;-0.09758724;0.05542038;-0.068081476;-0.010441276;-0.07630276;-0.092277244;0.1173588;0.0009515912;-0.06235871;0.017371314;-0.03239061;0.089629576;0.11872345;0.038012058;-0.009098574;0.07489716;0.027598303;0.05815512;0.09454777;-0.020415032;-0.18641065;-0.011740169;0.0008438084;-0.022356853;0.057621878;0.089813285;0.067241065;0.02556156;0.030987306;0.06222781;-0.06629232;0.07559748;-0.025653673;0.2069741;0.058014415;0.096387014;0.08888489;-0.055135574;0.031156259;-0.04725411;-0.041276064;-0.05602651;-0.0049895975;0.06659466;-0.0008692639;-0.08770037;0.03757673;-0.17558789;-0.07238866;-0.028772179;0.008731982;-0.13281693;-0.011029634;0.016318819;0.11042077;-0.03265174;0.06343997;0.115746774;0.03540546;0.0073124515;0.0481848;0.017239258;-0.047451433;0.020094473;0.12908293;0.09900275;0.026312942;0.02673834;-0.020177513;-0.0064902464;-0.0705681;0.023827596;0.0073168334;0.05167929;-0.090223774;-0.076027386;0.027839985;-0.075233944;0.07707457;0.04393008;0.053646572;-0.07122147;0.060710393;-0.08217465;-0.032164652;0.09421627;0.094895884;0.029989323;-0.06294606;0.043588985;0.16156138;0.0426639;0.05097929;0.06368641;0.053166945;0.05290746;-0.01756602;0.06210221;-0.017980821;0.037570655;-0.06431687;-0.017259875;0.10979346;0.04634994;0.11927007;0.026583523;-0.004564427;-0.01358674;-0.025912737;0.10327325;0.037999902;0.018622702;-0.025175843;0.041978724;0.11792809;0.06322292;-0.07066225;-0.029429074;0.060570844;0.012410688;-0.044528596;-0.042862628;0.12739083;0.0599321;-0.04705459;0.0524262;0.01771438;0.08542023;-0.08917865;-0.032680113;-0.0057207523;-0.15032236;-0.07113733;-0.14793313;0.06927144;0.038029995;0.056361895;0.08676239;-0.032911353;0.024143342;0.02895048;0.035057236;0.01724699;0.11907997;0.072449625;0.073986836;-0.067567155;-0.012661915;0.03697259;0.09860157;0.10953944;0.080025814;0.0013540736;-0.070442505;-0.034825694;0.076075226;-0.037017405;0.032685325;0.06671543;-0.050649814;-0.032518033;0.007017335;0.088408284;-0.038992807;-0.055496454;0.08122686;-0.003909735;0.07400036;0.04059146;0.0014356751;-0.010727596;-0.024266832;-0.032869883;-0.039708044;0.09216314;0.108401045;0.10799742;0.016552921;0.04860615;0.038440697;-0.12275168;-0.062157452;0.067507744;0.009474262;0.0496831;0.050588194;0.007952373;0.052574363;0.03371472;0.07571712;-0.00961683;-0.119475864;-0.038611066;0.053314157;-0.00012593574;0.12155103;0.016809609;-0.049121767;0.037245866;0.04187914;0.069577515;0.08923358;-0.059044655;0.007955715;0.051842563;0.015517734;-0.017591884;-0.060385127;-0.015519961;-0.0037835536;0.034338947;-0.010270248;-0.014831947;-0.043992594;-0.0032406705;0.007468684;-0.044083655;-0.011713235;-0.08880574;-0.049852557;-0.1551959;-0.012402121;0.056180064;-0.0019688045;0.12849222;-0.10873503;0.057711888;-0.0016493045;0.011103745;0.1087709;0.06677949;-0.09547981;0.13455813;0.019260524;-0.034885652;0.0067338725;-0.050201874;0.012012947;0.043502133;-0.041407775;-0.013343466;-0.029617738;0.041494664;-0.07585205;0.0024504347;0.087891944;0.08894191;0.05327881;0.041427135;0.10455969;-0.07861573;-0.088510014;-0.030818539;0.023242844;0.10198515;-0.05810724;0.026784142;-0.008269308;0.056160897;0.01812248;-0.023365855;0.062072698;0.011842609;0.0015822328;0.11026938;0.09945321;-0.004711636;-0.07769798;-0.20410906;0.06886422;0.0012338528;0.04839156;-0.008565502;-0.057884023;0.057740904;-0.05631272;-0.040108547;0.051016483;0.027146291;0.092623115;-0.02966386;0.04428115;0.062549055;-0.03801422;0.027475584;0.047495447;-0.01332532;0.09477059;0.056698773;0.023178138;0.035284728;-0.043207288;0.10501946;0.11095343;0.035413235;0.0938976;0.121544175;0.0775336;-0.041764453;0.05207989;0.12473724;0.08380986;-0.009804836;0.038264327;0.039297;-0.012940069;-0.0944202;0.022479376;-0.036204696;0.010094719;0.013843116;0.039315507;0.006560446;-0.015610107;0.02527294;0.0491883;-0.033957515;-0.05171067;0.0768234;-0.101776466;-0.041786212;0.0656349;-0.005988;0.056984004;-0.044422336;-0.03882656;0.08635573;0.09449704;-0.031204378;-0.012992069;0.043238614;-0.049226888;0.10353935;0.0683351;0.045690853;0.030093513;0.05474539;0.0079775015;0.07183302;0.016612837;-0.07574461;0.018102188;0.035063468;0.1770005;-0.05413438;-0.041059263;-0.01599019;-0.08789289;0.11009388;-0.13532491;-0.009245209;-0.0262705;0.07247002
0.02003946;-0.10275493;-0.010885916;0.1029392;-0.03095865;0.0007942129;0.13457197;0.037043635;-0.092999056;0.04613075;0.049002588;-0.0049424428;0.12615882;-0.05102554;0.089122;0.049652573;0.07162717;0.026324244;0.013793914;0.08568341;-0.004542917;-0.023511207;0.06835703;-0.039570715;0.05133571;-0.062101435;-0.040742837;0.036209576;0.027405629;-0.1936259;0.072921045;0.03983354;0.11372444;-0.042051043;0.08926236;-0.074916966;0.0762298;-0.05031666;0.009704982;-0.013170066;0.033836734;0.10826878;0.028111082;0.017026652;0.03239919;-0.031181505;0.0011345495;-0.0426147;0.0048020235;-0.103607625;-0.102254145;0.043009453;0.03468164;0.013519264;-0.07490272;-0.008162988;0.0013362387;-0.024270829;0.10875771;-0.01844079;0.021166887;-0.013807645;-0.0376566;0.097374395;0.028389627;-0.056223024;-0.0039609745;0.060051028;-0.013443231;-0.003429687;0.13483429;-0.117253855;0.08262637;0.04535618;0.10942783;0.027758801;0.016284443;-0.014924083;-0.029515594;0.018654196;0.024402492;-0.031127706;0.029749362;0.053451106;-0.009615494;-0.057184834;0.12278561;0.10800918;-0.057378244;0.08293761;0.08240777;0.0076197004;9.351513e-05;-0.05759732;0.02631285;-0.07854624;-0.037932027;0.03054535;-0.0032546376;-0.026299523;0.11760143;0.11154278;0.09352602;-0.080828935;0.0813706;-0.041224547;0.08334291;-0.049493957;0.120361365;0.0065851356;-0.0072894734;-0.026733333;0.048597317;-0.010665287;0.019375132;-0.02473397;-0.057308834;-0.052275598;0.07608789;-0.03625639;-0.018386602;0.097943194;-0.05029775;0.034054875;-0.054519136;0.025659222;0.047429476;-0.011323082;0.0558121;0.05765875;0.045509536;-0.0013397954;0.07915915;0.002844516;0.036120724;-0.048903953;-0.030286472;-0.005648266;0.009758538;-0.015121264;0.05358738;-0.013091313;-0.043709546;0.05149203;0.10630907;0.062515445;0.025803698;0.06858127;-0.01036149;0.06812911;-0.022257673;0.0641984;0.07317499;-0.042703167;0.120225295;0.0016472582;-0.021496283;0.020207686;0.06470547;0.021273252;-0.037005905;0.0010577404;0.0014062964;0.07368693;-0.05674596;0.0058934367;0.11909029;-0.0109553365;0.05824458;0.047212258;0.098258734;0.055216547;0.052511144;0.03323526;-0.0061377836;-0.005288718;0.055137552;0.009130699;-0.04193488;0.063258216;0.017106729;0.081913985;0.07300653;-0.0006977566;-0.017555496;0.0090831565;-0.0032184576;0.0020305112;-0.02263052;-0.05077169;0.027195085;0.03421528;-0.037724283;-0.07381245;0.024951704;-0.04521327;-0.0564575;0.016546397;0.10421677;0.04128264;0.07441787;0.15428278;-0.06356385;-0.029105015;0.04713477;0.000957403;0.06467093;0.05748816;-0.00019658648;0.00096675375;0.0013479559;-0.056240074;-0.04863256;-0.044592563;-0.021608852;0.086068645;0.06673498;0.037874103;0.022722317;0.0053533507;0.08146591;0.071891055;-0.053260073;0.01073904;0.012043526;-0.034734916;-0.07004053;-0.115657724;0.011431234;0.10908434;0.094955154;-0.032271966;-0.025885114;-0.015833266;0.08244906;0.020988494;0.102098934;0.0020500442;-0.03788667;0.09294443;0.059782993;-0.0042758975;0.107261404;-0.13304733;0.04919523;0.043009154;0.07573645;0.010886853;0.06744926;-0.04421571;0.07706361;-0.06851121;0.05415723;-0.021668836;0.10965052;-0.01835172;0.080176875;-0.009562456;0.03526366;0.001511259;0.015169027;-0.031204678;-0.016862683;-0.017330848;0.0774343;-0.016850613;-0.032639656;0.014737977;-0.00030715414;0.06603478;-0.12372052;-0.031973064;0.026070897;0.041129246;0.015226403;-0.054621793;0.019213429;0.040615898;0.012118865;-0.00068430527;0.029676886;0.0013510447;0.050388016;0.07019504;-0.04354204;0.055171512;0.09668443;0.03779499;0.05505057;-0.05531025;0.04849221;-0.019762883;-0.01168222;0.029395655;0.06253176;-0.023243103;0.043803718;0.08500825;0.06424345;0.053487558;0.003997755;-0.0106152175;0.09273977;-0.036562607;-0.00058204087;0.030862778;-0.032506537;0.03986045;0.03865808;0.05919921;0.08060213;0.06067923;-0.040252615;0.032338668;0.09447659;-0.002654221;0.012319752;0.08722321;0.02358184;0.07460622;0.106712766;-0.02654215;0.020603033;0.09909931;0.06030394;0.045143057;0.093835495;0.08277402;0.02346375;-0.0013991739;0.021013362;-0.008605356;0.070734136;0.025647026;-0.00077447575;-0.0029169873;0.017859256;0.0025373376;-0.037904534;0.0815262;0.054331332;0.035354447;0.07980389;0.0034193024;0.06311704;-0.016034732;0.08667605;-0.03925188;-0.035686072;0.07259525;0.074520335;0.049521122;-0.009027451;-0.029808106;-0.16496257;0.015326511;-0.071136735;0.033127066;0.030138077;0.101827994;0.06882623;-0.07435166;0.036427464;0.00486598;0.053002913;0.04875;0.03178114;-0.015318065;-0.05038172;-0.024918376;0.0723041;-0.05221635;0.10125407;-0.038630724;-0.019463232;-0.05788695;-0.03429185;-0.05256725;0.06824148;0.10176461;0.0677568;0.047193937;-0.06286225;0.01929046;0.048457384;0.053478364;0.0069455313;0.027950414;-0.020615412;0.012903699;0.045518763;0.082109965;-0.02362847;0.015999565;-0.07777786;0.018215703;0.035328448;0.07132424;0.14278449;0.005744345;0.08104251;0.08600971;0.036881164;0.06465579;0.01625872;-0.00951853;-0.059843734;0.08518469;0.03792644;-0.0353855;-0.042042006;0.08992603;-0.011605978;0.12940788;0.013024482;0.00446705;0.0729863;0.04955475;0.018057149;0.08661724;0.0440262;-0.0012432905;0.040411685;-0.04592789;-0.041668873;0.082009606;0.06715039;0.09710599;0.006119685;-0.10831571;0.04783207;-0.067926615;0.028816344;-0.07152591;-0.020524982;-0.0876991;-0.03462983;0.08328685;0.026456881;0.051883467;0.02739422;0.033597182;0.07472847;-0.17405128;0.0023696607;0.06986503;0.051452167;0.13800785;-0.05738312;0.073046595;0.036873735;-0.035703063;0.04243995;0.07901305;0.035813063;-0.03260664;-0.05124087;-0.02519571;-0.071202345;0.03270279;0.10235496;0.039718788;-0.06601444;-0.017736703;0.030406006;-0.013715698;0.021695687;-0.054574247;0.03936656;-0.036346354;-0.02598362;-0.03222586;0.042117726;0.006305388;-0.05536109;0.10580252;0.03966711;-0.0007745799;-0.020470718;-0.055718094;0.047691952;-0.044467945;0.06836983;-0.049383298;0.024239354;0.005217574;0.064201035;-0.015957635;0.01601377;-0.0038051442;-0.036636055;-0.13839382;0.012534151;0.008292178;-0.0036811882;-0.099566124;0.03254559;0.07415133;-0.061356355;0.055283003;0.01709606;8.937788e-05;0.08993297;-0.01350078;0.07305831;0.06272041;-0.029020278;0.031006956;0.010352204;-0.013324725;0.10173621;-0.018497445;0.028652651;0.09900721;0.03514214;0.043275665;-0.006421188;0.06643399;0.09294566;0.1481628;0.011442977;0.05508412;0.0072211768;0.0658374;0.0031076425;0.10570457;-0.05155191;-0.0050943084;0.0685076;0.05338246;0.07332382;-0.014611902;0.10847139;0.058135625;-0.06307707;-0.011488047;-0.05751571;0.023849536;-0.004961375;-0.022063766;-0.05547186;0.038222674;0.05824282;0.04411516;0.15997633;0.025860593;0.06144077;-0.03268158;-0.015769977;-0.026527872;0.04988959;-0.104770735;0.087221116;0.075409934;-0.075207524;0.08525867;-0.000103099854;-0.039247885;-0.026139062;0.055291425;-0.04133688;0.07823797;-0.043800738;0.01525433;-0.014050992;-0.061378557;0.025387837;0.042929463;-0.014895243;-0.026684772;-0.037699085;0.00951541;-0.0706255;0.03813918;0.0015289454;-0.012209437
0.07586331;-0.0407779;-0.027236182;-0.043344777;-0.057348322;0.029063892;0.12548353;0.025810082;0.03582513;0.1312516;0.029022768;0.03195873;-0.013134443;-0.029814636;0.019432928;-0.060422726;-0.014126612;0.057999328;0.03885703;0.016064001;-0.043022398;0.096635975;0.0630508;-0.06807966;0.0024145432;0.025296863;0.014223373;0.08423933;0.16568892;-0.20234427;0.033292394;0.014992363;-0.0025215554;0.02074146;0.013786732;-0.080788806;0.09312415;-0.021718146;-0.0024911913;0.044115957;0.06576203;0.03816852;0.068973705;-0.028831264;0.06601372;0.048728827;0.047303047;0.020554563;-0.032995652;-0.05898362;0.039777085;0.058648176;0.020152088;-0.033235207;-0.07392893;0.09199327;0.06529521;0.08525916;0.0390875;-0.026350362;-0.054748867;0.0057045957;-0.021798486;0.033704437;0.051777165;-8.64143e-05;0.00534776;-0.025079364;-0.014065791;-0.038198017;0.00856627;0.022269549;0.004868091;0.071982026;0.04105178;0.031140486;0.07328421;0.04801268;0.09029401;-0.030178024;-0.08192803;-0.05844765;0.00031156704;-0.03173091;-0.00061690644;0.082707085;-0.04790741;-0.04913373;-0.018283313;0.087104775;0.019100944;-0.014372718;-0.008324435;0.0743176;0.024595095;0.025270034;-0.03809917;0.09751266;0.021030042;-0.031925783;0.06672829;0.10131365;-0.042420506;0.03542297;-0.04165346;0.0175058;0.0005683552;0.10392377;0.020614974;0.07305565;-0.13952248;0.044808086;0.066910535;0.050921604;-0.019877244;-0.058642074;-0.06409918;0.05430702;-0.0016909713;0.069067344;-0.041240096;-0.0018126356;0.0774779;-0.06775331;-0.06825724;-0.0028450768;-0.007902814;-0.0072880914;0.093317136;0.06539001;0.085613154;0.045456544;0.044236284;0.0523514;0.016264018;0.06378021;-0.015237756;-0.041669197;0.050810162;-0.005067395;-0.022532634;-0.044077788;0.024096921;-0.044502508;0.08509623;-0.062156536;-0.09435521;0.050678864;0.033093743;0.06361189;0.015072762;0.058305796;-0.04201653;0.010372179;0.09932705;-0.044223525;-0.10352425;0.019334156;-0.017292267;-0.025844699;0.031168075;-0.034081835;-0.05221775;0.0053359796;0.103142925;-0.0428126;0.109767616;0.022318251;0.07393385;0.091903485;0.07711583;-0.074800804;-0.041183975;-0.011738477;0.048903912;-0.02377011;0.054174293;-0.047784865;-0.018001962;0.105316125;0.13462469;-0.052608132;-0.0008996951;0.018320013;-0.019341007;0.03321026;0.028032996;0.035733163;-0.04538375;0.024933713;0.0065249377;-0.05721069;-0.011676008;0.061090466;0.0370792;0.04883885;-0.0025502755;0.021214014;-0.009847204;0.021649875;-0.024932846;0.12331711;-0.040329613;-0.09182209;0.025127472;-0.022237841;0.09325198;0.046651326;0.07475957;0.028940702;0.04479455;0.07980022;-0.015608163;0.037785664;-0.07654316;0.13752903;0.08499145;0.019500196;0.08039861;-0.10486676;0.07379137;0.03014139;0.081988364;-0.047497537;-0.051458806;-0.052009836;0.010900385;-0.12908852;0.023091687;-0.006194653;-0.051615734;-0.02204566;0.08832379;0.09133996;0.085183665;-0.036705773;0.021154283;-0.06336489;-0.018234948;0.07505466;0.01003909;-0.05568336;0.0013384363;-0.10952711;-0.02172034;0.0584598;0.010586285;0.035869967;0.0096598;0.06895585;-0.0045045596;-0.05301973;0.01745256;-0.037726954;0.06999471;0.06244689;0.041860085;0.054260183;0.037562918;0.071268514;-0.018673664;0.032536875;0.043802496;-0.043476973;0.002795097;0.06649778;-0.04681286;0.02494137;-0.02636341;0.042365678;-0.029999057;-0.00893355;0.0048284903;0.00020971966;0.0111530805;-0.044716127;-0.0062547433;0.0709092;0.100890376;-0.036587697;-0.06371993;-0.02462544;0.098105036;0.10791418;0.03616533;0.02216811;-0.0293316;0.060106676;0.008763925;0.06828622;0.05328778;0.032316156;0.0007062013;-0.06492451;-0.03221141;0.0064979624;-0.002731357;-0.07658816;-0.03085765;0.0022960317;-0.015674181;0.038944215;0.06891807;0.038979877;0.016388256;0.029100582;0.07517274;-0.012790705;-0.0008447318;-0.010722227;-0.012511996;-0.013198339;0.0055918507;0.041261762;0.060000286;0.07794982;0.07377863;0.00055032596;-0.064592965;-0.06798541;-0.015714513;0.03434439;-0.044166386;0.054451413;-0.012711031;0.07994902;-0.00031703804;0.06450842;0.074027754;-0.022995047;-0.045337614;0.025074556;0.063869886;-0.108855985;0.030602144;-0.005365537;-0.037359323;0.010155756;0.058548275;-0.03041706;0.104730606;-0.008123437;0.007106578;-0.061884075;0.041587204;0.10087158;0.070624925;0.029916216;0.059979547;-0.028828116;0.038169537;-0.039068494;-0.058681708;0.028861286;-0.09227737;-0.07219206;-0.16862997;0.06263953;0.03465141;0.050711386;-0.035183687;-0.065532446;0.0060707284;0.058800146;-0.01022861;0.06028125;0.039788548;0.0674902;9.663984e-05;0.030743498;-0.042034864;0.051677395;-0.050709795;0.043508533;0.038963273;-0.035520986;-0.0426132;0.06301087;-0.0007435121;0.08153369;0.07836936;0.053757906;0.1345773;-0.034243964;0.085056394;0.007166825;0.03875072;-0.057095964;0.08941776;-0.05419178;0.12793306;-0.05810689;-0.014124276;-0.0035315854;-0.029300587;-0.06261385;0.042167235;0.12408096;0.19411936;0.1047106;0.06870942;-0.04072685;-0.036732756;-0.10488815;0.10170916;-0.06500326;-0.029521462;0.09206667;-0.05780651;0.07654331;-0.028033499;-0.021109708;-0.02595824;-0.022714205;-0.07868472;-0.09026544;-0.07674915;0.01306247;0.098957375;-0.019879423;0.07601158;-0.04886018;-0.01681921;-0.07078593;0.003265461;-0.042874593;0.017261647;0.07019011;-0.010648324;-0.04542799;-0.03940602;-0.08572453;0.06193369;0.03779274;0.05042741;-0.09325538;0.046524372;0.09073859;0.10771788;-0.011093722;0.000991987;-0.050484248;0.006794342;-0.06405735;0.056070365;0.11929792;0.13732967;0.11433892;-0.0940995;0.07869292;0.066877514;0.023332829;0.06461132;0.034836177;0.00052129064;0.08132579;0.023202643;-0.04727029;-0.0712555;-0.023556013;0.123998076;0.058760304;-0.026892338;-0.015372554;-0.09630113;-0.06298875;0.07414541;0.071833864;-0.018344477;-0.023000296;0.07829392;0.074659005;0.14657502;0.08397338;-0.060238894;0.07705762;0.010622905;0.07147738;0.03826959;-0.004973824;-0.05256676;0.056430433;-0.03776498;0.0018039743;0.07090318;0.058542974;-0.027880838;-0.024441529;0.08166477;0.0777037;-0.014721063;-0.17127407;-0.03770263;0.02528492;0.014631808;-0.019928034;-0.02230759;-0.044056762;0.016076783;-0.07492974;0.009236947;-0.07435329;0.07178948;0.018537993;-0.0033378722;-0.09289953;0.042467985;-0.08373627;0.108732395;-0.05969216;0.02016167;-0.003110472;0.009118449;0.058355402;-0.08903379;0.09252768;0.12079305;-0.041839786;0.012727349;0.123305514;0.091547154;0.041598972;0.024961552;0.09450858;0.046184342;-0.034025285;-0.040536445;0.00042675567;0.04286742;0.022835499;0.048431057;0.0060465112;0.040526617;0.050453972;0.023493052;-0.033214863;0.05718803;0.091856726;-0.053224202;0.05353604;-0.0161004;-0.058338564;-0.03068202;0.045302566;0.15338632;-0.03907783;0.13628884;0.03969252;-0.012918345;0.045065437;-0.06791657;0.013455036;0.08740595;-0.04487689;0.06929444;0.005950165;0.06323677;0.03817036;0.050036155;0.10230614;-0.016275048;-0.051104;-0.08676145;-0.018071085;0.035195004;0.07127656;-0.011521931;0.05055472;-0.01461101;-0.014817444;0.03818562;0.056316704;-0.035478823;0.008256789;-0.03651906;0.013043025
0.052430745;0.017367747;-0.027842289;0.013494522;-0.038901623;0.090768956;0.086746015;0.09350416;-0.13720348;0.059744876;0.11565597;0.06753855;0.04664567;0.009854162;0.09301241;0.048289042;-0.06030143;0.06936187;-0.04359884;0.0034580603;-0.0120270755;0.02727852;-0.051234752;0.06407416;0.11212024;0.07322111;-0.043175437;0.0021182136;0.10133752;-0.1343653;-0.019147834;-0.091037065;0.06191855;-0.11829899;-0.012233181;0.016056472;0.03760817;-0.065276474;-0.033125453;-0.0226818;0.0361555;0.109506674;0.056413304;0.082845315;0.07967293;0.0062309485;-0.022994947;-0.02676942;-0.053072076;0.03758364;-0.054750793;0.11066125;0.05218827;0.04557651;-0.10940998;-0.036600884;0.017489897;-0.028773293;0.029403506;0.05623418;-0.09493723;0.05587268;0.106958315;-0.05203321;-0.04160316;-0.07818964;-0.014844797;0.10789338;-0.034690842;0.03893519;0.049387068;-0.011100672;0.011155421;0.054206494;0.01971597;-0.050585136;0.09210881;0.011752293;-0.048923016;-0.042002033;0.009902739;0.041901555;0.014205423;0.09527923;0.06654666;-0.0012959243;-0.011339487;0.0784702;0.012628859;-0.04185552;-0.012243039;-0.031228414;-0.0012139403;-0.027845234;-0.038628962;0.07015892;-0.07646019;-0.053864487;-0.019005716;0.07686178;0.026425414;0.060883332;0.045522567;-0.03884349;0.006753407;-0.060676645;-0.002755861;0.096998446;0.068208694;-0.029825604;-0.015317328;0.019443683;-0.008298978;-0.0022116087;0.0399682;0.046409007;0.08025455;-0.05266703;0.050345037;0.0066975835;0.028722651;0.03704082;0.050868142;0.05739793;-0.04456165;0.063221365;0.012727555;-0.0015945742;0.089347325;-0.030307507;0.037866324;0.008703641;0.10482766;0.0033558728;0.11310931;0.0867277;0.069618024;0.04205931;-0.009560188;0.026910115;-0.09323778;0.053734783;0.017550657;0.058505315;0.097725466;-0.0073498883;0.030237528;0.07892998;0.020379962;0.006437629;0.011396267;0.088499874;-0.050057;0.027214058;0.07583486;-0.03733557;-0.16550772;-0.045439;-0.0030483103;-0.037416555;0.06482765;0.026027773;-0.025643613;0.010653448;0.0115036145;-0.0751426;0.062298235;-0.014217531;0.04831038;-0.05104471;0.08684704;-0.107197054;0.077270396;0.11085913;0.083099104;0.07762023;-0.050640296;-0.07081583;-0.009376656;0.034382563;0.10423397;-0.050298236;-0.08888969;0.03426702;-0.079365246;-0.05979408;0.088883914;0.036206666;-0.006059776;0.018134184;-0.0067989537;-0.007480605;-0.029273802;-0.05984837;-0.0036808653;-0.06049136;-0.017882215;-0.009630569;0.056429554;0.031812012;-0.035310104;0.05918302;0.08346664;0.045469902;0.018950246;-0.056704495;0.00053407345;0.068855494;0.047252458;0.11057493;-0.019434521;0.034409605;0.083584;-0.03695633;-0.050931748;0.070847996;0.08339697;0.008656232;0.052350927;-0.07591092;-0.0731521;-0.049295615;-0.00308978;0.09019802;0.017247204;0.02269191;-0.11395656;-0.033330537;0.031658757;-0.012009825;0.011028266;0.03581616;0.005016969;-0.027336802;-0.060650904;0.09259282;-0.043082085;0.06297475;0.008282611;0.06166756;-0.0058189505;-0.033195578;-0.045557886;-0.10188308;0.046139337;0.030485716;0.0883571;0.079813674;-0.081502035;0.054559615;0.05917353;0.037789777;0.15200233;-0.038525376;-0.04996024;-0.039969657;0.092284314;0.06582028;0.0037074191;-0.009337652;0.057180725;-0.01127781;-0.011667766;-0.036070164;-0.019097105;0.04049823;0.05655584;0.04910419;0.07299837;0.061670996;-0.07231512;-0.09859706;0.08875092;-0.05717234;-0.033323117;-0.042985693;-0.038931448;0.10761458;0.112287104;0.09653078;0.033304125;-0.034394942;-0.023133682;0.10380172;0.023026695;-0.035573516;-0.021348186;-0.024714746;0.047453806;-0.029026376;0.06646199;0.041639265;-0.0030952892;0.097841695;0.044843744;-0.06214163;-0.054323185;-0.002286257;-0.06550351;0.04165647;0.035295393;0.11852322;0.0072291256;-0.0153001;-0.009150927;0.060154676;-0.063079275;0.08085413;0.0613115;-0.060991403;0.11110489;0.0076369066;0.02146358;-0.029712657;0.010598341;0.021317065;0.08134021;0.03945116;0.04526119;-0.047753703;0.047158286;-0.043624975;0.057527926;-0.02048278;0.044322107;0.010975611;-0.04825908;0.09207863;-0.046039086;-0.07158001;-0.07622537;-0.03487348;0.02985788;-0.09627567;-0.10987005;-0.064263076;0.07335297;-0.0034321472;0.061284967;0.01931332;0.013419545;-0.021108221;-0.00535816;-0.02616698;-0.039442174;0.09801713;0.0073681525;0.022393636;0.0917997;0.09448668;-0.05099838;0.034827054;0.05328807;-0.008525337;-0.104831815;0.02460332;-0.16660205;-0.0124532;-0.028886348;0.043642536;0.11089636;-0.067151554;-0.021610174;-0.02115815;-0.024506671;-0.031461064;0.048168957;0.045560695;0.10719255;0.091306135;0.028648619;0.0139451865;0.058106523;0.009500084;0.08259448;-0.041691974;0.014335298;-0.04337475;-0.070449136;-0.048095565;0.01787507;0.02550257;0.1331824;-0.056129932;-0.030417109;0.040869854;0.0350124;-0.037611797;0.02914783;0.009401896;0.09932437;0.07227143;0.015916515;0.0029289655;-0.1034119;0.077540524;0.09111435;0.08156609;0.06045519;0.05597699;-0.046157002;-0.021577964;0.042893387;-0.10496947;-0.003824893;0.037754394;0.031489242;0.12334697;0.036413264;-0.017769497;-0.10107861;0.098451026;-0.09278566;0.0520283;0.07865312;-0.046246946;0.037260763;-0.083119795;-0.025321783;-0.06858976;-0.021368517;0.034432102;-0.00022894112;0.013465535;-0.060818642;0.05232251;-0.088381074;0.0033236602;0.06061544;-0.08926484;0.058048256;-0.05466479;-0.015755996;0.014725814;0.08701924;0.031636458;0.07092349;-0.014200232;0.023202794;0.012172813;0.043111317;-0.0022452902;0.06839572;-0.160258;0.027733037;-0.028953696;0.1068462;0.048574217;0.08278223;0.018033758;-0.033215575;0.027202949;0.04537962;-0.012085471;0.0074682315;0.045945223;-0.08068637;-0.01877712;-0.0122905765;0.09612835;-0.0021160364;-0.008142774;0.060052123;0.0028371345;0.05882669;0.003949347;0.044911735;0.0013911191;0.035984583;-0.0030174623;0.05814345;0.034356233;0.14312994;0.02983278;0.027264854;0.08528841;-0.0092123365;0.035993252;0.010532909;-0.056345154;0.04440127;-0.042377856;0.08617514;0.11017442;0.03613242;0.062624894;0.0052731493;0.08111095;-0.021963721;-0.007512397;0.042439666;-0.20134021;0.047529984;-0.035078228;-0.0068871807;-0.03430689;0.046532888;-0.032135207;-0.03658953;-0.0415304;0.033981685;0.046996143;-0.03544664;0.035194043;-0.022986732;-0.010241872;0.09592068;0.03231642;0.13126153;0.06222763;0.024140107;0.05499142;-0.060513165;0.121655755;-0.045375627;0.09859291;0.024977783;0.039800614;0.11524108;0.1099458;0.034535225;0.014793554;-0.030472709;0.066844635;0.03383665;-0.032351848;4.4512508e-05;0.1017039;0.0020653098;0.022186147;-0.0015645581;0.031080764;0.084559724;-0.011989223;-0.072418116;0.027897501;-0.05233578;0.10522775;-0.06497355;0.078347124;0.08516765;-0.03307849;0.027133478;-0.021135159;0.12490446;0.065715425;0.14232175;0.07815814;0.045303028;0.067108676;0.05691101;0.09030493;0.06878946;-0.030381091;0.03531705;-0.040848944;0.037995555;0.06927547;0.08444522;0.09305117;0.078141265;0.02027723;-0.10207062;-0.031799518;0.0576881;0.031352654;0.0127495555;0.022513546;-0.017976029;0.046035744;0.1197885;-0.03225041;-0.04843986;0.06411598;0.042628385;-0.025088113
-0.028550168;0.05211588;0.0056582526;-0.061879855;0.028117621;-0.004177858;0.075988114;-0.040947407;-0.17680691;0.053120296;0.10038529;0.054603998;0.1349132;-0.028855693;0.0028829728;0.061407004;0.018872503;0.0987072;-0.049711563;0.09789592;-0.016576925;-0.031643733;0.027929107;0.020272657;-0.03925391;-0.004340887;-0.05297086;0.015058534;0.078131646;-0.11671761;0.10494817;-0.122519664;0.061459187;-0.081711516;-0.03190358;0.034290675;0.15765448;-0.044683546;0.023579858;-0.023947775;0.005842486;0.11128169;0.09736079;0.0073799468;0.15791413;0.08644598;-0.09264283;-0.043799292;0.09292947;-0.06646158;0.048133146;-0.00504933;0.06155122;0.10535969;-0.109678484;-0.049759105;0.045944564;0.025603496;-0.027726967;0.010743669;-0.08037233;0.08966277;0.05593367;-0.022527564;-0.020476231;0.095852196;-0.004823896;-0.06394653;-0.060452547;0.028602278;0.028906027;-0.0714652;0.036073092;0.1235451;0.044653624;0.050113488;-0.01930123;0.1153482;-0.106339276;0.0060367077;-0.029426895;0.07708977;0.037259415;0.051447988;-0.008258112;-0.0039317845;0.06795488;0.08388056;0.011954669;0.055024303;-0.029912895;-0.03726957;0.038134143;-0.03884159;-0.022136332;0.06168283;0.056959588;0.05509986;0.06997884;0.018803641;0.08144017;-0.060120557;0.06729849;0.12887712;-0.056212764;0.025594132;-0.05248574;0.11011443;0.081116304;-0.016470531;-0.031891733;0.05572296;0.10914909;-0.062687635;-0.011717456;0.062443726;0.03380752;0.056433868;0.056116983;0.07240561;0.053444576;-0.012388094;0.11536901;0.070895806;0.052750222;0.041407503;0.0363306;0.001692896;-0.007122375;-0.031412203;0.07291617;-0.038827427;0.049690947;-0.05310982;0.12029858;0.046357404;-0.026629105;0.10557659;-0.048426416;0.03080624;0.035335597;0.07059852;-0.04282648;0.048667688;0.09734012;-0.12382965;-0.11093318;0.020568227;0.029035725;0.0053225523;-0.05748822;-0.019120004;0.06404536;-0.06319206;0.040284514;-0.059195027;-0.09724145;0.07244642;-0.018252652;0.098479934;0.057377685;-0.06569975;-0.032514308;0.0038099613;0.007961549;0.0027046173;0.003389831;0.012611677;-0.06796739;0.009302953;0.008251099;-0.07419866;-0.07294018;0.058377013;0.00054227933;0.06720472;-0.042811405;-0.0020725646;0.04270869;0.09824636;0.08434018;0.086938046;0.047365062;0.028456016;0.05951438;0.06142598;0.041942824;-0.044002958;0.056584798;0.025188018;-0.079316095;-0.024655486;-0.011183882;0.0066149817;0.057506688;0.066021636;0.0176354;-0.019056525;0.05257011;0.04766899;-0.031625193;0.028651852;0.09308535;-0.11128538;0.069065414;0.019577809;0.034762364;0.09948616;0.08173897;-0.03687472;0.078862816;-0.012150797;-0.019893378;-0.12895145;0.04054253;0.044568103;-0.021508154;-0.053476367;0.039002687;-0.09508617;-0.030684879;0.044588767;-0.031031284;-0.05527298;-0.016487934;0.021597665;-0.054461293;-0.0006649256;0.068064034;0.037195116;0.10978478;0.030301355;0.107887916;-0.07574823;-0.05742222;0.0238573;-0.044788487;0.011948019;0.06798071;-0.03670433;-0.0035277724;-0.044807397;0.0358373;-0.071709506;-0.09441096;0.093450636;0.09916153;0.11031452;-0.017107856;0.0071809976;0.021797488;-0.052328695;0.12007049;-0.057463102;0.06773956;-0.033729415;0.025797289;-0.0051160827;0.0209976;-0.05528986;-0.03104249;-0.053652506;-0.09129755;-0.0021605059;0.10347216;0.026172662;0.049731717;-0.0077861776;0.08658761;0.02139804;-0.13377193;-0.069901995;0.10270824;0.072624;-0.06433509;0.07216577;-0.025109496;0.07409103;0.0972018;0.044143036;-0.0917906;0.013016124;0.0024578727;0.012010824;0.077722594;-0.08734931;0.081625044;-0.02025754;-0.02454755;-0.06621426;-0.093715526;0.012203208;-0.0014701136;0.061419114;0.091595255;-0.060643453;-0.04433707;-0.16752782;0.04737794;-0.005739505;-0.05836511;0.083072744;0.059248976;0.013914685;-0.056145053;0.023237424;-0.03915157;0.014463383;-0.068302855;-0.00021322133;0.10116009;0.0064842505;0.05562692;0.07622912;0.08028716;-0.02764851;0.11753823;0.07372555;0.004039016;0.0808886;0.058543503;0.054893978;0.0038912182;-0.008119552;0.04278974;-0.023064973;-0.012909772;-0.043419532;0.07704238;0.030443398;0.028045349;-0.05927614;-0.03871099;-0.008313976;-0.12976447;0.0029291508;-0.039374743;0.081650965;-0.008144959;-0.0457612;0.021475686;-0.04654762;0.0988984;-0.021620182;0.057367668;0.043843072;0.12993939;0.09612655;0.056738522;-0.053062856;0.099292345;0.024727471;-0.049139682;-0.05894379;-0.15653895;-0.0693977;-0.13380304;-0.060891647;-0.025578927;0.07760767;-0.01014991;-0.053089235;0.054309092;0.05928034;-0.032474715;0.04930697;0.051014066;0.07669938;0.10136427;0.034304902;0.12200832;0.05103465;-0.046245135;-0.012152378;-0.04283041;-0.077830136;0.07708246;-0.007878947;0.07805506;-0.013146184;-0.021746682;0.06274144;0.057706382;-0.046434503;0.053157333;0.06696614;-0.00028905025;-0.056696784;0.023831066;0.05990347;-0.019162958;-0.014875054;0.054773893;-0.0007501012;-0.0058553186;0.048574697;0.051557194;0.060557835;0.00881692;0.02358272;0.02525316;0.04697036;0.041945387;0.027336484;0.04237172;0.06773426;0.055136442;0.06423131;-0.0004686807;0.043106932;-0.075048245;-0.017328653;-0.0027965868;-0.031320706;0.052632984;-0.071977355;-0.06313806;-0.10165128;0.10530279;-0.0034328257;0.051621094;-0.07547481;0.08323671;0.042032156;-0.0343395;-0.044593997;-0.026839089;0.010599741;-0.008317593;-0.03718804;-0.012078655;0.05503976;0.08423524;-0.041624103;-0.011096614;0.019729648;0.079521485;0.069491856;-0.013228025;-0.08290299;0.020693956;-0.07643374;0.0052575106;-0.041168638;-0.07327682;0.015342242;0.027954746;0.015782805;0.06991218;-0.0385143;0.053631604;0.052667152;0.025801592;0.089347795;0.0945956;0.05760904;-0.0908854;0.0024866888;-0.09464097;0.047092453;0.009103613;0.05163314;0.07687433;-0.038963743;-0.040928062;0.10566946;-0.08565372;0.022659253;-0.021824041;-0.027446244;-0.017719228;0.05196471;0.14192128;-0.046529144;0.014069897;0.0586558;0.05033226;0.08144904;-0.040615175;0.025171455;-0.006962008;-0.0046419827;-0.022864072;0.05617116;0.06305287;0.07901769;-0.027231297;0.05645974;0.034540493;0.07186649;0.05309758;-0.17068602;0.080122374;0.019486973;0.011397964;0.027918993;-0.00164994;0.052428994;0.080395855;0.013868062;0.07620416;-0.110014886;-0.012701863;0.08449614;-0.049174372;0.026203973;0.046263568;0.06526637;-0.00017329855;-0.025429625;-0.018966183;-0.09004425;0.06410428;0.13700688;-0.035488352;0.08833824;0.07364774;0.07061491;-0.013283819;0.0027109599;-0.0019374251;0.08061259;0.03552677;0.042617567;0.076415494;0.009376226;0.014302056;0.09545038;-0.009959958;-0.06844873;0.006642463;0.04199692;-0.023870338;-0.031665668;-0.014679611;0.033253457;-0.02082858;0.0398741;-0.12556992;0.00075094856;-0.04788175;-0.061105423;-0.029738689;0.0017703676;0.0958261;-0.03127115;0.056735937;-0.01341744;0.05959554;0.02707057;-0.011604384;-0.056336544;0.10643786;0.106435254;0.044843186;-0.096930645;0.061627563;0.07220765;0.021149814;0.06805857;0.07176178;0.07783111;-0.13436319;0.066044874;-0.035759192;0.08477841;0.025045382;-0.091734685;-0.026609983;0.09405688;0.084102914;0.06761296;-0.15646167;0.023028115;0.11455247;-0.06332111
0.07163187;-0.009169027;-0.056212325;-0.1271722;0.042533655;0.050576996;-0.1480467;0.05364907;-0.0340546;0.03507899;0.038693693;0.11862955;0.08945343;-0.013200645;0.035008613;-0.0550499;-0.034548946;0.042505212;0.07990507;0.040869918;-0.046061732;0.059156872;-0.03859582;-0.07527064;0.059866723;0.04788348;-0.04326323;-0.011218269;0.088270366;-0.12771541;0.08608799;-0.02657296;-0.03494292;-0.005239727;0.0033880493;0.01642109;0.13191807;0.069398314;0.07341138;0.026958235;0.06868512;0.030305257;0.08981721;0.0870072;0.030581106;-0.028295703;-0.054053217;-0.006459497;-0.05429967;-0.045916002;-0.029437624;0.11966181;0.01781116;-0.06731496;-0.15451784;-0.06174116;-0.049976222;0.088260405;0.07956118;-0.066485554;-0.007985728;0.02307863;0.06973627;-0.01099508;-0.052977726;0.02325537;-0.008484754;0.0036934381;0.089374155;0.0235966;0.0807888;-0.049605295;0.11543353;-0.052986853;0.0961747;0.0007822106;0.05728288;0.04651682;-0.004896635;0.058459777;0.041263364;-0.036889955;0.0060748886;0.1542717;0.13822737;0.044370133;-0.0073124375;-0.03271509;-0.054206505;0.019229468;-0.06771022;-0.02650836;0.025333244;-0.048927195;-0.07987615;0.078138486;-0.045162298;0.048421428;-0.0011027737;0.026590355;0.040333435;-0.050934732;0.048334595;-0.011831972;-0.004243839;-0.07831;-0.07600751;0.062444683;0.117528014;0.079437554;-0.047507543;0.06183474;-0.024954805;-0.019912085;0.099537715;0.069534406;0.08574613;0.038150124;0.044214368;0.07407979;-0.0125775905;0.068241805;-0.04592637;-0.039461978;-0.062159777;0.081807375;-0.031837814;0.09273526;0.054053772;0.089319825;0.09476579;0.07627545;0.061705086;0.036070697;0.07757148;-0.03325764;0.038520034;-0.040262047;-0.0072111897;0.120049894;-0.10749235;0.03677492;0.040437587;0.06377629;0.079503946;-0.09746702;-0.028079377;-0.010948928;0.0036854835;0.040194564;0.06730617;0.041307893;0.08260713;0.02395002;0.033709705;-0.05840862;-0.032499697;-0.031790026;-0.027507992;0.11509398;0.037427567;0.05471816;0.029247645;-0.010331441;0.044167727;0.0694682;0.028399238;0.050982162;-0.06038302;0.07910348;-0.040606167;-0.022348719;0.0016882109;0.058274;0.021004414;0.04984041;0.04989929;0.059474193;0.071175314;-0.025565017;0.075102516;0.009690882;0.076300815;0.057126258;0.055970173;-0.05525264;0.0035614027;-0.027429499;0.0060381815;0.049017012;0.0046216957;0.06920952;0.091917135;0.050627846;-0.009519034;0.026366733;-0.0058258027;-0.017903954;-0.10431896;0.09304397;0.053035535;0.054378405;-0.0018078544;-0.04890135;0.08790962;-0.009971792;-0.057269324;0.13038343;0.035214975;0.048880983;0.009084277;0.10372957;-0.029739963;-0.1086154;0.03869211;0.17988491;0.09873535;0.062527336;-0.056165576;-0.044072144;0.013961693;0.042372104;0.0028993846;0.030283589;-0.021069692;-0.016868731;-0.08067097;-0.1557211;-0.114080906;0.1220862;0.086340785;-0.04819495;0.06870287;0.039450526;0.06616183;0.037094392;-0.075881466;0.021064073;-0.019364085;-0.024360545;-0.0060162744;-0.020988267;-0.019571431;-0.12532227;0.005650232;-0.033252653;0.047875885;-0.010010774;0.02392544;-0.068402566;-0.04821722;-0.0070505925;0.05830659;0.03246956;-0.0011982728;0.04834979;-0.031627003;0.059187315;-0.009364573;-0.008104256;-0.043049436;0.08737931;0.010144014;0.0050701466;0.045913003;0.005590581;-0.04900477;-0.061306722;0.024481373;-0.03316094;-0.07512994;-0.107371055;0.030999696;0.0879336;-0.14778633;0.08682185;0.058144547;-0.046816804;-0.0036603103;-0.022104919;-0.02339573;-0.04716246;-0.04750184;0.12480872;-0.05270045;0.008877768;0.045594126;0.0915711;0.10995612;0.02826161;-0.06510972;0.03279839;0.026373977;-0.020929353;0.042290665;0.11684846;-0.009744191;-0.08911139;0.003367518;-0.06555617;-0.0058706165;0.014701087;0.020791851;-0.05541917;0.070175886;0.002555671;-0.10909704;-0.002768709;0.02579757;0.0074355975;0.10003931;-0.107743084;0.04141534;-0.0068960334;0.028032368;-0.056731094;-0.037874997;0.0840277;0.04839579;-0.000318315;-0.021791356;0.10231034;-0.02696992;0.024029788;-0.035696764;0.09392452;0.01734546;-0.0042954423;-0.015444816;0.014231074;0.06323532;-0.058444794;0.02103541;-0.043026067;-0.14033596;-0.065590784;0.044301573;0.00366482;-0.10411615;0.07926628;-0.08884822;0.036976874;0.039082866;-0.013823014;-0.033107333;-0.034120396;0.04216949;0.024767797;0.050466444;0.018096777;-0.00036553032;-0.06907607;-0.10579651;0.0035804645;-0.031716738;-0.031261332;-0.18339635;0.0403121;0.06953315;-0.026616154;0.07430148;0.010932175;0.028180277;0.029356463;0.0668373;0.0053633153;0.0016917622;-0.039069038;0.043845855;0.031266324;0.053057894;-0.0280936;-0.04245341;-0.03858318;0.02926493;-0.02326346;0.0134511795;0.093115665;0.057294536;-0.00081339007;0.038074683;0.0404605;0.11682611;-0.0634123;0.0264046;0.07064103;0.09842373;0.068171345;0.042472683;0.059910707;0.07484259;0.069602825;-0.01855674;-0.017495949;0.016435111;0.017366676;0.0061596683;0.0107003795;0.09454938;0.040420458;-0.09680767;-0.016260484;0.045011014;0.008447276;-0.07083182;0.015750583;0.09808657;-0.018652644;0.055571973;0.042371873;-0.023877213;0.09656356;-0.026442569;0.111985885;0.014770444;0.023562249;-0.02576749;0.025043616;-0.0022806681;0.023745498;-0.070011266;0.012104516;0.086201794;0.015634866;0.10000651;-0.11542084;-0.02042518;0.0030489466;-0.0059739994;-0.13046846;0.06938233;0.090498075;0.08642427;-0.0709898;0.11080775;0.035963584;-0.021651566;0.06871255;-0.02090652;0.0010854396;-0.03934493;-0.05227913;0.02441451;-0.13500665;0.024295866;0.049319252;-0.07013766;0.03238431;0.064602435;0.0071130325;-0.04162302;-0.055666614;0.11585642;-0.03704952;0.0057356455;0.09206285;0.018462388;-0.069129854;-0.042088974;0.09406724;-0.010803738;0.0069673928;-0.049347136;-0.06605091;-0.0014252614;0.06766168;-0.08237336;0.11179443;0.061346553;0.0066436226;-0.032443278;0.04254364;-0.010561844;0.06805531;0.024784965;-0.002312682;-0.022483006;0.072128356;0.048369538;0.06576582;-0.023623664;0.05589723;-0.029892348;0.04600659;0.051836215;0.033661317;-0.011578344;-0.013526837;0.08025553;0.021919494;-0.037254866;-0.03396062;-0.03553879;0.026393881;-0.035802685;0.06890011;0.010687206;0.027066516;-0.020001763;0.10288753;0.112232044;0.0005548739;-0.019105177;0.054826483;-0.029116271;0.028985048;0.05388324;0.031400014;0.09502739;0.09175772;0.03364317;-0.013913514;0.059458587;0.043898787;0.032561336;0.11661614;0.059623975;0.023522295;0.08517516;-0.024062127;0.05189267;-0.049054485;-0.045828722;0.13015527;-0.033051085;0.07630692;0.053980347;-0.06624378;-0.0067218137;0.0053308597;0.09041589;0.022711733;-0.103381164;-0.09001518;0.0614051;-0.003432001;-0.07994489;0.08699589;-0.027876848;0.06506361;-0.022552507;0.038604185;-0.014753774;-0.009558182;0.08890717;-0.07061049;0.10149618;-0.043157946;0.07612778;0.0040949243;-0.011278087;-0.052031334;0.022505531;0.059187245;-0.004804505;0.04192868;-0.015247658;0.051095206;-0.07276949;0.046691775;0.028481271;0.026510911;-0.07321634;0.0033429468;-0.0030775506;-0.0246211;-0.10303284;-0.08201007;0.075418666;-0.02401987;0.1294977;0.022958755;-0.049547758;0.030707346;0.056995958;0.08156345
0.01599128;-0.028821848;-0.055899885;-0.015676502;-0.032500654;0.0508651;-0.12071842;0.034136854;0.01455027;0.117463954;0.08557381;0.13357867;0.05283845;-0.03786378;0.006882983;-0.07890299;-0.023365034;0.005293617;0.09535515;0.019565912;0.043259576;0.058317434;-0.017424466;0.01672267;0.038995244;0.061470084;-0.04960114;0.0073628873;0.099989496;-0.19426759;0.037774645;0.016572114;0.037700847;-0.087756865;0.072343044;-0.028127437;0.06479683;0.0468588;0.028348662;-0.013993233;0.04795478;0.03864851;0.08946892;0.11781394;0.06931495;0.04769363;-0.026045315;0.0006686066;-0.004120474;0.0044813175;-0.022069078;0.03864852;0.05619175;-0.035734437;-0.14637135;0.04634634;0.07030714;0.053525243;-0.05415633;0.030033998;-0.0013141738;0.011541119;-0.0456709;0.095621616;0.020247485;-0.03240175;-0.031842194;-0.10186591;0.04459551;0.04833274;0.107353635;0.05385676;0.05178595;-0.08213333;0.123045646;0.07534765;-0.08911056;0.04074927;0.061285812;0.06557708;0.07032343;-0.054877024;0.030755745;0.01789951;0.012298637;0.09344873;-0.046702046;0.09245492;0.00450158;0.04324701;-0.036748398;-0.04276188;-0.08466334;0.064595096;-0.031472646;-0.06775992;-0.017515754;0.018910132;0.08317903;0.037190355;0.10458538;0.08531708;0.10574271;0.048423585;0.010853082;-0.027137639;-0.0066943793;-0.030918155;-0.018228078;0.018630363;0.017377598;0.029314024;-0.04700143;-0.09112753;0.07472546;-0.061098777;0.18042167;0.11138276;0.12806027;-0.081311025;-0.07521116;0.039846256;0.015767273;0.094993934;-0.06966921;-0.047640014;-0.020264776;-0.043503202;-0.022052675;0.078815244;0.029892992;0.016003765;0.048384085;0.12544936;0.1023952;-0.041328464;0.016349852;0.10530033;-0.10198876;-0.012693836;-0.044741873;-0.029432198;0.014351382;-0.03260335;0.04984033;-0.106385835;-0.07470887;-0.021151012;0.08932912;0.07679982;0.082650706;-0.021693522;-0.0056944555;0.047208183;0.18416831;-0.08593275;-0.15583748;0.1292114;0.13011487;0.0054644244;0.045223452;-0.048415493;0.050701387;-0.024201293;0.00016620063;0.086205386;0.11820482;0.076093055;-0.05669246;0.093950145;0.034587458;0.071940966;0.067713805;-0.067140065;0.0984811;0.035487343;-0.062248442;0.032903686;0.075952604;0.079821005;-0.00788175;0.098139144;0.08327241;-0.014890322;-0.06873962;-0.04162059;-0.0062491237;-0.018785074;0.043510616;-0.061858322;0.05151034;0.0064890925;0.09905332;0.020138692;0.031668276;0.050999872;0.09229923;0.027641779;-0.062187105;-0.047291808;-0.038073234;0.056833394;-0.005198533;-0.031476285;0.03381076;0.07019993;-0.008353639;0.08123782;0.07651456;0.0016490399;0.11335446;-0.041262228;0.0636917;-0.1490239;-0.06093362;0.122325495;-0.049127;0.03132847;0.050221626;0.05874182;-0.038622234;-0.043684337;-0.063414834;-0.09080931;0.08824336;-0.08390117;-0.06600084;-0.11022909;-0.060100816;0.044841383;0.013241336;0.09124648;0.012438916;-0.037222162;0.09282331;0.0227458;-0.055053223;0.100213185;0.066929944;-0.018313408;0.008503712;-0.07817846;0.05921555;-0.14154853;-0.024483906;0.0763263;0.07605765;0.017382577;-0.15764765;0.034848344;-0.04593251;-0.041862793;0.03295821;-0.046148207;-0.050390873;-0.08005507;0.07143913;0.031611912;0.0049635624;-0.045771476;0.07091085;0.071376696;0.024486635;-0.025618024;0.024096822;0.021139402;0.065535195;-0.030342178;0.019711059;-0.042626064;-0.0054693874;-0.003501185;-0.06255486;-0.01721687;-0.08210491;0.0019360034;0.015890656;-0.034696847;0.023071898;0.001811229;0.012073766;0.05037594;-0.03291065;0.10442691;0.09030823;-0.008878387;0.026998064;-0.034527075;-0.029625604;0.04600592;0.027758474;0.10192332;-0.023168994;0.09299804;-0.023502413;0.068430685;-0.014711895;-0.06964907;0.018219912;0.108700946;-0.06385854;0.11748587;0.0021358007;-0.012174533;-0.031199966;0.011238362;-0.12435881;0.041488852;-0.037786964;-0.06560019;-0.06201526;-0.054090146;0.08265422;0.07343436;-0.04487772;0.09012124;0.08020897;0.062974535;0.02124903;-0.054818396;0.06520992;0.10037853;0.051472407;-0.05938841;-0.07367702;0.003738998;-0.008154163;0.020321343;0.008317467;-0.07928485;0.04096643;-0.012758908;-0.046531506;-0.10010312;-0.07869214;-0.052629378;-0.015957514;0.015411245;0.04932064;-0.00231527;-0.063336805;-0.0016974251;0.007999774;-0.02707652;-0.05494757;0.052772116;0.08114326;0.007808779;-0.04506877;-0.05092801;0.050752018;-0.11125942;0.037147257;0.12995328;-0.021094479;0.049180385;-0.076828286;0.07222724;-0.06318741;0.0585304;0.025905633;0.050689716;-0.020255629;0.07590687;0.1058499;0.05737157;0.11028812;0.07482035;-0.053292383;0.063314155;0.03140385;0.022667434;0.04957451;-0.038731057;0.09728831;0.087380044;0.101357564;-0.042309813;0.05778605;0.03875738;-0.04495002;-0.007951576;0.026346512;0.05614764;0.010512253;0.037316907;0.005652893;0.05675252;0.015765263;0.04183968;-0.0059244647;0.067881964;0.066544354;0.021167567;-0.060406316;0.030393273;-0.049600296;-0.018402437;-0.032767083;0.030859116;-0.107568696;-0.03537772;0.09563064;0.012052391;-0.003324947;0.006152218;0.022039687;0.087159425;0.06269248;0.0671279;-0.018626653;0.051813647;-0.03315633;0.015557434;0.0075580534;-0.07157756;-0.103465214;0.026570417;0.053482518;-0.09020568;0.06392736;-0.03823434;-0.056455616;-0.043943893;0.004642403;0.07046906;0.03950871;0.08137103;0.023015052;-0.0509443;0.03459507;0.020274805;0.06627619;0.06090305;-0.017586598;-0.042929072;0.030148556;0.041902408;0.02813687;-0.03228552;-0.035546403;-0.11759584;-0.01644561;-0.051917262;0.03883877;0.08165242;0.08310742;0.030358225;0.09419911;0.025490094;-0.021685608;0.07070182;0.028558364;0.004626146;0.051304862;0.03786154;0.034275413;0.08168345;0.042211317;0.05251315;-0.031983934;-0.011750033;0.028547097;0.022444265;0.012310396;0.099842384;-0.034733895;0.079309806;0.0030169478;-0.017534766;0.017848711;-0.054439776;0.10170999;-0.048755754;-0.015433421;-0.03206798;-0.06445758;-0.03317016;-0.055894945;0.02153924;-0.019897405;-0.003775429;0.031285755;-0.08222832;-0.054544456;-0.10906326;-0.015883733;0.09376845;0.056245044;-0.0064072935;0.02794272;-0.10569806;0.088249765;0.0766951;-0.004464336;-0.04175052;-3.488356e-05;0.01540471;0.006911005;0.06146354;-0.05912515;-0.07600131;-0.02604435;0.0010402828;0.042921603;0.059355292;-0.036947098;-0.07230553;-0.020800984;0.057808768;0.10581337;-0.02035833;0.006896799;-0.017750518;-0.010215142;-0.004530786;0.026925799;0.046905033;0.054838017;-0.026302828;-0.016190037;-0.05089084;-0.049557768;0.06763009;-0.0034990886;0.10433016;0.07134339;-0.056086555;-0.05643523;0.050687596;0.033847302;0.021273095;-0.111592725;0.062341593;-0.045917284;-0.0625798;0.0061772317;-0.008936495;-0.070955046;0.093435206;-0.040335298;0.04259514;0.012713432;0.012068524;0.009746298;0.046938423;0.023890654;0.018560005;-0.06730082;0.03129602;0.025311457;0.06061083;0.010679229;0.046085615;-0.04683007;0.068889104;0.083547406;0.0705639;-0.04028925;0.0669618;0.081766106;0.0729313;-0.045963697;0.026524942;-0.017442819;0.06727597;-0.15854979;0.04669357;0.013648349;0.06390853;0.07538249;-0.042627256;-0.100912884;0.067188546;0.015384877;0.091722175
0.030680737;0.06648584;-0.025868652;-0.098444;0.022063263;-0.06551984;-0.03839222;-0.047583766;-0.05235056;0.108865514;0.07022837;0.1649418;0.020616122;0.06196382;-0.0023047698;-0.02215108;-0.031041078;-0.056681152;0.07939077;0.11815487;0.048842683;-0.045521937;-0.004092683;-0.04594115;0.05915819;-0.07234066;0.059420243;0.046488807;0.1146486;-0.09811547;0.05492435;-0.081327476;0.118954115;0.10543388;0.052580673;0.005765689;0.06354235;0.07801492;-0.055100128;-0.06287829;0.030665198;-0.036553536;-0.031102179;0.023833333;-0.07278722;0.04979558;-0.064499594;0.10204012;0.02957359;0.043865032;0.10326817;0.07700947;0.06533966;-0.017217467;-0.17329103;0.08394159;-0.06528209;0.085094355;-0.013485395;0.007219523;0.07067418;0.08795553;-0.013398592;0.031832002;-0.027225204;0.06503317;-0.05377546;-0.06731601;0.037473142;0.01512212;0.13020398;-0.08571399;0.1185524;0.013784185;0.071960986;-0.0070115756;0.05033602;0.059638858;-0.0098358;-0.003924812;-0.004169681;0.047376715;0.12736535;0.028701507;0.115014166;0.10525376;-0.046141516;0.08414379;-0.10138202;-0.067975715;-0.071059726;-0.033055272;0.0684097;0.027498996;0.03274261;-0.034055147;-0.04875212;0.015391335;-0.011149572;-0.044574797;0.03367079;0.056019314;0.10180468;0.036982317;-0.09253041;0.12286143;-0.054482058;0.050525;-0.0067031328;0.08724016;-0.08536168;0.04220245;0.109636;0.0056489133;0.018191954;0.014313665;0.077369824;-0.00509887;0.16078123;0.08302836;0.085849494;0.039291307;0.06781853;0.07748581;0.00488171;-0.017883694;-0.09020144;-0.0143653955;0.0026718592;0.06568527;0.017283842;0.0051498218;-0.101233155;0.122374095;0.0900133;0.05647813;0.06262467;-0.013696221;-0.07693326;0.021684617;-0.024158606;0.029859437;0.058052886;-0.03486856;0.06670163;0.06582232;-0.07858994;-0.019321056;-0.002110665;0.0023428816;0.07930603;0.04771193;-0.048289206;-0.036529325;0.17622055;0.024198532;-0.06314177;0.175695;-0.044865824;-0.01764578;0.04995499;-0.07271946;0.017333943;0.062892616;0.08976937;-0.03941017;0.019707184;-1.4666264e-05;-0.046030574;-0.04054652;-0.023690643;-0.039683327;-0.0012114103;0.031853653;0.011717948;0.042028975;0.0039684563;0.013860682;-0.06908983;0.0889093;0.03012786;0.07911918;0.07333183;0.024844602;-0.07595189;-0.033720795;-0.00037754097;-0.033360448;0.08880398;0.0579206;0.0057645645;-0.03764417;0.043440208;-0.010190513;0.06910603;0.023875695;0.064765945;0.082694;-0.009182691;-0.04177888;0.05593848;-0.0504088;0.078191794;-0.090614855;0.023825943;0.012248929;-0.009908252;-0.035833642;-0.062276788;-0.0055620368;-0.05621572;0.100759946;0.063207;-0.06944978;-0.04432379;0.06775321;-0.019350238;-0.017818464;0.023512634;-0.022625279;-0.04941783;0.061920673;0.08036842;0.010507341;-0.022652058;0.06585377;-0.043005567;-0.09842034;-0.015741888;0.08949555;-0.03141965;0.13471161;-0.007975697;0.011611524;0.0514101;0.052033026;-0.026904354;-0.048025288;0.13488512;-0.038107645;-0.05196254;-0.048828676;0.062757194;-0.0009838021;0.014816341;0.06918911;0.093517356;0.043240376;-0.044606898;-0.020523923;0.02629871;0.06121134;0.06400424;0.13832565;0.11603818;0.03190627;0.0628331;0.072534055;0.020575931;0.09280798;-0.026175369;0.050230056;0.077645645;0.00183203;0.13742244;-0.04038618;0.07629765;0.043355063;0.009617702;-0.06688914;-0.083853364;-0.03410313;0.0017548951;-0.06005085;-0.055302333;-0.058156196;0.0480053;0.13098897;-0.1199744;0.0708856;0.14714894;-0.02510798;0.07094407;0.11833265;0.0265872;-0.06102237;0.05091657;-0.0030713675;0.10200009;-0.0070245536;-0.022190249;-0.0013071653;-0.027790293;0.091345266;-0.046488713;-0.08680596;-0.14086397;-0.07485141;-0.010838455;-0.014908324;0.026156245;0.09613469;-0.09219064;0.0648906;-0.0052181855;-0.040742457;-0.110965855;-0.023037504;0.016259406;0.067817524;-0.035589527;-0.03901632;-0.05354915;0.032572843;0.058400642;-0.029551515;0.123228684;0.14043981;-0.04688896;-0.21551743;-0.054245524;0.01981548;-0.03714114;-0.033508822;0.08013618;0.09108525;-0.05321919;-0.1141779;0.054652933;-0.052581485;0.14275293;-0.007553255;0.050296422;-0.09715876;-0.054784708;-0.01793335;-0.07020458;-0.016871383;0.06323137;-0.072550476;-0.031839892;-0.09513127;0.096538566;-0.015762186;0.018126622;0.045249227;0.06653399;0.052732367;0.08397601;-0.07219794;0.044115897;0.022508454;-0.00426176;-0.020252002;-0.023257777;0.044378087;-0.11176336;0.020149296;0.028921615;0.12549324;0.057511114;0.019066425;0.07754965;0.14377971;0.021550395;-0.034948476;0.0039365864;0.023412285;0.027884321;-0.06291606;0.01622972;-0.06504255;0.105835006;-0.025396097;-0.01699983;0.024873763;0.117677465;0.026992531;0.015234923;0.06925503;0.06833476;0.02196905;0.014855683;0.061208036;0.07047793;-0.07416783;0.093590386;0.049511414;0.11016736;0.04958198;-0.00792105;0.07136416;0.06676201;-0.035911337;-0.025630323;0.007678862;-0.021090735;0.089744985;0.09767921;0.0918535;-0.16512038;0.029254824;0.04315697;-0.05573318;0.038311522;-0.10915491;0.053688295;0.022998013;0.030821435;0.10766938;0.008665539;-0.025073519;0.17529294;0.11423822;-0.11784983;-0.06261103;-0.024481883;0.054348264;0.045397393;-0.016651686;0.033245374;-0.037998237;-0.0209976;-0.066368885;0.0012635892;0.075939305;0.09217006;0.058418695;-0.034846712;-0.09385119;0.029031537;-0.011322914;-0.037832465;0.01563765;0.053876635;-0.057874825;0.11029196;-0.0054833065;0.104360424;-0.0447919;-0.078711055;0.059547503;-0.042840347;0.031247312;-0.07663778;0.0071521965;-0.016577914;0.103290886;-0.06262224;-0.01429272;0.0047621415;-0.05252711;0.060810044;0.040918306;-0.054183472;0.085063785;0.057551097;0.08811857;-0.050486926;0.037254676;0.11802446;-0.0068022804;-0.014496423;0.058968578;0.014730383;0.010023119;-0.037991878;0.025263261;-0.038737394;-0.012169644;-0.020322062;-0.103690006;0.0968891;-0.034089833;0.060051724;0.01933064;-0.004588623;0.069682606;-0.10691455;0.024459984;0.06387052;0.10433624;-0.10238835;-0.09854575;-0.026731439;0.00031956722;0.06659362;0.077968016;0.012635524;0.050169345;0.052922916;-0.06391719;0.038734578;-0.0031244075;-0.06741105;0.034957282;0.007058463;0.05670119;0.08917271;0.044695552;0.102864414;0.06719996;-0.06784491;0.06975354;0.09797305;0.057653815;0.078493856;0.006122883;0.045096856;-0.030749466;0.008455605;0.01581426;-0.014004644;0.12398158;0.09306917;0.029608931;0.08171643;0.035028797;0.10716261;0.05127934;0.07593272;-0.014083132;-0.028290145;0.08263229;0.05668333;0.09168755;0.10980299;0.011573292;-0.02565458;-0.08165028;-0.04164389;0.029213777;0.042762965;-0.004848505;-0.032114755;-0.0010352178;-0.0683178;-0.0282593;0.029588092;0.0922212;-0.014571314;0.02099913;0.02238155;-0.05065836;0.1320211;0.039171696;0.08393051;0.05625038;0.073046185;-0.0027071943;0.0078943735;0.02494901;0.10861812;0.05463018;-0.012546669;-0.08855853;0.019701865;0.03984459;0.0010115738;-0.022283258;0.027289504;-0.023102356;-0.049099676;0.11499101;-0.02887996;-0.041920833;-0.09424559;0.03157417;-0.078837365;0.06955296;0.07653144;0.07805099;-0.10189273;0.06921891;-0.054878063;-0.061010633
-0.019109646;-0.058975052;-0.0394432;-0.011599696;0.08376776;0.008302271;-0.028387764;0.041511964;0.07272525;-0.025143528;0.032633375;0.0030618694;0.009971574;0.051544398;0.018199677;-0.018037833;-0.031057581;0.05596586;-0.030961832;0.093431085;0.041288067;0.10810653;0.059518818;-0.03686339;0.018909942;-0.10980427;0.0048953113;0.0969609;0.14334616;-0.07352896;0.02918012;-0.076751046;0.036768857;0.01631278;0.04704718;0.009835805;-0.0064859744;0.07165625;0.039489076;0.011146864;0.077219896;-0.013195281;0.056197256;0.10784304;-0.065233655;0.116214134;0.012555299;0.07359179;-0.023884367;0.12779136;0.036091845;-0.057145685;-0.04457977;-0.049089234;-0.16141409;0.029597364;-0.004207919;0.013905011;-0.0039576786;0.07017131;-0.039588653;0.007747212;-0.0641457;-0.0040756855;-0.023265613;0.08876303;0.028547876;-0.04518519;0.04756297;-0.071917966;-0.032859985;-0.010351101;0.00036657203;-0.011768281;0.05305016;-0.018232848;0.05568214;-0.02456048;0.064180635;0.042189512;-0.012524316;0.019307334;0.11710166;0.050741944;0.017883519;0.08381609;0.08240951;0.042853475;0.05704185;-0.033964507;-0.004333775;0.054620214;-0.06428993;0.042225372;-0.010253739;0.037314698;-0.16036528;0.025253003;0.018083647;-0.04310712;0.005823108;-0.071487166;0.031569306;0.06385756;-0.04696426;-0.011767329;0.020563101;-0.015987435;-0.0011558372;0.035425555;-0.114179194;0.0053107706;0.05929847;-0.059020724;-0.011599093;0.016811194;0.1401288;0.031003071;0.0068278513;-0.017655991;-0.040978722;0.042663693;0.026396789;-0.05067841;0.036085337;-0.015059128;-0.059611406;-0.025710724;-0.016000368;0.004978309;0.07447911;0.10660378;0.015356101;0.113163665;0.01658172;0.09402579;0.09460628;0.016442228;0.00978669;-0.008709194;0.026141798;0.02167222;-0.060756847;0.072319746;0.11654109;0.034011282;-0.122136354;0.039766893;0.005140158;0.041001957;0.057718214;-0.04072753;-0.012530324;-0.00048281954;0.010163932;-0.09070041;0.0037068853;0.009113205;0.108084664;0.04456627;0.00733739;0.05974585;0.095636085;-0.036802836;-0.049514193;0.034446757;0.10054192;-0.047913454;0.06998821;0.022120776;0.08658461;0.03584578;0.0018792395;0.07091808;0.00912503;-0.0437883;-0.05762121;-0.06514934;0.02582985;0.07874635;0.00079671404;0.013901219;-0.02423862;0.0038776463;-0.10246356;0.10117793;-0.013326396;-0.036422726;-0.06913193;0.023256406;-0.0004084786;0.070662074;-0.018090433;-0.018319659;0.120379515;0.000107821026;0.10074896;0.009464565;-0.0061879656;0.06586854;0.0066352505;0.015923055;0.00913779;-0.0723232;0.019286513;-0.04744917;-0.007413966;0.02471791;-0.00793354;-0.09908025;0.069526486;0.029309582;-0.05089878;-0.10615;0.033312116;0.059151884;-0.022253636;0.052009594;0.07795433;0.007282926;-0.024321612;0.05082068;-0.0003181366;-0.022282219;-0.07767921;0.057969898;-0.063921906;-0.077285096;0.025659457;0.061574187;0.032248214;0.0682093;0.05156492;0.059433483;-0.043935467;0.09020856;0.058911547;-0.059369322;0.08336213;0.04240432;0.016687222;0.00938904;0.009101997;-0.12200557;-0.008587602;0.07568363;-0.044588506;-0.08245915;-0.12774195;-0.06239618;0.08068956;0.08095308;0.0315074;0.100655004;0.036403686;0.08088495;0.018947434;0.09715001;-0.0088156;-0.0039546825;-0.012999182;0.08506879;0.028125564;0.043483835;0.056844175;-0.024208162;-0.040022366;-0.00038716738;0.039433353;0.022798598;0.0723475;0.07525994;0.04388152;0.03244876;-0.07271886;-0.058101375;-0.03727585;0.028533425;-0.06469092;0.05528508;0.08963128;-0.021611772;0.063600965;0.100561865;-0.027549872;-0.050787367;0.09324568;-0.010796236;0.07738542;0.059647832;-0.06143736;-0.002532539;-0.044940323;-0.0447764;-0.05737032;-0.06285954;-0.08842988;0.06541253;-0.07556192;-0.05525517;-0.11958098;0.09033518;-0.077726;-0.021769833;-0.10235899;0.053661596;-0.112619415;-0.02190732;0.050320428;0.07951717;0.013558075;-0.086556904;0.090865806;-0.002862928;0.12092475;0.0047928276;0.010347868;0.076634146;0.042862322;-0.089141056;-0.04894321;0.02769359;-0.050647262;-0.03129831;0.007291233;-0.015791254;-0.0349947;-0.10025846;0.051269367;-0.0032969192;0.050306085;-0.017590595;0.045088056;-0.13568082;0.09513716;0.060922388;0.063216336;0.08300264;-0.057284273;0.028128253;-0.03615434;-0.016264858;0.10562123;-0.054885518;0.00016323067;0.06552405;0.077410646;0.078792386;0.085768044;-0.04164088;-0.019904252;-0.059776086;0.07187248;0.023461137;-0.050451715;0.101023026;-0.055712864;0.088763736;-0.0020760172;0.010448386;0.004339803;-0.05776898;-0.02015161;0.043609183;0.06989106;0.078823686;0.0060823853;-0.011694757;-0.043160196;-0.0010745686;-0.04023958;-0.017229179;0.10546751;0.00087475416;0.03593878;-0.052211966;-0.008472395;-0.033739123;0.030278416;0.037776694;0.011785914;0.10397838;-0.041238867;-0.05734993;0.0014057432;0.06322799;0.077575624;0.07844622;0.056393594;0.014732502;-0.03389317;0.06681226;0.086511485;-0.032727882;0.04810242;-0.08562724;0.037187245;0.016806493;-0.009526377;0.107855625;0.0015191317;0.0408085;0.05208233;0.056566387;-0.028894417;0.0249941;0.10302725;0.044824798;-0.031232476;0.049657054;0.032890975;0.09503826;0.10695332;0.06854064;0.024817001;-0.010613027;-0.07807381;-0.06651464;0.103420004;-0.049243834;-0.02486783;0.011218792;0.101089105;-0.06437244;0.049314514;0.039187595;0.08363334;0.052201476;-0.032400787;0.051829007;-0.05820352;0.016465377;0.03677079;0.05717883;-0.011115177;-0.045823537;0.013948974;0.038947403;0.036911856;0.069845565;-0.05984055;-0.016378475;0.047561314;-0.07738631;-0.019747883;0.1069761;0.085997194;-0.043930642;0.019280627;0.05762379;-0.0077590747;-0.050652545;0.020288732;0.049412955;-0.0016113792;0.055961873;0.025664885;0.016659873;-0.07798947;-0.03460513;0.11493868;-0.05875563;0.01315339;-0.07340946;0.040591195;0.07685163;-0.124850824;-0.012738099;0.08635931;0.021998836;-0.027521793;-0.0789729;0.012282489;-0.007471916;-0.04338439;0.0011320888;0.088413276;0.0030588317;-0.0053473306;0.071526155;-0.0728158;0.066356316;-0.12497416;-0.017030023;0.042086676;-0.121305406;0.062624544;-0.010179004;-0.0018751945;0.061979406;0.07087216;-0.07468445;-0.028395249;-0.045449447;-0.025419055;0.04159264;-0.035070524;0.048687655;0.0034268978;-0.03825116;-0.055542182;0.050454967;0.08551851;0.05026864;-0.009780944;0.010124031;0.02777477;-0.026117183;0.03908472;0.07950998;0.0250339;0.06591886;-0.058397967;0.112263285;0.07447397;-0.046076957;0.059814837;0.07417832;0.0490045;-0.034606986;0.01039678;0.030093456;0.053774256;-0.031847052;0.022678742;0.022823801;0.054837625;0.062387418;0.09490714;-0.096736126;-0.02208668;0.07281901;-0.07882323;0.092746995;-0.05519022;-0.039773036;-0.00379986;-0.022200046;0.08153031;0.13543922;0.08481331;-0.047405716;0.05910921;0.07149791;0.007220049;-0.030408995;0.086608276;0.0127956625;-0.060336106;-0.023457935;0.04375134;0.032227278;0.060269136;0.052961707;0.018684313;0.05583035;0.067651056;-0.013033623;-0.05155404;-0.014492491;0.077906884;-0.052330103;-0.10185986;-0.035249386;-0.064326845;-0.02885279;-0.01054908;0.049296807;0.067741826;-0.038170606;0.03181401;0.008171567;-0.05866189;0.08996459;-0.002059847;0.046590883
0.054093678;-0.08644679;0.060207736;0.100015864;0.051432807;0.08158835;0.047366377;-0.040159672;-0.0049282033;-0.039098892;-0.02967735;0.008351988;0.10170592;0.07168706;0.025738161;0.032618735;0.18231714;-0.023195859;0.050534133;-0.021225184;0.074130595;-0.011631333;-0.031898476;0.10898363;0.031275924;-0.061381556;-0.043231107;0.096006304;0.059336137;-0.14043409;0.018883087;0.05579219;0.05718876;0.057427946;-0.05162374;-0.049553137;-0.029829375;0.09587879;0.042082746;0.040978704;-0.036853712;-0.10628183;-0.12877207;-0.05475479;-0.003280579;0.03989905;-0.021419855;0.06828139;-0.04905921;0.14310567;-0.08570778;-0.18448019;0.019107964;-0.103789635;-0.0654841;0.09791212;0.09247842;0.03719024;0.08198887;0.08875755;-0.07198457;0.021828173;-0.0134604955;-0.011096428;0.051592134;-0.04542049;0.05201541;-0.030432677;0.0383009;0.07872708;-0.034767274;0.078729704;-0.010152406;0.06387288;-0.022171931;0.040067576;0.03609017;-0.08228487;0.15251346;0.02294881;-0.016836053;-0.04950132;0.16835612;-0.1318696;0.06839407;0.0774717;0.059771694;0.04869061;0.010660925;0.020589022;-0.041731466;-0.0062011858;-0.02362745;-0.07097447;0.10785538;0.085758775;-0.14995317;-0.05862941;0.030619355;-0.053445768;0.08226611;0.08685361;0.0885884;0.0028799165;0.004281859;0.110006414;0.0019845306;0.0071942853;0.022270786;0.09554569;-0.034451455;-0.05748447;-0.014463252;0.071410954;-0.013282764;-0.048300542;0.13054533;0.025502263;0.097372554;0.04080664;-0.0015596447;-0.02328826;0.056878284;-0.06176802;-0.005347649;0.0500395;0.048076585;0.079361096;-0.055255402;0.02982465;0.040038392;0.07741042;0.17380586;0.06072732;-0.15243813;0.012459925;0.105069414;-0.0075903307;-0.02731517;-0.025024997;0.04573778;0.056538887;0.012547867;0.0047687814;0.011558632;0.0760497;-0.08464662;0.038123578;-0.041859597;0.0076190424;0.08549112;-0.027628783;0.044078365;0.034392465;0.16412903;0.0021607925;-0.09683158;0.11734901;0.0062027215;0.09494461;0.05236905;-0.004850476;-0.040680174;-0.058492016;-0.035552956;0.0054296725;0.016094388;0.05507121;0.047788657;-0.012387924;0.034683;0.040098876;-0.046312097;-0.062927574;-0.019539999;-0.046575885;0.016627213;0.012869183;0.017409246;0.041136105;0.017068038;-0.008496807;-0.026041776;-0.018959578;-0.10431499;0.069764666;-0.029368898;-0.018401468;-0.08463897;0.037098087;-0.012120954;0.03341802;0.11342135;0.059959758;0.0019494989;-0.0661264;-0.014215821;-0.022843894;-0.013069101;0.09881376;-0.005830135;0.042053044;0.022028316;0.08191898;0.0102551775;-0.07304084;0.09145755;-0.019411653;-0.014631011;-0.05418752;0.112769686;-0.046275664;0.014202013;0.14745349;-0.032493114;-0.005015361;-0.041258186;-0.036349814;-0.014247466;0.037896287;0.060486164;0.12174076;0.08566577;0.06832997;0.05352678;-0.046772536;-0.0033143207;0.051286083;0.12798552;0.027378712;-0.0007382147;-0.030173214;0.08373052;0.03205089;0.0018688443;-0.030053591;0.07502147;0.01821521;0.101378284;0.08903696;-0.009011265;-0.054672755;0.029088598;-0.13174361;0.058627475;0.14778417;0.0016802216;-0.0587889;-0.09712412;0.04284616;0.05816365;0.091718026;0.010547245;-0.007384871;0.006399607;-0.047138896;0.01011626;0.064268745;0.025642235;0.023790877;0.045981888;0.078405805;-0.00239012;0.0896137;0.022452392;-0.03503659;-0.047381736;0.1167587;0.0811743;0.052304894;-0.061627872;0.0992749;-0.028799782;-0.05365537;0.029194972;0.09732046;0.04073742;-0.002985033;0.048508223;0.011521477;0.16975385;-0.06892271;0.076699354;0.09674178;-0.052971493;0.035917576;-1.7081866e-05;-9.2112794e-05;0.014069524;0.016926829;0.007780764;0.04806894;-0.04418115;-0.042967703;0.1051182;-0.055991914;-0.07445873;0.012549071;0.039804433;0.026930874;-0.12559642;-0.0066247717;-0.017134355;0.12188651;-0.06928442;0.0021587554;-0.014854143;-0.060398478;0.09598918;0.025469549;0.023544187;-0.09083296;-0.014625164;-0.071864344;0.04626543;0.006787698;0.048936456;0.04176851;0.06316357;-0.1166542;-0.041715916;-0.039133344;0.051992375;-0.014887245;0.049266245;-0.013007291;0.09108759;-0.022211596;-0.01787267;-0.008215014;0.07921817;0.05314703;0.08234092;-0.10967497;-0.0427937;0.01975561;-0.054071017;0.09531331;0.067739606;-0.011716187;0.059417367;0.009465647;0.042869847;-0.057096798;0.08537358;-0.047203753;0.037569564;-0.025979105;-0.01999317;0.06723171;-0.01792575;0.023523824;0.036919627;0.09053855;-0.01761319;0.104460634;-0.1539743;0.009450319;0.024106447;0.07781656;0.13543501;0.084263;0.017503763;0.021029476;0.05465364;0.006601535;0.07214422;-0.033771776;0.07301759;-0.06647261;0.05683457;0.05080557;0.008335809;0.06548936;-0.039617274;-0.11344784;-0.03378759;-0.03583909;0.038314898;0.10313628;-0.009097008;0.00074843864;-0.024093708;-0.047413506;0.04688604;0.07598098;0.06702238;0.06343389;0.013176251;0.059333265;0.015403707;0.09150982;-0.010525965;0.10081959;-0.014797716;0.016937893;0.026467843;0.034080245;-0.03124048;-0.012171214;-0.07814658;0.015540213;-0.016495991;0.012077261;-0.028720599;-0.122010075;0.0081913825;0.055352177;0.059042804;0.045197453;0.008135658;-0.0018108931;0.07716971;-0.06217574;-0.017918171;0.0144445;0.09873788;0.055985346;0.022298373;-0.046423063;0.02998912;0.060367797;0.08900368;0.032969423;0.078298554;0.03568912;0.057583295;0.07570483;0.013089583;-0.08786321;-0.0717409;0.08009054;-0.09643911;0.00335387;-0.03044704;-0.081475034;-0.020206219;0.09036628;-0.06752815;-0.060844;0.10170678;-0.09335014;0.08728553;-0.11944421;0.018849336;0.016122807;0.04128478;-0.009826292;0.001003205;0.072780736;-0.024639277;0.032567825;0.036151912;-0.12101355;0.13769487;0.028647857;0.07310251;0.087787665;0.051791456;0.04613183;-0.020210313;-0.010846382;-0.059014205;-0.05145679;-0.03519947;-0.031249667;-0.07158586;0.0059563406;0.012541384;-0.0359307;-0.059584316;0.098462395;0.087206595;0.023199797;-0.057254735;0.090472266;-0.03433397;0.018685523;0.06648937;0.07820601;-0.024597272;-0.024579912;0.04290147;-0.03627986;0.06606528;-0.14490992;0.0658047;0.0153901335;-0.0004995562;0.058750745;-0.061763868;-0.16161327;0.09568896;0.039632525;-0.037762567;-0.077003494;0.045768544;0.016007036;0.055544794;0.028155439;-0.02560053;0.09175117;0.03911574;0.07612676;0.08526363;-0.045768563;-0.0014969211;0.015743485;0.18315005;-0.020617768;-0.017219406;-0.03149058;0.03562428;-0.044888213;0.0042779245;0.014097356;-0.04294114;-0.055158462;0.022681937;-0.008172213;0.09666978;0.0036546374;0.04640366;-0.0012453895;-0.015356014;0.037428167;0.018565651;-0.005558819;-0.019581456;0.0042252582;-0.065786414;0.03466042;-0.085031755;-0.06902783;0.010632035;0.02854484;0.05786573;0.024139987;0.06763281;0.17144398;0.11146692;0.030776458;-0.008521359;0.021831753;0.05707072;-0.0071184942;0.0410045;0.06361761;0.036665685;0.047180336;0.044612337;0.09569508;0.053073887;0.04528938;-0.057051063;0.12104874;-0.025991281;0.0557445;-0.043030392;0.119831115;0.093905404;0.056487817;-0.06558987;-0.03418176;-0.0047815493;0.06848715;-0.0749205;-0.039800353;0.017902106;0.07613629;0.012845262;-0.039376665;0.040337574;0.03811335;0.07802549;0.08800821
-0.041842178;-0.00309333;0.055165946;0.019600714;-0.03087951;-0.075533845;-0.094212264;-0.03911253;0.05057601;0.10431923;-0.040498666;0.076149814;0.08355499;0.06447632;-0.03889976;0.048784234;0.12640479;-0.02166213;0.0024133073;0.058444604;-0.07971442;0.08492826;-0.040931817;-0.045720953;0.006480559;-0.012754188;0.0070127263;0.11039529;-0.07422402;-0.06608606;0.12335317;-0.0134750055;0.055994287;-0.029771924;0.07492914;0.023053532;0.037430122;-0.013504698;-0.06233733;0.086171515;-0.063287124;-0.06571767;-0.13393034;0.089825176;-0.04719573;0.0069115204;-0.054948006;0.049681872;-0.013717305;0.004549602;-0.024697023;-0.056756962;0.030786505;0.047738917;-0.07670514;-0.036925424;-0.03186359;0.07932174;-0.024039287;-0.012653014;-0.10292192;0.0428915;-0.08032611;0.039116133;-0.0591586;-0.07500494;0.016335245;-0.00033559388;0.023005323;0.06295765;0.07200351;0.031603877;0.0040207068;-0.0061671846;0.08882168;0.04727647;-0.081871904;-0.10154094;0.16552122;-0.057666693;0.03618644;-0.045022115;0.14874843;0.04463044;0.06331292;0.0043497626;0.103408;-0.0027699503;0.08438854;-0.01848175;0.07330774;-0.0362142;-0.061606646;-0.051233135;-0.015438518;-0.012522722;-0.108422644;-0.0048551853;0.02393978;0.043585934;0.11700988;0.03942854;-0.012182637;0.04808811;0.04055505;0.11045921;-0.0564724;0.08106204;0.08890897;0.02006763;-0.01936973;0.09488694;0.079944;0.076836675;0.028612938;0.0814123;0.11774258;0.098943934;0.09558136;0.06267259;0.091502465;-0.03084889;0.09548811;0.0045641116;-0.0028460943;-0.016798358;0.087095015;0.096437484;-0.08036783;-0.05811609;0.044154197;-0.0034175622;0.16616601;0.11374301;-0.049086317;-0.005148706;-0.0062163286;-0.025689764;0.00820856;0.014137181;0.001323134;0.014457489;-0.035010718;0.09252209;0.105118185;-0.034362126;-0.14363289;-0.05969491;0.0844764;0.017247455;0.06481772;0.08189034;-0.047641113;-0.06673375;0.13458088;-0.044291582;-0.026151607;0.10427182;-0.048595026;0.024587706;-0.058798723;0.09292168;-0.053840596;0.061966334;-0.033758037;0.03477232;0.043688532;0.026359271;-0.04539458;0.07621095;-0.024327828;0.01926267;0.016816128;0.035621557;-0.055914257;0.018429352;0.053447437;0.05746237;-0.007786408;0.043904938;0.017311698;0.09335537;0.005455332;-0.023329798;-0.13543558;-0.027494963;0.073377095;0.080974564;-0.033347245;0.07987902;-0.07323131;0.035599377;0.0568516;-0.04597879;0.12040165;0.03188874;-0.0023182;-0.016359791;0.03985901;0.043282248;0.08708421;-0.043175362;0.044385776;0.01036588;0.0041922843;0.07708699;-0.037389275;0.084813274;-0.061542377;-0.027919209;-0.044569198;0.011987983;-0.0588304;0.1560959;0.025324829;-0.038896635;-0.042890493;-0.06702835;0.08591395;-0.013853843;0.0058326456;0.07733803;-0.07039483;-0.046677995;-0.021197911;0.0681416;-0.023586156;0.036196038;0.12374139;0.17308208;0.058759395;0.026255125;0.041778907;-0.07930675;0.05772609;0.09842232;-0.063798435;0.008386263;0.11076532;0.025329102;-0.022488689;0.017512005;-0.07319388;-0.10172721;0.058295205;0.1301569;-0.028484398;0.06719726;-0.09502999;0.032521397;-0.036057916;0.05220954;-0.00463919;0.067749076;-0.06581582;-0.043118343;0.11563684;-0.004932857;0.07845249;0.10395234;0.019469507;-0.05332481;-0.014704433;0.09532256;0.039140984;-0.017866451;-0.069196254;0.026146023;0.07669191;0.10331939;0.0018754285;0.059128888;0.06305181;0.005543331;0.06729735;-0.04700531;0.10247101;-0.015095229;0.00039453054;0.035584606;0.09405506;-0.05707373;-0.058628544;0.07972613;0.04639795;0.04015217;-0.017550986;0.036114946;0.07630295;0.0042296876;0.039052907;-0.018028978;-0.042688385;0.0739077;0.0153928045;-0.037136704;-0.027907424;0.109160036;0.0205035;0.05331954;-0.00743644;0.046088237;-0.049155343;0.081331626;0.011371379;0.035949573;-0.029808;0.030766616;-0.04738478;0.036413178;-0.0792402;-0.05784236;-0.005021608;-0.03780318;0.03074893;0.00048498737;0.008459078;0.13420705;-0.055815563;-0.20359617;-0.0075547257;0.12002828;-0.06240448;0.074336514;0.058298845;-0.01868162;0.0071607814;-0.051982068;-0.019108297;-0.034046795;0.06654583;0.07053696;-0.009812236;0.055796016;0.029477311;0.0069303573;0.07901412;-0.024379732;0.008084284;-0.047240898;-0.04802967;0.07366541;0.08823578;-0.07613499;0.028279567;-0.032717127;0.103998244;-0.07212508;-0.036847863;-0.034301214;-0.062158942;0.020586055;-0.10101846;0.06981813;-2.8374314e-05;-0.031124389;-0.18267938;0.032674506;-0.021024616;-0.01635254;0.019455448;0.07593192;0.0022025171;0.035856105;0.015077627;0.029101586;-0.061224382;0.0077127437;0.0920399;0.037631717;-0.04242318;0.09751339;-0.04199663;0.06492394;-0.041034404;-0.16751496;-0.026344836;-0.0854346;0.03736252;0.091164686;0.074277334;-0.03658299;-0.0018853485;0.033492953;-0.018851077;0.030494599;-0.04908344;0.078082144;0.083436936;0.046855528;0.01688306;0.07775194;0.0633975;-0.0212769;-0.08085861;-0.003463932;0.04947257;0.06524432;0.060084146;0.14607444;-0.034739375;0.0057273577;0.016722022;-0.10050175;-0.023056027;-0.06694272;-0.010409981;-0.04875217;-0.013401737;0.037767716;0.04181481;0.013980112;-0.061245687;0.119740725;-0.027056534;0.054705333;0.06130266;-0.022434969;0.025415603;0.015874546;0.101355456;0.031539727;-0.037278585;-0.03890842;0.015779331;-0.0037634717;-0.0081062;0.0031651882;-0.028677829;-0.14059554;0.0068457485;0.026434083;0.042489506;-0.027765524;0.039156303;-0.03128594;0.032749664;0.017127229;-0.014668394;-0.04865882;0.12405;0.031152165;0.0023162807;-0.082964316;0.090200625;-0.022094127;-0.002470558;-0.06352457;-0.06615626;0.03419743;0.08891894;0.06154689;0.07547798;-0.061912633;-0.015450643;-0.016871318;0.060246207;0.06008565;0.08593192;0.01860028;0.09266586;0.0047724484;0.018590787;-0.070583574;0.07359718;0.0678115;-0.019291744;0.09140743;0.07429266;-0.050398353;-0.00013416467;0.07471873;0.03883849;0.010274894;0.021215826;-0.028988644;0.03125256;-0.035471775;-0.0017282008;-0.015772901;-0.04781547;0.04127144;0.1248762;0.012853857;0.07816794;-0.06540103;-0.011335674;0.10514915;0.12927483;-0.011351328;0.018111147;-0.14308704;-0.017034465;-0.0017796144;-0.0109340055;-0.012784567;0.019015487;0.0078059016;0.042151116;-0.051673897;-0.023234753;0.14138208;0.08062922;0.005421756;0.09393688;-0.056312386;-0.01072187;-0.038665384;0.17117694;0.03806863;0.0041268445;-0.057124186;-0.07833724;-0.02451229;0.01220223;-0.04999611;0.09845361;-0.0017063696;0.044641536;0.0699304;0.06059914;0.025089562;0.006474374;0.095388845;-0.047243897;0.035986256;0.068504505;0.05795817;0.06803415;-0.064111024;-0.019081578;-0.018851338;0.03366393;0.06674577;-0.0053770985;-0.061000656;0.0138453245;0.10143352;0.04933122;0.10843438;0.086657904;0.042720858;-0.06799671;-0.04241631;0.004069206;-0.0025809251;-0.009524361;-0.06854132;0.0022804916;0.07783312;-0.036777552;0.0874862;-0.022912392;0.08109227;0.06901051;0.00042476374;0.090203084;0.034969117;-0.14387847;0.082497574;0.061924227;0.041256305;-0.0054788003;0.110577695;-0.026329994;0.0728386;0.021883737;-0.05939689;0.032545768;0.056295313;-0.007679797;0.00083618367;0.04086333;0.023520201;-0.02725941;0.06439182
0.042674545;-0.073042475;-0.021344373;-0.0019949086;-0.043640517;-0.04102729;0.0985197;-0.037083574;0.009874208;0.08969538;0.054964226;-0.022970784;0.110209346;-0.048365768;-0.03860344;-0.035223775;0.01866647;-0.052554633;-0.04755601;0.03130094;0.026905924;-0.0011564513;-0.09249018;0.09847572;0.039259706;0.006455844;-0.05654763;0.038498875;-0.046840608;-0.19978099;0.054073535;0.03123833;-0.04171354;0.008812169;0.012722949;0.0072621163;0.017861199;0.06094449;0.094046265;0.05446803;-0.035949904;0.014996066;-0.077003084;0.0016692311;-0.11134671;-0.009663852;-0.0017255223;0.0022404888;0.072900675;0.18859294;0.040341545;-0.049871568;0.040884044;-0.02353375;-0.0023510084;-0.016655836;-0.026853692;0.0666907;0.10454487;0.10106823;-0.0046759965;0.031917553;-0.11800081;0.011973801;-0.00653543;-0.08115618;-0.06631269;0.012857829;0.014849038;-0.067176245;0.07708429;-0.036768533;-0.068230405;-0.04954715;-0.03496369;0.035378978;0.07708462;-0.08966737;-0.0536589;0.0370189;-0.026743216;-0.02736066;0.23016413;-0.04272868;0.05160915;-0.008496865;0.099235296;0.022301558;0.0078339875;0.054263383;-0.014891759;-0.03585302;0.024453418;0.07163924;0.08124218;-0.05592631;-0.06621473;-0.073896624;0.068676464;-0.05551988;0.052693848;-0.09418829;0.07148096;0.037419893;0.09076365;0.043493066;-0.0052674026;0.030757204;0.11137557;0.02709056;0.021389779;0.06876604;0.06990452;0.090821795;0.052042276;0.043501195;0.06783515;0.040748976;0.10314747;-0.061491787;-0.03882162;0.024431834;-0.030056119;-0.009635126;-0.031171469;-0.012759283;-0.05636496;0.050467007;-0.02237538;-0.06567751;0.092106685;-0.0409213;-0.013289191;0.031000301;-0.07311296;0.004901277;-0.03482147;-0.029954333;0.10085997;0.054414414;0.007739412;0.022812933;0.019895336;0.10461571;0.09433622;0.022498168;-0.0887738;0.010045916;-0.008871937;0.057921093;-0.038078424;0.06892043;-0.03429376;0.069139995;0.036811795;0.022997085;-0.12145482;0.07814059;-0.04521108;-0.00316471;0.09237773;0.084555835;-0.057244685;0.055007678;-0.043128643;-0.055277284;0.07502216;0.09096646;-0.053938493;0.10925074;-0.019120479;0.02540977;-0.028304288;0.027051238;0.023624014;-0.03421076;-0.016765613;0.09315234;0.06635775;-0.028404731;0.0100992145;-0.008871497;-0.02474056;0.06157967;-0.04926808;0.114561535;-0.026218161;0.009898997;-0.11222699;0.06461196;-0.07406152;0.028440963;-0.016414573;0.0028537316;0.020323593;0.03872973;0.05923992;0.014160138;-0.0612617;-0.042232383;0.10331451;0.034538295;0.0024799905;0.012425366;-0.032746527;0.030647488;0.056197483;0.06531428;0.0139464;-0.09727509;-0.030271007;-0.036986656;0.0078110965;0.026193501;-0.063174404;-0.009192903;0.047599312;-0.018707346;0.063065425;-0.02975563;0.015646107;0.10869765;0.056240864;0.08014681;-0.07665094;0.009236434;-0.06289057;-0.07103762;0.053408474;0.23527588;-0.0009785648;-0.08971582;0.06842281;0.028670125;0.090702;-0.049949408;-0.032058056;0.08775483;0.029051019;0.06705306;-0.040237043;0.05159906;0.06443104;-0.028135981;0.089137904;0.040621374;0.02371904;-0.057954323;-0.06493379;-0.031500984;0.040996797;0.12788327;0.026988506;0.10814238;0.012036498;-0.020996556;-0.07392891;0.075361125;-0.0008704137;0.057733677;0.0004355559;0.08759585;0.08494084;0.08429019;0.025876317;0.043556117;0.007608865;0.07721964;-0.03549992;0.05238238;-0.057734713;0.036308404;0.006817068;-0.033808693;-0.04593559;0.08114813;0.06905416;0.0063603274;0.07721615;-0.03769321;-0.03158724;-0.013895074;0.020744482;0.09788756;0.07515417;-0.014809911;0.01917934;0.015242049;0.10668541;-0.06476576;-0.009273715;-0.016404578;-0.019341927;0.10174211;0.013922147;-0.010064279;-0.017465696;-0.014072958;-0.0033497936;0.010963688;-0.14244233;-7.0432598e-06;0.06026094;-0.036005188;0.008982216;0.060916048;0.07126187;0.030761564;0.09477208;-0.054954182;-0.030547326;0.06093603;0.008474437;-0.04664271;-0.018350009;-0.0457167;0.082533605;-0.07981361;0.016622793;-0.08863989;0.021944989;-0.042644642;0.06413708;-0.03712535;-0.058195744;-0.03873434;-0.01535103;-0.059945833;-0.013393164;0.007644922;-0.016759658;0.04054992;0.015494756;-0.063664585;-0.08271711;0.0012510486;-0.037420273;0.016368652;0.080265895;0.0075808396;0.09761024;-0.08442943;0.010922634;-0.013029769;0.053900737;0.023611754;0.02320041;0.074057005;0.074673474;0.07689121;0.042349968;-0.07110917;-0.04730177;-0.056859136;-0.063661955;0.05305463;-0.04281277;-0.028356202;0.05069975;-0.058794554;0.134358;-0.1276189;0.04874223;-0.036625057;-0.025054984;-0.03310186;-0.038581267;-0.06351741;-0.006854289;-0.05455715;-0.007394961;0.16051768;0.057930224;0.008260437;0.0055746585;-0.026075087;-0.12575187;-0.045333788;0.034226198;0.10739695;-0.061272673;0.08684062;0.035704438;0.07869899;0.07789804;-0.0021478056;0.011735354;0.10012527;0.0015080236;-0.031957436;0.012221042;-0.06634996;-0.06741148;-0.030104386;-0.060424738;0.06469254;0.041673597;0.020510156;0.0171537;0.11160518;0.007794796;-0.03439372;0.06769725;-0.070174284;0.080171816;0.06897059;0.018290345;0.002277103;0.0054829377;-0.010995362;0.042385727;0.091312766;-0.011644087;-0.018666832;-0.02780486;0.040730696;-0.074848175;0.011520572;0.02014723;0.004417003;0.0049542896;0.100481294;-0.057346296;0.0049195047;0.026308972;-0.06620532;-0.005012205;0.07946098;0.009531538;-0.038566027;0.074651584;0.053142995;0.04533423;-0.060502354;-0.017467078;-0.09709068;0.0052642487;0.03482057;0.014179718;-0.047731467;0.081213914;-0.08886302;0.03330024;-0.11479649;0.058923744;-0.060566746;0.05642718;-0.03799489;-0.058040585;-0.05355732;-0.010379554;0.083757766;0.02902153;0.04052627;0.12784676;-0.016331464;0.11771004;-0.0072152494;-0.023770805;-0.062209733;-0.011369323;0.06651182;-0.05611937;0.06434206;0.02914667;0.101190515;-0.06287306;0.07540033;0.088484846;0.04712432;-0.021829631;0.073109746;0.057463463;0.0067810924;0.060222924;-0.025505004;-0.0051604058;-0.04000529;0.090967;0.02961104;-0.096073225;0.06502425;0.10785828;0.16450359;0.0029791233;0.032798905;-0.026383964;0.03910499;-0.022272317;0.017530797;0.03056089;-0.11081905;0.060233917;0.05591288;0.06545145;-0.019675428;-0.039165307;-0.061639376;0.0014760746;-0.046100497;0.003982307;-0.011208204;-0.010921183;-0.036838956;0.039322704;-0.06704896;0.0019119426;0.038748678;0.046451423;0.06514628;0.024251563;0.03906262;-0.06930485;0.022437626;-0.052190915;-0.05589295;0.08675474;-0.06505894;0.044200905;0.016539462;0.061377857;-0.030185413;0.0614551;0.036298584;-0.05462358;0.05193345;0.034949783;0.022334432;0.07673178;-0.07960616;0.055639215;0.0150544075;-0.027997635;-0.049127325;-0.07514875;0.03943307;-0.050118614;0.0154921645;0.035995968;0.19133689;0.04710259;0.090706475;0.09186467;0.030529184;-0.06558394;-0.07386644;0.00564374;0.054011557;0.036444094;0.04388832;0.07725455;-0.079656705;-0.033752427;0.04195812;-0.06543939;-0.009244515;0.06912453;0.04034277;0.032954607;-0.036516897;-0.080807514;-0.028215557;0.033769682;0.093688995;-0.014701612;-0.055523157;-0.06341279;-0.08846637;0.012844082;0.007907169;-0.057343706;-0.035702303;0.15259953;0.10529413;0.094589435;-0.07068571
0.06974327;-0.047297917;-0.03789462;-0.05780037;0.09229853;-0.0051143086;0.038665038;-0.07737903;-0.0334288;-0.008777195;0.08239176;-0.033940684;-0.024839891;-0.053212512;0.07993498;-0.07108097;-0.011210094;0.015853036;-0.054845918;-0.049326766;0.008537523;0.09137986;0.008967031;-0.072961606;0.06338419;0.002645171;0.022523627;0.12160941;-0.015210863;-0.065418325;0.07814044;-0.015535687;0.03427682;-0.03969477;0.007149321;0.071671434;0.04307703;-0.00043179112;-0.027790477;-0.07672012;-0.06881553;-0.008677948;0.0094762845;0.08628571;-0.10590698;-0.026017461;-0.0026986506;-0.0072897836;0.015121208;0.018768173;-0.0040619634;-0.006785079;-0.049079657;-0.028179826;-0.034807384;0.05314038;0.010679504;-0.040371396;0.032106504;0.07304398;0.034773614;0.10114444;-0.014200289;-0.06136816;0.047090255;-0.008326142;-0.025179394;-0.0236734;0.055555854;-0.08391815;-0.014830317;-0.035329714;0.060573954;0.034560915;0.09221233;0.05769311;-0.06310873;-0.11347075;-0.026859706;0.0238528;-0.03708618;0.003810203;0.07125729;-0.054730803;0.04716649;0.008248346;0.019341765;0.057238087;0.08393976;-0.07293419;-0.05477881;-0.07080154;-0.06541633;-0.022502692;-0.038738586;-0.026002692;-0.05184095;-0.070478044;-0.0037979751;0.02201377;-0.038150497;0.003325994;0.017187906;0.013102499;-0.027103622;-0.02905931;0.08309017;0.024929438;0.084650196;-0.049999338;0.016161818;0.04317399;-0.07296784;0.07016767;-0.0692535;-0.030724572;0.09076815;-0.003780112;0.103431046;-0.07966581;0.005356739;0.07011383;0.091545455;-0.051369853;0.064813845;-0.06521273;-0.074079864;-0.035428006;-0.06167586;-0.012804277;0.08469445;0.02967292;0.051102716;0.05453964;0.062792264;-0.025832329;-0.002353208;0.017753078;-0.0560958;0.0231007;0.082407795;0.0054046633;-0.0015679518;0.056408204;0.10578686;0.04322373;-0.08953298;-0.045511633;-0.045185357;0.08900818;0.05370084;-0.07200437;0.07911581;-0.05765309;-0.055553615;-0.021883566;0.0008787341;-0.023524981;0.10693093;0.0834456;0.041247234;-0.078800686;-0.006947552;0.029246457;0.026106466;-0.053148247;0.10741043;0.08728014;-0.05517051;0.045287184;-0.028064348;0.019309249;0.04878492;0.060488548;0.048879102;-0.037554327;0.04788933;0.058806196;0.0014230818;0.08410751;0.07582556;-0.025414005;0.083228044;-0.038223986;-0.0732473;0.07398936;0.009097724;0.04988405;-0.06879707;0.06294122;-0.06393506;0.006119457;0.052746177;0.057488732;-0.022470966;-0.04045877;0.11411535;0.014479453;0.012484023;-0.04521498;0.06574401;0.082870215;0.033680987;-0.060461517;0.0397942;-0.036758408;-0.047786593;-0.008382985;0.017175475;0.040151335;-0.014318866;0.1137551;0.047155924;0.03396758;0.036296356;0.08419092;0.060239963;0.03294751;0.01825834;-0.037435528;0.018399712;-0.02996073;0.07864766;0.0027311107;0.042236883;0.07328311;-0.024156516;-0.0823575;-0.068118975;0.22394505;-0.07744176;-0.11821495;-0.01570029;-0.091878705;0.06744812;-0.0032243202;0.08155807;-0.056371134;0.1376026;0.11089969;-0.013627218;0.0789453;0.043285757;-0.12197508;0.06575997;0.041361514;0.006834807;0.0694149;-0.026687734;-0.060099415;-0.04401644;-0.017276732;0.012568857;0.091833234;0.037843816;0.022399401;0.12990977;0.06956274;0.12892476;0.07212316;0.07508715;0.08299144;0.07960136;0.0067849625;-0.007060374;-0.032689758;-0.03959849;0.064173184;0.060990743;-0.044988424;-0.044555925;0.014008432;-0.043097854;-0.04524872;-0.00773431;0.050206743;0.09356449;-0.008349355;0.062601425;0.032877415;0.06705448;0.055774536;0.10415477;0.029776983;0.02960551;-0.09503372;-0.0067568882;0.0005495628;-0.005200641;-0.06623183;0.018623326;0.05937408;0.07299773;0.036271013;0.074492775;-0.095050834;0.0017937177;-0.059073392;0.08796483;-0.030230448;-0.110558204;0.028603494;-0.07113978;0.05387803;-0.065673865;-0.083827846;-0.013652584;-0.024083843;0.10382774;-0.0055553666;-0.07928012;-0.0724675;-0.04991772;-0.009963394;0.05866892;-0.015886668;0.14556445;-0.051116284;0.017316371;-0.076318786;0.08158234;0.07987293;-0.037658714;0.08901475;-0.045330882;0.008180693;-0.034670796;-0.07599172;0.01634519;0.067068316;0.053369313;-0.004844853;0.057600476;0.0036475018;0.017288702;0.029287;0.00050899934;-0.035025876;0.02715304;0.0306162;0.048347242;0.0031161623;0.11273461;-0.020095022;-0.05752891;0.04785868;0.023299497;-0.06818109;0.04255811;0.05119922;0.024268359;-0.07366623;0.03461457;-0.07984223;-0.06113581;0.024178084;-0.17316799;-0.04119028;-0.063154615;0.047265973;0.09645405;-0.14696209;0.032125458;0.09110539;0.08519802;0.05612308;0.040857855;0.08147302;0.012579802;0.027076283;0.07266005;0.053624347;-0.055891607;0.09161086;0.013938384;0.01284148;0.022462277;-0.033096354;-0.056816876;0.043007225;-0.040824175;-0.012946842;0.0102872625;-0.031006712;0.10960107;0.06717115;-0.06781091;0.09793173;0.047386784;-0.04440152;0.054248866;-0.07104973;0.07878984;0.11086483;-0.040765267;0.042741824;-0.01447963;0.023472948;0.03730574;0.031984925;-0.055534728;0.055222422;0.06201586;-0.047698718;-0.06519347;0.063832134;0.048435822;0.08438933;0.027306838;0.06386165;0.013633085;-0.034063365;-0.015634632;-0.034617636;0.021900496;-0.044620596;0.01867188;-0.10463703;0.037484508;-0.023478935;0.073454484;-0.01117364;0.014005033;-0.007733258;0.110743254;0.032689672;-0.028279359;-0.0578792;0.0780327;-0.1818358;0.011900437;0.039311692;-0.045083202;0.026535198;0.060739376;0.05345987;0.0032541538;0.004050787;0.06897111;-0.0034243253;-0.0207009;0.030367717;0.07506217;-0.13776405;0.037814338;0.09414943;-0.021330848;0.004900072;0.02721383;0.06919076;0.019525483;-0.04921815;0.0074822735;0.051313996;0.05349264;-0.01773531;0.07774112;0.014642666;0.039554473;-0.055648856;0.011442257;0.09312347;-0.040586703;0.071497396;0.009945082;-0.024254058;-0.07798871;0.019846695;0.021546785;0.055461835;0.091430016;0.07149426;0.06118981;-0.038298715;0.053509757;0.059509557;0.005353383;-0.031292684;0.0573422;-0.059518248;0.033066995;0.005031125;-0.005987876;0.083408095;0.056684833;-0.049904823;-0.033246074;0.090512566;-0.0070237685;0.045536257;-0.028889269;-0.15608923;-0.035106365;-0.02941218;0.040698856;0.032349765;-0.029079221;0.08715066;0.03631516;0.06892134;-0.022515021;0.06561475;-0.056525238;0.032883298;0.08919885;0.036342356;0.039745457;0.047286555;0.06269965;0.010918477;0.0534683;0.011444549;-0.06986023;0.022458255;0.06980476;0.11863476;-0.021931564;0.06659711;0.030588062;-0.0735137;0.0017916092;-0.0129189445;0.087890625;-0.005795951;-0.056129873;-0.0057848617;-0.054991324;-0.0428817;0.05255586;-0.039328508;0.05742783;0.07734385;-0.02753476;-0.02430772;0.013303942;0.06467665;0.02256592;0.081537485;-0.07882487;0.012239665;0.016508343;0.019372787;0.003036468;0.005272729;0.029359182;-0.025635226;0.03611294;0.056378357;-0.00045561465;0.081722595;0.061334845;0.03032318;0.029209977;-0.042576257;0.0146687105;0.09861313;0.036178607;0.0095339;0.039568007;0.0071626995;-0.08328011;0.04181897;-0.0067043086;0.108356856;0.006824782;-0.06505691;0.08945386;0.05769095;0.07730609;-0.043077692;0.019288111;0.10729981;0.08563643;-0.029020723;-0.041281417;0.03450721
0.011939979;-0.037150815;0.023106802;-0.13988675;-0.01408918;0.05038369;-0.01797753;0.071350515;0.051552843;0.13191633;0.10460266;0.042864796;0.062104426;-0.030512903;0.03934646;0.06986851;-0.0695835;0.06716955;0.01686063;0.008251209;0.065858915;0.072945535;-0.072889216;-0.07868141;0.07998359;-0.017165223;-0.020146599;0.06696297;0.14793013;-0.013717963;0.05032736;0.008820619;0.0843677;-0.09842496;0.010076149;0.055212975;-0.013594922;-0.01690886;0.06622189;0.0021174506;0.009222143;0.03491958;0.07114488;-0.009933872;-0.08159951;-0.023685712;0.055756927;0.07952221;-0.0134437885;0.040862285;0.005260487;-0.009608527;-0.0063203503;-0.013172383;0.071113296;-0.046793215;0.095167756;0.0416361;0.041633416;-0.021203406;-0.033042148;0.101541206;-0.14172897;0.07100453;0.08245164;0.05826064;-0.07740961;-0.093578346;-0.038538955;-0.011936437;0.084840216;-0.03220598;0.048225615;0.04709813;0.024842862;-0.03830474;-0.0018337548;0.043788128;-0.09130949;-0.0684489;0.03782479;0.013404243;0.108556986;-0.056647453;0.029740985;-0.010690984;0.07498521;0.038858697;0.042415902;0.018306747;-0.049897827;0.058562335;0.023822816;0.027181085;0.06326924;0.095790856;-0.16927452;-0.0021117558;0.036038786;-0.045349587;0.061197974;-0.0040771626;-0.02104506;0.10224499;-0.0074134725;-0.028054431;0.03900859;0.022632254;0.07566368;0.08717322;-0.06582621;-0.030835943;0.08262081;-0.032974917;-0.036250442;0.067605585;0.11427018;-0.07278976;0.056479026;-0.07227862;0.056983925;0.06969163;0.09502043;0.036122117;0.0178117;-0.06504531;0.010190647;-0.03129468;0.07979625;-0.023238787;-0.0064594317;-0.023414612;0.017772358;0.121223055;0.04154905;0.07337955;0.03893171;0.00898275;0.099851206;0.07220445;0.084357455;-0.053341854;0.047906607;0.085720785;0.065167956;0.08838229;-0.12887073;0.059427846;-0.0012920212;0.05681713;-0.014565748;0.022242049;-0.042475633;0.024975479;-0.11418687;-0.048545793;-0.008544326;0.09741169;0.013685235;0.048827726;0.06023765;-0.037341088;0.13040121;0.008099726;0.046020903;-0.030109173;-0.0028174368;-0.006793664;0.02889857;0.06818555;0.040517464;0.08890689;-0.042609025;0.036363102;-0.052042313;0.03030618;0.01719422;-0.042886607;-0.07976507;0.09535641;-0.0042633163;0.06262711;0.06106964;-0.017444583;-0.10537466;0.099578835;0.004381775;0.039872758;0.068534575;0.035248768;-0.023660451;0.05858978;0.0040680226;-0.023901511;0.08905552;0.10371514;0.056114323;0.09648939;-0.059815936;0.078695446;0.07868146;-0.060707588;-0.00863143;-0.09405647;0.030960266;-0.05914849;0.028501585;0.018095762;-0.0102362335;-0.036560286;0.116932295;0.025105437;0.0059096403;0.011584086;0.016635144;0.09277871;0.05639564;-0.0033199426;-0.03357273;-0.065185525;-0.07544656;0.10007111;-0.048977543;-0.02167528;0.034157183;0.051664706;-0.0031596785;-0.0861229;0.0719997;0.112240404;0.06429483;-0.036225475;-0.014598872;-0.08826068;0.011580974;0.045614574;-0.07273475;0.054580234;-0.0012023275;0.013752899;0.036113616;0.047316197;0.017336909;-0.111662105;0.022805898;-0.004882746;0.00427651;0.11825917;0.0850116;0.053377457;0.071171075;-0.03566021;-0.036477517;0.13524988;-0.027253492;0.0911277;0.11179064;0.044362847;-0.031528763;0.047909047;0.021845633;-0.03204105;0.05898918;-0.055147756;0.10500888;0.030511662;-0.10090999;0.0017359706;0.016106274;-0.04830923;0.037432995;-0.12023517;0.014637558;0.04412602;-0.08707109;-0.06834836;0.13957086;0.114532165;0.08846637;0.04052455;-0.05692437;0.014201595;-0.00910242;0.12259627;-0.06909723;-0.08565209;0.057257958;0.065090455;-0.04337265;-0.03624682;-0.06494088;-0.05105265;-0.06883765;-0.035857394;-0.039301686;-0.07343763;-0.09783738;0.033776462;0.05296197;-0.086788215;-0.106295265;0.0852504;-0.027170189;-0.027976006;0.021775404;0.067586645;0.0014279337;0.015204195;0.00012990464;-0.06721057;-0.01390414;0.017039316;0.01355305;-0.013931133;-0.025212832;0.07607258;0.054981675;-0.011175692;0.061847422;0.027765758;0.0035584746;-0.013329696;0.087398894;-0.05425299;-0.071830474;-0.009848266;-0.02012602;-0.0051110457;-0.013067183;0.07149663;-0.03815516;0.06772851;0.090307556;-0.108167455;0.036068942;-0.045206614;-0.08244872;-0.0040832097;-0.0905521;-0.11624161;0.09425091;-0.10706347;0.016984642;-0.112217925;0.028451582;0.0783114;0.030128753;0.024452614;-0.02484213;0.023386987;0.07591685;-0.03822692;-0.09028733;-0.09868055;-0.09074931;-0.046431694;-0.16113289;-0.02575463;-0.05576203;0.0062263752;0.06251586;-0.15469381;0.08942266;0.09810486;0.10119116;-0.04303299;0.064880155;-0.036803603;-0.04077655;0.04303761;0.006486566;0.046605602;-0.047626693;0.021675855;-0.025157256;-0.08004906;0.078431234;0.0687197;0.04290525;0.008201208;-0.066217184;-0.008553186;-0.04997073;0.07228727;0.09899186;0.032303095;-0.034065403;0.10304233;0.010139806;0.050561324;-0.03086583;-0.06999246;0.05786214;0.074897416;0.024695497;0.054201476;0.05613326;0.011971476;-0.007941843;0.034429397;0.04932251;0.087856025;0.04415239;-0.045524932;-0.06318472;0.10144067;0.029318504;0.043384224;0.035071597;0.11283784;0.1351461;-0.034968507;0.015945392;0.10788848;-0.07577953;-0.014857847;-0.117350265;-0.123091795;0.038842354;-0.0018005925;-0.038011096;-0.05972276;0.022644022;0.03805434;-0.03714417;0.023237536;0.04284138;0.017730705;-0.033086583;-0.013242258;-0.023910532;-0.0026642326;0.06368911;-0.056074273;0.040010836;0.04370793;0.068484224;0.09847052;0.053006638;0.06468961;0.08055576;0.008362722;-0.035978954;-0.04421537;0.084114306;-0.05094995;-0.04221457;-0.007108738;-0.07144113;-0.031787872;-0.02668642;0.06460337;0.011256433;0.02685076;-0.0068653384;0.09319113;0.07088256;0.045176435;0.012814271;0.024456741;0.00410184;0.02312181;-0.011172525;-0.0024861374;-0.03320011;0.039705507;-0.085277945;0.11873987;-0.008916844;-0.01222218;0.02184975;0.10216373;-0.045338903;-0.061536085;0.044574074;0.04649296;-0.035384677;-0.044141434;0.09558881;0.03281539;-0.069880255;0.054788142;0.100836456;0.092778906;0.04921839;-0.070686735;-0.061918322;0.119472146;-0.011234169;0.07644779;0.0026276726;-0.08350094;0.047116872;0.008742516;0.006717543;-0.030430933;-0.058870137;0.020829376;0.0041822447;0.024530634;0.00589539;0.043640815;-0.012546348;0.04021126;0.05499614;0.062431827;-0.0632695;-0.023390621;0.031005196;0.055507004;0.049957246;-0.025108261;-0.05689302;-0.028646119;0.03658949;0.05451347;0.07814481;0.064388394;0.09457113;-0.027850932;0.060148027;-0.079687744;-0.067330405;-0.010662496;0.049573142;0.0027250687;0.0471833;0.07585037;0.021881832;-0.06748584;0.10083834;0.052785877;-0.09511751;0.10042393;-0.064213015;0.05914418;0.037589353;-0.012948771;-0.015408457;0.059711598;0.065591834;0.048443694;-0.09394388;-0.022743713;-0.010934759;-0.053882275;0.10569698;-0.06138545;0.0011280278;0.05532372;0.033178307;0.031209676;0.03972009;0.06847526;-0.015390377;-0.06780653;-0.044876847;0.05180064;0.06446093;-0.09815344;-0.094199196;0.03414579;0.08422885;0.14399351;-0.0137235;-0.019970318;0.08242019;-0.02478178;-0.022386713;-0.07636176;0.0083144205;-0.039681464;-0.025273256;0.09017355;0.07650427;-0.049146313
0.040229693;3.4806682e-05;-0.056470674;-0.040516265;0.10164434;-0.013789206;0.012888044;-0.062142074;-0.022478804;0.13099407;0.047288705;0.15810402;0.032835677;-0.07152688;-0.03855298;0.046731133;0.06873488;0.096261054;0.057678863;-0.028322656;-0.019588819;0.031154638;0.068442665;-0.017586356;-0.004631377;0.04650732;0.074290946;0.018121319;0.108570434;-0.018638138;0.10940238;0.1102106;0.02505541;0.13611397;-0.025615608;-0.084819734;0.12930866;-0.017492907;-0.017510813;0.026952086;0.046062954;0.040425915;-0.004641237;0.050153755;-0.05607582;0.12207677;0.027243212;-0.02288056;0.041016992;0.01702245;-0.061973613;-0.12261275;-0.08769638;0.12115961;-0.008547108;0.059243362;-0.023644641;-0.017761884;0.013138362;0.03924631;-0.026053779;0.10315919;-0.126606;0.007925149;0.011794466;0.039285723;-0.0018094749;-0.042346127;0.08648627;0.021617716;0.037196506;-0.0890183;0.045863736;-0.010569179;0.20568173;0.052500926;0.01790652;-0.0053132786;-0.052933324;0.015563076;-0.052153733;-0.011574482;0.016249668;-0.014809071;0.07203586;-0.09853274;-0.06418844;-0.055578843;0.027174864;0.027844012;0.062381037;0.0042629982;-0.016397174;0.008176517;0.10037679;-0.011846135;-0.0887329;-0.004937173;-0.077756144;-0.0006782486;0.061963797;-0.13150021;0.00065280474;0.023222294;0.011816344;0.050613903;-0.046197355;0.022946173;0.071143836;0.04732179;0.006789427;0.032105174;0.065270126;-0.017846406;-0.03050518;0.019961879;0.026188046;0.09283261;0.1602286;0.008565781;0.15312603;-0.04011388;-0.020495167;-0.034545295;-0.075287946;0.018077461;0.063872606;-0.08208408;0.05736789;-0.04655689;0.06291122;0.10360554;-0.05805686;0.02930718;0.12829912;0.05203181;0.08730445;0.007523813;-0.12169913;0.026229698;0.03243139;-0.052730028;-0.008572442;0.009950876;0.07330635;0.060496975;-0.12563388;0.010139057;0.034911744;-0.07389974;-0.028979277;-0.0023643463;-0.009111355;-0.015717356;-0.13444535;-0.069246076;-0.003632438;0.09732331;0.07005279;0.041089687;0.087836765;0.03814678;0.052568637;0.020617891;0.086938895;0.056402884;0.08804909;0.08052446;-0.046202708;0.027144039;-0.058103256;0.08359543;0.07399701;-0.05747823;0.0968996;0.029951304;-0.08676054;-0.03859324;0.06042258;0.044492327;0.09984087;0.047727223;0.04300388;-0.07268126;-0.10292557;-0.014649446;-0.021448294;-0.050420243;0.033577424;0.039334092;0.052252598;-0.07912696;0.019524205;-0.016700068;-0.005346926;0.017966233;0.020556565;0.15867223;-0.05782322;-0.033968832;0.03615603;-0.04199281;0.07163879;-0.080898084;-0.05674521;0.07620897;0.086676195;0.0069449265;0.07702448;-0.10803765;-0.067076705;0.046928342;-0.05493075;-0.018433463;0.020602057;0.10977186;0.08593523;0.02839633;-0.0012741843;-0.07405259;0.07473687;-0.046181414;0.0749051;0.026702;0.009838913;0.08737438;-0.026226455;0.040257778;0.055911068;0.16878726;0.010695249;0.03824471;0.04821351;-0.077702746;-0.022308638;0.08963449;0.029526828;-0.04650051;0.123645596;0.05989969;-0.041130207;0.08230556;-0.07068429;-0.055876188;-0.059745535;0.11532352;-0.048273306;0.10947992;-0.009784836;-0.0877066;0.06812701;-0.02326895;-0.13747628;0.06430226;0.12182911;-0.07003638;0.0879758;0.054848794;0.05756377;-0.012840745;-0.031189898;-0.0075213234;-0.03302078;0.039005965;0.091622934;0.0024103525;0.03441575;-0.034484338;0.051293265;-0.019111749;0.033094537;-0.101142555;0.010909109;0.07762482;0.08688991;-0.0683578;-0.027060421;0.121024996;-0.032378677;0.05065269;-0.08983876;-0.028491555;-0.03686974;-0.008901495;-0.0063613392;-0.027309194;-0.017926898;0.013466975;0.08346768;0.0077819256;0.007323372;0.04283199;0.024677167;-0.082585216;0.118573986;-0.14847453;-0.143497;-0.029154671;-0.00451792;-0.062200442;-0.10824383;0.07362006;0.021443438;0.049062785;0.011413289;-0.05710686;-0.046041183;0.031026911;-0.03216504;0.030357167;0.0036630556;0.050613992;0.020126808;0.02140441;0.015257329;0.010416414;0.11977758;0.08913757;0.0061873114;0.04614889;0.057432678;-0.014640731;0.023281932;-0.018286966;0.00361696;0.0606222;0.05326506;-0.13689582;-0.035844434;0.09363937;-0.025048498;-0.010366624;-0.012660739;-0.0009504429;0.0041324394;0.010937235;-0.004051919;-0.12114491;-0.004533008;-0.050607387;-0.018512445;0.04137871;0.040194344;-0.13511617;0.060294695;-0.04556539;0.018675745;0.033938833;-0.06404824;0.08525478;-0.021280037;0.029304067;0.07084181;-0.0783388;-0.10848565;-0.04453538;-0.015850969;0.01993775;0.038656555;0.06809819;-0.016519092;0.013280281;-0.06769763;0.11481802;0.07284183;-0.00046705993;-0.019119652;-0.027947368;0.027579207;0.020952262;-0.009693844;0.095001504;0.030255618;-0.046385124;0.07332731;-0.10679367;-0.11009641;0.04239223;0.0895162;0.025219688;-0.044734847;0.041061327;0.14749324;0.007928984;0.071273364;0.07763547;0.015484712;0.049948208;0.04368528;-0.032666434;-0.081166714;0.035063762;0.06870321;0.044823546;0.03604742;-0.05984315;-0.060601745;0.054480013;-0.0066897604;0.017622022;0.015733263;0.07147823;0.008855538;0.09625162;-0.04420002;-0.010738812;-0.14807156;0.014408408;-0.041067503;0.07721732;0.07758652;0.041406497;0.033987626;-0.041120227;-0.0640907;0.023098486;-0.03743988;0.025209911;-0.009348772;-0.017331121;0.05290942;0.004249468;0.024381392;0.013226523;0.1061855;0.06488682;0.12971352;-0.0033489335;0.08059424;-0.036220253;0.08448278;-0.032389443;-0.0041918014;0.035395715;-0.05341241;-0.024927396;0.05250517;-0.02397414;-0.022513801;0.028986445;-0.017658144;0.077563755;-0.07695276;-0.13256699;0.07321649;0.115731575;-0.04228231;0.028924158;-0.083831236;0.05339646;0.050396096;0.07167582;0.08445201;-0.019566871;-0.09528932;0.024511296;0.051187895;-0.03402251;-0.044875637;0.09149828;0.04410879;0.028447509;-0.07409033;-0.02165115;0.066096164;-0.0097883735;0.0347154;0.0373529;0.0924578;0.05017633;0.08595036;-0.05014272;-0.02648614;0.04571362;0.047038727;0.06934681;0.018245418;-0.04715638;0.04574163;0.010312327;0.035048466;0.07139105;-0.050199073;-0.04520035;-0.035465468;-0.11076061;-0.046513036;0.099223696;0.07016216;0.010081079;0.04164711;-0.043073952;-0.05517806;-0.017452588;-0.037490346;0.17983152;-0.04210129;-0.06577285;0.08540709;0.030446483;-0.07868595;-0.09663805;0.13216607;-0.004818511;0.043478042;-0.08190829;-0.03350587;0.046464734;-0.013992436;-0.04936216;0.055166118;-0.03154774;0.05426661;-0.022455072;0.04782231;0.11760883;0.14874035;0.04211612;0.13319223;0.076800086;0.0069881547;-0.00059513;-0.039396457;-0.13824792;-0.042682957;-0.0068034003;0.095676504;-0.024644386;-0.062670864;-0.088271275;0.05162874;0.02002068;-0.0065152436;0.03739023;-0.011099236;-0.04434345;-0.037300788;0.046796296;-0.035302896;-0.0013828758;-0.041042075;0.009778305;0.008042748;0.039774433;0.07778918;0.08251188;-0.0016506591;0.09365414;0.049620587;0.081312515;0.070433326;-0.04983608;0.00052581646;-0.052789196;0.0134110935;-0.018246857;0.027177526;-0.07795047;-0.11546224;0.044244893;-0.046012122;-0.049455658;0.0015258836;0.057116114;-0.03840754;-0.06978064;0.06672736;-0.013792544;-0.056540396;-0.06890704;0.045227785;0.035904612;-0.08731265;0.0059584444;0.0150644975;-0.06506033
-0.039413646;-0.0045920433;0.035662852;-0.037811045;-0.030366624;-0.07208656;0.03891843;-0.03237299;0.07354179;-0.0013850464;0.010611328;0.054970045;0.09183953;-0.06739657;0.054175954;0.021510512;0.050791755;0.10161045;-0.029931175;0.03248659;0.055063915;-0.06260168;0.057467017;-0.09814108;0.0038964783;-0.015950765;-0.057492144;0.05744418;0.08843797;-0.11963287;0.106709756;0.021528706;-0.031731497;0.081127174;0.046316307;0.035466377;-0.0111877555;-0.020011116;0.083799385;-0.023756329;-0.010931663;0.008992535;-0.018604271;0.07023262;-0.08735438;0.03573784;0.06789613;0.023119705;-0.0061185756;-0.052504573;0.044318594;-0.013400042;-0.078644685;0.10354058;-0.08291592;0.06343097;0.0042682188;-0.04692509;0.10598389;-0.017181983;-0.03231625;-0.0022271003;0.003951393;-0.10776914;-0.06935635;-0.00687994;0.08505668;0.014546364;0.011399012;0.059311565;-0.02978823;-0.04609876;0.098832235;0.062158167;0.18169793;0.008015106;0.025836704;0.07146057;-0.05840668;0.048995446;-0.061099567;0.03994106;0.04035081;0.030565409;0.08414953;-0.046304286;-0.052584007;-0.038311597;-0.06711862;0.07825876;-0.06419807;0.017108047;-0.03331819;0.09233703;-0.0044904486;-0.02328083;0.012639862;0.060200088;-0.055172123;-0.04146311;0.067446046;-0.08169738;-0.010249461;-0.002623731;-0.022089725;-0.0028278702;0.05816071;0.083800964;0.07926368;0.003976928;-0.074111976;-0.02456147;0.13660587;-0.003958064;0.050434895;-0.040963758;-0.033058036;0.034979038;0.12680268;0.007592326;0.03211166;0.046382364;-0.061602242;0.050760057;-0.052783616;0.024006754;-0.03270346;-0.030307863;-0.028388074;0.09900158;-0.012296901;0.10162759;-0.14459722;-0.03760063;0.06436007;-0.023094838;-0.012724476;-0.052375082;0.076297976;0.005268405;0.06072184;0.050971143;0.049795672;-0.038511563;-0.010041266;0.041098446;-0.000748815;-0.08199221;-0.032128286;-0.06246234;0.032213133;-0.027372764;-0.005810067;0.058680844;-0.14489307;-0.09410443;-0.08803144;0.1429258;0.05143957;0.057493847;0.0049727964;0.059721865;-0.085804015;-0.0027283884;0.072526775;-0.05114913;-0.0129379695;-0.020598799;0.01137876;-0.0037628626;-0.039991062;-0.037199743;0.052492306;-0.01762105;0.06727953;0.086977966;0.03513238;0.026383862;0.06367019;-0.01085317;0.09222887;-0.03623212;-0.008748972;-0.020071026;0.041148853;-0.071608305;0.041114848;-0.09307083;0.04014112;-0.08470436;-0.12364294;-0.03514175;-0.07034957;0.062020037;-0.037842978;0.0520317;0.17861156;0.0071091666;0.0026778968;0.0064976416;-0.048907533;0.08858693;-0.01984029;-0.08065235;-0.05018183;-0.04157699;0.0005094729;0.015284557;-0.02352126;0.04780648;-0.033377446;0.070792414;-0.036973458;-0.08878255;-0.004849501;0.026529675;-0.042962372;0.010338944;-0.066148035;-0.019401342;0.019302735;0.059602275;-0.020413242;-0.082879476;0.048287787;-0.070778824;-0.016849304;-0.09180584;0.0021652386;0.050120093;-0.01790141;-0.0727362;-0.042505883;0.020941341;0.010834664;0.014355187;-0.08846118;0.04130973;0.025044292;0.047727477;-0.08621054;-0.034771018;-0.09584216;0.037541755;0.038022272;0.039185982;-0.03356498;-0.038317222;-0.030423373;-0.053369068;0.005435702;-0.0496725;-0.05737893;0.11766108;0.12787727;-0.019112607;0.08955;0.00031036924;-0.024520617;0.05148523;-0.09222529;-0.06544338;-0.03866041;0.0028884953;-0.056446843;-0.08955889;0.035834286;-0.091648236;-0.062534995;0.042826235;-0.117620796;-0.063658096;0.024949763;-0.039064646;0.046235338;0.048350442;0.06465281;0.03468074;0.00023569923;-0.034970727;0.08422906;0.05620814;0.04481552;-0.07436148;-0.013274469;0.05199716;0.034491464;0.12605709;0.01830918;0.030078752;0.023840763;0.034719996;0.049750123;0.04351164;0.036477387;0.056211017;-0.06371674;-0.103724256;0.05762713;-0.04341236;-0.031170124;0.14789902;-0.020378143;-0.025596607;-0.1158086;-0.065028876;-0.0343898;0.04810269;0.005769431;-0.041692372;-0.038059924;-0.091586836;-0.081362784;0.020033771;0.0041864873;0.053966496;0.108399585;-0.054180637;0.038096935;-0.06235984;0.06117808;0.013945752;0.0011462428;-0.04543115;-0.07443675;-0.046425577;0.017541224;-0.13060443;-0.017321803;-0.04482103;0.08789654;-0.06564746;0.025135564;-0.042684842;-0.08044265;-0.04817556;-0.044418875;-0.13262823;0.023816317;-0.0013653876;-0.028049016;-0.115258336;-0.02168401;-0.08032078;-0.024211282;-0.017005764;0.108599514;0.046850357;-0.029028572;0.04487096;0.03130449;-0.09766876;-0.08725337;-0.023084039;-0.15056534;-0.07801301;-0.024363587;-0.0138550345;0.04458119;-0.033402033;0.031336352;-0.13667546;-0.009197461;0.09635935;0.05315225;-0.05168048;0.020173334;-0.03223488;0.09512683;-0.04946804;0.061028305;-0.02553292;-0.08026438;0.0019209097;0.03716288;-0.13671994;0.039020415;0.14007616;-0.036104243;0.03109827;-0.062419493;-0.04299361;0.16697088;0.017106684;-0.009183231;-0.015075848;0.07027998;-0.0004904434;0.016320499;-0.016230617;-0.036938712;0.07723783;0.0023939016;0.042860422;0.06335229;0.011021466;-0.014841474;0.01799532;0.15170312;0.08177344;-0.00012891309;0.010103386;0.10220869;-0.103117466;0.010158064;-0.054518975;0.024679992;-0.02685237;-0.04708754;0.106607415;0.15367104;-0.03052495;-0.025018282;-0.011584011;-0.09902345;0.06462686;0.053066764;0.011792245;-0.0011938319;0.094592944;-0.06882222;-0.0077780946;-0.0077071586;0.023938106;-0.025977377;0.058786385;0.13414049;0.091937676;-0.034217708;0.07475863;0.042329397;-0.014242534;-0.104152225;0.015456999;0.1064049;-0.045971576;-0.013358075;0.0866063;-0.046491604;-0.07565231;0.009632673;0.0579432;-0.05697565;-0.10618533;0.018941067;0.04114521;0.039879594;0.13397764;-0.15603255;0.101195306;0.089136496;-0.054129973;0.09398112;-0.04337537;-0.038358252;0.033860177;-0.074574694;-0.0344131;-0.1235283;-0.047433466;0.12714691;0.053447764;-0.022863507;-0.05401063;-0.013781899;-0.009066442;-0.06772367;-0.013741596;0.013309181;0.0793456;-0.01631536;0.058673047;0.13116045;0.02539308;0.015207697;-0.047550824;0.017756613;-0.0097815795;0.0677519;-0.057500068;-0.06490156;0.11177539;-0.011063853;0.028895993;0.014033074;-0.011595071;-0.010772726;0.101272725;-0.067576125;-0.026199669;0.024198247;-0.07597335;-0.050633818;-0.045169346;0.040429413;0.043442257;-0.020647809;-0.022988252;-0.041162208;-0.0051525156;0.03944812;-0.022673188;0.06361239;0.06532035;-0.027492698;-0.062372696;0.046000626;0.048314285;-0.033075348;0.0033858537;-0.009222896;-0.015414473;-0.032877885;0.014865082;0.103403814;0.096209876;0.02344371;-0.024992744;0.06066568;-0.028453896;0.078941084;0.0060636844;0.034111362;-0.07000155;0.07050091;0.067365244;-0.043051586;-0.0051254663;-0.033096727;-0.08307109;-0.060340818;-0.039937243;-0.05164529;0.06606281;0.11812783;-0.05484001;-0.06613573;-0.024853507;-0.043873142;0.040414512;-0.06493846;0.009059412;-0.073312186;0.11397495;-0.011378619;0.036477663;0.08477551;-0.026486566;0.017319852;-0.004251018;0.08298926;-0.08205562;-0.041159026;0.032238502;0.0726582;-0.007610252;-0.047962047;0.013796937;-0.20009309;-0.06273648;-0.064747766;-0.09151285;0.04221721;0.0836017;-0.030264528;0.042951494;0.10566599;-0.09527834;0.03389739;0.06993581;-0.04612466;0.16060966;-0.15868296;0.097540386;-0.02098571;-0.06719656
0.053689998;-0.044469237;-0.06826866;-0.13907182;0.1187901;0.039687157;0.16731268;-0.03765478;-0.005181705;0.039654855;-0.007468811;0.07290778;0.07343208;0.035214987;0.056754526;-0.00252382;-0.09767458;0.06798402;0.06592777;0.06396184;0.060320836;-0.03402514;-0.099860474;-0.078084305;0.03417229;-0.0689496;0.037836127;0.03306429;0.16597518;0.013557736;0.08244026;-0.04227892;-0.023235995;0.14505398;0.0074705486;-0.05686906;0.07078077;-0.096460305;-0.0027224417;0.004353639;-0.025552517;0.15048599;-0.013887978;0.112839885;-0.012759982;0.13291863;0.01942942;-0.0019530456;-0.09567871;0.031467397;0.024901563;0.036870826;0.048870742;0.1919431;-0.06229405;-0.039360117;0.026645742;0.012035817;0.012126697;0.029058876;-0.034957647;-0.026371604;-0.026196182;-0.069036506;0.030070947;0.047052853;-0.073771864;-0.029946467;0.084580146;-0.04347325;0.116860844;0.044044018;-0.016575724;0.0004436339;0.111867145;-0.045739383;-0.032766994;0.11941857;-0.01734395;-0.092194736;0.0147582805;0.008042549;0.060062405;0.046946507;0.08227821;0.012554614;-0.0021030477;-0.08445644;-0.100703314;-0.061066423;0.008073582;-0.003688424;-0.033147514;0.1262252;-0.08255635;0.041153435;-0.12826632;-0.027013652;-0.085488446;-0.035569012;0.096871816;-0.11777478;0.0060998164;0.0784378;-0.028775342;0.049377315;0.057744846;0.07528891;0.002371064;0.09407179;-0.12604871;0.103461035;0.04794342;0.019903697;0.085500464;-0.062594146;0.11639983;0.0122684045;0.11624083;0.111020066;0.09264764;-0.010199731;0.108167805;0.06247199;-0.04015581;-0.083296396;-0.019204061;-0.020351397;0.028621174;0.029041639;0.06716034;0.10530157;-0.13469477;-0.031103091;0.0669975;0.061219852;0.03493473;0.03044461;-0.013886043;0.10135827;0.07143603;-0.026011199;-0.04279716;-0.023027893;0.13909416;-0.010471013;-0.046348963;-0.05403385;-0.025621813;0.009613125;0.023568634;-0.09089569;-0.026088035;0.051443063;-0.026722694;0.067832306;0.004981879;0.118918195;-0.08901583;0.013513475;0.008806352;0.025471913;-0.14331152;0.04689713;0.099583246;-0.02154598;0.11008535;0.023909813;0.0010968688;0.048743304;0.0020128163;-0.0047889706;-0.08968487;-0.02288724;0.015031346;0.0010351217;0.021973414;0.02669935;-0.04504985;0.02206204;0.12284422;0.062434547;0.029251143;0.0075227567;-0.070272185;0.050766975;-0.020052016;-0.1260989;0.042384036;0.055752136;-0.1335835;0.0021469253;-0.087653995;-0.01955796;0.06366555;0.046020307;0.16551478;0.12287656;-0.074407786;0.08627652;-0.0806215;-0.03238791;0.034816895;0.03020029;0.040596437;0.008336671;-0.040753562;-0.02135208;0.059381686;0.046830002;-0.041761413;0.066063486;0.009181611;-0.12557659;-0.062375266;0.16735429;0.04432672;0.013119829;-0.101965316;-0.100466266;0.07326656;-0.09466692;0.076124534;-0.11730153;0.0047163772;0.037504368;0.030131629;-0.15688767;-0.016215093;0.12132426;0.0062943227;-0.043757997;0.11185898;-0.023661552;-0.047857605;-0.013720953;-0.079734735;0.081249796;0.1179646;0.010703104;-0.10031627;-0.0011802395;0.013411594;0.051132172;0.023385078;-0.035082296;0.040283337;0.13985963;0.004656247;-0.08777444;0.03036349;-0.006358562;0.036795657;0.027185496;0.04235362;0.08297628;0.14574823;-0.06081389;0.031005025;-0.009498177;0.026345646;0.02824502;0.07846251;0.0019672052;0.06227776;-0.017188706;0.017001962;-0.05160401;-0.060760405;-0.027092196;-0.018177211;-0.20532246;-0.05745167;-0.0047208057;-0.043045007;0.033942413;0.068828546;0.04249566;-0.0027879728;0.09288808;-0.06353142;0.1619952;0.07021233;0.012794699;0.008295509;-0.026188945;-0.040001597;0.03454666;0.071137086;0.0056165713;-0.055208065;-0.030230783;0.025912339;0.0053394004;-0.008165818;-0.039490435;-0.021424552;-0.15250687;0.045112584;-0.0147380205;0.03504206;0.13026181;-0.091906995;-0.09797466;0.009056503;0.019173918;0.037030317;0.09343327;0.021074269;-0.101377726;0.008138537;-0.11361503;-0.040950883;0.14925405;-0.013164806;-0.052315;0.111729614;-0.062474944;-0.06720238;0.09962358;0.04768731;-0.0040039015;-0.026747363;0.04698474;-0.031020004;-0.061091848;-0.026675286;-0.121370286;0.0064544016;0.100966185;0.0009259404;0.015480021;0.06817505;-0.12153465;0.032069612;0.011475945;-0.027626615;-0.011327909;-0.004544571;-0.082660474;0.041370414;-0.0039936057;0.10657584;-0.0048142998;-0.056572463;0.07175327;0.10438016;0.09499102;0.0026826079;-0.004441725;-0.008553383;-0.09858758;0.021400644;-0.025621675;-0.1446094;-0.025309458;-2.7032387e-05;0.03786135;0.08125832;0.13288647;-0.08002588;-0.1262162;0.045937706;0.1359797;0.092207246;-0.09016018;0.06099305;-0.012961912;0.12517959;-0.041001823;0.078179814;-0.08102631;-0.072006196;0.04692273;-0.059174865;-0.1630453;0.048060082;0.15732472;-0.015208008;0.050855465;-0.07627961;0.041203506;0.07445457;0.014831129;0.03910741;-0.059648033;0.022968136;0.040467154;0.055605084;-0.015448256;-0.0014468525;-0.042357925;0.016204169;-0.034994513;0.111914404;-0.14749582;-0.048814766;0.11938923;0.11768126;0.078240044;-0.10391736;0.07752831;-0.007873604;0.005163292;-0.022721594;0.024013389;0.0025875547;0.031196197;-0.011773875;-0.027588902;0.13092281;0.10062117;0.15814625;0.021127924;0.008788822;-0.06285624;-0.07275861;-0.045614563;0.021482855;-0.023523679;0.022260059;0.022901079;0.04410497;0.037968583;-0.03633832;-0.09259438;0.15377519;0.09989544;0.103545174;-0.019331569;0.045909803;-0.10221816;0.027680729;0.02585287;0.028552392;-0.012023084;0.07059161;0.13769189;-0.025086936;-0.0451005;0.034100056;0.0029110457;-0.0066643218;-0.05494094;-0.03603488;0.22386155;0.0044191023;0.082207054;-0.095658325;0.10513755;0.09696516;-0.006544551;0.036938064;0.039344117;-0.040507387;0.00015118088;0.021866195;0.00844145;-0.10076848;-0.053067457;0.09940997;-0.06714912;-0.06717935;-0.010615859;-0.12008991;0.03851549;-0.07823828;0.017164743;0.015308714;0.06329292;0.0590132;-0.041904572;0.014762841;-0.00302743;0.04832963;0.09131161;-0.025385037;-0.07521995;-0.04241213;0.023023766;0.043051876;0.0759016;-0.06154907;-0.028945964;-0.024574254;0.10908225;0.056241337;-0.024340436;0.0021745379;-0.01141559;-0.03037662;-0.07567813;0.03536288;-0.01810098;-0.0900459;0.13708322;0.02267193;-0.026136316;-0.015557773;0.017432027;-0.034017354;0.023287533;0.086176336;0.11548972;0.0058641336;0.028163569;-0.08106348;0.061704606;-0.062303912;0.02481612;0.118060835;0.07381656;0.0707058;0.05346599;0.045046158;0.12256243;0.15196587;0.038790688;0.15688556;-0.0039066277;0.0581736;0.054246437;-0.05361036;0.041408166;-0.015575298;-0.0110581685;-0.051516827;-0.0029770972;-0.04478558;0.015002159;-0.0025392456;-0.021696938;0.035947792;-0.016808666;0.007502879;-0.026408216;-0.07681963;0.087143816;-0.14633828;-0.109392494;-0.0026702124;0.032135334;-0.0007830751;0.05937551;0.06311504;-0.03813735;0.08216529;-0.005636654;-0.017675482;-0.016179854;0.030149102;-0.08369186;-0.0008868936;0.058451705;0.123490416;0.008649631;0.02117993;-0.0011776973;-0.21298733;-0.053663813;-0.06129854;0.050198313;0.07961675;0.121092066;-0.0029654512;0.037193354;0.19018592;-0.056444157;-0.02507985;-0.07492616;-0.07000211;0.044771053;-0.18214619;0.005280937;-0.016751368;0.015995223
-0.029631384;-0.052237604;0.010332178;-0.11021634;-0.03926309;-0.050907888;0.14867678;0.030976959;0.0781549;0.07271834;0.10334089;-0.013119541;0.048716914;0.0745144;-0.04302868;0.022737488;0.02733503;0.09101835;-0.056114372;0.033584896;0.08537506;0.017444184;-0.08681033;-0.058355495;-0.033882402;0.102774106;0.08571272;0.10743943;0.07008893;-0.119720854;0.09733419;0.019942882;0.07920485;-0.015910594;0.048620913;0.041650906;0.065427646;-0.016979618;-0.018873883;0.06785019;-0.055678274;0.10859773;-0.044197723;-0.0029340393;-0.08493404;0.05763116;0.092563584;0.007922559;0.035301596;0.11317285;-0.13854255;0.06086721;0.052524686;-0.06523682;-0.03228549;0.080967754;0.030349009;-0.012988807;-0.053760532;0.008184573;-0.05336927;0.03311927;-0.0042667976;0.01703608;-0.038989104;0.014895044;-0.025802901;0.017984819;0.00085573405;-0.03308305;0.0032471325;-0.0029442913;-0.07827475;0.04718096;-0.056717653;0.051351607;-0.070393145;-0.027325353;-0.06277702;0.05817173;0.0821905;-0.017777663;0.07739348;-0.16101296;-0.012887637;0.08454079;-0.032278296;-0.05037211;0.036747057;-0.0074798553;0.082725264;0.08923567;0.06954417;0.056034252;-0.03955814;0.017886907;-0.1908157;0.051980793;0.07364897;-0.03240726;0.0067229657;-0.026801541;0.0118752;0.0024942732;0.096574135;-0.05171289;0.02428018;0.061344653;-0.036717694;-0.0008702774;-0.08762991;0.095742665;0.026255207;0.063221864;0.071558915;0.023663513;-0.016698256;-0.0272023;0.025781412;-0.020812437;-0.0723192;0.105777524;0.008227102;0.02908812;0.042266898;0.07770719;-0.055536862;-0.008467331;0.089708775;-0.026493598;0.12582743;0.111088134;-0.025073897;0.1552779;0.15178715;-0.035219617;0.021635786;0.03192201;0.09351227;-0.10534914;-0.03524615;0.06880721;0.03174419;-0.034223255;0.041865546;0.13082565;-0.11386226;0.072458364;-0.01823243;-0.037789673;-0.07809508;-0.046724286;0.09182535;0.06886549;0.09044654;-0.03800688;-0.0452399;0.08666357;-0.0017525597;0.035994973;-0.041144866;-0.009463385;0.1064795;0.015040379;0.06709839;0.0062360996;0.070702046;-0.0125448955;-0.06825085;0.10528348;-0.016366987;-0.010016061;-0.020345233;0.044507768;0.06105835;-0.011434216;-0.05979772;0.054543015;0.018766534;0.013114364;0.112564325;0.08892263;-0.0045756786;-0.06320802;-0.12273165;0.068507284;-0.042385813;-0.05215467;-0.15625133;0.08113404;0.044694595;0.037442982;0.109320484;0.08950719;0.086270586;0.085684545;0.060179558;0.024900232;-0.020389179;-0.0021405828;-0.036049034;0.03833679;-0.010673074;0.03660091;0.108844675;0.038612925;-0.014496001;0.069011845;-0.013156146;-0.010701311;-0.032000672;-0.011828182;-0.054513313;0.004221841;0.055647627;0.08782972;0.097605705;0.03204361;-0.0013324746;-0.05894564;-0.0078108534;0.09946639;0.054338865;-0.026450038;0.08116204;0.065023325;-0.045434475;-0.050798643;-0.045438953;0.13923667;-0.008832155;-0.03903339;-0.05362782;0.124262564;0.08902521;-0.0655775;-0.036785036;-0.007183852;0.114702195;-0.06504301;-0.046438303;0.0051057497;0.0018657593;-0.12234052;0.043826926;0.009711395;-0.03176329;0.076392524;-0.010758883;-0.0026276647;-0.05545725;0.074095145;0.010699897;-0.06969364;0.015856683;0.04440484;0.018218473;0.00090220774;0.018635979;0.021402413;0.073303536;0.09545827;0.06320393;0.0940725;0.09552994;0.031621747;-0.0074213254;0.037496027;0.047662288;0.07409416;-0.052637298;0.022152962;0.046159253;0.034029644;0.04785752;-0.05960633;0.060754154;0.08832361;0.012657116;0.03951211;0.014431667;0.025272256;-0.010726402;-0.009552617;-0.033808097;0.02546533;-0.03315821;-0.0028232955;-0.0637284;0.00985868;0.06688677;0.006846708;0.06988325;0.04370603;-0.024556423;-0.0032753411;0.10535476;-0.05760547;0.046528045;0.029301815;-0.11087496;0.11000481;-0.052564096;0.021899296;0.025195213;0.065191776;0.05680222;-0.04365031;0.054629546;-0.02852998;-0.030306961;-0.068103224;-0.05779909;-0.006653053;-0.082166046;0.06401027;-0.015606754;-0.122848146;0.07456174;0.028992873;-0.039342847;-0.039982386;0.08728948;0.008365283;-0.018382503;0.009226228;-0.01377167;-0.08555706;0.03718629;-0.06726546;-0.0893096;-0.042645633;0.087958574;-0.017945776;-0.1372069;0.013586833;-0.008304431;0.08745006;0.07649845;-0.02130125;0.03278109;0.008629788;-0.067817666;-0.16752695;-0.06777667;-0.011418337;0.08195218;-0.06721002;0.029603597;0.05052616;0.15778378;0.016615646;0.015901204;0.046050888;-0.0762739;0.014264872;-0.074727334;0.033313658;0.012035312;0.06319935;-0.00038183655;-0.061229188;-0.023852626;-0.028340494;0.08088615;-0.040291794;0.016771285;-0.05734158;0.01095849;0.013975537;0.102690645;0.15957466;-0.0140704205;0.019222287;0.050294112;-0.057084784;-0.1915543;-0.023400912;0.029650057;0.038453475;-0.04693822;-0.045025412;0.104176745;-0.053822763;-0.033171214;0.032529198;0.01171978;0.079432115;0.06069302;0.03654849;-0.072692275;0.079834126;0.038082108;-0.035555262;0.056116644;0.051153943;0.022147147;0.0017209077;-0.04696182;0.06139848;0.030778144;0.027480073;0.06148785;-0.05364978;-0.07452692;0.0759914;-0.041804027;-0.009276355;-0.023675505;0.072093114;0.12887582;-0.030952811;-0.117783464;0.07250334;0.08447798;0.088065326;0.08128404;0.120171;0.08807411;-0.007995021;0.027337626;0.093192816;-0.06423112;0.044968214;-0.018014994;-0.066004165;-0.00044929428;0.051402662;0.024443254;0.053652257;0.053970944;0.09114034;0.024233554;0.06365742;-0.053784017;-0.051391874;0.03697228;0.04890988;-0.014735431;-0.013923367;0.1675249;-0.037827272;0.034244858;-0.13559683;0.054891355;0.08996161;0.051939506;0.034515634;-0.053953707;-0.008054938;0.11075571;-0.008030261;0.015402371;0.019249422;-0.015694853;0.10400575;0.062036168;0.02796588;0.0035884823;0.09806002;0.02417358;0.0020490738;-0.09802291;0.062693566;-0.064793825;0.011905872;-0.06112808;0.0045840843;0.049292397;0.07993391;-0.046422612;0.088208444;0.03885311;0.07041284;-0.020647073;0.008948054;-0.02844551;0.047552284;0.01126747;0.071827374;0.0944473;-0.045595996;0.05074119;0.08502296;-0.03876154;-0.017225446;0.0707881;0.00089533435;-0.011228821;0.09373405;0.07237308;-0.052735906;-0.052201644;0.061267667;-0.028841194;-0.103036806;-0.054806598;-0.06576224;-0.056949615;0.0410157;-0.110207014;0.01426791;0.028438646;-0.0024280772;-0.0762595;-0.034487847;-0.057988424;-0.058657527;-0.0077363187;-0.06265027;-0.05214321;0.0066179666;-0.0135680195;0.05445378;-0.068792;0.02194465;0.006146377;-0.062475294;-0.014381545;-0.022590658;0.03607815;-0.01607729;0.06425663;0.004449304;0.016914856;0.04914573;-0.06741226;0.0730753;-0.033281166;0.061824754;0.028597632;-0.018236112;0.051941212;0.10413357;0.04601085;-0.040964246;0.00939992;-0.045722045;-0.023242276;0.02686741;-0.057766363;0.08299377;0.045162726;0.030307379;-0.013280744;0.05029525;0.012701234;-0.04878873;0.07603795;-0.024555864;-0.029453015;0.0036788457;-0.015862681;0.0004003988;0.038884185;0.09236729;0.004553678;0.0598793;-0.08714026;-0.06419894;0.012837069;0.015788462;-0.070827976;-0.12527445;-0.03707498;0.05691027;-0.036416695;0.049015354;0.05143783;0.05916468;0.102101095;0.023920028;-0.044027835;0.013450227;-0.03467575;0.032015204
-0.042784035;-0.076627254;0.07801658;-0.034729134;0.050754517;0.019717012;0.10508793;0.04511905;0.061038006;0.031934723;-0.026373789;0.09038661;0.04262641;-0.021032764;-0.03329137;0.103704296;0.017088963;0.072553895;-0.0076176464;0.031814005;-0.030254912;-0.009904936;0.047759622;-0.02578099;-0.040168516;0.10413977;0.07005084;-0.01954972;0.06758612;-0.14948641;0.080068015;0.033177577;0.09068748;-0.053769097;0.05024334;0.027452381;0.11073163;0.035647452;0.03223726;0.06986667;0.005183065;-0.0016446727;-0.08448715;-0.04602731;-0.07153703;0.009533128;0.045200985;0.020538311;0.030523965;0.119903326;-0.15375654;-0.005009322;0.0018615712;-0.054393854;-0.059686605;0.042552494;-0.015386577;0.03557776;0.082638055;0.008436829;-0.13717538;0.018980917;-0.09270964;0.098983124;0.020357678;-0.03541455;0.03370372;0.063714884;-0.0335307;0.058137443;-0.020524874;0.042112414;-0.0004680651;-0.06401568;-0.015430337;0.071193986;-0.03298778;0.044831112;0.044677623;0.007680375;-0.042246353;-0.04387056;0.17075348;-0.0026827953;-0.018083388;0.030731617;-0.05484629;-0.050498903;0.030182116;-0.0027238645;0.07001418;0.012794145;-0.038122397;-0.014723618;-0.01131889;0.0021852446;-0.16517942;-0.0048003104;0.07030534;-0.0018933059;0.087768845;0.018358205;0.038095355;0.03224751;0.04602213;-0.029965708;0.07925896;0.10306561;0.02311685;0.09542201;0.044149913;-0.019468298;-0.062382612;0.16515227;0.09361994;-0.030200364;-0.092432275;0.027254172;-0.002107036;0.012536257;-0.026177838;0.026220659;0.030096713;0.084821336;-0.054845598;0.04301449;0.06180716;-0.03458162;-0.06696448;0.102057844;0.132035;0.021069925;-0.01533019;0.055727012;0.036973566;-0.03755289;0.07468115;-0.024807606;0.0099681225;-0.051147263;-0.04994737;-0.046344098;0.058894753;0.028785313;0.06467524;0.01603827;0.05208111;-0.04397515;0.07443762;-0.030513551;-0.0074113086;0.051733702;-0.0036594688;0.1647502;-0.01835868;-0.041520223;-0.040766176;0.021145731;0.112789325;0.013356459;-0.052881986;0.0009526614;0.10718544;0.038021114;0.060276214;-0.006322152;-0.022323474;0.05682407;-0.029521177;0.02342701;0.04757859;0.061605673;-0.007000312;0.07924991;0.021190165;-0.017519416;-0.006947388;-0.026466182;-0.050244197;-0.002224542;0.13976812;0.07467274;0.0136204865;0.052225087;-0.12618047;0.08489028;0.078931905;0.0711427;-0.08953941;0.05697156;0.022849854;0.05922946;0.07242891;-0.06586054;0.004559003;0.048061207;0.05059639;-0.055059545;0.08028426;0.02050492;0.036008377;0.05502792;0.04835077;0.019133557;-0.032848977;0.028074559;-0.055315703;-0.044180643;-0.035628147;-0.02348038;0.047695518;-0.037122563;0.017285297;0.063848436;0.058382865;0.12680334;0.08266788;-0.010681799;0.094177105;-0.09333235;0.06852959;0.07444212;-0.067076005;-0.031933196;0.024804924;0.09233776;-0.080198646;0.03083618;0.046667058;0.16482587;-0.074683554;-0.02369352;0.0052556787;0.026628604;0.056765743;0.044186387;-0.013347116;0.07069357;-0.039715134;0.02013682;-0.043422338;0.0055622477;0.078147165;-0.07840131;0.060721498;0.14846115;0.0015297349;-0.051735118;-0.020647297;-0.04055322;0.05642671;-0.036350124;-0.088448405;0.024289718;-0.059898287;0.061658897;0.04204142;0.033589024;0.023803515;0.066758335;-0.07509251;0.07472983;0.010229513;0.05950799;0.03366104;0.03366259;0.061501253;0.12641121;0.0034130127;0.057669096;-0.001325025;-0.007874744;0.05350548;0.081391476;-0.028818458;-0.026302824;0.079492636;0.07298363;0.06331672;0.035207383;-0.055378217;0.0348865;-0.040895995;0.08519332;-0.019881487;0.08923296;-0.052458923;0.062276095;-0.008341541;-0.07096627;0.031238997;-0.028366853;-0.025011107;0.0024197428;0.032189276;0.014523113;-0.020694349;-0.08441632;0.09482861;0.087935045;-0.012166009;-0.0037991893;0.010937987;0.06254567;-0.009338729;-0.030577747;0.04451215;-0.005922925;-0.00650022;0.06615758;-0.006235674;-0.10927355;0.08852024;0.101799846;0.03850549;0.036627896;0.050448194;-0.09264365;0.03804975;-0.027286196;0.0077307206;0.06713124;0.10051345;0.07439017;0.04596098;-0.051494673;0.0001363566;0.068491906;0.0056294794;-0.05943084;-0.042975396;0.08408561;-0.0387916;-0.01789997;-0.05906242;-0.048994996;0.0027837579;0.07354866;0.10281946;0.0052806176;0.013029646;0.08245115;0.091225885;-0.15627949;-0.036105454;-0.0132465;-0.009873767;0.05513676;0.023145806;-0.031805392;0.0065986123;-0.05510945;-0.038480066;0.09946076;-0.020207524;0.052084394;-0.11318917;0.09927407;-0.07363234;-0.031562045;0.004757054;0.0038187515;0.056177076;-0.0768196;0.06736184;0.031454243;0.034310296;0.03591367;0.08094917;-0.018149298;-0.037021674;0.057538223;0.029869653;0.06996021;0.041942045;0.034881208;-0.08812178;0.04467634;0.037763476;-0.0048128245;-0.01353597;0.041665647;0.026401106;-0.029026782;0.070746504;0.032322843;-0.017275052;0.07445483;-0.03566355;0.05833145;0.07764883;0.001076647;-0.028585874;0.036720715;-0.019046687;0.050964113;0.03173178;0.07134239;-0.016670482;-0.01793371;0.082303755;-0.021919146;0.011077428;0.03267915;-0.022464441;0.068747655;-0.1021699;0.110888846;0.060132433;0.115353465;0.16115154;0.048914246;-0.12550424;0.06716569;0.0035708926;0.058425926;0.050578408;0.10897687;0.0022387903;-0.05829608;0.0348603;0.09024826;-0.0018324987;0.06539097;0.020361926;0.05673932;-0.11057169;-0.037877798;-0.004836336;-0.020635229;-0.008571568;-0.021371672;-0.09365912;0.044336937;-0.009285242;0.025113316;-0.026545266;0.10030402;-0.04900281;0.0195938;0.17186032;-0.0186053;0.046950985;-0.1887785;0.110022515;0.08825339;0.021256104;-0.018350178;0.05350383;-0.012104546;0.07525416;-0.06399497;0.01906424;0.13295306;0.020292135;0.03304329;0.09903522;0.12297587;0.008777411;0.10282843;0.08493889;0.03719062;-0.14964245;-0.016114991;0.0044430513;0.07730675;-0.055244125;0.09708907;0.034537204;0.056597173;-0.060560215;0.045838863;0.08478509;-0.007438575;0.009714457;0.013501596;0.05720421;0.03436397;0.0726363;0.005222142;-0.051545415;0.07562408;0.06281054;0.106003895;0.016143085;0.053746495;-0.064920224;0.06298982;0.13529159;0.0774357;-0.045006845;-0.10261922;-0.013933769;0.0010551779;-0.020915953;-0.025651459;-0.08173854;-0.0053789783;0.09166449;0.059215646;-0.080562234;0.020953756;0.045941196;0.0025982903;-0.08271448;0.05068388;0.068716176;-0.04630983;-0.0608634;0.011248441;0.013315099;0.046274178;-0.027022867;0.046854585;-0.05210342;-0.014384384;0.082401216;0.077571236;0.039786745;-0.07762242;-0.04928145;-0.031814013;0.040259555;-0.06264655;0.024639223;0.0012434837;0.086869106;-0.03613585;0.048709016;0.054500073;0.027003204;0.0053755;0.064891435;0.013792977;-0.05696214;-0.0108360965;-0.020803448;0.05878806;-0.039661463;0.04680149;0.0095465435;0.03542776;0.07008783;-0.044313703;0.0035954742;-0.021658642;-0.018284312;0.032778498;0.075390965;-0.0694777;-0.005450581;0.024425004;0.04836436;0.012250083;-0.054907057;0.058144208;0.07793498;-0.027538886;0.023546636;-0.06292542;0.033615146;-0.049312983;-0.15853107;-0.00030381628;0.030407017;0.04558513;-0.018274188;-0.051411867;0.010736015;0.059807632;-0.031665448;-0.008229662;0.02305726;0.07948378;-0.0026346357;0.068629265
-0.028732464;-0.113864265;0.008995705;-0.009578065;-0.025788765;0.005976113;0.06584044;-0.055159695;0.13385254;0.084305994;0.030448629;0.010540685;0.101382434;-0.0352877;-0.04775592;0.08762548;-0.026925204;0.11718919;-0.027269825;0.08557938;-0.07597106;-0.0003223255;0.032170124;0.06582793;0.011195157;-0.0064004036;-0.0128575135;0.034301292;0.12206523;-0.039498266;0.07502251;-0.016927602;-0.026603453;0.1461831;-0.047760732;0.07918578;0.14229454;-0.05724721;0.06913877;-0.029478028;-0.050919738;0.069495685;-0.010806441;0.002390207;-0.13296722;0.0032851393;0.002543515;0.03379189;-0.05943111;0.060778044;-0.010418509;-0.08006126;-0.06437505;0.031164782;-0.053725883;0.026324688;0.030090079;-0.057018675;-0.036990788;-0.035040498;-0.018019058;0.0035016646;-0.06639644;0.0030380217;0.034270257;-0.050819222;-0.014935127;0.005669651;-0.04403484;-0.059117313;-0.014411639;0.018040972;0.053244274;-0.121031374;0.03148837;-0.041908763;-0.079387076;-0.06035816;0.046279434;0.041577894;0.07429133;-0.027442928;0.063622825;-0.055290874;-0.049074017;-0.0039450726;0.017248718;-0.036932882;-0.056423817;-0.06557849;0.07694681;0.037882593;-0.027762635;0.111700445;-0.031275578;-0.06696229;-0.10552753;-0.019777656;-0.02867078;-0.03281008;-0.02810743;-0.03730663;0.075434044;0.084707536;0.0658465;-0.06883192;0.017224321;0.044804506;0.029728986;-0.053504664;-0.084196456;0.06189332;0.06796604;0.11752087;0.05673231;-0.026577804;-0.09253781;0.023385134;0.018021878;0.0530964;0.011271479;0.0051641767;-0.04347499;-0.053353447;0.021005394;-0.0006069935;-0.088512674;-0.05283198;0.041704096;0.07300712;0.012638424;0.0014279847;-0.04583088;-0.010998561;0.066793844;0.0530249;0.016452996;0.03981139;0.025242928;-0.001907445;-6.365583e-05;0.0065071406;0.06326057;0.053610045;0.09844575;-0.041226897;-0.1264281;-0.048708342;-0.0148827005;0.0515829;-0.06172095;-0.0038250412;-0.003770787;-0.02279759;0.07109801;-0.096106544;-0.11664154;-0.0037402627;-0.013275486;0.0005968277;0.020099165;0.00024155759;-0.057762224;-0.062634386;-0.04044385;-0.0485744;0.100108914;-0.007982538;-0.09322782;0.031703748;-0.044948116;0.0113661755;0.035625525;0.0751868;0.067145355;-0.0077449945;0.06770254;-0.0036663131;0.07333829;0.10762961;0.12116794;-0.063555636;0.020460939;0.038606517;0.029194241;0.015581162;0.092859566;-0.026118526;0.003704204;0.022032503;0.021708203;0.03217027;0.093455166;0.02446744;0.0542658;0.040742073;0.029474096;-0.042136434;-0.06986055;0.029608827;-0.041906983;-0.084441476;-0.068372846;0.022038255;-0.03963957;-0.04151565;0.08300505;-0.036002994;-0.04014732;0.015682582;0.07460684;0.032595202;-0.065387934;0.045674898;-0.0010069826;0.0767704;0.041635092;-0.04437243;-0.04263257;0.0025880001;-0.039671365;0.11454494;0.020781683;-0.053507164;0.012214343;0.050167676;0.02719328;-0.043121643;-0.07903916;0.056784894;-0.06729675;-0.086355954;0.031689137;0.040723674;0.029706517;-0.0015102371;0.004949267;-0.02333149;0.056445017;0.01850655;0.08372004;0.09216473;-0.013837578;-0.02276622;0.08090165;0.015435787;0.03493655;0.008513014;0.019295888;0.052313883;0.035555635;-0.033268295;0.04762583;0.05353321;0.086291656;0.044538975;-0.010442493;0.08273637;0.007289898;0.050125882;-0.020182254;-0.01408377;9.255904e-06;-0.046128575;0.026272982;-0.062158726;0.052455142;-0.029235752;0.07036461;0.02309182;0.012142327;0.022758808;0.076567344;0.032396063;-0.057936348;-0.055259608;0.070379846;-0.022681817;-0.07941975;-0.018368395;0.075165145;0.04680346;0.08598846;-0.047600932;0.031846806;0.048719216;0.0148208635;0.0043923887;0.0061184354;0.078685;0.016869051;0.08813077;0.028642302;0.016066005;0.037061065;0.0374521;-0.030015463;-0.01841206;0.028936727;-0.055925254;-0.08616333;0.119737945;-0.094853766;0.011058163;-0.07384286;0.033216905;-0.043266904;0.07361156;-0.017223898;-0.012807363;0.014691613;0.017034594;-0.013091707;0.039218247;-0.025187887;0.016837712;0.014116935;-0.017530523;0.04804357;0.042114668;0.004788091;0.110180944;0.06886112;-0.0010184796;-0.0730126;-0.0599251;0.008505676;-0.032399952;0.059325438;-0.051404208;-0.017222436;-0.029795194;-0.04543321;-0.0036582581;-0.108576365;-0.021668738;0.030022884;0.0844427;0.022810118;-0.012306307;0.09144937;0.0528307;0.078554355;-0.04671805;-0.02682986;-0.012005175;-0.032270223;-0.07176535;0.063655294;0.082159474;0.056076273;0.027906986;-0.016997416;0.056636706;0.049501948;0.023583673;-0.07179813;0.035548;0.066658095;0.09531636;-0.044446055;0.0854589;-0.0007965745;0.044594917;-0.015135606;0.0037053342;0.089613736;0.068008915;0.03702441;-0.02506403;0.033747397;-0.039970655;0.083767496;0.059978314;0.007986568;-0.037540063;0.008632262;-0.07146669;0.056324717;0.0257488;0.023480963;0.0063237166;0.1449489;0.034326605;0.104842536;-0.03183264;0.041408885;0.022698434;-0.0702911;-0.06359713;-0.04032654;-0.052457772;0.10447748;0.052462634;0.05245232;-0.080386914;-0.0037208372;0.13403635;0.11759352;0.013403755;0.012577195;0.04584074;0.023456374;0.009256465;-0.016293105;0.16398826;0.022187589;0.110743;0.005099443;0.03658699;0.13310984;0.048444852;-0.046365153;-0.036333498;-0.08700757;-0.013793321;-0.0009489062;-0.010264214;-0.05868946;-0.094212286;-0.020750824;0.053062506;0.02697097;0.053400587;0.06821956;0.002684674;0.03094974;0.040329818;0.10096269;-0.08184114;-0.04978894;-0.062563844;-0.052242156;-0.060898717;0.0911187;-0.019255636;0.025609026;0.0859147;-0.037317198;0.020723835;0.041037716;-0.054490916;-0.005256306;-0.2008653;0.05601504;0.0070107495;0.10173435;0.009660208;-0.06844453;-0.020304719;0.049152084;-0.056605954;0.055686064;0.030991923;0.01898935;0.10621298;0.060312677;0.06196161;0.015115941;-0.057178665;0.024194121;0.045539368;-0.14618288;0.055511285;-0.033426665;0.026482437;-0.090372354;0.018841745;-0.0728608;-0.042308033;0.0541965;0.015483371;-0.013957892;0.027233602;0.07824051;0.061546993;-0.019966181;-0.063566454;-0.033392593;0.005640918;0.044105567;-0.051557288;0.09518568;-0.008325502;-0.04879608;0.042931654;-0.020763945;0.057392936;-0.030877238;0.055048537;0.006874841;-0.10375295;0.0032281135;-0.05087557;0.042615477;-0.052116282;0.028840376;0.06650415;-0.040860098;0.08853164;-0.088034265;0.011352689;0.12791853;0.09390601;-0.050801314;0.026861234;-0.025663331;-0.042600743;0.043848798;0.06196301;0.07077975;-0.015988525;0.05252212;0.071804896;-0.013953607;0.06183872;0.11434601;0.06424132;0.05935444;-0.00022610957;0.036021143;0.006145156;-0.042087644;0.022115147;-0.05237616;0.06131742;0.022422353;-0.033492204;0.06384666;0.069446504;0.0020637068;0.006133698;-0.03769626;-0.06568745;0.035774913;-0.041644093;0.043056667;-0.007826999;-0.124418974;0.056633137;-0.033855163;0.00963061;-0.07406282;-0.011751494;-0.01349504;-0.033407565;-0.019933652;0.043112107;-0.019512936;0.023681078;0.0710418;0.036023304;0.04733286;-0.03957205;0.079374574;-0.025328046;-0.070288755;0.044915475;0.033512853;0.089249045;-0.03894589;0.063580744;-0.040732194;-0.07042752;0.07297503;-0.04206238;0.11630295;-0.07773704;0.04022503;-0.040873267;0.040892024;0.03941793;-0.056679193;0.08790395;0.019980289;0.029162066
0.010770531;-0.04295602;0.07164063;-0.06807956;0.111861475;-0.05770732;-0.01331152;0.06672545;0.06060098;0.11262753;0.06595054;0.03796402;0.11317432;0.07811038;-0.021688404;0.007372868;0.039281264;0.1560957;0.013652916;0.079785064;-0.06377348;-0.010980033;-0.037989106;-0.0072248587;0.026761007;0.04309904;-0.0104028685;-0.0046547116;0.123915516;-0.14138399;0.018400537;0.042799804;0.113073274;0.1194753;-0.045509458;0.050993286;0.12258424;-0.079275586;0.07461544;-0.019519681;-0.037655286;0.0532458;-0.06236811;0.12388088;-0.15987094;0.037024617;-0.038949724;0.010872398;0.084745295;-0.045640722;-0.090867914;0.019237876;0.06804708;0.049357414;0.039361972;-0.06359002;-0.026581855;0.08666187;0.029332558;-0.042281814;-0.094096385;0.07666968;-0.03504262;-0.03494945;-0.0038990404;0.06824989;-0.047449004;0.01166563;0.02291328;-0.0722068;-0.01131896;0.072337225;0.0709395;-0.14095666;-0.03977656;0.097881295;-0.030105459;0.08586835;0.046344683;0.040019408;-0.013280615;-0.047575958;0.056436528;-0.06389682;0.059851456;0.04327609;-0.07709969;0.015739478;0.07063159;-0.014685059;-0.04029061;0.09410442;-0.07912217;0.09060315;-0.010058099;-0.0046418044;-0.09128675;0.06021634;0.0045607425;0.02046092;-0.03023845;-0.12608644;0.06470877;0.118514635;-0.007705307;0.0076258183;-0.027083078;0.03708518;0.0910878;-0.01721974;-0.1132929;-0.004974242;0.07924299;-0.0020815982;0.043697476;0.050422322;-0.071719244;-0.014806719;0.17567779;0.049518943;-0.0319276;0.05130973;0.02857461;0.022168737;-0.022093585;0.02058475;-0.07593959;0.057262767;-0.021099817;-0.04101048;0.02725167;0.099356644;0.0451442;0.05127963;0.019789197;-0.009264705;0.0013089861;0.015482354;0.1338636;0.08020993;0.12251602;0.05004974;-0.0754871;-0.0452364;0.10227501;0.004649594;-0.014832775;-0.06783686;0.09112336;0.008733359;-0.06610341;-0.0555509;-0.042000268;0.05890718;0.074211046;-0.07146016;0.041340563;0.1363613;0.046177987;0.019838216;0.05321242;-0.06029545;-0.01941084;0.024064045;-0.025546966;0.003959309;-0.0067013674;-0.06279346;-0.0419803;-0.023538971;0.007487426;0.056028392;0.0172755;-0.03848997;-0.042635463;-0.05565482;-0.046033915;-0.006581762;0.11137853;-0.00945119;0.13796131;0.07524799;-0.03793399;0.020771254;-0.030131586;-0.05663014;0.0040755407;0.04213137;-0.11815181;-0.0668913;-0.056147587;0.018943252;-0.019456627;0.042258233;0.06657452;-0.030815423;0.06265799;0.08446448;-0.089556515;-0.014877849;0.026542936;0.041096035;-0.05370338;0.040316246;-0.03641518;0.019807091;0.058601588;0.018623732;-0.044352952;0.099608056;-0.09075529;-0.0320736;0.00495566;-0.03151413;0.035210025;0.043999873;-0.01886077;-0.050247394;0.03972366;-0.045737065;-0.026490316;0.058630586;0.049323518;-0.027800629;0.06391695;-0.0012469757;0.095420405;0.021807559;-0.05849401;-0.055164017;0.031894695;-0.12996945;0.0801947;0.10604385;0.0029183433;0.06307513;-0.08607589;0.0043989094;0.08817305;-0.010727051;0.02749361;0.05673329;0.013067357;-0.083720274;-0.016411109;0.081799485;0.09776447;0.09593896;0.13846537;-0.013420175;-0.01350716;0.043171585;0.008973561;-0.0037450122;-0.013444263;0.11044753;-0.0038728116;-0.033059377;0.0062231757;0.07238212;-0.0524898;-0.05203013;-0.0032796229;0.092640124;0.07743628;0.07577344;-0.07288645;0.013958165;-0.05871756;-0.03991617;0.033617355;0.043957338;0.06962522;0.0747134;-0.030139644;-0.00081253715;-0.007859356;0.021121569;0.052103072;0.12382093;0.021261614;0.02075948;-9.205606e-05;0.07515191;-0.014048908;0.055198032;0.051774308;0.120516114;-0.053725697;-0.060492564;0.013939383;-0.010033733;0.009328124;-0.07496581;-0.0025069322;0.08653608;-0.08352513;0.08750321;0.015557197;-0.07959697;-0.109045655;0.116822526;-0.034887772;0.020485343;-0.084668964;-0.071522474;0.006835117;0.057078082;0.083048366;0.046720274;-0.09056782;0.025134755;0.012531918;0.11247106;0.05457747;0.035742242;-0.01921248;0.079161055;0.04855823;-0.032535225;0.04995353;-0.0034348627;0.08449386;-0.07057729;0.07988404;0.016001754;-0.031387854;-0.040504344;-0.026849376;0.020743487;-0.0674366;0.03544458;0.09854891;-0.092863716;-0.00729007;0.06130996;0.025181131;-0.007547568;-0.06378167;0.07777596;-0.027404243;0.037058398;0.10243201;-0.111771286;-0.100608125;0.056140576;-0.0029504218;0.05026175;0.0062928917;-0.027275804;0.042897888;0.027223656;-0.021494534;0.06838505;-0.051838428;0.045531258;-0.18285273;0.019205108;-0.08371774;-0.0031250056;-0.04462406;-0.043074213;0.11445242;-0.041854415;0.029039914;0.060229044;0.034917332;-0.050776046;0.092836484;0.03720987;0.035826873;-0.06544376;-0.031549755;-0.04562332;-0.062245384;-0.101847425;-0.08406025;0.04494055;-0.0588586;0.010698824;-0.021687066;-0.013925705;0.09278211;-0.0795885;0.013150052;-0.0128576225;0.06226318;0.036629524;-0.07044686;-0.030349609;0.07966555;0.054247234;0.037643977;-0.023842461;0.0702079;-0.049120426;0.075667866;0.021627357;0.04048031;0.1780715;0.04251496;0.057694856;0.071363606;-0.005676397;0.0013822449;0.14312485;-0.004613843;0.070063345;-0.045820788;-0.0015076597;0.075178795;0.010581026;0.093179554;-0.06564918;0.066147305;0.0766427;0.069376305;0.02789099;-0.010535251;-0.15208285;0.08949615;0.06565516;0.011020035;0.06794268;-0.021944236;0.011473357;0.00029204154;-0.039895006;0.008048121;-0.06388641;-0.057930384;0.018945914;-0.09925597;0.050174057;0.021073742;-0.043246202;0.074958116;0.089128256;0.05782764;-0.06173522;-0.034197755;-0.06620771;0.07056806;-0.08800824;0.029196974;-0.012092739;0.026158217;0.019232307;-0.037895814;-0.04623945;0.05176427;0.07789493;0.055928532;0.09233869;0.021518856;-0.029091382;-0.044408314;-0.041570943;0.032657992;-0.059378795;-0.026535153;-0.05904571;-0.1693072;0.001687376;0.055665676;-0.012134579;-0.0832795;0.061084613;-0.0035537842;-0.026218103;0.0442165;-0.046104982;0.082403265;-0.058459304;0.07149651;0.036894295;-0.0044394503;0.034328707;0.045085333;0.028240714;0.041177962;-0.016709464;0.012890624;-0.109800525;-0.07416601;-0.05114364;0.06313967;0.007775947;0.10828066;-0.05228561;-0.06073468;-0.19536711;-0.069441296;-0.05334437;-0.008253678;-0.016533075;-0.075397775;0.057308517;-0.052482318;0.05918329;-0.08098864;0.06861932;-0.00794617;-0.052092686;-0.009690536;-0.03651299;0.023494681;-0.033775643;0.054549675;-0.039874434;0.04467651;0.050107393;0.0378417;0.015209824;-0.073950626;-0.016249884;0.14923544;-0.057405874;0.1363247;-0.08868147;-0.03351568;0.07059499;-0.013184038;0.123017736;-0.048255634;0.045529407;-0.06099218;-0.0021081208;-0.062081274;-0.011714838;-0.056757797;0.07242733;-0.014051396;-0.025560727;-0.06277583;-0.017193645;-0.04810395;0.023257136;0.0115134325;0.06432658;-0.06454418;0.013501705;-0.045528643;-0.0019408972;0.0033050317;0.008485181;0.0012924165;0.0815655;0.04426091;0.08860769;0.081227355;0.016146358;0.06899923;0.006839079;-0.0054870727;-0.014936524;-0.013274277;-0.026601614;0.014722033;-0.04405367;-0.061891124;0.010356375;-0.10941231;0.012910398;0.018554429;-0.068628624;0.029497132;-0.06285822;0.0006991594;0.021386057;0.031943616;0.11012633;-0.08128779;-0.021830078;-0.013130234;0.0057565323
0.0126893325;0.012089568;0.029427204;-0.012688875;-0.023602048;-0.0016634396;0.08152422;0.087867424;0.039961535;0.114518724;0.045631643;0.056898713;0.06135953;0.08031389;0.05971531;-0.0040546786;-0.07086465;0.17388746;0.09925376;-0.037191276;-0.059563097;0.031353433;-0.06750007;0.07373179;-0.015874064;-0.044162508;-0.064060725;0.120503314;0.03102812;-0.23109072;0.07018076;0.10433032;0.040716603;0.0983408;-0.022929719;0.021137377;-0.0049276366;-0.050934464;-0.023301927;0.04155846;-0.04373295;0.093094766;0.06396099;0.021623606;0.018208636;0.0558822;-0.07234375;0.05078462;-0.039104383;-0.03162932;-0.11615571;-0.02993199;0.006533413;-0.08099141;-0.060878832;-0.04396581;0.014385893;0.028691143;-0.00025632547;0.01970764;-0.03539253;0.069810376;0.063737966;0.069238305;-0.0745356;-0.06282266;-0.021772495;0.09759901;0.055795718;-0.030959107;0.041932553;0.07947868;0.0347798;-0.06651992;-0.06429029;0.009608315;0.01941633;-0.014173881;0.023459444;-0.029789807;0.0022882738;0.07877596;0.062323492;-0.109617315;0.08452395;0.008592828;0.04491243;0.07113755;-0.06772665;0.046213023;-0.042946506;0.019709263;0.04939761;0.11414528;-0.03322528;-0.05064326;-0.22897816;0.011933324;0.022895955;0.042180132;-0.02513466;-0.10915911;-0.04118722;0.055326033;0.03482183;0.003942883;-0.00810578;-0.046244454;0.12412857;-0.0017093979;-0.12295367;0.0069184196;0.023181397;-0.052175846;-0.053977754;-0.03126674;0.041762404;0.028975274;0.14083903;-0.07579111;0.02741397;0.030992987;-0.024131492;-0.06665489;0.07958012;-0.022666931;-0.020440266;0.04412061;-0.056371015;0.08751543;0.023905557;0.10986676;0.09174797;0.06419327;-0.022093693;0.047054444;0.06432547;0.04347843;0.17018694;0.076193355;-0.05956631;0.020039463;-0.02650368;-0.0011892045;-0.018057793;-0.04416859;-0.032734595;0.071675934;-0.024312813;0.08676478;-0.03298374;-0.06263894;-0.05162031;-0.026260482;0.040141065;-0.09724488;0.013729275;-0.024921875;0.057944484;-0.029221015;-0.025181103;-0.023165818;0.057390355;0.0512411;-0.043492425;-0.046860225;0.0001989743;0.054931123;-0.009949249;-0.0040100864;-0.06432612;-0.008471018;-0.017257003;-0.0517981;-0.029416047;-0.03973659;0.044213273;-0.034206595;0.11946623;0.06769648;0.12961183;0.10784342;0.009213164;-0.050738934;-0.0047815437;0.017755773;0.030446146;-0.0776611;-0.059957575;-0.054356787;-0.034193877;-0.042150415;0.084388465;0.021365143;0.12513651;-0.05224084;0.056416217;0.06281294;-0.037893705;-0.023625096;0.034647327;-0.0926488;-0.053106576;0.040830266;-0.013796393;0.037551664;-0.019692155;0.0431309;-0.02698167;0.16665475;0.04043248;0.004147719;0.081005156;-0.052782014;-0.022320746;-0.004606317;-0.025955085;-0.05952055;0.06678397;0.019685894;0.0142986765;-0.001772932;-0.09772516;0.074268036;-0.0063589946;0.05886537;0.08423633;-0.036373213;-0.035318524;0.056632243;0.04132328;-0.13345495;0.02569798;0.0934885;0.069910385;0.097248435;0.038053885;0.063622735;0.096917115;0.011789365;0.03936181;0.026020613;0.04920475;-0.187555;-0.029208155;0.12363027;0.09889573;0.10020382;0.059557535;0.05387021;-0.0014130112;0.051788688;-0.019496555;0.07562154;0.03602151;-0.0072231637;-0.008947697;-0.025157914;0.086104296;0.095243804;0.026262721;-0.020365588;-0.03432079;0.050381735;0.050645683;0.06275661;0.0649424;0.068118885;0.051620107;-0.044505965;-0.048250344;0.07335065;0.07052281;0.03748358;0.023740139;0.08432571;-0.048371032;0.043400537;-0.0346527;-0.005468821;-0.1139907;-0.05257163;-0.03058472;-0.00013344479;0.0014644071;0.07869464;0.09610349;-0.010467801;-0.00948175;0.020849472;0.005518422;0.043902583;0.049467396;0.050111294;0.04170903;0.14622195;-0.025164256;-0.04446606;0.054913662;0.073453635;-0.061870348;-0.0071203196;0.00521687;0.08732828;-0.040539958;0.0696464;-0.08281408;-0.041642025;0.021545231;0.024317734;-0.07377616;-0.042980496;0.08662162;-0.060055014;0.052998006;-0.032195512;-0.060505845;-0.020690728;0.009136114;0.065447845;0.057920795;0.11085492;0.04645037;-0.07253729;0.027554203;0.048276506;0.0019076015;0.022330208;0.06592242;0.09285213;-0.12111376;0.048456367;0.057781138;-0.08026423;-0.09146868;0.0010991462;-0.03965733;-0.0054151756;0.011482382;-0.07835286;0.045368183;0.07958008;0.01774366;-0.1020248;-0.00022825121;0.09960833;-0.002973624;0.015108576;-0.07640339;0.09501076;0.09267886;-0.06805964;-0.005696526;0.10008848;0.11210454;0.022219537;-0.098706365;0.033287454;0.062235508;0.058712598;0.04429352;-0.08696507;0.030588876;0.043425925;-0.018569084;0.009385394;-0.04969714;-0.0284565;0.0904586;0.07992051;-0.0061607547;-0.055740554;0.011875566;-0.01282636;0.060442522;-0.038191818;-0.045609027;-0.09807019;0.0236203;0.015986497;-0.040091965;0.07783911;0.019689063;-0.005403495;0.05949726;-0.05431653;-0.029325012;-0.033385526;0.02259771;0.022295566;0.04147899;-0.05812684;-0.04032467;0.052020915;-0.008645628;-0.036533818;0.04759653;-0.009374044;0.045508925;0.10387127;-0.03321943;-0.052783392;0.006600103;-0.110819556;0.034348253;0.2373889;-0.01587433;0.0698902;0.0069912793;0.017742762;0.14053656;-0.032991577;0.009261941;-0.06437703;-0.03052551;0.01796977;0.028176213;0.047256026;0.027653309;-0.051242713;-0.021214576;0.0885675;0.015261616;0.064180955;0.1102793;-0.10320259;0.033398997;0.07011845;0.059779167;-0.0055734515;0.02390817;-0.056365002;-0.05144714;-0.027598325;0.10464467;-0.017198004;-0.069206275;0.081872195;-0.009680382;0.025128065;0.13060552;0.0048614973;0.0039813523;-0.17905535;0.1043426;0.04918238;0.117210224;0.0044709947;0.0634077;0.058294393;0.058736917;0.08180201;0.051752806;0.20082408;0.12009211;0.050669312;-0.019289898;0.10690221;0.02283392;-0.003211803;-0.03374495;0.08029786;-0.16905114;-0.0009414204;0.010367013;0.09157112;-0.060169686;0.018256135;0.07534024;0.096232794;0.074694306;-0.045855653;-0.0013707791;-0.06788557;0.023659343;-0.051183723;0.00023192371;0.07924753;0.040714312;-0.048165973;0.0148262;0.07240232;0.041310046;0.026967015;0.079079784;-0.0039030982;0.00019577132;0.11021812;0.047424413;-0.027085328;0.059173055;-0.09804987;0.012381326;0.08755762;-0.007697634;-0.10741809;-0.013672641;-0.067287825;0.036383934;-0.035691492;-0.105166875;0.06056245;0.04348353;-0.03993298;-0.059419233;-0.056250654;-0.0356424;-0.07139389;0.0920325;0.07099007;-0.0032753507;0.0954971;-0.07165912;0.0029217533;-0.006228511;0.03586974;0.1495651;-0.0061839987;0.095810525;0.024917707;0.02696698;-0.048368327;0.014216495;0.084431484;-0.023231778;0.021155396;0.071784995;0.023725;0.07139499;-0.046858147;-0.016220042;0.07273105;-0.017078321;-0.07498908;-0.004544148;0.057089366;0.063056;-0.041688178;-0.012487685;0.008530066;0.0043046963;0.039195545;0.040894076;-0.08501488;0.039284326;0.067585684;0.03417183;0.027501978;-0.05555465;-0.043109126;-0.05908759;-0.065250985;0.09752066;-0.0395323;0.022943683;0.11949589;0.052053005;0.060838353;-0.04634813;0.05244805;0.06824306;0.04063121;-0.13977006;-0.0261855;-0.0055451146;-0.034873676;0.03376376;0.033763662;0.011256622;-0.009027738;0.023096731;-0.08292776;-0.13904391;0.021622203;0.09743861;0.05487093
0.05103831;-0.0037884424;-0.06682985;-0.0863625;0.093465656;-0.039632555;0.08851279;-0.040847287;0.047668833;0.096206345;-0.043638684;0.019559655;-0.02806728;-0.039639417;0.015882188;-0.035781812;-0.058553815;0.21628161;-0.038308404;-0.011820119;0.028797807;0.09471581;-0.02443469;0.055452287;-0.034064893;-0.054043025;-0.031182528;0.08552515;-0.033295926;-0.21689875;0.057162162;0.026219808;-0.023059713;0.046655755;-0.006885817;0.06331402;0.011485955;0.006077582;0.0687077;-0.051452387;-0.080115065;0.12830918;0.10201296;0.087805495;-0.0032631613;0.0010365951;-0.08290472;0.023094868;-0.04927163;-0.058019206;-0.017359387;0.03685413;-0.015534858;0.019707045;-0.051356565;-0.058538247;0.02707728;0.012685015;-0.056205504;-0.03119527;-0.14257456;0.063668944;0.07012712;0.06896089;-0.009942056;0.01264611;-0.03928443;-0.093489096;-0.08015258;0.03809765;0.005111654;0.12489379;0.023519803;-0.051983364;0.106947124;-0.039485432;0.0455358;-0.031992182;-0.054194152;-0.048793808;0.06687768;0.058505937;0.10712323;-0.051203378;0.09291527;0.053424615;0.061037075;-0.062601015;-0.033199977;0.0065036016;-0.044230666;-0.0035290348;-0.053786624;0.05074024;-0.056178562;0.03925411;-0.20640638;-0.0627462;0.012535905;0.030035133;0.024589805;-0.028454205;0.0426262;0.11018828;-0.05974946;0.016592033;-0.00052123517;-0.035839483;0.08344822;-0.018637985;-0.062264953;0.05990488;0.086063616;0.015045289;-0.019893548;-0.08103989;-0.007063191;-0.050557666;0.13823505;-0.13911574;-0.0006413333;-0.026211409;-0.035724636;0.01947297;0.026327236;0.0306572;0.049385834;0.056539834;-0.0031605526;0.022157488;0.06422703;0.06025352;0.059688944;0.036608983;0.066094674;0.08695244;0.0068594697;0.13422628;0.09085927;0.09868769;0.03982147;0.050755087;-0.07105814;0.023390217;-0.013056635;-0.04646791;-0.10392572;0.08112287;0.08388759;-0.037010252;0.045976393;-0.024413386;0.01639494;0.038449563;0.07746555;-0.10800653;-0.05656698;0.021317568;-0.001218317;0.036052518;0.03778945;-0.03860038;0.06933317;0.009463925;0.00018614982;-0.015046831;0.022971751;0.0002753999;0.11685553;0.006929708;0.016504062;0.029046701;0.10186912;0.042679768;-0.028076947;0.08742008;-0.0677526;0.023443548;-0.06855458;0.09508207;0.068544365;0.013001368;0.03148847;0.035603076;-0.12155429;0.037468605;0.024640307;-0.09967588;-0.044745594;-0.038839694;-0.06361381;-0.0034236966;-0.058106236;0.040765025;0.06801255;0.041315064;0.029067107;0.094435304;-0.019454729;0.05372419;-0.03723627;0.036624666;0.09666662;0.08441023;0.07522285;-0.02944566;-0.055457294;0.008010808;0.017867895;0.14332464;-0.0096371565;-0.0219624;0.0033822004;-0.12330702;-0.00027921813;0.14457752;0.029880876;-0.0035991704;-0.019933071;-0.10330449;0.07664628;0.056167882;-0.077188276;0.045754258;-0.052699577;0.012285309;0.08851908;0.050301973;0.01900229;0.04063834;0.036762882;0.04999077;0.051928055;-0.028548853;0.0009970806;0.11238216;-0.053284526;-0.025698604;-0.019645935;0.0009972694;0.01734151;0.027598156;-0.007666069;-0.17862618;0.06577391;0.08192878;0.08381528;0.0034959463;-0.04957002;0.03529938;0.029856818;0.0857914;0.121268906;-0.061040167;0.05801683;0.06414127;0.09106977;0.08117741;0.06465118;0.077612884;-0.04986537;0.03220768;-0.058583684;0.019134756;-0.021061663;-0.020455139;-0.025661584;-0.043189168;0.0634941;-0.009818316;-0.10132891;0.04337934;-0.017036932;0.033970732;-0.0055078897;0.12107213;-0.12295696;-0.04264065;0.04781692;0.0035601298;-0.03910707;-0.042287916;-0.0049569733;0.023350518;0.02727665;0.05468678;-0.011091541;-0.008204522;0.021541303;-0.06965992;-0.061344806;0.08444578;-0.058677316;0.004488451;-0.045203704;0.06591233;0.008916483;0.019172052;0.0018062578;-0.049637955;-0.1241041;0.11197162;0.04215684;0.047054;0.02590126;-0.04646741;0.056425255;0.052309714;0.065453425;-0.08512103;0.0424178;-0.08564072;0.0483099;0.108937204;0.05910141;0.049897972;0.11037629;-0.038567185;0.087274365;-0.011289952;-0.041550145;-0.027174832;0.034157727;-0.004987289;0.014980571;0.027329732;0.03363749;-0.068448834;0.062102664;0.04551842;-0.16655263;-0.004185464;-0.024480363;-0.096393324;-0.08462403;0.008415242;0.06936765;0.12739539;-0.008287372;-0.07120888;0.022420233;0.052315205;-0.023756858;-0.1391971;0.006142332;0.007699856;0.092117324;-0.048878506;0.03935965;-0.041337125;-0.03291372;-0.02674311;-0.11285602;-0.030548884;0.003363884;0.006005979;-0.10905621;0.010207966;-0.011642242;-0.059047364;-0.0048533166;-0.05789386;0.0022062196;0.045096975;0.070832364;0.060706723;0.045714397;-0.055180315;0.034004476;-0.007961901;0.07601619;-0.05615741;-0.015695957;0.085089184;0.0679848;-0.10806036;0.0027262093;-0.12868229;-0.066405915;0.03764794;0.044658538;-0.04539204;0.03171707;0.015370569;-0.04361859;-0.072459616;0.06396877;-0.0020815956;0.09108903;0.024772039;-0.012848124;0.04551611;-0.014326857;0.00071855885;0.058104917;-0.059151188;-0.022833042;0.06396623;-0.031535804;0.101893954;-0.03210325;0.00445641;0.060973935;-0.033262458;-0.104001224;0.15737943;0.034513712;0.0041943756;0.08193276;0.07212392;0.10324146;0.11712659;0.03179964;-0.04347297;-0.04048264;0.03383821;-0.028210105;0.09822979;-0.06727644;-0.12165804;0.05709622;-0.055774514;-0.042210493;-0.0799486;0.06947281;-0.021237018;-0.046286765;0.056111526;0.13747108;-0.07215759;0.011213036;0.038981784;0.0055467454;0.057902183;0.06998058;-0.094555475;0.07255781;0.008943643;-0.0145889465;-0.07784009;0.018773286;-0.004642374;0.00030856606;-0.18578146;-0.03459354;0.07713331;0.08846624;-0.006641536;-0.038947992;0.056413405;0.028880894;-0.063641414;0.050117154;0.240453;0.033070486;0.07425738;-0.02265785;0.042815354;0.056989986;-0.001923799;0.081278704;-0.072812;-0.030428525;-0.06777809;-0.014929435;-0.072257586;0.093871616;0.15189333;0.039035738;0.07465268;0.09925606;-0.12338452;0.08443934;0.056102514;-0.081269436;-0.031291254;-0.06291018;-0.047176417;-0.022320637;-0.037571598;0.056829784;-0.012393971;-0.017976042;0.0034978695;0.023727672;-0.064991064;0.017473599;0.13040297;0.038617313;-0.033307176;-0.078405954;-0.19717914;0.00594273;-0.04315287;-0.080945306;0.040449735;0.042943466;0.02863815;0.048996758;-0.08483131;-0.08355092;0.02141728;0.0117840925;-0.059973247;-0.024255559;0.034227144;0.0614617;-0.06415924;0.031966448;0.024064183;-0.018847672;0.04549425;-0.039562766;-0.013173915;-0.0054860436;-0.022761678;0.09259919;-0.034890186;0.11556789;0.057485335;0.039815705;0.054480225;0.05113771;0.054767366;-0.042902544;-0.02268046;0.010339039;0.060754847;-0.055299357;-0.05784163;-0.055588745;0.06071101;-0.12470442;0.01469964;-0.06558526;0.05925807;0.056453492;-0.05286282;0.024452994;-0.053294796;0.061897334;0.0754698;0.057839915;0.017293597;0.04052047;-0.05097861;0.08502743;0.029028488;-0.024573436;0.0721541;-0.051142585;-0.08855397;-0.03431708;-0.018735006;-0.047745634;0.11165475;0.06811151;0.015983973;-0.024122473;0.029534867;0.03775177;0.0086125145;-0.11490135;-0.040302493;0.09599703;0.037516147;0.022544168;-0.067388535;0.05476733;-0.06957778;-0.10991982;-0.051181246;0.010363531;-0.03549315;0.0063875397;0.008291616
0.015240141;-0.061306916;0.094116606;-0.06511416;-0.042453907;-0.023578111;0.12715466;0.0015216405;0.04258742;0.14946651;0.10797819;0.059169568;0.09083585;-0.08110421;-0.07404369;-0.027303208;-0.0071745217;0.17932637;0.067211874;0.124053314;-0.07918709;-0.02487375;-0.07186124;0.03863659;0.06721154;-0.09336816;-0.042380065;-0.010738376;0.03608004;-0.1726157;-0.043873448;-0.13462391;-0.030228293;0.10897356;0.024820447;-0.0015511031;0.02530711;-0.1118307;0.09497538;0.029534439;-0.060443904;0.035254274;0.108406946;0.021632664;0.0030900722;-0.015508896;-0.04085767;0.029770717;-0.0741438;-0.10280412;0.055232223;-0.036709204;0.011395719;0.10988069;-0.08042453;0.012723877;-0.051137336;0.0659;0.023686143;0.0440362;0.05106307;0.13545191;-0.022199206;-0.005597625;-0.07337998;0.0016086124;-0.058120947;-0.105880454;0.018461885;-0.09487647;0.06624872;0.0084377285;0.004409061;-0.0754934;0.018783022;0.0062607634;-0.049547076;-0.0061756955;-0.020199623;-0.046678614;0.06181338;-0.041775104;0.037229307;-0.01626048;0.007987687;-0.021814214;0.011230629;-0.04303059;-0.118295714;0.016731745;0.05726215;0.033902228;-0.05450717;0.095797755;-0.04567236;0.056927085;-0.12159621;0.005720045;0.049243096;0.035628356;0.082079776;-0.16355933;-0.02912095;0.10516445;0.028553648;-0.11797809;-0.062711336;0.07557347;0.12220837;-0.022549666;-0.13762774;0.061592966;0.07872687;-0.12450197;-0.074702494;-0.08328241;0.087458074;0.053011466;0.105186;0.06807971;-0.12103757;0.057029888;-0.011920897;0.09749124;-0.020116521;-0.004299098;0.059276335;0.019110635;0.102188155;-0.027753862;0.083294936;0.05308683;-0.01743153;-0.0381175;0.03619569;0.014519781;0.05261049;0.06941803;0.030268256;0.03674001;-0.00086211844;-0.010987812;-0.0393085;0.05793795;0.089171514;-0.07261491;-0.15447289;0.0357061;0.044952232;0.060216393;0.024348093;0.024946027;0.0058314805;0.07447514;-0.076950386;-0.0820549;-0.045719817;0.024434466;-0.052417535;0.047849234;-0.06408645;0.03320311;0.018860312;-0.046370044;0.069280416;0.06845649;-0.031742793;-0.057339113;0.010254972;-0.014928978;0.07547421;-0.0055393707;0.028606981;-0.04883179;0.037228692;-0.022134611;0.050163023;0.0694719;-0.094996266;0.019098766;0.1670577;-0.0016041702;-0.05664357;0.015781537;-0.009214364;0.039446797;-0.0744992;-0.05617732;-0.10288729;-0.043220468;0.004891183;-0.078273706;-0.040662628;-0.014613113;0.06615705;-0.035202254;-0.04742082;0.12092868;-0.030299073;-0.067467175;0.029721934;-0.060001776;-0.032056246;0.06644332;0.04655019;0.037347663;-0.05263421;0.16557844;-0.045714792;0.044076618;0.048566278;-0.012670286;0.020935798;-0.03623286;-0.06066903;0.044804074;-0.0041044806;-0.02045571;-0.07511964;-0.07839566;-0.01876663;0.07560539;-0.00151345;0.035191428;-0.013986113;-0.047334213;-0.04669627;-0.087411344;-0.09227099;-0.08755248;-0.06321006;-0.027735837;-0.00072202453;-0.0011263225;0.07578291;-0.01139327;0.029205106;0.007153948;-0.022315139;-0.009409802;0.0746933;0.013206274;0.043543745;-0.092202544;0.023112176;0.033772446;-0.045672424;0.07222014;0.03270713;0.04025658;-0.050340593;-0.08026238;0.16217755;0.014396097;-0.044669498;0.09005818;0.09116141;0.006656804;0.010404659;-0.038038664;0.09116223;0.018970463;-0.015999835;0.060566243;0.0550089;0.012829285;0.0015893636;0.0027848443;-0.038002107;-0.0412259;-0.08223018;-0.005638244;-0.04876991;-0.07800764;-0.038818896;-0.06645461;-0.104454406;-0.0044211457;0.023260554;0.08437373;-0.048708133;-0.005188101;-0.053254105;0.00911419;-0.05555155;0.056976844;-0.01709248;0.1229541;0.041530937;-0.018558664;0.015785258;-0.07084133;-0.050087266;-0.05421461;-0.0257312;0.05659914;-0.09352608;-0.05065312;0.064719096;-0.10656237;-0.066987045;0.041210514;-0.05778409;0.032968573;-0.07743763;0.00052280154;-0.022662213;0.022554604;-0.091342956;0.03678725;-0.07232952;-0.043991946;0.027897308;0.078010336;0.05822688;0.009754845;0.042892992;-0.08687358;-0.06377557;0.06899165;-0.028178798;-0.0051017655;0.07645895;0.0583667;-0.06434581;-0.06407632;0.010533802;-0.042372666;0.011551534;0.085515626;-0.033699766;-0.09075643;0.09729747;-0.012344546;-0.0706854;-0.055367302;0.0070058894;0.021563098;-0.09299687;-0.026021892;-0.10265808;-0.03292003;0.09549517;-0.13566126;0.014464854;0.03646474;-0.014451463;0.085641116;0.05117058;0.0047474056;-0.04941346;-0.07237585;-0.10944286;-0.116205625;0.0057766377;-0.060846183;-0.094990924;-0.059879486;0.03208393;0.1543931;-0.019858288;-0.016639542;0.0012360791;-0.07242407;-0.01597505;-0.0106195975;0.0434835;0.0072652753;-0.027538458;-0.025772138;-0.01631412;0.045569416;0.080258615;0.045933582;0.0099836;-0.1380922;-0.02521698;-0.0031069578;0.022873443;0.1111321;0.087360345;0.02234455;0.038059205;0.053965572;0.026699686;-0.015317443;0.03949389;0.006383198;0.026555084;-0.019208118;0.068461284;0.054138247;0.06773564;-0.047394503;-0.05141904;-0.028172042;-0.014006045;0.04602314;0.012322809;0.10842232;-0.10920964;0.051838506;0.11820051;0.01964478;-0.04784964;0.22364976;0.0027172295;0.1745608;-0.065272;0.051416133;0.0864758;0.06387457;-0.059236776;-0.010628962;-0.11972928;-0.09488048;-0.053041138;-0.0875775;0.06305728;0.020956539;-0.0682783;0.039847925;0.05142251;-0.035957623;-0.017826585;0.05534345;-0.08784999;0.07901438;-0.008406735;-0.075177155;-0.029973423;0.06809813;0.025983343;0.074235864;0.11842184;-0.028516999;-0.06134855;0.0014932314;-0.04988067;0.06534865;-0.038711213;-0.0702645;-0.014591033;-0.16697112;-0.0006340097;0.10038428;-0.04721482;0.13035633;0.03933591;0.054842595;0.047637854;0.04981551;0.048292033;0.24810731;0.057805184;0.102228895;-0.039230492;-0.040007595;0.091164425;-0.06323157;0.10837326;-0.020195935;0.0029284083;0.055312168;0.009413098;-0.030483663;-0.045996405;-0.0066602007;-0.06174735;0.0245644;0.049212884;-0.09307153;0.12682;0.00468031;0.06952393;0.108437814;-0.024934538;-0.01791609;-0.06658068;-0.03381023;0.049067188;-0.030588357;0.046348307;-0.072077125;0.029920647;0.12086801;-0.07111793;0.059276924;0.05539275;0.03037484;-0.0851084;-0.09620031;0.04109378;0.08185698;0.034180004;0.041014217;0.0513761;-0.009046403;0.00066256983;0.0009526883;-0.06402745;-0.038646292;0.093617715;0.074380584;-0.03980354;-0.036934197;0.07226974;0.011440733;-0.027566174;-0.019052196;-0.03548619;-0.07273043;-0.03657718;-0.0101488335;-0.06715584;0.079498366;0.20108946;-0.005674624;0.047951635;-0.06062356;0.07069218;0.00863454;-0.011256817;0.14547974;-0.0007165345;0.11018154;0.036736313;0.03140852;0.09194402;-0.057484392;-0.015087981;0.08576475;-0.0664361;-0.035644587;-0.0042085527;0.011027493;0.03365351;-0.04485148;-0.14771944;-0.055160303;0.094714604;0.029609198;-0.1092368;-0.009760154;0.036493227;-0.06753303;0.015127694;-0.08839687;-0.024222407;-0.06392786;0.0034950215;-0.07846098;-0.033069614;0.082314275;0.06418558;-0.085287705;-0.03035145;0.074028775;-0.07433393;-0.063331544;-0.035375897;-0.05113988;-0.19833;0.07535133;0.06513397;0.060819335;0.022968316;0.051164694;-0.032214068;0.04984192;-0.08083587;0.0074727084;-0.046671335;0.020944139;-0.011197463;-0.00062960543
0.044808615;0.009820772;0.006727871;-0.04466496;0.014615964;-0.034388516;-0.01605223;-0.059072275;0.0055370657;0.10803569;-0.045595188;-0.017018149;0.11779709;-0.052882202;0.014955539;0.040642865;-0.065929435;0.09446841;-0.07707596;0.11422757;0.05232741;0.019995805;-0.11344132;0.064654656;0.09348438;0.0358023;-0.070134655;0.043021962;-0.01001308;-0.063922554;-0.04594963;0.052672833;-0.043993194;0.023241881;0.094425924;0.053644706;0.01881263;-0.04047332;0.07461803;0.03949729;-0.05803188;0.04513801;0.014747971;0.0076597864;0.13507923;0.0925629;0.06636536;-0.052230496;-0.011704454;0.082777314;0.0016274125;0.054798592;-0.029926313;-0.008800692;-0.03593326;-0.07699434;0.028488943;-0.006401696;0.02488906;-0.055548113;-0.06493337;0.07855835;0.040819038;0.077759;-0.056114063;-0.07039436;0.011612177;-0.016221987;0.058129482;0.07262102;0.09719569;0.05200272;-0.032016113;0.08093107;-0.10341423;0.06534215;0.020453328;-0.049385976;-0.03116156;0.05444767;0.042338617;0.018987494;0.111231886;0.06065817;-0.039567485;0.10481307;-0.038945034;-0.04769714;-0.0037515343;-0.059710454;0.0006312455;-0.050667886;-0.010790298;-0.04702873;-0.042216968;-0.03480578;-0.1719054;-0.039403256;0.021162637;-0.0035907095;0.062234107;-0.10186031;0.022939237;0.07031003;-0.062938035;-0.02742891;-0.07922375;-0.020404756;0.099721685;0.037447523;-0.033799663;-0.0019045767;0.03126771;0.016504763;0.0929328;0.05615422;0.058111485;0.016514946;0.058235273;-0.09802921;-0.15622015;0.069674;-0.011111517;0.054454774;0.026479628;-0.013794563;0.07413528;0.07929854;0.047729652;-0.053707566;-0.012790706;0.08298778;-0.05841522;-0.07579416;0.108750425;0.019596264;0.020820055;0.090346634;0.07118976;-0.008194468;0.020705797;-0.027372897;-0.014177188;0.029981991;-0.036331225;0.10364942;-0.11298071;-0.025345087;-0.02398432;0.002782705;0.043842472;-0.056249786;0.038438916;0.023105854;0.024217015;-0.086963035;0.011588393;0.009096064;-0.005291063;0.024878196;0.017676422;0.0064645894;-0.01823359;0.0055092364;0.008925836;0.034843706;-0.0066804313;0.07380826;-0.06469013;-0.009958333;0.061180916;-0.04706662;-0.04313199;-0.005734378;0.023006748;0.088773035;0.022101505;0.007911379;-0.014195658;-0.053689912;0.09754018;0.0981318;-0.048203528;-0.017125469;-0.082927026;0.0017633174;0.06786364;-0.1354791;-0.12561591;-0.08359921;0.031514328;0.0154434955;-0.0061935363;0.0130927265;0.085003026;0.02374941;-0.0059989095;-0.04118235;-0.006694799;0.021741133;0.011654639;0.050060928;0.022124518;0.07008392;0.04598142;0.043854807;-0.009685286;0.05664727;-0.01808815;0.02002592;0.067711204;-0.0378721;-0.06280092;-0.086514436;-0.05328889;0.054378543;0.014808758;0.006472931;-0.03198373;-0.07523604;-0.064751506;0.031031841;-0.07239155;-0.076967075;-0.0837917;-0.013295812;-0.115739346;-0.08672827;-0.10726185;-0.011060958;0.10026473;0.041586414;-0.05390971;0.018858107;-0.03720186;0.011051565;0.012876185;0.03925165;0.03045759;-0.025571188;-0.010115511;-0.06825853;-0.0015411502;-0.09052646;-0.033890467;0.12638041;0.03444039;-0.07046983;0.06563526;-0.061126266;0.036358923;0.013741399;0.17104821;0.010234138;-0.025474042;-0.03819761;-0.018112129;-0.061659694;0.08713046;-0.004084656;0.04211501;-0.044794373;0.025656238;-0.04316121;0.0026311814;-0.070210904;-0.030209461;-0.009365135;0.06298721;-0.009111752;0.0024531481;-0.0907975;-0.025131917;0.044648763;0.0183993;-0.052229494;-0.0627338;0.07088477;0.006097497;0.09185575;-0.0029731235;-0.006633901;-0.057403676;0.06950864;-0.047488112;0.09471252;-2.2044842e-06;0.029983617;-0.011253508;-0.017247608;0.022124581;-0.07995029;-0.02144461;-0.021438625;0.03151939;-0.034334797;-0.052809827;0.01568797;-0.0061205155;0.03866972;-0.046564918;0.11212174;0.011384275;0.10628733;0.011141789;-0.017062582;0.049786527;0.054793857;0.035283055;-0.008399322;-0.0054705027;-0.04223205;0.023067739;0.02338526;0.088075444;-0.013753184;0.021373406;0.09398973;0.058995005;0.06571343;0.09949732;0.055996332;0.017501004;0.0032500548;-0.055723745;-0.0042502913;0.039079558;0.09973715;0.006271081;-0.03627774;-0.092600144;-0.07286606;0.061112165;-0.06640745;-0.030045431;-0.045746077;0.04309785;-0.018575618;-0.044677675;-0.021378832;-0.02707433;-0.029698422;0.010957813;-0.055839702;0.08488128;0.079972506;-0.041359037;-0.0695462;0.023714691;-0.058286805;-0.039670903;-0.08067885;0.033511084;-0.04846332;0.022479527;0.078649454;-0.058714665;0.020151434;0.036589146;-0.0206461;0.04797339;-0.057726726;0.13087618;0.0102461735;0.085284814;-0.0030559078;0.011121027;-0.014356424;-0.052567713;-0.08693331;0.0239422;-0.07725463;0.012015354;0.029665077;0.08584824;-0.02354563;-0.08184584;-0.013877811;-0.0826398;0.04242209;-0.06118477;0.062142003;-0.024965484;0.0004417077;-0.029648868;0.020208536;0.068203546;0.022215802;0.023731023;0.053556804;-0.0018112522;0.076124415;-0.016176656;0.10042516;0.044528197;-0.064189106;-0.042674735;0.046956617;0.016127713;0.12035138;-0.1099951;0.001500388;0.064839825;0.032880794;0.09581916;0.054043565;0.07677384;0.039013755;0.03167378;-0.046119392;0.068878815;0.0970693;-0.11626392;-0.036337342;-0.038798984;-0.07039619;0.06038172;0.03854245;-0.05830564;-0.021643829;0.0464327;0.03438086;0.04473543;-0.091209404;0.027949534;0.05136803;-0.0489672;0.05012214;0.06867967;-0.024861293;0.064714156;0.053763684;-0.018270664;0.040337104;-0.031805687;-0.10293017;-0.055863917;0.0035434244;0.004993501;0.051418018;-0.029369056;0.048286434;-0.005334591;-0.22320296;-0.05281487;0.060350135;0.005565403;0.04358214;0.08041766;-0.045367226;-0.017114284;0.09253836;0.09196876;0.048222058;0.050856665;-0.034919128;-0.07746556;-0.044388406;0.17124715;0.08103295;0.0057412377;0.025963224;-0.06769255;0.009370028;0.019784605;0.032859046;-0.0071619796;0.10436251;0.0695153;-0.031354364;-0.003754985;-0.020356977;-0.05325557;-0.06637266;-0.07018813;0.0979435;0.03112287;0.086048536;-0.040220007;0.043832287;0.06914117;-0.020458587;-0.032125033;-0.03439649;0.07675794;-0.06633194;0.0114092;-0.044584647;0.10830137;-0.081708066;-0.06713394;-0.1939975;0.015782181;0.0018598712;0.047905944;-0.011037243;0.07608474;0.050163426;0.036351807;0.026403256;0.020578677;-0.047218196;0.032450937;0.042163525;0.027225027;0.07455354;-0.007619246;0.056314286;0.04455611;0.07745385;0.062491514;0.038201217;0.041444432;0.03253439;0.014890822;0.009355003;-0.029067734;0.014396398;-0.033353146;0.02580889;-0.03003167;0.06552849;0.06022712;0.12174133;-0.018623104;-0.052735046;-0.045782994;0.018589636;0.013524556;-0.054375477;0.05069858;-0.03244624;-0.047239542;0.081572;0.05199755;0.045506284;-0.032271713;0.033872347;-0.049353;-0.06704927;0.0054222606;-0.0057457006;0.06389079;0.064176515;-0.06375055;0.09343249;0.082040705;0.033918492;0.061508976;0.025079189;-0.03053787;0.060253136;0.0033743433;0.08567428;-0.07921388;-0.022670921;-0.027666574;-0.036476836;0.038088482;-0.0844851;-0.030593669;0.056563612;-0.19775985;0.07882212;-0.0596444;-0.042071234;-0.02310103;0.102917194;0.05577852;-0.023065843;0.028815601;0.015815875;-0.15611199;-0.04229949;0.010191198;-0.081221096
-0.042743072;0.003110418;0.07141908;0.021588745;0.07128941;-0.012655955;0.027594347;0.0030270207;0.08629827;0.029965539;0.017510582;0.039060723;-0.03217784;-0.024352385;0.020864617;0.024987774;-0.008090924;0.016397126;-0.029604219;0.083580464;0.08031379;-0.020230867;-0.0031393445;-0.05747403;-0.022230249;0.0543529;0.016453335;0.039226424;0.10851613;-0.08258269;0.045515954;-0.10471481;0.06835439;-0.122301325;0.086563215;0.06274972;0.08259208;0.053356826;-0.069687314;0.041396044;-0.056556184;-0.016974894;0.08308977;-0.015335203;-0.0072133928;-0.038354356;0.07456563;-0.07273207;-0.00025512988;-0.05709814;-0.016205773;0.05587327;0.0710126;0.0385985;-0.053582706;0.020721504;-0.039510325;-0.058885552;-0.032009955;0.013466153;0.018861158;0.024024893;-0.01693062;0.050100964;0.065293044;-0.03631484;0.04872032;-0.040184718;-0.05843685;0.028157799;0.056045216;0.081767924;0.059167787;0.036151733;-0.03457469;0.10042667;-0.028803052;0.031090597;-0.024474464;-0.061329655;-0.06819202;-0.01414615;0.072620176;-0.034016695;0.019588428;0.07998313;-0.009138637;0.047928967;0.067283034;-0.039174613;0.09070364;0.088931344;0.063155316;-0.024175338;-0.045746777;-0.011143896;-0.16932905;-0.04369711;-0.059261058;0.014238486;-0.03218826;0.050302956;0.00014958961;0.09292334;0.05770621;-0.07363329;-0.07025035;-0.045904282;-0.0048944927;0.0938216;0.013932256;-0.00514985;-0.0154940775;-0.033975836;-0.012802377;-0.047363497;0.1275048;0.07291636;0.017405087;-0.028556166;-0.09122563;-0.070026875;-0.027734661;-0.069068275;0.043251406;-0.011119939;0.039272405;-0.054397833;0.0104654655;-0.05004748;0.015769284;0.024994567;-0.032073226;-0.018940317;0.10125913;-0.030064818;0.07516209;0.037640862;0.037679747;0.07993248;0.07313841;-0.042546272;0.054757264;0.0689486;0.019977238;0.006047505;-0.1103941;0.04551905;0.045654684;0.004001764;-0.034205016;-0.011461333;0.031093623;-0.016781855;-0.019854087;0.06377253;0.03668209;-0.010121943;-0.006661584;0.011593889;-0.04432418;0.030986743;-0.055460952;-0.0726798;0.06533031;-0.056474783;0.04133424;-0.025371082;0.049865328;0.003383066;0.049607094;0.03371135;0.039071366;-0.027052827;-0.027363908;0.0138462195;0.05190506;-0.049558394;0.028218344;0.060736757;-0.021075567;0.0075307754;-0.01937413;-0.0008080429;-0.095454976;-0.012970354;-0.008536333;-0.03390657;-0.11454482;0.067289956;-0.01018199;-0.035746682;0.07267233;-0.014343077;0.10206289;0.010048237;-0.012433756;-0.010315206;0.12457972;0.04088007;-0.009671884;-0.0042750225;-0.026734143;0.05174026;0.022242298;0.0046597254;0.09069028;0.055890273;-0.05442855;-0.030374132;-0.010105029;0.057346568;0.016180992;0.012117395;-0.10140191;0.04200745;0.050877858;0.06886922;-0.0570982;0.023355594;0.08765686;-0.03915517;0.045685865;-0.09940303;0.024552139;0.026655413;0.026526222;0.054076858;-0.037579432;0.026642403;0.022972848;0.10593108;0.0412752;-0.075232334;-0.023256801;-0.03593408;-0.01885103;0.0849295;0.039241772;0.05918753;-0.060950495;-0.055244986;0.016621236;-0.045409065;-0.06856581;0.0010450768;0.07680523;0.008546698;0.0648911;-0.028669136;0.065803684;0.07755753;0.12876703;-0.052448716;0.057051092;0.05725005;0.02490435;-0.03816996;0.112828195;0.052207865;0.05115728;-0.03878081;0.04317357;0.019562867;0.10548162;0.038034726;-0.0062726066;0.014871454;0.036852032;-0.024337923;-0.024890086;-0.007849313;0.07705224;0.07457157;0.08432381;-0.0022397137;0.017984996;0.07025643;-0.06962507;0.06585643;0.051812403;-0.09602927;0.080109894;0.118792824;0.0023862012;-0.022052048;0.056555998;-0.017504767;0.054620676;0.04676117;0.017486442;-0.078672476;-0.064228;-0.041914172;0.0009035336;-0.08699238;-0.10711981;0.036010016;0.050949726;0.08726428;-0.09149859;0.099958114;-0.066348575;0.112328686;0.03151925;0.038119424;-0.09518589;0.036353048;-0.05539157;-0.075114004;-0.048180915;0.018646413;-0.047216464;0.004857729;-0.043515325;-0.073064804;-0.0033452278;0.04959883;-0.026105134;0.046224732;0.10900907;0.083551936;-0.04924158;-0.02042195;0.020046448;-0.024816377;-0.042507306;0.0056267343;0.008711155;-0.048061542;-0.04586087;0.04897394;0.052519206;-0.06882833;-0.03708471;0.05709066;-0.045049507;0.009948348;-0.086283796;-0.061120797;-0.03449994;-0.06293149;-0.0014759471;-0.022284983;-0.046240207;0.007387145;0.04902324;0.054187667;-0.0045576436;-0.009185359;-0.03635694;0.0052974327;-0.01360885;0.06492258;0.011762317;0.03332144;-0.21116911;0.08324886;0.005203623;0.08109783;0.05455647;-0.05530172;0.069898106;-0.011738139;-0.0404394;0.027714146;0.06583333;-0.035631884;0.055561762;-0.08755238;-0.001697466;-0.045858353;0.04172441;0.033893384;0.02202511;-0.00019357211;-0.017255662;-0.017358663;-0.08019195;0.019979661;0.030640058;0.09805094;0.0081369905;-0.055673704;0.060498312;-0.018019546;0.007644176;-0.08178168;-0.045884617;-0.013566016;-0.057746578;-0.007878861;0.030267151;0.07452494;-0.05839495;0.012759769;0.060821984;-0.057808135;0.04914445;-0.004889726;0.017638829;-0.03678242;0.07599013;0.008710889;-0.05865167;0.13006459;-0.044301737;-0.0132654235;0.029971024;0.08647629;-0.010986659;0.030177528;0.01969384;-0.012773788;0.08242279;-0.03763678;0.062390126;0.026658097;-0.05803045;-0.08109256;-0.038749818;0.08690287;0.018236473;0.038056195;0.058679566;0.03417488;-0.07839386;0.0011402483;0.09458969;-0.0733601;0.0001645746;-0.01479006;0.08950328;-0.034075238;0.0029243734;-0.04881149;-0.023416353;0.06881513;-0.007266592;0.049375825;0.028231641;-0.026673935;0.03444988;-0.1383131;0.043736987;0.08567102;0.0036823312;0.016177583;0.06280833;0.0687524;0.036005665;0.067079134;-0.006379743;0.114756815;0.08404255;0.0791739;0.0425076;-0.110059254;0.08334733;-0.023658795;0.031137552;-0.078406334;-0.07481797;0.035081513;0.056903213;-0.0008555552;0.042267613;-0.034373797;0.05497366;-0.032074496;0.0045940117;-0.06274036;-0.031418696;0.06339417;0.047709446;0.06423832;-0.06235601;0.046356127;-0.07396106;0.070304185;-0.020002197;0.05326893;-0.041413866;0.07340718;-0.06718176;-0.043431863;0.07287948;0.010188359;0.052853808;0.07230141;-0.06944872;-0.10675452;0.07336172;-0.008821639;-0.048953366;0.050014224;0.034817986;0.035312127;0.09627617;0.04801743;-0.11346711;-0.04228816;-0.042933725;0.0854986;0.08803372;-0.040487282;0.031153027;0.010549967;0.035860155;0.0612001;-0.006996643;0.0043643145;0.018239278;0.054027967;0.05166646;-0.030728202;0.0108152125;0.02473491;0.04351115;-0.04143988;0.028082183;-0.04063061;-0.0035756626;-0.053108778;-0.055315856;-0.059819143;-0.000117764364;0.052813303;-0.054703232;-0.060228582;0.020201413;0.06769035;0.0045140614;0.028299583;0.016388291;0.031236531;0.030875916;0.058043662;-0.00017762501;-0.044217594;0.025215862;-0.053181067;-0.004948471;0.021038633;0.073834874;0.013253812;-0.023290355;0.037199914;0.068540156;-0.006684974;-0.07360337;-0.028214486;0.073852606;-0.017231392;0.057853173;-0.00082570966;0.01904018;0.02393146;-0.041062895;0.044601094;0.05104139;0.056880694;-0.17682947;0.0008367753;-0.054394443;0.008562132;0.011797473;0.1005618;-0.057053637;-0.006930821;-0.041807458;-0.0035371117;0.001090857;0.046160284;-0.013612459;0.029913986
-0.024868492;0.0001164183;-0.06632817;0.004797566;-0.024694102;0.058203004;0.059898082;-0.017393695;0.058226958;0.06503522;-0.058549967;-0.0054391013;-0.034610476;-0.06760469;0.06926245;0.085220344;-0.058010533;0.07082479;-0.054613672;0.07057685;-0.06527755;0.07619408;0.019624144;0.049982093;-0.071320996;-0.07882214;0.027271392;-0.024861239;0.045691635;-0.1748098;0.081046574;-0.028183285;0.07761618;-0.04618305;0.047475763;-0.0019664005;-0.011106212;0.04938718;0.05763192;0.032841925;-0.07242825;0.046919443;-0.06462059;0.080834106;0.033389192;0.101668105;0.08551858;-0.06549145;0.034687553;0.08051783;0.031688575;-0.036399677;-0.04106058;-0.03436851;-0.08850277;-0.031328376;0.03864271;0.073762186;-0.055207353;-0.019658774;-0.11555949;0.00105195;0.08046046;-0.049578033;0.049800895;-0.0043002716;-0.037537973;-0.03975788;0.03710799;0.027390147;0.013896555;0.063677914;0.036205992;0.062562875;-0.06813542;-0.041882496;-0.048986338;-0.05771929;-0.07473333;-0.029993989;-0.039191414;0.09219517;-0.017672675;0.089090034;0.013021661;-0.025917592;0.036095243;0.037456393;0.021982383;0.025545599;-0.030824091;0.09795095;0.06943863;-0.0074740755;0.09452894;-0.06698894;-0.065088704;-0.046703015;0.061960544;-0.020011356;0.028090008;-0.014744918;0.09516239;0.08193997;-0.06938563;0.02257049;-0.007829116;0.09129934;0.09215703;-0.023979483;-0.13531229;-0.07336911;-0.016412485;0.087520406;0.055746075;0.01573594;0.1523083;0.00027827907;0.0491775;-0.10004373;0.0026849608;0.056126583;0.074621804;0.045013476;0.009870663;0.05460859;-0.0669753;-0.07184268;0.0034961796;0.0004092534;-0.0478818;0.07966983;-0.0065582586;-0.065644816;0.03678612;0.016401784;0.009062289;0.11127168;0.080955945;-0.00079312024;0.06396858;0.05487013;0.08837585;-0.050682127;0.047952555;-0.06503082;-0.085965976;-0.0711678;-0.053666506;-0.03010935;0.043820143;0.07075346;0.056609686;-0.019070355;-0.010483301;-0.11935502;-0.032226533;0.04367582;0.023577884;0.07650815;-0.068154104;-0.06263189;0.01909504;0.04205886;-0.04326737;0.08157629;-0.06386019;-0.0012886919;-0.049166095;0.035109226;-0.027978547;-0.04663451;0.032581717;0.0031940842;0.02970063;-0.011922742;-0.068551056;-0.051158886;-0.11615663;-0.02651038;0.06948735;0.006850016;0.037064318;0.07922957;0.012290004;0.044290937;-0.0652968;-0.03819178;-0.014638842;0.0766659;-0.012481086;-0.0026186968;-0.035082195;0.03640757;0.027954616;0.009523662;0.009403382;0.057855684;0.031448502;0.07850735;-0.06901258;0.008813726;0.04874376;-0.049832463;-0.039000235;-0.022814836;0.0011229897;0.026476612;0.07105862;0.043980762;0.035337143;0.072258204;0.052670684;0.032639813;0.052358307;0.008997474;-0.024269825;-0.059842046;0.041210543;-0.07256507;0.046777893;0.08863778;0.072497554;-0.046725266;-0.007164298;0.09690438;-0.004776371;0.051043358;0.00093657454;-0.10752343;-0.0014681023;0.045576144;-0.043500528;-0.024654156;0.029976029;-0.010741709;-0.060552366;0.042592898;0.10367701;-0.022790067;0.04638016;-0.0012995086;0.03356043;-0.0998451;-0.029783674;0.038531225;-0.0033797112;0.016388893;-0.032648113;0.0680739;-0.086545445;-0.034417514;0.10695723;-0.06876419;0.06983035;-0.006676041;-0.029237218;0.053125437;0.052776393;0.01699555;0.06280926;0.023500048;-0.017006887;0.047796518;0.073388524;0.08939249;0.030256165;-0.020058347;-0.007763533;-0.017910903;0.07544421;0.07907382;0.072895706;0.024568997;0.058980837;0.05604676;-0.01457892;-0.06380485;0.027468784;-0.047517966;-0.0873529;-0.08530429;0.04069542;0.13449742;0.036852214;0.019877601;0.06568195;0.013282214;-0.010825606;-0.07716393;0.038765013;-0.06425585;0.00659948;0.089496516;-0.05270417;-0.06945964;-0.059621725;0.06698593;0.064746104;0.03236183;-0.025328092;0.05426672;-0.059546087;0.029974552;0.071299665;0.054194022;-0.026899833;0.064121716;0.0063136304;0.0023049184;-0.059562504;0.0667628;-0.019524373;0.0032723756;-0.05320856;-0.04767116;-0.0049261013;0.108232856;-0.04280525;0.068564646;0.03372451;0.020717038;0.008762436;0.07199593;0.08539673;-0.007939636;0.0031363447;0.008772264;0.012082672;-0.03918184;-0.059949677;-0.04033325;0.00138838;0.051004168;0.01152368;0.0117327785;-0.03639118;0.018163824;0.055565946;0.020915475;0.087673955;-0.024333987;0.11616084;-0.10155993;-0.03844745;-0.024821913;-0.0663525;0.060632873;-0.015363855;0.05930344;-0.055847973;-0.046603836;0.058381155;0.039520744;0.013289255;0.053297713;-0.12772956;-0.057603836;0.04126748;-0.01893185;0.008452087;0.047099788;0.07206612;0.0003525666;-0.010721387;-0.06549511;-0.00045418422;0.044725582;0.046531893;0.01898244;0.07815495;0.0686605;0.05611899;0.091692954;0.06412189;-0.14547902;0.04639255;-0.027384223;-0.007339534;0.09612781;0.03900737;0.06994837;-0.0017045995;-0.005583055;-0.03640294;-0.0873097;0.023899129;0.07890337;0.07766131;0.005737507;-0.03445061;-0.02398129;-0.06231282;0.052803945;-0.0040507526;-0.002041214;-0.015255467;-0.058154713;0.07702035;0.08457596;-0.0995478;-0.00889074;-0.07297886;-0.050408784;0.04032594;0.0010314139;-0.022917476;0.05161118;-0.053963233;0.05820871;0.0051366133;0.08419046;-0.104053214;0.0054014837;-0.058125913;0.03371819;0.033665404;0.046849467;-0.029772205;0.036859408;-0.058934614;0.10325964;0.059748154;-0.022187898;-0.05683986;-0.046000984;-0.016343739;0.03068158;0.008174929;0.054464146;-0.059902716;0.02363197;-0.01798286;0.069197655;0.08700715;0.007483806;-0.075855955;-0.007906799;0.047760252;-0.06219543;-0.007610114;0.009606385;0.002097696;-0.19694445;0.0438346;0.053396657;0.104579724;-0.0781543;-0.017678952;0.045882344;0.094286636;-0.06895152;0.024074642;-0.013684293;0.13614854;-0.003089296;0.03432511;-0.06457651;-0.01545265;-0.047615364;0.020513345;0.0114558395;-0.020502033;0.065352835;0.012738981;-0.020418776;0.1446299;-0.035669345;0.020477127;-0.049922038;0.06161191;0.025106525;-0.008645575;0.052827254;0.050580774;-0.024063082;-0.014906649;-0.06078734;-0.07817498;0.009390917;-0.006734839;-0.02174416;-0.014333015;-0.050339084;-0.08063581;-0.010034266;0.0442434;-0.022727536;0.0088410955;0.015519051;-0.057794116;-0.14140868;0.05832012;-0.00895936;0.076766364;-0.1132546;0.0177011;-0.032517754;0.05938432;-0.038235713;-0.11649214;0.016048891;0.041670013;0.040698607;-0.07037208;0.019405186;-0.03505319;-0.07928129;0.12084762;0.052633066;0.013977363;0.051899184;-0.013648092;0.05767315;0.015387068;0.0071520125;0.01847526;-0.04499489;0.045090236;-0.00078643794;-0.041360293;-0.04729358;0.06936489;-0.06146998;-0.026814695;-0.06790428;0.061183088;-0.030102624;0.07384444;-0.023699585;-0.024968246;0.006796813;-0.026957944;0.07334743;-0.07190847;-0.030840155;0.046228867;0.03441912;0.049134128;0.020864977;0.050329074;0.048698753;-0.026933951;-0.055119824;0.06722278;-0.038828343;0.01428596;0.056544587;-0.038683437;0.0888881;0.021368973;-0.013408595;0.027444826;0.07996703;-0.06577895;-0.025332358;0.01931752;0.08438526;-0.07867432;0.062352084;0.07313503;-0.032382943;-0.18456794;0.0090493765;0.04379344;-0.0027712109;0.067468345;0.01703194;0.057397533;0.03509876;0.0913106;-0.09860286;-0.07137329;-0.020755332;-0.019660054;0.052527666
-0.039849736;-0.024145178;0.07130982;-0.110033005;0.06870233;-0.01865801;0.062229767;-0.07066421;-0.08016994;0.07846294;-0.054487314;0.042154536;0.053671647;0.07037985;0.02293047;0.0665458;-0.07650143;-0.027504459;-0.019676676;-0.0053982474;0.034424365;0.038692832;-0.02161716;0.013995772;-0.05122221;-0.033357218;0.080944486;0.020001264;-0.013959004;-0.18625882;-0.053128608;0.039085306;-0.046002433;-0.109148085;0.05606743;0.08189767;0.10255606;-0.05627167;0.040030837;0.034803174;0.0068898946;-0.045910727;0.00077081;0.030627647;0.09064638;-0.037029114;-0.044812493;-0.0033295546;-1.0959768e-05;-0.05175567;-0.02591213;-0.09989824;-0.05190306;0.05115247;-0.046935994;0.08635967;-0.04839356;0.042301524;-0.06636975;-0.0027396062;-0.13122387;0.04804827;0.07501878;-0.014112566;0.027425194;-0.030428348;0.0032681369;0.029886553;0.08869504;0.08245875;0.011070744;-0.064733736;-0.035793696;0.026740422;-0.002186405;-0.057937637;-0.0008697668;-0.123076655;0.02690486;0.036885597;0.059010163;-0.012530773;0.10792884;0.024643274;0.029467896;-0.13717222;0.10648919;0.019481461;0.08018314;-0.06343464;-0.0010644491;0.048957005;-0.02607679;0.042561643;0.09133662;-0.041872047;-0.14984907;0.025952004;-0.031972762;-0.02569545;-0.06488161;-0.010920331;-0.024383355;-0.04624;-0.010199012;-0.09669943;0.06410307;0.014063956;-0.033474173;0.09480645;-0.15899912;0.05370157;-0.006856105;0.12744094;0.024445893;0.0818935;0.14799723;-0.032333575;0.086089715;0.003293842;0.017791312;0.087738365;-0.014810265;-0.015015766;0.044291887;-0.050239693;0.0003391451;0.09212776;-0.0095124645;-0.017710794;0.08534748;0.022071317;-0.07090388;-0.02396842;0.12068226;0.0101419175;0.040077906;0.07855371;0.04542186;0.025737308;-0.03397844;-0.060647354;0.026659982;-0.040473044;0.07980077;-0.057890203;-0.056161255;-0.03776042;0.0049010967;-0.06098548;-0.0015058222;0.06163968;-0.002029265;0.032248516;0.065027416;-0.043720733;-0.11325332;-0.0740063;-0.006762024;-0.058294635;-0.03385174;-0.008231196;-0.047632128;0.0045507373;0.06888628;-0.019704647;-0.027799774;-0.055605873;0.038265157;-0.05523029;0.049939368;0.021937516;-0.0602176;-0.0075843157;-0.054075014;-0.034067083;0.08762252;0.02676073;-0.1552952;0.016553659;-0.011582221;0.062457725;0.0628728;0.059314277;-0.07362583;0.10065114;0.013426321;-0.10873382;-0.10694316;-0.017847385;0.08228198;0.054490674;-0.026309714;-0.07796875;-0.008976741;0.017739031;-0.06044837;0.040975925;0.023138238;0.10308275;0.07146008;0.030436378;0.07615572;0.06304621;0.03509654;-0.055487063;-0.05840964;0.059991427;0.077425316;-0.0064832713;-0.029604707;0.0076073334;-0.032825753;-0.0042642737;0.09257735;-0.056236807;0.010327336;-0.031235738;0.078916006;0.0958983;0.029669201;0.11718269;0.015564456;0.047167674;0.09045215;0.089761496;-0.050864447;0.06701486;-0.022352174;0.05198191;-0.0496631;0.029078651;0.061895546;0.08271939;0.0742982;0.0791206;0.010629983;-0.060704432;0.095524386;0.06433668;0.08619474;-0.051761422;0.13549785;-0.08760856;-0.048833676;0.057448883;-0.06555986;0.10776114;-0.027673509;-0.001139747;-0.045920458;-0.036631387;0.06793979;-0.05042527;0.023515575;0.0374251;0.09335731;0.009543715;0.053314347;-0.017483931;-0.024096817;0.053300567;0.019683462;-0.040400185;-0.052932046;-0.0008244359;0.011440139;0.040348433;-0.0073659783;0.08185552;0.0016051308;0.08615023;-0.07631713;-0.02501476;0.009384939;-0.023981214;0.072595075;-0.009033335;0.09701951;0.020470336;-0.017269896;-0.03582975;-0.025062555;0.1113815;0.043826163;0.020933257;0.061080713;0.07461883;0.0032873496;0.0047593885;0.0550401;-0.056827072;-0.013542117;-0.044906694;0.019466056;-0.050589956;0.018000055;0.11031687;0.018489204;0.048465744;-0.04350336;0.029788166;-0.059882313;0.058809534;-0.035011962;-0.018597681;0.04710567;0.07530869;0.008301469;0.033683103;0.09027005;0.10934005;0.030525839;-0.04517218;-0.0006626482;0.0343766;0.025838783;0.07559995;-0.010342996;-0.026002092;-0.017778272;0.022988077;0.02239897;0.0154854;0.019323686;0.08130728;0.03877747;0.12642455;0.054188926;0.067836896;-0.096168615;-0.020797616;-0.057061944;0.08372802;-0.1167934;0.061289053;0.03185725;0.057979316;0.0142937815;0.0067073856;-0.00021146504;0.0072995736;-0.021904675;-0.10161817;0.025535151;0.02768802;-0.06423843;-0.09391574;-0.063042685;0.09883518;0.052008722;0.016108347;0.0940275;0.025489146;-0.05275949;0.11531946;-0.1779247;0.05991747;0.0048211976;0.07256548;0.079480894;0.048355754;0.06288808;0.060200434;0.08860641;0.06382896;0.009909024;0.0852045;0.049233463;-0.07766391;0.048642352;0.0115042655;-0.03379288;-0.073812686;-0.007928686;-0.08739784;-0.07970964;-0.14668986;0.05528066;0.077751204;0.028130807;0.07757032;0.0034903614;0.006409267;-0.040296577;0.036016468;-0.016489869;0.055810727;0.08130572;-0.04146319;0.017210338;-0.0026955244;-0.02646435;0.04878499;-0.056134813;0.014403618;-0.019592091;-0.022859588;-0.024157079;-0.0015017376;-0.09517154;0.08692325;-0.029327767;-4.5067798e-05;0.024220046;0.08496058;0.011616373;0.0017624282;0.013328854;0.019977964;0.028907832;-0.074024856;-0.10938915;0.05234209;0.08291914;0.008934078;-0.012752554;0.008735627;0.01944592;-0.0478934;-0.0070392094;-0.05707909;0.030327527;-0.006173417;-0.011907649;0.12543073;-0.098085694;-0.020383958;0.088193074;-0.09559082;-0.008244508;-0.057266604;0.042863943;0.010189294;0.052446276;-0.09239627;-0.048710387;0.07337152;0.020380894;0.06755503;-0.107372075;0.03773813;-0.059921313;-0.10265368;0.05501631;0.08221626;0.15154704;-0.106943764;0.03182769;-0.013931258;0.08389093;-0.07031136;-0.03920747;0.01178959;0.012348302;0.017058518;0.01490673;0.0962539;0.02501429;-0.07465403;0.08056125;-0.06819406;-0.016130133;0.05838463;-0.0065834587;0.026728632;0.008675569;-0.016027521;-0.017969206;-0.033676576;-0.05888639;-0.04291803;0.022007888;-0.06409526;0.03179588;-0.03276654;-0.016227365;0.058683515;-0.123056956;0.017593147;0.03696271;0.057204533;-0.011728306;-0.05574963;0.05629003;0.066874705;-0.022573233;-0.021094814;-0.035859056;-0.010222973;-0.01960777;-0.18215856;-0.026850058;0.034180295;-0.036299247;-0.012765728;-0.02428501;0.04390437;-0.024972592;-0.053170573;-0.13797629;0.025194455;-0.04505467;-0.029567568;0.021876648;-0.007672821;0.07351398;0.00864782;0.035170224;0.012196694;-0.041625213;-0.03489767;0.06563274;-0.027801195;0.1126154;0.04868002;-0.01712944;-0.025958538;0.10181566;-0.024414523;-0.008793529;-0.06774904;0.02420261;-0.011968437;-0.05017764;0.015252213;0.078498505;0.0645521;0.015018843;0.07184683;0.03283384;0.083037615;0.115234986;-0.031639755;0.05532043;0.0037882926;0.074923;-0.05981883;-0.039764617;0.15760648;0.046259902;-0.0145585695;-0.024761679;0.062327348;-0.059282415;-0.0225223;-0.016089799;0.08829023;-0.047116842;-0.0698166;0.06190255;-0.02574377;0.040639523;-0.054614455;0.06312013;0.025371525;-0.047499817;-0.006754463;-0.00033292576;-0.08579762;0.010557894;0.05926613;-0.085486494;-0.02837852;-0.015882231;0.048538093;0.010625946;0.01857736;0.029242808;-0.0533435;0.038633015;-0.07793083;-0.0073767616;-0.05286803;-0.0612979;-0.045799017
-0.046040237;-0.1115357;-0.018391013;-0.047107182;-0.07510742;0.07164884;-0.117833085;0.066587396;-0.01161026;0.034046546;0.00571815;0.06019593;-0.0062901536;0.049674764;0.07346292;-0.058356702;-0.09706365;0.0013888812;0.0766896;-0.014647091;0.04034284;-0.017850721;-0.08835381;-0.036239147;0.034863066;0.010291112;0.053534534;-0.05234707;-0.013177091;-0.19943139;0.068831846;-0.049399678;0.06774659;-0.11032806;0.013328295;-0.040813718;0.09804276;-0.013560278;0.012279628;0.04157301;0.07850877;0.027433693;0.028159488;0.069247894;-0.021356203;0.004181196;-0.012093929;0.014971172;0.06597354;-0.10126108;0.0451465;-0.00687308;0.04127372;0.0009789725;0.06152783;-0.01231348;0.0038851989;0.01761464;0.03763437;0.052426644;-0.034156974;0.05957357;0.0582556;-0.0001277182;0.076880835;-0.06002376;-0.021011988;-0.12598625;-0.045617383;-0.03445188;0.05762862;-0.048814777;0.09333314;-0.065419905;0.07857544;0.081905395;-0.08548022;0.052615806;0.014488543;0.02804706;0.076122046;0.044846375;-0.066504665;0.089962184;-0.04665838;-0.09988263;-0.024750154;-0.058836304;-0.06794767;0.08729379;-0.010224604;0.037156455;-0.058816407;-0.0063734455;-0.038906828;-0.080629;-0.12785624;0.037592594;0.05499137;-0.038029097;-0.051962353;0.06797173;0.09127715;0.014000909;-0.016123485;-0.026058732;-0.05311172;0.03917895;-0.057204846;0.078067124;-0.024100585;0.060733963;0.032434765;0.09309239;0.075984456;-0.02057834;0.098159134;0.06567468;-0.046628293;-0.08138774;-0.14897805;-0.006575839;0.09538761;0.013650775;0.050056253;0.030036857;0.017476685;0.07741993;0.096951656;-0.07302878;0.01579082;-0.061413106;-0.023411442;-0.0035346432;0.06477105;0.06854485;0.06370779;0.10421792;0.080713846;0.102342896;0.034725294;0.02578281;-0.06698218;-0.02533294;0.035489745;-0.09928166;0.0332131;0.07690146;0.024110153;0.046631247;-0.020700186;-0.023887103;0.08784322;0.04977486;-0.061018478;-0.0049370667;-0.09316111;-0.0018548587;-0.06780662;-0.061266433;0.06909114;0.032913953;0.091609396;-0.04524531;0.022509024;-0.049799588;-0.008809612;-0.048583586;-0.12157302;0.062404823;-0.022911359;0.03304468;0.032787606;0.0011699279;-0.0074495203;0.06410343;0.017732142;-0.044319786;-0.08094001;0.06593783;0.039611723;0.0078005134;0.062234677;0.03762586;-0.024275439;0.035100684;0.07129556;-0.14352743;-0.08639144;0.026704933;-0.02741253;0.028886544;-0.04019214;-0.052883796;-0.026673052;0.037665088;0.013286431;0.069183975;0.015815347;-0.01856516;0.057997167;-0.062217727;0.03483732;0.079097085;-0.03108703;0.052190013;0.08269179;-0.043506768;0.026534716;0.01075189;-0.018813102;0.08171788;0.023151333;-0.086757414;0.083306536;0.089613624;0.097248614;0.037914354;0.08621851;0.053717013;0.03923913;0.115721144;-0.019691875;-0.014564592;0.07071073;-0.007003197;0.04065212;-0.053710423;-0.02123436;-0.0044313297;0.049832255;0.10877799;-0.02941076;0.026879277;0.0621939;0.08164092;0.08715813;-0.06296859;0.0037613765;-0.0059616663;-0.05616045;-0.033907395;-0.011613052;-0.055545643;-0.06400403;0.0863148;0.03841889;0.03508884;-0.07531997;0.004167112;0.0045008757;0.016861599;-0.071097754;-0.006881283;-0.021039488;-0.010153312;0.04462589;-0.0073854853;-0.048043717;0.1004713;-0.013761274;-0.050024036;0.014345728;0.0038863565;0.05632672;0.010968396;0.04684115;-0.05558958;-0.014029257;0.08436129;-0.009874747;0.002902628;0.05907656;-0.046344116;0.10273405;-0.05951857;0.031066122;-0.008958615;-0.079263166;0.033827156;-0.10146914;0.03803326;0.0067739873;0.10534144;0.073527314;0.04392948;0.053611595;-0.066977;0.006754575;-0.02411635;0.07014112;-0.04075113;0.0479421;0.050901406;0.05946459;-0.009200566;-0.11301427;0.13092841;0.051521502;-0.022606293;-0.011294519;0.06444977;-0.004496244;0.011894491;0.032823406;0.023402644;0.002236808;0.03652942;0.07706468;0.04327236;-0.029416647;0.029355017;0.06614406;-0.033873368;-0.006888142;0.08923626;0.11736569;0.037390273;-0.011631613;0.06287973;-0.03117047;-0.06538976;-0.03506516;-0.04107046;0.029831389;0.04549513;0.016544579;0.093525186;0.014240374;0.046540745;-0.04457993;0.01255009;0.059546757;0.02527074;-0.10931406;-0.008888014;-0.05877541;-0.031828735;0.08659437;0.017550334;0.06674492;-0.04039112;0.035759214;-0.085347585;0.08813121;-0.05357384;-0.06676048;0.037134577;-0.0292492;0.012948664;0.001424864;0.0034110092;-0.0047059623;0.11115573;0.047278088;-0.012287106;-0.06316351;-0.047201827;-0.0601643;0.055076055;-0.04511915;0.030739928;0.030388862;0.076815575;0.07973009;0.045527857;0.038306944;0.05950149;-0.06278421;-0.05648632;-0.032106005;0.07536074;0.05632347;0.03623036;-0.060465895;-0.09175833;-0.05043999;-0.0674512;0.03384445;-0.0530663;-0.037267867;-0.02340186;0.029375497;0.018435309;-0.06646095;-0.11146695;-0.043815866;0.002339549;-0.026732791;0.08324329;-0.07385881;-0.011335113;0.04075225;0.013971735;-0.042171456;-0.07903872;0.06833281;0.0538695;0.07049145;0.0012843249;-0.11587524;-0.023535157;-0.013258851;-0.03536878;-0.023926333;0.11227375;-0.040260416;0.06301268;0.048224345;-0.013974484;0.027768634;0.007888215;-0.108617224;0.029392539;0.037825752;0.039714992;0.0033350273;0.05811185;0.07944593;0.01693575;-0.018072903;0.01635185;-0.00037205312;0.08591141;0.06817247;0.048555054;-0.0334988;-0.047599744;-0.0054034754;-0.09505739;0.020073067;0.02480682;-0.009916298;-0.023265636;0.024718525;-0.10545492;-0.07115933;0.06834332;0.014771289;0.009001622;0.011877295;-0.08546646;0.003165147;-0.067563236;0.039392564;-0.026706716;0.010618455;-0.09381858;0.011562874;0.06261731;0.008041609;0.03285843;0.030008325;0.0925638;0.009612988;0.042821895;-0.031387947;0.081952594;-0.09090138;-0.049036004;0.10004235;0.011934519;0.0014970951;-0.061994266;0.033003397;0.00216384;0.11942877;0.020492041;0.061732434;0.022761464;0.049844798;0.0115072355;-0.0082670795;-0.06379381;0.01571297;0.061974045;-0.035746094;0.0793669;-0.13085899;0.020771736;-0.0043624975;0.06811815;-0.07511906;-0.0004030504;-0.040041212;0.0049957833;0.03379859;-0.056517415;-0.012969479;0.005567472;-0.0013520987;-0.19314235;0.07369704;0.067124836;-0.0043620095;0.0046845246;0.021601928;0.010385376;-0.039576538;-0.025127992;-0.06098676;-0.1303307;-0.07250247;-0.0075387345;0.031034768;-0.033986554;-0.017519863;-0.027124664;0.01831017;0.052969407;0.051892404;-0.020794846;0.03522257;0.0621347;0.12560861;-0.0068747285;-0.044390474;-0.07931152;0.08663525;0.03324588;-0.053088266;0.045763742;0.014425104;0.05648071;0.07302015;-0.009279727;-0.024440315;0.07810251;0.04644096;0.0391152;0.07381654;0.017712308;0.100931436;-0.069285244;0.030368704;-0.0696551;0.075983316;0.053275645;0.04545482;0.070590444;-0.01926109;-0.022701126;-0.037387706;-0.05812853;0.013302542;-0.060181778;0.010474496;0.07929688;0.08527797;0.023314564;-0.0011774313;-0.07678825;-0.016988391;0.02735364;0.028961148;0.05540838;-0.08466057;-0.055502284;-0.015271306;0.03436633;-0.03595912;0.019530656;-0.12295178;0.028113887;-0.030290809;0.041453417;-0.01758953;-0.046303038;0.06253112;0.0641755;-0.056049023;0.09501827;-0.10402612;-0.027392922;0.04990282;0.009057882
0.070431896;-0.06944724;-0.041778922;-0.05316867;-0.048025977;0.07193163;-0.10033489;0.030945592;-0.06592487;0.06699742;-0.020880457;-0.024004985;0.030168848;0.063843146;-0.06240848;0.09650491;-0.041467708;-0.08430482;0.095977396;0.07494311;-0.008932225;-0.053175554;-0.016530989;-0.017011518;0.035614878;-0.11380156;0.043216404;0.06741754;-0.001516836;-0.14706083;-0.038772326;0.03558028;0.023098137;0.015824914;-0.0064140274;-0.071537666;0.06828683;-0.048652776;0.075910464;-0.082006864;0.0053958236;0.050785962;-0.014305778;-0.03445707;-0.013893244;-0.0026702273;0.012748323;0.038048938;0.10226161;0.02100676;-0.009038565;-0.041363515;-0.066410996;0.07274919;-0.029808527;0.013534355;0.016088216;-0.028730605;-0.004088784;0.081237696;-0.12022851;-0.062537216;0.16723658;0.05830334;0.07110206;-0.05680463;0.036860645;-0.124390334;-0.021082474;0.061627623;0.025996493;0.04902452;-0.022436867;-0.021371828;-0.03509238;-0.013428102;0.028213384;-0.026303142;0.0023527124;0.038827725;0.03056176;-0.04607207;-0.0451736;0.05239814;-0.055697083;-0.044042733;0.046222508;0.07904152;0.042171963;0.043346744;0.0020894483;0.08297768;-0.063432656;0.030779865;0.080538355;0.057619095;-0.17920166;0.053683925;-0.018839432;0.0040705274;0.021360986;0.038859833;0.053585824;-0.0060270797;-0.054995015;-0.0029634696;-0.02020823;-0.018975968;0.049156513;0.026441066;-0.0076990207;0.007990938;0.06619702;0.034607746;0.121610664;0.01227787;0.08426684;0.079429515;0.029157279;-0.026462054;-0.06879849;0.041788984;0.044058528;-0.028514761;0.04579021;-0.036139406;0.068958096;0.044195365;-0.030264808;0.056281865;0.02897919;0.07728259;0.0013343594;-0.056805275;-0.030849438;-0.053514555;0.030760098;0.07895798;-0.10454998;0.09003968;-0.04686807;0.0439081;0.07373653;0.02713187;0.07169679;-0.078237034;-0.07858945;0.048718635;0.045375418;0.08639124;0.05913663;-0.056801673;0.030263428;0.10031405;-0.04803011;-0.0046291538;-0.024931123;-0.05648353;-0.063703895;-0.0072160526;-0.04808346;0.08169386;-0.011374474;0.008974234;-0.057386562;0.041957494;-0.020989727;-0.0015489841;-0.12039574;-0.013548224;0.078783475;0.08780091;0.057445053;0.008882109;-0.06464963;-0.012553348;-0.0038018222;0.026305705;-0.063561805;-0.038236372;0.047768857;0.07851593;-0.024711108;-0.026571255;-0.0027496987;0.06458641;-0.07064487;-0.004273332;-0.10952266;0.068326205;0.15390916;-0.08116626;0.0061841714;-0.0040238737;-0.074821934;-0.022156954;-0.014496333;0.016220886;0.063562244;-0.01241808;-0.025887093;0.06461353;0.024252173;-0.0086713685;-0.05745406;0.012447645;-0.09861564;0.007976599;-0.022933798;0.013050472;0.038921848;-0.045747995;-0.02463662;-0.06614038;-0.016183935;0.00861156;-0.009172602;-0.030028397;-0.010423833;0.08629668;-0.06951883;0.11937646;-0.09127962;-0.059717294;-0.05728128;0.06376884;-0.12338177;0.0369741;0.06146848;0.0150087755;0.08543724;0.13360047;0.104890116;0.043842655;-0.017160747;-0.030216934;-0.041364215;-0.003796873;0.109162875;0.079891615;0.06122236;0.0118962405;0.06111349;-0.05411879;0.026144171;0.041390512;-0.031799354;0.053369585;0.005238501;0.044498928;-0.037295192;0.0042820643;-0.014398753;-0.047605593;0.02677054;-0.034597393;-0.017228324;-0.011500189;-0.029224323;-0.012020295;0.037835244;-0.036991116;0.035938192;-0.06754435;0.07850697;0.022029236;0.038322218;0.08756353;-0.076551124;0.060042243;0.015433303;0.02711095;0.020988138;0.03970442;-0.05162;0.06409022;0.108934656;-0.04863428;-0.024735117;-0.058535125;-0.15497448;0.028050004;-0.030643553;-0.074725695;-0.013733297;0.07985394;-0.050234992;0.0039397697;0.008747917;-0.0042753997;0.100243725;-0.009703341;0.024960818;0.09596507;-0.0297394;-0.07605668;-0.060460474;0.08909943;0.053412974;0.022383893;-0.13896601;-0.06274525;-0.060192216;-0.0009729626;-0.013089991;-0.058383267;-0.0076005086;0.072135456;-0.022161117;0.03304871;0.118248105;0.0649093;0.100863345;-0.067279816;0.0048215175;0.01565403;-0.00479748;0.049739566;0.008904177;-0.029245017;-0.062260855;0.06983562;0.021187501;0.015272112;0.03361813;-0.037078883;-0.0021794569;0.037893157;0.0056419466;0.017791681;-0.07069924;-0.071980454;0.03396856;0.05790563;-0.09325441;-0.06108315;0.068513386;-0.018217208;0.027091997;0.022039898;0.020578954;-0.06377429;0.013792941;-0.058946438;0.030511556;-0.0012350031;0.059685677;0.043168306;0.041950867;-0.011906989;0.07079006;0.07179692;0.047400285;0.006264182;-0.093351126;0.028581442;-0.19451216;0.018665396;0.032078706;0.011301489;-0.011964207;0.11650126;0.003253847;0.04403865;-0.061478756;-0.04708056;0.058915053;0.033446133;0.06036015;-0.030968841;0.07112455;0.108701296;0.046303708;-0.02331267;0.09593804;-0.107940294;-0.113740675;-0.083477244;-0.014741903;0.029642612;-0.034002133;-0.050162487;0.05078846;0.02854567;0.028956361;-0.06711818;-0.02281083;0.03034259;-0.060756132;-0.056387644;-0.009620218;0.057538293;-0.06638821;-0.038030617;-0.057623394;-0.08444974;0.07462605;0.065330476;0.0839873;-0.09028246;-0.014201386;-0.045507412;0.008555216;0.043606892;-0.012056569;0.03174873;-0.08202645;-0.007403982;0.022297235;-0.07765854;-0.08942486;-0.035197776;0.021569615;-0.00050312333;0.033411656;-0.0057963845;-0.031982582;-0.020243637;-0.004372261;-0.07174116;-0.023464488;0.038607817;-0.050732207;-0.0597925;-0.055402182;0.09200608;-0.058046777;0.014894396;0.07520488;0.05926725;-0.00097412406;0.0494972;0.014171341;0.015004594;0.040419355;0.020700723;0.07443192;-0.011511009;0.037071615;0.054054108;-0.064140745;0.04890765;-0.052502025;-0.16780527;0.10133118;-0.047154922;0.008112414;-0.06852455;0.0030712024;0.020822804;-0.011663878;0.010809937;-0.025329977;-0.042539965;-0.035929773;0.012000525;-0.07826894;-0.041725077;-0.07743378;0.039267167;0.06805707;0.0695502;-0.076016754;-0.06605954;-0.0067995903;0.038939502;0.011351347;-0.030897155;0.041064844;0.04801793;0.019922204;-0.14336169;-0.07044285;0.019620504;0.021388013;0.06503801;0.048768535;0.0039905943;-0.06944328;-0.047071;0.08675163;0.08072121;-0.07519679;0.07005414;0.061278954;-0.031911936;0.006470083;-0.021136785;0.010579563;-0.0046324707;-0.044419385;-0.044631217;0.0057515805;-0.009707036;0.08311637;-0.0685216;0.014710999;0.03534819;-0.050612476;0.049597513;-0.20426275;-0.041456103;-0.014087146;-0.021650251;-0.052057866;0.015918937;-0.011961328;-0.05981084;0.025847437;-0.048816606;0.043482304;0.04392848;-0.0037915024;0.026613532;0.120814495;-0.0007954147;-0.04314963;-0.060940728;0.04367253;0.027104001;-0.03599845;0.05988285;0.07779806;-0.0023522272;0.08029938;0.06645471;-0.057234734;-0.011641463;-0.0461264;0.06584646;-0.051738318;0.096736364;0.03838531;-0.09181108;-0.07937982;0.05326081;-0.030912902;0.07083486;0.070423976;0.057315774;-0.023797093;-0.047337923;-0.036786843;0.02351814;-0.023624634;0.097693816;0.021727968;-0.035461012;-0.012537789;0.038434677;0.07180625;-0.104657665;0.0475538;0.07223312;0.020891432;-0.052720487;0.08597143;-0.057632502;0.11734228;-0.032930706;0.077969335;0.056230836;-0.18061663;0.09169785;0.021831954;-0.06180696;0.08147505;-0.061007436;0.016051926;-0.011581922;0.07952831;0.0005023152;-0.14909236;0.08210985;-0.069625326;-0.03568913
0.06703986;0.038917705;0.019148014;-0.040566415;-0.03806766;0.03195211;0.10403338;0.043117158;-0.079278246;-0.053187158;0.050468024;0.094644606;-0.054599974;0.020774467;-0.0146107655;0.03702411;-0.06936854;-0.05000651;-0.030330235;0.041568298;0.00539543;-0.059734717;0.03769992;-0.0092080515;0.06562329;-0.03406119;-0.0022741687;0.06856898;0.0013594425;-0.1453141;-0.048589416;-0.12036156;-0.020478584;0.061090283;-0.027507892;-0.028686136;0.031859316;-0.006957448;0.09783972;-0.046576474;0.01017787;0.10195567;0.03006313;-0.014284138;-0.0021813256;-0.036655392;-0.0026835282;-0.073456146;0.023065194;-0.05196783;0.0034044047;-0.045366608;0.04493567;-0.003716978;0.022459002;0.019737674;-0.06078519;-0.06077411;-0.015526767;0.0017938806;-0.11162046;0.010126158;0.011487063;-0.109812096;-0.009025908;-0.056991983;0.0066781538;-0.20370497;0.01646656;-0.09436044;-0.033583816;-0.112074815;0.0060240277;0.018674819;0.12844269;0.08535394;-0.008071533;0.0991649;-0.017528914;0.07879412;0.018121602;0.0034477536;0.092539944;0.014297515;-0.027774831;-0.101684906;-0.023240888;0.0011778204;0.025648566;0.0830304;0.008780405;0.07307739;-0.011928798;0.03154552;-0.0018092598;0.01912661;-0.11391959;0.016817302;-0.039849028;0.08324706;0.03950723;0.051381256;0.06693079;-0.07281433;-0.0035938704;-0.00087026146;-0.0719772;-0.021403385;-0.0012615838;-0.025938625;-0.08970513;0.073907785;0.082064845;0.019102588;-0.0254294;0.052557357;0.029850533;0.068949185;0.00052052387;-0.09633685;-0.023627143;0.06699777;0.03628058;0.0031662404;-0.053978674;0.05440235;0.047111407;-0.028208168;-0.039899483;0.07266401;0.06152343;-0.051199082;-0.2022493;-0.14884953;0.16433907;-0.0026023118;0.067448035;-0.05635956;-0.04753391;0.0038501928;0.0007995665;-0.07396284;-0.0109013235;-0.036406614;0.09243905;-0.13774244;-0.015147142;0.0016109854;-0.00041871297;0.07479689;-0.050050862;0.061673447;0.063313775;-0.006727347;0.01763688;0.02398803;-0.04244432;0.008460674;0.03756999;-0.0040368424;0.030883418;-0.00017877668;-0.038575;-0.07085166;-0.053471945;0.020521073;-0.0666895;-0.086704716;-0.026481304;-0.034606524;-0.06421216;0.037247233;-0.080515385;-0.038965203;0.031023506;0.036745485;-0.07065475;0.0006233871;-0.19841307;-0.0025482292;0.11513805;0.10917758;0.046217684;0.05709867;-0.01459753;-0.032896228;-0.022233216;-0.056809682;0.03797498;0.034789465;-0.03242329;0.033208992;-0.13213803;-0.04478867;0.0442421;-0.079968125;0.10897076;0.09230015;0.03794787;0.03473114;0.08460456;-0.0038526314;-0.020886077;-0.028938675;0.07291545;0.08692003;-0.01616101;0.03152471;-0.033882495;-0.12683733;-0.100655526;-0.045658708;0.01905835;-0.21486238;0.06547096;0.044197995;-0.059558187;0.013634776;-0.08647761;-0.027501786;-0.0055181696;0.0106187835;-0.071064055;0.025117083;0.071954824;-0.0711073;-0.0123453885;-0.074134104;-0.029060215;-0.03935811;0.01477572;0.010597443;0.055420365;-0.017702062;-0.04131851;-0.03998014;0.092293456;0.041282285;0.12767576;-0.042515613;0.061174758;0.0206795;0.0014279952;-0.016608773;-0.04053917;0.025328081;-0.060359;0.07157899;-0.09733125;0.06813035;-0.01139986;0.0005668268;-0.07762971;-0.12378091;0.07327774;0.06361341;0.101984516;-0.06543163;0.021794297;0.09362282;-0.028090036;0.01627317;0.019211875;-0.019034643;-0.017882902;-0.07437025;-0.012988328;-0.045177102;-0.041458484;-0.064115256;-0.11855381;0.05729669;-0.0777334;0.07170598;-0.039466273;0.06902817;0.0007300869;0.12297293;-0.07874101;0.003376511;-0.21422264;-0.010006379;0.04853569;0.019364588;0.021668954;0.05076104;-0.021867847;0.031404603;0.0357229;-0.0029490688;-0.026799856;-0.023926085;0.039300222;-0.034387134;0.010276804;-0.105226666;-0.13098072;0.012473193;0.079903446;-0.033416364;-0.05517002;-0.037324585;0.042556256;-0.14912497;0.025470974;-0.06870394;-0.1074707;0.0130207725;0.09684835;0.05570247;-0.031406496;-0.047482945;-0.06733522;-0.0651231;0.047542643;0.046218175;0.16745767;-0.019764656;0.0010509581;0.07620283;-0.06685869;0.09472943;0.013302754;0.014720818;-0.004431881;0.014336755;0.014211274;0.02605889;0.01752167;-0.032945845;0.00069635897;0.0065158047;-0.01646583;-0.07139542;0.014816031;0.04440914;-0.048775196;0.07608013;0.047770128;0.045568082;-0.12729546;-0.031888746;-0.008524713;-0.1265243;0.07844056;0.043674987;0.09648271;0.0129894735;0.0048943525;-0.026467077;0.047184356;-0.09963985;-0.028376631;0.03444132;-0.06565594;0.061033133;-0.10468209;0.056775283;0.0037441938;0.026999611;0.0548519;0.038381558;-0.097281635;-0.008231534;-0.06113326;0.06357371;0.076397985;-0.04566882;0.0068310173;0.049651753;0.014997534;0.030697193;0.05971381;0.0785839;0.032405455;-0.043840118;-0.06104475;-0.09698837;0.06715984;0.008496135;-0.053488217;0.066610396;0.011818696;-0.013979089;0.056312278;-0.06592421;0.057313908;-0.076641865;0.08444485;0.03588256;0.054457754;0.0058022193;-0.085852705;0.10452101;0.011312177;-0.052942604;-0.011831503;0.090496086;0.03541254;-0.07922384;0.015168133;-0.00025967145;-0.003839315;0.13611239;-0.07694698;0.009254595;-0.027495878;0.091271736;0.02347217;-0.06893115;-0.07884879;0.05216591;0.016972113;-0.02595722;-0.027374936;0.03318447;0.03203888;-0.00080202665;0.08233682;-0.091488145;0.03440558;-0.009138251;0.032649163;0.017996486;-0.04463137;-0.085832156;0.036807176;-0.06107401;0.06665115;-0.066385634;-0.013508389;0.03083761;-0.022306943;0.027912429;0.037253615;-0.028126853;-0.06981014;-0.031576395;-0.048200175;-0.05098412;-0.23190397;0.03010641;0.06236248;-0.14989242;-0.12326698;0.046828154;-0.002575853;0.107959434;-0.076401375;0.03226527;0.101608805;-0.061607774;0.02340564;-0.049259942;-0.04073849;0.008845795;-0.055179793;0.013437492;-0.11301015;0.019595899;0.12589842;-0.0060144532;-0.05742358;0.026289439;-0.09015587;-0.064261176;0.0027505232;-0.012158739;0.036136627;-0.047358137;-0.0013668581;-0.123150066;0.074635;0.04890024;-0.053761926;0.078908175;-0.061046526;-0.006144341;-0.030881274;0.06854653;0.07005931;-0.056631576;-0.14144644;-0.064636625;-0.044870306;-0.12550129;0.03237855;-0.025220858;-0.044730213;0.012855518;0.023797447;-0.018409807;0.07952897;0.01049658;-0.036217988;0.0840691;-0.043945894;-0.051638044;-0.037592206;-0.07513057;-0.06325953;-0.21154998;0.0070658075;-0.029295512;0.10223016;0.07420454;0.06836694;0.055294227;-0.14326002;-0.038034864;0.015193718;-0.028655415;0.06635983;-0.060249634;-0.07014803;0.091073975;0.08439064;0.079656556;-0.0005128209;-0.09376941;0.08177464;-0.010235365;0.014189336;-0.0358171;0.007923256;0.04304912;0.07577895;0.028639266;-0.016117169;0.015615367;-0.05138828;0.07442061;0.12011582;-0.0067939013;-0.06099274;-0.036224153;0.05723926;0.05577144;0.018181758;0.12197621;-0.026728757;-0.00022311778;0.0014373589;-0.050203737;0.007841926;0.043637868;-0.035202704;0.0766625;0.046201065;-0.014815521;0.05737711;-0.10411478;0.005066972;0.039761633;0.071727514;-0.08515565;-0.07760457;-0.0021694903;0.068036325;-0.15696496;-0.017693968;-0.046065744;-0.032725986;0.03352335;-0.026960723;0.021750094;0.20303275;-0.08006737;-0.0056017134;0.07885824;0.08015475;0.097042635;-0.07493573;0.057545137;0.048659466;0.038733743
-0.033955347;-0.031768017;-0.045117695;-0.0746389;-0.072854415;0.035015482;-0.06507863;-0.0003878249;-0.04590008;-0.064737886;0.009359671;0.06318811;0.014421591;0.0057777036;0.06609422;-0.045954797;-0.062237818;-0.045119446;0.027641317;0.025138248;0.010260616;-0.008147063;0.05634948;0.005475415;0.046254013;-0.021439163;0.04660507;-0.057809863;-0.12980048;-0.18430573;0.074454464;0.01241275;-0.0032703746;-0.041960303;0.051817596;0.06898451;0.014739959;0.007873185;0.059243307;0.055484958;0.048160005;0.011142551;-0.06202859;-0.0001383225;-0.0068369904;-0.0084603345;0.05706745;-0.07134148;0.028997742;-0.0820983;0.07535739;-0.16684583;0.037556984;-0.038185786;-0.05089887;-0.01395456;0.006239472;0.028119527;-0.06742521;-0.07010506;-0.114458695;0.022024412;0.18730977;0.067197785;0.09121834;-0.02637578;-0.03159493;-0.11354832;0.010543644;-0.029100012;0.014727144;0.057477564;0.0020169704;-0.0766724;0.09627188;0.0069527104;-0.020437842;0.06665136;0.011634619;0.07924847;-0.03398272;0.07758226;0.0038085403;-0.0006304934;0.09092408;-0.071022145;0.08682674;-0.04422291;0.0980261;-0.0016344339;0.02946823;0.002779844;0.062307946;-0.067152396;-0.056035914;-0.04282478;-0.0895131;0.023374472;0.089174;0.03540246;0.065079994;0.07454511;0.1265489;-0.016503526;-0.044885907;-0.011403674;0.069557406;0.0018952125;-0.044734184;-0.013025058;-0.04235945;0.060027808;-0.04363547;-0.021926079;0.036760885;0.08392227;0.07676132;0.015194589;-0.07042757;-0.14138469;-0.026828745;0.037372608;-0.00987136;0.06150054;0.026810778;-0.008561324;0.033946574;0.04579499;-0.06667983;-0.02071673;0.032809906;-0.00063682586;0.010644529;-0.0025731223;0.04560626;-0.0587149;-0.06464417;0.10449688;-0.006563536;-0.082302235;-0.116899624;0.057404574;0.042465612;0.023172747;0.021080997;0.021095391;-0.07716322;0.07201701;0.023629406;-0.03241996;-0.068599634;-0.0587609;0.085712194;-0.054560736;0.032906357;-0.05918512;-0.08291718;0.01334838;-0.04099853;-0.022970164;-0.079221725;0.068384714;0.0074789487;0.049504776;0.04446134;-0.034621075;-0.034986302;-0.08116727;-0.05693133;0.026602624;-0.05088564;0.11020396;-0.024437927;0.030152105;-0.055844184;-0.07409456;0.07422104;0.0073669855;-0.11424864;0.065131515;-0.028972097;0.08342204;0.06651569;0.061368324;-0.11437592;0.07816011;-0.04541657;0.017726257;-0.029557109;0.012984501;0.116723664;-0.05284492;-0.02832751;0.0045907595;-0.06452092;-0.075492;0.042939134;-0.027248256;-0.04457217;0.05942511;0.010223092;-0.02442803;0.038541272;-0.026475366;-0.040897075;0.017456546;-0.06180369;-0.09737331;-0.051533595;-0.14949484;-0.006052151;0.029001672;0.06261073;0.018118009;-0.011810461;-0.06647257;0.07264111;0.038834006;-0.07944478;0.076914795;0.05125557;0.04042637;-0.068095885;-0.014417422;0.02105998;-0.0019152928;-0.05391891;0.04257385;0.046499178;0.033498026;0.04248682;0.08334884;0.09800535;0.07397015;0.046146877;-0.025063772;0.106391616;0.011180611;0.080993116;-0.04107885;-0.015930235;0.12458455;0.077173844;0.0030450013;-0.037963647;0.15736915;0.024210438;-0.09462846;-0.14408149;-0.040713042;-0.016590051;-0.017438585;-0.115229726;-0.08107858;0.07574717;0.10245612;0.1310881;-0.07991392;-0.03633848;0.038614772;-0.046198223;0.082584426;0.03911219;0.007394969;-0.005480214;-0.0073182657;-0.0008998564;0.06878865;-0.000517943;0.04953478;-0.004110436;-0.04103882;0.028778939;-0.049470484;-0.010504157;0.036456946;0.105666414;0.06086085;0.08507868;0.050926425;0.07498817;-0.00908859;0.04414635;-0.010551146;-0.05216791;0.00468421;-0.08514064;-0.047495212;-0.04904495;0.03310424;0.1105231;0.030050715;0.012390841;0.035971433;0.012865979;-0.10177831;-0.060924605;0.018140676;0.023769485;-0.0006885703;-0.066997916;0.0092783775;0.003830683;0.0049995705;0.08866557;-0.049035605;0.065652676;0.05113611;0.15877633;0.059380934;0.11484946;0.03458688;0.018564468;0.01854928;-0.0568197;-0.0402964;0.14442436;0.01606066;0.01418072;-0.10933277;-0.01892253;0.07214766;0.030327186;0.034870934;0.0117820725;0.0056536994;0.029999059;-0.056320734;0.09324181;0.054474898;-0.041233543;-0.03159791;0.061936494;0.0071314746;-0.06256529;-0.0048269387;-0.018464101;0.050134804;-0.03021561;0.036054987;-0.021414343;0.02844029;-0.008347241;-0.021689171;-0.06053784;-0.013074315;0.024287354;-0.08834355;0.046438858;0.042454198;0.037302095;0.08714715;-0.050537117;0.036238533;-0.0948248;0.09286497;-0.06469743;-0.015399189;-0.047421973;0.09372972;-0.0013403146;0.107342534;-0.038268425;-0.048418324;0.061516885;0.03478424;-0.004820776;-0.040164847;-0.0042296695;-0.0096395565;-0.064137414;0.09774386;0.0043410906;0.07711113;0.046872195;-0.029644078;0.026621975;0.0062501444;-0.08583774;0.051188808;0.0075280904;0.032659844;0.03015707;0.015947385;-0.037697013;-0.039784774;0.03443701;0.009914559;0.036694914;0.06814804;-0.099946976;-0.00912418;-0.042736378;0.025677824;-0.032371428;0.045432284;0.034518372;0.05681011;0.05041557;-0.060231864;-0.05152449;0.038017586;0.0013995942;0.09050942;-0.09828368;0.005121462;-0.12751265;-0.009776418;-0.08609638;0.052594826;-0.12859383;0.037072364;-0.015090599;-0.035459254;-0.08883899;-0.059458815;0.050242685;-0.017345604;0.04838226;-0.1476942;0.047782887;-0.04405503;0.032722462;-0.009308183;0.06967567;0.009710793;0.011329547;0.0016816;-0.042130653;0.015070221;-0.02854558;0.10320773;0.0013542747;0.07339794;-0.039763216;-0.021554183;-0.060092308;0.03595258;0.10028842;0.058251407;-0.157286;-0.05943859;-0.044379715;-0.06392782;-0.09067832;-0.026153265;0.080265485;0.07321432;0.07883119;-0.07946267;-0.024350476;0.008132967;0.056395397;-0.06258281;0.07816367;0.0048239212;0.099827066;0.10769225;-0.07421737;0.019446142;-0.0497463;-0.013488733;-0.19905607;-0.04052087;0.063760765;0.027268741;0.0053719846;-0.043744616;-0.021079564;-0.047754172;-0.046859253;-0.077762105;-0.07239234;0.08729725;0.06160044;0.08426513;0.07358722;-0.036750693;-0.033721887;0.069331944;0.101557985;0.08526529;-0.14596552;0.04216993;0.015904935;-0.08063006;-0.034523316;0.00025077185;0.10309462;0.06065389;0.09673742;-0.07786168;0.036611516;-0.05009907;-0.013693047;0.025882248;0.0614021;0.07191235;0.012205054;-0.01947141;-0.1484317;-0.11124876;0.023909172;-0.018013377;-0.053508576;-0.031329177;-0.0522706;0.07197645;0.0058777602;-0.023528324;-0.01116198;-0.039674774;0.06723048;0.007588439;0.122740306;-0.031545226;-0.02816692;0.035456005;-0.014743458;0.07661974;-0.00023033998;0.06157404;-0.017290812;-0.19005631;0.06586613;0.02374335;-0.0322087;0.056228135;0.06913675;-0.024551906;-0.009516974;0.09558182;0.16830063;-0.06826814;-0.061746523;0.0839442;-0.010667381;-0.01570587;0.008387165;0.08623256;0.026884343;0.014866893;-0.010782237;-0.015311192;-0.09255858;-0.017012436;-0.06641573;0.07226852;0.07040151;0.032073025;0.018735994;-0.020064037;-0.069935285;-0.06969115;0.00077756325;-0.04654128;0.06597428;0.05262177;0.011578914;-0.07492232;0.04873507;-0.037456144;-0.14160457;0.11763887;-0.015604919;0.07911874;-0.003942655;0.014298022;0.035747513;-0.0077765943;0.096874796;0.059297346;-0.1429544;-0.018710563;-0.03178736;0.08081506
-0.043486882;-0.068844035;0.06843724;-0.052144464;-0.046053164;-0.040805902;-0.103200845;-0.09775867;-0.018778915;0.03844924;-0.025440522;0.077792026;0.09942724;0.037451193;-0.033157356;0.07484173;0.057374056;0.034648396;0.06648269;-0.025606224;-0.06676172;-0.048574623;0.06126195;-0.0048143105;0.06238616;-0.086916536;-0.007149413;-0.0023624678;-0.033556778;-0.036974743;-0.030293165;0.024789926;0.06634099;-0.017843463;-0.037607536;-0.017856818;-0.04062375;-0.063187525;-0.07637176;-0.046927214;-0.016567497;0.038931996;0.00738661;0.038923837;-0.009477697;-0.0066451435;0.06853361;0.0625597;0.004537164;-0.012809;0.046290185;-0.09613901;-0.09054534;-0.0047233044;-0.08827255;0.045485724;-0.014196417;-0.050567586;-0.016654769;0.016448256;-0.1833642;0.032045584;0.08940364;0.017239109;-0.040495213;-0.061616644;0.0043809083;-0.037038885;0.032281674;0.030371428;0.082190156;-0.09781755;0.06471244;0.01787788;-0.026995275;-0.017961683;-0.058505975;-0.032026026;-0.06886683;-0.07022146;0.039270755;0.06693993;-0.062935136;-0.016840901;0.073941596;-0.03569788;-0.023300612;0.08363399;-0.0045877136;-0.027191315;0.003877067;-0.069321714;0.01029677;-0.044009898;-0.10390873;-0.057791606;-0.05754424;0.026167205;-0.015883524;0.09444127;-0.016577987;0.13150778;0.021329222;0.020348392;-0.01063483;-0.026322175;0.06627674;-0.034986634;-0.017957915;-0.04932369;-0.07052088;0.078589074;0.048320703;0.006611458;0.0073879194;0.031218207;0.17454033;0.021121884;-0.0005235243;-0.060985345;-0.09062044;-0.012525304;-0.051477;0.008627718;0.0076367087;0.02127343;-0.02627917;0.008292954;-0.026939325;-0.07481922;0.025750324;0.0107753575;-0.020306941;-0.08292214;-0.052398283;0.079244725;-0.061851848;0.029167706;-0.014102408;-0.032900207;0.015539724;-0.05767454;-0.041329022;0.017693179;-0.05104862;-0.05552562;-0.115101;0.05969074;0.046966303;0.10447892;-0.032212555;-0.040274665;-0.03285482;-0.033753432;0.11673152;-0.07369091;-0.012987468;-0.025211547;0.04954892;0.08662208;0.03031074;0.015041229;-0.015533228;-0.01884615;0.0010430496;0.06668968;-0.07455504;-0.009660153;0.04163069;-0.03440794;-0.0375097;0.06336145;0.0031237435;-0.05128072;0.048471346;-0.004187891;-0.058692172;0.026219426;-0.11007425;0.07664938;0.11102306;0.040376846;0.08196655;-0.024868572;-0.07947971;0.042629868;-0.081302665;-0.018073233;-0.015600813;-0.07046324;0.1375996;-0.004186689;-0.025218576;-0.0658823;-0.050418597;0.037960175;0.10198723;-0.07312254;-0.04380733;-0.052191876;0.08214553;-0.08601848;-0.06575243;-0.057257567;0.059706323;0.0060572717;0.0664013;-0.07226407;0.08455297;-0.075749725;-0.06444594;-0.06386328;-0.059018712;0.08809029;0.09530204;-0.056599528;0.07302507;-0.013582145;0.023960713;-0.06223349;0.07619432;0.06354326;0.06641599;0.02949682;0.07830858;0.025727825;-0.004655399;-0.108507134;0.06543284;-0.10961848;-0.015175736;-0.022071602;0.009078317;0.049381472;0.06537715;-0.020013364;0.049200643;-0.055422205;-0.034775887;0.06607005;-0.08491855;-0.05507699;0.052869022;-0.12893395;0.009202047;0.108712986;0.06945947;0.0582489;-0.147847;-0.04871352;-0.06558449;-0.10034705;-0.006206711;0.040340886;0.1282959;-0.044091757;0.0043439497;0.011469349;-0.040218692;0.058857948;0.033554085;0.053970397;-0.08934488;0.09716367;-0.025237905;-0.008711286;-0.07141314;-0.049649432;0.016766079;-0.007941285;-0.06405793;-0.038863905;-0.0018679018;0.05330708;-0.033236627;-0.053717345;0.073361404;-0.027340833;0.031988073;0.0589438;0.052020162;0.028355818;-0.010538124;-0.03865776;0.05591201;0.033065833;0.062704;-0.043012183;0.0730439;-0.083132476;-0.039496984;0.03145659;0.089599736;-0.018594936;-0.015110852;-0.10242613;-0.05446519;0.020597193;0.0018288076;0.028941827;0.008061107;0.04134741;-0.062471293;0.027509447;-0.046040248;0.065971;-0.0030518784;0.0075517036;0.11319029;-0.067641184;0.027995545;0.016930938;-0.024058932;0.05947653;-0.07052261;0.05535348;0.029292105;-0.08601013;-0.079849705;-0.08590065;-0.04348157;0.045987684;0.08857555;-0.043945596;-0.06440604;0.030828707;0.008507732;-0.078698665;-0.03362225;-0.02185024;-0.11462235;-0.018979957;-0.053254105;0.042155858;-0.016809417;-0.012599851;0.03459394;0.04662972;0.051783666;0.040901627;-0.029300489;0.034715842;-0.009574043;-0.12076021;-0.03059929;0.064857736;0.059559643;0.050686575;0.057135314;0.005250572;0.06410875;-0.10965182;-0.0021254693;-0.0016079558;-0.04212833;-0.012763908;-0.08930655;-0.054366626;0.024652805;0.062907256;0.048756503;0.033172205;0.014307064;-0.078054555;-0.06571747;0.04489759;-0.0594683;0.035021167;-0.061648905;-0.018737938;-0.025420131;0.025495525;-0.029091869;0.0252992;0.04908843;-0.110110395;0.026598224;-0.094452724;0.0072739185;0.078916274;0.020611316;-0.04829934;-0.03279784;0.044641215;-0.019504093;-0.025482533;-0.006276752;-0.06568955;0.0810559;-0.046670664;-0.06642772;-0.025421971;0.02320655;-0.029617451;-0.051997736;-0.01175638;0.07112992;0.09844377;0.07944947;0.0037331819;0.01945196;0.05473367;-0.009943634;0.10836456;-0.025674216;-0.00051137334;0.03806345;-0.066152394;0.01586946;-0.050084244;0.0076625333;-0.022935543;-0.028342435;0.01908945;-0.060129415;0.011759584;0.06740421;0.032824922;-0.059748184;-0.09948858;-0.068230964;0.00017064417;-0.022542056;0.006384176;0.09592563;-0.08466294;-0.07423801;-0.0069176783;0.07269736;-0.052233074;0.066373646;0.013530368;-0.013603158;0.02733451;-0.094975635;0.013653916;0.038201142;-0.025605908;-0.020542242;-0.03549761;-0.09492551;0.055738043;-0.06412139;-0.037112202;-0.014866704;0.07686485;-0.0036582656;-0.044174675;-0.035926886;-0.004550444;0.047233637;-0.04931319;0.084944904;-0.04413685;-0.014593049;0.00891311;-0.032557912;-0.02329352;-0.05592852;0.035065427;-0.030951586;0.042981848;-0.16083336;-0.027206028;0.07196437;0.0156111615;-0.09800758;0.018544113;-0.0795994;-0.0015235577;-0.00598456;-0.013018536;-0.07226397;0.03720646;0.068360254;-0.037657898;-0.04758605;-0.07385806;0.0034509404;0.015884206;-0.034380235;0.024661494;-0.07851075;-0.06283686;-0.011053991;-0.02313465;0.0063074636;-0.04170443;0.038018465;-0.0014785158;-0.021735629;-0.062891036;0.03802826;-0.069559634;-0.020024613;0.032605782;-0.059430495;-0.0784189;-0.03239155;0.053945065;-0.17568567;-0.0341786;-0.070186965;-0.0076951506;-0.071221285;-0.022330057;0.037104018;0.043088727;0.056432407;-0.082936436;-0.060092717;-0.0383954;0.02017812;-0.0665449;-0.025126377;-0.071584925;-0.02017949;0.07679983;-0.049036436;-0.06328377;-0.015863692;-0.02778475;0.015267128;0.039858274;-0.026327007;0.02848813;-0.06974223;0.014515431;0.04027504;-0.022295719;0.03879055;0.015827367;0.14420663;0.040297024;-0.002296069;-0.045763914;0.08157576;0.005028749;-0.050875563;0.0775648;0.024130424;-0.048597466;0.02652639;0.017966356;-0.053437512;-0.023161527;-0.027577596;-0.048157677;0.07079027;-0.042035293;-0.05401396;0.014738308;0.074388385;-0.038801298;0.084358476;0.03627359;0.022627214;0.080884986;0.052048896;-0.10991337;0.052072283;-0.07688065;-0.08787604;0.100246824;-0.002855121;0.03623965;0.10873141;0.07167291;-0.00785657;-0.058896188;0.011883732;0.07765924;-0.030202705;-0.06248625;0.041343745;0.04021898
-0.060765777;-0.103000596;0.011155576;-0.010494102;-0.055760223;0.071568705;-0.030048685;-0.06681118;0.16518934;-0.031400654;0.015394942;0.0181281;0.072265565;0.019683301;-0.046672516;0.0357654;0.14533299;-0.038112197;-0.0071207182;0.036310755;0.07709228;-0.032401744;-0.080546364;-0.022269635;0.07534846;0.116233096;-0.059520986;-0.026935806;-0.095838666;-0.07344016;0.054807685;0.058812365;-0.06043769;0.04049755;-0.01918135;0.038148656;-0.029574554;0.021523893;-0.0393301;-0.0639578;-0.0025347995;0.0076294397;-0.052081183;-0.023825869;-0.10243739;0.0010297317;0.017697558;-0.021621944;-0.007256026;-0.0967329;0.022959052;-0.106712356;0.06283297;0.04168522;-0.09283281;-0.039679196;0.09651;0.022944784;0.050925072;0.050216373;-0.15412204;0.04164373;0.0689187;0.069219284;-0.038624767;0.08837452;0.075542174;-0.09963261;0.054711808;0.07256442;0.08652488;-0.086695254;-0.03206344;-0.019009273;0.08541036;-0.054386806;0.0077671814;-0.0061535086;-0.036262926;0.041572485;0.016246518;-0.069868304;0.046680268;-0.03909937;-0.07496715;0.07095033;0.038476013;0.07813557;0.064691275;-0.06565035;0.088266976;0.015335732;0.057846077;0.041955244;-0.058912348;-0.045609225;-0.112150714;0.08128614;-0.061299253;-0.01316703;-0.07772314;0.09425293;0.01988221;0.06615469;-0.022341674;-0.067556754;-0.02760693;0.08247414;-0.0021243384;-0.07071273;0.07323616;0.0019315626;0.09463457;0.059608895;0.031989012;-0.0665;0.08994079;-0.086998925;0.050431795;0.05898651;-0.096621215;-0.057282683;0.055002674;0.08674445;-0.05090211;-0.027302926;0.081698656;-0.042250313;-0.023459597;0.053067487;-0.027713867;0.042126033;0.10106031;-0.03344413;0.014023623;-0.039263994;-0.016851252;-0.092125416;0.052805554;0.01172644;-0.14283174;-0.06538349;-0.038702827;-0.026360353;0.08362512;-0.068590604;-0.074643955;0.049468867;0.027981635;0.10149484;-0.015877722;0.049042143;0.062405914;0.083050035;0.013315699;-0.022398302;-0.11238115;0.008809529;0.009326726;0.07411905;0.0060692932;0.012596542;-0.027526472;-0.06414247;-0.035261903;-0.029767811;0.0066452418;0.010371359;0.016549923;-0.049886975;0.008474937;-0.05707152;0.063940495;0.037613317;-0.08436767;0.08007244;0.045853775;0.040490277;-0.0020798142;0.009148902;0.0501437;0.0786634;0.05229436;-0.07100294;-0.07807453;0.050810203;0.055219535;0.05226854;0.06312751;0.040904813;-0.018070882;-0.018266663;0.04659066;0.019385006;-0.015809167;-0.04557005;0.096995026;-0.104482435;0.030164791;-0.05399379;-0.032327168;3.223228e-05;0.056667462;-0.03648646;-0.04709914;0.0024549274;0.0433797;-0.04038378;0.011077594;-0.023399195;-0.09821863;0.0017320707;0.031836424;0.12783149;-0.05587771;0.0964306;0.040994592;0.0903453;-0.049143862;0.00244304;0.006708703;0.03322139;0.011910035;0.012993751;-0.07043524;-0.07251539;-0.04779193;-0.03397438;-0.001604193;-0.10349949;0.047427323;-0.13721763;0.0015608018;0.098024234;-0.038930837;-0.053379238;0.027968977;0.033445172;0.0050832587;-0.040809534;-0.014515121;0.031156048;-0.010468332;-0.114423685;0.056834027;0.08669047;0.01990771;-0.056148782;-0.094011664;0.0056849704;0.04957635;-0.07436029;-0.0549058;0.036179025;0.026988577;0.09365351;0.14527006;0.0073895087;0.02684108;0.04483077;0.011154528;0.060725067;0.03465663;0.0040946016;0.07926795;-0.020216675;0.030704785;-0.08189103;0.035149787;-0.050469887;0.045034636;-0.1009686;0.059579063;0.07631823;0.028408619;-0.05068515;0.004797073;-0.026140494;0.00037124648;-0.07295387;0.15287328;0.048917934;0.014594444;0.1136839;-0.032949734;0.051971205;-0.020496335;-0.0014065517;-0.0794849;0.041596245;-0.007928571;0.029454166;-0.008494298;0.059945367;-0.10998025;-0.037577543;0.057380095;0.10598076;0.0026051367;-0.08664712;-0.08135534;0.011397378;0.040818635;-0.015803754;-0.0036504013;-0.025811898;-0.04436909;-0.025516717;0.07483871;0.019940423;-0.010921348;-0.025566045;0.012918762;0.039243113;0.020280765;0.015825294;0.07854111;0.057025682;-0.004311447;0.028172456;0.06687779;-0.027743232;0.035863742;-0.036815263;-0.06555778;0.08752894;-0.022761794;-0.012684126;-0.04780509;0.061398182;0.012227676;-0.059772886;-0.0596485;-0.028309692;-0.06264287;0.03219085;-0.072165;-0.07677255;0.04699421;-0.047175173;0.068904705;-0.036527123;-0.057285402;0.027207904;0.063299224;0.016134707;0.0011623842;0.05783334;-0.07755735;0.056287315;0.012014453;-0.0684095;0.081140876;0.077070564;0.018554946;0.107793175;-0.0793993;-0.065379806;-0.022043297;-0.0160935;-0.09673984;0.073413275;0.027776068;-0.031815216;-0.05889952;-0.025294108;-0.011911652;-0.05415438;-0.056010418;0.010648273;-0.06706345;0.06942558;-0.018270168;-0.034501597;-0.064947404;-0.17291148;0.041374244;0.025230134;0.03956976;0.007321701;0.08597017;0.022490932;0.05353572;0.06327287;0.08171867;-0.05845375;0.045597296;-0.045414098;-0.022434074;0.07523053;-0.023565242;-0.07162788;0.04536987;0.10360563;0.049137548;0.057766285;0.040701076;0.06083326;0.04882201;-0.025202882;-0.058030434;-0.013543827;0.029259449;0.010146607;-0.066814326;0.01938246;0.015265597;-0.0043859873;0.03149155;-0.019974347;0.032573506;-0.054501124;-0.06984479;0.039433207;-0.07526128;0.07300966;0.015274788;-0.03340185;0.0651794;0.046490707;0.051324077;0.055825684;-0.032034874;0.060980156;-0.053630415;0.059357215;-0.026797159;-0.055572312;0.057499416;-0.049650162;0.054204546;0.00028785318;0.09821763;0.08858833;-0.04428131;-0.079438105;-0.0050752372;-0.06905802;0.09856817;-8.199155e-05;-0.018232672;-0.023387168;0.059274405;-0.08566057;-0.018937018;0.021786505;0.112165764;-0.003974106;0.009468857;0.042029407;0.051180445;-0.0434918;0.10044597;-0.013848188;0.042895168;0.05429316;0.04116173;0.09314996;-0.10903853;-0.015572696;0.0032252902;0.047298327;-0.008970972;-0.05385844;-0.035998695;0.06725422;-0.10296278;0.029903986;0.08044313;0.016816204;-0.052040204;0.033600505;-0.042527564;0.0091116205;-0.04121129;0.07403614;-0.07509163;-0.07317556;-0.015363856;0.0063546314;0.0019730392;-0.0035222536;-0.017571613;0.04737539;-0.028145961;0.055586807;-0.014635345;0.055333365;-0.014024782;0.026399802;0.046961095;-0.08814419;-0.06065966;0.048894007;0.009289503;0.06905446;-0.021398263;0.040065076;-0.06961677;0.038503774;-0.07473413;0.043422226;-0.098092444;0.08917879;0.048296697;-0.08389421;0.0590548;-0.027440893;0.04399698;-0.056996968;-0.015720652;0.074810624;0.071841665;-0.021713452;0.110086806;0.0074506514;0.059425376;-0.0019558112;-0.011436088;-0.0992012;0.028522525;0.0022121354;-0.006577858;0.05459842;0.021650935;-0.0062829023;-0.083276235;0.09075231;-0.055914164;-0.001225366;0.0780269;-0.02921811;0.11242154;-0.008305037;-0.013244853;0.027459642;-0.036073897;0.036858536;-0.039098497;-0.02825665;0.067865826;-0.06804155;0.0737292;0.049324967;0.0024699706;-0.057023693;-0.06361535;0.041863307;0.017752804;-0.003405567;0.005434144;0.07543451;-0.00859623;-0.018478926;0.04907095;0.03157875;0.06786718;-0.07103709;-0.09112014;-0.1374122;-0.052089956;-0.08652172;-0.04196586;0.09229264;0.056974895;-0.053273868;0.0014179088;0.028256003;0.024881432;-0.07669472;0.04160298;0.025166584;-0.13863231;0.08466234;-0.04288672;0.030466832
0.0014283239;-0.059669774;0.0113969175;0.033424225;0.08032362;-0.04140193;-0.15288925;0.021820148;0.1298597;0.05653708;-0.05363716;0.06861003;0.064410225;-0.07105582;0.0074468423;0.048166074;0.043401673;0.05262654;0.028438315;-0.006558094;0.0724604;-0.012675611;-0.055243474;0.022943726;0.033596836;0.061426107;0.03111271;0.065670684;-0.14482099;-0.17330636;-0.022222621;-0.015334367;-0.07397939;-0.027467301;0.07064794;-0.05274889;0.04334351;-0.09504356;-0.031929903;0.058991093;0.07927554;0.11022867;0.01836501;-0.08550797;-0.08560847;-0.041241884;-0.027439708;-0.070276015;-0.0007680366;0.02795394;-0.010104067;-0.007434545;0.0725836;0.04850636;-0.08270662;-0.049050607;0.065493956;-0.013632041;-0.026178338;0.035859544;-0.023292137;-0.04634843;0.052552294;0.010439174;0.028807964;0.0025287927;0.04178769;-0.05826868;-0.023922931;0.0034767324;0.0054183444;-0.032773208;0.053117987;-0.009510112;-0.0052785994;0.05585135;0.08815993;0.043948423;-0.059856016;0.039909534;0.045032416;-0.034482013;-0.064191535;0.022259196;-0.06742095;0.07390921;0.07925235;-0.031175405;0.056420613;0.03996398;0.07512512;0.013742554;0.05652691;0.07840848;-0.00492866;0.0024746435;-0.13169977;-0.0054999236;-0.009762624;-0.011832852;-0.045502324;0.06221907;-0.06752899;-0.036333412;0.0689468;-0.056520212;0.07568889;-0.056121945;0.017414682;-0.041906085;0.028737085;-0.058245394;-0.039361507;0.14319864;0.019703107;-0.0063797124;0.185042;-0.11562915;0.0074370746;-0.08412307;0.0034191268;-0.08708719;0.06754134;0.061110593;0.055400725;0.033241153;-0.048861317;0.07241642;0.061932065;-0.040450197;0.062123213;0.0070096385;0.034515735;0.096179575;0.060366217;-0.054839045;-0.04788078;-0.0020790894;0.01064431;-0.0951553;-0.13591805;-0.01731051;0.03188705;0.096625835;-0.036376566;-0.0044129514;-0.1385731;-0.03949658;0.07118512;0.019957248;-0.009390427;0.087178685;0.060650874;0.11582741;0.012643312;-0.09539379;-0.0767012;-0.02345799;0.07005056;-0.07288674;-0.018463574;0.03154811;0.06583675;0.06566151;0.041779492;0.07233026;-0.036159515;-0.09655987;-0.050294176;0.09085285;-0.06107219;0.021899564;0.039320998;-0.033567548;0.028462537;-0.05535171;-0.062749065;-0.037029315;0.0686934;-0.018154042;-0.03300267;-0.04491573;0.029336376;-0.08205815;-0.11870364;-0.040558297;0.07904011;0.1060181;-0.06387342;-0.05945584;0.16554388;0.06050624;0.048372857;0.013681396;0.029743245;0.00487948;0.068589546;-0.047611997;0.020853322;-0.035834346;0.042118624;-0.023761502;-0.04033329;0.03741744;0.008084609;0.031658195;0.038230103;0.00014283048;0.031612094;0.07272357;0.08795564;0.07195795;0.04765283;0.001109801;0.012348678;-0.026718313;-0.062361557;0.025812903;-0.0774855;0.072001055;-0.0064888843;-0.02375139;0.031897448;0.024059353;0.052676614;-0.0625784;0.04426632;-0.017192194;0.022585137;0.0014088807;-0.06848984;-0.08081945;0.03694219;0.054816466;-0.038846698;0.0199786;0.0066636037;0.001160604;-0.007941699;0.026508236;0.027461737;0.09918214;-0.004145234;-0.14056848;0.03714852;0.019543214;-0.02752567;0.016492061;-0.03335331;0.032244794;0.031311423;-0.041005727;-0.08794702;0.046909723;0.008961233;0.008088565;0.07586964;0.07556699;-0.06945597;-0.0183795;0.070293665;0.025600262;0.010750207;0.07069402;-0.062941834;-0.025393547;0.07072064;0.060839925;0.042731553;-0.013974005;-0.07659755;-0.073463;-0.08331958;0.09269289;0.0029643713;-0.016814819;0.05453884;-0.06351905;-0.0302265;0.010123428;-0.02759083;-0.025119357;0.06816121;0.09900186;-0.028301807;0.03855141;-0.038616337;-0.07093063;0.027947398;-0.001269317;-0.0015113914;0.014519451;-0.027972983;-0.04310713;0.052363627;-0.03899167;0.05328851;-0.03714321;0.07256093;0.07565561;-0.07166849;-0.05247858;0.013884421;0.027326524;-0.043084558;-0.054108713;-0.03716137;0.06685745;-0.042188607;0.06986742;-0.07253558;0.12647294;-0.023462122;-0.016260495;-0.02978021;-0.004976204;0.09219187;-0.02578224;-0.0540693;0.037159838;-0.035449956;-0.0151794525;-0.0020867577;0.002588026;0.021475093;0.023266291;0.037711285;-0.057124656;0.02253829;-0.035732664;-0.1416806;-0.011594762;-0.039993744;0.10448857;-0.025146766;0.06850023;0.042806406;-0.05919364;0.0498247;0.046981845;0.053973492;-0.05910871;-0.058472827;-0.09846838;-0.08022542;-0.066976756;0.07296878;0.008893168;-0.011965387;-0.0027652576;0.020200111;0.011761884;0.099686466;0.042007376;0.001606838;0.095961526;-0.14913698;-0.050388344;0.022142798;0.06203409;0.03204982;-0.029107515;0.082915805;-0.03707378;0.01630904;0.09317117;-0.0027068907;0.035867613;0.09187125;0.008227747;0.0430831;-0.01742941;-0.04908549;-0.071972154;-0.048926637;-0.12856303;-0.038464256;-0.11000694;0.050618257;-0.059402615;0.071986526;0.050638717;-0.07462969;-0.05282907;0.029845392;-0.023476893;-0.037322517;-0.04088291;-0.011472697;0.05924146;0.13291158;-0.03271195;0.05527699;0.0041770553;-0.070024595;0.071293995;-0.008846459;0.05749404;0.018711003;0.08198207;-0.03175552;0.08823202;0.08117935;0.052755196;0.07900033;0.034454413;-0.08891406;-0.055562947;-0.0026963844;-0.07377143;-0.087629594;-0.05106556;-0.05213023;-0.00049898145;0.010281478;-0.03206867;0.022719692;-0.083076775;0.049989346;-0.03165871;0.080830954;0.026434798;0.08689471;0.0622082;0.09543814;-0.02436511;-0.16171113;-0.0013622047;-0.06757196;0.01572469;-0.015923802;0.0019064732;0.08104669;-0.029007627;0.06440516;3.9697094e-05;0.046271518;-0.068806835;0.02761641;0.059307545;-0.027797716;-0.044872914;-0.005331879;-0.08099543;-0.08962921;-0.04370447;0.09099087;-0.05778847;-0.096861966;-0.025544852;0.026363509;-0.06282214;-0.064353645;-0.06297823;0.071127385;-0.02960389;-0.06348721;-0.01754189;0.005100062;-0.0021103476;-0.005850476;0.034947075;-0.08753181;0.013291236;0.043606363;-0.0117267165;-0.04836029;0.045678735;0.03471476;0.038962986;-0.044733055;-0.055484496;-0.049165856;0.09661767;0.08552913;-0.044839673;0.04364844;0.05828358;-0.028001996;0.01966895;0.09971054;-0.080707714;0.04957109;0.045671787;-0.071195975;0.068709865;0.079933345;0.05033475;0.11403924;-0.0671489;0.052951377;-0.11130957;0.06805561;0.014219376;0.05850856;0.08520274;0.043654665;0.015882645;0.045264587;-0.021255545;-0.18195324;0.08281097;0.02919994;-0.062935635;-0.049822714;-0.078889534;0.08019668;-0.051076747;0.08651652;0.041548762;-0.078143075;-0.04874861;-0.05144341;-0.027971612;0.0617728;-0.07677666;0.09159821;-0.016318845;0.08130127;0.029521968;0.017914506;0.07341562;-0.0733992;2.7744682e-07;-0.017958043;-0.064612664;-0.011571992;0.0067559574;-0.006751312;0.055196032;0.031102661;0.06060035;0.10108496;0.072609626;-0.08665688;-0.040146045;0.07950821;-0.050078195;0.097591065;0.11162886;0.10673416;-0.015308205;-0.013595515;-0.06941847;0.054818925;0.014617446;-0.03812284;-0.020995047;0.0450358;-0.077215634;0.042331193;0.106310345;0.016904375;-0.03518882;-0.06295723;-0.037116367;0.0067667384;-0.048979588;-0.0410217;-0.030940328;0.07264265;-0.054198295;-0.015570648;0.08173756;-0.029057613;0.007529142;0.041845314;0.056901082;-0.043817442;0.057713047;0.03297368;-0.0056874626;-0.09135014;0.08124478;0.060526036;-0.056483436
-0.05389984;-0.05075677;0.08200924;-0.034624927;0.065774195;0.09681839;-0.14583395;0.064220995;0.053186793;0.06760195;-0.047829334;-0.053391688;0.016185634;0.057190057;-0.04099911;0.033309154;0.010662413;0.006401107;0.03968255;0.08242612;0.08182615;-0.03438821;0.049921744;0.09927696;-0.029178657;0.05933626;0.098978125;-0.07008049;-0.13151187;-0.15750805;-0.01878558;-0.066136844;-0.018439507;-0.027231991;0.08226085;0.059112996;0.09596914;-0.054940015;0.047180183;-0.025978638;-0.007112024;0.11712908;-0.02760311;-0.012021376;-0.043230973;0.09146183;0.041643947;0.065802544;0.05085164;-0.01560885;0.008166578;0.010729844;0.07590743;0.050132837;0.012237145;0.05494792;-0.036757637;0.06868656;-0.031173037;0.02662948;-0.12546559;0.05148217;0.0040076035;-0.015899746;0.08278604;-0.04044186;-0.07729576;0.013840221;-0.010093988;0.042217035;0.04911166;-0.010598106;-0.031173324;-0.019785125;-0.015526723;-0.05231748;-0.05259341;-0.018188918;-0.08598478;0.0027851078;0.056042105;0.08100637;0.10242306;-0.063743845;0.009360343;-0.106059454;0.09835354;0.056469828;0.06809077;0.03304742;0.027053963;-0.06761398;0.10509884;-0.014255262;0.022893546;0.05846204;-0.14349003;0.0035653417;0.0748446;-0.047470894;-0.0021759504;0.048242487;0.022481093;0.0672725;0.087921955;-0.115956284;0.07612636;0.06797769;-0.041846294;-0.08033743;-0.022803431;0.0026979516;-0.055642262;0.07857032;0.12201164;0.05228668;0.11873408;0.026989654;-0.018159889;-0.077523746;0.056558624;0.04809013;-0.025975207;0.00201115;-0.0273079;0.06525885;0.048240185;-0.047886398;-0.031391352;0.027322901;0.009591581;-0.072527975;0.11531211;0.054523308;-0.016431605;-0.011301064;-0.001274356;0.026493391;-0.0002778229;0.05615262;-0.011980545;0.047059443;0.10971376;0.085234076;-0.07158981;-0.0059020696;-0.038119063;0.09054106;0.0038460267;0.09259677;0.030751254;0.059978846;0.055354204;0.1160496;0.097884394;-0.008643616;-0.05875081;-0.072791085;-0.02298727;0.039029956;0.061691813;0.011270866;-0.014097019;0.07704784;-0.017740618;-0.046291564;0.03508766;-0.017536387;-0.045948192;0.034343366;0.0031083366;0.0724874;-0.06393198;0.090889394;-0.008094173;0.042497627;-0.06746147;-0.04519602;-0.110409215;0.013478375;0.023700986;-0.014061113;-0.008651139;-0.016642192;-0.09467362;0.09320692;-0.040041424;0.07058667;-0.0007427451;-0.0685171;0.011430556;0.041915778;0.012278145;-0.08003597;0.021076562;-0.03419687;0.03861348;0.049555384;-0.056818634;-0.008846151;0.08398494;-0.03022103;0.076330334;-0.047147032;-0.046200555;-0.029396689;0.027459513;0.052446764;0.050260287;0.04329103;0.008606262;0.020908285;0.069646046;-0.026252476;0.12907992;-0.0035223195;-0.051076666;0.06910496;0.050773002;0.026387297;0.09586953;0.08589905;0.035146356;0.059595432;0.051839355;0.031351592;0.021177689;0.01987278;-0.049534544;-0.06961473;-0.037452523;-0.11654065;0.0039402223;0.17612898;0.00021776433;-0.027593827;0.019132579;0.030000096;-0.023732025;0.016249325;0.0753693;0.10782708;0.10829285;-0.14470111;0.04035657;0.14179903;-0.07459541;0.00911059;-0.07401571;0.049830813;0.054004714;0.072189085;-0.080475;0.010091872;0.064792275;-0.03422861;0.09047909;-0.06508114;0.070047215;0.044820193;0.0042588143;0.065389596;-0.03832781;-0.027383815;-0.010313729;0.043944713;0.08510524;0.019318564;-0.080981165;0.011803205;-0.08312228;0.0074090254;0.050893277;-0.03076083;0.077091396;-0.062019523;0.1269986;-0.093260914;0.087710805;0.039156046;-0.034777883;-0.09410266;-0.020295363;0.13549173;0.006495666;0.09351827;-0.085410625;0.06915566;-0.054820035;0.020077348;-0.08407315;-0.0060395272;-0.03613629;-0.014715566;0.037578806;-0.053670533;0.10229274;0.02275985;-0.015360764;0.07067835;-0.105277844;-0.016463717;-0.011072778;0.022663333;0.0039023454;-0.061777905;-0.02659603;-0.05856036;0.048261866;-0.035052866;0.106166445;0.14902127;-0.0024002953;0.092094205;0.029297562;-0.016982641;0.11427189;-0.027291918;0.042160437;0.0019069714;-0.0017608752;-0.036030937;-0.043682046;0.06487868;0.0052346485;0.028669722;0.031757243;-0.056875717;-0.07727379;-0.05878629;0.0032885626;0.088575386;0.061493374;-0.03708118;-0.109753646;-0.053896748;0.05210136;0.07245319;0.05604233;0.13250044;-0.016311927;-0.13681138;0.020410823;-0.011269563;0.024897005;-0.0069923587;-0.05950843;-0.01735222;0.03375488;0.003857109;0.098968916;-0.00033848034;0.021083727;0.05969805;0.116423115;0.080989555;-0.09540557;0.013558551;0.02534212;-0.011814451;0.10252087;0.01477516;-0.05027229;-0.007432794;0.06604391;-0.022625888;0.057526927;0.06455913;0.08112414;-0.006954951;0.060203314;0.057720337;0.029962804;-0.00357307;0.06040626;-0.041384388;0.0064184144;-0.0013994963;-0.062861934;0.011833665;-0.015281689;-0.056575246;-0.004057633;0.021030733;0.03960703;0.023481457;0.027057331;-0.06291051;0.058100034;-0.012129405;0.027671976;-0.045804653;-0.07674259;-0.036285736;-0.08000858;0.06055287;-0.060687184;-0.040270906;-0.0018444986;0.05343967;0.01283219;-0.0070225513;0.029385075;0.047095668;0.06744375;-0.0061384756;-0.029238801;-0.026630696;0.01906034;-0.074641906;-0.00460427;0.08460467;-0.112129465;0.01161161;-0.07642439;0.06211612;0.084480114;0.011928287;-0.06381145;-0.091827095;-0.021780135;-0.015085574;0.039299544;-0.037998952;0.018222574;0.03212442;-0.13870266;-0.044317283;-0.045858804;0.07123688;-0.06590521;0.092017375;-0.035845827;-0.05048524;0.030285204;-0.05195592;-0.013101141;0.020945461;0.04607291;-0.026248995;-0.04048469;-0.08799953;-0.053380318;-0.15658781;-0.03574366;0.07693181;0.04150427;0.056179807;-0.12818553;-0.063813105;-0.020828728;-0.04307286;-0.025423743;-0.017967783;0.06912939;-0.0112306075;0.016939785;-0.011913314;0.016857164;-0.054448027;0.015623017;-0.026207661;-0.14121069;0.010862631;-0.027571134;0.034679227;-0.13233379;-0.048178352;-0.09008921;0.056819174;0.021926815;0.04811221;0.074931726;0.038731646;0.04206273;-0.07401714;0.023217289;-0.040923197;-0.09086058;-0.028958192;0.09526639;-0.08329472;0.039755765;0.005339625;-0.080638565;-0.060121406;-0.0020336905;0.03559946;0.12286709;-0.040170133;-0.0410214;-0.113181405;-0.018398324;0.08924247;0.026839972;0.027815143;0.053126846;-0.02545938;0.030049391;0.0022544018;-0.15007883;-0.04796637;-0.06963819;-0.022602418;-0.06967582;0.06744384;-0.06530027;0.010568948;0.030638255;0.037349835;-0.07680855;0.019398056;0.059219576;-0.0058334363;0.03487937;0.010355437;-0.042870156;-0.0040435055;-0.059210416;-0.0624345;-0.0025333522;0.07635629;-0.01309551;-0.014340817;-0.005756924;-0.034461472;-0.08214722;-0.01679775;-0.0051793125;0.024981061;0.018106746;0.073129356;0.18855864;0.013659285;0.065222785;-0.06534204;0.024218045;-0.06117925;0.11149591;0.044885557;-0.012386146;-0.053167433;0.055696137;-0.009839711;-0.032449063;0.057400968;-0.004174112;0.030374793;-0.027419893;-0.05429182;0.0492063;0.11026163;-0.08442889;-0.072332196;0.012858422;0.06819717;0.0010063779;-0.055662446;0.058761097;-0.12123024;-0.032875735;-0.0052477196;0.04402595;-0.039635938;0.0054576895;0.031134412;0.06238362;0.0011687207;-0.06589534;0.041959252;0.05172253;0.08700621;0.048001833;-0.060296535;-0.027533576;0.090315096
0.08255177;-0.0333607;0.08184387;-0.045579273;-0.016449384;-0.017775381;0.037216302;0.066343166;-0.009526426;-0.0010469719;-0.0022676452;-0.028931372;-0.022747826;-0.05990302;-0.052997008;0.049578775;-0.11196289;-0.083874896;-0.052573226;-0.04205006;-0.018784985;0.0631509;0.08067525;-0.019188594;-0.07593289;-0.09511988;-0.025068086;-0.068800084;-0.0557443;-0.11923306;-0.03254876;0.024895865;-0.01307552;-0.017935194;-0.05490999;0.012276612;0.051997673;-0.01595784;0.07174507;0.055515543;0.0042658756;0.118197925;-0.015778905;-0.020292182;-0.094292626;0.031065643;-0.06494611;-0.07399082;0.0118809445;0.09620767;0.039981075;-0.02187131;-0.017663559;-0.005272767;-0.031488474;0.0017837555;-0.039523203;-0.051111635;0.0101591395;-0.029466363;-0.097699694;0.041897744;0.11087;-0.057998307;-0.011281843;0.022245914;-0.046336092;-0.06144744;-0.05217178;-0.032035246;0.056619972;-0.03147104;-0.04402553;-0.06781236;0.046644025;-0.031290952;0.041499455;0.042068888;-0.03564412;0.016198836;0.031835396;-0.07015984;-0.004870625;0.018837558;-0.06255793;0.014339955;0.10334114;-0.04808288;0.06842418;0.0042407727;-0.038860787;0.013313471;0.09331547;-0.0020555803;-0.049723066;-0.06772393;-0.023401935;0.046641495;-0.059552204;-0.054419845;-0.009424588;0.009335296;-0.09772086;0.09807074;-0.064066656;-0.084848024;0.0075192265;0.09110288;0.014804949;-0.072651096;0.021915408;-0.06472018;0.00552605;0.067650765;0.045102216;-0.057254836;0.07313969;0.0347392;0.050457776;-0.10278541;-0.07702768;0.0512994;-0.038748536;0.053987745;0.016044825;0.016648278;0.018977104;-0.012037349;0.06429314;0.011027618;-0.028725164;0.019410107;0.032481365;-0.0777463;0.05252369;0.017024186;-0.054468296;0.07171326;-0.11825647;0.056120858;-0.0045358245;-0.0025451984;0.024944318;-0.02270603;-0.022062777;0.04166546;-0.11557155;-0.04532105;0.043145232;-0.0071833385;0.038121477;0.02501945;-0.013843936;0.03358634;0.04829056;0.01563496;-0.096360154;0.030001612;0.071674034;-0.039699256;0.06983244;-0.06513535;-0.04992648;0.06657779;0.02512133;-0.03441209;0.004557484;0.052588087;0.020145517;0.01812086;0.07070206;-0.05783265;-0.0045779995;-0.067376934;0.012476322;0.03891768;0.020252522;-0.006767267;-0.03939897;0.034195468;0.0045731203;0.0066181645;0.025259178;0.025365612;-0.0346288;-0.03337935;-0.047001984;0.035261717;0.056837656;0.0114049185;0.11138319;0.03433784;-0.061204534;0.05172353;0.067593366;0.050974645;0.02425883;0.03298258;0.036855847;-0.073473476;0.053944033;0.014984322;0.038575295;0.01634194;0.074140996;-0.032066356;-0.022395035;-0.04073416;0.07523782;-0.047088407;0.041140445;-0.04026515;0.04766565;-0.07287965;-0.020654278;0.051974148;0.0043631922;0.03161221;0.021825863;0.07174958;-0.062046234;-0.0041122627;-0.058363114;0.057588685;0.034527313;-0.059702877;-0.12060975;-0.08499685;-0.03373477;0.02640297;0.05254808;0.0013914029;0.072870806;0.09359512;0.0034739354;0.034462586;0.08855759;7.802148e-06;0.029345835;0.015850468;-0.0809635;0.091827795;0.03995911;-0.09189426;0.059515014;0.13108271;0.027465632;0.08983736;-0.01929749;-0.03244084;-0.025070317;0.01800168;-0.06202524;0.055751886;0.062517695;-0.014864936;0.096621595;-0.0074423132;-0.025079913;-0.01003115;0.05210094;0.060453914;0.020270308;-0.0044405726;-0.060592443;-0.034171104;0.03596808;-0.038553223;-0.036779378;0.019576307;0.052029524;-0.01569984;0.03735327;-0.05765815;-0.022874441;0.08561498;0.15209822;0.00031521806;-0.03428325;-0.06244334;0.0480641;-0.041036833;-0.06254591;0.06921237;-0.0029298393;-0.081995085;-0.0039883307;0.07993741;-0.037213676;-0.07262453;-0.038526967;0.040572233;-0.019269837;-0.008875015;-0.012161798;0.029118152;0.049017627;0.03759421;-0.03968949;-0.0054338104;-0.049813032;0.06482505;-0.019357651;-0.016939659;0.050502013;0.07509385;0.05212834;0.023192342;-0.0044272067;0.08529846;-0.016940353;0.0650353;-0.03060614;-0.031325147;0.09686656;0.034550346;0.14772394;-0.050966997;-0.069260456;-0.048562586;-0.017428966;0.055275097;0.0021133937;-0.05972642;0.06519082;-0.029231379;0.014331619;-0.019963587;-0.052674074;-0.03746014;-0.049126327;0.029651571;-0.07730951;0.013506599;-0.11629958;-0.039475825;0.09197745;-0.045305446;0.11062577;0.0068908343;0.029253546;-0.045396056;-0.03855516;-0.021090582;-0.004746924;-0.033511657;0.00503274;0.014968878;0.024051478;0.0342562;-0.021947036;-0.051203854;0.07068036;-0.05709061;-0.020538209;0.023488045;-0.051439855;0.081284635;-0.054931525;-0.017111134;0.020009324;-0.113091074;0.023322925;0.100481614;0.06754579;-0.023381818;0.030030098;-0.045662228;0.066724814;-0.06905644;0.017628692;0.066770755;-0.017177945;-0.033756755;0.03002922;-0.11672808;-0.086005054;-0.06696268;-0.031415556;0.016831301;-0.038744617;-0.051612608;-0.011512694;0.046070587;-0.039927244;-0.074494444;0.0052315993;-0.057697777;-0.03263637;0.05229851;-0.03905456;0.06819783;-0.081376575;0.045036722;0.05356548;-0.036289822;0.043741174;0.07726335;0.012689913;0.031603355;0.038486063;0.040574018;-0.08016157;0.13416307;0.09736903;-0.080580585;0.022427926;0.08034228;-0.018955644;-0.041287225;-0.018658757;-0.0029242388;0.065953135;0.02845432;0.018372782;-0.025059922;-0.009045697;0.045147162;0.0020425965;-0.038918067;0.06254602;-0.037315186;0.0023357258;-0.008933999;-0.04960308;0.021458989;-0.013557322;0.012847204;0.015518209;0.050303884;0.08507658;-0.023963608;0.0069208825;0.079580665;-0.07328639;0.018302085;-0.023811897;-0.028137363;0.039050028;-0.031272057;-0.010131816;-0.06380422;-0.011653932;-0.0483038;0.032784592;0.10583508;0.071200885;-0.00038968527;-0.010333697;-0.028026937;-0.050955318;0.008962872;0.050614215;-0.084728576;-0.12844898;0.042334367;-0.07014533;-0.038467467;-0.08130008;0.0134142535;0.03740437;-0.002881946;-0.004401423;-0.06422668;0.042608622;0.025070848;-0.07381921;-0.04839411;-0.08802246;0.060394026;0.04769675;0.06934643;0.04184429;0.017302778;-0.06226725;0.029401913;0.0748106;-0.043622185;0.030129524;-0.00768112;0.04299472;-0.048979994;-0.084141456;0.017400045;-0.024626555;-0.07171506;0.07262775;-0.039060455;0.112936504;-0.08272031;-0.063753836;-0.05009749;0.06322551;0.045753203;-0.03747673;0.18556914;0.039303817;-0.018492537;0.058720008;0.09628885;-0.032636438;-0.03382208;-0.041658327;0.004972767;0.03729482;-0.011752043;0.043892663;-0.06525035;0.032344494;0.06487427;-0.00921093;0.018455843;0.020798037;-0.016623158;0.041155856;-0.049295746;0.076057225;0.00028730507;-0.023776453;-0.009239931;-0.021369243;-0.038848005;0.0009737509;-0.08042094;0.11387404;-0.006869346;0.069071434;-0.025339724;0.026982604;-0.024339208;0.07251205;0.066671744;0.1312245;-0.050902173;-0.025311632;-0.060179602;0.06104474;-0.025116624;-0.013650117;0.12953882;-0.016229326;0.083251745;0.020402094;-0.013200732;0.02915468;0.05335082;-0.035897117;0.0019933828;-0.034613736;-0.06845527;0.06874088;0.008626891;-0.009825153;0.01769795;-0.037178878;-0.10143902;0.03470936;0.022038275;0.07498788;-0.009391123;0.00902518;0.019905569;-0.027084386;0.027114158;0.033007648;0.041429307;0.14221741;-0.066712245;0.054285012;0.06659043;0.02090038;0.050252106;0.0070905415;0.092329994;-0.0051141735;0.06867607
0.075253196;0.0031194584;-0.0033656552;-0.107928574;0.075367786;0.07150655;0.024088042;-0.06414585;0.008927283;-0.016507717;0.012034958;0.03666493;0.063015826;0.08866148;-0.024891658;0.074845776;0.016609058;-0.00684157;0.098677814;0.0702116;-0.016991025;0.009829108;0.0074535916;0.05467852;0.0032291783;-0.11420805;0.07390872;-0.014956786;-0.06227687;-0.003505629;0.047751658;0.054640684;-0.00280095;0.07849908;-0.044368558;0.02601299;-0.0142733;-0.017152326;0.05965178;-0.048130397;-0.065165415;0.0067838617;-0.006994272;0.058636263;-0.041628104;-0.026517311;0.05925536;0.012111697;0.00830086;-0.064166024;0.040330008;-0.019467195;-0.0096523445;0.08948939;-0.051324632;-0.014574923;-0.039177295;0.05787973;-0.036185563;-0.019358855;-0.04123714;-0.022702316;0.056124248;-0.039154693;-0.021264723;-0.0023781932;0.030901726;-0.12182054;0.06984033;-0.045085397;-0.01958135;-0.020334989;-0.031949546;-0.095868036;0.09727969;-0.07350055;0.069196254;-0.07366191;-0.11877604;-0.04611372;-0.054561593;-0.021626147;-0.049453273;-0.08727914;0.012484902;-0.04373022;-0.0303658;-0.06388359;0.01162116;0.023946347;0.04980359;-0.018869393;0.09046522;-0.08714849;-0.026970573;0.085226744;-0.038401466;-0.055881698;0.028121652;0.082931966;0.090683535;0.044559382;-0.0034254917;-0.050724965;0.0045028664;0.010446666;-0.033058412;0.019782025;0.07760692;-0.06152629;0.050751876;0.051198047;0.06903183;-0.036128197;0.08081892;-0.020332906;0.020002982;-0.0102902595;-0.020353125;-0.11505594;0.055094928;0.040865052;0.05058922;-0.06905981;-0.02193366;-0.022223227;0.008619351;0.056291375;-0.024166754;-0.0089903055;0.006128151;-0.056584354;-0.06373304;-0.0131290415;0.07056958;0.06151569;0.014564273;0.06213089;-0.027032502;0.086586334;-0.06346362;0.03792619;0.0042605367;0.0082595;0.034510422;0.07720819;0.0453153;-0.084069915;0.0064159525;-0.0714042;0.007909021;-0.067062296;0.040975377;0.06439701;0.049733277;-0.05351689;-0.06770883;-0.06166738;-0.012340906;0.08440558;-0.054103263;0.057855006;-0.07671391;-0.033639196;0.0437988;0.067737505;0.07333231;-0.018276166;0.013368856;-0.01361844;0.0143488245;0.034885723;-0.052375045;0.08137313;-7.96649e-05;0.031961057;0.021533456;-0.0642694;-0.10585673;0.074888155;0.062614664;0.0040284297;0.044130985;-0.003592151;-0.04308802;0.048058104;0.08241453;0.014630327;-0.031541515;-0.08622596;0.1281472;-0.064014316;-0.03520689;0.060149606;-0.041634727;0.06758907;0.10754178;0.027095381;0.060678877;-0.017462157;-0.014731416;-0.0027094788;-0.041102335;0.07596732;-0.06721173;-0.08308543;-0.0066211084;0.08842658;-0.035126854;-0.04524222;-0.09347895;0.041565362;-0.028397761;-0.04654988;-0.0051765554;0.036764417;0.041923948;-0.036084373;0.06343417;-0.00021136815;0.01294448;0.028544143;-0.04704223;-0.01928561;0.07023735;0.06274485;-0.07874588;-0.060341977;-0.03374265;0.011464556;-0.0090285465;-0.054024644;0.03457309;0.07362432;-0.0014724724;0.07275312;-0.03679774;-0.033535607;0.10545793;0.06582266;-0.03795915;-0.04815273;-0.028947594;-0.009096173;0.078832336;0.10591015;-0.004161735;0.062057287;-0.087280296;0.008091602;-0.070676774;-0.08668949;0.0043741236;0.023667544;0.08290301;-0.01682951;0.13821271;-0.049456727;-0.02211061;-0.026969783;0.053162165;0.04785885;0.020836556;-0.00751281;-0.030923609;0.06523132;0.029731845;0.09017448;-0.030670172;0.026181106;0.043274615;0.006412132;0.07278294;-0.00941067;-0.03343113;0.014062609;0.024027463;0.02259159;0.049830712;-0.033493206;-0.045814037;-0.052679736;0.039874963;0.06665665;-0.021272136;-0.047055185;-0.03715491;0.08493849;0.015915707;0.06515726;-0.037712075;0.05945453;-0.0076007633;0.061349776;-0.022471357;-0.026775353;-0.12223466;-0.0010684318;0.050285432;-0.056284253;-0.034245815;0.054854173;0.041224826;0.024109052;-0.008951845;0.070459925;0.07772383;0.015523532;0.074837424;0.08492065;0.07829179;0.052712195;-0.02259978;0.022510448;0.05985913;0.06833306;0.11233949;-0.09928339;0.056457534;0.0602814;-0.06965341;-0.04690108;0.058625095;-0.02922103;-0.05855894;0.074888006;-0.011792298;-0.122744225;0.024548883;-0.024977539;-0.008782152;0.08584276;0.01685579;0.0036519093;-0.06508461;-0.0137260845;0.004941206;0.020706102;0.07722725;-0.052594773;-0.04574458;-0.15457165;-0.039154567;-0.08590728;-0.08356836;0.050085943;0.07075311;0.056797013;-0.041722093;0.08672002;0.10092564;-0.095523655;0.07498184;-0.10368536;0.01249968;0.03727462;-0.12304285;-0.03096011;0.03196922;-0.034456104;-0.050368346;-0.111387715;-0.07667525;0.034396745;0.04283873;-0.06613986;-0.034294274;0.07153915;-0.047170237;0.02826071;0.032953724;-0.0036632747;0.011315306;0.027293669;-0.035509873;-0.073498;0.05732735;-0.012788616;0.05122762;-0.061550952;-0.0012368212;-0.04530682;0.072172135;-0.078585826;-0.017013997;-0.064260505;-0.046045825;-0.073447086;-0.03709499;-0.073141865;0.0022052042;-0.056242347;-0.01162838;-0.043767214;-0.043092888;0.011886473;-0.013737432;0.10668127;0.0054367026;0.035056446;-0.04994893;0.04348275;-0.068493664;0.052854374;-0.009189089;0.049553864;-0.113802075;-0.0039783325;-0.07417511;0.07623921;-0.05882929;-0.052621547;0.05576417;0.104550645;0.01998784;-0.078342326;0.05364921;-0.114357136;0.052307304;-0.03217166;0.050429303;-0.06872783;0.011099505;-0.0067574596;0.0032893443;0.024502346;0.0048907;0.052290015;0.07255848;0.021010814;0.027205357;0.067001104;-0.056868054;-0.04920274;-0.034140524;0.073848546;0.053985763;0.08122492;-0.033155095;-0.03482259;-0.09951561;-0.059042424;-0.000973762;-0.043229975;-0.090329096;0.084908746;0.024396488;-0.050636325;-0.10244456;-0.06953484;0.07383521;-0.04172599;0.09894285;-0.106061295;0.010551743;-0.079104125;-0.00501188;0.08625676;-0.004818976;0.082731865;0.061953146;0.030453367;-0.04248123;0.09370214;0.04587157;-0.063441955;-0.02647357;0.025222681;0.050918244;0.024987772;-0.05607633;0.070617594;-0.03894165;0.04551302;0.054399487;-0.025848811;-0.011663829;0.04114757;0.015124911;-0.0064247334;0.08604666;-0.01268277;-0.02478171;-0.037611227;0.033269767;-0.09702958;-0.071800046;-0.038735617;0.09653802;0.06513994;-0.005855186;-0.036113385;-0.047592502;-0.010963819;0.06541432;0.10582881;-0.02288764;-0.008610249;0.063180044;-0.06377159;-0.070755444;0.04704602;0.010270549;0.07732469;0.046898816;0.07665776;-0.059966203;-0.0475376;0.017944803;-0.08690502;-0.010695838;0.07860234;-0.043633062;0.03864645;0.045270737;0.017175745;0.036832582;0.060150217;0.051329724;-0.11473049;0.06567201;0.035568237;0.05044881;-0.08540266;0.10331589;0.014126338;-0.034430183;0.001760215;-0.08455781;-0.026390404;-0.0021503612;0.009610915;0.08593371;0.082042664;-0.02760505;0.0724195;-0.018849442;-0.036247227;0.10231178;0.115224086;-0.021629468;-0.07608911;-0.026603648;-0.03610325;0.013846769;-0.019419452;-0.026578024;0.025983913;0.005689407;-0.058028392;0.060689654;0.054807916;0.066666804;0.042156514;0.027045384;-0.030592047;0.033494033;0.0067014233;0.051101614;0.028518423;0.032084774;0.021741953;0.039022673;-0.002478331;-0.0127059985;0.05317456;0.1011577;0.07069421;0.020237751;-0.064029686;0.05464413;0.12475854;-0.05140351;0.06835303;0.0031662553;-0.0347747
-0.024129676;-0.05957511;0.071917005;0.030876225;0.08748979;0.033667296;-0.04040335;-0.07920967;0.15761271;-0.011853502;0.04409282;0.033084072;-0.037494004;0.059151966;0.072301626;0.018885959;0.086999014;-0.00038401576;0.009423065;-0.057273854;-3.4272307e-05;0.06992648;0.087357245;0.0536593;-0.07764549;0.089225926;0.05907822;0.0642759;-0.039572693;-0.11515797;0.06995462;0.06960151;0.030187491;-0.016951427;-0.025518967;-0.010216209;-0.060048535;0.031564645;0.056455836;-0.042106315;-0.059981372;-0.0018024339;0.042167332;0.08081143;-0.0056923623;-0.035079844;0.04308586;0.046374902;0.043708704;0.060864165;-0.116214395;-0.11732007;0.0015098976;-0.06650215;0.0015793132;-0.06482989;-0.020935358;-0.03485217;-0.033862565;-0.007086216;-0.05047372;0.10125474;0.06802683;-0.0038583176;0.093153425;0.08958698;0.056330957;0.028914254;0.00065079343;0.039352622;0.023747748;0.007963278;0.0627881;-0.107475474;-0.051399294;0.011494636;0.0022008768;-0.08444032;0.036023017;0.036910843;0.028663352;0.027987974;-0.07239873;0.023702031;0.038057275;0.0017103791;0.030352978;0.07950438;0.09829233;0.04339998;0.025853401;-0.009641161;-0.040679995;-0.024097698;0.037744414;-0.06658991;-0.01651094;-0.0043377997;-0.027727561;-0.031144734;0.03426455;0.0110048475;0.038049027;0.0024945112;0.052450154;0.029667383;0.058023147;0.006705251;-0.02238931;0.08228659;-0.10943092;0.02951711;-0.046485055;-0.073119804;0.022012578;0.00022117677;0.022845866;-0.046274517;0.045426924;-0.031625256;0.05661508;0.05828268;-0.03119044;0.06615229;0.013600159;-0.003341635;-0.034677994;0.094434485;0.097238556;-0.027451571;-0.037725728;-0.081057794;-0.02668932;-0.03759914;-0.09663947;0.05824835;0.077903785;-0.039274756;-0.03253887;0.039141208;0.037917506;0.100974776;0.09110596;0.039587986;0.09964215;-0.017002229;0.04975963;0.01782342;-0.03245873;-0.0305901;0.00561416;-0.03412581;0.022482561;0.015885975;0.057626452;-0.06056276;-0.014924634;-0.023077445;0.0028990787;0.009793211;0.013652473;0.0038348262;0.12424136;0.0064218957;0.011449068;0.019785294;0.06298535;-0.0641621;-0.118201345;-0.03763705;-0.027850114;-0.02168171;-0.057819124;0.06801359;0.056243543;0.04150147;0.05048728;0.064220265;-0.002930007;-0.06566031;0.041685168;0.005128665;-0.0083935615;0.0035912115;-0.14485638;-0.05230205;0.005777288;0.10392189;0.13291526;0.005895484;0.018301861;-0.018674945;0.0103708925;-0.020129476;-0.05354574;0.020691007;0.11229586;0.02732948;0.0572323;0.041891184;0.031325843;0.03966622;-0.057443574;-0.022244222;-0.03349205;-0.031615883;-0.012431854;0.06979604;0.012643008;-0.011493755;-0.014074032;0.08969432;-0.05157625;0.04194901;0.056559537;0.0034416101;-0.049799167;0.07877962;-0.0024999338;0.0026332622;-0.06486752;0.08466598;-0.0043147043;0.015251404;0.00929157;0.08091022;-0.11169968;0.043924313;0.09048178;-0.13532986;0.0730818;0.050654765;-0.06872931;0.049025934;-0.038629983;-0.056131482;-0.003657894;0.04896788;-0.06404272;-0.031570986;0.059459496;0.0012573295;-0.05491744;-0.01847521;0.0027914506;0.08462004;0.045918122;0.033037275;-0.031242125;0.08246913;0.107513756;-0.044468626;-0.14376497;-0.0041781124;0.046029404;0.039963126;0.013936653;0.05194871;0.070684046;0.046083715;0.03282633;-0.013285915;-0.01634361;-0.023060359;0.065039165;0.067333646;-0.04923774;0.0024519009;0.042117428;-0.042248964;0.047874074;-0.044917546;-0.054731533;-0.056126956;-0.085965194;-0.06754869;0.09264116;0.02326091;0.068209104;-0.02052147;0.08606006;-0.05925112;0.03419842;0.03950588;0.059677158;0.076356925;0.05361785;0.02013893;-0.08584512;0.06539944;0.0990827;-0.054770898;-0.027289355;-0.05356668;-0.06440448;-0.15446597;0.072764754;0.029087387;0.027782848;-0.023242319;-0.15349975;-0.06274042;0.037272748;0.0032384363;0.051886886;-0.079284504;0.05605925;0.02749273;0.07987117;0.109545246;0.036398493;0.04903074;-0.027635785;-0.098398134;-0.05990402;-0.07375736;0.07756052;0.069538794;0.027045358;-0.044616617;0.0105028795;-0.016578928;0.010080804;-0.0122163985;0.026619013;0.011715492;0.008713265;-0.006811169;0.070499144;-0.05067127;-0.02491066;0.062096167;-0.076791726;0.014496058;-0.21403997;0.08900996;-0.04474981;0.016085923;0.018919319;0.02227324;0.03406518;-0.06814462;0.06473882;-0.058110174;-0.03281011;0.022545202;0.0083748195;0.044510543;0.009108528;-0.05916293;-0.010112834;-0.1041707;-0.0032730373;0.03870176;0.049024384;0.11854285;-0.12600999;-0.016277498;-0.025454937;-0.052466854;0.016302254;-0.029468725;-0.014311703;0.07005311;-0.01736605;-0.03133013;0.048303813;0.07725324;-0.06592731;0.103312716;-0.026787682;0.023721015;0.029504376;-0.007312048;0.029760364;-0.104926266;0.0073416815;-0.13573125;0.02472155;0.08477426;0.042369198;-0.032249425;0.048476465;-0.01833381;0.04609186;-0.071990296;-0.0035066926;-0.08061922;-0.017157959;-0.06370951;0.04719982;0.013077563;-0.00425145;0.025170825;0.023249933;0.014057498;-0.017296972;0.023799937;-0.022566736;-0.093322575;-0.03743419;-0.07256984;-0.009563977;0.16079277;0.049510386;-0.01922544;-0.06459266;-0.015881466;-0.0347941;0.045609087;-0.09688296;-0.025794396;-0.03049031;0.042503506;-0.03333477;-0.06665187;0.088526115;0.098831125;-0.009441079;-0.13909623;0.016229875;0.05479112;0.07816306;0.07265174;-0.010177595;0.04528109;-0.06590239;0.062585585;0.06795554;0.0014389416;0.083619654;-0.009593665;-0.13300613;0.026551817;-0.12303863;-0.046202555;0.036134865;0.041007873;0.056155026;-0.053259116;-0.060835306;-0.033110745;-0.038639437;-0.027383449;0.08876029;0.0051062177;0.08327759;-0.049778625;-0.090855025;0.027972393;0.013268082;0.093222804;0.009022342;-0.065061085;-0.009174356;-0.027362738;-0.013234118;0.09842103;-0.047332183;0.01925916;0.0047299806;-0.03284001;-0.14187975;-0.06017912;-0.031950388;0.061526086;0.038441364;-0.07081398;0.066211775;-0.083253846;-0.03516865;0.121386774;-0.024154685;-0.049660742;-0.069081895;0.012512026;0.073993124;0.07494478;-0.1063967;-0.044532392;-0.015156518;-0.033134215;0.020864947;0.0032847743;0.05591185;-0.082537964;0.07826634;0.07676571;0.11966829;-0.01723661;0.06782813;-0.089478455;-0.00756414;0.07975753;0.09683946;0.17870009;0.034415368;-0.056182913;0.060803548;-0.021896482;-0.085705586;0.013480862;-0.0141211115;0.031146958;0.00072946085;0.029992301;0.0019695896;0.056030806;0.09453636;-0.048876185;0.021125654;-0.0027842731;0.06768891;-0.011947664;0.016191466;-0.02001789;0.018456591;-0.009736472;0.05414073;-0.06954931;0.057762425;-0.062961325;0.034285344;-0.19814123;-0.021473186;-0.06850039;0.037320215;0.023343394;-0.013730149;0.11348793;0.024975529;0.051701423;0.117137395;-0.08204309;0.068851575;0.025023742;0.09056999;-0.004696147;0.10386652;0.1237631;-0.026387056;-0.07406819;0.020646567;-0.0032168026;-0.062204037;0.11120477;-0.009903275;0.04042498;-0.00616796;0.04189985;-0.0014116124;0.105976745;0.02029754;0.062100995;-0.03579971;0.05312039;-0.012032859;0.049812082;-0.029250262;-0.020817593;-0.07334991;-0.07545847;-0.044544037;0.11129447;-0.06287977;0.04971078;-0.0051238653;0.0060259225;0.010816683;0.01768071;0.0040556965;0.057627328;-0.038295213;-0.03700947;0.040128592;-0.069406725
-0.010254971;-0.051482044;-0.013030815;-0.071540035;-0.004144653;0.009413086;-0.013558015;-0.022477988;0.0574707;0.08901139;-0.0013203386;0.012712053;0.07620569;0.040611636;-0.07149284;0.026977155;0.10186847;-0.060351197;0.08466562;0.04892451;-0.055547386;-0.01577858;0.1109237;-0.005977473;0.007792515;-0.066419475;-0.057958778;0.0071503185;-0.044211574;-0.046917833;-0.049300417;-0.03288003;-0.01686358;-0.0059191496;0.03182498;-0.037150044;-0.02454449;-0.06410087;0.038666774;0.0016689677;0.08703722;0.039758895;0.077193014;0.02299687;-0.097882085;0.06980604;-0.071506664;0.057886325;0.12128421;-0.024044447;-0.11661933;0.046644963;0.041057993;-0.002434102;0.0719827;-0.044263408;0.063802205;-0.06065899;0.04966852;0.018204788;-0.027854262;0.047691364;0.18699266;0.052973233;0.034831583;-0.0066985358;0.04444326;0.020940322;0.09199699;0.057426587;-0.005704327;0.06563768;0.019725773;-0.00017703282;0.051781002;-0.03967235;-0.051276036;0.06994027;-0.07373626;0.027881889;0.047013298;0.07286867;-0.04307411;0.09892488;0.028876174;0.059218116;0.08745304;0.08038211;0.06549703;0.061040632;0.033453792;-0.054688253;-0.012414051;0.0387975;0.016449135;0.05543093;-0.12540989;-0.014526089;-0.06424714;0.09333741;0.09639363;0.066831484;-0.056799933;-0.071846694;0.02881271;-0.035363995;0.07906193;0.07500543;-0.054736134;0.08089858;-0.08026564;0.06754926;-0.018416554;-0.07162694;0.026053619;0.050980166;-0.035711538;0.040950842;0.08475141;-0.04080986;0.05947889;0.06474989;-0.03408274;-0.05877513;0.032905415;-0.0047748326;0.0609087;-0.0030034883;0.024500888;0.0491224;-0.02292979;0.07668286;-0.013327706;0.040014345;-0.036189318;0.0089782635;0.030497279;-0.034204647;-0.03646713;-0.11920047;-0.040761046;0.034751065;0.056470502;0.028389039;-0.0325775;-0.049478065;0.119305156;0.00411872;-0.0066151484;0.045088474;0.0354816;0.03676637;-0.054658424;0.072411105;-0.08532473;-0.03999558;-0.053797465;0.00075133494;0.012190275;-0.017221851;-0.046626452;-0.034603193;0.06433725;-0.08186262;0.037023876;0.050945077;-0.04508499;-0.06776243;-0.10018227;-0.069802836;0.06528586;0.09117713;-0.02997561;0.059596393;-0.06588452;-0.073010534;-0.020946342;0.034873407;-0.055958368;-0.024501245;-0.023245595;-0.03923263;0.003519325;0.06179081;-0.05250387;0.050145417;-0.054093342;0.0056617777;0.09616661;0.060530517;0.006827801;0.06350571;0.13868849;0.015829723;-0.016518708;0.004090319;0.103176326;-0.030182771;-0.033945583;0.0071013477;0.098812826;-0.052098062;-0.025899654;-0.073896855;-0.044336174;-0.0535456;-0.056030072;0.034386635;-0.003718174;0.03706641;0.09011482;0.07206817;0.005176587;-0.0030099747;-0.017913487;-0.012572554;-0.07002344;0.078997396;0.046799753;0.09188183;0.06929892;0.019277308;0.08132828;-0.015269134;0.015723536;-0.0012210094;-0.045267936;-0.07692533;-0.0784359;-0.07664193;0.053347174;-0.039175164;-0.09073282;0.086102016;0.018205682;-0.046537813;-0.050117135;-0.012783288;0.025113583;-0.06720845;0.05007747;0.096715994;0.011428517;0.018900445;0.062984705;0.025663545;-0.021350648;-0.07546221;-0.051102888;-0.054820992;0.09668592;0.032140795;-0.04405504;-0.05484746;0.07057197;0.025750661;0.13306005;0.024918666;0.0060448176;-0.027160306;0.088078335;-0.039071728;-0.068918906;0.04864378;0.02408404;-0.027646337;-0.04961794;-0.015453503;0.05278062;0.004050944;0.123148985;-0.08881377;0.0044768983;-0.016412282;0.0076845638;0.0146704195;0.13375817;-0.052838486;0.035843756;0.084952556;-0.00012352856;0.061339546;0.026024608;0.12489862;-0.033760503;-0.06722182;-0.009694904;0.013758975;0.06748849;0.032099687;0.094054416;-0.0026454937;-0.015272987;-0.022768874;0.04355903;-0.04665519;0.01416098;0.055811856;0.017615622;0.00762112;-0.110679686;0.026509214;0.0051220004;0.080009155;0.08706976;0.010263647;0.052101217;-0.05767582;-0.02473143;0.04725103;0.077780135;0.1106726;0.061712384;0.03727875;-0.05442911;-0.03159026;0.17382726;0.06832219;0.011264396;-0.19456333;-0.028964348;-0.013404652;-0.0049110083;0.06882881;-0.015597904;-0.047997575;-0.024509685;-0.049996067;-0.024825918;0.08014905;-0.03919158;-0.01422192;-0.052029327;0.06520631;-0.116641134;0.09370744;0.016238658;-0.009130698;0.06644445;0.062317695;-0.08997705;-0.12466053;0.0666096;-0.111713886;-0.032916516;0.026984489;-0.057446267;-0.058433376;0.033031207;0.08546279;0.061780613;-0.06478621;0.0030140039;0.044512264;0.072816946;0.015266356;-0.123912714;0.07881363;-0.09036138;-0.06671442;-0.03961182;-0.052877445;0.02246594;0.071302235;-0.07079341;-0.03380903;0.05483915;0.090611555;-0.00600064;0.053035155;0.040313624;-0.026865564;0.01739551;-0.07093212;-0.07172241;-0.014217105;0.12651947;-0.18504435;-0.060435653;0.008116413;-0.025021099;0.002465723;-0.058054425;0.008392732;0.022934504;-0.063266605;-0.0022691523;-0.012833545;0.05256469;0.069263704;-0.025063824;-0.021938534;-0.07072727;0.05111721;0.051322453;0.09812451;-0.008433933;0.014753207;0.030201502;0.016200712;0.013412547;0.08256342;-0.07398432;0.034833867;0.08279156;-0.05825992;-0.008155857;-0.011177854;-0.06154177;-0.055757284;-0.07451049;0.09245254;0.01623048;0.023209581;-0.06929634;-0.028474405;0.019933205;0.028527139;-0.032184906;-0.008223313;0.054879636;0.07717759;0.019422421;-0.08847049;0.07394446;0.00052800856;0.074548334;0.012927055;-0.037316214;0.07579964;-0.028051078;-0.033066284;-0.09733369;-0.013908573;-0.09113206;0.026778078;0.060854875;0.09308185;0.04399093;-0.019877022;-0.06953131;-0.0050739245;0.036006175;-0.13193579;-0.06840806;-0.11426795;0.0882098;-0.09902137;-0.07482079;-0.046936695;0.032990336;0.048630893;0.04930641;-0.13334495;-0.007988376;0.069499776;-0.0072765383;-0.02663383;-0.026839998;0.068411164;0.045795258;0.07607923;-0.004562101;0.0052105454;0.0726414;-0.022350416;-0.109108776;-0.06362047;-0.0042183637;-0.085113004;0.036400788;0.07804045;-0.067184746;0.051286075;-0.031252407;0.063455306;-0.084351495;-0.042393707;-0.12038178;0.029976541;0.057940897;0.07391997;0.042084303;-0.033130918;0.0051166387;-0.011988672;-0.044734962;-0.030602574;0.01856487;-0.035210628;-0.05316775;-0.03313481;-0.029981663;-0.040948838;0.082455106;0.13132739;0.094312936;0.010374622;-0.06146934;-0.0016607434;-0.1500644;0.00984433;-0.03543106;0.024937367;-0.027273973;0.03963291;-0.04268085;-0.059088547;0.08899386;0.059175055;-0.0075855725;-0.05851944;0.034065787;0.027441807;0.060465142;0.09308216;0.07217134;-0.004538045;-0.014088161;0.027938569;-0.0016294769;-0.023797484;0.049168635;-0.12417158;-0.030182162;-0.04086872;-0.007919324;0.05320618;-0.044275496;-0.01754071;-0.023427071;0.004731151;0.11644853;0.029612118;-0.064692035;0.029761352;-0.026239485;0.02005686;0.1629987;0.12779985;-0.037360903;-0.022319313;0.08493672;0.08639005;0.064986296;0.009432721;0.03720141;0.055885267;-0.006230882;-0.026344087;-0.06917577;-0.013351118;0.07379482;-0.013020188;0.002737557;-0.044617653;-0.013852949;0.043397717;0.008331713;-0.11084724;0.08276789;-0.07361175;-0.048167236;-0.021500291;-0.036291637;0.06522785;0.026514348;-0.03725941;-0.027903544;0.039104566;0.092470564;0.046306495;-0.12818728;0.09646304;0.10961984;-0.055662543
0.018490495;0.032734606;-0.0010185303;-0.06673256;-0.056993417;-0.011077836;0.058513686;-0.03139964;-0.04444153;-0.015587715;0.08600159;0.0037005174;-0.013062933;0.07294473;0.005382868;-0.030512681;0.0035410388;-0.0041530686;-0.06971681;0.09104408;0.050931696;-0.0038516072;-0.0048942682;0.06381406;0.07096371;-0.09543491;-0.07503333;0.099380046;0.085683875;0.03650611;0.04659467;0.005362842;-0.054361884;0.012007468;-0.045435593;0.027960945;-0.027290814;-0.097630866;0.0015036969;0.07103506;0.035108823;0.14574592;0.12504816;0.02189818;-0.08306335;0.044330597;0.07187665;0.0074136807;0.08149479;-0.026376037;-0.06401862;0.02967348;0.044354107;0.018046074;-0.10021106;0.014415232;0.068213;-0.07247355;-0.060862955;0.030655306;-0.02825103;0.04279953;0.06748799;-0.02845363;0.0064503113;0.09459243;0.008843946;-0.0742124;-0.060436413;0.00017261172;-0.0072174156;0.05911014;0.038166303;-0.143862;0.0642986;0.04226865;-0.07936371;0.02886386;-0.073472686;0.059302095;-0.016126174;-0.051242422;-0.0051993188;-0.026404355;0.041351236;-0.015296396;-0.028049313;-0.073327295;-0.0398853;0.04332924;-0.00540116;0.03411324;0.031597544;-0.018210895;0.055070166;0.04994005;-0.016349511;-0.040717926;0.07453029;-0.013555294;0.03432502;0.08439001;0.023935106;-0.049291138;0.030312026;0.079926044;0.06360512;0.05963633;-0.051323738;0.0032117127;-0.13058391;0.0019815161;0.008449222;0.0053313747;-0.07263392;0.023211526;0.11705995;-0.045388017;0.068000264;-0.062023684;0.053292584;0.026544742;-0.02076571;-0.051676188;0.0024265286;-0.027723063;-0.06498684;-0.0017923686;0.068004996;0.022990607;0.095195636;0.092056;-0.057805326;0.0053200116;0.13489796;0.10699498;0.091903284;-0.057840955;-0.03167587;-0.014915383;-0.0041218447;-0.0031962013;-0.02994471;-0.05342328;0.08053969;-0.003944693;-0.044506956;-0.038347103;-0.06408767;0.051396776;-0.039157838;0.06908969;0.057709828;-0.059399024;-0.055395223;0.05039292;-0.012481843;0.06801681;-0.071254455;0.0873705;-0.04302402;0.038493946;0.041490246;0.030771993;-0.06271556;0.046650723;-0.039058335;0.029190414;0.0619212;-0.01281843;0.049126796;0.036856376;-0.06291021;0.008166363;0.038875505;-0.06336948;0.029969502;0.07003618;-0.12908964;-0.00017273251;0.091848895;0.039861362;0.028133392;0.035574064;0.009149181;-0.040561356;0.050753437;0.020950403;0.045160264;-0.048750285;-0.04393728;-0.0068299635;-0.09771278;0.03270302;-0.0136952605;0.05358818;0.07666572;0.1271859;0.012531739;0.0142106125;-0.038125608;-0.047198974;0.036158185;-0.06871909;0.06294157;0.03252226;-0.0100842165;0.04192332;-0.026041187;-0.0011715094;-0.06011571;0.0840734;-0.018233838;-0.15908514;-0.07040972;0.03058348;-0.068979554;0.06708994;0.06960724;0.052815452;0.056061696;0.013176849;-0.037365243;-0.03419877;0.06874464;-0.06993158;0.019266976;0.039592043;0.04432239;-0.1310327;0.028835312;0.049033646;0.054589126;0.069270596;0.096860856;-0.04669167;-0.03925468;0.06491253;0.019117247;0.042018995;0.054289814;-0.022645932;0.00394746;-0.00078766956;-0.048138026;-0.046912663;-0.019368699;0.024984108;0.107379965;0.011455047;0.00970085;-0.090227716;-0.105195686;-0.029811751;-0.012681182;0.1059288;0.14683737;-0.07710532;0.016092328;-0.017913282;0.058774937;-0.0562654;-0.020352582;-0.050759427;0.011269833;-0.038059983;0.028327495;0.034629006;0.004278076;0.05310063;0.059840534;-0.038586065;-0.022530658;0.02375561;0.008136195;-0.01664282;0.01364826;-0.012493352;-0.05169018;-0.040787853;-0.09893714;0.082974344;0.017025337;0.07740389;-0.058984313;0.004545189;-0.046422653;0.11757875;0.09669603;-0.0026802204;-0.076567896;-0.034360934;0.029839564;0.045086272;0.027243515;0.050608195;-0.10551658;0.08769773;-0.046478197;0.049376823;0.0015376656;0.12031297;0.004694246;-0.051762734;-0.015678443;-0.05490138;-0.09803798;-0.009866953;-0.10420191;0.017862836;-0.0114052;0.12876454;0.050187122;-0.07669279;0.12562352;-0.008644045;0.09283379;0.0051300162;0.06790633;0.030147048;-0.039281655;0.030683106;-0.042388104;0.079223245;0.08095504;0.09829263;-0.04832925;-0.09084084;-0.047893904;-0.042036865;0.075164795;-0.1020529;0.09757114;-0.10514022;0.09382324;0.055875998;0.0043157954;-0.018921595;0.065536454;0.06947163;-0.02980913;0.0018573366;-0.048832204;0.0063509387;0.008732328;0.025314495;-0.0024295594;0.048499793;-0.06820425;0.027516779;-0.047231134;-0.01614598;0.082573384;-0.027130922;0.09796344;-0.024291623;-0.03149148;0.026040867;-0.012942636;0.056818493;-0.06800912;-0.030104043;0.087414175;0.057932526;0.05531213;-0.01609667;-0.02468178;0.051586524;-0.012004929;-0.058054276;-0.013823323;0.015654128;0.011120042;-0.04782743;-0.10907422;-0.035408985;0.08346753;-0.016277533;0.020509945;-0.019611057;-0.0655657;0.018339407;-0.05433409;0.016014865;-0.041796047;-0.057634708;0.012146259;-0.07167296;-0.05987592;0.0047027334;0.07053617;0.03339275;-0.013846445;-0.005127916;0.10481232;0.03921491;-0.0047780173;0.03973794;0.019318264;-0.024399487;-0.088522;-0.072014436;-0.014750726;0.06915405;0.059573893;-0.067494534;0.009521673;0.09077891;0.024849107;0.025788605;0.04094831;0.10732403;0.05769828;-0.01524415;-0.07117246;0.0030830463;0.023322163;-0.05884146;-0.036535285;-0.09091295;0.033463724;-0.003842586;0.031208998;-0.03390666;-0.028232083;0.03397116;0.013027142;0.05060477;0.0208453;0.03176013;-0.08302418;-0.036847036;0.04542171;-0.038389973;-0.06447161;0.08891563;-0.008417662;-0.00014069697;-0.03217725;-0.07208092;-0.13650955;0.09647573;0.0067013255;-0.07727365;0.020305544;0.05211376;-0.009401163;-0.02634499;-0.037897557;0.05246227;0.08288553;-0.037228506;0.049722962;0.020114299;-0.1298911;-0.013610766;0.032699816;0.08041481;0.022000188;-0.026279138;0.05568828;0.002038904;-0.066889256;-0.045976713;0.035735693;-0.004200455;-0.09045366;0.044483446;0.0825669;0.031667452;0.01984422;0.0036529005;0.011406065;0.012050538;-0.07132884;0.082525045;0.050553422;-0.0488063;-0.122726105;0.019654352;-0.004231273;0.0806082;0.023017032;-0.11571474;0.07718255;-0.089129925;-0.033666532;0.046074133;0.039175365;0.049066205;0.02373189;-0.1017661;0.02788474;-0.04881144;-0.10190329;0.15683351;0.07942682;0.059836168;0.0741809;-0.041130904;-0.1086605;-0.005574114;-0.056703158;0.08081678;0.074487805;-0.027794212;0.059914324;0.11446343;-0.029020086;0.026989808;0.027669024;-0.018235587;0.019402858;0.069272034;0.056352902;-0.02767516;0.011837635;0.043812115;-0.034660168;-0.040499568;-0.024968497;0.0047830148;-0.006699097;-0.007940967;-0.042214975;0.04230053;-0.045085695;0.05061849;-0.01866011;-0.038099173;-0.052182704;0.09718404;-0.0067366245;0.047104575;0.11612858;-0.017702093;0.052428808;0.06359606;0.07312169;0.045420125;0.021839676;-0.06101675;-0.02887839;-0.02890781;0.092903726;-0.03396338;-0.041899882;-0.00091758784;-0.07721976;0.0853265;-0.061579186;0.103379145;-0.048358943;0.08629433;0.082384884;-0.095288776;-0.019981569;-0.022678765;-0.09609165;-0.023530826;0.04786437;0.028336715;0.0953485;0.09699036;0.079585016;0.0027792372;0.20167328;-0.007157592;0.06354659;-0.05232979;-0.016052404;0.03920049;-0.022692116;0.10962906;-0.012024531;-0.077274226
0.09111027;-0.015030923;0.023394458;0.064605854;0.05852842;-0.041084196;-0.0055394075;-0.0055789747;0.07711606;-0.008927496;0.085288584;-0.0577981;0.03664665;0.031358637;-0.07313771;0.023034006;0.077129066;-0.03820327;-0.047374092;0.0747785;0.06357979;-0.053523242;0.038148057;0.0366984;-0.0032302418;0.018137254;-0.06143119;0.019755645;-0.013197253;-0.08089159;-0.051122572;-0.050641995;-0.042252485;0.05783246;0.008379944;-0.059562042;0.0029143735;-0.10491776;-0.06268607;-0.023170806;0.077366255;0.03202709;0.008751531;0.04619053;-0.075643815;0.0050753606;0.055340126;0.07984483;0.030316327;-0.018819999;-0.061898805;0.011569704;0.053881023;0.046049025;0.021512076;-0.0019783082;0.072145544;-0.030896345;0.06650081;0.038764626;-0.014920967;0.0064809;-0.0020930674;0.005728527;0.0074841273;0.034388036;0.025120787;-0.11345078;0.10234705;-0.017898483;0.042670015;-0.10771341;0.08291622;-0.030615814;-0.057274632;0.03787335;-0.079490654;-0.023486245;-0.03986297;-0.056354746;-0.06211587;-0.05531177;0.045637693;-0.06835123;0.087753385;0.07186302;0.0686596;-0.049161807;-0.04614891;-0.01967478;-0.009653327;-0.06480971;-0.011621592;-0.031780493;0.007920411;0.079784565;-0.03234154;-0.009232967;-0.045508258;-0.023535509;0.027724678;0.10206803;-0.06058799;0.08030562;0.017204626;0.052791823;0.056697063;0.018853633;0.074824624;-0.0778262;-0.15748726;0.024127081;0.020863917;0.015630495;-0.0060681677;0.035765942;0.035221715;0.06411094;0.05164085;0.034497138;0.014823812;-0.01760572;-0.028865617;-0.016561296;-0.04751372;0.03881811;-0.018829908;-0.0017354137;0.10261037;0.018998303;0.067499764;0.009581797;-0.012841529;-0.009297319;-0.030677062;-0.040088624;-0.06734877;-0.042527065;-0.003521322;0.0017563067;0.032711245;-0.0032434259;0.054166447;0.009152622;0.042430367;0.010166792;0.030313307;0.023482388;-0.03201616;-0.026405595;-0.045140482;0.0116952015;-0.016146977;0.08766109;0.04338259;0.09010594;0.09574893;0.114288196;-0.013066441;0.07146176;0.019728027;0.033082917;0.103390746;-0.06905518;0.06343188;0.023017978;0.09423464;-0.014515522;-0.0014932076;0.024683595;0.02709384;-0.088309936;-0.03349299;0.06361241;0.08404031;0.08007763;0.06472963;-0.06591998;0.08176567;0.00013354789;-0.047518082;0.029187176;0.03937929;0.060741767;0.017918369;-0.08401294;0.0024136174;0.09036766;-0.0565681;0.014957671;0.12657398;-0.002412553;0.07151867;-0.0009611733;0.0026140015;0.004316232;0.071730755;-0.070404455;-0.005400799;-0.051511988;-0.042628057;0.005089113;-0.031434495;0.0012488145;0.033100944;0.053847305;0.016019905;0.08027722;0.06024394;0.05070841;0.061728336;0.06656664;0.06292992;-0.032982815;0.10760875;0.16506234;0.08196653;0.054272722;-0.008837048;0.07856775;-0.018906565;0.030515207;-0.06308553;-0.043352704;-0.027426492;0.048889626;-0.09706714;0.009719885;-0.027676454;0.016727574;-0.05652711;-0.08450307;-0.0590104;0.08153815;-0.048726648;0.000383918;0.037783336;-0.024736429;0.09366896;-0.03607714;-0.022470213;0.0139674945;0.0450668;0.019573178;0.023984924;0.114628375;0.08785851;0.045814425;0.07022467;-0.040249202;0.06602137;0.055923678;-0.114498444;0.038861793;-0.02150862;0.02807808;0.11625268;0.047061194;0.059080184;-0.0030763277;-0.053975254;-0.015882075;0.056396957;0.03021939;0.04258037;0.02066825;-0.035535507;-0.027141321;0.017836506;-0.06356236;0.13274279;0.09679167;-0.07426909;-0.024234379;0.074807204;0.051237512;0.023585146;-0.055698145;0.079561345;0.060379144;0.08196086;0.05875265;0.06878942;-0.0128765;-0.037848957;-0.070419975;0.08618345;-0.013146089;0.045102146;0.053586565;0.05203713;-0.0008508203;0.018391514;-0.006064256;-0.06936115;0.009280302;0.10698941;0.11189685;-0.007768568;-0.02851642;-0.0559798;0.09133865;0.049361892;-0.015241336;0.07382945;0.07599179;0.017404512;-0.046654116;-0.050121598;0.08485729;0.07051285;0.08333278;0.071599044;-0.065815724;-0.016425943;-0.03426287;0.06493251;0.0897556;-0.079584606;0.033421963;0.025712349;-0.016482199;0.027720958;0.066212736;0.04175598;-0.022034317;0.018474901;-0.12713645;0.02193419;0.029959451;-0.029963091;-0.045129865;-0.068190746;-0.08336574;-0.0012649775;0.02608172;0.007128502;0.029070456;0.1494394;0.10487011;-0.027167736;-0.08846306;0.05137786;-0.12356207;-0.010516539;0.05341939;0.008241156;0.058138788;0.028183645;0.05039446;0.055460114;-0.09654964;0.025095116;0.051303096;0.052244537;0.07136271;-0.08227334;-0.059074305;0.03994334;-0.028441489;0.07911629;-0.05554399;0.00035449606;-0.0066205086;-0.031674292;0.0056749526;0.037338488;-0.0020681133;0.035682663;-0.055195447;-0.037543174;0.022262877;-0.006883469;0.07534987;-0.004650951;-0.10218863;0.02229497;-0.12706335;0.060278267;0.030734329;-0.05727183;0.0855503;-0.10469304;0.05148556;0.07766761;0.012505463;-0.0034935563;0.018149365;-0.06327872;-0.036759634;0.045554;-0.0005263842;0.054469235;-0.0426976;0.028207958;0.07620625;-0.03624339;0.055416558;-0.009946313;0.028384386;-0.04216927;0.036839265;-0.1047222;0.07651414;-0.059498396;0.044792112;0.0043873647;0.06538631;0.04502019;0.07693118;0.052345116;-0.030100716;-0.0072578085;0.013113129;-0.027487779;0.0057901097;0.05535649;-0.043707915;0.0016231844;-0.10764542;0.06701619;-0.012043131;0.0053634746;-0.0129514355;0.07022165;0.009580602;-0.036456596;-0.02732825;-0.009943029;-0.016509438;0.04666533;0.090749934;-0.06405162;0.0946649;-0.06154663;0.0898558;0.04798853;0.06909082;-0.00043344198;-0.040811818;-0.08888847;0.10342633;-0.052742414;-0.009672506;0.051531035;-0.034633823;-0.021134628;0.057222877;-0.08805471;-0.008220162;0.09050879;-0.010701277;0.09869193;-0.012449145;0.033650346;0.04192646;0.023841854;0.0012995519;-0.16481851;-0.006631276;-0.0033220723;-0.023773374;-0.062437203;0.074686944;0.039038863;-0.049017746;-0.09349517;0.016277598;0.010085972;-0.0306649;0.081019655;0.07722019;0.002311559;-0.07809263;-0.063227475;0.0808257;-0.02995319;-0.051367056;-0.12558523;-0.014173966;0.040015608;-0.010889702;-0.015990676;0.078652404;0.054120038;-0.070706144;0.045316324;-0.023706794;0.06732267;0.07807574;0.06559855;-0.0059334664;-0.06702621;0.052642815;0.052896664;-0.0064309193;-0.049163513;0.036716584;-0.042525657;0.042828053;-0.14741252;0.08488006;0.032205246;-0.002832676;0.04488116;-0.014307934;0.017297134;-0.006969218;0.07758602;-0.008867894;0.03736291;-0.0053126384;-0.038337994;-0.036288634;0.102790385;-0.041599832;0.07024314;0.05770282;-0.035889756;0.022346353;-0.06852083;0.023173127;-0.039281473;-0.060226377;-0.048812434;-0.03882444;-0.00986253;0.054868292;0.061490722;0.09948168;0.06883449;-0.05859846;0.09075881;0.009705149;0.083199926;-0.01960777;-0.029908443;-0.046039693;-0.0071136556;-0.012497992;0.07346818;-0.01820683;-0.004482077;0.079257995;0.09226776;-0.041897528;-0.033311933;-0.0096364105;-0.001268484;-0.021063339;-0.07809487;0.07875236;0.01949542;0.044241827;0.04703104;-0.11578062;-0.033060577;0.056233555;0.026522838;-0.0072134244;-0.028874228;-0.059235044;-0.0055027534;0.059059903;0.006080238;-0.04811795;0.10786146;0.024165643;-0.05034129;-0.009594777;0.051068585;0.082645476;-0.03014217;-0.033289038;0.023667129;0.03099382
0.04687519;-0.0002786905;0.035571177;-0.11497598;0.072475;-0.044361643;0.117393196;-0.09971515;-0.052387528;0.009365653;0.015637415;0.000329991;-0.0057415967;0.034352187;-0.058111586;-0.031952;-0.11239175;-0.029383507;-0.042596065;-0.03916946;0.0074930936;-0.07515738;-0.034606732;0.023619296;-0.050832413;0.016645683;-0.08854229;0.03339378;0.1320513;-0.026520943;0.0048518297;-0.040792596;0.009519649;0.012376547;-0.078421056;0.045102995;0.060426712;-0.12287362;-0.0072414107;-0.04822165;-0.07881751;0.12110695;0.034034703;0.11004622;-0.009697631;0.046371255;-0.07388709;-0.03501143;0.028113294;0.0012169997;-0.0911387;-0.0408638;-0.015674444;0.093158744;-0.021534238;0.031463623;-0.013191317;-0.066374704;0.07524465;0.056574132;-0.12345571;0.023439186;-0.04269672;-0.053395182;0.00013176541;0.0884452;0.024622332;-0.09126831;-0.062843;0.07565872;0.04311582;-0.040355645;0.07878789;-0.1374741;0.0654011;-0.012273539;-0.06450428;0.07251557;-0.019418415;-0.0016769314;-0.008468136;0.07155553;-0.15496786;0.050369684;0.09236514;0.06034946;0.067269295;-0.0011964273;-0.023177506;-0.06995954;-0.021387266;0.024883965;0.059037425;-0.013513006;-0.04461915;-0.07467809;-0.106891476;0.006672832;0.014419714;0.05473155;0.034337744;-0.05463826;-0.09418289;0.054044716;-0.036063246;0.024106657;-0.07751345;-0.06184973;-0.047623195;0.026416868;-0.12474388;-0.075368;0.039278552;-0.05582888;0.0015448674;0.020592818;-0.024719108;0.04183215;0.054408155;0.036243416;0.08820309;-0.010894072;-0.019147595;0.073295705;-0.08535646;-0.00019098406;-0.026778774;-0.01989746;-0.044888806;0.08515576;0.06812181;-0.032736156;-0.06739508;0.052198865;0.07270765;0.064953834;-0.03704704;-0.027991604;0.083164275;-0.042907156;0.09259462;-0.03758577;-0.047007646;0.018035904;-0.0012829923;-0.03910975;-0.098130696;-0.058179118;-0.0074128555;-0.07722128;0.072713755;0.08067903;-0.09023274;-0.05546236;0.050383177;0.18109475;0.113318175;0.0061557153;-0.07261457;0.057915065;0.064094976;0.04931476;-0.005163276;-0.05251861;0.033584468;-0.015056546;0.0816133;-0.006769135;0.053982586;-0.043817926;0.06088638;-0.036782157;0.057670336;-0.08486554;0.033412766;0.01618705;-0.07904024;0.020718558;-0.014412103;0.0072128535;0.040471874;-0.008667207;-0.01887828;-0.018931832;-0.017902795;-0.038060404;-0.04026389;-0.075614415;0.04696409;-0.0070706545;0.07478125;-0.086345054;-0.017192194;0.103791766;0.058445625;-0.021179164;0.059953436;0.03240763;-0.050406136;-0.017317753;-0.025062246;-0.006402245;0.008367957;0.003798836;-0.06695299;0.0134774605;0.11713075;-0.033421356;-0.03483707;0.08609993;-0.073580675;0.03667106;0.018442163;-0.08595422;0.06605104;0.117088154;-0.04586827;-0.02280444;-0.051123973;0.10258635;-0.016898852;-0.065725416;0.12092309;-0.09540095;-0.04998166;-0.09767442;0.04081802;-0.016285889;-0.038287222;-0.029314257;-0.089206554;0.024047237;0.093697615;-0.029141745;0.01261292;-0.0026941092;-0.040704794;-0.06488896;0.018693192;0.036172464;-0.085011534;-0.029624248;-0.079241306;-0.032815564;-0.10482416;0.02856532;0.015504295;0.11375684;0.0012736622;0.042943183;0.037887022;-0.03406498;-0.062034767;-0.02461046;0.032897204;0.030028658;0.1240368;-0.016592536;0.07216176;0.038482144;-0.031856228;0.07523093;-0.0136324335;0.0065395283;0.041534256;-0.0768679;-0.07136066;0.009736799;-0.057862744;-0.02445568;-0.06956355;0.08146616;0.01780421;0.051080838;-0.08993206;0.03732408;0.08890685;0.05780577;-0.007550748;0.04514073;0.034141976;0.033476602;-0.059945997;-0.014048563;0.050163545;-0.009055971;-0.0027351817;-0.0016756392;-0.05431899;-0.092757255;-0.040158197;0.07487676;0.052364025;0.034843247;-0.014694452;0.02233321;-0.10606673;0.14153299;-0.07078349;-0.04950898;-0.07387164;0.02926191;-0.025634576;0.053717364;0.06930417;-0.08004146;0.017261678;0.005323197;-0.025789896;0.054469652;0.038730927;0.079172485;-0.037415996;0.14001104;0.056392904;-0.012338722;0.028702024;-0.05395974;-0.07802122;0.009846698;0.077878766;-0.0385925;-0.043526907;-0.07637907;-0.073045366;0.01415693;0.07701773;-0.028380293;-0.0066186097;-0.06102136;0.0376082;-0.069537885;0.04298702;-0.10797207;-0.0009760861;-0.0328263;0.092334844;0.021973142;0.10617965;0.0320331;-0.018858034;-0.043187346;0.041523494;-0.1126131;0.06227983;-0.00075134065;0.082582414;0.04789364;-0.009690181;-0.06508765;0.03883401;-0.043985087;0.08964267;0.014840782;0.09739418;0.009949521;-0.034297243;-0.019218564;0.008287752;0.047001597;-0.07781976;-0.047777705;-0.028736489;0.13316968;-0.017828673;0.033490628;0.02087979;-0.021703247;-0.019825079;0.04999797;0.06204447;0.012098655;0.0678616;0.053660035;0.06158921;-0.053317823;0.046704847;-0.06992012;-0.066266485;0.04238588;0.09377545;0.04164256;-0.041263334;-0.03874429;-0.023983646;0.005321704;-0.046723794;-0.07634907;-0.03225963;0.0151235415;0.04499514;0.008150282;0.040902145;0.050805386;0.08040682;0.03496118;0.06729871;0.059320323;0.1402822;0.07253196;0.013336596;-0.070718445;-0.09038654;0.09607812;-0.037589233;0.13396232;-0.014869424;0.075571954;0.035644073;0.009372618;0.063130125;-0.03975802;0.098156646;0.0063985754;-0.020179154;0.017103018;-0.040041458;-0.109387934;-0.046843354;-0.022757523;-0.039527938;0.047440536;-0.05172289;0.025587881;-0.05166918;-0.05213494;-0.019309176;0.044606443;-0.031789776;0.0041461913;-0.10002141;-0.075959474;-0.0022098708;-0.018784788;-0.04449965;0.10250797;0.07653543;-0.028819405;0.09784602;0.059613366;-0.06655491;0.040405273;0.043514803;-0.10512459;-0.09823562;0.025472509;-0.023505209;-0.018457044;-0.08706194;-0.00021274472;-0.009466761;0.08841437;-0.03174006;0.07746665;-0.13160633;0.027686702;-0.009819538;0.062608846;-0.16700234;-0.009804257;0.11010151;-0.023048952;-0.092000246;0.033365957;-0.096576974;-0.0463354;-0.12715697;0.1243215;-0.020257905;0.020246278;0.019175049;0.11999815;0.052005313;0.05264915;-0.0341345;-0.03898776;0.020582758;0.018658444;-0.10586318;0.002569831;0.057083048;-0.0010940265;0.02029956;-0.07038378;0.06318362;-0.018428247;0.0988378;-0.035876285;-0.031719223;0.040305603;-0.051251583;-0.06351793;0.044093188;0.06767678;-0.06373215;0.01623365;0.08947746;-0.055001017;0.02732194;-0.008176801;0.029975772;0.03375276;0.03127822;-0.025349274;0.034030136;0.028898925;0.056579545;0.027864864;0.0753687;0.007102851;0.09082826;-0.07827987;-0.028312087;0.07429408;0.038567875;0.0730068;0.063593574;0.09204046;0.020929566;-0.13846081;0.019740654;-0.06889624;0.017819995;-0.020193586;0.03999354;0.0045911083;-0.011184296;-0.052738436;0.016888298;0.07551148;-0.059663232;0.028380506;-0.010374948;-0.00839279;0.10407116;-0.017426703;0.009489396;0.014307421;0.056637842;0.02627511;0.0796689;-0.034729354;-0.06736048;0.043813508;0.02274427;0.031373817;0.06529358;0.056897614;-0.049117364;-0.023432037;-0.06726332;0.060688693;0.04269903;0.075893536;0.053423163;-0.15071428;-0.03177891;-0.007830448;-0.057961803;-0.05433174;0.048040237;0.064003564;0.12866427;0.098071136;-0.004769181;0.036992714;0.1251621;0.035146505;-0.04860773;0.08049015;0.03155726;0.075021006;0.027923454;-0.029181646;-0.014896437;-0.098786995
-0.025331644;0.007879512;-0.0014172397;0.02851531;-0.050038498;-0.0269851;-0.06699668;0.036867373;0.109730214;-0.005228454;-0.041835118;-0.0634208;-0.063445844;0.076796286;-0.0103628775;-0.05218186;0.12511368;-0.051589504;0.009474607;0.013951204;0.0476886;0.0068035675;0.027096627;-0.050732326;0.034209974;-0.025900654;0.06226277;0.025892718;0.014538339;-0.17918257;0.08724577;-0.06515334;0.08475199;0.0070828125;0.026388533;-0.03470942;0.0034521124;-0.06512775;-0.011245109;-0.05406306;0.05222252;0.051152926;0.029825846;0.09547355;0.018604107;0.012551911;0.06004465;0.0706865;-0.0058700847;-0.075405754;-0.06789735;-0.0050725136;-0.019062297;0.0925383;-0.065598324;0.073916115;0.020543333;-0.05512984;-0.038711965;0.06920149;-0.041545827;-0.06001658;0.023554202;0.07489837;-0.009544788;-0.016582344;0.06291116;0.018686576;0.056710646;0.060808867;0.0875779;0.032382663;0.0050915256;-0.048341714;0.015690252;0.07890077;0.03433073;0.013057392;-0.038534835;0.058514427;0.008839822;0.057413395;-0.0029269718;-0.023620924;0.06939966;-0.03897778;0.04139811;0.05780561;-0.005596539;0.09540906;0.07225639;0.062260482;0.07392486;-0.015707709;-0.023429811;0.024416417;-0.20051588;0.02946238;-0.028450213;-0.054904554;-0.06716978;-0.06020826;0.07523567;-0.001333482;0.048911788;-0.025469502;0.043766808;0.07820721;0.021081524;-0.062384207;-0.020079844;-0.0114101935;-0.10610903;0.075822;0.0048872693;-0.01789882;-0.025952281;0.042333696;0.019359816;-0.0075518936;0.0517749;-0.018618857;0.029545296;0.04626676;-0.062084273;0.06472406;0.06904888;0.022705667;-0.023874747;-0.010242704;-0.039853204;-0.021353811;0.15146661;0.13889863;0.11463005;0.06589143;0.029081898;-0.024809647;-0.050194766;0.06235504;-0.015190568;0.055524558;0.091940776;-0.06629278;0.07113572;0.113704935;0.03668276;-0.035740543;0.05873946;0.060532432;0.031494718;0.09117866;0.023119953;0.03898236;0.020300481;0.017521517;-0.022698538;0.014448157;0.023173982;-0.035628825;0.07129326;0.07550446;0.02665435;0.054154295;0.013044103;0.043292854;0.07796354;-0.027142666;0.03253062;0.07827052;-0.026213935;-0.08039267;-0.05870822;0.07579512;-0.022997621;0.09001197;0.01281409;0.0454768;0.011504709;-0.021350913;0.063092366;0.012438358;0.07174725;0.09114433;-0.06897949;0.05208909;-0.070625424;0.05405759;0.017892487;0.06978973;0.077366374;0.043072246;0.10935163;-0.01949759;0.093188725;0.05019688;0.046437033;0.028892258;0.12693547;-0.07316917;-0.029394157;-0.040314533;0.020016108;-0.012827825;-0.024994668;0.040029425;-0.045586463;0.054574188;0.059113704;-0.0082713105;0.048538458;-0.06912801;0.053229157;-0.055090856;0.09903589;0.056505583;-0.0062749526;0.051122535;0.03620978;0.06385655;-0.04464277;-0.0014060669;0.030950125;0.06881271;-0.06233441;0.08077425;-0.10446512;0.03428971;0.08098793;-0.0501094;0.01949975;0.06325729;0.08076965;0.1043344;-0.081537046;-0.054505795;-0.07021306;-0.011969371;-0.00025158928;-0.02115275;0.096603625;-0.06905584;0.0130340485;-0.15571749;0.034331594;0.05157765;0.06271268;-0.00029128883;0.036180153;0.09222684;0.10059367;-0.03675777;-0.17104883;-0.064366095;-0.07351895;0.06576344;0.05679377;-6.7766734e-05;0.0646546;0.08138327;-0.033220503;0.019198546;0.069244534;0.017335454;0.018397959;0.098211296;-0.0846772;0.013123961;0.018318927;-0.0023616648;0.06394829;-0.011141076;0.0037170514;0.00054500595;0.047624834;-0.035243057;0.024821129;-0.084957674;-0.038447343;-0.013173898;0.020468403;-0.020242937;-0.06401786;0.11864667;0.046888568;-0.06633124;-0.0064751823;0.052874077;-0.071012124;-0.041182995;0.061613373;0.011810622;-0.024509633;-0.04209775;-0.047770057;-0.09027024;-0.0012872284;0.12712184;-0.048152342;0.006884177;-0.14572044;0.11706674;0.07992831;-0.013803249;0.09224616;0.07073769;-0.02346073;0.034688007;-0.147667;0.11048718;-0.041762773;0.13546391;0.025952611;0.08077084;0.05022611;0.0006636351;0.07410364;-0.02949814;0.035520814;-0.06418676;-0.050562944;-0.034419503;-0.04122782;-0.052784555;-0.027572012;-0.022120215;0.058831237;0.042307146;-0.07425208;-0.07601327;0.08024799;0.022805994;-0.06631993;0.064708464;-0.10766943;0.033955686;0.0324391;-0.026820866;0.14308204;-0.00039889925;0.059735958;0.085274585;-0.013942031;-0.08820108;-0.071624435;0.04751728;0.005801608;-0.06344597;0.07278758;-0.037412636;0.01896134;0.040424775;0.058487203;0.08842748;0.13162376;0.029734923;-0.14354402;-0.033744927;-0.042133186;0.005732913;-0.06652264;0.027460326;-0.10295763;0.002049333;-0.023214996;0.014155571;0.08646842;-0.010104322;0.019250728;-0.03816426;0.027511153;0.0635145;-0.0059686117;-0.019016623;-0.06404588;-0.033399343;-0.063682415;-0.20674446;-0.021387238;-0.022136891;-0.048487578;-0.013211457;0.0465302;-0.07345584;0.033986;-0.027412955;0.0860941;0.057210743;-0.039636064;0.051589902;-0.100610815;-0.025907;-0.07958915;-0.0015312344;0.029183082;0.18336813;0.07068541;-0.04043792;0.09886177;0.011577073;0.088888034;-0.03220046;-0.029223118;0.08948695;0.009890209;0.026337879;-0.09075936;-0.017218474;0.064116;0.054683227;-0.010123883;0.040043462;0.08987158;0.07139342;0.039425626;0.10113466;0.09422816;0.05259258;-0.018635718;-0.020560253;0.06437768;-0.0587655;0.03887694;-0.010278799;-0.0029956116;0.03689148;0.050184947;-0.023703652;0.09248273;0.021137064;0.012610117;-0.002492691;-0.0974201;0.09519877;-0.06707147;-0.077227525;-0.04089734;0.0748195;-0.0027099987;0.10824921;-0.043050427;-0.080482624;0.05928936;-0.1033327;0.07365457;0.076956674;0.022189438;0.054033924;-0.087619625;-0.067824446;0.009984702;0.06420467;-0.005455106;0.065387934;0.0558311;-0.038064476;0.017342098;0.103740625;-0.02273509;-0.0009397449;0.056761377;-0.0006449333;-0.16484027;0.06730246;0.06622034;-0.06917331;0.06026306;0.09059413;-0.05897044;-0.037230574;0.060870085;0.11546964;-0.04082496;0.05100768;-0.0011274469;-0.029633705;-0.04061475;-0.019988436;-0.061887633;-0.07422281;-0.0042059594;0.09151922;-0.048587475;-0.052071504;0.08203293;-0.013949607;-0.046761975;0.07789551;0.094283506;0.005399986;0.064659156;-0.163811;-0.053639013;0.03155465;0.08670251;0.05640984;-0.02673566;0.06756159;0.07664756;0.0849239;-0.07632309;0.07267295;-0.037251454;-0.056016155;0.03371224;0.09544507;0.019928277;0.060846273;0.16135302;-0.064390555;0.0704282;0.051828235;0.046661485;0.028503375;0.15601003;-0.021448124;-0.00086780306;0.0033722739;-0.06598301;0.07644654;0.08199648;0.052535076;-0.038364507;-0.13285193;0.08873178;0.036682088;-0.029272478;-0.0056370157;-0.024158971;0.10117011;0.019031433;0.055255022;0.10152124;-0.055531632;-0.0046039457;0.059364863;0.023234839;-0.047460232;0.13186085;-0.04323215;-0.04720975;0.074786656;0.06404388;-0.028322633;0.06981905;-0.053330477;-0.1277988;-0.021878194;4.1302686e-05;-0.042896673;-0.05596414;0.014962291;-0.06891397;0.06291984;0.076263376;-0.059782866;0.09446164;0.07340726;-0.055396743;0.08125299;-0.014185838;0.016186815;0.12942968;-0.060486358;0.04340986;-0.037136476;0.14788224;0.08664893;0.0842323;0.0838571;0.049133494;0.07858463;0.07128001;0.053051278;-0.044076703;-0.055757355
-0.0034340334;-0.11963292;0.015780903;-0.00018073285;-0.010172962;-0.005597103;0.008316577;0.05507938;0.061239004;-0.0061301;-0.03745531;0.087032326;0.08623827;-0.015781332;0.05692167;0.07950313;0.099615805;-0.04914587;0.10086803;0.03992977;0.00046659616;-0.029686103;-0.01011241;0.038053896;-0.06787382;-0.081682056;-0.017159902;-0.041883614;-0.007804658;-0.18503588;-0.04250376;0.027020434;0.035239983;-0.0029133523;-0.053537007;0.00478712;-0.046497535;0.011119945;-0.0334644;-0.020636015;0.02102746;0.036207136;-0.031556286;-0.034470502;-0.05481695;0.1040392;-0.086471155;-0.022601003;0.0005146584;-0.05917695;-0.108776614;-0.09470859;0.06726368;0.041408297;0.044929016;0.0744519;-0.03347881;-0.057871167;0.088951804;-0.07175354;-0.0763134;-0.040049005;0.05074458;-0.060350444;-0.025598528;0.06872024;-0.052127283;-0.11308306;-0.036450583;-0.045245003;0.032922376;-0.016296461;-0.05979272;-0.06834983;0.07724628;-0.039762568;0.0888168;0.013785639;0.003929065;-0.016118987;-0.07252342;-0.066938534;-0.035012875;-0.103343785;-0.03341647;-0.0784446;0.005268969;0.013313795;0.06515472;-0.06907459;0.0833127;0.02889671;-0.046884138;0.04461177;0.06343592;0.008793484;-0.18902886;-0.06764879;0.062004708;0.08180664;-0.01597512;-0.0025053495;-0.012452154;0.007903279;0.0008133892;0.064650714;-0.015932424;-0.015136003;-0.06801683;0.08357368;-0.035696592;-0.015582693;-0.039186135;0.086160995;-0.013430347;0.061537586;-0.0052563096;-0.014438056;0.06848375;0.015399409;0.006209654;0.0046090395;-0.051154077;-0.06432288;-0.01404433;-0.04029615;0.078452356;-0.04643135;-0.043875676;0.08590584;0.006856578;0.023462119;-0.03499483;0.1691544;0.13125515;-0.07054894;0.022806084;0.07779954;0.05153362;-0.069951914;-0.024967816;0.07829084;0.04270263;0.035276525;0.07383354;0.08867013;-0.044916864;-0.085337736;-0.02541141;-0.0435771;0.03892002;0.054340407;-0.035247132;-0.062876955;0.032587815;0.04059628;-0.019229608;-0.047907215;-0.027790284;-0.027878074;0.06082106;-0.036444217;0.044189077;-0.034503143;0.062387094;0.08673341;-0.065499;-0.035414364;-0.022854315;-0.014700003;0.042950325;-0.018604701;0.040693805;-0.039759662;0.02762195;-0.039259657;0.08551099;-0.026082104;0.011779128;0.014301327;0.031699747;-0.050331596;0.011792409;-0.05444456;-0.13373138;-0.029259501;0.04557486;0.1251328;-0.11053601;0.062075913;-0.015109492;0.03185534;0.03403968;-0.01139368;-0.037857227;-0.04188528;0.04629837;-0.015872804;0.06446219;0.047351293;0.0914333;0.021689989;0.024501324;-0.013184259;-0.014685128;0.06321234;0.021083226;-0.064592764;-0.017654741;-0.031192785;0.080751464;-0.050627336;-0.008377511;-0.06377288;-0.034596033;0.11814306;-0.030295609;-0.043472078;0.05488152;0.111975044;-0.078236766;0.07408612;-0.05459107;0.05944636;0.028951935;-0.041828733;-0.08393276;0.13621835;0.13808548;-0.07034315;-0.03425475;0.031592768;0.02755665;0.019968597;0.042552225;0.03373516;0.01742084;-0.044478368;0.026633447;0.05950162;0.08893023;0.06121541;0.06252113;-0.15258278;0.00032907396;0.06937604;0.019299557;-0.051530242;-0.05670488;-0.04862041;0.059247985;0.034729447;-0.08050216;-0.069882095;-0.027042756;0.07973535;0.08122164;-0.011090441;-0.007508328;-0.03283059;-0.016565412;-0.06789333;0.088803716;-0.079560846;-0.0293902;-0.054798048;0.055867378;0.062495913;-0.03345848;-0.034621574;0.021065252;-0.014819901;0.008621988;0.039424106;-0.056756858;0.045451812;0.12440718;0.020022867;-0.048610892;-0.001949966;0.08989365;-0.0071091847;-0.0706285;0.022553628;0.09284999;-0.06012501;-0.06452701;-0.0351895;0.04792781;-0.01692858;-0.044549085;-0.041734807;0.05621001;0.014614718;0.050230883;-0.0021550683;-0.037215877;0.11514423;-0.00017514483;0.024073767;-0.10308542;0.052295707;0.0849877;0.08048663;-0.035017405;0.058713287;-0.006866301;-0.053498186;-0.14329618;-0.024591157;0.09666042;0.15831786;-0.053539716;0.02911221;0.030679094;-0.05064906;0.1152111;0.005810415;-0.023410842;0.1288363;-0.06273073;0.058659226;-0.01573426;-0.012911815;0.03450748;-0.021386445;-0.018679807;-0.027461022;0.06727176;0.061925;0.011911015;0.09100692;0.030212456;0.036503658;0.07288494;0.0061219856;-0.05280104;0.052032925;0.08176956;0.0017747395;0.01729735;0.09843786;0.0046862247;-0.08412378;-0.04317421;0.012443697;0.053900477;0.015235367;0.060116448;-0.043335136;0.0935755;0.09006324;0.08303964;0.017941039;0.121640064;0.031825203;-0.08436412;-0.0012499659;-0.004938184;0.06427195;-0.0582741;-0.023130586;0.0034712441;0.07659232;0.02956397;0.09114307;0.023219043;0.04014247;0.050220218;-0.049705274;-0.07887109;0.021219848;0.035520248;0.010188731;-0.07556166;0.0011244859;0.018928941;-0.17213146;-0.09730237;-0.009813356;0.041313194;0.046216898;0.11321926;-0.008198433;0.10093067;0.06346522;-0.013481925;-0.0647929;-0.05721881;-0.033806458;-0.047734197;0.07908983;0.038481936;-0.013631245;-0.00975494;0.13026407;-0.010343812;0.018480372;0.086983606;0.06588848;0.014942411;0.016190538;0.0034536864;0.11543418;0.091732115;-0.020404663;-0.028229427;-0.047576524;-0.06845939;-0.007286802;0.009769293;-0.038286947;0.013730754;-0.055342197;0.04942609;-0.034280453;0.010447824;-0.08214719;-0.08090962;-0.01489709;-0.009959106;0.0053905966;-0.046570376;0.063829444;0.0046995594;0.0045728907;-0.0049680267;-0.025978174;0.059543326;0.09213125;0.0037592642;-0.03366961;0.01716576;-0.029785814;-0.11747513;-0.037892528;-0.040745094;0.0039432067;-0.022250328;0.08398365;0.06058058;0.0029747179;0.020047473;-0.13800763;0.075331725;0.06430372;-0.05713054;0.051836286;-0.110543415;-0.07308208;0.028209765;0.0058790413;0.089984976;-0.009150255;-0.067619585;0.014767106;0.07068951;0.14661174;-0.024477713;-0.019295448;0.064060494;-0.004213035;-0.1505698;-0.06872108;0.057248414;-0.044876352;0.009152714;-0.00211751;0.011512805;-0.013055682;-0.037944578;0.03693976;-0.038578134;0.02636625;-0.04314259;0.023196291;0.031067926;-0.032697424;-0.020060662;-0.010364452;0.018401528;0.070066236;-0.101285994;-0.08265517;-0.053279314;-0.014161957;-0.052027646;0.07246348;0.07654551;-0.07351776;-0.05334525;-0.047385927;0.015678754;-0.024070028;0.030672612;0.024398468;-0.08429581;0.0335228;-0.005733868;0.052235454;-0.007247584;0.034989484;-0.016856538;-0.048237257;-0.07503084;0.07827076;0.05441014;-0.066640265;0.043162744;0.061017957;0.028718825;0.08971152;0.029892605;-0.07712475;0.008114324;-0.03878328;-0.024992613;-0.011446693;0.01213702;-0.025189467;0.0041693076;0.09853571;-0.06674644;0.0041651353;0.03632521;-0.07229688;0.023364455;-0.04140867;0.066241294;0.10479816;-0.047790702;-0.03058324;0.15371971;0.092155136;-0.045400634;-0.080015816;0.0193316;0.059801005;0.10839497;-0.04928867;-0.054753244;-0.01525959;0.0433106;-0.020312896;-0.006129578;-0.012274225;-0.09636263;-0.05460875;0.0140023045;-0.08342509;0.026557246;0.12606716;0.014023954;-0.006252037;-0.03212234;-0.18480748;0.022678813;-0.030426862;0.08774979;0.06957576;-0.047987185;0.07700654;-0.012161494;-0.09795319;-0.05533178;0.060523834;0.052261807;0.0012437075;-0.068727106;-0.054947563;0.007809145;0.069641866;0.015916957;0.024233295;0.022419374;0.021389576
-0.07576149;-0.014722197;0.090442784;0.053774517;0.006003933;0.07520814;-0.05832385;-0.06142732;0.11656471;-0.03277559;-0.035498206;0.07616533;0.012108004;0.04250009;0.0743184;0.017420122;-0.0048813513;-0.08078035;-0.003770002;0.065021865;-0.055968035;-0.01991615;-0.00932456;-0.0065832813;-0.039612103;0.07505834;0.08974953;-0.05487225;-0.097650364;-0.13222653;0.046775244;0.010281289;0.079337925;0.03252889;-0.022743642;-0.017354373;-0.025065092;-0.09165914;-0.047379382;-0.0255463;0.10544852;0.121145576;0.034365047;-0.055388782;-0.048139025;0.104492545;-0.0129294945;0.064856164;0.08169501;0.06410288;-0.04733835;-0.042047795;-0.0498833;0.003930771;0.085317165;0.09178209;-0.0140409;0.079641975;0.065046735;0.06376415;-0.10304733;0.0553818;-0.024503276;0.033895355;0.0004935973;0.0077987406;0.008159069;-0.11998845;0.058393627;-0.05368262;-0.042502105;0.041397203;-0.013886631;0.038360674;0.03492937;0.006766309;0.026903974;0.04554707;-0.019793345;0.04499619;0.010378448;-0.050982606;-0.023420386;-0.14897339;-0.017126141;-0.08726553;0.030659769;0.0057605016;-0.061869644;-0.013881169;-0.0043678014;-0.025993774;0.0041675153;0.08738371;0.12656242;0.061545633;-0.083070666;-0.01500342;0.035525817;0.04740689;0.009096575;-0.082902774;-0.09990866;0.08431333;0.061059996;-0.0044266446;0.08399259;0.00017287282;0.0046129785;-0.07441839;0.049248148;-0.05180905;-0.08753539;0.055391297;0.058427263;0.07199275;0.038506128;0.012619334;0.054076638;-0.023860276;-0.08091258;-0.062102214;-0.0348036;0.039895184;0.010013543;-0.004146225;0.026287237;0.04053256;0.024804192;0.045688163;-0.048623964;-0.047883663;0.10280672;0.024757752;0.03548999;0.02770368;0.054818816;-0.0028157176;-0.07892867;-0.07630552;-0.076543756;0.027416226;0.026555864;0.06182087;-0.047048997;-0.005328262;0.0039845137;-0.022809409;-0.059824888;-0.015580527;-0.054163013;-0.054954007;0.062263098;-0.04679626;0.03503009;-0.02007141;0.03922094;-0.035770442;-0.03237898;-0.024239972;0.03941505;0.0582647;-0.0014066085;0.074573696;-0.013426784;0.08032705;0.065376416;0.03472705;0.03421132;0.08739913;0.013914016;-0.100453354;-0.033447072;-0.04787782;-0.017374966;0.019657457;-0.053189512;0.05574655;-0.049942233;0.07192477;-0.012744628;-0.051956277;-0.018000241;-0.03233923;-0.057854224;0.011365161;0.046195373;0.077392004;-0.047553025;0.012967376;0.09138674;-0.0819554;0.051749356;-0.023899255;-0.071031235;0.07008522;0.057999607;-0.006210247;-0.012143334;-0.0008478542;0.090824455;-0.11855248;-0.036253083;-0.015700739;0.09278179;0.100488774;0.068623334;-0.08573438;-0.053498767;-0.04447735;-0.06519374;0.018778363;-0.04150207;0.1040502;-0.03913221;0.019954298;0.013377348;0.024027824;0.070216484;0.06221521;0.021249536;0.07941245;-0.0889735;0.018000826;0.028334616;-0.020163886;0.0047275103;0.111043155;-0.0030040294;0.007334304;0.050407644;0.028794013;0.0696728;-0.016349854;-0.08068102;0.089706734;-0.031194797;-0.018487554;-0.035322234;-0.044178884;0.08374177;0.0263609;0.11142895;-0.12260702;0.03232663;0.050854642;0.088961095;-0.12256947;-0.11221761;0.009944545;-0.013373573;-0.030230582;-0.030768888;-0.09190796;-0.0048633837;0.013215179;0.07970912;-0.07807749;-0.061335757;-0.018053869;-0.026491318;-0.06792238;0.06854116;-0.064896554;0.013795505;-0.03668469;-0.01954301;0.082465485;0.026831046;0.05843201;0.15676773;0.08471403;-0.062230524;0.014921268;-0.04499865;-0.046581928;0.00917076;0.009126676;0.0017349775;0.038906734;0.08993705;0.021282347;0.030312197;0.038260862;0.01313624;-0.06031617;-0.055862077;-0.05766158;-0.0016665271;-0.015942179;-0.029644813;-0.050152287;-0.062165983;0.05298186;0.10193196;-0.0431453;-0.009192723;0.11470231;-0.010655911;0.07721078;-0.019911816;-0.05687014;0.071115784;0.101308025;0.089950114;0.030938381;0.072355464;-0.085105374;-0.065682486;0.061023798;0.056788065;0.028451985;0.019434677;0.06274094;-0.00284147;-0.013474724;0.018685175;-0.02560749;0.031620387;0.011652749;0.068091564;0.060397975;-0.044291425;0.010579437;-0.014882081;0.05720672;0.09197786;-0.056290507;0.044865884;0.09263039;-0.10798546;0.06268547;0.048731808;0.040156677;-0.060082506;0.071834594;0.07859573;0.012000086;0.09928048;0.065402456;0.031183971;0.067329995;0.08310289;-0.16777453;-0.055525396;0.014213598;0.034191173;-0.002830236;0.07211281;-0.030768275;0.095632285;0.010393325;0.021114722;0.05154094;0.016530653;-0.03334859;-0.13161086;0.012744945;-0.03559044;-0.00033733717;-0.03279304;-0.044301923;0.050336458;0.005467506;0.054414753;0.017834892;0.012624226;-0.017918654;0.0020927296;0.094097055;-0.017780835;0.019794106;-0.023039702;-0.06825813;0.010197258;0.029785728;-0.023302013;-0.14626114;-0.013814596;-0.039801475;0.08000743;-0.0634481;0.04661711;-9.5452124e-05;0.058505367;0.018190868;0.014114886;0.02294275;-0.06981977;-0.0760368;-0.04150311;-0.036221307;0.035922762;-0.05770627;-0.07824094;0.11938449;-0.021466129;-0.058658287;0.06825497;0.048076984;0.071135506;0.018176142;-0.001966197;0.026775114;0.04001743;-0.005685359;-0.010992044;-0.0954899;-0.014780546;-0.059994657;-0.073271826;-0.037596334;0.055670414;0.064144515;-0.038409423;-0.008134304;-0.00884374;0.053992864;-0.056155693;-0.106627315;0.0240313;-0.040216554;0.07168557;-0.011571756;-0.04723312;0.054095298;-0.07256891;0.070736654;0.011805418;0.08963855;0.009362186;-0.0015443892;0.026277993;-0.0124925645;-0.08764417;0.032157633;0.044022612;-0.030700129;0.055130318;0.10415978;0.06677911;-0.0129361255;0.070299506;-0.10961668;0.08701303;0.039438017;-0.020298153;0.03535429;-0.07750597;0.077611364;-0.061818104;0.07360663;-0.04932727;0.068017475;0.030035106;0.024292331;-0.0064015784;0.02555579;0.06908124;0.059712004;0.0016272772;-0.013482147;-0.18431145;-0.0008251355;-0.038508777;-0.06591433;0.020303424;0.023190547;-0.01068139;0.07338886;-0.014822464;0.043742325;0.1021268;0.06708605;0.0887108;-0.07503835;-0.020494169;0.03311623;0.0006174287;0.019514333;0.04643515;0.09068911;-0.10763608;-0.06795347;0.07668691;-0.100118734;-0.061159123;0.043575518;0.024047943;-0.047626127;0.0064815185;-0.19419514;0.016749931;-0.03623451;0.037851524;0.057068486;-0.06785702;-0.0245697;-0.058455423;0.06418809;-0.13997877;0.0850444;-0.013281044;0.01998785;0.003854886;-0.024409488;-0.016124098;-0.056947954;0.021826442;0.032776996;0.04463101;0.090171546;-0.022741513;0.009797097;0.068460084;0.057132445;0.071853556;0.05500481;0.0026440665;0.023391545;0.01810855;0.09014781;0.07690062;0.062345266;0.03519381;-0.060688954;0.079533875;0.08880062;0.04479;0.11262352;0.026403127;-0.06114603;0.106389225;0.05320921;0.018794004;0.08607324;0.092020884;0.023073236;0.043344326;-0.03760106;0.08509993;0.041206192;-0.04600173;-0.03371382;0.05365162;-0.050152466;-0.043468554;-0.062956035;0.09350654;-0.029984592;-0.013766701;0.041600827;-0.045974165;0.035032626;-0.012815752;-0.057223096;-0.0301498;0.0047766883;0.09020812;0.040517718;-0.023526713;-0.017514637;0.05644214;-0.08510725;0.04872229;0.00036271906;0.15019011;0.03685171;0.08314832;-0.004201094;0.069724664;0.026482929;0.0048626037;0.024341391;0.084232636;-0.0062224804
-0.021408413;-0.0056808866;-0.013283767;-0.02844193;0.028409772;-0.032273374;0.022043122;-0.05150028;-0.014270857;-0.08154348;-0.054773048;0.07215546;0.036015064;-0.032301918;0.07201848;-0.040326923;0.012677276;-0.06606401;-0.027820539;0.038081404;0.040540453;0.005842098;-0.02372277;-0.011258076;0.07024902;0.011839932;0.008982686;0.0053614667;-0.0945947;-0.15798432;-0.014056228;-0.060023386;0.03772957;0.0690734;0.08343583;0.008023619;0.030128947;-0.13052061;0.030090373;0.051424503;0.09292672;0.12738143;0.07521561;0.051434334;0.04250315;-0.019379934;0.011225971;0.043906786;0.04953634;0.010869815;0.003566096;-0.051934678;-0.038071394;-0.00551158;0.017647358;0.01254505;0.09043142;0.059146434;0.044197094;-0.029925141;0.0357705;0.027766528;-0.06940849;0.07522622;0.07611307;-0.039803445;0.073654994;-0.14804229;0.017877487;-0.06565248;-0.05773212;-0.028749786;-0.011471765;0.07219821;0.052356523;0.003209004;0.050893057;-0.045941968;-0.028102973;0.07485393;-0.016171616;0.06453706;-0.09938172;-0.028240899;-0.02627041;-0.021484196;-0.007329016;0.06684492;0.049016256;0.0018009373;-0.042411823;-0.0144290095;-0.014279741;0.040598202;0.042660654;0.06369533;-0.0798183;-0.07604366;0.027744066;0.05555688;0.07531483;-0.07840971;-0.002926798;-0.07173427;0.08726335;-0.047881342;-0.029145295;-0.053413246;-0.058247875;-0.010827349;-0.0591727;-0.048932005;-0.012887464;-0.06613485;-0.015704922;-0.02615579;0.08843066;-0.0107679665;-0.062820345;-0.045128614;-0.019859876;0.07919459;0.0046652406;-0.03816489;-0.05364758;0.07410282;0.020332696;0.029348403;-0.025421435;0.047401756;0.032223936;-0.02112401;0.072693765;-0.05886202;0.11672537;0.013908595;0.027918935;0.016516287;0.031394266;-0.04813021;0.063034415;0.054431137;0.07734694;0.06616504;0.045192387;0.05490972;0.027324794;-0.051217504;-0.065640755;0.040209047;0.013624812;-0.038018353;-0.00084023015;0.012492191;-0.05556624;0.03253958;-0.08470681;-0.057096448;0.022531135;0.033953164;0.034202144;0.09017355;-0.006406823;0.07895199;0.044901323;-0.026890734;0.020770159;0.026426893;0.10381804;-0.005378981;-0.055198513;-0.0021079434;-0.026482716;-0.03266808;-0.06331751;0.035841364;-0.028876966;0.02271254;-0.0064251292;0.059481397;0.0688032;-0.038834617;-0.070325196;0.033120554;-0.08899462;-0.06883942;0.029635176;-0.011293866;0.046365973;-0.034430366;-0.022600645;0.06403716;0.017470153;-0.040404547;-0.060331423;-0.0005917097;0.031822845;0.093265906;-0.017415093;0.019572573;0.033566527;-0.11647266;0.023277255;0.018907033;0.048020504;0.037062667;0.045438692;0.048293874;-0.055641003;0.035315637;-0.065172814;-0.00034790242;-0.034926172;0.015560231;0.05822907;0.13556854;-0.052002322;0.014570533;0.04958759;0.09059626;0.040179025;0.00081680086;0.005564606;-0.064306036;-0.026542248;0.07465024;0.04221664;0.10650853;0.08985016;-0.04525467;0.04013301;-0.05654853;0.00978314;0.06277049;-0.03698217;0.039535582;0.0775329;0.018788973;-0.044126183;0.037158616;0.009983416;0.070596196;-0.0636653;-0.047919832;-0.028897868;0.018963302;-0.052975234;-0.007149317;0.07002342;0.0010483059;0.075058095;-0.05204413;-0.07973225;-0.050170057;-0.06515477;0.017461304;0.008069975;0.0021803156;0.038377658;-0.027355691;-0.037963204;0.01250524;-0.015527428;-0.0425192;0.00952202;-0.021390753;0.049702734;-0.10379646;0.05277781;-0.047442086;-0.005154156;0.11460328;-0.014477491;-0.043076016;0.094172515;-0.010192197;-0.013657465;0.07527805;-0.00021320002;-0.062366035;-0.041021347;0.063979015;0.08045973;-0.047891278;0.09101977;0.0026257192;0.034482565;0.07681762;0.040305447;-0.063460976;-0.09034345;0.008251859;-0.06476435;-0.051616132;0.031386055;-0.043173887;-0.030132417;0.08201031;0.01627353;0.023327572;-0.03179608;-0.05097843;0.03806134;-0.032188278;0.0070337965;-0.043378565;0.08324336;0.022063047;-0.06468872;-0.026648283;-0.05041569;0.1387578;-0.0110128075;-0.033541642;-0.058462348;-0.0100286845;-0.057185594;0.043090716;-0.058952805;0.018156653;-0.055598605;-0.003466279;0.028135657;-0.035995997;0.05066416;-0.0046586045;-0.03835377;-0.09089689;0.07710075;-0.015469403;-0.037128996;-0.040364396;-0.032051045;0.02118499;0.051559772;0.08824495;0.034067545;-0.049315657;0.042826425;-0.0027537688;-0.044795852;-0.09154001;0.03836003;-0.1372664;0.042551987;-0.033118043;-0.033277806;0.06082167;-0.069031246;0.051355463;-0.02032508;0.06217632;0.051333655;0.039254267;0.0238619;0.07725959;-0.04327594;0.094704345;0.03015922;-0.03537654;-0.1004238;-0.050557494;-0.047487203;0.0014880726;0.036021147;0.07126484;-0.03374737;-0.03548057;-0.0021698023;0.00011274223;-0.05626127;-0.03324811;-0.012913186;0.03359981;-0.055727012;0.014075585;-0.0899484;-0.14436886;-0.07765008;-0.025359673;0.037757203;-0.03377404;-0.0923458;0.023028206;0.013413105;-0.045485657;0.051549908;0.020421775;-0.06038133;0.0814278;0.020897383;-0.040392667;0.034034837;0.05448071;0.021062853;0.1345587;0.07160007;-0.03836236;-0.049293935;0.011712963;-0.09350648;-0.013118056;0.037394386;0.12043437;-0.03827242;0.035730053;0.067307584;0.0437991;0.02927635;0.03407705;-0.029712766;0.011680811;-0.029606476;0.017452758;-0.041610055;-0.035017136;0.06551346;0.065875016;-0.0074455882;-0.054009173;-0.039704375;-0.055064328;-0.015372971;-0.017966961;-0.04806904;-0.08527738;-0.096039474;-0.013489159;0.06788891;0.08143944;0.019685961;-0.03388383;-0.06953594;0.045662433;-0.02438247;-0.019723589;-0.029299982;-0.024989357;-0.04529403;-0.0064428025;0.006920948;0.043927908;0.04269696;-0.11566779;-0.036776897;0.1144105;-0.102772824;-0.06636311;-0.14086919;-0.04510087;0.03044551;-0.028447496;0.06013913;0.03735019;-0.07720198;-0.0060124025;-0.089306846;0.06819683;-0.01196588;0.078755915;0.034159906;-0.03427716;-0.11508102;-0.022104623;0.015929472;-0.06554046;0.026807616;-0.036498804;-0.01341878;0.059499834;-0.031169282;0.035781145;0.115481414;0.06434647;0.034377318;-0.0714969;-0.010325284;0.009388175;-0.0994932;0.0043557133;0.07650154;-0.047598153;0.027991919;-0.13884804;0.03540022;0.042365976;-0.039412122;0.07898934;0.07688502;-0.019007461;0.018891755;-0.10297897;0.021311969;0.08035402;0.06126458;0.060020603;0.0771232;-0.013985672;-0.05985052;0.0360531;-0.1070276;0.08144647;0.01773038;0.040392403;0.06842237;0.015057317;-0.016100194;0.044914655;0.018796662;0.062478546;-0.024302628;-0.018603709;0.09231182;-0.06226876;0.10586769;-0.037555438;-0.052715875;-0.027515093;0.03011974;0.022440141;0.022680879;0.02342071;0.027243244;0.10523528;0.027900396;0.07657551;-0.03658645;0.0038937703;-0.0070299986;-0.050209194;-0.07751647;-0.020189237;0.026690554;-0.0017949829;0.02071615;0.059970662;0.061983697;0.06912452;0.13165407;-0.0028442515;0.0056887357;0.06842353;-0.0019498862;0.058809496;0.012837503;0.0247981;0.05521413;0.006426618;-0.06305979;-0.036545366;-0.08398803;-0.030445648;0.048135817;-0.011523575;0.038436487;-0.10793992;-0.00664909;0.010531047;-0.056528766;-0.010728091;-0.023081217;-0.036734972;0.0294893;-0.06841225;0.059868522;-0.040682126;0.02817634;-0.02055597;-0.07147472;0.01052089;0.048492398;0.09749234;-0.09844674;0.07824176;-0.026239986;0.05545741
0.027977515;-0.028746856;-0.044495966;0.011099019;-0.03112302;-0.059403244;-0.07215719;0.02530602;0.08303948;-0.06512262;0.06408665;0.07606908;-0.011606485;-0.026526699;0.016665982;-0.01968194;0.027999748;-0.029029083;0.07437331;-0.01930113;0.07145433;-0.035196416;0.028854407;-0.041766778;-0.018859262;-0.05984839;-0.053585555;0.07847062;-0.062040698;-0.11816437;-0.059671164;-0.016478205;0.066963635;-0.0059210123;-0.022446295;-0.06278;-0.08610934;-0.1441442;-0.03960433;0.053752005;0.04437692;0.08605256;0.0033904072;-0.00087326765;0.024813367;-0.0016853296;0.02513025;-0.048755746;-0.032839134;-0.031472556;0.0021927038;-0.026510594;-0.0600911;-0.03827052;0.042460885;-0.034129284;0.01131547;-0.030773241;0.075436555;-0.046914916;-0.10304152;-0.07824491;-0.013337055;0.085796125;-0.046387658;0.07886036;-0.05358729;0.008148547;-0.024873594;-0.044397645;-0.0024646132;-0.061242964;-0.036121774;0.09144257;-0.034168534;0.069859795;0.052329216;0.043882355;-0.060722157;-0.033698313;0.0631587;0.045667607;0.0024966204;-0.13612664;-0.06955948;0.0016232688;-0.12550113;0.024756128;-0.00497585;-0.038824722;-0.005178237;0.079189695;0.028111733;-0.030277409;-0.001793192;-0.06239704;-0.10086558;0.023292929;-0.013359361;0.07982152;0.06184643;-0.0856632;-0.058175575;0.03472981;0.089077696;-0.08955427;-0.025885478;0.0013630594;0.06329372;0.06619598;0.019013003;0.05502168;-0.06460991;-0.009104792;0.035373554;-0.03834081;0.05885249;0.040539958;0.016362766;0.057247885;-0.113280065;-0.0067401347;0.11116229;-0.035231978;-0.051739186;0.044995014;-0.06194616;0.00704198;-0.05535539;-0.05377966;-0.046538044;-0.0769816;-0.058225207;-0.021096794;0.13959402;-0.073502354;-0.007109484;-0.046793308;0.073330045;0.024853123;0.036364913;0.054988936;0.11936264;0.039047133;0.033032596;0.08605161;0.10623228;-0.03265702;0.049720697;0.023058588;-0.07212737;0.050817188;0.022643559;-0.105467014;-0.016871084;0.0775965;0.03345481;0.04865835;-0.025633117;0.015458263;0.067332484;-0.056595773;-0.04904349;0.026113458;0.06775273;-0.0330225;0.033821754;0.0291482;0.049896356;0.06035891;0.021564832;-0.15758425;0.022638978;0.08021341;0.07318312;0.029924588;0.07328906;-0.055493254;0.11581353;-0.05999656;0.059711628;-0.0651874;-0.026339466;-0.04956913;0.0055770436;-0.039514504;0.05565138;0.110395126;-0.118858814;0.034645524;0.034856874;0.07274706;-0.041335262;-0.063535556;-0.061869033;0.011087612;-0.06341675;-0.019349089;0.116519265;-0.07137938;-0.04987131;-0.08334614;-0.04767664;-0.040005036;0.10485805;0.03265566;-0.049399726;-0.038903177;0.074353755;0.0678253;0.02299942;-0.011461366;-0.04095554;-0.004680961;-0.0015540804;0.007354994;0.08378606;-0.034454364;0.020379195;0.12742247;-0.08175215;0.041385982;-0.01467288;0.06798194;0.039927695;0.091177404;0.06447317;0.16839351;0.08475664;-0.13111463;0.009689232;-0.026259152;-0.020562708;-0.025458368;-0.0726883;0.07932865;0.06244931;-0.044982806;-0.007696511;0.07015569;0.07314615;0.014627916;-0.06204236;-0.067487225;0.06725298;0.009588801;0.0061911317;0.024756774;-0.045914967;-0.02860206;0.106338605;-0.0076097297;-0.007063559;0.038176022;-0.135518;0.09210951;-0.010817167;-0.05456472;0.05202556;-0.06584396;-0.05927521;0.044165496;0.05121178;0.07677405;-0.05088775;0.06746062;-0.01044541;0.056553178;-0.062893994;0.03188227;0.15585266;0.0019085855;-0.033025835;0.032026406;0.018955179;-0.027747912;-0.103090845;-0.07244982;-0.07106726;0.020447439;0.03701555;-0.032698926;0.032454927;-0.07530725;0.09462365;0.105619654;0.057732686;0.015403698;0.041480042;0.06968157;-0.041058242;-0.03574217;0.07617482;0.074733816;-0.044458013;-0.001016933;-0.044103507;0.064192966;0.011355867;-0.041126348;-0.072397955;0.03861193;0.07543228;0.07894416;0.06339718;0.049121503;0.01819765;-0.066477545;-0.12489129;-0.04650593;0.08417799;0.192938;-0.0474382;0.057796516;0.050095472;0.06279902;0.01157291;0.0067374194;0.07047045;-0.14068256;-0.008586418;0.056112543;-0.04365975;0.07092374;0.08799722;-0.026342198;-0.005397321;0.020106686;0.036587592;0.08723235;-0.05899504;0.105648406;-0.06785099;0.11355008;0.050078485;0.0904152;-0.030568723;-0.08425486;0.020749025;0.12804206;0.026716374;-0.09333345;-0.08012878;-0.13601011;0.065702975;-0.020231277;-0.0017343288;0.053820215;0.01566709;-0.051563002;-0.09080592;0.062406573;-0.013588387;0.0719548;0.06552939;0.068461776;-0.17167357;-0.06522548;-0.0053567393;0.030877804;-0.115588665;0.02155065;-0.01470096;-0.09511171;-0.007393611;-0.0030070355;-0.015033087;-0.017862933;0.08057908;-0.024262799;0.069218464;-0.09857666;-0.066361345;-0.054344166;-0.026790215;-0.1219622;-0.057116155;-0.14601606;-0.078516126;-0.06397061;0.08586542;0.05850765;0.04198065;-0.017996632;0.0046590175;-0.027937092;0.029782677;-0.0018569333;0.022092694;-0.0276434;0.08609036;0.09000663;-0.0627046;-0.017805938;-0.073902674;0.061181914;-0.008013021;-0.048113137;0.033186425;0.06103255;0.0662561;-0.04903158;-0.08752;0.105553456;0.07150474;0.08208057;0.057084832;-0.046365198;-0.010093139;0.01987887;-0.002556421;-0.048346393;-0.0076968092;0.006928653;-0.07569925;0.056322355;-0.015432077;0.13277884;0.016105516;-0.016372282;-0.043083683;-0.06753516;0.031353906;0.07968032;0.0755656;0.058856077;-0.018687079;-0.011195732;-0.01047146;0.06366242;-0.045489393;0.012769144;-0.049156237;0.06078163;0.056070495;0.033465985;0.057880506;0.040637672;0.0871266;0.044672213;-0.009658031;0.012348794;-0.063788734;-0.06067134;-0.05259194;0.15724379;-0.12065316;0.05896647;-0.020627284;0.05046401;-0.04257368;0.009185829;0.03470844;0.021361124;-0.011801376;-0.02024193;-0.106045045;-0.034201644;0.0036154042;0.03462907;0.026583657;-0.008518278;-0.014894147;0.021882918;-0.0046541966;0.005793843;-0.06857556;-0.044426307;-0.061101656;-0.024817633;-0.029097106;0.099621385;-0.04283904;-0.051613502;0.035978794;-0.05921828;-0.010216189;-0.043635994;-0.06070659;0.03242381;0.045037996;-0.05959494;-0.059527744;-0.12577124;0.023078378;0.11229203;0.009550316;0.0491562;-0.030137485;-0.0047500264;0.0813775;-0.16139828;-0.027363341;-0.025939815;0.031245202;-0.024910664;0.00919896;-0.013324998;-0.058590677;-0.020147992;-0.08267813;0.074826196;0.022571405;0.029189052;0.07689764;-0.042238537;0.005471769;-0.038025443;0.013298171;0.03193504;-0.010124905;0.0148786735;0.04518703;0.07917091;0.041047316;0.023704652;0.1042494;0.0832059;0.005310449;-0.031030085;-0.009415077;-0.03385095;-0.08031265;0.15789822;0.016749518;-0.06883356;0.047090515;0.03922932;-0.07227758;0.08948311;0.02339751;-0.05283342;0.054215107;0.08648494;-0.04514022;0.03060716;0.023709977;-0.041916084;0.10577882;-0.14762609;-0.009139855;-0.0028082503;0.018588377;0.05823913;0.016433008;0.10099345;0.024039958;0.0046595787;-0.01939954;0.07548054;-0.078752056;0.12414083;0.0008842844;0.063437045;-0.07315421;-0.14336854;-0.0015365665;0.009214513;-0.053155012;0.02537076;0.009920024;0.04826054;-0.07256574;-0.029233687;0.07522;-0.054460485;0.060210373;0.028696036;0.028513793;-0.004420108;0.027691139;0.08950383;-0.083804645;-0.07179569;-0.0693146;-0.02194703
-0.022981985;0.0057207188;0.007659865;0.06965808;0.08146997;-0.030635407;-0.13390866;-0.02306304;0.10968505;0.024238434;0.04763189;0.07673112;-0.047612842;-0.031088611;-0.06195646;0.06786181;-0.11117627;-0.06302356;-0.056732666;-0.022901895;0.04237103;-0.0312938;0.023650466;-0.06553877;-0.06900535;-0.10465884;-0.003350607;-0.0441658;-0.0764908;-0.05626831;0.05438935;-0.042544767;-0.009713048;-0.040962957;-0.0017308423;-0.08209848;-0.062983826;-0.19326998;0.07679871;0.071638;0.06432243;0.09859807;0.12290245;0.084014736;-0.083516374;0.11960695;0.007654207;0.07494759;0.048399445;0.06107924;0.10503007;-0.022050172;0.0066028587;0.09290015;-0.04271266;0.016314812;0.009804196;-0.06613664;0.07719241;-0.055087976;-0.042583708;0.016591607;0.040538877;0.07705081;-0.035499167;-0.043933824;0.09275231;-0.109494515;0.06698804;-0.0032636584;-0.048766248;-0.08619347;-0.004951555;0.03899015;0.0071698288;-0.06610468;0.064985715;0.091011345;0.013177325;0.07008679;0.05521236;-0.059356015;-0.12219685;0.05233795;-0.06090229;-0.039648995;-0.01862611;-0.035832934;0.011680244;0.0011048887;0.025500108;0.08178203;0.056747347;0.042929795;-0.06541596;0.049704608;-0.04157326;0.02209093;-0.053828895;-0.0294579;0.07823654;-0.064808644;-0.11734994;0.008045393;-0.04891334;0.018285293;-0.058130752;0.019189047;-0.04520845;-0.062234275;-0.009393882;-0.014321763;0.022510486;-0.11727436;0.05048482;0.055223525;0.06768049;0.014309121;-0.06703303;0.12290699;-0.017476385;-0.0007983355;0.07153245;0.008741696;-0.012916611;0.02670893;-0.019715777;0.04713872;-0.051941544;-0.046147514;0.02452216;0.004346425;0.0046052667;0.034863565;0.1643325;0.10287538;0.019708866;-0.09732627;0.0014385461;0.014515491;0.0058332365;-0.04762611;-0.009937603;-0.05645948;0.006710512;0.06353018;-0.06785844;-0.016261855;0.043063037;0.06930039;0.047781948;0.03290252;0.023775367;-0.11957879;-0.09139529;0.035358325;-0.09317987;0.0029993874;-0.018894412;-0.058437303;-0.00033668964;0.0038731394;-0.084761664;-0.045054447;-0.05144538;0.024798103;-0.029828414;0.03441603;0.05693287;-0.052171968;-0.071465835;-0.13509437;0.050960477;0.053595193;0.033327032;-0.04908172;0.060626864;0.027076492;-0.024900638;0.017353969;-0.030021165;0.05739814;0.06526925;0.08420887;-0.09942708;-0.06434904;0.031548683;0.028513836;-0.05108076;0.016768454;0.09700051;0.02821406;0.04824325;0.10732874;-0.047344;-0.051306047;-0.07193623;0.04803035;-0.009047027;0.03557639;-0.040605754;-0.058878873;-0.028366877;-0.0027699077;-0.030655717;0.06120333;-0.09167179;0.036636535;-0.074240565;0.108291894;-0.07108949;0.062235292;-0.017154314;0.06309302;0.04146845;-0.03811008;-0.067290686;-0.06669086;-0.025458451;-0.022672785;0.03642289;-0.018479727;0.087865986;0.07679667;0.013819971;-0.04036823;0.13500072;0.07241878;0.06641781;-0.09307601;-0.024285717;-0.06967727;-0.009967904;-0.009762468;0.039305914;0.009521599;0.07512402;-0.043833006;-0.04212538;-0.02442164;0.05881856;-0.04400188;-0.020287912;-0.026059847;-0.039000493;0.10693408;-0.06256672;-0.044394318;-0.0107364645;0.038319908;-0.018217376;0.068449475;0.05726813;-0.051847003;-0.09319276;-0.058179855;0.0020944295;0.036606934;0.030840553;-0.03703182;-0.05563021;-0.012824096;0.05771515;-0.01714302;0.01774277;-0.076840006;-0.03922398;-0.07869238;-0.061733812;0.049798604;-0.03949693;-0.043518215;0.03512738;-0.033825822;0.022750182;-0.0002070595;-0.09630127;0.035533294;0.0883193;0.044034358;0.06983046;-0.0009318912;0.006841295;-0.09993992;0.06960815;0.08603019;0.024813307;-0.045489896;-0.07484855;-0.027369574;-0.0009901257;0.0073925694;0.08882291;-0.03237604;0.0568263;-0.00403714;-0.08533716;0.14539473;-0.07675216;-0.054185968;0.042816266;0.066514865;-0.061759707;0.07375961;0.1002582;0.03773656;0.04110286;0.07077977;-0.1573014;-0.00025990466;0.07290918;0.14120907;0.01869092;0.0105218515;0.017739873;0.008071389;0.06137346;-0.008680081;0.032958284;0.02236587;0.07789412;0.07894056;0.081740886;0.022953128;0.018664736;0.026730346;0.033013202;0.0077771237;-0.015099193;0.04636109;0.023702163;0.090836234;0.0015788476;-4.877609e-05;-0.011453146;0.02373207;-0.03522915;-0.08784437;-0.14319518;0.037322603;-0.0697806;-0.09431816;-0.057574674;-0.07474585;0.06945121;-0.04147184;0.062826894;0.046821386;-0.0479496;0.0062660794;-0.107799515;-0.07866722;0.06206775;-0.07040277;0.059419245;0.07941775;-0.09914969;0.055903986;-0.0568364;0.086136356;0.006551122;-0.011634517;-0.06854845;0.015294407;-0.02868873;0.06502596;0.060452156;-0.03661731;-0.06927792;0.076990984;-0.02819893;0.018319864;0.0014571403;-0.029036919;-0.007665866;-0.042547747;-0.0066577843;-0.047343843;-0.03418178;-0.04939243;0.0926493;-0.0065719127;0.044556376;0.082761906;-0.029232526;-0.03020935;-0.025096284;-0.04549482;0.08931971;-0.0012820523;0.10308182;0.027953144;0.058400802;0.037026774;-0.012427836;0.109764196;0.062598504;0.03149169;-0.08169428;-0.005915881;-0.007980618;-0.0475192;-0.066682;0.04000345;-0.019917838;-0.016125007;0.1091928;-0.030680668;-0.068941206;0.09720637;-0.020313032;-0.011501348;-0.04893049;0.025280176;-0.083910145;0.041819807;-0.009309493;0.0111797415;0.0034232142;0.09857933;-0.06261205;-0.011805664;-0.014075247;0.038697876;0.08251776;0.02897303;0.015709512;0.001382221;-0.025541887;0.13174936;0.05790809;0.01434196;0.09736858;0.054670613;0.123989224;-0.021226881;0.04765861;0.063465655;-0.03726712;0.088959396;0.013402017;0.043980885;-0.05720253;-0.15375456;0.019358993;0.14333391;-0.076163985;0.113166586;0.029673403;-5.3509335e-05;0.023213398;0.046628777;-0.060404245;0.057110537;-0.12647468;-0.03756268;-0.079277225;-0.13138579;-0.08633828;-0.051010426;0.06435533;-0.042626575;0.039491612;-0.035274614;0.057325806;0.076998636;-0.012535636;0.0148773;-0.06015168;-0.058869414;-0.023600634;-0.00074822886;0.06819819;-0.0010003031;0.08299825;0.013211173;0.05768836;-0.047494292;-0.021397078;0.056248114;-0.060539078;0.026613187;0.026555158;-0.12286377;-0.0180207;0.0969413;-0.00090886763;-0.0643037;0.08807457;-0.034999773;-0.024507526;-0.13029577;-0.08027451;-0.07084406;0.06612947;0.079251215;0.05750724;0.032154433;-0.034179047;0.05389416;0.04625819;0.015613359;-0.056483604;-0.057784975;0.04603819;-0.058548477;-0.05418207;-0.024237772;0.04265738;0.05962619;0.03948165;0.07017884;-0.0719269;0.08439033;0.06300316;0.07487011;-0.0019757014;0.019623691;-0.034218043;0.053659145;0.033223834;0.09116993;0.06407079;0.16253197;-0.071074046;-0.0147756385;-0.01227442;0.051703263;0.07480103;-0.0077512506;0.07899828;-0.029683119;0.061849125;0.0498205;0.060138207;-0.044815715;-0.010509335;-0.08462734;0.16431849;-0.14018908;-0.008535629;0.02810491;-0.024293253;-0.054731768;-0.016119374;-0.03422402;-0.023072684;-0.065485954;-0.06727157;0.016438002;-0.07209368;0.0045574484;0.05568304;0.02201642;0.05989709;-0.1620103;-0.05343406;0.010254524;0.0046980586;0.015591;-0.018657746;-0.056605;-0.0033412625;0.04791053;-0.01676268;-0.050689936;0.15479004;-0.03617991;0.059235554;-0.05088793;0.01571016;0.046111595;-0.05267551;-0.0032043073;0.050589606;-0.06570781
0.0974604;-0.027172606;-0.05104742;-0.026749933;-0.038885787;0.07353892;-0.11397459;-0.056038916;0.078959435;0.08437651;0.05983694;-0.049752038;0.08811295;0.06832959;0.06481761;-0.099440835;-0.0065214033;0.059859186;-0.06599402;-0.05681274;0.02606351;0.0071939602;0.02638807;-0.0877246;0.030534336;-0.038227834;0.050775208;-0.029834915;0.014745717;-0.07763839;0.096677236;0.015250228;-0.031140119;-0.028301755;0.06347342;0.030235572;-0.08716836;-0.14316344;-0.07399195;0.07046205;0.025563039;0.114333436;0.028458616;0.07269171;0.06580656;-0.026723225;-0.01605009;0.056276392;0.053162064;0.011435108;0.06938096;-0.021783905;0.06512296;0.008489349;-0.12734069;0.023211462;-0.021663213;-0.038177494;0.04267508;0.023700668;-0.020014806;0.05317531;-0.08840349;0.023674477;0.035390396;0.06790227;0.07897185;-0.024623655;-0.052069277;-0.05038851;-0.027338669;-0.05740533;0.064137235;-0.014112476;-0.034739915;0.065486655;0.010851801;0.009984552;-0.06635467;0.05185173;0.057623614;0.01600843;-0.036783572;-0.123612255;0.08114255;-0.020533478;0.01751981;0.021470824;-0.030787097;0.06825424;0.001854216;-0.022735916;-0.010043379;0.06552984;0.022455875;0.034027644;-0.06671579;0.03771409;-0.08422289;0.08916975;-0.02708195;-0.075314745;-0.08689543;0.062714525;-0.0090433955;0.025338657;0.04344301;0.029897042;-0.029885143;-0.024857953;-0.09352632;0.03341623;0.0547211;0.0189425;0.0027362192;0.06637812;0.18279156;-0.039659537;0.102905385;0.08055464;-0.057710182;-0.07540718;0.06501918;0.024548339;-0.0735225;0.0060432036;0.009932996;0.0035062437;0.060736984;0.04456877;0.017755952;0.074810006;0.03732994;-0.10163732;0.16830988;0.082930095;0.09347343;-0.050190676;0.18734327;0.089057565;0.06533507;-0.044972952;-0.054074418;-0.053238593;-0.001204828;0.0891691;0.07125027;0.071503796;0.006598036;-0.0831724;0.08160182;0.025277035;-0.019332726;-0.0071072774;-0.09300334;-0.032140974;0.069292314;0.041168932;-0.031154206;0.0058503314;0.024434451;-0.059197456;-0.13302413;0.0697704;-0.010598942;0.003908212;0.07279454;0.022681162;0.16720745;0.037230875;0.06428215;-0.020687185;-0.047424935;-0.057177782;-0.065513246;0.083854444;0.049855527;0.017102323;0.03336361;0.06348208;-0.07386241;0.01982802;-0.050253928;0.023125153;-0.08699834;-0.012406982;0.044383023;0.054309905;-0.084474914;-0.030805325;0.13073617;-0.037899338;0.0576049;0.032145705;-0.037741188;-0.043192804;-0.08579126;0.021501066;0.06517352;-0.05416608;-0.01623425;-0.045409836;0.06896488;-0.0025179952;-0.020611154;0.024005927;-0.0019546833;0.012663458;0.0383853;0.018231561;-0.055239085;0.01982647;-0.035696052;0.0061060754;0.03850461;-0.008849667;0.030831069;0.032356676;-0.047047585;-0.0071468954;0.059164338;0.019784842;0.055213876;-0.020236675;-0.0049865847;-0.053839434;0.09978631;0.024327198;0.051745303;-0.09256904;-0.033070035;0.057223182;-0.0097245965;-0.017441224;0.046448495;0.026077425;-0.035129543;0.052636698;0.03967153;0.014835788;-0.07718974;0.02659084;-0.08452;-0.03514903;-0.03462111;0.018624306;0.05015016;0.004933096;0.11437841;0.05300919;-0.09381371;0.0042337617;0.012410395;0.08450361;-0.13165078;-0.034039237;-0.05180521;-0.04952879;0.004942022;-0.010995131;-0.018917525;-0.026036661;0.010141668;-0.0015861202;0.022229267;-0.03106612;0.08171292;-0.08752075;0.062152643;0.07710403;0.10699511;0.06773627;0.019930096;-0.013480587;-0.0068917316;0.027276812;-0.006240574;0.12889276;0.010673766;-0.047447342;0.025572116;-0.002065456;-0.06969603;0.053796098;-0.05686633;0.04620639;0.06451319;-0.016863648;0.04844615;0.04180828;-0.00970044;-0.045852643;0.04486538;-0.066473685;-0.07575881;0.10297076;-0.05918266;0.12437403;0.022363981;-0.057142943;-0.098791234;0.122331515;0.00091592484;0.020246446;0.034455344;0.0070238044;0.04591967;-0.0047327788;-0.023890715;-0.100389674;0.002281646;0.0892319;0.04417286;0.081260554;0.047100108;-0.012763388;-0.098961435;0.040747963;-0.027593987;0.04264917;0.059510794;0.04618891;0.06663374;-0.053901903;-0.051188774;0.050286256;-0.0063690036;-0.1270082;0.05463908;0.13249968;0.11385602;0.035843424;0.10562623;0.022588467;0.090810254;-0.009385057;0.00070163555;-0.067375295;-0.0663558;-0.02711635;0.07029596;0.0015857844;-0.030380439;-0.013999492;0.06351777;0.08176598;0.07737496;-0.026508965;-0.046188746;-0.021696746;0.0037173955;0.075074345;0.0037850835;-0.05567345;0.047789607;-0.020655755;-0.11541098;0.034303807;0.092965566;0.050219547;-0.034940645;-0.13742092;0.038267046;-0.031724874;0.029079966;-0.0717196;0.024777861;0.008147489;0.009030334;0.03049296;0.029563896;-0.021873325;-0.0053395596;0.030666403;-0.046474505;0.002933661;-0.036462206;0.031990185;0.015502273;0.0069137183;-0.013929322;0.10598167;-0.04572143;0.13098623;-0.0068246503;-0.123992644;0.07796145;-0.056377582;-0.017590085;0.03216216;-0.0038378872;-0.0613555;0.025149245;0.08279006;-0.012845671;0.09067284;-0.017778523;0.10277445;0.011728114;0.076256834;0.0011327212;-0.078127876;-0.09387699;-0.028622383;0.020438194;0.06619857;0.070502006;0.091606796;-0.012635189;0.028739825;-0.014276727;0.007649204;0.050659258;0.07451373;0.004754487;0.010046677;-0.024715653;-0.059967004;-0.058647756;0.035327237;-0.07851403;-0.019132664;0.012642515;0.0068872753;0.011818393;0.04628601;-0.031369336;0.031289443;0.0102975005;0.04534545;-0.048157535;-0.09546787;0.045045726;-0.059090763;0.059277136;0.0026819424;-0.024249678;0.00784291;0.03696957;-0.061098445;-0.025724882;0.10205305;0.07812054;-0.11963361;0.009647565;0.010852404;-0.08354668;0.035852574;-0.0715955;-0.012462946;-0.027977817;0.020119838;0.062242184;0.15281954;0.0051595364;0.07670189;-0.06005688;-0.07290711;-0.1159459;0.038739003;0.07403767;-0.04624287;0.008734314;0.057759326;-0.05135311;0.019975588;-0.07777884;0.09936322;0.038505316;0.061215572;0.057132892;0.047489777;-0.049986668;-0.06548967;-0.08968851;-0.042307522;0.035198398;0.033421986;-0.0034202181;0.029137589;0.041519176;0.08814753;0.052431114;-0.017736992;-0.015000026;0.064230114;0.0052729864;0.020993186;-0.045720834;-0.053525236;-0.035126578;0.017388025;-0.069412746;0.049668342;-0.07397876;-0.0027374628;0.010638365;-0.07724537;0.108014174;0.0133413365;-0.08292613;0.09256698;-0.08096469;-0.052121136;0.07623901;0.04137905;-0.018177086;0.021489209;0.07215122;-0.0184533;-0.03065946;-0.04343989;-0.07531087;0.0023915675;0.06611292;-0.022579396;0.057653878;0.007814196;-0.0037170087;-0.10861332;0.07562417;-0.07973128;0.045047082;0.20780344;0.06755935;0.028702933;0.05951496;-0.018127806;-0.075487465;-0.05913699;0.0070626014;-0.031863507;-0.014601801;0.012891594;0.012688209;-0.090703964;-0.021455858;-0.020267565;0.059745837;-0.073148504;0.02564646;-0.08048159;0.05329551;-0.036400735;-0.004536099;0.062220704;0.020638442;-0.028440675;0.035550263;0.05810422;0.0358395;0.0712388;0.04516373;-0.030996626;0.059224408;-0.1654867;-0.042792257;-0.077986635;-0.028624136;0.008474312;-0.035049815;0.03345936;0.08054214;0.05476259;0.01695159;0.00883886;-0.028881637;-0.03270737;0.0026551236;-0.02461256;-0.08870133;-0.09810847;-0.008501289;-0.025976652;-0.004989026;0.076261565
0.089575686;-0.048592173;0.014120219;0.10866492;0.005585691;0.05605571;-0.07835211;-0.004057594;-0.00096174446;0.009956752;0.0076362127;0.067721106;-0.042746652;0.009554619;-0.0075311726;-0.0070343143;-0.01845206;0.067592286;0.027437093;-0.056811936;0.041290857;0.0662086;0.069249265;0.017220173;0.044082846;-0.0256092;-0.0072008693;-0.019690337;0.01581042;-0.06475933;0.068878606;0.03835165;-0.037318997;-0.06021758;0.009669229;0.060635835;0.017063526;-0.08159996;-0.08105162;0.04646679;-0.016322443;-0.0106336055;0.06383326;-0.029762737;0.031335745;0.094208024;0.014756388;0.055926256;0.08103935;0.0767453;0.11173259;-0.016244099;-0.002965954;-0.099381775;-0.14341958;-0.021645688;0.0718571;-0.027829323;0.04055373;0.05971967;0.05833358;-0.0034278077;-0.07299937;0.030152377;-0.06704513;-0.018812276;0.059099913;0.026148925;0.016407032;0.009989896;-0.0031490163;-0.0059307115;0.054265216;0.06282066;-0.045035418;-0.08544336;-0.05900522;0.073790275;0.038227633;-0.03426952;0.06401552;-0.08690623;-0.05017384;0.020687515;0.002988919;-0.061420396;-0.033015896;0.05600998;-0.057440296;0.008209493;-0.06354845;0.07403881;0.028118478;0.120835185;-0.018353531;0.089653715;-0.14200795;-0.067287326;-0.059514385;0.101958886;-0.00428808;-0.017059335;-0.07336337;0.06030322;-0.008888378;0.03156335;0.06370046;0.047716722;0.11113785;0.070030436;-0.07391302;-0.0843622;-0.021360371;-0.02182428;-0.043785434;-0.0026675938;0.119980164;-0.09012777;-0.034684207;-0.010878805;-0.05055248;0.06993709;0.038748395;0.039194465;-0.03690059;0.03401302;-0.062356677;-0.05146926;-0.039709657;0.009659355;-0.036470316;0.038065996;0.031006679;0.009355225;0.090184115;-0.053669777;0.08509165;0.07501728;0.14485167;-0.0108494;0.012127462;0.09311574;0.04527424;-0.055590503;0.09060808;0.12469954;-0.043862313;0.026580513;-0.01178622;-0.04681022;0.0570042;-0.07989291;0.019157361;-0.011457019;-0.028755534;0.05905989;-0.07268387;0.008331881;0.037399523;-0.059077702;0.017066417;0.045211777;-0.08416921;0.005177264;0.00445177;-0.04469853;0.01141115;-0.03689342;0.05413202;-0.05746324;0.04390277;-0.05415271;0.063829;0.005031042;0.07171523;-0.004846016;-0.098591894;-0.02979858;-0.050345194;0.0324443;-0.10533933;-0.097048685;-0.011307172;-0.029865295;-0.069258325;-0.07221368;0.04428038;-0.039539784;-0.051062815;0.052913435;0.08321038;0.024909146;0.03630588;-0.029080702;-0.014039891;-0.0067277537;-0.03400884;0.056806847;-0.031836778;0.03817031;-0.00441508;-0.08397969;0.056650367;-0.06399647;0.03200839;-0.07448599;0.008995417;-0.046139237;-0.07313927;0.15855482;0.025236696;0.054061398;-0.087285705;0.037300713;0.0023015658;0.07179556;-0.015717879;0.063258484;0.023710014;0.10722602;-0.025530439;-0.018217605;0.043756876;0.08842621;0.031592265;0.031246055;0.0999085;0.13058998;0.043770336;-0.00044487207;0.08041633;-0.02713571;0.043078672;0.020521112;0.020423261;-0.026565067;-0.05409363;-0.053291015;-0.0375788;0.059793632;-0.038249053;0.0624812;0.005580846;0.024480624;-0.024340915;0.039506927;-0.046247173;0.03614139;0.0134115685;-0.043819904;0.07718542;0.10231279;0.11251836;0.16155444;-0.10022905;-0.01744593;-0.14214781;-0.057273895;-0.05672003;-0.011380947;0.09016453;-0.03147312;0.03514409;-0.0040434715;0.0829342;-0.03351788;-0.048552915;0.03736675;-0.020233054;0.027572433;0.118373565;0.00912871;0.06949861;-0.03128882;-0.037140615;0.078469455;0.02658191;-0.059169322;0.047122393;0.031898405;0.02322693;0.06929326;-0.016816584;0.03505795;0.036678452;0.09206025;0.08202397;-0.031338383;0.025753992;-0.0017329246;0.018883003;-0.067023;0.06800963;0.012636561;-0.031645123;0.07253053;0.0026236605;0.21110073;-0.091153696;0.08557588;-0.049876012;0.013379782;0.050991677;0.07743716;-0.07087327;0.0027211974;0.044514947;-0.08400397;0.0012356521;-0.068328775;0.03979063;0.11594831;0.040302534;-0.0088362275;-0.025013613;0.036119625;-0.05502171;0.104475066;0.031921968;-0.028767394;0.051802002;-0.016714957;-0.064949185;-0.0064671063;0.054627016;0.06846324;0.09061555;-0.13865866;0.0831886;0.026998095;-0.04312187;0.006149808;-0.0093098655;-0.09969263;0.09881029;0.017917344;-0.009096103;-0.068753324;0.02406195;0.038012177;-0.018659225;0.08252651;0.023490556;0.0019088298;-0.0759336;-0.022547554;-0.029818553;0.05469172;-0.033646133;0.07472672;-0.0697581;0.028864767;0.061189502;0.05321981;0.005164951;-0.045809265;-0.091881074;0.038658287;0.0050913887;0.050898187;-0.087397665;-0.025062487;0.02577458;-0.03974532;0.07540882;0.052431874;-0.06956053;0.055117495;-0.0120982565;0.05611907;-0.02669632;0.0068280525;-0.0784706;0.07841312;0.012216781;-0.0801493;-0.022175334;-0.123138145;0.0012897906;-0.034230802;-0.037751444;-0.05101516;0.08467759;0.008229048;0.04027908;-0.042849615;-0.010804618;-0.043127418;0.04026091;-0.065175176;0.054237574;0.052352596;0.055343054;0.007153017;-0.03923144;0.13380231;0.03076165;0.01612089;-0.02638265;0.07170769;-0.03179144;0.012592495;0.02802411;0.04895716;-0.08009891;0.039866388;0.05976378;0.10141093;0.04818565;0.08286066;-0.0093832975;-0.023843747;-0.0832307;0.03965815;0.04053357;0.065347664;0.025939876;-0.029354533;0.07039683;0.0057043894;0.020772347;-0.020134162;-0.04088044;0.062934406;0.042857658;0.093631096;-0.090551384;0.09783407;0.064722404;0.081340455;-0.0250232;-0.04662656;0.08184588;-0.028758606;0.14034387;-0.0064151497;-0.0048640505;-0.0005251281;-0.08768735;0.034193005;0.005129033;-0.051252715;0.05141777;-0.15526128;0.06090828;0.045809045;0.00084286294;-0.14606677;-0.08258415;-0.029238624;0.027974838;0.074241586;-9.7661454e-05;0.1713122;-0.022095243;0.10317732;-0.068826824;0.04663538;-0.16693906;-0.021122808;0.029676648;0.051173907;0.010798141;0.085399434;-0.054503065;-0.035855077;-0.006460484;0.024569266;0.0156017095;0.02047277;0.0510151;-0.0025543922;0.04080335;0.04232074;-0.02844938;-0.0046298457;0.079157285;-0.03172354;-0.07997782;-0.0040048463;0.016645933;-0.061469533;0.0051559308;-0.10738438;-0.06885602;0.025234358;-0.055743802;0.057387933;0.06914026;0.02744319;-0.03805935;-0.040152848;-0.018054485;-0.053803027;-0.088603236;-0.01577225;0.07640891;-0.010205177;-0.020335453;-0.045971356;0.04770575;-0.029313236;-0.047641285;-0.04385847;-0.05756887;0.06959079;0.065951616;-0.010497859;0.16476662;0.055698846;0.027508315;-0.07843734;-0.07032817;-0.055885896;0.07419043;0.0476553;0.023180034;0.0043810047;-0.016573068;0.011831798;-0.038648102;-0.026532045;-0.059649043;0.059813034;0.021265252;0.015913613;-0.072612375;-0.07532528;-0.020104451;0.083884135;-0.054141622;0.06718853;0.091029026;0.10002734;-0.052736755;0.030850807;0.042215485;-0.029302718;0.016277472;-0.09233249;0.07060402;-0.057206746;0.03004901;0.017879484;0.025593435;-0.011488454;-0.042221684;0.03202523;-0.05710975;0.030965429;0.07275869;0.106662326;0.020964837;-0.06875528;0.005469182;-0.05608601;-0.077609085;-0.079639;-0.12672545;0.057504445;-0.047748305;0.037616033;-0.052381877;-0.05635427;0.015139069;-0.09791794;-0.06878959;-0.08121252;0.038704157;-0.029262938;-0.0674084;0.006615718;0.061146595;0.008675033;-0.01872097;-0.062057126
-0.022660945;-0.025833623;0.096281044;0.0539787;0.0050625135;-0.04988291;-0.10177822;-0.036060028;0.07863451;0.042798072;-0.0027333447;0.07988677;0.056558482;0.07320182;-0.048647404;-0.063393004;0.04063077;0.022017784;0.05348597;0.071728274;0.05058086;-0.08400972;-0.017826693;0.05712067;0.019994978;-0.004850753;0.055827532;0.06977907;0.01744897;0.021472998;0.075721465;-0.04482706;0.032702398;-0.013277442;-0.075318106;-0.032815643;0.035474025;-0.03213294;0.039762083;0.08363769;0.06678208;0.07425726;0.16157718;-0.060440175;0.063047126;0.012752842;0.06451022;0.014862351;-0.015409294;-0.018749908;0.04820647;0.029735934;-0.060217567;-0.06609686;-0.09678731;-0.0075834612;-0.05301572;-0.019761834;0.048707504;0.028625956;-0.11617119;-0.019537345;0.045480356;-0.041039973;0.021576324;-0.014602947;-0.048323862;0.083456635;-0.08152308;-0.0745118;0.008146013;0.07881977;-0.042951282;0.014060704;-0.03465055;0.049904622;0.074554056;0.17534584;-0.115294136;-0.072140574;0.014794786;-0.056062285;-0.17180319;-0.1082034;0.0619533;-0.031515595;0.053566087;0.0373851;-0.10247976;0.066082746;-0.013516753;0.08075135;-0.061236344;0.03777497;-0.035723634;0.059956223;-0.07895268;-0.06497385;-0.04818351;0.0068819495;0.051014718;0.021954246;-0.03366386;0.069892846;-0.06845218;-0.053966586;0.040575255;0.028482346;0.09350303;-0.013726897;0.0747373;-0.0042572976;-0.027962701;-0.13643229;-0.035744984;0.08206554;0.058056444;0.037539262;-0.039750595;0.03114959;0.019972874;-0.034466606;0.028166298;-0.0041910796;-0.057744082;0.05220969;-0.076999836;-0.05588023;-0.06889902;0.050741497;0.120595224;-0.04126575;-0.04961069;-0.08016354;0.03639236;0.048603818;0.026083287;-0.08200091;0.19050476;0.080391675;0.10076957;-0.07367276;0.045183875;0.07267132;-0.01902886;0.11552676;0.07113545;0.09541247;-0.035336316;-0.09463351;0.081365846;0.07681219;-0.06330948;-0.058209516;-0.091154665;-0.043202262;0.012736465;0.06251807;-0.09653039;-0.053223986;-0.040187687;0.051694132;0.034927253;0.056203384;-0.042047556;-0.02467598;0.06831062;-0.050642654;0.18387553;0.036816068;-0.006365621;-0.037181422;0.055437516;0.049186274;0.008793138;0.05808618;-0.02594066;-0.052562356;-0.06302352;-0.07054682;-0.00082224817;0.03330263;0.010691885;0.0029830325;-0.08834961;0.020945158;0.07214022;0.03855186;0.04587751;0.027306415;0.108641796;-0.016285224;0.05477655;0.03619099;-0.028771631;0.051956907;0.0022465389;0.007958043;-0.058136202;0.01974358;-0.07087998;-0.08693992;0.056262046;0.036911845;0.009798196;0.006331862;0.06628118;-0.021794066;-0.016453981;0.12954983;-0.08863446;0.078396685;0.06355493;-0.020878004;0.032191336;-0.014132111;0.06324533;-0.053827804;-0.00946999;0.060218018;0.02228855;-0.068320125;0.06625848;0.030777803;0.013736019;-0.07649582;0.09518661;0.074194975;-0.04377038;-0.059682343;-0.038090646;0.056583196;-0.040959332;-0.056815956;-0.02851044;0.048961382;0.06851171;-0.009022067;-0.07071722;-0.022898136;0.049990177;-0.03736179;-0.036340863;-0.013756749;0.010766315;0.083440125;-0.10277417;-0.03265257;0.06746842;-0.005545278;0.02801082;-0.0667366;0.1339191;0.018567106;-0.118521824;-0.08826515;-0.027703647;-0.04970004;-0.041031282;0.02164311;-0.01018028;-0.023412954;-0.063964136;0.02468722;0.040514022;-0.048868094;0.04517776;-0.010866035;-0.06719596;-0.009761511;0.044964902;0.026268886;0.052251894;0.021551345;0.02466809;0.044357758;0.06327529;0.017135914;0.0229026;0.08038694;-0.0013702355;-0.043241553;0.026090685;0.058106054;0.026202628;-0.044988982;-0.036399614;0.10089262;0.05796251;0.045908354;-0.117022656;0.071008205;-0.05316067;0.012930652;0.052324604;0.13178675;-0.034697384;0.14840314;-0.0708253;-0.051126245;0.019511454;-0.021396779;0.008217026;0.0413674;-0.044105463;0.032886844;0.059882626;0.06412516;0.044781093;0.02329096;0.046858173;0.12379551;-0.031835876;0.08331629;0.11174747;-0.062186603;-0.026118243;0.025584664;-0.011122876;-0.119698614;-0.020662177;0.010211386;-0.0037524735;0.050520703;-0.057840325;-0.048870895;0.014012403;-0.13601759;0.00023459402;0.12862119;0.043936964;0.065198265;-0.0064777555;0.036586765;0.024671493;-0.0321248;0.072588;0.0014217397;-0.06900789;0.07391007;0.06583836;-0.003954036;-0.046961132;-0.02050922;0.09049313;0.024896728;-0.046390146;-0.022733606;0.035213348;-0.024267228;-0.049954757;0.07169147;0.045742746;-0.02727408;-0.02918276;0.06977914;0.02446954;0.007457027;0.04405552;-0.020041551;0.017694822;-0.082268335;0.091570035;-0.08816775;0.08363994;-0.07027211;-0.0155799175;0.038627133;-0.034780275;0.024392352;-0.009762626;0.027030783;0.025908511;0.08960194;0.055953804;-0.08810494;-0.045604732;-0.054478403;-0.07615254;-0.0092886;-0.046286594;0.083486766;0.098849684;0.011441414;-0.0081041055;-0.11375138;0.009984535;0.040736552;0.01482446;0.030419992;0.06733676;0.0101589775;0.07623381;-0.020888167;-0.04346434;0.017531991;-0.08220494;0.056943342;0.028605923;0.0314081;0.011671454;-0.08246021;-0.094088346;-0.091092646;-0.024394711;0.05460079;0.09661329;-0.039714973;0.0070725037;0.024012918;0.1317329;0.059767224;0.061523963;0.07562298;0.030123182;0.03653442;-0.01776812;0.022962462;0.068204075;-0.053255167;-0.08341227;0.012321301;0.010484568;-0.006756239;-0.050628673;0.04227248;-0.055834897;0.043474846;-0.04906503;-0.044901166;0.055782817;-0.077670395;0.11286863;0.056533813;0.12586217;0.051423464;-0.008130762;0.11175388;-0.052425086;0.027261836;-0.000499991;-0.0057920623;-0.05641864;-0.08700274;-0.035145603;0.054274995;-0.093645096;-0.0008894097;0.02680241;-0.05393723;-0.08029576;0.021572016;-0.051313035;0.06525195;-0.003936556;0.013721465;-0.08372799;-0.053942867;-0.055868376;-0.010383981;0.11569546;-0.052958682;-0.059065282;0.014880039;-0.053859152;-0.0036656873;0.03418846;0.12859806;0.020370135;0.057207644;-0.02000162;0.024713272;-0.045665488;-0.07224924;0.048467968;0.05558253;0.09518616;0.074946575;0.017502433;0.02805206;0.009033432;-0.059167136;-0.13263778;-0.040853314;-0.04075308;0.063746706;0.054690238;-0.01816511;-0.055218775;0.07908707;0.029657466;-0.050592545;-0.01980174;-0.038870323;-0.032930523;-0.10181196;0.022526037;0.0021744773;0.034089997;-0.05879651;-0.09520697;-0.07378895;0.059687827;0.02210916;0.08849911;0.091663375;-0.06450976;0.10713582;0.05536437;-0.061334807;0.030458225;0.079416975;0.07420519;-0.039021596;-0.060567986;0.05114226;0.092169166;-0.07755959;-0.03840316;-0.05611927;-0.05120005;-0.06109909;0.060788672;0.040489398;-0.006781185;-0.003377929;-0.045034964;-0.08348205;0.06993351;0.055484835;-0.040358026;0.08143777;-0.0068363757;0.11522615;0.038416326;0.015563964;-0.05727495;-0.02433773;0.11154431;0.008662352;0.078591585;0.079064764;0.05378866;0.05123866;0.02020903;0.0036001885;-0.059948668;0.019421132;0.034009855;0.0044484353;-0.014446537;0.073825076;-0.0036850804;-0.026935512;-0.0586897;-0.13988733;-0.049368422;0.009844087;-0.114705995;0.09251624;-0.01268828;0.0052587297;0.0024721094;-0.008951072;-0.01299108;0.025123961;0.089514434;-0.023674868;-0.027452935;0.044798847;-0.02128069;0.050834946;-0.003038279;0.07348379;-0.019481434;0.06918128
0.048814446;0.0031681072;0.08720323;0.12674096;-0.06883146;0.01790143;-0.06308542;-0.0036210304;0.14812312;0.01531495;-0.02428018;-0.032215256;-0.059461374;-0.0590681;-0.0018740658;-0.020469693;-0.015585338;-0.07420906;-0.043317776;0.028347164;-0.02868092;0.03626434;0.09882037;-0.029334279;-0.007540101;-0.09678737;0.076754935;8.0133046e-05;-0.17033131;-0.1563229;0.07524595;0.011855313;-0.009752062;-0.046557497;0.038058188;0.07255896;-0.06888285;-0.16750623;0.06558586;0.037892222;-0.05679303;0.06426025;-0.06561233;-0.040564198;0.025413953;-0.021359105;-0.08554083;-0.06880367;-0.053601023;0.04645188;-0.01558598;-0.02624002;0.072207294;-0.101028286;-0.15281057;-0.06918973;-0.061742034;-0.044055525;0.08373635;-0.029756624;-0.0677731;-0.047318034;0.10658483;0.082738586;0.08230698;-0.030399015;-0.0069305785;0.03525828;-0.058415636;0.08565306;-0.112005726;0.0446677;-0.086689994;-0.063090794;-0.058591038;-0.03943346;0.07436197;0.034574896;0.06615509;0.006264705;-0.02670418;0.081403345;0.021769822;-0.06627519;-0.006365479;-0.009866518;0.08242157;0.019558487;0.04224408;0.020130908;0.07694038;-0.02203673;-0.026288187;0.07266701;-0.04266401;0.08607594;-0.15772513;0.06678211;-0.04994875;-0.06287172;-0.08821414;0.09438474;5.1848507e-05;0.009334401;0.026056182;-0.035739485;-0.029942358;-0.03378044;0.016558375;0.022773461;-0.005844782;-0.019676609;-0.059080943;-0.114476375;-0.068172626;0.008879641;0.12475396;0.03015714;0.06548754;-0.028278468;-0.07871149;-0.037201937;-0.03490173;-0.00882649;0.0909669;0.058668025;-0.0034438914;0.05621927;-0.08711144;-0.066784345;0.016211845;-0.03425448;0.11646055;0.10484312;-0.060733758;-0.06722611;-0.029908316;0.089001305;0.11382974;-0.007674886;-0.07259348;0.016811607;-0.028782243;-0.04188433;-0.007007346;0.14846219;0.03023349;-0.039335955;0.027277425;-0.0460417;0.06998487;0.075434744;-0.014591302;-0.07651968;-0.0765292;-0.0514768;-0.085851334;0.06906906;0.059177224;0.061517213;-0.028417224;0.047126453;-0.12242874;0.06662133;0.011027149;-0.0055153375;-0.06525744;-0.05927125;0.0908299;-0.023135565;-0.0042548003;-0.1002736;0.08729168;0.027754633;0.070988655;-0.06457132;0.02517139;0.03391167;-0.05963842;-0.09485512;-0.09899352;-0.031764176;0.05476967;-0.023618568;-0.04035289;-0.07464958;0.080632985;-0.050319016;0.047382478;0.06929592;0.007840019;0.016626325;0.13631241;0.0031196675;0.07337505;0.049335998;0.0699796;0.022534657;0.042370565;-0.05062314;-0.0013849994;0.017659532;-0.020935452;0.057340845;-0.056161556;0.038483914;0.07016829;0.025163325;-0.036148064;0.11130712;-0.08563541;-0.08508692;0.026818182;-0.0013813793;0.0033010498;0.018014014;-0.0430554;0.057044346;-0.07142779;0.06801704;0.011530635;0.0939983;0.005616934;0.022045402;0.03519182;0.086686395;0.09547319;0.116002016;-0.0035679005;-0.052307487;-0.06842486;0.00638036;0.035577044;0.0135775525;-0.040302157;-0.07688794;0.04563343;0.00031438787;0.035822507;-0.013228231;0.02618242;0.034412175;0.10820727;-0.13028577;-0.008540879;0.12569116;-0.01723624;-0.041433893;-0.092685975;-0.05644715;0.077960655;0.0636739;0.011669938;0.09497231;-0.036412466;0.046185076;-0.13319407;-0.0656188;0.051086467;-0.06306255;0.04100817;0.00041712553;-0.050878108;-0.00069558306;-0.026793666;0.048576813;0.03805263;-0.033565145;0.02071035;0.09737946;0.08031801;0.012800252;0.028989537;0.057409685;0.056922775;-0.047650054;0.04407421;0.0027832242;-0.029389242;0.04685089;-0.045852654;0.008526191;-0.08308406;0.0906384;-0.026129767;-4.1052805e-05;0.011237226;-0.08032858;0.040975407;-0.008648497;0.08349648;0.03425703;0.056446876;0.051442828;0.012552993;0.1178433;0.009123553;0.13910565;-0.059001524;-0.05504325;-0.10549388;0.06851247;0.0371644;-0.035672292;0.017560031;-0.029393597;-0.01700167;-0.03340546;0.054862287;0.05147916;-0.0126459;0.16730493;-0.029010933;0.052618638;-0.031346213;0.07084425;-0.11637563;0.10259313;-0.06279596;-0.05063585;-0.029405445;0.07313059;0.013831283;0.013776179;-0.02470416;-0.06513391;-0.010991252;-0.0034453047;0.015440501;-0.0005209962;-0.0018942457;0.07026183;-0.07991219;-0.0119462535;-0.05798249;0.07309704;0.02346076;0.021188775;-0.021668976;-0.026189571;0.06436535;-0.013752085;-0.048887312;-0.114413664;0.09756529;-0.023741929;-0.019077552;0.0423252;-0.07490711;0.008270622;-0.011896321;-0.014359395;0.10767207;-0.07988259;-0.13825601;-0.026811892;-0.054939557;-0.07227884;0.029785506;-0.035080887;0.057925783;0.023558974;0.004060178;0.007742226;0.07771232;-0.04921046;-0.07720292;0.02383113;-0.08262477;0.04803337;0.0363117;-0.095773466;-0.041034695;0.0031741783;0.08146148;-0.07890621;-0.01517612;-0.114200726;-0.021881197;-0.07536403;0.01446072;-0.03762779;0.017870784;0.045562826;0.011323332;0.05923188;-0.068955265;-0.018688561;-0.041102927;-0.05970499;0.058416694;-0.06323795;-0.020389166;-0.024900015;0.024592593;0.016310658;-0.040966526;0.00439087;0.09768258;-0.008167448;0.03723693;0.009740477;-0.0053158505;0.012838944;0.044663634;0.0033067376;0.124184825;-0.07649676;-0.02873063;0.03084283;-0.026558176;-0.06401996;0.021527195;-0.020511193;0.08605011;0.10669923;0.044273622;-0.0029408454;-0.008027013;-0.04743979;0.029710935;0.00976993;0.011353764;0.03778776;-0.039604288;0.018414645;-0.091721736;-0.024610989;-0.046590693;-0.074635856;-0.0046172063;0.0081004035;0.07330034;-0.03970855;0.08247562;0.032788243;-0.02609216;-0.032865576;0.06323817;0.07890813;0.035433415;0.0051477216;0.0029157675;-0.15648203;0.006298938;-0.10001509;-0.0039326353;-0.07134036;0.049266577;0.065349594;-0.022885676;0.01480013;0.07989397;0.0965652;0.024296269;0.011874834;-0.038715735;0.04820219;-0.08220557;0.091724545;0.016345741;0.04013388;-0.13809964;-0.060474966;0.051840723;0.0782766;-0.044272203;-0.07902668;0.06366754;-0.06879598;0.0136501705;0.15499009;0.070131265;-0.06269398;-0.009111564;-0.06637599;-0.036686335;0.05168908;0.08592118;-0.0016857956;-0.031762082;0.053405743;-0.029921923;-0.07994406;-0.009780265;-0.0038161243;0.048689984;0.021033704;0.07777982;0.045160465;0.037763547;-0.08638396;0.040412277;0.0973544;0.067089766;0.0077639846;-0.061572745;0.05477083;0.034948368;0.051718745;-0.07838483;0.0751328;-0.023600644;-0.07516749;0.029941704;0.067700624;-0.08025312;0.009765695;0.06133662;0.061381176;-0.04714322;0.011320598;0.06960744;-0.024983661;-0.024062816;0.0148921525;-0.01758925;0.015534438;-0.035382718;-0.0019124411;-0.05998113;-0.04919481;-0.01568823;0.05294543;-0.05374692;0.0789273;0.0012674255;-0.0529409;-0.008284091;0.07720934;0.074867345;-0.07614746;0.10119731;0.08208309;-0.034768403;0.06891066;0.07792928;-0.04356566;0.0064143445;0.019267736;-0.0012557245;0.079119384;0.00050830713;-0.044858027;0.055262566;0.033096347;-0.070687465;-0.017330568;-0.028205207;-0.012570984;-0.019059634;0.08674633;0.03485297;0.039116006;0.077233486;-0.117462315;0.023041183;-0.03818729;0.026536563;0.021241726;-0.011729078;-0.003183555;0.036235835;0.07479311;0.10602729;0.006308372;-0.07081947;0.018761594;-0.00296025;0.07719249;0.08488118;0.07332139;-0.09029276;-0.047974132;-0.083829984;-0.016237075
0.074291304;-0.047129706;0.06521643;0.07281816;0.06570437;-0.04485679;-0.05733231;0.06706264;0.010767204;-0.09386625;-0.07916912;0.0036539326;-0.016945617;-0.020688213;0.06086695;0.058163043;0.11174658;0.031135444;0.05840885;0.009334809;-0.039450966;-0.017090978;0.11555379;0.051085107;-0.026071874;-0.042659782;0.07592781;-0.00021821374;-0.20236295;-0.15721042;0.055685956;0.066661745;0.057680003;-0.06436265;-0.075829126;0.006364418;-0.025107527;-0.1418532;-0.062174123;0.07759549;0.07114301;0.019922355;0.05550345;-0.06663006;0.039084088;-0.03083533;0.06695083;0.0063096145;0.0057608117;-0.028492892;0.08332268;0.0014983242;0.0119202295;-0.0588391;-0.042179152;0.04838457;-0.059988286;0.034214173;-0.008161295;-0.10139279;-0.036845826;0.05893639;0.0101437485;0.11302986;-0.023808453;-0.011560063;0.031111622;0.120121844;0.06498237;0.038971636;0.033619966;0.08154836;-0.0683818;0.037163094;-0.04714698;-0.0016017511;0.03741453;-0.000583739;0.03078981;0.062081743;-0.028644204;0.07715466;-0.07198719;0.022117833;0.040731024;0.01937078;-0.035944335;-0.043809257;0.0039196475;-0.031180251;0.040898863;0.06458629;0.0005140184;-0.041128777;-0.004343217;0.06113246;-0.06524063;0.03809372;0.080119915;0.021084644;-0.096321456;0.032324083;0.025423944;-0.044820562;0.0299658;0.01875562;-0.0033768883;-0.041982256;0.04257181;0.049034704;0.060339782;0.032954518;-0.077816084;-0.09319475;-0.014274847;-0.042561527;-0.022620404;-0.06271699;0.0015954607;0.0012014325;-0.027024677;0.0639975;-0.002466772;-0.06630249;0.0882125;-0.059786364;-0.06303102;-0.060943805;-0.016447503;0.047030143;-0.06331405;-0.024065107;0.028149463;0.047391497;-0.09824027;-0.040419318;0.014275191;0.0064269817;0.10734787;0.052727524;-0.14328785;0.055161607;-0.05645122;0.007566504;-0.021409594;0.057527736;0.13048752;0.077743016;0.039087985;0.026770921;-0.08019705;-0.057197466;0.01597181;0.09749399;-0.024409987;-0.09847791;-0.019363092;0.09522261;0.014394579;-0.00301242;0.018433858;0.05248971;-0.04341982;-0.07285232;-0.03450969;-0.041198373;0.06467612;0.050326746;-0.010321874;0.06541695;-0.053707074;-0.022725465;0.100543186;0.010039854;-0.06622094;0.037923057;-0.010814718;-0.0058811847;0.082147345;-0.029173931;0.047373082;-0.058951672;0.007180271;0.021334643;-0.151794;0.034632634;0.03882467;-0.021202838;0.03867118;-0.075755976;-0.02922503;-0.08384831;0.042684942;0.041535422;-0.04769987;0.062116973;-0.012632327;-0.006975088;-0.024912918;0.032858457;0.040376924;0.0793499;0.06258031;-0.02288206;0.0336196;-0.00017066055;0.0017501598;-0.007951554;-0.007759734;-0.023721192;-0.0036754857;-0.08345653;0.030634627;0.055990923;0.059368066;0.09433481;-0.012302923;-0.061542805;0.067036025;0.03209762;0.024588253;0.07717021;-0.014621147;-0.001137767;-0.015234615;0.00504201;-0.011518268;0.11350497;0.084448844;0.009373198;-0.07465889;0.08297723;0.05681018;-0.00025601586;0.079493135;0.053572595;0.007753105;0.02079635;-0.053082034;0.028047351;0.059089437;0.102819584;-0.02287647;-0.136049;0.061795354;0.14646186;0.05752642;-0.0069573564;-0.0900023;-0.036713485;0.10473155;0.09454308;0.054471083;-0.076974764;-0.09475248;0.05629921;-0.15887287;0.06784632;-0.04732122;-0.02218018;-0.06212031;-0.013221078;-0.051212322;0.033179034;-0.07051238;0.068746865;-0.005394941;0.035741635;-0.048900913;0.052012846;0.09161304;-0.05094578;-0.08279639;-0.033689637;0.07891768;-0.0004133254;0.04540173;-0.010195611;0.077096894;0.03875535;0.08557938;-0.07741692;0.06437319;0.10955913;0.07002922;0.06942908;-0.057361595;-0.0067147682;-0.07270577;0.0692068;-0.033799343;0.050350737;0.056379687;0.0043958677;0.05166429;0.0375314;-0.03311936;0.059979934;0.059863422;-0.011445671;-0.095686086;0.011437389;0.011726397;-0.029926447;0.10937837;-0.015359421;0.11397409;-0.092661515;-0.00062491297;0.069486074;0.092903875;0.16223784;0.056427766;-0.05359025;-0.07951024;0.05953222;-0.1612578;0.060996417;0.025720371;-0.119472854;-0.0112074455;-0.037457317;-0.078758;-0.045972582;-0.060185857;0.0728089;0.080073595;0.02974657;0.019851323;0.041840844;0.046887495;0.095034815;-0.009394286;0.06291526;0.019337222;0.051804073;0.057245295;0.03616848;0.12891829;-0.046955444;-0.01851066;-0.06310804;-0.010285105;-0.005380419;0.03429467;0.013076639;0.041278206;0.01991652;0.08188806;0.03527992;-0.00037398696;0.04401557;-0.050823;0.06991514;-0.028037162;0.030681316;-0.124801;-0.072331525;0.07318822;-0.13148876;-0.021626733;0.06557177;-0.010311219;-0.06784325;-0.009909419;0.07370631;-0.058989488;-0.07612377;-0.030010575;0.088076755;-0.07212073;-0.082800575;-0.019952457;0.07047257;0.010399328;-0.07479557;-0.024647323;-0.054477174;0.05376296;0.06528725;-0.064251274;-0.0134247;0.009446608;0.08174057;-0.025551453;0.10620251;0.05633784;-0.06345739;-0.04754947;-0.02646683;-0.03178633;0.029983059;-0.09016217;-0.07028759;0.05338812;0.040554073;0.002264943;-0.051076323;-0.00047662616;0.052654974;0.0029153319;-0.017279044;-0.06197549;0.0027621016;0.059982926;-0.011197171;0.073517665;-0.15047108;0.002113311;0.0032174143;0.040916316;0.065976925;-0.050303515;-0.015975226;0.055566356;0.05327552;0.066960685;0.06138482;-0.02462206;-0.11419082;0.043297842;0.0882249;-0.03943384;0.03218799;-0.061311178;-0.004461186;-0.048913173;-0.06557265;-0.08690279;-0.024436332;-0.02951905;0.010316001;0.07415977;0.053690944;0.038790632;0.037755355;0.043615345;0.061604165;-0.06963285;0.083641894;-0.019703923;-0.043931015;-0.015817506;-0.1178216;-0.00863385;-0.05918388;-0.053450126;-0.024796367;-0.040565223;-0.018935366;0.031026596;0.060491845;-0.076186046;-0.012810187;-0.020563124;0.057624806;-0.07920131;-0.0884647;0.00013561311;0.09561047;-0.038430396;-0.039749354;-0.14583422;0.006894741;-0.059625104;-0.0054027126;-0.023036327;-0.09600182;0.055704717;0.024820775;0.002652069;0.08362753;-0.000139235;-0.022765728;0.06204206;0.07677405;0.038902067;-0.050343376;0.0003423093;0.08187825;-0.032624926;0.022566596;-0.03033334;-0.010524314;-0.07385037;0.032813657;-0.049596656;0.027965317;0.09727272;-0.06602137;0.006404622;-0.06793262;0.07385411;0.035440564;0.074767716;0.019656403;-0.067043096;0.014771206;-0.061890423;-0.03943284;-0.11738321;0.09618659;0.012943359;0.057254106;0.035632875;-0.061050788;0.019183254;0.054523792;0.0992225;-0.012842123;0.02176727;-0.0652621;-0.052620232;0.068781935;-0.042106625;-0.0005662898;0.09048513;0.04014197;-0.029446218;0.05303222;-0.042446576;0.09331923;0.07925013;0.0044868942;-0.00087235094;-0.06146203;0.0465132;-0.057051536;0.014690916;0.042992685;-0.061580926;0.010318337;-0.06566017;-0.043464176;-0.0008338677;0.0017288759;0.063823014;0.043276433;0.15844515;-0.060002785;0.04167494;0.09459249;0.009721706;-0.07409647;0.012875201;0.0472027;0.020651173;0.0043302323;0.07689575;-0.058128957;0.02551996;0.034889095;-0.0164107;-0.05005084;-0.04774953;-0.060766365;-0.045277815;-0.03455614;0.036380574;0.15411621;0.049301613;0.048832852;-0.113661006;-0.027125323;0.009877386;0.048611395;-0.055535004;0.11159553;-0.034555834;-0.074643984;-0.060409967;0.03408564;0.066034414;-0.047974486;0.016711991;-0.007663521
0.014889401;-0.017737808;0.059264466;0.020931773;0.019607676;0.033000283;-0.23500837;-0.019624723;0.087045744;0.073450185;-0.063736826;0.07668608;-0.014964203;0.035704732;0.03576302;0.06246584;0.10961562;0.05363684;0.07285812;-0.02221374;0.018887414;0.07283611;0.07827088;0.02734514;-0.06407484;0.07845684;-0.044695422;-0.045870833;-0.26436824;-0.02987084;0.0083443485;0.0414539;-0.049917933;-0.14760713;0.09197662;-0.005128076;-0.13142689;-0.14572409;0.036873385;0.04355285;-0.06914072;-0.0025603063;0.045986533;-0.06586643;0.13509235;-0.06597745;0.030285893;0.021285428;-0.059520204;-0.011403631;0.02391007;0.07531537;0.028841766;-0.030739017;-0.108930424;-0.01889976;-0.014554233;0.00325121;-0.040442433;0.017780015;-0.047297344;0.0253483;0.11466263;-0.053088304;0.028882626;-0.024844082;0.06340879;0.082670376;0.09663487;-0.03723447;0.0016036716;0.14056203;-0.07556276;-0.08148697;-0.0076600844;-0.03756406;-0.05821936;0.06794546;-0.0047349166;-0.018774735;0.002185396;0.061716083;-0.17125124;-0.0085098175;-0.036868487;0.0022947395;0.02284431;0.039771337;-0.072567515;0.035441585;-0.061480567;-0.016241092;-0.045323215;0.018123504;0.07404624;-0.04700095;-0.12681645;0.037487254;0.04078182;-0.028526228;-0.05053719;-0.002028853;0.09140892;-0.038013358;0.011584046;0.06040057;-0.03455863;-0.04599221;-0.046623174;0.02386666;0.053463075;0.047430623;-0.01451903;-0.0039734435;0.054727316;-0.04392764;0.10867952;0.030532323;0.06749617;0.10599719;-0.008255783;-0.025328174;0.04188025;0.067964695;0.056157265;0.029960616;0.007649373;-0.010283245;-0.08877258;0.03136142;-0.042694736;-0.01766015;-0.07311776;0.053064987;-0.059638154;-0.027132032;-0.008193656;-0.0010132703;0.074817225;-0.023396906;-0.17603575;0.03180238;-0.022411404;-0.042912044;-0.06770798;0.0010146291;0.12694941;-0.039590962;-0.05114369;0.073157;-0.085193425;-0.014674067;0.032620467;-0.035472784;-0.18278329;0.060468074;-0.115488976;-0.031043448;0.09333663;0.08122095;-0.042625133;-0.07247733;0.009517885;0.058070894;-0.01772018;-0.07981294;-0.017787257;0.016977191;0.058677435;0.07371073;0.017439295;-0.036164172;0.07770483;-0.04320521;-0.05992173;-0.014674545;0.06626387;-0.055254277;0.01944348;-0.069745734;-0.07669405;-0.081816375;-0.07911321;0.0039114943;-0.11784696;-0.023629954;0.0003259654;0.05392983;-0.022869246;0.077400714;0.040113777;0.009348535;0.024866948;-0.062211268;0.03400049;0.04887804;-0.05338304;-0.07941037;0.05374894;-0.0016258962;0.06273655;0.042313397;-0.0027294294;0.028341286;0.033889156;-0.0011878246;0.08230431;-0.06490615;-0.0552019;-0.039756414;-0.0020824966;-0.046018157;-0.022519624;0.05506171;0.02887425;-0.008381795;-0.014463084;0.0042421566;0.018195324;-0.0017687241;0.05120362;0.03911878;0.0050824075;-0.02756414;-0.02696739;-0.006614984;0.06457624;0.10126933;0.06867931;-0.017329114;0.0017539238;-0.07344982;-0.0613661;0.060047463;-0.07018484;0.038102802;0.07078473;0.065765515;-0.031389736;0.0017991948;0.08021336;-0.03983519;0.01457992;-0.038046345;0.05503949;0.10267229;-0.00626436;-0.1450545;-0.035563223;0.021638561;0.057308678;0.09467381;-0.060516346;0.07159994;-0.015470665;0.06403288;-0.15011601;-0.020151187;-0.07343665;0.04637491;0.067193136;0.00210309;0.007837348;0.041573804;0.020466434;0.01034323;-0.028313292;-0.09420705;0.032346006;-0.050523058;-0.031430837;-0.028494256;-0.057897683;0.05095079;-0.0014255996;0.07982444;0.011725906;0.001506339;-0.001132072;0.02984719;-0.018272076;0.018713376;-0.08462677;0.09729641;0.019266482;-0.044176333;-0.07855929;0.016643764;-0.044888455;0.016212758;-0.005976859;0.094517164;0.004208502;-0.077279225;-0.028142363;0.07371497;-0.03454439;0.008645981;-0.051184535;-0.04257517;-0.12596083;-0.041858174;0.04996769;-0.034558523;0.1520197;0.006692682;0.107750915;0.0030621157;-0.0034328508;-0.030939626;-0.02253033;0.04775906;0.007561725;-0.024465235;-0.056785755;0.004335383;-0.026378104;-0.025148332;-0.06143956;-0.011002389;0.01493488;-0.015304104;0.080558755;-0.025566997;-0.055406973;-0.03488982;0.012825874;-0.04028786;0.0067305504;0.07922746;0.017008232;-0.025683895;0.075642236;0.07300806;-0.07629188;0.06807887;-0.024290737;0.025742047;-0.027580388;0.026602147;-0.0339185;0.062294144;-0.0604426;-0.060679715;0.0787825;-0.010694552;0.02617783;-0.09020647;0.014727834;-0.041911997;0.0010272166;0.053853184;0.05536489;0.04276907;0.0047072405;0.10681185;-0.12927921;0.02767433;0.017330186;-0.037869506;-0.03185122;0.08914479;-0.059568312;-0.07132372;-0.0758105;0.05723314;0.009733234;-0.038629416;0.011562768;-0.005669032;0.08336553;-0.11182855;-0.0044700713;-0.05768231;-0.050463576;-0.049404275;0.091350086;-0.098255426;0.047898784;-0.020096077;0.08325048;0.012850479;0.084493436;0.04261275;-0.05042739;-0.04003572;-0.061191685;0.011920798;0.01143125;0.05156866;0.027770009;-0.023506852;-0.01619269;-0.027372142;0.08228;0.04026703;0.0033571178;0.035517987;-0.041805048;-0.06306527;0.103143916;0.017761398;-0.06488129;-0.043928493;-0.06368516;-0.07319109;0.051135857;-0.1648889;-0.040849917;0.054884702;0.016498595;-0.036105454;0.02242669;-0.07097746;-0.021839513;-0.035182983;0.06776297;0.095265;-0.033240575;-0.036328256;0.019396914;0.0689719;0.05943608;-0.0442326;0.069888756;-0.033390794;0.07394832;-0.0076962444;0.008638944;0.048998337;0.02215579;0.0743872;0.05009893;0.0007577879;-0.04358782;0.07742692;-0.066810854;0.066954546;0.034983754;0.033333033;-0.0121240895;-0.047954403;-0.0032116256;-0.042463753;0.06263482;-0.043841828;-0.057212014;0.0014404363;0.021661485;-0.032182466;-0.04088785;-0.059937067;-0.03598928;-0.11739231;0.040994514;0.06279412;-0.025700899;-0.0010954998;0.12796022;0.06999458;0.0045203045;-0.06531369;-0.12011925;-0.010998332;0.04315228;0.093411654;-0.03604352;0.025055293;-0.013338417;0.05691315;0.0074479557;0.020063039;0.09641919;0.02869963;0.043251425;-0.0040206388;-0.078743465;-0.06271512;0.10902357;0.055406805;0.024321087;-0.050221797;0.0132824145;-0.1048693;0.056274135;0.0092529;0.015236364;0.06159058;0.0898798;-0.020497212;-0.0027615498;-0.058105797;0.0029312957;-0.025246214;0.027297746;0.02045507;-0.055186987;0.072073825;-0.002817577;-0.03313608;-0.103665076;0.059127837;-0.110065505;-0.036585163;0.07664622;0.07360435;0.008756907;0.012976478;0.12467201;-0.0057155048;-0.017883977;0.07225115;0.02659269;0.026577383;-0.090363204;-0.08126864;0.12901026;0.06042625;0.0033456131;-0.11230845;0.016545273;0.04097276;0.051272936;-0.018666163;0.07861167;0.04133934;0.027157724;-0.01564054;0.042228457;0.121202864;-0.0319253;-0.07537135;0.022924881;-0.06951663;-0.06672047;-0.021808509;0.077604204;0.009994754;0.09509965;-0.049134593;-0.06075692;0.051155843;0.052927494;0.059800155;0.017572323;0.049733296;0.045740396;-0.004297879;0.040829785;0.036541548;0.031772826;0.08559452;0.02393552;-0.06816161;0.008033383;-0.06489704;0.04891404;-0.005344438;-0.06091484;0.015980342;0.033876102;0.073577784;0.08850649;0.0818898;-0.03077309;0.049799327;-0.09617532;0.04718607;0.026714683;0.07551285;-0.043229584;0.030366773;-0.12758343;-0.027359823;0.055717982;-0.019272404
-0.026334802;0.011743474;-0.016559713;0.028893784;0.0711378;0.07717557;-0.19855776;0.05150692;0.053152394;-0.016727805;-0.03931612;0.025033401;0.08976239;0.011801837;0.045120794;-0.022291383;-0.021037124;0.10028061;-0.037384123;0.04375185;0.033295173;-0.06654775;0.011892161;0.02528702;0.048547387;0.02970055;-0.02851649;-0.025827216;-0.16819675;-0.04922818;0.08234466;-0.0047775744;0.06629082;-0.12325178;-0.05971348;-0.017381553;-0.09035959;0.0035942083;-0.063575186;-0.08230626;0.044938054;-0.017962001;0.01276328;0.002335826;0.09252914;-0.054184895;0.041076407;-0.054733828;-0.056588355;0.07105207;0.03483469;0.007663448;-0.013311643;0.07632886;0.03496273;-0.017146021;-0.018919699;-0.093288645;-0.033147696;-0.013581571;-0.04255834;0.06981292;0.048729055;-0.07056742;0.066072956;0.0075800274;0.0062723146;0.13154645;-0.044213016;-0.043886833;0.057726208;0.055437632;0.024080051;0.00519051;-0.030514345;-0.040773652;-0.084211215;0.0565364;-0.045182817;0.060854357;-0.01994632;-0.07312229;-0.13278559;-0.02413573;-0.04565648;0.10488461;-0.025587747;-0.081989646;0.053381015;-0.043554682;-0.03542097;-0.06731317;-0.02987612;-0.0155942645;-0.08259092;-0.06150587;-0.056208383;0.0054181837;0.018539635;0.093494534;0.034157477;0.035123818;-0.01407095;-0.060643647;-0.04326891;0.049060754;0.08257928;0.029376494;0.012913534;-0.08906055;-0.030319996;-0.01366819;-0.08112813;-0.06789295;-0.025198344;0.06822003;0.13118804;0.01815148;0.0074843164;-0.041610517;-0.00749712;-0.030985571;-0.050813332;-0.061234966;-0.013311921;-0.05565532;-0.07377326;-0.056576595;-0.11053693;-0.028881326;0.023675691;0.05172952;-0.12804279;0.0076659583;-0.04874524;-0.073407985;-0.041660316;-0.027907189;0.09997803;0.03208843;-0.1750505;-0.012146314;0.033445425;-0.04113411;-0.01895523;-0.0330629;0.08981018;-0.024043271;-0.014102843;-0.04467274;0.012201507;-0.07401835;0.058081493;0.053275492;-0.0871576;0.026652295;0.03720274;-0.027178232;0.09469909;-0.029686315;-0.032339416;-0.089338824;-0.10344292;0.033732973;0.00839934;0.031979922;-0.03637693;0.056391742;0.067214236;0.017318992;0.06950627;-0.07468282;-0.020892927;-0.024851555;-0.014239907;0.02742793;0.070728734;0.02707053;0.038684394;-0.031600557;-0.09062914;-0.08084294;0.04362985;-0.052608587;0.012318984;0.009681021;-0.076933116;0.04382289;0.0027316818;-0.08619436;0.050507713;-0.057406694;0.1058323;0.0036662975;-0.024662001;-0.060475636;0.09523953;-0.082086526;0.044517178;0.006766855;0.03118583;-0.060134925;-0.042635873;0.042696837;0.066739;0.033459764;-0.025924213;-0.03604172;-0.028698366;0.025282022;-0.0052997107;0.08369005;-0.060619485;0.07503475;-0.0499302;0.134303;-0.08734181;-0.014949712;0.06330759;-0.015626801;0.048049692;0.022171408;-0.032360807;0.060421605;0.0057712207;0.009522512;-0.014735373;0.09464007;-0.07466737;0.01824011;0.09226483;0.057477087;0.09619617;-0.014785509;-0.01571852;0.050802235;-0.070725404;-0.021277709;-0.09070688;0.0051585473;0.010448986;0.092739075;-0.0112075135;0.017204514;-0.018048294;0.12138328;-0.09188783;-0.11387395;-0.09478817;0.035028774;-0.07720982;-0.06583738;0.025095198;0.023701828;-0.008559108;0.018213011;0.00513982;0.056273434;0.08191721;0.053766884;0.05608762;0.047751058;-0.03996315;-0.016374964;0.07031107;0.07074563;0.021568831;-0.06710154;0.025285995;-7.543293e-05;-0.0036300651;-0.03337051;0.051764563;-0.00666692;0.057167206;0.0903118;-0.06145004;-0.052502263;-0.033165213;-0.01644283;-0.024043778;0.045642246;-0.018926594;-0.0060930317;-0.003743745;-0.049653787;0.047023296;0.08270189;-0.062472526;0.07179747;0.000619099;0.09716567;-0.031639453;-0.0053027035;-0.08375875;0.08069438;-0.07814236;0.020866714;-0.04877815;-0.050184324;-0.043537524;0.01054258;-0.030691633;3.012827e-05;0.059591983;-0.045760036;-0.03702212;0.06995497;-0.053833585;0.004157414;-0.052935198;0.043455195;-0.063223824;0.07184504;0.008297503;-0.099821314;0.01096391;-0.013712008;0.024594888;-0.105909444;0.062097806;0.029962286;0.010315918;-0.06447938;0.06269852;-0.057499845;0.07398204;0.022220455;0.018008232;0.030056;0.08451291;-0.046283286;-0.0763633;0.03938872;0.036895648;-0.0490852;-0.084039986;-0.0074565965;0.008433565;-0.05640277;-0.09312396;-0.03290166;-0.020654526;-0.01765877;0.04820762;0.0464827;-0.082744785;-0.019351048;-0.05270339;-0.0017734122;0.018819869;0.082187116;-0.023753786;0.07105609;0.09411607;0.081042014;-0.07156691;0.0081983805;-0.048347723;-0.10093414;-0.0709954;-0.06283465;-0.06763956;0.024288574;0.05804666;-0.018906258;-0.07901367;-0.025566636;0.010214046;-0.008663168;0.076769;-0.07092942;0.0018607898;-0.06851637;-0.055191405;-0.038131393;0.058521524;-0.0022252141;-0.053594597;-0.011586917;0.039207812;-0.031957954;0.11516697;0.102749996;0.06259173;0.04159939;-0.009192065;-0.032605045;-0.024985757;0.03441406;-0.0014424569;0.03745871;0.046063256;-0.056885608;-0.041913353;-0.06279512;-0.03184577;-0.039147627;0.065908775;0.03218845;-0.0024382125;-0.048696965;0.0330318;-0.047952715;-0.07096974;0.030363558;0.077304706;-0.17768371;0.039540675;0.0536232;0.07762788;0.0065102507;0.04264553;0.053428575;-0.07299268;-0.041350473;-0.03980049;0.11746492;0.010855715;-0.052142154;-0.06273389;0.002676531;0.027285388;0.06855961;-0.06387182;0.0016086807;0.061618984;-0.006743924;-0.009087581;0.04421862;-0.020277375;-0.044853836;0.049361173;0.027884778;-0.039529815;0.010999817;-0.031601727;0.0026394334;-0.009870727;-0.070890285;-0.06879248;0.04980323;0.041783605;-0.046277292;-0.041433785;-0.0070397835;-0.1310862;0.08951141;-0.05106845;0.06836867;0.0028815668;-0.0042318264;-0.082505725;-0.01353923;-0.024243735;0.0018774838;-0.05103845;-0.02623853;0.06823683;0.09307658;0.0034145103;-0.07287787;-0.1509549;0.09686143;-0.044734232;0.0690271;0.05995315;-0.056044538;0.04625876;-0.01557226;-0.03943493;0.041604236;0.046456274;-0.0023498738;-0.08091618;0.078928605;0.03601161;0.013269211;0.11743315;0.006356116;-0.032456785;0.03499619;-0.054678693;-0.07169517;-0.053727057;0.020336505;0.08059224;0.009865069;-0.0027687117;-0.05498319;0.07708033;-0.01735583;-0.06599168;-0.034809686;0.0041974634;0.13009557;0.07528681;-0.084137335;-0.045161564;0.035027884;-0.14071581;-0.04257385;-0.10830446;-0.063754424;0.0031898934;-0.03922262;0.0067241592;-0.019615926;0.011749098;-0.07824596;-0.038499407;-0.07022395;-0.043193396;-0.04358161;0.026134439;0.06966822;-0.01713124;-0.014859406;0.039334387;-0.048178017;0.033374358;-0.05030066;-0.006174062;0.06073427;-0.062725715;0.050854944;0.06679883;-0.028420294;-0.006383002;0.104014814;0.028311122;-0.033458;0.019304255;-0.060642436;0.056041587;0.011987636;-0.076302946;-0.009434291;0.004209115;-0.11965689;-0.025495296;0.03885188;-0.011568091;-0.030954864;-0.001697711;0.020579893;0.050856847;0.007145562;-0.026024004;0.026600273;-0.01873023;-0.040025383;-0.084978215;0.08629099;0.0135866;-0.09724364;0.025870474;0.06793011;-0.04980415;-0.06956503;0.076764844;0.0030482628;0.02714295;0.037568007;0.0017353799;0.017116943;-0.06869935;0.08857811;0.055585645;-0.016344706;-0.040635735;0.045865104;-0.066915065;0.013656554;0.04158272;0.040042542
0.0046001095;-0.08988497;0.08238826;0.110574804;-0.0044318796;-0.029262884;-0.15823615;0.050247956;-0.024003468;0.0045072474;-0.040292524;-0.018840225;0.0781365;0.017808672;-0.069216594;-0.038044967;0.08306092;-0.01816711;-0.06088454;-0.054517947;-0.012554557;0.0039384565;0.06794767;0.10497503;0.006841823;-0.03738277;0.088251226;-0.06184071;-0.15196496;-0.059651356;-0.054961916;-0.037087157;-0.060985822;-0.11959986;0.00815508;-0.039892994;0.033802595;-0.0994357;-0.028065233;0.015981384;0.034086775;0.08471345;-0.04629473;0.056418635;0.022802228;-0.027980361;0.03987465;0.042832274;-0.061854523;0.07914373;-0.014761331;-0.034583155;0.007163614;0.0979082;0.052744307;0.0632888;-0.041677643;-0.046269465;-0.019815039;-0.0064652045;-0.009313947;0.03163367;0.043254234;-0.06331912;-0.061892644;0.09362688;-0.08314291;-0.03736282;-0.03667846;0.056964982;-0.007930748;0.017714761;0.058533978;0.04249374;0.021565184;0.054746844;0.06445743;0.12447261;-0.029017229;-0.032745786;-0.007621945;0.06330071;-0.0084556285;-0.06661421;-0.025640143;0.034166552;-0.042297814;-0.028684352;-0.032919854;0.04006256;0.022835117;-0.0377657;0.08407531;0.03370542;-0.09413651;0.07695132;-0.09615857;0.059305064;-0.02637059;-0.06899716;-0.06635986;0.0008656535;0.0057835705;0.08209362;0.054707006;-0.013821138;-0.019285528;-0.03542221;0.054904975;0.047790598;-0.043498393;0.022840125;0.016031688;-0.071572624;0.07031016;0.031119302;0.062091094;0.029765496;-0.039087877;-0.062034674;-0.15462957;-0.05729152;-0.04423519;-0.045603793;0.046906378;0.092932165;-0.049723815;0.05972681;-0.042154413;-0.055494342;0.07822225;0.03459102;-0.045157406;-0.010236236;-0.051120125;-0.043982975;0.048774835;-0.050174087;0.11251755;-0.100544624;-0.09033612;-0.04451581;0.060695145;0.04747598;0.0786679;-0.036603823;0.058453206;-0.015954543;-0.07882993;-0.04631112;-0.009239583;0.07351578;-0.008164418;-0.064389154;-0.022027053;-0.07768242;-0.017720431;0.04634972;0.111166164;-0.03311296;-0.024455437;-0.05068552;-0.003068523;-0.031283252;0.008763712;-0.02469752;-0.03312974;-0.028424334;0.030530822;0.08410911;-0.07512523;-0.050813112;0.006667269;0.07732964;0.06711754;-0.068091825;0.011145552;0.09231178;-0.00030689157;-0.05242495;-0.039213356;0.04063629;-0.0049682125;-0.02157558;-0.10695662;0.019684482;-0.017122818;-0.0018550201;0.007367915;0.0026591877;0.06829959;0.021507245;0.091362886;0.01035486;0.07180726;-0.018635677;0.02503909;-0.10297674;0.008934296;0.0047623874;-0.060081214;-0.047585867;0.003515975;0.12858497;0.06467236;-0.019381354;0.04368308;0.052900147;0.044112388;-0.06903853;0.07040751;-0.042796023;-0.04894377;0.06432149;-0.036676254;0.03597937;-0.083805345;0.007397661;-0.0849083;-0.005836791;-0.011595992;0.06402556;-0.0014857012;0.05396379;0.05464481;0.026444804;0.13533103;0.02724198;0.03728194;-0.08720514;0.09386477;0.065789245;-0.05212875;0.018832484;0.059059624;0.020974435;-0.05305356;-0.060419552;-0.06860613;0.08085029;0.014371353;0.046696752;-0.078810915;-0.12682338;0.02984058;0.01611843;-0.09847685;-0.09384172;-0.14771092;0.03795644;0.05794492;0.03614241;0.043223847;-0.010893053;0.036850628;-0.10107203;-0.14476131;0.030266223;-0.06351022;-0.008669166;-0.0077776625;0.065777875;0.0122056855;-0.030608064;0.032153316;-0.034621205;-0.07046496;-0.06505196;0.019018669;0.025650665;0.030892069;-0.09189138;-0.023437869;-0.077241056;0.041951455;0.034252916;0.07117564;0.07305222;-0.04434129;0.051746972;-0.0030800481;-0.037957706;-0.028530126;-0.09184459;-0.012376226;-0.034839068;0.007336033;-0.0005474689;0.07102687;0.052278746;-0.019823816;-0.014526444;0.08061218;-0.031214178;-0.010316737;0.042265978;0.028237987;0.102062024;-0.08028459;-0.028299937;-0.08504177;0.063451655;-0.03633121;-0.068530805;0.05634005;0.01808268;0.067106724;-0.019370114;-0.023560239;-0.052036423;-0.0256679;0.049139183;0.02841163;0.100503586;0.010367671;-0.018176142;-0.06249779;-0.06694761;-0.07945709;-0.04642508;-0.0041949693;0.069122635;-0.039813392;0.07891886;0.049572818;0.06528686;0.04168381;-0.06813145;-0.017355746;0.0050005335;-0.03265806;0.037823923;0.030194655;0.10605367;0.041936707;0.01814748;0.062731616;-0.14678173;0.05621255;0.024227045;-0.029692853;0.05924459;0.026552377;-0.07246983;-0.0026878163;-0.014378787;-0.050827246;0.054612454;0.04099028;-0.039877173;-0.06107854;0.040633064;0.005086089;0.014169191;0.046149567;0.04014811;-0.039921653;0.044082202;0.0034547253;-0.07949483;-0.054984093;-0.043835133;0.01315233;-0.049504407;-0.07063009;-0.058295093;0.021193398;0.06593703;-0.03320205;-0.054203656;-0.008557919;-0.0020786407;0.009401924;0.009219233;0.01979598;-0.018486843;0.03483351;-0.11465668;-0.02020885;0.041502703;-0.069937475;0.030424701;0.1062583;0.09721898;0.06871315;-0.028608767;-0.00020690591;-0.052183427;0.081507385;0.0009634361;-0.008427967;-0.069506064;0.002773769;0.05311722;-0.06611034;0.035815865;0.00058135233;-0.039310697;-0.040408447;-0.056588653;-0.019272242;0.06843585;-0.015487746;0.029318972;0.06688577;-0.04976973;-0.044112716;-0.07096399;0.039106064;-0.037924577;0.07224927;0.05212352;-0.13514511;0.047832876;0.079952866;0.025013443;0.020570237;-0.06863955;0.08288529;-0.14351533;-0.086160615;0.011056934;0.004269643;0.043816477;0.079912856;0.045783143;0.010970983;-0.014266722;0.08899471;0.11480263;0.055788476;-0.038631823;0.11356722;-0.04684438;0.019619185;-0.067790866;0.099658206;-0.046787366;-0.025116233;-0.067679144;-0.036567435;0.005609232;0.0013378891;-0.13042165;-0.057856407;-0.0077353576;-0.048772525;0.044119574;0.11023343;-0.06732163;-0.07012178;0.004135482;-0.039272074;-0.03502413;-0.0040168227;0.007854276;-0.0934521;-0.058002222;0.02210094;-0.04014533;-0.054757364;0.059103116;-0.14177637;0.0513048;-0.009707411;0.03225251;0.08549101;0.0334726;0.04671828;-0.04738128;-0.04656612;-0.05831296;-0.056260932;0.014423047;0.06672641;0.0012691871;-0.0049341237;0.034310024;0.09313258;-0.062213775;0.033474687;0.026768385;-0.053310104;-0.048866414;-0.030705497;-0.11279162;0.0059977304;0.053881958;0.12322346;0.08195314;0.082152195;-0.034912333;0.06784975;0.032622006;-0.05260559;0.11776835;0.0050231894;-0.06129031;0.016905248;0.099215776;-0.15244015;0.019267716;0.008364798;-0.047292687;-0.08779866;-0.061118532;-0.058908865;-0.022641672;-0.07384973;0.011799056;0.048851088;0.0642748;0.018875135;0.056192413;0.03913525;0.07091017;0.11924621;-0.07964109;0.046580583;-0.058861773;-0.039749935;0.040589053;-0.0590341;-0.045673437;0.03509554;-0.053681575;-0.059457295;0.006947277;-0.007989997;0.07179172;-0.06238701;-0.049895957;-0.10776984;-0.032392338;-0.052030046;0.088336065;-0.04496942;0.040126394;0.038835496;-0.095854186;-0.009123591;0.007882791;0.028367229;0.07723422;0.095510535;0.050817538;-0.07621581;0.052140288;-0.043281324;-0.008777668;-0.07095331;-0.029283037;0.046341013;0.083942;0.07135192;-0.09967323;0.029471986;-0.01179067;-0.0038290133;-0.136649;-0.07226621;-0.021197904;-0.03236915;0.045783613;0.00925855;-0.08185211;0.12029191;0.11150887;0.027931528;-0.044386763;0.037709747;-0.058507763;0.0027243712;-0.029528698;-0.043762293;-0.021951642
-0.016613284;-0.004691319;-0.027891599;0.010258026;0.019337924;0.029909726;-0.0058612945;-0.0611498;-0.08475336;0.0722554;0.02879306;-0.005739564;0.10164791;-0.07002312;-0.09085775;-0.067979425;-0.11536273;-0.035930853;-0.03593633;0.01777039;-0.09462611;-0.011125393;-0.022930264;-0.013121952;0.008373025;-0.093989946;0.079188354;-0.021958385;-0.009012427;-0.00669038;-0.0077926293;-0.17292169;0.0141165415;0.09455762;-0.0035470433;0.07048922;-0.014384835;0.012645018;-0.07943028;0.0031456095;-0.03276054;0.10020533;-0.042371765;0.061928704;-0.04923522;0.07860027;0.044707794;-0.051930886;-0.0019155135;-0.0007879693;0.11640781;-0.05682658;0.0037678913;0.0019877504;-0.09295804;-0.030731013;-0.04607883;0.06898822;0.043590248;0.020742415;0.044927176;0.014259232;-0.05444908;-0.0751096;-0.06320286;0.0987688;-0.0042574964;-0.019266922;-0.012741244;0.03362726;-0.094115086;-0.06155439;-0.08149884;0.0069825198;0.046751313;-0.007160377;-0.062965065;0.09838473;-0.14691538;-0.007906497;-0.07303482;-0.05860918;0.0013804242;0.012500381;0.080667734;0.10095568;-0.022053717;0.037447385;-0.08477874;0.030349078;-0.045747697;0.009626045;0.064794056;0.0055871364;0.025880426;0.047054432;0.025537387;-0.06539451;0.004065191;0.09379635;0.014952844;0.016353713;-0.029538829;0.022842007;-0.04274153;0.023667147;-0.07815419;0.0066425973;0.0016581847;0.030257517;-0.07061181;0.06857032;0.0947966;-0.10887492;-0.07356098;0.0009948465;0.07897946;-0.05999712;0.039614484;0.085514754;0.051355027;0.050364677;0.03206311;-0.046861954;0.040391684;0.024746297;0.045474242;-0.032436863;0.05649621;0.061649576;-0.0026518619;0.064605944;-0.10329663;0.0026861439;-0.0007409592;0.046917785;-0.05649278;-0.085906476;-0.016630527;0.022541564;-0.047397666;-0.10409166;-0.009087292;0.03219186;-0.043421164;-0.05782786;0.07350401;-0.071802735;-0.009648265;0.038758524;0.07490613;-0.007337174;-0.032420937;-0.08978852;-0.13436767;-0.089270666;-0.027393427;0.09664028;-0.023569044;0.053591534;0.059210055;0.041930504;-0.13603982;0.054201543;0.0059732064;0.06812309;-0.052685596;-0.1047069;0.04492713;0.09561937;-0.0635025;0.011795112;-0.08210997;-0.021971196;0.019009866;-3.3814977e-05;0.020149807;0.05366659;0.0076649925;-0.03267763;-0.07247786;-0.04044673;-0.077771656;-0.029373895;-0.08315924;-0.08811492;-0.051479433;0.072237335;-0.05678246;-0.063420266;0.064139694;-0.07100686;-0.093700945;0.01283111;-0.05448876;0.08838952;0.01863043;0.051602174;-0.05026773;0.042958044;0.033817813;-0.012258367;0.021821467;-0.029314572;-0.017579973;-0.08241231;0.03918497;0.033679705;-0.031137424;-0.018228512;-0.04677122;0.08786265;-0.06462033;-0.021662794;0.06731267;0.039133146;0.036881246;0.043728936;0.0014735297;0.068616375;-0.052695192;0.053696677;0.03164133;-0.050045483;-0.0577386;-0.005308654;0.13806063;-0.06576018;-0.05969968;-0.137746;0.022665074;0.020531338;-0.0099044945;-0.009206958;-0.072443545;0.0081762;0.04454827;-0.0788467;-0.07917238;-0.0536566;-0.02009692;-0.045195397;-0.025692448;-0.089047045;0.0065080677;0.013800554;0.063552625;-0.027352884;-0.010175352;0.046151325;-0.0016475295;0.018887755;0.011935065;-0.018740907;-0.085147634;-0.024548054;0.05078215;-0.009571379;0.086553656;-0.06849833;-0.060320932;-0.02202759;-0.04701259;0.091948904;0.021718718;-0.06504609;-0.056302093;-0.012443756;0.00637969;-0.016291535;-0.062546186;-0.08206522;-0.07973654;-0.0031609172;0.019272314;0.074050836;0.003549133;-0.013988649;0.03969614;-0.046137553;-0.118934326;0.003593686;0.003543457;-0.09673158;-0.056224305;0.050695006;0.057750277;-0.054280713;-0.028989742;0.06232451;0.015159668;0.07691715;0.05193983;0.009448651;0.010237114;0.044726357;-0.0022384701;-0.06895078;-0.035066783;0.0012354839;-0.08308979;-0.043591596;-0.037573557;-0.03838567;0.031128127;0.06501091;0.10247481;0.07269093;0.074353434;-0.0007265653;-0.060552552;-0.0016357617;-0.0745314;0.060916565;-0.028283726;0.008985898;-0.04766121;-0.1533068;0.04692442;-0.037370935;0.08446641;-0.020078352;-0.06615895;0.04634231;-0.049944635;0.052376974;0.0395347;-0.11615543;0.019449266;-0.043147713;0.0008298027;0.07577636;0.06453273;-0.012368691;-0.06988569;-0.02240717;-0.06191801;-0.012412129;-0.026634444;0.040200707;0.012591975;-0.12553504;-0.016254192;-0.052425846;-0.03803036;-0.041174617;-0.0119016385;0.056038678;-0.056041725;-0.041318618;0.020462096;-0.06540261;-0.010769592;-0.09573042;0.040863678;-0.03305792;0.060119692;-0.08880522;0.012759462;0.035848957;-0.049880687;0.019650443;-0.014279088;0.124951966;-0.055579275;0.0034823166;-0.07235687;0.06440545;0.06593398;0.0021679788;0.011522682;-0.04655326;-0.017549157;-0.03484766;-0.024354164;-0.06321233;0.11774712;0.022314448;-0.020968381;-0.05998693;-0.076428026;0.07797804;0.11635116;0.11094938;0.08044966;-0.013940562;0.07665378;0.053095628;-0.02331662;0.009440359;0.104882956;-0.025990218;-0.06808852;-0.030659357;0.02750641;-0.12774937;-0.06292624;0.06516141;0.07609121;0.11284346;0.046151165;0.008885347;-0.08254154;-0.07674027;-0.048142176;-0.018800953;0.08951122;-0.0452374;0.076221995;0.07883527;-0.012480398;0.066991985;0.009407433;0.088841766;0.029830165;0.022480061;0.06252198;-0.015351019;0.06728775;-0.049233165;0.032502823;0.0018761371;-0.007264495;-0.07571757;-0.025561428;-0.006830885;-0.005419797;0.08155188;-0.03450494;0.04691755;0.06560679;-0.08064143;0.058203135;0.0121768825;-0.031104794;0.10449577;0.10787138;0.10556503;-0.05098781;0.01328501;-0.1427473;-0.03801305;-0.06393539;-0.018132107;-0.09623799;0.053572923;0.0033137314;-0.0886435;0.038465563;0.0066705993;0.047842126;-0.014424903;0.04156584;-0.063983835;-0.16455865;0.062410854;0.02264678;-0.1096214;-0.0068287943;-0.044399515;0.010879547;-0.07335405;-0.10151846;0.039212976;-0.06619609;0.03223005;-0.03485715;0.00647943;0.07925783;0.08416336;0.041796144;-0.05497391;-0.045585528;0.013873761;0.06509762;0.060259067;0.049617674;0.030737014;-0.05818471;-0.05850995;0.0178879;-0.03913092;-0.1755184;-0.00039792806;0.06872146;-0.009827614;0.02353229;0.0061723893;0.011192715;-0.033621207;0.04103555;-0.101890795;-0.004820186;0.0035330937;-0.09783194;0.1367807;0.06696691;0.03047916;-0.02808458;-0.056991044;-0.062253147;-0.07469684;-0.10678831;0.016222687;-0.0644899;0.045246787;0.06804948;0.0046634125;-0.060293064;0.03583452;0.040393442;0.0006580042;-0.048725422;0.055301502;0.030029425;-0.06153096;-0.023570364;-0.03592696;0.07168551;-0.11305606;-0.03156563;-0.009919298;-0.069311984;-0.038412385;-0.060068566;0.09304073;0.06451881;-0.024736086;-0.050607886;0.042559393;-0.05613349;0.0036538595;0.026969127;0.08395162;0.071729;-0.05090354;-0.03848501;0.008883153;0.06766522;0.07157453;0.09648743;0.038534638;0.02905717;0.010125425;0.012697063;0.03702165;-0.03874804;0.047562335;-0.01841818;-0.014506604;0.011520952;0.045847557;-0.000119578406;0.030529184;0.06925994;-0.064065516;-0.008856355;0.03006674;-0.047556456;-0.1400895;-0.07968095;-0.004684334;0.043009788;0.06267979;0.06213737;-0.008075724;0.19499747;0.013372474;-0.027361982;0.075892106;-0.09213639;0.08136962;-0.022626087;-0.041257966;0.012755116;0.089890204
0.023362149;0.0059597227;-0.061870374;0.0378886;-0.04300238;0.0006734974;-0.05627537;-0.055422578;-0.009993832;-0.054806326;0.029501796;-0.0040567834;0.03211174;-0.06195552;-0.046638258;-0.055453386;-0.043114465;-0.059634034;-0.016101453;0.0113447765;-0.01911659;-0.07461009;0.06324164;-0.022120789;-0.07930394;-0.047682136;-0.03345592;-0.0151022775;-0.10886302;0.041378092;0.05904183;-0.1159121;0.07453168;-0.016946668;-0.027419548;-0.07507374;0.039007407;-0.0033846723;0.011964377;-0.06470404;-0.05153411;-0.050062194;-0.067813285;0.03720911;-0.05121424;0.0842227;0.056781452;0.011816323;-0.08163337;0.101718575;0.046283215;0.10582159;-0.013725568;-0.038225222;-0.059508376;0.027164385;-0.05562835;-0.034441058;0.05686264;0.063352786;-0.005941937;0.01131013;-0.015187697;-0.04463022;0.08132065;0.07543105;0.059890546;-0.034540623;-0.017190622;-0.06121371;-0.11699539;-0.007624197;0.06519753;0.05188267;0.018666802;-0.08293229;0.081771046;0.02598091;-0.07212172;0.0035834208;0.006579036;0.044812188;-0.119372874;0.051104788;0.013955517;0.10519296;-0.08161148;-0.08703079;0.04300646;-0.08357057;0.043086145;-0.0855485;-0.07252165;-0.00065213797;0.051636096;0.056114994;0.01970343;-0.052383967;0.030774606;0.026921587;-0.030312926;0.0023483234;0.056629818;0.0045740954;-0.056618396;0.06712476;0.0507653;-0.03612527;0.009075045;-0.019022252;-0.12587506;0.0060866037;0.023150336;0.022400148;-0.063522875;-0.004976252;0.06572501;-0.07976398;-0.02054076;-0.05710695;0.04018678;-0.02407214;0.06621521;0.071040265;0.06953624;-0.045448463;0.0058069304;0.013939233;0.01139766;0.017365292;-0.054553293;-0.058665887;-0.09818115;-0.10377693;-0.015836842;-0.03946658;-0.010199167;-0.04599931;0.053580884;-0.090322115;-0.06748073;0.016944688;0.005955821;0.096678995;0.03567786;0.044616736;0.051231336;0.034445923;0.012452694;0.019708512;0.058905117;0.0160458;-0.057946276;-0.14534342;-0.060255736;0.0029496604;-0.083071426;-0.056171928;-0.037817616;-0.06140321;-0.028675532;0.010592793;-0.10586663;0.03531887;-0.030184563;0.094470076;0.004743412;-0.060538426;0.06600903;0.036822196;0.051292546;0.05849579;-0.08953259;0.0051001487;-0.08536805;-0.02809066;-0.07671618;-0.0073726205;0.052372605;0.003366008;0.047001317;0.058212683;-0.03436146;0.011788829;-0.009513761;-0.00952889;0.098634265;0.06378841;-0.019231077;-0.06405194;0.11191362;0.022282649;-0.0032607415;0.10010847;0.036897574;-0.04298929;0.062104117;0.048816476;0.048849717;0.035180695;0.03383243;0.015887331;0.015820293;0.05659969;0.0033090133;0.06864917;0.100774646;0.04405607;0.0114797745;-0.055018798;-0.049269214;-0.040657893;-0.05581919;0.010785297;-0.024026383;0.03321306;-0.06953316;0.08848599;0.008921293;0.012087633;0.014326084;0.009528483;0.037940152;-0.032208044;-0.077386625;-0.0762216;0.103284135;0.035021927;-0.014026628;-0.13756903;-0.02961022;-0.0089114;-0.043309487;0.09904954;0.007046208;0.06283808;-0.05093297;0.046007775;-0.045091346;-0.068723254;0.010637396;-0.035658363;-0.083863325;-0.10897245;-0.03204892;0.025133545;0.01766344;-0.053271074;-0.15163678;-0.0064146845;-0.015859269;-0.01079102;0.07648738;0.09027201;0.0016701019;0.02903207;0.07973123;-0.06397373;0.085158594;-0.03241602;-0.0146891875;0.06474554;-0.05447532;-0.040475544;-0.010831725;0.0749384;0.029705996;-0.018009149;0.023112308;-0.0122936815;0.0029270013;-0.08208968;0.050427858;-0.043393053;0.028532434;-0.031159926;-0.03178122;-0.07472122;0.08559967;0.07142178;-0.014258371;0.00038460555;0.051580727;0.010052068;0.01774215;0.01056709;0.05981049;-0.030991387;0.077685595;-0.0098030325;-0.08812309;0.021598173;0.09184644;0.012991954;0.051424827;0.024425901;-0.059123266;0.052222166;-0.09317316;0.049229443;-0.0451443;0.036326412;0.064912036;-0.0005095344;0.04378826;0.053186808;0.055561047;-0.019429367;-0.053368263;-0.0005648383;-0.025597388;0.07889919;-0.033616062;0.06320528;0.0038846356;0.0068908054;-0.057204682;0.0019168444;0.012133009;-0.10380597;0.051081583;0.00059434155;-0.06344083;-0.07666255;0.0027329857;0.015814954;-0.007558047;-0.07162762;-0.021882553;0.0068606017;0.13317592;0.0661876;0.07307686;-0.03205698;0.036030162;-0.07530375;0.04695373;-0.0043518194;-0.059214544;0.06574458;-0.0015597781;-0.058669493;-0.058258384;-0.08099018;0.011877588;0.095931925;-0.058777045;-0.00068392884;-0.013866956;0.07022526;-0.03567977;0.09715596;-0.023039095;-0.045369577;-0.03339364;0.022858856;0.022579411;-0.035746966;0.047630202;0.028324796;0.04315289;0.03837878;0.047534842;0.13688736;0.026156984;-0.010160428;0.050624017;-0.0599284;-0.008092287;0.07166028;-0.047909647;-0.0930087;-0.082350016;0.03997066;-0.012904353;-0.037181318;-0.01916654;0.045849375;0.052759744;0.06265864;-0.07606022;-0.025679158;0.07787443;-0.025501717;-0.022429222;0.019918498;-0.032651834;0.014806822;-0.026523406;-0.08200291;0.02603655;-0.004818845;0.029200314;0.005564848;0.08694847;0.03743278;0.03416411;0.0020536224;-0.034073133;0.09356815;0.04821309;-0.062529616;-0.024415528;-0.06298829;-0.076091096;-0.15812202;0.020418072;-0.120764025;0.06798094;0.06586578;-0.008114505;-0.06473657;0.095696524;0.018559078;-0.037042975;0.05926545;0.028696919;-0.11640566;-0.029923724;0.003336847;0.020562429;2.466296e-05;-0.020610202;0.04956958;-0.04977536;0.06885053;0.058883313;-0.0070225485;0.06111571;-0.034651875;-0.03808182;-0.041643374;0.07017124;0.06399741;-0.016133858;-0.044995308;0.038625397;0.035615627;-0.052573446;0.004470388;-0.041540224;0.029910402;0.027952373;-0.07364391;0.0051336847;-0.04689571;0.036981333;-0.08455926;-0.07310777;0.01418508;-0.07221057;-0.078674704;0.049816363;-0.074834585;0.021887556;0.011697168;-0.07660432;-0.09637772;-0.026436752;0.007747307;-0.05501832;-0.018782914;-0.14176358;0.046876546;-0.07133457;-0.0435322;-0.020132087;-0.070556514;0.03944658;0.04846931;0.04871264;0.037670337;0.037876334;0.014079804;-0.03403135;-0.04570653;0.028812435;0.044891432;0.11048634;0.020713331;-0.0021003182;0.018432578;-0.10067389;-0.056524977;-0.002740661;-0.047661427;0.02047683;-0.0078381095;0.122107744;-0.013116155;0.07393386;-0.09260708;-0.059703022;-0.03426129;-0.059141334;0.1584156;0.008797191;0.07003533;-0.015796542;0.038104784;-0.10732009;0.01990914;-0.040421646;-0.05037162;0.02049466;-0.031885177;-0.028086776;-0.021105096;0.06294895;-0.0009240119;-0.0690058;0.08065402;-0.026370497;-0.02330445;-0.03837506;0.010224282;-0.005976512;-0.05363417;0.017275993;-0.12729222;0.08597153;0.0069399355;-0.037301674;0.029393813;0.09305398;0.061312407;-0.018493753;0.06897994;0.019606192;0.06600526;-0.04027398;-0.04362431;-0.09252342;-0.062741004;0.033470884;-0.08137292;0.01176003;0.06147;0.010862624;-0.059342712;-0.032262478;-0.022075633;0.010638459;0.019296026;-0.052684765;0.057095204;0.11475179;-0.0315325;-0.04279742;0.009987953;-0.025266299;-0.075433;0.006417106;0.008667434;-0.029017204;-0.04214805;-0.06785585;-0.081124924;-0.042710673;0.014376207;0.054681458;-0.047640834;0.12662235;-0.030495025;0.0305431;-0.08627211;0.12522346;-0.008920338;-0.057360303;-0.034021746;-0.09529688;0.119098015;-0.0017303771;-0.03865438;0.03821564;-0.05341988
0.0043879147;-0.07933227;-0.049938064;0.07233033;0.04740217;0.0669064;-0.050933763;0.008504283;-0.025687322;0.015072273;-0.06569345;-0.020340871;0.06024861;0.05416894;-0.10038636;0.034452904;0.04530763;0.00056844804;0.035241317;-0.031332523;-0.025430584;-0.08976339;0.0031056479;-0.037983943;0.009287459;-0.0029511924;-0.05809409;-0.0009531373;-0.035117768;-0.06348902;0.05690349;-0.07070212;-0.056950103;-0.051044945;0.07019498;0.020385386;-0.008943296;-0.14532454;-0.079467416;-0.06882858;-0.023612691;0.07927293;-0.06378428;-0.04750988;-0.120103076;-0.043255795;0.033174038;0.05674423;-0.09390914;-0.011737163;-0.04015593;0.0009914046;-0.021764904;-0.026533447;0.013560568;-0.074181244;-0.0023616233;-0.05338513;0.058772285;-0.054952662;0.009136313;-0.023097645;-0.008237109;-0.064007215;0.017995045;-0.0015536497;-0.044840097;0.034535185;-0.01790798;-0.044455815;-0.011029735;-0.16102722;-0.023095317;0.050047267;0.031512085;-0.04892675;-0.07114031;-0.03233447;0.027032603;0.04437079;0.019000245;0.04825815;-0.13672704;0.10781752;-0.01708935;0.1289859;-0.060408697;0.054105364;-0.003668286;0.029452583;-0.06878742;0.07186108;-0.010012555;0.07916141;-0.03226854;0.0029819475;0.08672383;-0.078448415;-0.020992734;0.03790261;0.063788295;-0.060635928;0.013075637;0.009973741;0.047288086;-0.013871275;-0.07414683;0.045723677;0.09283643;-0.028148884;-0.12703931;-0.008059031;-0.015876206;0.06436142;-0.04236246;-0.058329478;0.19502836;-0.07627603;0.02596368;-0.04791871;-0.052388076;-0.055137485;0.090541966;0.058860682;-0.018107181;0.076276265;0.07069866;0.04882659;0.11131008;-0.031079724;-0.046804383;0.060432747;-0.10226876;-0.052872904;0.08706666;-0.019799948;-0.013729684;-0.019512285;0.0801752;0.01874114;-0.029751966;-0.08308908;0.03174261;0.077445656;0.048798554;-0.0062846895;-0.08537047;-0.05342999;0.061359342;0.023003783;0.07809728;0.03984161;-0.089494556;-0.003785812;-0.012966794;0.0646622;-0.040155187;0.089235336;0.016746607;0.016771436;0.07182191;-0.00040401157;-0.09768362;0.038580168;0.08448504;0.07897447;0.018936422;-0.00508291;0.036099225;-0.046426103;-0.020571254;0.020934876;0.010549216;0.032151166;-0.050069887;0.048387185;-0.096862115;-0.054240696;0.026628822;-0.025730524;-0.028794592;0.089868724;-0.0044508376;-0.081077516;-0.09061355;-0.014874111;0.024128342;0.07806685;0.068222165;0.032433182;-0.034661964;0.035270352;-0.07163554;0.10172209;-0.023965018;0.0511273;-0.00033913465;0.0696735;0.004107521;-0.054474056;0.014626705;-0.056878973;0.056181453;-0.078339614;-0.04146596;0.044298388;-0.016372122;0.13620108;0.065451674;0.009323786;-0.08093795;-0.039954487;0.040101655;0.015276297;-0.02530557;0.0018552438;0.06433809;-0.025253905;-0.09461722;0.023557369;0.036796775;0.0056484705;0.020957444;-0.020500252;-0.01967282;0.029181894;0.11277035;-0.01714151;-0.044568166;-0.016986271;-0.104784586;-0.11497259;-0.06387553;-0.018781114;-0.029900817;-0.040416718;0.016127592;-0.044198364;0.030062472;0.08805681;0.015165444;-0.06653892;0.047385257;-0.07521129;-0.054933697;-0.012830356;0.0423931;-0.11743927;-0.08135586;-0.06382593;-0.074102335;-0.005381053;0.07239665;-0.018759966;0.02983858;-0.115128614;0.034166243;-0.015701707;-0.015866667;0.028911777;0.040574178;0.039235808;-0.025348175;0.049737785;-0.020752003;0.04027215;-0.08744209;-0.037403326;-0.0024200962;-0.09910818;-0.119109035;-0.09976451;0.04947864;0.043991387;0.05103323;0.05628028;0.026427673;0.051990904;-0.047966667;0.069285706;-0.019964883;0.10859229;0.075971045;0.03435572;0.08976819;-0.05776309;0.04311606;0.035013452;-0.020359023;-0.013232566;-0.1735968;0.08935216;-0.06335474;-0.04220718;-0.0014950703;-0.007526483;-0.14838378;-0.09758187;0.005296422;-0.02050566;0.018701417;0.07753183;-0.094516665;0.042099353;0.0070808963;-0.08044228;0.014947779;0.0805868;-0.027533237;-0.0106070675;-0.05063036;-0.0052166656;0.06378807;0.02952147;-0.057843383;-0.01761441;-0.08628792;-0.06133556;-0.017567521;-0.004885394;0.029380053;0.05199121;-0.07691843;-0.04304672;-0.03736119;-0.04630739;-0.060716424;-0.0067824484;0.0044882665;0.015368698;0.03474971;-0.036843177;0.10134397;0.011356572;0.005569429;0.048660126;-0.06780169;-0.07151792;-0.06260433;0.031378116;-0.021918414;-0.11888763;-0.00584194;-0.05853091;0.048772722;-0.026991993;-0.045906708;0.076729424;-0.03486042;-0.070607744;-0.0024183874;-0.0034784006;-0.040346313;-0.0078000724;0.002085389;0.029242648;0.03810045;-0.017267302;0.05878525;0.035632696;0.065292954;-0.03822222;0.05119062;0.07573382;0.09240556;0.036805656;-0.03314793;0.014458833;0.014752306;0.044997197;-0.022294316;0.04091214;-0.0065029506;0.048925657;0.039212253;-0.09606265;0.11898287;0.01118241;-0.052703597;0.053855658;-0.012738232;-0.006391717;0.07276457;0.017770777;-0.0251394;-0.09840062;0.036108382;0.07050788;-0.011459928;0.038107526;0.12732053;0.033548433;-0.05287564;0.01030544;0.0037491603;-0.04333471;-0.07940363;-0.02126599;0.07825886;0.14440976;-0.0071442826;0.04987612;0.047011063;-0.15825455;-0.084330216;-0.11625734;0.04552654;-0.12217968;-0.089456595;0.031923946;0.108522944;0.005091043;0.0115039805;0.0019479938;0.04481233;-0.06071122;-0.045438807;-0.2126604;0.07357671;0.05339754;-0.00012014328;-0.013686696;0.0139478175;-0.0410522;-0.04845771;-0.07468746;0.16074821;-0.0190498;0.011273632;-0.020711549;-0.023618804;-0.006818398;0.043883353;-0.039281856;0.032750867;0.070028834;0.09246236;-0.040386975;-0.043789532;-0.09678519;-0.14218701;0.003359488;0.027584461;0.011764704;-0.06638505;-0.028269213;0.05921696;0.0032370847;-0.058194574;0.07617458;0.041308887;-0.07253608;0.03473682;-0.06818795;-0.09557157;-0.02687459;-0.018560214;-0.08081901;-0.023962596;-0.012588916;0.04804075;0.040675666;-0.043399133;0.058597952;-0.04988531;0.029486772;-0.1302463;0.026651442;0.054728035;-0.010337943;0.02056223;0.05883864;0.041529402;-0.0448712;0.018493395;0.04237619;0.01568775;-0.009468252;0.08307704;-0.00025229953;-0.06435777;-0.025048196;-0.14769377;0.044624988;0.06828362;-0.052586652;0.00026206713;0.006922195;-0.0019314829;-0.010582611;-0.048405804;-0.012143166;-0.046457663;-0.08890528;-0.104490384;0.1423965;0.06296653;-0.015954882;0.09335197;-0.02004804;-0.040405057;-0.109256774;0.0051558935;0.052247785;0.07273047;-0.07383543;0.030241856;0.05358705;-0.013085444;0.033711158;0.10317174;0.07457402;-0.016868828;0.04575997;-0.13257004;-0.011981715;-0.000601784;-0.039653182;-0.042275283;-0.1627305;0.0399654;-0.023776019;0.004324182;0.1537612;-0.043643925;0.060981236;-0.07070713;-0.073304825;-0.012235672;-0.022546532;0.082119584;0.00472261;-0.14030647;-0.05285796;0.06518599;-0.1036579;-0.080969155;0.019848023;-0.12757875;0.020112263;0.010743764;0.019652957;0.01046388;-0.023124576;0.10258203;-0.06361074;0.12957194;-0.03336226;-0.040863715;-0.044602104;0.016295454;-0.08198481;0.06988302;0.07139375;-0.059248716;-0.017224712;-0.06728941;-0.06004325;-0.07626459;0.049935415;-0.07972294;0.049027182;0.05598827;0.03798067;-0.042052716;0.06364937;0.11765152;0.0069738375;0.008925758;0.048454557;-0.086424254;-0.011536065;-0.0325795;0.0009778275;-0.03615597;0.066821635
-0.04641268;-0.015161414;-0.05965746;0.04452952;-0.06202417;-0.008921496;-0.12461856;0.061905053;-0.009417696;0.073987946;-0.003888193;-0.00613129;0.08561702;-0.02667126;0.017737567;-0.06956638;-0.042657536;0.0014127552;0.017850963;0.048011594;0.0076380335;0.031457003;0.0086524645;-0.0015556992;-0.00011831198;0.08920387;-0.06872487;0.052751392;-0.10992057;0.024572268;0.0917081;-0.0991098;0.045295004;-0.017552651;0.014821635;0.07126028;-0.074197836;-0.101435766;-0.019672202;0.036442604;0.03943694;0.09463909;-0.0027769452;0.013689107;-0.036827356;0.104882166;0.045388635;0.03897402;-0.030797416;-0.025301484;-0.02995735;0.12817553;-0.065447025;0.10282334;-0.100922726;-0.025929336;-0.004304371;-0.053230576;-0.0077266134;0.011944233;0.094085306;0.09218681;-0.057904564;-0.0429422;-0.032609105;0.07161394;0.0501024;0.073120765;0.015174333;0.010557448;0.068387665;-0.12183315;0.038064793;-0.025644826;0.08582147;-0.08949906;-0.046477173;0.0478345;-0.093469076;-0.021261228;-0.069720134;0.05799515;-0.029734943;0.13384433;0.07544581;0.0034627342;-0.021006063;-0.084489316;-0.037088107;-0.03669383;0.007610946;-0.08087476;0.012271315;0.010621879;-0.036193933;-0.015040873;0.05469054;0.0062414017;-0.08503042;-0.036987115;-0.035136778;-0.05794922;0.067053996;0.0056200847;0.061411932;0.092773415;-0.016376184;-0.021093462;0.07666943;0.043016016;-0.09895486;-0.042259805;0.050500337;-0.024175774;-0.031237235;-0.028185599;0.09256877;0.017157353;0.097407065;0.025271632;0.008825328;0.06655126;0.0662097;0.06793606;0.04020316;-0.03706242;-0.07432021;-0.048811957;0.078410596;-0.07768911;0.08760453;0.08059095;-0.031811893;-0.08752838;-0.050905365;-0.020652775;0.081936285;0.009647803;0.04946705;-0.045556583;-0.059843134;-0.039295297;-0.06539451;-0.055808563;0.017256547;-0.028547596;0.051009566;0.08355415;-0.0046404516;-0.02540345;-0.045059618;-0.06273201;-0.07149502;-0.060493026;0.03729623;-0.04923029;0.039813243;-0.013084359;0.027661368;0.01736351;-0.036936384;-0.029475387;0.051773086;0.047750935;0.056709453;-0.037642136;0.04241782;-0.024113242;0.020621158;-0.03367953;0.039904106;-0.056103326;-0.06796185;-0.08420227;-0.043716863;-0.0012980823;-0.005068743;0.070006594;-0.034885243;-0.011881839;0.08528155;-0.055464536;0.03066377;-0.07479982;0.005135496;-0.04691551;-0.0019038602;-0.08736124;-0.008940772;-0.029239824;0.063821845;-0.09190681;0.054373227;-0.025644332;0.0687198;-0.021827549;0.031244967;0.031271562;0.022531126;0.048561566;-0.06569998;0.026110753;-0.020483965;-0.03105909;-0.06504986;-0.0061518643;0.15024157;0.12857242;0.014356984;-0.0059148706;-0.0022665088;-0.010828357;-0.039645467;-0.012207669;-0.004152429;0.12449576;-0.023241598;0.07557619;0.07451722;0.012902314;0.048126362;-0.023337226;-0.003779657;0.026012223;0.020300819;0.0475592;0.07616391;-0.016519215;-0.012617648;-0.107152745;-0.059224952;-0.022946117;0.05941863;-0.027922958;0.075212985;-0.0323543;0.061076056;0.050191805;0.08705194;0.0045886287;-0.064358406;-0.0017266045;-0.11189614;-0.04389443;-0.034771398;0.035610847;-0.043331474;0.016673705;-0.030049164;0.013399108;-0.07207417;0.021754984;0.061635215;-0.03029398;0.07738989;0.030273696;-0.034162264;-0.022589687;0.09267485;-0.08657385;0.054916535;-0.06687775;0.02210488;0.1055049;-0.043045927;0.01930516;-0.039241247;0.016268915;0.047180336;-0.017549215;-0.0726595;0.00714396;0.014309724;0.06093802;0.021457966;-0.06796951;0.029282937;0.016181225;-0.08862883;-0.03302139;-0.090736434;0.06281419;-0.0030575662;0.12533417;0.052654706;0.019124707;0.045999274;0.0129522495;-0.046115726;-0.0152619835;-0.12561205;-0.046180066;-0.014514607;-0.060183078;-0.117770985;0.023501068;-0.006422619;-0.05195446;0.024366997;-0.013461416;-0.023062345;0.08348225;0.01008069;-0.09215797;-0.0048279883;0.06805325;0.0385752;0.008440705;0.045639783;-0.03792249;-0.009822176;-0.005530702;-0.041564733;0.08017853;0.046217136;0.07389741;0.063945174;-0.092197664;0.050045166;0.022614395;-0.051968686;-0.040064458;-0.0065893205;0.041453477;0.07367301;-0.034877766;-0.024572447;-0.09503587;-0.08985469;0.05808501;0.0036239184;0.046312314;0.03433323;0.070544735;0.07456103;0.01297473;0.020610407;0.016995706;-0.03121777;-0.06647646;-0.06960416;-0.0068386686;0.049909975;-0.050914183;-0.04949139;-0.0061906883;0.08442488;-0.0347005;-0.077677935;-0.04431454;0.009603062;0.13127363;0.0107533615;0.0580813;-0.04323685;-0.031294964;-0.020925349;-0.08928869;-0.06078111;0.030663347;-0.067357145;-0.066952705;0.1166738;0.07989637;0.007139425;0.033612087;-0.0002847797;-0.06968055;0.037142493;-0.0076035396;-0.051802322;-0.016779132;-0.018345967;0.046173826;-0.010759519;-0.06878351;-0.010548715;-0.026160562;-0.06307059;0.08818419;0.029464917;0.056742653;0.059132878;-0.009684319;-0.063231334;-0.0502838;-0.04626647;-0.06184349;0.012126698;-0.0627604;0.069758885;-0.009452225;-0.022147989;0.012157853;0.117396176;-0.06060545;0.0299818;0.06151185;-0.019020416;0.06256134;0.079107895;0.07607835;0.028689826;-0.021378139;0.034175754;0.02641644;0.047689937;-0.1277787;-0.048138153;-0.014427358;0.09117586;-0.033313308;0.08050294;0.007948134;-0.032172363;0.022943487;-0.011288666;-0.11040473;-0.080360405;0.07278192;-0.09915488;-0.0023901681;0.07016128;-0.07732167;-0.06418653;-0.039603323;0.05217216;0.04670683;0.036760572;-0.10495323;-0.061150793;0.061037805;0.08515683;0.023122126;0.04042229;0.1292727;-0.04348069;0.061257925;0.022474885;0.0093945665;0.07422408;0.093124814;0.009589872;0.058689363;-0.057967056;0.08601882;0.056208543;-0.046630587;-0.043141104;0.07121105;-0.04105099;0.03715705;-0.04232074;0.030798538;-0.10404248;0.078625746;0.049545303;-0.011601355;-0.034632113;0.08490357;0.018914126;0.06372511;-0.00023485895;0.010718672;-0.03396261;-0.08576113;-0.05368248;0.09875734;-0.05647452;0.08148408;-0.007422413;0.049691774;0.054407466;-0.06556729;0.0188275;-0.06758167;-0.0108328685;-0.007239687;0.086614154;0.013889245;-0.027011894;-0.036233462;-0.094986305;-0.046564296;-0.017283127;-0.040338874;0.057393245;0.0029355441;0.051806245;0.031013386;0.030641634;-0.03611227;0.043806016;-0.028036587;0.04588855;0.067001194;-0.016593736;0.0021841566;0.035851892;0.06789544;-0.07176684;-0.04499084;-0.05272607;0.074588366;-0.0774744;-0.07003385;-0.04398098;-0.0044380887;-0.011848964;-0.016168525;0.0018739131;-0.038225554;-0.018168097;-0.008238819;-0.16005883;-0.018866956;0.06550009;-0.034097023;0.013923427;-0.09974462;0.06789146;-0.014849217;-0.0024433767;0.07127906;0.052693162;-0.019936107;0.073633865;0.077568345;0.058972504;-0.09041482;0.01627134;-0.027794722;-0.07211364;0.041385923;0.11068229;0.008585974;0.027950017;0.07028747;0.031182269;0.12625548;-0.06250421;-0.06269225;-0.018994432;0.11165045;0.105833285;-0.089609765;0.053518184;0.014003476;-0.021493617;0.038730912;-0.05765649;0.053018518;-0.0028954837;-0.0017762474;0.014551743;-0.0027506903;-0.002837386;0.020593796;-0.07489322;-0.024695331;-0.03568528;0.061911017;0.12015386;0.08926377;-0.04124412;-0.0671545;0.14251363;-0.056183383;0.05402213;-0.048765525;-0.051215544;0.12800704;0.04864071;0.010182254;0.07777316;0.023974549
0.07558433;-0.01642646;0.009312395;-0.042250656;-0.02724627;0.051305737;-0.19460967;0.032097146;0.054316796;0.07624835;0.02013584;0.059274323;-0.036923863;-0.055818323;0.0591946;0.04717441;-0.07138633;0.037227117;-0.050025642;-0.050030317;0.02040632;-0.038342874;0.009224865;0.02915946;-0.00094034197;0.006898875;0.015748948;-0.062413912;-0.15347545;-0.066027425;-0.021791536;-0.10743718;0.026828274;0.05356586;-0.056365415;-0.037695915;-0.076349676;-0.09470829;0.010812087;0.008825507;-0.08142117;-0.04650117;-0.007812431;-0.02899332;-0.082078785;0.08075232;0.05356283;-0.004593543;0.03008316;-0.03794825;0.05290598;0.022900278;-0.09291515;0.052052096;0.012012817;-0.059201207;-0.0039599016;-0.023022885;0.04849162;-0.06935732;0.0078387065;-0.03560562;-0.06918972;-0.03370888;0.083580285;-0.053053044;0.011121606;0.13035394;0.028981986;0.004573936;-0.024529926;0.0017101844;0.036818746;0.0147499;-0.008989068;-0.0362396;0.012492694;-0.061245922;0.09388749;0.026938142;0.029964535;0.004434833;0.039041467;0.095367305;0.019450758;0.090656005;-0.08762595;0.04289366;0.05291171;0.017352002;-0.009535221;0.048828725;0.04791894;0.004138523;0.076316155;0.08009848;-0.090232745;0.03268221;0.07687813;0.08794332;0.036414605;0.023651507;-0.074380554;-0.0023702313;-0.06988729;-0.025616657;-0.052853063;0.021881314;0.043960895;-0.08842195;-0.031518888;0.060127422;0.00023940549;-0.102970935;-0.06307492;-0.022111628;0.075697795;-0.010253761;0.016245104;-0.09740144;0.057837594;0.048602458;-0.005806329;0.070106424;0.079916835;-0.019919774;-0.010146858;0.048691515;-0.04266849;-0.021501387;0.06650677;0.03177819;0.013003818;-0.116891816;-0.066175126;0.022041667;0.05330208;0.016180784;0.05533875;-0.043317102;-0.11295232;0.017770547;-0.063572206;0.064007305;0.023144895;-0.1063483;-0.05571233;-0.027980516;0.047720097;0.036453955;0.040614083;0.071894936;-0.01401951;-0.03808925;-0.018243948;-0.07957376;0.07605042;0.0717854;0.037417058;-0.00066850736;0.044674553;0.012817475;-0.0059373877;-0.036967132;-0.07535261;-0.00786505;-0.057746273;-0.024144256;-0.0009868373;0.07210203;0.010678566;-0.02315161;-0.056103226;0.01858999;0.035212282;0.016417895;0.043990962;0.0023465855;0.11480423;-0.031149087;0.025665771;0.018861603;-0.008581944;-0.005997909;-0.12946121;-0.08616844;-0.02063328;-0.088086635;0.00093572243;0.025831899;0.009778978;-0.04415646;0.017938808;0.00853664;0.008671904;0.051051326;0.12914121;0.10192005;-0.024723995;0.06253865;-0.059898462;-0.035839457;0.0027645428;0.021763211;-0.061701708;-0.028858846;0.036107462;0.115076974;0.06492497;0.08255148;-0.0047197365;-0.041570436;-0.020006796;0.06619949;0.028820533;0.07310882;-0.04716396;-0.01909178;0.02968126;0.030506587;-0.053951163;0.057328925;0.027415419;-0.014492032;0.028988902;-0.030049669;-0.081129566;0.093757346;0.087744586;-0.13158363;-0.03040726;-0.1110164;-0.00095616584;0.052078236;0.008654507;0.0660931;0.02222289;-0.048746586;0.032240294;0.09004765;0.0465968;-0.11412839;0.03269083;0.040411066;0.041444644;0.02724657;-0.020560846;0.011820885;0.007599386;-0.025897842;-0.05869761;-0.05008175;-0.070618436;0.11381013;0.017217143;-0.0954208;0.026915736;0.04570127;-0.06928164;-0.02100435;0.08315358;0.069853775;-0.03966412;0.011223818;-0.011061558;0.052109297;0.056397296;-0.063059665;0.055460967;-0.012302583;0.07106904;-0.06101357;0.06233319;-0.0005602457;0.03366892;-0.0069928104;0.007158695;-0.0036272109;0.036954813;-0.022448307;-0.09127766;0.08633618;0.017774861;0.09426755;0.05851191;-0.003614664;0.072743215;-0.048384152;-0.068200015;-0.014773059;-0.039064273;-0.0045432276;-0.057262957;-0.037445072;0.019237204;-0.089900225;0.08769937;0.024841312;0.01505538;-0.032378823;-0.057199754;-0.060452476;-0.03823746;-0.050045036;0.022850897;0.033926178;-0.04657795;0.08166848;0.020965924;-0.055671204;0.02008502;-0.028945686;0.07962215;0.01640559;-0.035915934;-0.06570999;0.020727456;-0.101458386;0.030758869;-0.15104985;0.05822391;-0.007624204;-0.07156307;0.05183298;-0.040501438;0.016594334;0.038884792;0.030543642;0.058942944;0.07129783;0.015981328;0.040873513;-0.010720885;-0.0068211877;-0.039135966;-0.026625868;-0.033322945;0.06478445;-0.006670152;-0.056278788;-0.050755087;-0.093008615;-0.045277644;-0.12368982;0.014841161;0.03890736;-0.047880642;0.03583972;0.059142496;0.034416087;-0.040400993;0.14874902;0.024413262;-0.028735721;-0.059492048;-0.029658416;-0.04542989;0.010800243;-0.07903393;-0.042095877;-0.087329604;0.012118718;0.0044912216;0.04278788;-0.012648345;-0.075161725;-0.03436052;0.027036665;0.013344994;-0.010866941;0.07648965;-0.014301108;0.05053072;0.05291182;0.050218746;0.008806693;0.115343474;-0.02876924;0.031126997;0.021423116;0.08454039;0.062101368;0.054430135;0.04536192;-0.022775425;0.03622892;-0.04234994;0.02479336;-0.014788936;0.067004636;0.010429075;0.05023876;-0.013973691;-0.03404998;-0.028021203;-0.011042846;-0.07339066;-0.008235463;-0.012548933;0.01894873;0.015581049;-0.029526846;-0.037329316;-0.044268884;0.0014654212;-0.037328586;0.036054824;-0.028522477;-0.035771996;-0.057901375;-0.045678094;0.05907929;-0.01474227;0.018345688;0.035707127;-0.03864453;0.054335218;0.005008127;0.008579129;-0.054758035;-0.029115064;-0.0784275;-0.07540632;-0.040163744;0.040036995;-0.020546999;0.06507151;0.0030729102;-0.0036256183;-0.074354;0.10799115;0.057524852;-0.019453995;0.003031769;0.015058142;0.087319225;0.020434443;0.017773503;0.0459382;-0.021908171;-0.050097164;0.061642285;0.052891817;-0.07108363;-0.020045504;0.012058158;0.08228607;-0.008134691;-0.06601589;0.012839383;-0.071826026;0.048770342;0.04248962;-0.038378645;0.0021797437;-0.05538769;0.069535166;-0.051216397;0.06312165;0.08027772;0.07464711;0.0652457;-0.15614544;0.024894705;0.03306726;0.05152839;-0.015580386;0.111241676;-0.008146326;-0.00774052;0.07296334;0.11395734;0.03540047;0.048761714;0.05198181;0.013815347;0.037115455;0.021883685;0.03309076;0.025249302;-0.07167967;0.061601844;0.05431358;0.106158815;0.0760267;0.042972658;-0.04047633;-0.0059551834;0.009074501;-0.06477223;0.01849059;0.015544092;-0.043604422;-0.030226337;-0.019529046;0.029924262;0.056355797;0.009547619;0.08522845;0.0029461663;-0.05318165;-0.061185904;0.01989034;0.055613786;-0.011737619;-0.028706107;-0.009805971;-0.03581626;-0.06780714;-0.081407405;-0.028282026;-0.011031707;0.071790874;0.03619465;-0.027977617;-0.041545488;0.091406845;-0.019684024;0.06820491;-0.13928165;-0.05866198;-0.005755019;-0.07955328;0.02824527;-0.03668732;0.08822507;-0.06467366;0.0053364947;-0.044232275;-0.017267158;-0.004419703;-0.083555385;-0.032971792;0.07570361;0.099154964;-0.038023897;0.025375027;0.052585155;-0.078875005;0.013879742;-0.04630572;-0.07291971;-0.045104954;-0.02484435;0.018427454;-0.060671274;0.047327053;-0.06820224;0.038457748;-0.027103188;0.027544191;-0.052713588;0.035090897;0.032833535;-0.029672556;0.11202441;-0.04076517;0.015005068;-0.07023894;-0.058397125;0.08094598;0.0785303;0.16160414;-0.0061605778;0.031943485;0.06758065;0.10804927;0.006511152;-0.016838027;-0.0072072814;0.0089351535;0.071328335;-0.02516837;-0.05337792;-0.048158865;-0.013554969
0.016512902;-0.116532415;0.06731324;-0.028588517;0.08344346;0.034862284;-0.14424406;-0.020200646;-0.02966813;0.052976612;-0.06560122;-0.0724818;-0.07181492;0.043491125;-0.013111737;0.063499816;0.020323148;-0.046453107;0.0025180755;0.060356442;0.032279186;0.021590024;-0.056845378;-0.042859226;0.065970294;0.04581414;-0.030650742;0.021773035;-0.13097665;-0.08005348;0.032750785;-0.06784521;0.07806942;-0.0028786513;-0.04234693;0.044646837;0.009167486;-0.00030913853;0.05504102;-0.018290099;0.06300876;-0.048525613;-0.092876464;-0.08047231;-0.043442536;0.018097624;0.03592137;0.021309715;-0.073339015;0.042104624;0.07083697;0.10909969;0.010089345;0.056903113;-0.07340954;-0.00795831;0.047308378;0.04646868;-0.025708253;-0.0060488395;-0.00478825;0.014806378;-0.08227394;0.051934846;0.018191945;0.06764501;0.026812216;-0.030066788;0.0066867666;0.085655876;-0.0035604285;-0.048172615;0.054486666;0.036647297;0.00092727685;0.067447595;-0.0064533465;-0.012324623;0.026822776;0.05079245;-0.020399014;0.020618938;-0.108657025;-0.02797379;0.05704189;0.102133304;-0.0151797;-0.027037254;-0.048083648;-0.08699309;0.075446755;-0.04924811;0.029921778;0.08478822;0.07134331;-0.0610719;-0.10207456;0.032887895;-0.074401304;-0.03070417;0.06517033;0.019386375;0.0058603636;-0.0002574484;-0.041399263;0.06970121;-0.019205373;-0.044757012;-0.027091553;0.0013528361;-0.0486177;0.057890743;0.0668789;-0.10454651;0.030513594;-0.030225975;0.00089342083;-0.014016049;0.073467255;-0.1085856;-0.026114436;-0.08742294;0.041121833;-0.06736188;0.07056529;-0.06914479;0.0040237145;-0.020616874;-0.012374293;-0.0075996537;0.044767063;0.07377737;-0.040984426;-0.02046954;-0.08050064;-0.019071668;-0.060122978;-0.069348134;0.044364918;0.019088924;-0.11536591;-0.034833882;0.030530877;-0.009280609;-0.041556727;0.06727423;0.11813306;0.070201375;0.03648791;0.06625403;0.024611838;0.07532793;-0.057768065;-0.013801875;-0.023146903;0.085928366;-0.008686196;0.060542606;-0.04297646;-0.002049698;0.010853195;0.013533361;0.0254154;-0.06806258;-0.039729178;-0.017941596;0.07392439;0.09853994;0.038057704;0.08183129;-0.076377824;0.041975435;0.0651831;-0.060760636;0.048598897;-0.017944593;-0.0025076787;0.020577922;0.12185748;0.07575569;0.06483724;-0.038107663;0.06530581;-0.0057754493;-0.0055256225;-0.101477295;0.040041957;-0.037307344;0.08021171;-0.08175502;-0.03710075;0.031495262;0.12110256;0.05702701;0.09651597;-0.07153196;0.045232855;-0.041933313;-0.08002543;-0.063184746;-0.0599728;0.09040482;0.05329046;0.04308773;0.025987307;0.009054962;0.06843953;0.048816793;0.035567857;0.06441179;-0.020520765;-0.060042996;0.048447523;0.07641538;0.015156577;0.08664763;-0.04110068;-0.050330613;-0.03138136;0.018050594;-0.05512511;0.025416134;0.039675515;-0.0034770695;-0.016524645;-0.09509819;0.05211244;0.09930098;0.043539073;-0.076690495;-0.069262676;-0.004566257;0.008324016;-0.0325868;-0.06946948;-0.013761069;-0.08867564;0.032917596;-0.058252268;0.057811446;0.0287131;-0.077062786;-0.006224012;0.022896435;-0.07467179;0.045954973;-0.0020626113;0.04872235;0.035540365;0.036347568;-0.10247736;-0.03426446;0.0036576472;0.11197609;0.00482431;-0.07768635;-0.036871426;0.038839925;0.04308229;-0.08589624;-0.06966141;-0.025231786;-3.9946215e-05;0.010512497;-0.08094162;0.07612094;-0.08935372;-0.079672225;-0.08254097;-0.078607164;0.07178116;-0.116091914;-0.024568807;0.042599443;0.0400351;-0.08253029;-0.04749227;-0.08332768;-0.09200625;0.060370985;0.058762502;0.048722237;-0.06899162;0.12712924;-0.014684207;-0.08323589;0.07787336;0.010914885;0.03992416;0.05518854;0.016931018;-0.038564295;0.10033142;0.009404339;0.04617424;0.03509368;0.12681733;-0.083550245;-0.023404852;0.087959014;-0.09519993;0.09935217;0.01144635;-0.09481943;-0.0041441075;-0.010237552;0.06180524;0.06927417;-0.018209383;-0.006050409;0.008169756;-0.03276688;-0.064552866;0.0033509615;-0.024408828;0.053129833;0.020345004;-0.005317229;0.07201085;-0.058670316;0.024624925;0.015465974;0.06279168;0.033803318;-0.007793995;-0.029335184;-0.08736266;0.004570911;0.05778824;0.06962868;0.07372143;-0.023631228;0.013084882;0.08208928;-0.067985564;-0.03319278;0.0048667234;0.06320798;-0.06718298;-0.049715683;-0.027456963;-0.07842189;0.023609286;-0.1261629;-0.0659189;-0.043954108;-0.027168382;-0.050249055;0.049698215;-0.0155093735;0.022515817;0.013550342;-0.07775835;-0.051713318;0.026754713;0.0739639;-0.08595919;-0.008375852;-0.0174633;-0.068450704;0.03812578;0.07363238;0.0767171;-0.017727397;0.061623503;0.017889185;-0.02148835;-0.026494289;-0.03659334;-0.058241025;0.08011672;0.027862193;0.03190152;-0.062103678;-0.11077783;-0.031154033;0.023729462;0.016451148;0.06318845;0.036139768;-0.004651978;-0.08723884;-0.012138929;-0.03447416;0.06677557;-0.055396486;0.006488792;0.051915973;-0.034219623;0.0836858;0.039562948;-0.03925937;-0.01958293;-0.007682108;0.08311209;0.11842326;-0.0828029;0.033937346;0.030514171;-0.04145277;0.0491498;0.06393656;-0.074927874;-0.091359355;-0.064156;-0.0767024;-0.021894343;-0.12330008;-0.009233393;-0.054515045;0.0033795359;0.060900584;-0.0629357;0.01592434;-0.07394924;-0.027292673;0.0054701213;0.025312953;0.011413642;0.052139197;-0.010195119;0.016908081;-0.037736084;0.009099968;0.05251178;0.01200494;0.09907111;-0.03532082;0.09152865;-0.08460467;0.08565415;0.028240617;-0.046635434;0.055394426;0.003613261;0.023814313;-0.018256474;-0.022897411;-0.025699437;0.017889699;0.0021272223;0.08550327;0.044079874;0.005742323;-0.010734237;-0.079962924;0.07507841;0.0025327492;-0.060015455;0.04981242;-0.011722484;0.08027904;-0.049757924;-0.088289484;0.0065084673;0.06648002;0.13049433;-0.11688633;0.06844115;-0.02543443;0.009905051;-0.06603675;-0.06285798;-0.0062614144;0.06224051;-0.030300595;0.007487873;0.085946396;-0.035021316;-0.038269296;0.05638359;0.10501061;0.009092409;-0.045989662;-0.07284985;-0.048478343;-0.016452596;0.051003568;-0.018447183;-0.06798021;0.004748526;0.016150566;0.006879358;0.056095824;0.055222932;-0.024224536;0.00085560814;0.03750424;-0.016727591;-0.038438816;-0.029354198;0.010722292;-0.01352115;0.011148529;-0.004513669;0.018193606;0.04180541;0.018889537;0.024333231;-0.06469388;-0.112951934;-0.0002390338;0.09169098;-0.063946515;0.07134208;-0.00050683954;0.063039236;-0.0036633983;-0.04018773;0.045889568;0.011101565;0.03395224;0.03315409;0.045686923;-0.14969929;-0.061391484;0.038751967;0.008662407;-0.06396047;0.0050634216;0.022786334;-0.0073138243;0.029901132;-0.02273339;-0.038639605;-0.03307576;-0.007701448;-0.050981987;0.07280441;0.09051264;0.066350274;-0.023831395;-0.07629807;-0.010339229;-0.033458557;0.02994939;-0.023252303;0.050862562;0.025759337;0.05703079;-0.052855466;-0.077513665;-0.063837014;-0.046389308;-0.07655252;-0.030538421;0.11116298;-0.025587874;-0.03929432;0.08954137;0.054458827;0.056214187;-0.041446738;0.06712731;0.019147977;0.05927521;0.026738217;-0.010520171;-0.041189667;-0.0028324693;0.016127132;0.016102897;-0.024055358;0.05806398;-0.07118694;-0.07942648;0.07829245;-0.025057308;-0.04366205;0.060000315;-0.13134874;0.06480685;-0.0585601;-0.04737383;0.04313505;-0.05729171
0.07556042;-0.08982084;0.0006909268;0.12235896;0.015316416;0.02618043;-0.019186474;0.04367381;-0.124462575;0.02913312;0.07281552;-0.042459223;0.065735124;-0.04341527;-0.048223726;-0.042715684;-0.09106104;0.08072549;-0.07345199;0.048615962;0.015112083;-0.07205484;0.0764811;0.025275633;-0.04618863;0.078906596;-0.009103046;-0.021414312;-0.1307518;0.0825628;-0.06653141;-0.04019477;-0.07681667;0.04742368;-0.055098698;-0.038642194;0.0393167;-0.07557864;-0.023449957;0.010979925;0.029345093;0.032083396;-0.07611761;0.057484135;-0.08160541;-0.047454257;0.022566685;-0.028624794;0.030952722;0.058205105;0.055016823;0.05883931;-0.08219813;0.00018530668;-0.033386223;-0.0053783953;-0.018391136;-0.00786074;-0.036213864;-0.09021259;0.060087234;0.034586247;0.014850918;-0.071583405;-0.019493513;-0.0010774359;0.05822197;0.13616297;0.044679288;-0.05950648;0.07147739;0.003250004;0.044966523;-0.0883182;-0.017190248;-0.056036662;0.030131035;0.0026335416;0.11881645;-0.05037938;0.006703629;-0.0347052;-0.01696489;0.1559934;-0.063610636;0.10760987;0.05412905;0.06100964;0.048029568;-0.047527958;-0.03443845;-0.05283221;-0.0457655;-0.008581286;-0.0385472;-0.037602257;-0.029106755;-0.04254605;-0.028736068;-0.0006657659;-0.047470935;-0.06465062;0.0009712735;-0.01637783;-0.042399924;0.09252994;-0.022904964;0.040123682;-0.04681948;0.011123752;0.01541427;0.06825908;0.05793556;-0.09870885;-0.08088868;-0.046098188;0.020435724;-0.09171708;0.02501057;-0.0966799;0.13884339;0.03876005;-0.053920973;-0.069916;0.050535724;0.03594232;-0.015009581;-0.06632861;0.039443053;0.009450133;-0.07072833;0.051727235;-0.055416506;-0.05619046;0.026966263;0.048568755;-0.010663105;-0.08117937;-0.0018861219;0.14727177;-0.0294889;-0.006306727;0.06703308;-0.016797436;-0.08235935;0.031222472;0.08978169;0.038224388;0.08026219;-0.08953441;-0.0874101;-0.03260636;-0.0743076;-0.029538006;-0.0139476415;0.018874943;0.092962116;0.02191415;0.08369602;0.01149897;-0.08302001;0.009875303;-0.09360809;0.059780437;-0.049712077;-0.0070663034;0.032258585;0.05836915;0.061911725;-0.018586151;0.022497678;-0.02672225;0.064660795;-0.0677156;0.035791352;-0.011231956;-0.0013251593;0.025931463;0.029696232;-0.09008273;-0.04141242;0.028917843;0.050604004;-0.061542157;-0.024330728;-0.050494626;-0.032424346;0.012532269;-0.031414438;-0.016729502;0.11228427;0.043738972;0.10788435;-0.01252816;-0.015213303;0.078796804;0.07387281;0.08541404;0.0708031;-0.022274522;-0.01097408;-0.010535147;0.0042112623;-0.073892035;0.046496823;0.018999042;0.13427785;0.08032631;-0.034209207;0.09490211;-0.017423486;0.024230858;-0.013777776;-0.094655;0.043103788;-0.031741083;-0.049473953;-0.04729384;-0.08191391;-0.0063725538;0.04007693;-0.041365765;0.048754293;0.07748753;-0.009407769;0.012764258;0.030219762;0.011796025;0.053877123;-0.14341825;-0.013884759;-0.09426467;0.06097779;0.048258938;0.03667848;-0.00036511233;-0.025721122;0.06114501;-0.014173714;0.07517942;0.005994567;-0.0020451138;-0.120543964;-0.017846482;0.011805896;0.119820386;0.041382287;0.05484454;-0.13241804;0.017041512;-0.058471132;0.08842747;-0.057882346;0.092656486;-0.0073789987;-0.101644695;-0.025190843;0.049184076;-0.02431793;-0.048437774;-0.050487615;0.019377448;0.012948172;-0.046286635;0.08692954;0.02775681;0.06693545;0.052586183;-0.0878698;-0.06647325;0.054567847;-0.1071443;-0.07286433;-0.024586987;0.05235546;0.086634554;-0.048107546;0.08045101;0.04467182;-0.03614935;-0.09136684;0.027600449;0.05164391;-0.077478215;0.064942546;-0.08601409;-0.06452346;-0.07373531;-0.033828452;0.070154466;-0.09860459;-0.056663595;0.0776072;0.07621859;0.005937101;0.05524751;0.07081827;0.027450059;0.023410741;0.08052956;0.012726532;0.054686043;-0.019816438;0.039441176;0.032130413;-0.024512302;0.090544105;-0.03156387;0.09284096;-0.101118386;-0.046362817;-0.008940942;-0.037596993;0.061447524;0.103076756;0.019174773;0.01961175;0.009377183;-0.037584685;-0.033978064;0.053224348;0.092900775;0.032436557;0.058256865;0.009792318;-0.038255032;-0.09599841;-0.08675843;0.02451664;0.0009893907;0.074461885;-0.07250942;-0.021879707;0.09340981;0.0065081;-0.008857291;0.054576967;-0.046746712;-0.06436259;-0.09267234;-0.123010755;-0.12306961;-0.070789285;-0.11395421;0.003263857;-0.031934444;-0.0047473726;-0.012481842;-0.038113147;0.000339897;-0.027017532;-0.008492756;-0.121046886;-0.10380975;-0.061553825;0.020562395;-0.014046765;-0.08072195;0.06467445;0.017702261;-0.02831575;0.07284491;-0.0136953425;0.09053542;-0.014500494;-0.06736267;0.014721688;0.033622194;-0.0390912;0.051463872;0.011782053;-0.07903101;0.03661697;0.06751215;-0.09943265;-0.010867315;0.09409083;-0.060667444;0.07498482;-0.082278766;0.056542035;-0.062567376;0.045365546;0.041703828;0.04148804;0.04045642;0.027316764;-0.064046465;0.046300262;-0.008743865;-0.081820786;0.022392523;0.0659213;-0.0074442583;-0.0067987777;-0.054751586;-0.014306542;-0.050380014;0.119178124;0.044172667;-0.059017412;-0.07799881;0.047537286;-0.06325863;-0.042625207;-0.046690285;-0.01345345;-0.04265647;-0.06565029;-0.081810005;-0.041532762;0.02045023;0.06857511;0.09343444;0.0012185496;0.012521979;-0.032080285;0.026338808;-0.06791451;-0.003175422;-0.04363313;-0.069971345;-0.071951665;-0.037958648;0.038637288;-0.057116702;0.12782367;-0.08755321;0.07631988;0.060672898;0.061063483;-0.018214839;-0.037564695;0.07735819;-0.07951434;0.13311027;-0.03342217;0.0071106744;0.0216752;0.042999204;-0.09970543;0.144804;0.06045346;0.049504675;-0.096322164;-0.05871262;0.022398133;0.009810185;-0.11025483;-0.06716578;-0.07845612;-0.0459389;0.047826312;-0.10501716;-0.039907545;0.010001121;0.048306458;-0.050238706;0.02091534;-0.02899644;0.024990158;-0.06469348;-0.04523949;0.09135952;0.032695968;-0.01614781;0.04978934;0.1102854;0.070111565;0.0067132837;-0.061622288;0.007642713;-0.03173581;0.040820606;0.035480622;0.026139276;0.021670667;0.049217567;0.07251068;-0.02361114;0.023416592;-0.019561116;0.04955806;0.008101343;0.07124538;-0.078799486;-0.017372703;0.00024944224;-0.045506477;0.031913597;0.009342153;-0.030570284;-0.035777766;0.02409679;0.043285247;0.011119687;-0.000706228;0.05868173;0.06572853;-0.011692394;-0.20224251;-0.0893134;0.050675265;0.0910731;-0.06828506;0.014804719;0.08168741;-0.021803446;-0.09366004;0.019815372;-0.011053234;0.010646264;0.013750201;0.014081377;-0.014481433;-0.023103649;0.07762914;-0.09434201;0.031183237;-0.0855664;-0.051962692;0.0129992645;0.011402529;-0.005461787;0.061032724;-0.011068789;0.037942633;-0.016584923;-0.02526374;-0.049153168;-0.0324746;-0.055252198;-0.11474554;0.0634833;0.13619697;-0.0018251515;-0.062482417;-0.068732634;-0.021699427;0.09323635;-0.01883707;0.0063406476;-0.06251794;0.015142711;-0.0035452459;0.02928675;0.09178718;-0.050070055;0.08397248;0.011321465;-0.039130695;-0.025109552;-0.053287514;0.08827306;0.006673706;0.025958948;-0.058123514;-0.041875795;-0.095782705;0.053198855;0.02313206;-0.009622172;0.08970152;0.09001185;0.043653138;-0.0024461704;0.042724922;-0.067180894;-0.032585643;0.045535628;-0.0656736;0.06263517;0.050405983;0.050236207;-0.00024133315;-0.027936144
0.043653693;0.0008556288;-1.0321131e-05;0.08548611;0.07375631;-0.046000563;0.059598103;0.089521684;-0.103747614;-0.0065584676;0.033664264;-0.0116818715;-0.037325054;0.066814065;0.0024801246;-0.080966175;-0.023870826;-0.06488705;0.034278564;0.045316737;-0.098469205;-0.056227677;0.015282784;0.10192243;-0.039519466;0.030574856;-0.055773053;0.026171476;-0.054909408;-0.08438;0.00479943;-0.05663833;0.0016995493;0.09613928;-0.032909974;-0.043368578;-0.017703233;0.09789405;0.060325284;0.08582691;0.033725996;0.08972888;-0.078148074;0.021473859;0.01182572;-0.077533245;-0.09819571;-0.055548135;-0.030253813;0.090440914;-0.0723995;0.051498905;0.026059514;0.08703467;0.11704473;-0.024419472;0.002088085;-0.029524077;-0.009808101;-0.059836674;-0.027403925;0.019521512;-0.05681338;-0.017143453;-0.027267113;-0.03009971;0.021935947;0.09363329;0.012647779;0.050957896;0.004117731;0.030623304;-0.10855097;0.023735;-0.034246337;-0.03847188;0.0050487095;-0.13688362;0.09764773;0.062615;0.050786104;0.032043137;0.028596155;0.00044512397;-0.06217827;0.088168025;-0.01813313;-0.04167366;-0.056733932;-0.00045670418;0.031463023;0.037380427;0.067021176;0.023980277;0.10408036;-0.071504585;-0.11413095;-0.061950624;0.05323752;-0.014495207;0.008042091;0.10888067;-0.059586905;0.040915318;0.099806555;0.023789428;-0.06697667;-0.01520884;-0.00812495;-0.006860721;0.073024124;-0.038356088;0.010023853;0.010618639;-0.057567026;-0.026509501;0.017855115;-0.03632712;0.06824173;-0.061244007;-0.0116558345;0.0019197267;-0.04997484;0.022676613;0.0919872;-0.06693859;0.06067439;0.023587324;-0.07617141;0.024908438;-0.037783936;-0.015118514;-0.07601921;-0.03971218;-0.00054225104;-0.076613;-0.07770274;0.008721361;0.0098629715;0.09393233;0.049560517;-0.07626746;0.026166696;-0.018723698;-0.008354226;0.019613707;0.078777894;0.060471583;0.014393832;-0.027438732;-0.032798126;-0.02244783;-0.00559277;-0.011403785;-0.04869057;-0.07029223;0.031325784;-0.06514001;-0.002567765;0.0047014705;-0.057556637;0.0020941717;-0.03886264;-0.08415522;0.06383046;-0.06419097;-0.02723037;0.052013334;0.035734337;-0.08086957;0.030027177;0.066184804;0.017247392;0.058340997;-0.037076794;-0.020724233;0.062129185;0.06646343;-0.066440575;0.025334112;0.08657398;0.003774798;-0.025566837;0.029514784;-0.14499316;-0.022869108;-0.034230947;0.03006704;-0.14878888;0.0761525;0.18204044;0.023197275;-0.010351804;-0.022857985;-0.051771622;-0.083472066;0.05175717;0.04253541;0.009676475;0.0146918185;0.059886083;-0.0009503398;-0.014197823;0.09081216;0.0015443276;0.029838497;0.063724175;-0.038287308;-0.06528165;-0.013003124;-0.066524036;0.016032353;0.06435893;-0.0046997205;0.023002;0.05335801;-0.02061641;0.021762973;-0.07487596;-0.03578601;0.068361685;0.0051164515;0.040089216;-0.063697174;-0.049837653;-0.014070929;-0.022934727;-0.018306566;0.13342318;-0.04620387;-0.026294315;0.021259986;0.011114117;0.063584656;0.038312044;-0.060887802;-0.07042296;-0.03629678;-0.06807021;0.07039426;-0.020921342;0.018064123;0.034789834;-0.05010919;-0.04977978;0.11185772;0.06804433;-0.08274737;-0.14858273;-0.030048557;0.04855181;0.062133975;-0.09782517;-0.023913864;-0.058658566;0.048132826;-0.11787729;-0.03348435;0.07672886;0.074851125;-0.008130722;0.02881467;-0.022440836;-0.0060479627;-0.03578048;0.024221094;-0.052267946;0.11147439;0.07026735;-0.040773604;0.037870944;-0.068234585;-0.029517192;-0.051375657;-0.0018341456;0.046795975;0.024600903;0.0048341183;0.018715335;-0.040903237;-0.04865347;0.0055670696;0.035743263;0.004501576;-0.05465308;-0.027269458;-0.053869694;-0.01615553;-0.04916736;-0.01425507;0.001840204;-0.030306628;-0.018454116;0.03467437;0.04474111;-0.06366314;0.12690099;-0.0023825702;0.08982704;0.024161888;-0.07375768;-0.051972643;0.09244246;0.055848915;-0.025315683;0.010701805;0.093201876;-0.043321792;0.083331116;-0.066870965;0.08178491;-0.016742596;-0.027380811;0.065397695;0.07577159;-0.045524273;-0.017258367;-0.07295859;-0.009654928;-0.10830407;0.030402774;-0.058564533;0.022776496;0.07513103;0.047177967;0.016961975;0.007974434;-0.046028595;0.018913345;0.04806623;0.057591196;0.04722322;0.019178392;0.0021593047;0.12322646;-0.043404453;0.06524189;-0.09338146;-0.11650266;-0.013377309;-0.016649392;-0.028130233;-0.01074659;-0.18368514;0.08275299;-0.00889046;-0.03770982;0.037289243;-0.042124752;-0.0356231;-0.036454726;0.083285615;-0.039283473;-0.09668898;-0.0463124;0.048114914;-0.1032192;-0.025672305;-0.018013114;-0.09246833;0.03159099;0.017424943;-0.013826448;0.035461888;-0.038609684;-0.07795041;-0.048680685;0.0622769;-0.037647266;-0.021711074;0.013732621;0.07525152;-0.037087798;-0.038721394;0.019388007;-0.020660115;0.08363005;-0.020749563;-0.019666381;-0.04761398;0.08169857;0.031197011;0.05757276;0.063867316;0.025824158;-0.036884326;0.049598504;0.015264866;-0.05331954;0.028971799;-0.060414597;0.015177541;0.029979741;-0.05150261;0.040790766;0.10781806;-0.057777904;-0.025376987;-0.027520563;-0.027029306;0.012851857;-0.006007216;0.025006665;-0.0016213865;0.111971505;-0.020863518;0.035006948;0.057638127;0.038942147;-0.0003832587;-0.005346934;-0.0064656106;0.09577536;-0.009614279;-0.058636367;-0.08760124;-0.037496958;-0.015287539;0.042591155;0.007819511;0.05179159;-0.09926844;0.03090996;-0.01362223;0.062831305;-0.032459933;0.059043586;-0.007164181;0.0597408;0.10113676;-0.010614302;0.063502826;-0.054865416;-0.0512168;-0.15048309;0.08091514;-0.06387234;-0.05537267;-0.0419557;-0.050934445;-0.0039619287;0.003608465;0.019611992;-0.033003744;-0.05838156;-0.06677082;0.05665285;-0.013886072;-0.011427857;-0.06504991;0.06421547;-0.039698962;0.029987305;-0.0008109256;-0.07708971;0.016352145;0.12966637;-0.06934328;-0.060701195;-0.061321538;-0.068520136;-0.025168177;-0.21092221;-0.020165438;0.013297073;-0.07390217;-0.10461308;0.049544666;0.04074491;0.0074185985;0.055089638;0.15372258;-0.06591397;-0.07323919;-0.08048988;-0.012502408;0.066931196;0.06642192;0.12359784;-0.03568082;-0.0667923;0.01015336;0.03206541;0.17932773;-0.055592015;0.013469715;-0.06013903;-0.056707907;0.011872102;-0.018896753;-0.0429759;-0.11331913;-0.070519134;-0.054538414;0.0033743216;-0.02067866;-0.037541613;-0.026924402;-0.017324235;-0.068046466;-0.09127349;-0.11963541;0.0014408791;-0.037921786;-0.05613589;-0.024026249;-0.059569694;0.11713944;-0.13848387;-0.032522067;0.020348134;-0.01730576;0.06744382;-0.010508612;0.06794233;0.011708412;0.046461966;0.067546465;0.06524511;-0.010427734;-0.0003248608;-0.04109719;-0.05883257;0.03993037;-0.05355835;-0.011831296;0.021213785;0.07524087;0.059659533;0.028741715;0.021295303;0.057246678;0.05387836;0.090790875;-0.033195976;0.09542964;0.024764173;-0.035929337;0.02665978;0.021078365;0.04830022;0.06068214;0.025467256;0.041895173;0.005853861;0.037718378;0.014160395;-0.027011132;0.022362325;-0.032782275;0.07748153;0.11079469;-0.08652359;0.064325266;-0.05806008;-0.025929127;-0.059510138;-0.029981792;0.008465753;0.10163469;0.06890271;0.035306454;-0.053764757;0.063526206;-0.012977546;0.07260382;0.13816138;0.0037597506;-0.08015332;0.06803176;-0.09038279;-0.062175155;0.101468444;0.0032994603;0.028934393;-0.019886712
0.03705718;-0.11300404;0.047948707;-0.012442289;0.06358338;-0.07717411;0.05950592;-0.0015786343;-0.105195016;-0.063217536;0.05891815;-0.013391139;0.050753694;-0.081043005;0.028545642;0.047789633;-0.12907024;0.005621763;-0.022918181;0.06138604;-0.046172746;0.036385883;-0.036129046;0.08655337;-0.0066771624;0.09595211;-0.01616604;-0.018802032;0.030095723;-0.063236274;0.002335599;-0.09580243;0.053109653;0.011897309;-0.010523774;-0.02806776;0.046186574;0.08619535;0.011710278;-0.055336755;-0.018872775;0.10012392;-0.010113754;0.011239584;-0.110619426;-0.020690713;-0.007607551;0.00025751384;0.07222374;-0.08986383;-0.1173842;0.10419799;0.05516288;0.13582852;0.053961564;0.05911099;0.023453815;-0.04033431;-0.010578687;0.08959708;-0.050477464;-0.03905719;-0.14012377;-0.057417244;0.07846021;-0.01615911;-0.076279424;0.13317578;-0.010570493;0.09019037;-0.018993326;-0.10190954;0.03301638;0.0027226964;0.026824767;0.033478253;0.070631415;-0.03566022;0.032216024;-0.04932341;-0.010734335;0.05394157;-0.05567288;0.022617204;-0.028830243;0.0002461818;0.003859832;0.019714938;-0.03628905;-0.08342397;-0.044705454;0.06345886;0.031750247;0.10857998;0.040571332;0.028226176;-0.09847325;0.016669922;0.06634601;-0.035874505;-0.032541756;-0.0058396435;0.08326832;0.036236368;-0.020131702;0.02823712;0.0075117177;0.04662293;-0.06770249;-0.05699723;0.07753668;-0.06347951;-0.053246643;0.06718996;-0.05879411;0.06942609;0.01318271;-0.056561176;-0.07204908;-0.023927554;-0.014251744;-0.060024276;-0.044224877;-0.078428745;-0.06327769;0.04963647;0.071171574;0.07521422;-0.07141257;0.08517264;0.04965302;0.060029447;-0.12769732;-0.110042766;0.025420709;-0.00989114;-0.075755924;-0.08132062;0.06560189;-0.048601232;0.11294237;0.047004566;0.08672354;-0.04230849;0.014684943;0.02870075;-0.0021030991;-0.024388645;-0.0012020746;-0.054938547;-0.082538724;-0.07239466;0.007710027;-0.14022656;0.05633216;-0.024802776;0.074949585;0.050855655;0.045687288;0.010557915;-0.02124258;0.002994733;-0.03112642;-0.021081595;-0.005077632;-0.07349031;0.060352128;-0.058772717;0.044812296;0.04511594;-0.048309088;0.0046673496;0.020028364;-0.07277559;-0.0027001335;0.029268106;0.0069474336;0.059140276;-0.061140154;0.046650674;0.034810603;-0.027146908;0.044314038;0.061719544;0.03000487;0.027953029;-0.08616177;0.09439546;-0.10430444;0.009101945;0.122509025;0.050835896;-0.07645001;0.03350387;-0.0009210101;0.078645416;0.035294946;0.12391545;-0.012358643;0.070514426;-0.025923751;0.15244345;-0.042761147;-0.003425671;-0.016096704;-0.054532424;0.062148333;0.044036463;-0.045320325;-0.0072486936;-0.1603226;-0.022601215;0.02648611;0.018669788;-0.06257321;0.045929532;0.0014409942;0.06265406;0.0026030755;0.009717679;-0.025960447;0.037992377;0.024504395;0.07275148;-0.046595298;0.02212776;-0.09497802;0.033440046;0.051640574;0.0011519399;0.05241868;0.032477967;0.028216578;-0.044320423;-0.06994022;-0.034324292;0.016838076;-0.025927024;-0.022348078;0.011201425;0.06550452;-0.01697269;0.023193827;-0.07630356;-0.071734026;0.045341734;-0.009747733;-0.058061063;-0.050768234;-0.048642933;-0.09060203;0.07169822;-0.06770108;0.07744144;-0.03336511;-0.07036956;-0.08109899;-0.030589497;0.033756655;0.018411802;-0.022014048;-0.04932185;-0.053264506;-0.060601078;0.07193215;0.014017281;0.06083658;-0.0008863731;-0.035150364;-0.008171655;-0.012628796;0.014380052;-0.052031692;-0.06006638;0.11470894;0.025495358;0.113504514;-0.058525145;0.052801855;0.07462389;-0.01183116;-0.029205862;0.066808216;-0.05797009;0.03812866;-0.012595758;-0.032588758;0.024779243;0.010818572;-0.0053098965;0.016936919;-0.0134813795;0.08636547;-0.0034545467;-0.04941952;0.04607321;0.08720305;0.031611234;-0.05183013;0.029802736;-0.062464852;-0.011664137;0.04735825;-0.12881434;-0.075886615;0.030752348;0.07876886;0.03889043;0.09466982;0.012667888;-0.033427965;-0.026575653;0.058071263;-0.0055983276;0.122639775;0.023845203;0.020996476;-0.101780966;-0.050223142;0.005483146;-0.012034695;-0.013640777;-0.030053986;-0.0018592146;0.03492828;-0.07497872;-0.07215276;-0.03130354;0.05193433;-0.05469949;0.08111606;0.06502948;0.046913974;0.021429613;0.086330295;-0.04298928;0.083482385;0.054764584;-0.06976789;0.038612206;-0.043160092;-0.12660713;-0.022378819;-0.058477037;0.02441718;0.076700985;0.026888128;0.050044265;-0.058787506;-0.049885612;-0.066085905;0.10951903;0.015520685;-0.08598293;0.02198293;0.050186016;-0.038201354;-0.08030342;0.038103703;0.074519806;0.0005252558;-0.062734075;0.03879994;0.059427682;-0.054123417;0.02505443;-0.08719433;-0.008610404;0.03224542;0.04512441;-0.010930885;0.010980794;-0.064984396;-0.024125539;-0.0014995474;0.048668534;0.044819262;-0.06961788;0.0051814322;-0.008061002;-0.047044177;-0.05945289;-0.038715985;0.027112033;0.034355365;-0.11213574;-0.076068744;0.068008326;0.052482083;0.030301189;-0.10887128;0.039146464;0.041621197;-0.07344385;0.040396396;0.07567892;0.07239689;-0.064825974;0.01301649;-0.034513798;0.07606916;-0.016861344;-0.07185535;-0.11193036;-0.04380826;0.064238474;0.026392348;-0.036866203;-0.026345296;0.018341318;-0.022078948;0.06928242;0.03676252;0.08887003;0.027421463;0.07081816;-0.023842297;-0.08721747;-0.0046084253;-0.085739076;0.053345554;0.02295397;-0.011732608;0.012694746;-0.025091097;-0.047833845;0.07658053;0.04592263;-0.067090966;0.079497695;-0.078667864;0.05417605;-0.02283252;-0.01560775;-0.070215285;-0.0040728697;0.01363344;0.07363711;0.038455594;-0.032032747;-0.10033995;0.034660675;0.043587133;-0.015760796;-0.012857511;0.09568186;0.05550451;-0.044659365;0.013218177;-0.024970697;0.055708542;-0.062266666;0.006211764;0.019468509;-0.02149842;-0.027836444;0.00635142;-0.096561536;0.08770775;0.03378967;0.0011865657;-0.055515997;-0.20625989;0.014597246;-0.021274533;-0.07763261;0.022160573;-0.04320077;-0.080679536;0.010297215;-0.0030340296;0.12967415;-0.020599533;-0.060831264;0.048338268;-0.033243984;0.0629067;0.02620652;0.031377066;-0.009838767;-0.07662328;-0.02471379;-0.034453876;0.03316756;-0.045409556;-0.12840757;0.01707932;0.013870897;-0.036224652;0.011288283;0.017593438;0.015658557;0.05245355;0.06964939;-0.056352813;-0.014819161;0.07216049;0.006084339;0.017380515;-0.019002706;-0.13880548;-0.121150516;-0.07019935;-0.026563287;-0.063029535;0.022777678;-0.02331569;0.030278517;-0.10910829;0.051790778;-0.0023142388;-0.08394053;-0.050113384;-0.025787696;-0.00025511405;0.04257711;0.06017469;0.007960417;-0.0032713148;-0.014217709;0.010872731;-0.020127943;0.04641558;0.081190266;-0.048416547;0.07815143;-0.01661549;0.018019306;-0.07640129;-0.083483055;0.05315763;0.06904611;-0.07234857;-0.030537657;0.03319838;-0.084124774;-0.06882399;-0.044442985;0.10605477;-0.058607187;0.032481328;-0.026393304;0.043870036;-0.01194926;-0.010752283;0.04671631;0.005612003;0.035218358;-0.059384033;0.02130505;0.012853541;-0.008144602;-0.0022017674;-0.028492672;-0.01682601;0.01458029;-0.01977154;0.005137227;0.0045548873;0.10620068;-0.06031648;-0.028758494;0.09090189;-0.03317203;-0.042525344;-0.014587729;0.064964965;-0.055227473;0.0670729;-0.04278913;-0.030214956;-0.056721065;0.017908685;-0.024112217;-0.06794848;0.026020737
0.047097806;-0.14608683;0.048320062;0.15722203;0.034285996;-0.0605886;-0.09381912;0.089858636;-0.034244817;-0.08447794;0.00401996;-0.09435495;-0.05051784;-0.036490075;0.038797423;-0.052111134;-0.027508324;-0.06528572;0.06642879;-0.020715589;-0.088761784;0.026289329;0.05405736;-0.03265863;-0.09051185;0.15965436;0.07262263;-0.050895136;-0.055832207;-0.12465636;0.04578649;-0.08136795;-0.07408594;-0.06577229;-0.051506687;-0.000410828;-0.0508828;0.050126463;0.06174759;0.015421713;0.051602412;-0.052595504;-0.11514359;-0.032716557;-0.08476566;0.008464001;-0.034076665;-0.09041016;0.06441862;-0.013567243;-0.18578368;0.017956428;0.016817031;-0.012729661;0.116918735;0.06295804;0.021313522;0.0709215;-0.08183769;-0.010094888;-0.09910689;0.018001448;0.012031805;0.042709474;-0.041168265;-0.011207503;0.0543902;0.23013724;0.018056829;0.006987969;0.009549082;-0.081910044;-0.03021681;0.046528436;0.020631654;-0.011550426;0.028088784;-0.15269615;-0.00091939775;-0.048619;-0.0443151;0.036469772;-0.027976844;-0.064468145;-0.08640983;-0.04784509;0.04639657;-0.018113434;0.044298496;0.03133266;0.03789397;-0.061152715;0.09411568;-0.057284515;0.04225957;-0.04920716;-0.09939139;0.059064828;-0.045190554;0.047868878;0.03230674;0.0887591;0.0019715163;-0.08946511;0.05573284;0.024651099;0.011988398;-0.077688426;0.004091726;-0.021580402;-0.0023543776;-0.10391526;0.044659834;0.113225766;-0.01494578;-0.035410784;0.0135986395;0.07613085;-0.047293883;-0.0069609703;-0.04420489;-0.09419463;0.029757507;0.03584574;0.10121325;-0.0027204268;0.075683266;0.009030675;-0.018397655;-0.0139867;-0.02900837;-0.020897454;0.08805082;0.030600715;0.03614705;-0.016726075;-0.013314774;0.007203469;0.061202478;-0.030120488;-0.044751152;0.041820914;-0.052647933;-0.038791366;-0.080147356;0.020213168;0.121979006;-0.07978405;-0.03618784;-0.029244104;-0.07829068;0.004076686;-0.01531154;-0.020255016;-0.0053008255;-0.10058305;0.029612843;-0.028142389;-0.034871425;0.042653177;0.065895915;0.030799724;-0.111346655;0.0030167256;0.065524444;0.030173521;-0.07047404;0.07291293;0.046458468;-0.01013735;0.07902961;0.059656445;-0.05163805;0.030222457;-0.062275726;-0.021650244;0.046193242;-0.015253113;0.01068231;0.0147947455;0.008071987;-0.0017924831;0.014358549;-0.02604391;-0.082384534;-0.010740013;-0.013479418;0.1266795;-0.08689258;-0.02743134;0.12497005;0.01889181;0.02076107;-0.04764189;-0.054397363;-0.07292867;-0.037682418;-0.06829557;0.07777912;0.045045044;-0.033510495;0.11176974;-0.030781057;0.04689889;0.0071304254;0.059843764;-0.111722715;0.034255713;-0.02258335;0.068784475;-0.022662297;-0.0020493863;0.04422779;0.058428813;-0.031319458;0.008111699;-0.0033369528;0.05190226;-0.026819851;-0.011556467;0.064592265;0.12120575;0.06779305;0.07478063;0.08294216;0.03661291;-0.1380402;0.12416036;0.138363;0.0131595805;-0.043843668;0.066242784;-0.06751849;0.05014461;-0.004317992;0.03434345;0.01596973;0.011626886;-0.030573305;-0.05800096;-0.014205995;-0.08860216;0.005134371;0.013642056;0.11829409;0.051544916;0.017581025;-0.13572729;-0.09728393;0.09564659;-0.028368648;-0.016803214;-0.05295848;-0.023166478;0.039444532;-0.047521725;-0.019992542;0.028129203;0.026500683;0.054368775;0.013263849;0.0070415516;0.027855106;-0.012737218;-0.009727064;-0.051627845;0.031303074;-0.035684787;-0.03810619;-0.008703004;0.06977921;0.016666932;-0.044221178;0.064635;0.024500301;-0.019843131;0.09263372;-0.042914722;0.05949862;0.0015454799;0.007575579;-0.0069007194;0.028165167;0.110856004;0.033271387;-0.036489706;-0.016310848;-0.035366356;-0.0771864;-0.018021824;0.027282404;0.04274402;0.029681552;-0.011414687;0.033482704;-0.0004207843;0.18119112;0.14848371;-0.064676635;0.09489592;-0.0966031;-0.027093118;0.0696188;-0.015625441;-0.002147499;0.04129451;0.08644119;-0.025484404;-0.020738427;0.057534195;0.08799175;0.1247812;0.017887603;-0.05181757;0.017478717;-0.012997581;-0.06425375;-0.059970386;0.03659845;-0.07793518;0.054519493;0.01642598;-0.059483226;0.03911858;0.021008069;0.003194487;-0.030586228;0.028265236;0.018526802;0.0065296493;-0.057648078;0.029481454;-0.047326706;0.039570425;-0.047787774;0.0024649662;0.0885003;-0.049021617;-0.030866573;-0.0030954322;0.08018022;-0.08799656;0.058022507;-0.2157165;0.045840815;0.07432973;-0.016472377;-0.030081717;-0.03982749;-0.05548832;0.009522029;0.17591271;0.09528361;-0.0048796693;-0.0053825104;0.08206507;0.021687008;0.05184657;-0.014206141;-0.004153345;0.021149617;0.06566567;0.029441187;-0.057717025;-0.073648326;0.06825432;-0.0025415435;-0.059015106;0.0032801095;0.036457367;-0.05392305;0.012303893;0.057902157;0.04391107;0.05166338;-0.030788593;0.03354162;-0.09079697;0.062087268;-0.017920926;0.030106958;0.04462101;-0.09155138;-0.06062512;-0.041817106;-0.06532664;0.008905897;-0.009557625;-0.053526986;0.089688785;-0.059848282;0.05958269;0.054532334;0.05964048;0.034755114;0.04899438;-0.038496222;-0.042118963;-0.014273142;0.022462176;0.08635179;-0.006408798;-0.10100201;-0.071160756;0.11332369;0.04174625;0.0032014318;-0.014088885;0.02980996;0.08380835;0.013625471;0.063106105;0.06444794;-0.07103028;-0.017965576;-0.0018897282;-0.08544696;0.08167542;0.02530522;-0.14951052;-0.01061685;-0.04380911;0.05060673;0.050759476;-0.042633846;0.12788647;0.0864921;-0.044057023;-0.069148175;0.07711234;0.025240945;-0.011195997;0.018927187;-0.026038235;-0.03729633;0.07691348;0.072195694;-0.08579267;-0.08244512;0.072437815;-0.07567024;0.08009731;0.043880798;-0.11847546;-0.054842405;-0.015294792;0.056195315;-0.078630775;0.10447407;0.014027594;-0.018468749;-0.03424204;-0.020650854;-0.011330151;-0.016544133;0.020145414;-0.013122334;-0.023490373;0.031693477;-0.013385433;0.020820525;0.01317387;-0.161495;-0.046798825;0.02354854;0.004152389;0.008267335;0.056407277;-0.093989015;-0.08583426;0.038696192;0.208308;0.027591413;0.011753617;-0.005817854;-0.0022307644;-0.0013153173;-0.04506523;0.056147397;-0.03752268;-0.04652741;-0.057036098;0.07008043;-0.04038926;0.02609807;-0.059137866;-0.06002818;-0.005666381;0.07960645;-0.018288286;0.07812912;0.02531192;-0.01370102;0.056977212;0.029359786;0.04603336;0.013845347;0.00014965697;-0.054022614;-0.05915798;-0.08518174;0.038625658;-0.009585613;0.017231818;0.032322202;0.009636348;0.07456019;0.018915506;0.03904635;-0.06759321;-0.053789448;-0.042302474;0.08051605;0.054959245;-0.029024199;-0.07629483;-0.07184065;0.041800015;-0.061785195;-0.0327555;-0.030098053;0.07176848;-0.054876056;0.020676412;-0.031116476;-0.07916914;0.055659596;-0.059729636;-0.006189889;-0.038845334;-0.0090867;0.017278744;0.073884815;-0.097465694;-0.042754423;0.0016295195;0.046935663;-0.07667767;0.013581075;0.08191407;0.015077253;-0.027330965;0.022730142;0.03141491;-0.06441519;-0.049638048;-0.045964114;0.028506206;-0.05298413;-0.043572094;0.04078376;-0.014219377;0.015107172;-0.031959668;-0.07564904;0.07477422;0.07177367;-0.04150531;0.027240457;0.18880679;-0.019091263;-0.030951101;-0.017472053;-0.06264516;0.06480604;-0.07568726;0.040157348;0.0011067727;-0.06758466;-0.084355585;-0.051323596;-0.09347774;0.14295636;-0.05631257;0.0025257121;-0.016665503
0.014838714;-0.029166907;0.08236624;0.09815297;0.06474789;-0.04818058;0.06756786;0.0067718993;-0.11646596;-0.0490679;0.0023836652;-0.07031324;-0.043894704;0.0100089265;-0.05476069;-0.052291837;-0.090589456;0.05984089;-0.011298096;-0.006414597;-0.040953703;0.04048125;0.01375855;0.022427242;-0.07033884;0.08612746;0.012675998;-0.07827892;-0.007985797;0.016305229;-0.011782904;-0.1656977;-0.029478794;-0.00462268;-0.058989782;-0.05265218;0.12067926;0.005044036;-0.037782438;-0.048076555;0.052936032;0.18972376;0.07546063;0.038534768;-0.081994034;0.026179017;0.053272583;0.015168182;0.015883068;-0.06832248;0.010625309;0.039677475;-0.052368633;0.08652452;0.11923532;-0.03927204;0.009341712;0.027825262;-0.07458497;0.08765252;-0.06820653;-0.028760254;-0.18004692;-0.08785655;0.012094995;0.08744218;-0.0064605125;0.11634018;-0.042154472;0.046270404;0.02702694;-0.15618435;-0.08743019;-0.089687526;-0.006381079;0.014354015;0.006688331;-0.10467157;-0.022941936;-0.047468185;-0.012369034;-0.068215854;-0.116065525;-0.06403487;-0.067404635;0.08169624;0.04162759;-0.025482658;0.03140863;0.049072795;0.0779146;-0.011705984;0.06867931;0.08671671;0.043478213;-0.0050182687;-0.12729271;-0.024302108;0.0034531825;-0.03578666;-0.041634575;0.0360121;-0.13002071;0.081134535;-0.05329424;0.027759178;0.050879195;0.038205422;0.032537825;0.007510509;0.026457818;0.046455815;-0.05146805;0.08107788;-0.060005173;-0.0157891;-0.058849744;0.001527445;-0.07638598;0.0015649432;-0.07864096;-0.08765921;0.054241326;0.041883945;-0.041972946;0.067059934;0.08024796;-0.085567;0.032748923;-0.052075464;0.034720447;-0.08273297;0.012472432;-0.046881225;0.14445832;-0.07390157;0.042273674;-0.02864478;0.053632073;0.054036;0.03608779;-0.0046634013;0.033187315;0.00043199;-0.049551465;-0.016132586;0.0799694;0.00025399815;0.025876878;0.0381634;0.01047312;0.044421326;0.059182733;-0.11475298;-0.097285114;-0.028322788;0.08618542;0.012734206;0.081770875;-0.041881002;0.040728044;0.06309835;-0.111074954;-0.070728526;0.065089986;0.028173935;-0.010360127;0.00850364;0.1287297;0.056756392;-0.0075414684;-0.017781327;0.052603524;-0.052165102;0.01739354;0.037745748;-0.019357342;-0.047885537;-0.06020467;-0.0949359;0.09977586;0.038241446;0.010580423;0.07339533;0.017040104;-0.018186359;0.0138818575;0.01643624;-0.017207308;-0.046779454;0.047469016;0.0608349;0.058411416;0.06515332;0.057640094;0.04001074;-0.08288159;0.0051080068;-0.02342374;0.0405561;-0.07145199;0.0611529;-0.051624756;-0.08040243;-0.020556383;-0.011431249;-0.01759854;-0.0128161395;-0.049712658;0.07266367;-0.011042875;0.036347613;-0.033959072;-0.05283349;-0.06541611;-0.081278585;-0.026225025;-0.005465605;0.036938716;-0.011580658;0.060286324;0.025163202;0.018958006;0.054826226;-0.072957985;-0.052029446;0.044913642;-0.023014756;0.104419835;-0.05840063;-0.019103412;-0.038172998;-0.0124444105;-0.039579667;-0.029817963;-0.063112415;0.049937163;-0.05670637;0.021162216;-0.07568557;-0.019252136;-0.08730272;0.040310934;-0.028690413;-0.027587874;0.06250756;-0.043488942;0.0056152414;-0.0053163865;-0.03297034;0.0059224116;-0.058815785;0.05918369;-0.025710965;-0.01822157;-0.05221712;-0.1679001;-0.08183497;0.057444394;0.04175859;0.00012140619;-0.075457394;-0.0035657592;-0.06476649;-0.06962449;-0.07118985;0.06623151;0.018892292;-0.07878897;-0.0014237858;0.13717838;-0.043345127;-0.03940994;-0.06277819;-0.077254444;0.016563734;0.10789344;0.021275273;-0.0467639;0.07393231;-0.1781915;-0.0176809;0.011193819;0.034240406;0.010575239;-0.035662614;-0.07406158;0.011862821;0.039494436;0.05030126;0.008112013;-0.056928392;-0.0039206613;-0.027308717;-0.021327054;0.113173;0.017222406;0.05909093;-0.06735753;0.02520227;-0.036564745;-0.012196768;0.0839974;-0.010627954;0.048525434;0.036160484;0.03450809;0.04678383;0.031646438;0.0014797262;-0.026464494;0.03991772;-0.06318804;0.082236454;-0.014354841;-0.0322098;-0.10509663;-0.09752019;0.028159613;0.1125896;-0.038351297;-0.0061613927;-0.04665847;-0.01540013;-0.014799242;0.04379543;0.034598775;-0.010189133;0.026912456;0.04950254;-0.07725537;0.016478172;-0.043337468;0.067670576;0.101287395;0.083905675;0.07528467;0.076875284;-0.08765099;0.031119522;0.06684882;-0.2082385;-0.06813271;-0.0616008;0.005029234;0.0054210075;-0.007730198;-0.011471709;0.041227188;-0.041367732;-0.067154884;0.033641886;-0.053168785;0.0017894112;0.0009580457;0.047516685;0.080646686;-0.01285049;0.08612902;0.042928588;0.052165613;-0.03516103;0.064248286;-0.055086482;-0.041577455;-0.028011302;-0.015608368;-0.04346051;0.06718356;0.042727023;0.025570946;-0.053356037;-0.036397975;-0.07274263;0.02739434;-0.11618607;-0.023307798;-0.1033174;0.0143383825;-0.073839195;0.0662822;0.0052156933;0.09645332;0.05831704;0.005816334;-0.09321062;-0.054775752;0.02518366;0.050848823;0.09241384;0.026451876;0.031991377;0.078573935;0.0055381423;0.118649594;0.09048678;-0.06865015;0.07686433;0.01133585;0.08853013;0.05322709;0.013875791;-0.10388941;-0.03402763;-0.011104665;-0.005883017;0.08340649;0.11808466;-0.048551474;0.015117125;-0.033134446;0.05574878;-0.045760103;0.02531443;-0.121530354;-0.07246484;-0.12306138;-0.15350549;0.040302794;-0.07083996;-0.00052906375;-0.08767056;0.06693637;0.03134995;0.034531593;0.074323006;-0.0652295;0.021076536;-0.06004907;-0.039562028;-0.030891506;-0.053183492;-0.0013745523;-0.001098853;-0.059898578;0.06778085;0.06861111;0.06368283;0.040047564;0.042384785;-0.122723944;0.06642628;-0.081652574;-0.095035285;-0.111784235;0.056619346;0.11569519;-0.057179786;-0.08521531;-0.007848428;0.027473418;-0.07661492;0.07659846;-0.032633804;-0.03031636;-0.009243963;0.032263704;-0.03605105;0.029278012;0.004244284;-0.022667717;-0.043818656;-0.06436377;0.05817977;-0.08189234;-0.028172376;-0.10521808;0.10760513;-0.049519658;0.06130782;0.052077875;0.004703911;0.024881948;0.033386875;-0.0955682;0.0036071872;0.07671954;0.006235422;0.14395207;0.030855104;-0.018475013;-0.04237056;-0.06229965;0.032022323;0.0062537426;0.08751533;0.0491016;0.03658969;0.103189714;-0.019430513;-0.012037919;0.027108025;-0.026149867;-0.06043094;-0.003906705;-0.105740845;0.058763485;-0.04804627;-0.0042288667;0.036709063;-0.11151579;-0.09973619;0.03650918;0.07381319;-0.074133486;0.06958766;-0.07006112;0.07986709;-0.1480087;-0.046604384;0.08101892;0.053113967;0.057592634;-0.06424058;-0.0072703916;-0.018734649;0.04579191;0.07192876;0.060829844;-0.09008776;-0.05831641;0.01527515;0.046331152;0.061719242;-0.029692916;-0.05249054;-0.06282492;0.0001681741;-0.083017394;0.0032161716;0.0028159902;0.075031005;0.05163783;0.029963814;0.13789104;0.05936158;-0.026506614;-0.02898715;-0.0003111413;0.014893868;-0.008024279;0.044561528;0.034575477;0.08695411;0.031695;0.011630242;0.059550676;-0.04919349;-0.011128318;-0.002184495;0.0810685;0.055736154;-0.08798426;-0.08092704;-0.020038543;-0.049051717;-0.07875717;-0.007059779;0.00186122;0.13219142;-0.02962666;-0.048604444;0.059887864;-0.020610113;0.06794609;0.05655829;0.033442866;-0.079219624;-0.021457525;-0.08094585;-0.06459966;0.0056748074;0.13283592;0.018327659;-0.0636476;-0.061756007
-0.049608037;0.010108137;-0.029361898;0.10926685;0.027901083;0.017189734;0.017692864;0.021221744;-0.18112303;-0.04131908;-0.06469263;-0.034254044;-0.047704767;-0.060933113;0.065985516;0.028050885;0.013633417;0.029679405;0.06918425;0.061354853;-0.09887785;0.1093194;-0.013732839;-0.039761502;0.07145946;0.0671326;0.08234118;0.007936854;0.0046681287;-0.039872177;-0.04117994;-0.13263045;-0.041984443;0.08071093;0.070652485;0.03742594;0.1443355;-0.051845774;0.026567513;-0.05770397;-0.042026427;0.11049182;-0.03477815;-0.017046146;0.01786236;0.012799128;-0.0015782253;0.034099225;-0.052560646;0.03819372;-0.11783303;0.09733442;-0.0007393019;0.1226319;0.07037045;0.051594555;-0.046775367;0.043672875;0.06710622;-0.0039873025;0.005573251;-0.029294543;-0.15169474;-0.028454274;0.044729285;0.012219224;0.06075632;0.14331675;0.053301565;-0.026174126;0.029619498;-0.14601757;-0.017886888;0.08801798;0.062401157;0.062733196;0.06250991;-0.07840892;-0.07927372;-0.060903274;-0.049903974;0.06176536;-0.102398075;-0.046418708;0.059712682;-0.027371192;0.061136525;0.0069342246;0.059601292;0.04164841;-0.040428717;-0.045247216;0.06942261;0.066365905;0.05086269;0.052612185;-0.14981987;-0.0001764968;0.07164378;-0.0183801;-0.07167158;-0.041736595;-0.027026612;-0.075301625;-0.05882514;-0.011422734;0.047563452;0.037375946;0.04835634;0.048455358;-0.019662857;-0.08253643;0.025233455;0.08718276;0.06288005;0.057878196;0.03885389;0.023834672;0.036442365;-0.106384285;-0.08002617;-0.024493795;0.042478893;-0.056842614;-0.024382537;-0.023580099;0.005774353;0.023123685;-0.03381288;0.01814177;-0.036059458;0.016660176;0.04332874;0.021337196;0.019720716;-0.036107183;-0.05874661;-0.042827036;0.14033103;0.052700374;-0.0118852565;0.03954299;-0.040612165;-0.059140112;-0.0008620431;0.03916224;-0.0072804242;0.07329265;0.061943997;-0.086564794;0.05727866;0.09398446;0.0029222174;-0.14789107;-0.14013983;0.009762474;-0.035645436;-0.026379216;-0.05847156;0.00082416984;0.043920066;0.07887531;-0.14699654;-0.031089455;0.030449944;0.0630547;0.038123064;0.0658237;0.08029702;-0.041883152;0.045310713;0.043899186;-0.029537214;-0.06602487;0.0029063837;0.064687096;0.06592941;-0.003850964;-0.15636934;-0.017654153;-0.010904625;0.04686627;0.0045550657;-0.014869896;-0.010690594;0.068522386;-0.06432911;0.0333282;-0.031661294;0.011963477;0.029305784;-0.060845878;-0.0032239982;0.12778513;-0.07632579;-0.05735642;0.014651679;0.056967057;-0.00904013;-0.010443151;0.056100663;0.064116105;0.043359507;-0.04816681;0.03153415;0.04103496;0.042031147;-0.029468186;0.06334038;0.08080906;-0.06642392;-0.082410276;0.0256729;-0.016776793;-0.014369652;0.0844545;0.04256437;-0.05514343;-0.050504517;0.015101136;-0.023834651;0.022619141;0.020663964;-0.032301225;-0.05648568;-0.055478323;-0.07349942;0.1122257;-0.03629875;-0.006772573;-0.050724294;-0.04534552;0.04182541;-0.08310519;-0.030618034;0.074657425;-0.00708055;-0.013948624;-0.028135;0.0021287147;-0.071082205;0.015567569;-0.07980087;0.010250022;-0.0394706;0.03433611;-0.06526515;-0.025250003;-0.023264011;-0.03712809;-0.055971894;-0.027140848;0.021694638;0.031215565;-0.096268095;-0.08905918;-0.02837213;-0.006110906;-0.022882765;0.07135658;0.06124498;-0.016041879;0.05856575;-0.056820262;0.01568718;-0.028529411;0.043690212;-0.0021027867;0.02259403;-0.029443748;0.13386463;-0.050382365;0.042472817;-0.018993724;0.08291307;-0.009490908;0.0992265;0.043041635;-0.124896094;0.056153532;-0.034944177;0.1101539;-0.07512482;-0.02025372;0.06594126;0.014039812;0.051631585;-0.03512291;0.027731128;0.022758966;-0.1325516;-0.059148468;0.026177013;-0.03580978;-0.064559795;0.026468687;-0.0116645945;-0.029744765;0.020803858;0.1028058;-0.0023216493;-0.007866099;0.04578612;-0.03322654;-0.055778384;-0.09240017;-0.06303938;-0.07119337;-0.040582176;0.08095393;0.0030263462;0.114606045;0.01232638;0.06030248;0.090187155;0.036546037;0.03101859;-0.030070242;-0.027795441;0.07145867;0.016515436;-0.04734602;-0.018096238;0.0014480755;0.05420288;0.0647405;-0.055779733;-0.0322803;-0.027701765;0.06615114;-0.0907772;0.051162943;0.040866494;-0.013204213;0.114176966;-0.035802312;0.03505363;-0.056322355;-0.047700174;-0.09459286;0.016558675;-0.13206431;0.045997523;-0.15653574;-0.031972423;-0.023278914;-0.0067335293;-0.09433932;-0.020799706;-0.015920883;-0.18058884;0.10530462;0.054217905;-0.076356664;-0.07598481;0.055958424;0.032603335;-0.035004426;-0.025550634;0.061017312;0.04816686;-0.024610464;0.08305798;-0.042697176;-0.07607293;-0.005384596;-0.079062514;0.07411865;0.08048511;0.05234195;0.018345868;-0.017819365;0.06263199;0.05944539;-0.033100113;-0.044999953;-0.009331785;-0.0365377;-0.010915436;-0.02541167;-0.007687248;-0.08983518;0.0042454707;0.035610583;-0.05010308;-0.09202035;-0.011955031;-0.028936096;-0.035819247;-0.05993703;-0.116086036;-0.07841537;-0.031732466;0.05701643;0.061887633;-0.020584747;0.07234401;0.08199884;-0.009605469;0.016943661;0.11242213;0.047748405;0.03095658;-0.02791541;0.041320737;0.014887657;0.036566373;0.09691964;0.052032683;0.06504121;-0.07260001;0.038526762;0.018014653;0.07015707;-0.050917935;-0.035194498;-0.16004342;-0.009362883;-0.009948912;-0.1731514;-0.031741027;-0.02178117;-0.0055358615;-0.064288996;-0.0655131;0.040346663;0.06531777;0.0009113046;-0.051908754;-0.072984695;-0.06481455;0.079618394;-0.009325452;0.0077115805;-0.10244473;0.0684782;0.02666545;0.060306497;-0.03389238;0.043116674;-0.005887093;-0.014280783;-0.024554428;-0.10537379;-0.1236702;0.10960798;-0.049760528;-0.04644402;0.07210956;0.014584283;-0.06039307;0.05676641;0.07686476;0.047676295;-0.16671804;0.053704746;0.0424281;0.03578797;0.0022310968;-0.029526543;-0.0070593893;0.035533;-0.05463594;0.1257487;0.038192924;-0.06453763;-0.10883178;0.09528737;0.011239744;-0.06627241;-0.03694175;0.15049517;0.07525783;-0.044474285;-0.098687194;0.01529612;0.06552737;0.09078238;0.12434734;-0.0646524;-0.048395645;-0.03194759;-0.0023002443;-0.09418547;-0.043299537;-0.04745403;-0.07694859;-0.011976282;0.10599666;-0.052354727;0.07750288;0.046417337;0.0060171094;-0.038174897;-0.031183826;0.065340884;0.022180814;0.03720141;-0.035705704;-0.011534839;-0.12629506;-0.09744866;0.083211;0.026224054;-0.040962946;-0.00954228;-0.06511548;0.051875394;-0.10158855;-0.06592197;0.03453195;0.05708434;-0.03342595;-0.065481976;0.086461805;0.05322169;-0.02231488;-0.069615245;-0.046887312;-0.0004661669;-0.06044104;0.0053401147;-0.03392001;0.012837981;0.039025113;-0.06357625;0.0693047;0.008709907;-0.004250887;0.0027236873;0.06654339;-0.054564;-0.06286055;0.07104088;0.0333208;-0.06958362;0.053919613;-0.032724723;0.09987961;0.065976;-0.05837416;-0.06952967;0.06420015;-0.00064767455;0.055952273;-0.010554942;0.13142861;0.028316796;-0.03336947;-0.04981448;0.07455259;-0.024896454;0.017878743;0.037098017;-0.06439128;-0.06706133;0.07371768;-0.02862594;-0.06158731;0.11374248;-0.049468096;0.036832824;0.087953866;-0.049057353;-0.042370893;0.036033206;0.063466705;0.055844624;0.072312586;-0.05636275;0.028995061;0.02543158;0.1243063;-0.035249084;0.06146254;0.0005966978
-0.009478021;-0.061235186;-0.049987186;0.05442991;-0.004857869;-0.0032774461;0.0026536023;-0.06214837;-0.09747561;-0.0038447937;-0.0065743886;-0.037555628;-0.05191107;0.09154324;-0.0069374973;0.03348098;-0.06401826;0.11946589;-0.03818181;-0.059160125;-0.0115019865;-0.020163268;0.032718115;0.041939586;-0.04981099;0.08435585;0.06491743;0.04556364;0.020612776;0.03737931;-0.009735661;-0.0678676;-0.020157421;0.09375467;-0.048847675;0.05312569;0.060939755;-0.08047668;-0.068892285;0.05339204;0.04738238;0.1278718;-0.016129924;-0.024657438;-0.06751246;0.085358165;0.010738971;0.0106139835;0.073201366;-0.018424341;-0.08286353;0.11500518;-0.071756266;0.110454895;0.07564512;-0.07845691;0.06647778;-0.0114747975;0.018397383;-0.048436377;-0.08705506;0.05845486;-0.068150334;0.034995545;0.07316251;0.14962569;0.083069615;0.06238334;-0.04720249;0.068275884;0.0087256655;-0.070261516;0.057950944;0.053060107;0.07550318;0.022389468;0.07085328;0.009144084;0.0029346584;0.0113880485;0.012894924;-0.045350116;-0.06609329;0.053537607;-0.039609153;0.118456855;0.01587751;-0.001957575;-0.10323283;-0.037791416;-0.050286286;0.019989343;-0.090240285;0.06007911;0.092560336;-0.009087544;-0.16957851;0.02402314;-0.076766334;-0.0075536915;0.06383384;0.060666785;-0.12837887;-0.0043319524;0.025671035;0.073031485;0.0714707;-0.031060725;0.066882946;0.03269412;0.07937043;-0.020632295;-0.04390877;-0.07389966;-0.10629014;-0.06408036;-0.018811433;-0.052329537;0.05876022;0.05396397;-0.10935367;0.059772253;-0.06557586;0.022945289;0.037648678;-0.06750841;-0.032055967;-0.09899342;-0.04290348;-0.049130242;0.038287573;0.04089816;-0.07439551;-0.16400105;0.11738132;0.011754958;0.06092028;-0.03923067;-0.031533975;-0.0031305659;-0.04843581;-0.0639526;-0.0664188;-0.04178326;-0.019851616;-0.0289273;0.0517725;0.08860892;-0.06375618;0.019820418;0.0010587234;0.09306187;-0.09134499;-0.14338374;-0.06322021;-0.044203997;0.04669486;0.040376674;-0.08792557;0.08142888;-0.029592859;-0.05928009;-0.04544064;-0.026207646;0.016114438;0.07946922;-0.0075169415;0.021492807;0.056758065;0.033366017;-0.03215784;0.065882176;0.02550232;-0.09035887;-0.051091835;-0.031941604;-0.022948978;0.07107901;-0.103242986;0.004650986;0.0034165445;0.051750805;-0.0576687;-0.0733666;-0.04288807;0.06991662;-0.050101336;0.10499169;-0.091371395;0.0519985;0.06242945;0.015579686;-0.00789162;0.036121238;-0.00011897569;0.007501528;0.031226598;0.046721105;0.058749065;-0.08725295;-0.06681609;-0.022380058;0.08348555;-0.05945854;0.049341977;-0.0561715;0.03236847;-0.053284332;-0.07492127;-0.0061143283;-0.09739937;-0.027272895;0.03669108;0.1472189;-0.077893905;0.0171447;0.06992343;0.063671194;-0.06695366;0.0033960117;0.02173494;0.05754989;-0.0009057515;0.08872513;-0.02028122;-0.0068842634;0.036920324;-0.05075672;-0.040158883;0.008082381;-0.0068571055;-0.06900356;-0.06501336;0.04226567;-0.0109769255;0.08065042;0.037949674;0.073335364;0.012295561;-0.06580116;0.0132196145;-0.10866525;-0.022378394;0.031426065;0.031676296;0.10014785;-0.06668832;0.04971961;0.027830599;0.05203254;-0.103698984;0.058567975;0.06431442;-0.057391312;-0.0519117;0.009140099;-0.0661472;0.017980421;0.01000263;-0.056750637;-0.034228977;0.053494893;0.027184894;0.045892075;-0.07067885;0.05701842;0.06628336;0.02150238;-0.05940281;-0.02461674;0.049291294;0.028692147;-0.08353097;0.004887181;-0.07449485;-0.0045524654;-0.04316787;0.04155075;-0.060986813;-0.07027848;-0.08003866;0.028946832;0.037340395;-0.09737163;0.05855761;-0.028789029;0.063806035;0.08647618;0.030068891;-0.076855436;-0.12128069;0.0038547853;-0.04717828;0.03268893;0.0010119522;0.008238952;0.09645353;0.082220726;-0.020802705;-0.0075056227;-0.11042573;-0.030037498;-0.034331016;-0.006230667;-0.08429338;-0.09520687;-0.029986728;-0.01969415;0.033815008;-0.02369231;0.011251473;0.10121101;0.021721967;0.109903134;0.0016813717;-0.09137388;-0.12209646;0.0036188131;-0.0051024426;0.13593172;-0.050611004;-0.07890154;-0.040235933;-0.008090292;0.055254113;0.014957487;-0.07443698;-0.04939247;0.029121885;-0.018653575;-0.113142945;-0.0597269;0.045202892;0.09604947;0.057163987;-0.067852914;0.031317193;-0.12442191;-0.10171524;0.03386059;0.073499806;-0.12635411;-0.039734416;-0.13651729;-0.044070408;-0.034401607;0.045815077;-0.014467996;0.05231071;-0.07812967;-0.21213244;0.07742272;-0.014569314;-0.033003174;-0.10977005;0.037570912;-0.061782677;0.038579863;0.074018486;-0.062876426;-0.08066154;-0.054696333;0.06004517;0.0035647925;0.0150738675;-0.080329254;0.0011476339;-0.06414091;-0.039920226;0.06273118;0.0016665827;0.009469176;0.057021752;0.023907972;-0.0128386635;-0.10998994;-0.057846356;-0.09117378;0.019784026;0.023605922;0.022290993;-0.059531357;0.08454269;-0.007406508;0.023419898;0.0052290917;0.022398302;0.04217304;0.088612445;-0.04159606;-0.022966003;-0.021707004;-0.061447848;-0.059361335;0.11240206;0.035243813;-0.02045131;0.03975787;-0.0646167;0.12087957;0.030962402;0.06630529;-0.018502774;-0.078543484;-0.009370319;0.042558536;-0.031212868;0.0972468;-0.03360742;-0.021691924;0.05006047;-0.04284441;0.0046414365;0.110959895;-0.0010347045;-0.036548126;-0.14471616;-0.116089195;-0.03573862;-0.10680915;-0.0028926227;-0.10813177;0.016442494;-0.04382168;-0.055702623;0.016463106;0.0074027786;0.037456222;0.09168644;0.047956064;-0.08370501;-0.05053482;0.061330464;-0.008335452;0.048432022;0.15690364;-0.016442198;0.031618636;-0.0036268558;0.07290321;-0.061955243;0.08206061;0.048268408;-0.07647658;-0.10021177;0.15040076;-0.004182265;0.03282921;0.048587173;0.05190349;0.074312784;0.05939779;-0.057977878;-0.016107066;-0.13570194;0.05975813;-0.06376154;-0.011804902;-0.044596516;0.029917054;-0.072711766;0.054725643;-0.18069696;0.10950517;0.03194936;-0.05794452;-0.16978353;-0.040389232;-0.0037808635;0.0412356;0.008887816;-0.01665707;-0.020127775;-0.015860924;-0.007499716;0.05962696;0.100457564;-0.026357047;0.110402964;-0.020010954;-0.102328524;-0.044986565;-0.053803775;-0.12300004;0.07329017;0.042366605;0.06921584;0.00061212457;0.09729042;-0.07613584;0.054029334;0.018886602;0.03850826;-0.0571019;-0.017094988;0.060503826;-0.05178953;-0.0070178467;-0.028569793;-0.021658547;-0.026884276;-0.14814124;-0.05855902;-0.06346718;0.023402534;0.03297727;-0.038396038;0.11208739;-0.018426068;0.00034151398;0.019496875;-0.018929528;-0.070995204;0.087067015;0.05190452;-0.045543935;0.014869154;0.05414662;0.08172752;-0.11109433;0.036176417;-0.035931878;0.034116406;0.05794558;0.05179202;-0.05242641;0.081332944;0.051874787;0.040189035;-0.11148211;-0.0235041;-0.053273905;-0.067613244;0.044592585;0.076672375;-0.069570646;-0.012886178;-0.05600752;0.08788776;0.024026612;-0.036828857;-0.06693451;-0.026339611;0.09673913;0.07149803;0.015772115;0.014680691;-0.054155163;0.020369701;-0.0750148;0.0024580345;0.08173903;0.081202425;0.06743564;0.09078027;-0.048464548;-0.025968721;-0.025381818;-0.13972592;0.02057092;0.041639026;-0.07599254;0.03955979;-0.032334197;-0.08657123;-0.022468422;0.106203325;0.010403439;0.004826703;0.06667123;-0.083466746;-0.00878176;-0.010297532;-0.053389627;-0.050860994;0.018968292
-0.03115388;-0.0009844142;0.052873068;0.19210692;0.08966994;-0.083943434;-0.0025369287;0.05003221;-0.035962306;0.088749126;-0.06052899;0.031401962;0.07292753;0.012650394;0.032602612;0.04157044;-0.034334254;0.02832888;-0.013004791;-0.008822834;0.04454488;0.019546982;0.0058471845;-0.00251585;0.099428155;0.072300814;0.02767054;0.090955555;-0.12503983;0.007627781;0.016895901;-0.16829337;-0.022163162;-0.02941728;-0.0147883585;-0.0014252146;0.0893473;-0.08287387;0.002956606;0.029184792;-0.059255663;0.10557384;-0.04918477;-0.013514254;-0.027274419;-0.054603107;-0.015228021;0.022691287;0.07966786;-0.17630409;0.006606166;0.104119554;-0.037920713;0.10169452;0.105118796;0.049607098;-0.052737854;0.050607603;-0.05375934;0.013210525;-0.009021277;-0.025811424;-0.06827367;-0.07936345;0.08925619;0.07843121;0.060435813;0.061447952;-0.060851656;-0.053575832;0.028033277;-0.066925064;0.09114944;-0.06229649;0.08306534;0.014366987;-0.022115968;-0.025370086;0.08865985;-0.057613317;-0.07805933;-0.06550298;-0.14875185;0.061013583;-0.018873338;0.08839656;-0.09749062;-0.07878365;0.0092425365;0.0069549615;-0.032190476;0.0065914667;-0.012886097;0.09705834;0.021435734;0.057852633;-0.05781403;0.045471355;-0.0407625;0.10189487;0.05011597;0.025957415;-0.040732853;-0.05447855;0.050555043;0.067231216;-0.055101242;0.06397669;-0.037293036;-0.051329505;-0.09189915;0.04424788;0.09185183;0.04303739;0.019050771;0.06870295;0.046605445;0.014353857;0.011119935;0.03571457;-0.057308037;0.06294447;-0.090720035;0.07594324;-0.08076059;0.0046402463;0.022306764;-0.06261719;0.08698142;-0.08300261;-0.0036702906;-0.067596026;-0.03684154;-0.1485555;0.14268944;-0.00203365;-0.08119954;-0.06593876;0.10090237;0.11116822;-0.038273375;0.014802239;-0.058849983;-0.06497257;0.042916756;-0.019861614;0.013321669;0.027536742;0.031915143;-0.13373841;-0.07420609;-0.01837625;0.04026495;-0.17906924;-0.1623206;-0.036792267;0.082862884;-0.03815314;-0.021405458;0.022817595;-0.0802073;-0.010059481;-0.037507817;0.035545833;0.0027599062;-0.04111519;0.07951611;0.05959403;0.000707449;0.09967816;-0.031477302;0.08518545;-0.0210135;0.07017505;0.086069904;-0.056944348;-0.064529546;-0.053085286;-0.08379851;0.088360034;0.07178889;0.006339539;-0.00395068;0.023831923;0.017324135;-0.026453856;0.02277232;0.12596233;0.031619456;0.054352205;0.09550583;-0.055150677;0.012472627;0.11279452;0.033297352;0.095321245;-0.04819994;0.08920604;0.004202608;-0.09808795;-0.08030128;0.0017084556;-0.0535277;-0.052470297;-0.033178024;0.11393547;-0.09178705;-0.010516628;0.054706037;0.10183583;-0.07629224;-0.0035050402;-0.020630943;0.05739043;-0.004276529;0.046379656;-0.05702367;0.08123686;0.058129027;0.03843955;-0.010680728;0.05412544;0.008158811;-0.05847237;-0.076621704;0.063122444;0.005257542;-0.054116353;0.011529617;-0.020208618;-0.05587276;0.021670172;-0.00025676348;-0.054691244;0.045488592;-0.047205176;-2.3825476e-05;-0.05213742;0.005820501;0.016650613;-0.0057509104;-0.029033747;-0.067265086;-0.08128271;-0.09168482;-0.041226897;0.01659475;-0.06381107;0.05378805;-0.056554355;-0.11877459;-0.07701999;-0.058341227;-0.089855626;-0.035853963;-0.0246424;-0.09904284;-0.028196713;0.09076264;-0.061003167;-0.039825242;-0.071926795;-0.027440106;-0.06312179;0.07828698;0.053986177;0.015690975;-0.022604965;0.0076381103;-0.084820755;0.14354783;-0.10253566;0.07799019;-0.09058504;-0.022385314;-0.07091429;-0.0554528;0.038565185;-0.021104319;-0.01925977;-0.09009016;0.054704707;0.04412789;-0.01943123;-0.061923802;-0.07025938;0.08689132;-0.040596355;0.07302646;0.008755531;-0.03169252;-0.007427256;-0.036214903;-0.050837506;0.03280865;-0.090477124;-0.037916455;-0.019015368;-0.05316989;0.046593998;-0.009215566;0.013624325;0.05600004;0.04229212;-0.021179076;-0.037775107;-0.0024702323;-0.019139385;-0.021654097;-0.007980172;0.009141671;0.005736842;-0.043326724;0.0013767884;0.10497134;-0.077095255;-0.0054722084;0.05963035;0.044449378;0.11389715;0.031016983;0.0054565975;-0.010813198;-0.10271141;0.023674;0.07786836;-0.09789291;0.0064943437;-0.061562;0.09783307;-0.04208534;-0.14232133;0.032326777;0.078092396;0.09793545;-0.05296006;0.018976439;-0.08438752;-0.15391639;0.0432108;-0.0042131403;-0.041116625;0.063913606;-0.16834007;0.0030855576;-0.050665848;-0.039161574;-0.06803895;-0.08598909;-0.051899843;-0.22196648;0.09164582;-0.04253326;-0.025454324;-0.063059255;-0.06281288;0.0063016475;0.058619197;0.08421632;0.028483456;0.012659979;0.028849203;0.0446773;-0.060975518;-0.057094384;-0.046650894;-0.016787624;-0.054487042;0.037405714;-0.06366546;-0.013081994;-0.09974973;0.011151166;0.0720475;-0.0016164301;-0.09430945;0.010958211;-0.009871368;-0.05327334;-0.052575763;0.032163363;0.06608781;0.11850387;0.0027183364;-0.058425497;-0.08393506;0.07921922;-0.06466089;-0.04602404;-0.03216994;0.07625387;-0.106213406;0.032379963;-0.042015783;-0.005350509;0.04490952;0.042045332;-0.010085883;0.011375106;0.04442764;-0.022228345;-0.05285841;0.09760884;0.03961687;-0.008346475;0.042937804;0.088088654;-0.015302772;-0.06601749;-0.053190403;0.0140373185;-0.010293268;0.12715177;0.06625776;-0.060106482;0.015973957;-0.10801835;-0.1465474;-0.060340982;0.02884799;-0.044573627;0.03983524;-0.06565063;0.053502128;0.058011543;0.0893869;0.012084436;-0.04130109;0.029452432;-0.061190892;-0.04255634;0.015541918;0.08259824;0.045978475;-0.048251048;0.11028675;0.004739037;0.09065193;-0.018360408;-0.033633485;-0.016951932;0.096240215;0.048711993;0.039175857;-0.09761301;0.14703876;-0.043882817;0.1301175;0.018390046;0.08942878;0.06266106;0.028525492;0.08403736;-0.1007032;-0.118898064;0.035705376;-0.06948308;-0.024871616;0.060886394;0.032348044;-0.048308175;0.011302547;-0.13366911;0.093041375;0.022515401;-0.04260086;-0.04104451;-0.02955421;0.046242014;0.046474885;0.03681856;-0.080147296;0.08089041;-0.07092201;-0.025628684;0.0029123528;0.03553758;0.04830599;0.022990339;0.057256468;-0.03886646;-0.04621795;-0.065025315;-0.012618209;-0.017794944;0.046578456;0.04937208;0.029890647;0.014943773;0.03335639;-0.030829094;0.073643364;-0.0038557916;-0.022344144;0.06714874;0.052175067;0.026988866;0.039595854;0.090251595;-0.043144107;-0.11438657;-0.046224855;0.07970091;0.04424181;0.07773429;0.044912226;-0.086962245;0.048877597;-0.017007872;-0.06078332;-0.049198993;-0.0027800994;-0.033629417;0.033448104;-0.012868961;-0.03193895;-0.056643527;0.031844083;-0.010441397;-0.06018981;-0.006568998;-0.053513613;0.050780617;-0.062186055;0.039948925;0.08080102;-0.008546194;-0.008168414;0.05276845;-0.06959211;0.021648098;-0.040611375;-0.008404039;0.09120715;0.15782537;0.01901526;-0.033186454;0.04394791;0.13065466;-0.047416326;-0.04366966;-0.07903965;-0.06837338;0.14006367;0.08635237;-0.04622945;0.08090376;0.007682869;-0.0389339;0.011842152;-0.031249788;0.01097431;0.011937371;0.04218462;-0.005211386;-0.0744132;-0.05427603;0.06163545;0.0016852178;0.037524376;0.021270378;-0.03443136;0.0792872;0.052809723;-0.05757875;-0.09220805;0.07050501;0.06409452;-0.019790202;-0.017994406;-0.10574113;0.08408277;0.056224033;0.027490322;-0.014267971;-0.049391016
-0.017983723;0.02535955;-0.009967119;0.14382572;-0.03136888;-0.005269717;-0.006075574;0.0811638;-0.00842039;-0.06583642;0.057441596;0.03547299;-0.032349654;0.02929775;-0.0003520966;-0.06451231;0.021681156;0.11084335;0.03449843;-0.06916876;0.04154307;0.019152759;0.055619262;0.05062317;0.08696103;0.14349489;-0.08217241;0.016069613;-0.111487664;0.05562273;0.0036533035;-0.048042465;-0.07648448;-0.16087115;0.047901742;0.012641745;0.07457538;-0.139686;0.05360639;0.011213126;-0.061793614;0.09159367;-0.036142066;0.012582751;0.009371407;0.051174913;-0.046316236;-0.06409836;-0.052524872;-0.094050646;0.03327023;0.2070834;-0.017425498;0.03910099;0.052733544;-0.012537038;-0.04392241;-0.07538381;-0.05361388;-0.10644041;0.02080825;-0.02896921;-0.046636824;0.009178914;0.009013637;0.022196941;0.09284864;0.14217359;-0.08399076;0.028776119;-0.030465124;-0.12763251;0.021599747;0.044037793;0.077538185;0.04503253;0.065606534;0.048730567;-0.07351917;0.004519421;-0.02921216;0.071262255;-0.04196498;0.05804016;0.040160738;0.121380284;-0.06589777;-0.087801084;-0.0329697;-0.013788313;-0.084289104;0.012058812;0.06268397;0.030099556;-0.063103005;-0.018740965;-0.15347746;0.019535903;0.0043457653;0.072625995;-0.017392354;-0.022907022;-0.015359141;-0.01343371;0.010022845;-0.0015254911;-0.037420258;-0.0062215165;-0.07336038;-0.07011223;-0.05356038;0.04105324;0.03481475;0.0732134;-0.065116964;0.10312935;0.12995443;-0.11149686;0.05061964;-0.01671718;-0.118573464;-0.0607683;-0.086333625;0.06795239;0.043656655;0.07447906;0.05009146;-0.070033595;0.040955614;0.047198456;0.0062452783;0.07169801;-0.0916663;-0.094809085;0.0049019316;0.077089064;-0.06128252;-0.12930423;0.07654549;0.0017714233;-0.088357426;0.011142895;-0.091403775;0.021233445;-0.06657451;-0.0077398745;0.10216445;0.024581904;-0.008210267;-0.10104063;0.024115255;-0.048590764;0.006477991;-0.14315912;-0.15916583;-0.14642055;-0.07607861;0.030881258;-0.0858026;0.05430998;0.07290973;-0.069643;-0.048784826;-0.039473232;-0.044630937;0.032516103;0.041356057;-0.022688223;0.011055065;-0.0063039395;-0.07978017;0.07449375;-0.073285244;-0.03408214;-0.003236262;-0.01954277;0.027187767;0.09573777;-0.098506406;0.06345245;0.030745419;0.041824885;-0.013605107;0.00483525;-0.11771766;-0.088251926;0.017539654;0.039110377;0.067879364;-0.024478378;0.0858411;0.030453973;0.03601413;0.0964311;0.031711634;0.00884476;-0.046738204;0.11062015;-0.010874047;-0.060399517;0.028470905;-0.10531735;0.027316159;0.053473912;-0.04936148;0.07262832;-0.014229142;0.09356239;0.03473835;0.08375089;-0.03962544;0.079295844;0.07454162;0.09425453;-0.038956262;0.033266865;-0.07691338;0.027997347;-0.0608774;-0.06400092;0.022628995;0.074915655;0.054410413;0.0733061;-0.041972667;0.0032759004;-0.004374053;0.05139982;0.0096032;-0.07725796;0.044181295;-0.0018852438;-0.055416834;-0.085376546;-0.016770495;0.04564156;0.08094782;0.0319331;0.09814509;-0.009861124;-0.09780848;-0.0843991;-0.06226418;0.042080685;-0.02570384;0.064144745;-0.05180234;-0.06534744;-0.050751988;0.006117784;-0.008956227;-0.089404956;0.07305047;-0.071868315;0.04014918;0.0026341777;-0.11837724;-0.09656777;0.03178915;0.03762004;0.009155475;-0.037293762;-0.03980722;0.018840762;-0.05258785;-0.06751148;0.006997037;0.06096939;-0.014728494;-0.0020942087;0.15508264;-0.12605196;0.009223932;-0.05540273;-0.030923903;-0.031549584;-0.013922631;-0.0534651;-0.108240195;0.05475768;-0.11429085;0.0026765058;0.0483732;0.039472014;-0.048873212;0.0029191494;-0.053632755;-0.035501204;0.043157034;0.011286829;-0.14279045;-0.025851084;0.008530249;-0.008269736;-0.13636689;0.016681451;0.031845167;0.04888457;0.047925267;-0.051523965;-0.040246498;0.05039736;0.023965698;-0.09662588;-0.014262222;0.05642602;0.025951242;0.06686603;0.0029467607;-0.07577641;0.016891258;0.037905946;-0.016583147;-0.07804516;-0.003541693;0.008411356;-0.109838836;0.019942025;-0.051710285;0.18389967;0.015912455;-0.016564056;0.0113883475;0.0059168064;0.016693378;0.017695434;0.046329513;-0.112561986;0.06011618;0.09010539;-0.0038031447;0.0066150213;-0.06447219;0.06274598;0.028680531;0.06352052;0.08064518;-0.036529265;-0.1511937;0.013258378;-0.045349665;-0.03905249;0.034901008;-0.026237866;-0.047141314;-0.027452577;-0.03813763;0.041134335;-0.055020805;-0.004894615;-0.21872178;0.08405454;0.09126481;-0.027542604;-0.097816035;-0.020936023;0.088749364;0.06935868;0.046348736;-0.07512378;-0.10418842;0.049866777;0.10101729;-0.0731417;-0.057165287;0.005372859;0.020229455;0.011516554;0.0008861453;-0.07850798;0.08346708;-0.04797762;-0.017726898;0.034931224;-0.09703615;-0.10727267;0.059404243;-0.05670054;-0.013957444;-0.0105683785;-0.06628948;0.06469947;0.013598033;0.09395003;0.039926127;-0.023068117;0.023437161;0.03373759;-0.05503887;0.09904497;0.115434624;-0.02576061;0.020911505;0.0104580745;0.012570891;0.14157727;-0.032270454;0.013821242;-0.08733501;0.03755441;0.06756552;-0.05081011;0.074941695;0.04488006;-0.041053418;0.14024842;0.080710255;0.03660774;0.07896092;0.029681815;-0.033369694;0.06720737;-0.13136272;0.07222858;0.007879738;-0.011022591;-0.020081155;-0.035689276;0.07326625;-0.018542213;-0.02096546;-0.11556736;0.06183211;0.05821832;-0.007196974;0.09785396;-0.089618415;0.0732753;0.080061555;0.0066936202;0.013838677;0.06504347;0.10663561;0.018241657;0.09162558;0.07240925;0.010556946;0.015229531;0.03822991;0.021235;-0.06797982;0.041257635;-0.045727737;-0.0851553;-0.09050033;0.090596534;-0.17319424;-0.03772506;-0.0056014345;0.07744799;-0.021326056;0.07403032;-0.0030530114;0.0652768;-0.16338181;-0.030703181;-0.05708032;-0.15010522;0.0043090302;-0.046383027;0.014086597;-0.039849143;-0.19086736;0.0413138;0.06803335;-0.07329864;-0.12698449;0.0472382;-0.016457915;-0.050985046;-0.03685223;-0.0035896306;0.008974642;0.03446789;-0.0049127005;-0.0787893;0.055673145;-0.048805643;0.05620778;-0.0051977173;-0.088812925;-0.037637215;0.03110762;-0.15966229;0.03895247;0.1163625;0.027357988;-0.008276309;0.068954274;-0.015915776;-0.014071065;-0.0021452971;-0.013141513;-0.03572622;0.045618173;0.08380039;0.012623627;0.026647577;0.10186456;-0.05520595;-0.09320677;-0.1381703;-0.009251409;-0.032399066;0.0073593142;0.1051713;-0.024634311;0.13628653;0.08595016;-0.060616568;-0.029830536;-0.032620117;-0.025441876;-0.03483877;0.019310733;-0.04674584;-0.033463225;-0.06242658;-0.023252737;-0.062883675;0.039238747;0.05488592;0.010183027;-0.024498314;-0.05099427;-0.0047046873;0.004231806;0.052184325;0.07377786;-0.03510091;-0.019616982;-0.009913244;-0.091273285;0.057038605;0.13567226;-0.005984586;-0.084066436;0.03792263;0.12891339;-0.09605381;-0.05008647;-0.024268845;0.031991374;0.012793358;0.09715354;-0.048546087;0.12989697;-0.07756641;-0.042784754;0.09750689;-0.027218567;-0.04054511;0.014627765;0.034429744;-0.075843215;0.035031;0.02697574;0.029217834;-0.010567474;0.17109433;0.06708512;0.04511996;-0.008157465;0.09659013;-0.0398976;0.06825476;-0.08263002;-0.04543593;0.041196283;-0.0129375;-0.11696433;0.09102273;0.11211071;0.07697522;-0.030730726;0.037140545
-0.068836346;-0.110078186;0.009307136;-0.01582579;0.004875861;0.038452093;0.057608344;0.078638256;-0.026604535;0.0037477275;0.0009433467;0.07044971;-0.053601533;-0.05741926;0.13979806;0.025569774;-0.24334407;-0.17169678;-0.009415369;-0.059543286;0.0029826825;0.03695244;0.27251622;-0.027435498;0.036600884;-0.120030835;-0.03925814;-0.021461977;0.03190953;0.071710974;-0.002624212;-0.36882275;0.03759065;-0.038491677;0.07003604;0.07086709;-0.096798554;-0.064677276;-0.0283682;-0.03479499;0.04935772;-0.4087801;1.4086814e-05;0.043374434;-0.005038129;-0.051179323;0.09383252;-0.005784093;-0.009985639;0.24274239;-0.004402616;-0.15689667;0.061466698;0.23696528;-0.19053617;-0.05700665;0.05309591;0.053070646;0.0497231;0.043288264;0.16105305;-0.047451675;0.08353501;0.20539473;-0.05536858;-0.0016991639;0.07571843;-0.20312248;0.081854224;-0.0130998455;-0.123454034;-0.0010988655;-0.02577562;-0.13322203;-0.22148745;0.09115517;0.089903265;0.11935662;-0.057482783;0.09262175;0.030416345;0.0897439;-0.07625193;-0.16524093;0.08446923;-0.036486086;0.10276453;0.10363617;-0.06345099;-0.020035265;0.071336344;-0.023192668;-0.13514349;-0.042221356;0.011648628;-0.010677062;-0.030166486;0.02402828;0.011874237;-0.037029553;-0.06640561;-0.25425702;-0.05671867;0.13358225;0.004409323;0.07487572;0.02860211;0.02686076;0.010858702;-0.013586562;0.16203634;-0.013663123;-0.003561053;0.1796253;-0.014284622;-0.01660304;-0.0014146133;-0.023426935;-0.04971465;0.0037430297;-0.03646102;0.03564248;0.10570971;-0.03447686;-0.0032150142;-0.010225115;-0.031066278;0.09572952;0.03161179;0.060231157;0.06342884;-0.004735776;0.09341498;-0.18988559;-0.20646478;0.024034377;-0.055509083;-0.030486517;-0.1145512;-0.1521267;0.17106813;-0.05934624;-0.0146196;-0.009719137;0.022291647;-0.07890428;-0.2478959;-0.041156318;-0.048185274;-0.044399373;-0.041065957;-0.0031312448;0.063473016;-0.04488648;-0.00093603984;-0.23930386;-0.09056073;0.11036128;-0.085041724;0.03229641;-0.010639966;0.038415104;0.19385064;0.05684821;-0.0985183;0.021761868;-0.058143068;0.19568041;0.16092001;-0.04878354;-0.010461311;0.07749667;0.10550448;0.022928042;-0.058070205;-0.01920193;0.033664104;-0.11845979;-0.22794434;0.0030146507;-0.1278136;0.020417875;0.028583277;-0.03276385;-0.037432194;-0.0020071804;-0.043241743;-0.08480869;0.08588668;0.15656132;0.07686527;0.08418923;0.2059289;-0.026384918;-0.057058394;0.05109383;-0.109916404;-0.22031593;-0.118097275;0.04940631;-0.057050206;-0.26426047;-0.015883513;0.07545607;0.020307627;-0.005212254;-0.110817954;-0.093944706;0.049744092;0.054597855;0.10871135;-0.0129522765;0.077712156;-0.15798187;0.06893369;-0.12568276;-0.0050426526;-0.06261683;0.07812547;-0.026640167;0.07801536;0.12249259;0.058362152;0.060583152;-0.026303371;0.12112391;0.06128313;0.072568856;0.23128246;0.018927759;-0.08556535;0.10441243;0.06493893;0.13684861;-0.020812334;-0.084363714;0.007246113;0.09686552;-0.029424934;-0.042842325;0.0018476171;-0.10609728;0.0811003;0.053398147;-0.053759214;0.020887744;-0.0526361;-0.08224579;-0.10397017;0.14351447;0.12695877;-0.044003803;-0.30701992;0.0201305;-0.11506348;0.12657304;-0.07340528;0.0714555;-0.08789626;0.027808348;-0.02952889;0.06492665;-0.0758245;-0.01759643;0.03250344;0.040506985;0.024823759;0.17925033;0.15322785;0.030640813;0.08486554;0.10206195;0.04382967;0.077061586;0.018377084;0.06176144;-0.13473846;-0.054375593;0.22581208;0.008955583;-0.4534459;0.09156603;0.016959405;-0.024041109;-0.046424314;0.09729771;-0.08390701;-0.053969827;-0.07638379;-0.016729468;0.1996521;-0.12913926;0.05554414;0.12111444;0.22699116;-0.06536122;-0.11461603;-0.012442938;0.025705481;-0.0960644;-0.068699054;-0.007296391;0.073422685;0.04537381;-0.027401334;-0.010565105;-0.05677309;-0.017269772;-0.2694189;-0.119927585;0.1184425;0.3250301;0.057924617;-0.018657058;-0.0055948347;0.06401259;-0.17831846;0.029091844;-0.054532774;-0.0183491;-0.09963881;0.059675194;-0.048093207;-0.026203929;0.030815057;-0.05576516;-0.08716552;-0.1127725;0.040988524;0.13108906;-0.02882346;-0.003444681;-0.050848756;0.13504842;0.078490905;0.057092592;-0.0039029212;0.03212847;-0.047114994;-0.034602992;0.2699057;0.22458024;-0.061020743;-0.006166485;-0.044998992;-0.018544333;-0.042409707;0.044628676;0.07407858;-0.06717349;-0.10282341;-0.15978403;-0.062882185;0.010713444;0.10561428;0.09555291;0.004188708;0.06606893;-0.023346206;0.062288966;-0.0012692526;-0.00018206588;-0.04584931;0.046251774;-0.048464846;-0.056885205;-0.021109084;-0.013086557;-0.067097776;0.0640941;-0.030037016;0.13413852;0.014734009;-0.08274836;-0.060493298;-0.11018058;0.024393992;0.15294813;-0.02473833;0.009727604;-0.007464966;-0.07265236;0.06982638;-0.002404987;0.03279063;0.11775903;0.067554235;0.02477264;-0.07975384;-0.03518909;-0.112912476;-0.04297589;0.04124323;0.017785193;-0.011222608;-0.18199372;0.014590508;0.051335223;0.0358542;0.072020344;0.14721064;0.04860811;-0.17380624;0.06513878;-0.08600506;-0.26226592;-0.11773868;0.040379293;0.061649043;0.08436948;-0.028307816;0.009427121;0.020034395;-0.08039801;-0.018732449;0.10194912;0.024455922;0.23223251;0.044919148;-0.07157737;0.06504495;0.24299753;0.095525265;0.049917184;-0.033094738;-0.18011549;0.04930484;0.07337532;-0.02792497;-0.15364307;0.15184478;-0.108374156;-0.15993142;0.10487819;-0.052221514;-0.037733965;0.07539353;0.064164825;-0.0780189;-0.026636947;0.08220977;0.021227019;-0.11779757;0.13184755;0.23642756;-0.026764847;0.14445853;-0.012968135;0.104747176;0.040055845;-0.040226184;0.06646593;-0.07262451;-0.17946365;0.21053863;0.05290217;-0.07667829;-0.08380931;-0.008446151;0.002767003;-0.02365944;0.11690685;-0.018310696;0.042837143;0.024874153;0.15146057;-0.026516918;0.0059190104;-0.10309272;0.0025356438;0.04736159;0.05236315;-0.026860042;-0.034700252;-0.045470536;-0.023474034;-0.11923131;-0.11141946;0.06970186;-0.0069714594;-0.047754817;-0.015284153;-0.15543348;0.063589886;0.059926916;-0.047964104;-0.042315282;-0.027710492;-0.038028263;0.16801333;0.032799523;0.14148621;0.055515133;0.061768856;-0.018181676;0.036938645;-0.05039563;0.07076497;0.020366069;-0.06680543;0.14310732;-0.1561411;0.12515247;-0.022569632;-0.036128163;-0.039464053;-0.0075945687;-0.011011462;-0.007945464;0.035734605;-0.06751107;0.01992864;-0.014120011;0.034204256;0.039679807;0.025609992;0.15279727;0.11911541;-0.01603157;-0.081579275;0.025463246;-0.012010676;-0.009556778;-0.045797598;-0.0399869;-0.05192308;0.046177454;-0.053094182;0.057904616;-0.02374546;-0.08631953;-0.055173296;0.057360277;0.024869734;0.017404497;-0.022510098;0.042136826;-0.035141665;-0.24159628;0.23236866;-0.044698793;0.018217715;-0.07980906;0.0006355867;-0.12449353;0.011598875;-0.18747407;0.088914126;0.08497904;0.02088782;0.02411641;0.016419468;0.034835413;0.09028397;0.00701369;-0.28657714;0.09193346;0.08417352;-0.118716344;-0.084193945;0.09044624;0.041600034;0.03294793;0.085811615;0.02500911;0.061797928;-0.03035314;-0.11716189;0.05664779;0.04095823;0.24872099;-0.09254256;-0.059813604;-0.013751413;-0.054827843;-0.0419956
-0.020719184;-0.1265764;-0.065597035;-0.010279543;-0.00231204;-0.062047888;-0.1507376;-0.008476787;-0.06594161;-0.06749734;0.01149873;-0.0842647;-0.0005058561;0.0453495;0.038308825;0.030681333;-0.23883165;-0.20504807;0.02373635;-0.056851268;0.09299836;-0.028144483;-0.061454356;0.027228042;0.043391455;-0.050082084;-0.022379527;-0.039393656;-0.10411119;0.022560975;-0.08470044;-0.16527803;-0.007461162;-0.15254378;-0.045384493;0.014603488;-0.09729481;0.05864768;0.081765264;0.05197643;0.005911096;-0.386553;-0.0142108835;-0.07905256;0.15808523;0.034124084;-0.0077899056;-0.047563776;0.050260834;0.27347514;-0.11773384;-0.069777355;-0.021590114;0.081062995;0.0061341817;0.047284797;-0.01828801;0.06272514;-0.0025384568;0.118969515;0.010920646;-0.10517293;0.1571716;0.05484469;0.0034831767;-0.018446838;0.029109797;0.17111053;0.026249351;0.09912868;-0.0051344405;0.0894515;-0.011130767;-0.1974782;-0.099914216;0.022957824;-0.035472393;-0.06226667;0.10206019;0.025681287;-0.064244926;-0.005813819;0.20922594;-0.08990391;0.020579185;0.074938975;0.08156522;-0.076333016;-0.03728652;-0.04350084;0.013515161;-0.005272408;0.046519745;-0.1526375;0.026892388;-0.052279703;0.0929429;0.0078004;0.009688899;-0.09259814;-0.06324484;-0.15261826;0.087049894;-0.0059966077;0.08649164;-0.075964935;0.044081252;-0.054872967;-0.020013375;-0.035099845;0.03504229;0.029443126;0.02818906;-0.043636013;-0.05378501;0.006820306;0.008950765;0.08948593;-0.03562984;-0.06186386;-0.12819429;0.0120601235;0.020403095;-0.05086188;-0.0064847153;0.047092717;-0.033016972;0.0287132;0.053856835;-0.040820193;0.043240555;-0.009634555;0.066874675;-0.039380014;-0.029100562;-0.058194526;-0.054211944;0.0832664;-0.008936968;-0.012446293;-0.116063714;0.03759956;-0.047290042;-0.009344442;-0.040605348;-0.1731785;-0.12830092;0.045090064;-0.0053871362;0.0494545;0.06320486;0.070406094;-0.043305114;0.059849832;0.0049585896;-0.113456026;-0.08705052;-0.048191126;0.027024314;-0.05748106;0.085639685;0.02759588;0.06412642;0.07079005;0.024180397;0.015502082;-0.11935885;-0.015815957;0.14718264;0.05736895;-0.048887525;0.036791876;0.054559443;-0.10337491;-0.07942004;-0.083594844;-0.05424302;-0.03427406;-0.0040620686;-0.04537033;-0.006299894;0.01247015;-0.0029063774;0.05807486;-0.118794605;0.13416247;0.05328017;-0.08590849;0.04931364;-0.022160122;-0.028828299;-0.047332227;0.15641408;-0.07548595;-0.04402337;-0.026452111;0.103760056;-0.25618997;-0.13612239;0.07486603;-0.047740523;-0.15743414;0.033870764;-0.013945956;-0.03767871;-0.021025678;0.02643687;-0.10551144;0.010380722;0.0134476675;0.25810292;0.045635004;0.07816115;0.014188819;0.024857176;-0.11246804;0.051700037;0.028413873;-0.05865761;-0.096479475;-0.017000124;0.012278003;-0.012338256;-0.0128838485;0.042610433;-0.027004046;0.056792215;-0.12322361;0.024849156;0.16813365;-0.027423657;0.014457378;-0.07964856;0.011692931;0.09734337;0.024082309;-0.08612309;0.043308605;0.017924009;-0.0558294;-0.08384233;-0.07146807;-0.07992999;0.06360105;0.06432374;0.17142569;0.03952229;0.012118235;-0.23250078;0.041553985;-0.073668726;0.04753096;-0.1586137;-0.0794308;-0.076592594;-0.06304618;-0.04392453;0.104759656;-0.056618843;-0.0233388;0.059084993;0.014750898;-0.055485833;-0.013156478;-0.038825598;0.026689412;0.027982188;0.07771342;0.10870281;0.04723663;-0.023055373;-0.027658941;0.009411974;-0.057088107;0.049184304;0.10859652;-0.16419302;-0.0045319977;0.030318277;0.06556343;-0.22116248;0.06456394;0.041253746;-0.17872608;0.02713023;0.09528605;-0.05528206;0.06844118;-0.059028003;-0.037054364;-0.04737325;0.03273961;0.038262267;-0.021624403;0.038657773;-0.0538525;0.1810632;-0.103786424;-0.02135106;0.0028184475;-0.1397961;0.017448846;0.035531163;-0.11175419;0.06586378;0.035612144;-0.06272833;-0.0038824722;-0.043476902;-0.019180866;0.057474066;-0.044020128;0.015941875;0.03673994;0.0014668811;0.03772318;3.090922e-05;0.025400335;0.021430545;-0.16232418;-0.06689613;0.048269637;0.09181441;0.06310408;0.013237945;0.018009147;0.061992507;0.086706065;0.042162165;0.07699642;-0.004306611;-0.11093612;0.013716626;0.28710377;-0.102171905;-0.024540573;-0.113415755;0.16180713;-0.19491734;-0.029267995;0.06046848;0.053582203;-0.008114457;0.043483213;-0.037783727;0.0036077707;0.00232225;-0.038067885;0.032024786;-0.041381415;-0.088685274;-0.12994139;-0.045576204;-0.058475573;0.013318018;0.019162204;0.11247969;-0.08421924;0.05890932;-0.09305588;0.0642411;0.06864604;-0.018506061;0.07128884;-0.08096963;-0.013738425;-0.0728125;0.06992994;-0.053619873;0.08745047;0.07886682;0.14043692;0.0063788197;0.079918005;0.006858457;0.002152643;-0.026123293;-0.035281904;0.0135774;-0.048121985;0.07391796;0.024904687;0.19779456;0.07294218;-0.055434447;0.14316107;0.03863245;-0.0036091914;-0.047397293;0.04692497;-0.20209904;0.015272941;0.019655388;0.031635232;0.04766036;-0.035049733;-0.06683806;-0.007054201;-0.023744209;0.07551897;-0.018158961;-0.046977386;-0.06894394;0.15803035;-0.07667225;-0.09984263;-0.061569292;-0.06442641;0.08384733;-0.020491589;0.040340062;-0.0889307;-0.0063922205;-0.109106585;-0.060822416;0.026243215;-0.034766868;0.05691022;-0.032975778;-0.2104987;-0.10099045;0.16113546;-0.01376649;-0.00557885;0.07498774;0.046109412;-0.06424483;0.005116347;0.057793025;-0.17282632;0.13752806;-0.022090076;0.014091469;0.062190667;-0.043744113;-0.0448063;0.059674144;0.019615399;0.0006842584;-0.022586495;0.057634894;-0.049812328;0.008140889;0.093160376;0.060018744;-0.21762148;-0.023314055;-0.18290527;0.15072188;0.07175909;0.0050851735;-0.008424235;-0.060164347;-0.22905582;0.17999557;-0.037245132;-0.006087019;-0.025900554;0.09428522;0.035989717;0.060657836;-0.040566437;0.059338477;-0.08625323;-0.01738095;0.009333304;-0.13030486;0.025055401;0.008169296;-0.085671455;-0.011231218;0.0076310155;0.06744171;0.031270426;0.05329461;0.02064278;0.0011467992;0.0512049;-0.11672896;-0.028855188;-0.03048426;0.08345336;-0.0484389;-0.0064890594;0.022359971;0.054933626;-0.024827408;-0.0061365156;0.09909078;0.032773312;0.0856334;0.077884205;-0.034552462;0.015968358;0.037926;0.035073083;-0.029148554;0.033980645;-0.06032547;0.010495223;0.057097785;-0.04649166;0.12898226;-0.08431104;0.053669866;0.04691072;0.011133515;0.0027407005;-0.036659792;-0.086449765;-0.08254098;0.025047846;-0.0035492422;0.06301249;-0.10996517;-0.0461363;0.01195576;0.0064308406;0.0047720307;-0.16145223;0.06855657;-0.04499247;0.100248255;-0.20155992;0.049911752;-0.029435813;-0.04361664;-0.054837715;-0.047915522;0.047045406;-0.06337789;-0.009820519;-0.13979195;0.027036367;0.014639822;0.036373954;-0.05662793;0.07717207;-0.2198818;0.056185514;0.05714231;0.0253163;0.04889468;0.057064444;-0.091423325;0.04032799;-0.13934143;0.055526834;0.049772374;0.053034443;0.0303567;-0.023729503;0.022584215;0.06360724;0.046234675;-0.019412482;-0.052716427;-0.031747155;-0.050228376;0.06295838;0.053848892;-0.020848462;0.13451493;-0.08572983;-0.0113764275;0.05124399;-0.18387862;-0.024579067;-0.05324857;0.05315438;0.14293513;-0.05087118;-0.14524601;0.026665445;0.059135597;0.028684162
0.021635313;-0.09041386;0.051547334;-0.1874939;-0.009666727;-0.073374234;-0.026954677;0.0026482865;0.015474094;-0.045601524;-0.009514516;0.015920362;0.026827754;0.055009276;-0.037316263;-0.004371332;-0.25384903;0.087048404;-0.03142394;0.043115046;-0.06324328;0.15198217;0.03067097;-0.025583908;0.05443308;-0.1445586;0.033909943;0.074857555;0.005531472;-0.0078033553;-0.11609933;-0.19928859;0.034704257;0.05366562;0.06319517;0.06024095;-0.058960065;-0.05477419;0.045267075;0.057534613;-0.034060434;-0.0063030375;0.04478819;0.030977566;-0.08633723;0.116856426;-0.092635036;0.062872514;0.09247508;0.27289993;0.17460458;0.07365065;-0.0142079;-0.024103468;0.08590244;-0.00056957686;0.015325379;0.023610497;-0.09489195;0.0036073125;-0.017371139;-0.011757081;0.09151605;0.028566929;-0.006347927;-0.06486251;-0.06889144;-0.2302913;0.04348345;0.022149008;0.030061964;-0.22906895;0.041497484;-0.35923943;-0.17850156;-0.044106644;-0.07460358;-0.049682803;-0.16779865;-0.056198202;-0.013414201;-0.06461437;0.08886005;-0.03448295;0.0024739264;0.16958031;-0.0682725;0.06710224;0.020053761;0.105157845;-0.02054475;0.030820971;-0.0761339;-0.12399441;-0.21835339;0.10195691;0.09510779;-0.046683345;0.039770003;0.065240994;0.043290082;-0.005185041;0.018311061;0.1574236;0.027810711;0.040722333;-0.048924338;0.054109566;0.03614271;-0.003314479;-0.06317528;0.015306751;0.002242257;-0.07871453;-0.041774478;-0.07317184;0.22969763;0.054687027;-0.12443988;-0.13845791;-0.11665945;-0.05726339;0.07904726;-0.04366365;-0.08916829;0.086706184;0.024878314;-0.02865376;0.008732616;-0.046354942;-0.057262715;-0.05645498;-0.08991395;-0.15802714;0.08772621;0.016703036;-0.0042688367;-0.006799918;0.038375854;0.030411568;0.15208404;0.07398863;-0.06981783;-0.056243017;-0.022679988;-0.36115026;-0.14686127;0.059040044;0.070437804;0.059602376;-0.07008615;0.002357043;0.018391917;0.046015847;0.090399265;0.072328806;0.14931221;-0.055008598;-0.073504485;-0.052123167;0.019902686;-0.009745147;0.035744265;-0.017206263;0.038710337;0.0111241285;-0.016407093;0.07811337;0.06335825;-0.009264188;0.03577867;0.043731578;0.021180702;0.07009711;0.032747734;0.020636844;0.040835764;0.04989793;-0.15046148;-0.013669411;-0.09576349;0.108717375;0.06879349;0.069994345;0.0011816123;-0.00743297;-0.017404966;-0.13575456;0.12177969;0.021252008;0.17083423;0.05448046;0.07261131;0.06426567;0.09210978;0.021936158;-0.009741598;0.02216092;-0.01975322;0.00081100996;-0.07944606;-0.24486813;0.044965893;-0.03056818;-0.045474824;-0.022999393;0.037254754;0.06320189;0.064384386;0.10139031;0.20799379;0.07045961;0.027702078;-0.3058144;-0.05143736;-0.14080063;-0.04453011;-0.019400967;-0.038310733;-0.0680103;-0.008069632;0.05401346;0.01741794;-0.091505714;0.07583399;-0.054191384;-0.020655347;-0.16032703;-0.21271104;0.061488524;0.03687931;0.08754369;-0.020715822;0.022042492;0.11025406;-0.047680613;-0.06201972;-0.07105563;-0.012064902;-0.030612044;-0.058451947;-0.071465686;-0.10263939;0.060799263;0.0030915302;0.11053799;0.034511562;-0.106760174;-0.17383488;-0.032340143;-0.064955175;-0.03210697;0.19103315;-0.05753027;-0.011222955;0.031068683;-0.07634396;0.08335378;0.016685978;0.0395171;-0.003342795;0.020446755;0.04512501;-0.030526346;0.17460914;-0.09248857;-0.06236993;0.034538273;-0.09780055;-0.0012791943;0.04323878;0.06457738;0.062224705;-0.019987205;-0.07684683;0.05202917;-0.22624971;0.04677082;-0.0039412775;0.045680687;-0.16920066;-0.005622811;-0.005287538;-0.20543063;-0.046793416;-0.019133387;-0.038522467;0.058812905;0.13465771;-0.048408292;0.060184132;0.07169374;-0.01333466;-0.043472845;-0.0033802588;0.13436645;0.067986935;-0.35629395;0.08526461;0.042578164;-0.06505027;0.061029203;-0.11119631;-0.18886302;-0.013931106;0.048549518;-0.094563104;0.10030167;-0.18042007;-0.030107442;-0.034749698;-0.04616323;0.0832501;0.051002484;-0.087060876;-0.0020614122;-0.15509215;-0.3293248;0.027398013;0.0013236293;-0.012842167;-0.021506619;0.11391559;0.051879566;-0.03169114;0.021437047;0.065677255;-0.029557927;-0.010271924;0.13504729;0.0565508;-0.16780822;0.020638738;0.19181056;-0.05034101;0.04526801;0.026527524;0.17668612;-0.23146681;-0.043217942;-0.12815647;0.092449285;0.009837085;0.11014686;0.021471333;0.017566646;-0.115363814;0.0404145;0.05887395;0.011234586;-0.23503214;-0.28935242;-0.017844565;0.069035284;0.0910069;0.09521489;0.056930155;0.018557899;-0.01931968;0.026794728;0.011237909;-0.090225466;0.07757103;-0.06759713;0.013849296;0.051633466;0.0334341;0.046766695;-0.030849451;-0.008677923;-0.06953434;0.096563384;0.054543395;0.06480342;0.00068821106;-0.034508362;0.016841952;0.006482618;0.040589564;-0.04525223;-0.0018742161;-0.002300101;0.055631127;0.009691909;-0.10198894;-0.03986001;0.0235377;0.06888351;0.060193256;-0.04177064;-0.105299115;0.075614914;-0.054214966;-0.048720233;0.075565696;-0.19517766;0.03639487;-0.06416009;-0.16462086;0.063042015;-0.13147734;-0.034005176;0.02332708;0.22297876;0.0056743314;0.19115025;0.15316567;0.037526287;-0.047808833;-0.01738476;-0.12466041;0.09830869;0.075769715;0.09572778;-0.21749319;0.00024218073;0.0454343;0.22601108;0.04646112;0.11486152;-0.05106144;-0.17443827;-0.0491876;0.008829031;0.032550663;-0.22849515;-0.05216108;-0.04290503;0.0076479516;0.05991123;-0.07073068;0.10093033;-0.011227752;-0.03917785;-0.009038677;0.03919349;0.023369089;-0.060220994;0.040882487;0.0016978956;-0.17626305;0.062315375;0.072580226;-0.008533527;0.05862393;-0.017822018;-0.09922981;-0.17266706;0.117596485;0.07800437;-0.05373141;-0.056943964;0.011348411;0.24093813;-0.056444146;0.09702861;-0.033261616;-0.1583302;0.047291245;-0.049014807;-0.07356441;0.038023222;0.085431494;0.074523;-0.0032227377;0.067742124;-0.09139964;0.20458162;0.037363663;-0.017912941;0.039912313;-0.18780997;-0.09351688;0.0031324483;-0.05954588;-0.06751137;0.041368075;0.09380682;-0.029246192;0.08521747;0.029811045;0.04992203;-0.12621127;0.08625555;-0.020785628;0.0419129;0.018439442;0.016143685;0.0038540228;-0.07353446;-0.02760969;0.07969439;0.049865905;0.019610548;-0.024774414;-0.031232303;-0.021407478;-0.027410699;-0.064006485;0.06784532;0.09746358;-0.09679972;-0.00092950865;-0.02931227;-0.043730997;-0.07511717;0.052977365;-0.019606337;-0.29841566;0.00019634623;0.02153025;-0.03546032;0.04577896;-0.023244973;0.047393136;0.060230453;-0.15001363;0.017955568;0.06500267;-0.28485006;0.04628074;0.065810874;-0.04034367;-0.04769244;0.014934746;0.05518171;0.09981731;-0.041761674;0.08354917;-0.10277311;-0.038865607;0.08268152;-0.18770961;0.049533866;-0.01652592;0.0690105;0.002218914;-0.06845162;-0.014386144;-0.1415039;0.023721412;-0.0152755715;-0.027481765;-0.013984822;0.0016157519;0.015643157;0.048775386;-0.07737187;0.056926053;0.085160054;0.072236024;-0.013340909;0.01575138;-0.038864348;0.030282842;-0.058527764;-0.010018822;0.043951944;0.026547786;-0.17120475;-0.029092468;0.042969856;0.092819005;-0.029958526;-0.014886213;0.024570977;-0.09553589;-0.0795651;0.022130348;0.01647866;0.094462015;-0.07356496;-0.1653176;0.057735294;-0.029710773;-0.0055427183
0.05392941;-0.022445288;-0.083268635;-0.12413764;-0.04492927;-0.06479529;0.10184667;0.06306354;0.27337247;0.10834978;-0.020885842;-0.062368527;-0.04615985;-0.07818474;0.016737252;0.075878;0.03049955;-0.07063433;-0.10490228;0.015252992;-0.10786076;0.0017234389;-0.005391588;0.022031123;0.025756355;-0.0976281;0.017585821;0.019193936;-0.035345756;-0.06588893;0.048279017;0.051419526;0.047602247;0.2172001;0.04563795;0.001401817;-0.18315451;-0.0822141;0.074242;-0.052724313;-0.009808791;-0.26437086;-0.17603359;-0.0993251;-0.039060194;0.08948559;-0.034880944;-0.014265221;0.08644634;0.2558016;-0.19595917;-0.1343973;-0.040064383;0.067164645;0.099429265;-0.04836681;-0.05381438;2.0280359e-06;-0.05221838;0.02342356;0.21837685;0.046688724;-0.20220204;-0.044065867;-0.08327187;-0.04059727;-0.08271636;-0.08201131;0.052804355;0.022038626;0.061433565;-0.123771615;-0.053121485;-0.1700085;-0.13712598;-0.04638566;-0.11052586;-0.12626164;0.17352296;0.033143774;0.020086074;-0.017680174;0.1275115;-0.21061903;0.046970535;-0.071215555;-0.13493855;-0.07274475;-0.0059245243;-0.06114487;0.009061113;-0.055736326;-0.085889004;0.061955146;0.06064596;-0.015915956;-0.01642614;-0.08571328;0.0067355353;0.028298266;-0.018330265;-0.11217346;-0.03482555;-0.008429907;0.053505424;0.13815145;-0.024371184;-0.05782201;0.059483413;0.022958921;-0.052321795;0.019213913;-0.013411734;-0.085964195;-0.056010455;-0.053408425;0.0046479832;0.08429336;0.06338165;-0.16676685;0.069183454;0.012823748;-0.056947943;0.05132376;0.018208167;0.0132187465;-0.0073691383;-0.11524311;-0.05596898;0.019672852;-0.07534265;0.020568963;0.06755458;-0.2661505;0.0060521406;0.06769078;0.0033033926;0.05783271;0.08435105;-0.011009649;0.1373385;-0.08304868;-0.12818916;-0.07277571;0.059674077;-0.113064766;0.022456875;-0.08390383;0.05186958;-0.09296413;0.022038778;-0.060934767;-0.09052022;-0.039330296;-0.045550976;0.20082368;0.19117679;0.12686493;0.040106624;-0.05466543;0.061195746;-0.04482422;-0.038315315;0.05553285;0.054925382;-0.02483595;0.13667402;0.13969661;0.22845325;0.032922465;-0.048111737;0.1077671;-0.07395988;0.024863567;0.044394597;0.005546316;-0.013868467;-0.040808268;-0.08414579;-0.08471028;0.042325526;0.05012805;-0.015538284;-0.007120301;-0.07511057;0.098121986;0.021835027;-0.03837297;0.002220717;0.010674592;0.17021166;-0.022862516;0.020423608;0.024108384;0.02813553;-0.06404485;0.07527522;-0.18897143;0.007478812;0.0470943;0.027993498;-0.19929883;-0.05731473;-0.113577686;-0.03029271;-0.008871164;0.043543864;-0.071974516;-0.010964932;0.024192695;0.13518602;-0.055926315;-0.010487871;0.12611665;-0.105874605;-0.037810877;-0.047251597;-0.0011564839;-0.021366073;-0.0736141;-0.08871299;0.09348133;-0.04681507;0.018824698;0.0072966004;0.059921954;0.08364354;-0.110016726;0.058298986;0.06336948;0.022453478;-0.009632133;0.012445522;0.097230144;0.016977577;-0.010334087;-0.026907718;-0.023891663;-0.017457461;-0.043718264;0.072438486;-0.14054546;0.02336311;0.05819165;0.041870743;0.09319869;0.032851614;0.11069967;0.06406807;-0.012804108;0.049107295;0.015151288;-0.26357076;0.18059234;-0.054159086;0.07711401;-0.17025763;-0.08988879;-0.02470018;-0.044052333;-0.08356061;-0.06309325;0.046271782;-0.033350434;0.009259552;-0.043428026;-0.055143997;-0.062949955;-0.043257274;0.015348582;0.08382009;0.037392292;0.00068260357;0.04844967;-0.038194783;-0.035616044;-0.11419066;0.036492094;0.015109244;-0.0055451123;0.10828326;0.011913955;-0.038509436;-0.047628026;0.04187667;-7.5668286e-06;0.046334732;0.06456402;-0.0029093358;0.08365199;0.19469011;-0.0009196563;-0.04672647;-0.018300211;-0.065867096;0.015562958;0.05210924;-0.16080321;0.08530381;-0.03530321;-0.07079244;0.0915258;-0.07564273;-0.06371286;-0.06956031;-0.08332998;-0.048739016;-0.023594957;-0.055431947;0.0833857;-0.0422131;-0.16838396;-0.048490502;0.07107762;0.05497035;-0.038130112;-0.19729926;0.025827704;-0.033765554;-0.13834351;0.029089237;-0.059185542;0.07791845;-0.030310636;0.055381473;-0.05659877;-0.013204171;-0.09146407;0.06984613;-0.013048055;0.13862102;-0.025708124;0.014542215;-0.10641534;0.05863012;0.0798804;-0.10455878;0.11143472;-0.13503878;-0.088482946;-0.03615096;0.03579533;0.021696562;0.07413167;0.0142389685;0.04704098;0.027319536;0.039166253;-0.07527166;0.044570602;-0.04830792;0.0064690327;-0.019076714;-0.013875734;-0.16665977;0.0759754;-0.012677858;-0.06712125;0.0055306293;-0.06201591;0.009922953;0.06810777;0.06250711;-0.0005523366;0.076542005;0.063270494;-0.09637314;0.008480835;0.01141128;-0.045679267;0.06868205;0.20013416;-0.026709354;-0.03499842;0.009517911;-0.06529568;-0.122227676;-0.0006558132;0.077532165;0.06517476;-0.07068093;-0.011168779;-0.04885755;-0.051007804;-0.019585395;0.15079632;0.031231578;-0.047756396;-0.013791202;-0.100263625;-0.2129374;0.048396453;-0.019207058;0.03651336;-0.077009395;-0.1790591;0.05830633;0.022182852;0.032504693;-0.026557717;0.018825172;-0.035753727;0.027189206;0.23825514;0.03208218;-0.120413646;-0.032405008;-0.029051566;0.01832827;0.08786421;0.18380517;-0.05387833;0.12544937;0.087079816;-0.09391933;-0.04296223;0.054852124;0.3342662;-0.035953358;0.06990697;0.044992376;-0.043877393;0.08455592;0.062267244;0.06695711;0.07107422;0.17274316;0.057577796;0.06760052;-0.10850427;-0.10194726;0.0839065;0.033955615;0.03203739;-0.1097994;-0.11257015;0.009597975;-0.10365184;-0.0870714;0.025358992;-0.018498782;-0.019894414;0.020173745;-0.069946855;-0.04969018;-0.07921205;0.022367913;-0.08406313;0.010646327;0.03361543;-0.063162096;-0.0034479215;-6.814306e-05;-0.15988994;0.0782592;-0.007315567;0.237743;0.15626054;-0.04794823;0.05548718;0.10605903;0.048328456;0.095333405;-0.033430513;-0.04198177;0.034420673;-0.1856621;-0.07289632;0.04881141;-0.03690269;0.061557103;-0.12228232;0.042654548;-0.047510445;-0.052251033;-0.014581081;0.007429974;0.03741416;-0.0364879;-0.030475792;-0.12598711;-0.041323353;-0.13113812;-0.028556053;0.0760542;-0.002131704;0.05023088;-0.009124982;0.0025280965;0.017320173;-0.024701094;0.06255859;0.029619552;-0.023238631;0.0053464766;-0.07075788;-0.062735826;-0.001659364;-0.037310313;-0.010149667;-0.01661869;0.025699634;0.15116724;-0.055290733;0.0346243;0.056669507;-0.018366221;-0.020875303;-0.03736113;0.074666545;-0.031202322;-0.074088834;0.0071816994;-0.04555635;-0.08868071;0.050210666;0.06338346;-0.09721782;-0.044470757;-0.14096177;-0.05390782;-0.004159016;-0.050731465;0.037695583;-0.048806854;-0.040223725;0.01269396;0.029143833;0.026533592;-0.03266821;0.00793006;0.067357324;-0.072172515;0.010654498;-0.096485764;-0.066870734;0.023673978;-0.004710371;-0.086058944;-0.22517675;-0.05363797;-0.1013953;-0.07679319;0.032253046;-0.040618263;-0.09001727;-0.10702594;0.05252659;0.022621602;0.095498376;0.06530242;-0.120645516;0.012198593;0.034377802;-0.0151419025;0.09677705;-0.03271271;0.03752577;0.03137217;-0.108568124;0.013505242;0.015702676;0.17661457;-0.021586899;-0.007778982;-0.04829112;0.036741942;-0.09708448;0.03767273;0.0037579099;0.023851419;0.052693654;-0.06865095;0.019401971;-0.0764516;-0.0224382
0.016035244;-0.12828022;0.025094327;0.054438557;0.067731984;0.020673882;0.019657996;-0.00039630636;0.25694937;-0.008205806;-0.014942451;-0.13360928;-0.113484435;0.012760013;-0.056719013;0.04027615;0.07740464;0.095229454;0.02591688;-0.021151993;-0.017620504;0.16718188;0.095240705;-0.045887828;0.03883644;0.17432722;0.05664216;0.06118575;-0.2622101;0.051319867;-0.015947092;0.07587121;-0.099162206;-0.06422856;0.060179356;-0.017288262;-0.17955399;0.032721996;0.046767086;0.050322145;-0.010429202;-0.25093946;-0.15810865;-0.12912545;-0.0368435;0.046588182;-0.027427388;0.016568001;0.111984275;0.2462207;-0.13368176;-0.055601902;0.0030510805;-0.15384026;0.18603706;0.029107552;-0.0303248;-0.04584047;-0.04682499;-0.11065672;0.09180949;-0.08211914;-0.12872218;0.09060802;-0.08335078;-0.06209503;0.021304797;-0.015568079;-0.039283697;-0.044791102;-0.02239102;-0.113737956;0.030429605;-0.115404196;-0.10473196;0.06364971;-0.04094251;-0.121554285;0.038864948;0.06858599;-0.011303571;0.074291155;0.031043967;-0.07458613;-0.103531696;-0.039965473;-0.027712721;-0.029328223;0.019239524;0.044910476;0.04411001;0.062981024;-0.03175097;0.0600737;-0.024948208;-0.037316564;-0.039637614;0.07714862;-0.05782989;-0.051135246;-0.07058925;0.084227845;0.06700966;-0.017632358;0.013469911;0.081824176;0.024801413;-0.04491382;-0.021945037;0.048557926;-0.059645884;-0.057662312;0.042231962;-0.16163492;0.068635;-0.022895126;-0.060752053;0.083188415;-0.06424868;-0.19456893;0.11652084;-0.09818557;-0.08648346;-0.04152752;0.06841281;-0.030391242;-0.024568241;-0.079086155;0.009952593;-0.009840263;-0.05299744;-0.005392184;0.0023658723;-0.2044394;-0.1182885;-0.005033721;-0.054831665;-0.081849836;0.14703159;0.042573974;0.15937468;0.074945696;-0.03558178;-0.07904786;0.027233802;-0.17983444;0.07921147;0.019817157;-0.06563631;0.06131747;0.02645827;-0.09550171;0.016943328;0.050698884;-0.07087854;0.08748332;0.19427574;0.11103574;-0.08181463;-0.037647653;-0.104486085;0.07576221;-0.065607525;-0.040619425;-0.068040535;0.0047106906;0.015036928;-0.055177625;0.08532095;-0.008249127;-0.0021833542;0.21984418;-0.12488333;0.05295986;0.059393935;0.062083013;0.055564743;0.0014841765;0.015764505;0.008156844;-0.014940154;0.015743915;-0.06698123;-0.07641596;-0.113599926;-0.0075329687;0.074143946;-0.027905215;0.11943075;-0.03845269;0.097336434;0.010111597;-0.12003718;-0.081480116;0.033503078;-0.066035904;0.011407189;-0.11360289;0.03115104;0.010999911;0.038020577;-0.20058887;-0.008316117;-0.095537014;0.016346209;-0.0036021974;0.07314468;0.06258974;-0.03519915;0.04712641;0.063385956;-0.07326096;-0.05140978;0.06858622;-0.06612493;-0.14356391;0.02758048;0.051616088;0.009230339;0.02947563;-0.04288438;0.039339606;-0.114480175;-0.09638576;-0.02397008;0.033978865;0.045919526;0.009900396;-0.09384203;-0.04149293;0.000570212;0.03196701;-0.124126025;0.12064653;-0.041743122;0.06451822;0.044304825;0.041209105;0.024594026;0.058724206;-0.023780653;-0.11525721;-0.06415167;0.013732461;0.021041933;0.16894524;0.0101190405;-0.18372592;-0.06633111;-0.04751522;-0.0137871085;0.09967282;-0.13924618;0.14001824;-0.11026514;-0.052565303;-0.16286933;-0.07694011;0.051195525;-0.0008215034;0.024455376;-0.110935286;0.09130465;0.07097284;-0.03662958;0.08673323;0.06600682;-0.019307975;-0.09613077;0.06412162;0.22416705;-0.04639604;0.031634293;-0.0032496625;0.072522625;0.052574467;-0.13055673;0.095064044;0.045297;0.07375819;0.095220454;-0.07935123;0.013968056;0.033435956;-0.07057899;0.055125143;0.07687842;-0.037903193;0.07756585;-0.053125918;0.1597831;-0.021082828;0.005321229;0.07779931;-0.0042416435;-0.015808605;0.1479225;0.025794255;-0.051143933;-0.046365254;-0.1018902;0.043912187;-0.1058024;0.017204866;0.011326483;0.034134597;-0.03089675;-0.10182369;-0.08921238;0.027448654;-0.05755787;0.076993756;-0.0023134865;-0.0685162;0.026203882;-0.058983758;-0.050859302;-0.038771756;0.023955794;-0.20255783;-0.07096942;-0.0053917873;0.015292326;0.060017236;0.021891879;0.0017542046;-0.0248543;-0.0244185;-0.0063330946;-0.0003597172;0.10422102;-0.095243625;-0.02856549;-0.07529188;0.10746069;0.06327265;0.05071758;0.13460757;-0.10542309;0.0593228;0.011484542;0.046059214;0.03200393;0.045805886;-0.05286364;-0.018306995;-0.0056779208;0.042613387;-0.037148222;-0.028089682;-0.25666165;0.040828392;0.06840482;-0.0100010745;0.045559965;0.110579684;0.020699421;0.017463546;-0.05349986;-0.15268882;-0.08668969;0.09934956;-0.008317706;-0.003509403;-0.10951036;0.04325754;-0.036706384;0.055657808;-0.050270986;-0.06190072;-0.094461896;0.04654253;-0.017101467;-0.0557688;0.04172283;-0.06150619;-0.05039414;-0.020178443;0.026241966;0.07765725;0.026324647;-0.002262799;-0.03455943;0.08994205;0.048618972;-0.08659877;-0.05302098;0.03106394;0.043071605;0.03626241;-0.1273705;-0.051121667;0.013649518;-0.08168926;-0.12204372;0.098378845;0.022316396;-0.008600968;0.014148707;0.074438505;-0.06576428;0.061346475;0.109493956;0.04537602;0.055213835;-0.14069043;-0.08756877;-0.081635766;0.019773362;-0.029927097;-0.06275311;0.06052527;0.010557064;0.08718752;-0.22641495;0.04143416;0.10241676;0.2346724;0.00058918906;0.07782425;0.057917107;-0.065167814;0.02561559;-0.014043381;-0.052393332;-0.06349671;0.027256493;0.05649119;0.05575997;0.025446836;-0.017543131;-0.021165762;0.0752873;-0.047406092;-0.000902195;-0.061844822;-0.095040254;-0.038078565;-0.04994495;-0.024035465;-0.05761942;0.01031059;0.030455124;-0.08580995;-0.031292837;-0.21098685;0.01205617;-0.17355213;-0.077219486;-0.044565015;-0.058299825;0.065928936;-0.10710015;-0.0138731655;0.03603521;-0.03158291;-0.05115426;0.03347629;0.07398374;-0.029543841;-0.042392656;0.065588646;0.036365114;-0.06697342;-0.015476498;-0.07438267;-0.06405763;-0.029384099;-0.009182208;0.019690111;-0.02243083;-0.15182774;-0.050126545;0.04927469;0.04163388;-0.07941068;0.011229361;-0.069788866;-0.0777379;-0.07173395;0.07357438;-0.001669657;0.08206187;-0.08238393;-0.09228604;0.053772237;-0.032197144;0.02501869;0.07764246;0.06426877;0.027525958;-0.020487286;0.074432924;-0.08410553;-0.041057188;-0.0052890955;0.0022837983;-0.01835009;-0.030166427;-0.014799051;-0.09361435;0.122603476;0.15100408;0.027092438;0.047966383;-0.036805682;-0.058197577;-0.12625557;0.018493215;0.0581377;0.006421664;-0.020792024;-0.019058103;-0.10207851;-0.011685648;-0.08016825;-0.10850699;0.0030248659;0.023576763;-0.23143825;-0.020973762;-0.0736478;-0.038826454;0.053748883;0.03884147;-0.07350791;-0.00049294496;0.08239548;-0.055347376;0.023804754;-0.015189096;-0.03796221;-0.099487774;-0.032525465;-0.036593538;0.003016738;-0.049525294;-0.00397007;0.013105939;-0.022775458;0.046835054;-0.06359131;0.023560116;-0.093631744;-0.06095165;-0.072318584;-0.059357535;-0.05676562;-0.04015132;0.069506094;0.05395155;-0.12538677;-0.064442314;-0.008791828;-0.13165827;0.14732769;0.06563167;0.029924544;0.07421019;-0.22685915;-0.046536423;-0.068907365;0.15366346;0.06252961;-0.027041798;-0.00872779;-0.06404812;-0.11660778;0.06769622;-0.060257196;-0.04285386;-0.04804325;-0.13662484;-0.06741667;0.022532918;0.069496036
-0.04794903;-0.14613564;0.018472422;0.19163252;0.0226086;0.023314074;0.2667804;0.117209084;-0.0704241;0.028322214;0.024167383;0.008168888;-0.034670897;0.022109954;0.112161025;0.03142467;-0.0251933;-0.026927475;0.059006475;0.060738184;0.010911834;0.082192786;0.15866572;0.071687065;-0.00886348;-0.1336996;0.022808267;-0.082169704;0.09983359;0.055905063;-0.06399324;-0.15861547;0.035415012;0.2379561;0.08279063;0.012356496;-0.052997917;0.033316307;-0.013218321;0.045921884;0.051075846;-0.12543918;-0.0082654655;-0.03820621;0.03762067;-0.07722376;0.062050704;0.050803404;-0.013150677;0.20711313;-0.3347835;-0.15263718;-0.03904521;0.00015990397;0.12709792;0.049910598;0.05397521;-0.0261765;-0.07638333;0.013770231;0.13943584;-0.045875758;0.071817406;-0.095909186;-0.051811777;-0.12167225;-0.00074124016;-0.13752069;0.0018807623;-0.0059946026;0.022367975;-0.037923504;-0.06861128;0.034778174;-0.030972004;0.011119865;0.06643127;0.0035935089;0.04963013;-0.011862372;-0.0022023597;-0.006452264;0.050434016;-0.23689103;-0.007003008;-0.062992595;0.12675774;0.050489433;-0.05806676;-0.047980968;0.065446444;-0.008614111;0.082534164;-0.060553897;-0.04039938;-0.034822036;-0.051343575;-0.047414917;-0.07303511;-0.004528657;0.022924632;0.09317736;-0.01759282;-0.06535872;0.043501362;0.19685766;-0.01045764;0.040341947;-0.00042294894;-0.048316244;0.043903183;-0.03907875;0.00048484842;-0.051948287;0.012895988;-0.024398612;-0.33809042;-0.10721383;0.081332706;-0.023801025;0.15017636;0.07311639;-0.013722349;0.035767663;-0.024697209;0.11064633;-0.062106743;-0.016599083;0.05853338;-0.07826516;-0.11526188;0.059605252;-0.19042887;-0.30861428;0.015293733;-0.0020086945;-0.028407358;0.051379558;0.034252573;-0.017242528;0.26211548;0.0609391;-0.0002755053;-0.068032;-0.05168639;-0.246792;0.07550435;0.030827137;0.06733781;0.076271325;0.05261145;-0.027585229;0.026458351;-0.12037125;0.0919802;-0.0030447748;0.049956;0.09732434;0.00713456;0.038444877;-0.077917;-0.06427658;0.02017665;-0.017769756;-0.05710937;-0.018086558;0.026409706;0.052635852;0.111440755;0.040560883;0.0045275;0.045018774;-0.12030232;0.05205184;0.03789114;-0.011701635;0.0560816;0.14867625;-0.05247184;-0.06470885;0.024301916;-0.011964855;0.017698234;-0.0022028284;-0.15864772;-0.005386191;-0.039590165;-0.14281571;-0.07769311;0.065691255;0.19734815;-0.021207092;-0.2382303;-0.04929227;0.07501773;0.07381305;-0.004368269;-0.09100689;-0.062858984;0.06198509;-0.020983329;-0.069925606;0.038110234;-0.055084586;-0.02710283;0.055358097;0.033682227;-0.037437215;0.04469638;-0.08662459;-0.11416162;0.061836414;0.079204015;0.006134908;0.089772105;-0.027566288;-0.072605565;-0.0364335;-0.067712255;-0.00050308625;0.07770434;0.110103026;0.03151252;-0.0124457525;-0.019799309;0.040193297;-0.009532149;-0.025190197;0.045971278;0.07462658;-0.03973436;0.09653109;0.009114948;-0.13342832;0.021345299;0.023620829;-0.0061693843;0.023264723;0.090589985;0.0875665;0.06287624;-0.028335474;0.07569867;0.050132032;-0.015612366;0.017200444;-0.038107924;-0.0072009936;-0.029618252;-0.052491162;0.04022973;0.08350579;-0.26968586;0.095414326;0.1504819;0.00091993256;0.06582004;0.023371484;0.058675013;0.033950303;0.009022188;0.030886114;0.054580733;0.10665283;0.08926471;0.03294471;0.06827222;0.020085167;-0.0057762903;-0.08249953;0.078609146;-0.10897188;0.07615576;0.043858975;0.058197957;0.022797175;-0.035083007;0.07166497;0.13645037;0.052702818;-0.10797573;-0.09821116;-0.05922358;-0.17618015;-0.03969177;0.007085131;-0.026573619;-0.039106745;-0.017912284;-0.007167483;0.092579015;0.01177816;-0.075746775;-0.07331754;0.045463935;-0.22305238;-0.09425583;-0.08749407;0.048009582;-0.045246363;-0.033530038;0.00054372876;0.019300474;-0.05165975;0.01952453;0.055659164;0.082402796;-0.10767371;0.09846987;0.006161765;-0.10535224;0.10697498;0.052342165;0.05792437;-0.0038602664;-0.05455669;0.19553006;-0.180165;0.048026234;-0.11244789;-0.017148513;-0.08025611;-0.05261703;0.0628994;0.021642687;-0.015964206;0.004459148;-0.039232187;-0.011907077;-0.029662158;0.13999577;0.09741967;0.046892684;-0.032027476;0.3091408;0.0070209303;0.026162293;0.20335276;0.020240884;0.02879597;-0.02593236;-0.04055204;0.010688116;0.04483003;0.04718646;-0.049913373;0.046841573;-0.012316888;0.047671046;-0.020570453;-0.041857462;0.017879559;0.056364443;0.016402444;-0.024034197;0.12980992;0.034677725;0.049388863;0.07251077;0.02102778;0.057335634;0.23203366;0.06500051;0.04065824;-0.030604988;0.08878364;0.011903504;0.038640007;-0.046103302;0.049856;-0.042985052;0.09083716;-7.79782e-05;-0.052427806;0.041928116;-0.04194452;-0.1818246;-0.02207145;0.06391199;0.062814265;0.030012138;0.13763009;-0.11165818;0.06349596;0.06346894;0.025706425;-0.093289584;-0.035863955;0.0737672;-0.043179415;-0.16211131;0.052908074;0.05074578;-0.06650474;-0.04136188;-0.1185537;0.045509968;-0.023381343;0.030479727;0.010869753;0.09972761;-0.07000025;0.13882725;0.27844584;0.107870385;-0.13452747;-0.18750077;-0.03365259;-0.014376175;-0.07948533;-0.04756717;0.0007124161;0.12892282;-0.104037404;-0.117407784;-0.16173379;0.12153801;0.2425635;-0.059674338;-0.08950484;-0.0412087;0.060445223;-0.033199012;-0.046769008;-0.0011377353;0.07343884;0.06224871;-0.07863681;-0.082846634;-0.0031285693;0.0551728;-0.06132172;0.04600752;-0.073075876;-0.08338144;-0.07155868;-0.055959165;-0.0072851637;-0.052701637;-0.03943251;-0.10253455;-0.061858077;0.01930936;-0.005582752;-0.035488263;-0.018895844;0.24251688;0.06531268;0.01395687;0.019849613;-0.02808912;0.08877908;0.08379653;-0.067262635;-0.057501912;0.008952414;0.07455387;0.046636946;0.14535162;-0.043507762;0.028749684;0.076345906;0.017301043;-0.03671614;0.022540176;-0.058131754;0.035562716;-0.084123716;0.003953331;-0.005081885;-0.032415174;-0.22111394;-0.124857076;-0.05187946;0.12270501;0.047571722;0.08332154;-0.068993464;-0.011085004;-0.0012783764;-0.030875355;-0.054040562;-0.1275988;0.13006558;-0.07346915;-0.13180217;0.0477849;-0.054337125;0.15164632;-0.06146477;0.070102066;0.007919669;0.028525252;0.009374505;0.068946116;-0.13502677;-0.058616277;0.051610637;0.07559104;-0.08257011;-0.12943476;-0.22776917;0.10891168;0.070934355;0.008182396;0.025781127;0.0702712;0.030735012;0.049496308;0.068686925;0.09228678;-0.021421345;0.0523764;-0.009425643;0.05014112;-0.06695384;-0.036996413;0.09055364;-0.029151745;-0.16321534;0.013902203;0.027149038;-0.007251061;-0.14152814;-0.08015598;0.061863635;-1.5191523e-05;-0.056519132;0.057080112;-0.044123523;-0.044184864;0.059842236;0.10234926;0.040947467;-0.087140046;0.09329484;0.012145658;0.05826918;0.06221525;0.14697145;0.043947577;0.003316035;0.07669451;-0.047335785;-0.05424626;-0.03764092;-0.18644308;0.019261735;0.032522943;-0.04653604;0.103246994;-0.17855434;0.027687257;0.049004197;-0.013596652;-0.024850404;0.022042515;-0.08436146;0.0008095796;-0.30786452;0.04716011;0.058970936;0.077061184;0.026934372;0.019229589;-0.038131047;0.23743322;-0.09958714;0.052659452;0.01862521;0.03853541;-0.14001334;0.16071837;0.025888493;0.07179835;-0.009815628
0.027109029;-0.06271725;0.0734375;0.24999937;0.05118187;-0.040125716;0.1366187;0.09026275;0.010183684;-0.07455692;-0.04721025;0.058799133;-0.008110301;-0.043594692;0.039579228;0.009237882;0.08647411;0.11704378;0.041384928;0.0462995;0.035506506;0.011268675;0.029132046;0.036296614;-0.08751716;0.076185934;-0.009515459;0.044566438;0.1565124;0.10140956;-0.03395641;-0.12297194;-0.06496805;-0.022289429;0.00625729;-0.03273573;-0.023700323;0.0046744114;0.05563027;-0.03240384;0.05559224;-0.15815721;-0.025038635;-0.056277134;0.07632815;0.008920287;0.054987375;0.103197895;-0.09269584;0.12292058;-0.14325531;-0.1019985;0.033599377;-0.037849806;0.21848164;0.065198004;0.07155325;-0.0024101438;-0.023324251;-0.05309481;0.14646314;-0.067455985;0.101773396;-0.059198387;-0.025577085;0.03161477;0.042599075;0.12760048;-0.04220691;-0.04419819;-0.07523657;-0.07051473;-0.023248423;0.07755415;0.011434153;-0.029768893;0.08973409;-0.05386538;-0.014727942;0.022089165;0.04116599;-0.068821855;-0.15134868;-0.012786808;-0.01061252;0.07626679;0.023591504;-0.009749377;0.0198684;-0.05641621;-0.00710295;0.037705574;-0.019603064;-0.01122484;0.07064061;0.0028837067;-0.051750194;0.013779847;0.031951405;-0.010002281;0.010894566;-0.026851518;0.026960807;-0.030157136;-0.060026925;-0.044419877;0.06845063;0.072263524;-0.055304945;-0.060826167;0.000120638295;0.0102544725;0.019449335;-0.020301702;0.018829903;-0.029166726;-0.122426815;-0.075370975;0.07969358;-0.07773161;0.017132893;-0.09949086;0.020890133;-0.09169527;0.05004459;0.058099955;0.09882417;-0.029381756;0.11848564;0.056575086;0.00822488;-0.088749886;0.05874654;-0.1531993;-0.067573026;0.009766992;0.021641089;-0.08032441;0.107008755;-0.10040305;0.09309191;0.056039385;0.08403585;0.011257038;0.0450874;-0.13568014;-0.048516657;-0.003568374;-0.058161553;0.078906715;0.057718724;-0.040934782;0.027737167;-0.008696068;-0.2676265;0.03973983;0.17176971;-0.01835118;0.063502684;0.0006435149;-0.08464963;0.046503488;-0.04271215;0.013516943;-0.076667935;0.046059884;-0.09043745;0.07350706;0.0883837;0.08693295;-0.03966519;-0.011195936;-0.011332899;-0.028836137;-0.0644049;-0.062175382;0.03541213;0.028520709;0.19148958;0.058097064;-0.07558671;-0.037990924;-0.085632734;0.029360361;-0.14160357;-0.02354405;0.116180465;-0.11272149;0.022730444;-0.021229979;0.18259014;0.046420783;-0.047042996;-0.07703676;-0.07566127;-0.042460043;-0.022119837;-0.1221035;-0.08118841;-0.005734091;-0.029018156;-0.17307347;-0.014845369;0.006436112;0.03598442;0.027478509;-0.010645058;0.0047590462;0.030511612;-0.050040267;0.0046212976;0.009121638;-0.049261812;0.07696026;-0.02649729;-0.09698271;-0.00023797892;-0.018237334;0.0955578;0.05302421;0.03475929;-0.011005573;-0.01751143;0.052422084;-0.08544873;0.16294953;0.09651035;-0.12539236;0.12281871;-0.20516738;0.010531708;-0.056011487;-0.010089054;-0.13320401;-0.065778516;0.08434147;0.06077135;-0.04568838;0.06236857;-0.035576094;-0.044999395;-0.053804543;-0.10740749;0.051243506;0.016519457;0.051521916;-0.035203658;0.06033676;0.032016847;-0.07216341;0.07850919;-0.0190528;-0.13878737;-0.009652879;0.017053222;-0.124672815;0.046346575;-0.062473286;-0.024789445;0.06405321;0.030403567;0.071056694;0.05617467;-0.06595202;0.067212;-0.050962053;0.088963054;-0.039850537;0.006553469;0.033019546;0.07096104;-0.28713557;-0.04628187;-0.023862882;-0.1557246;-0.1140587;-0.1425301;0.035471577;0.16106553;0.0018156297;-0.16080713;0.07307251;0.044633325;-0.10077836;-0.012821033;0.0048709447;-0.058646176;-0.037104152;0.035312787;-0.018807516;-0.014917173;-0.00082059123;-0.041991785;-0.055665478;-0.03595981;-0.070952766;0.026197542;-0.056125548;0.04620311;-0.14965843;0.009847218;-0.093208306;0.1184915;-0.014712671;0.025381792;0.04741436;0.0877143;0.016781412;-0.00052932295;-0.049901914;0.00827307;0.24487704;-0.096329026;0.008135781;-0.018997166;-0.04548538;0.11568193;-0.18563697;-0.027425827;0.12736559;0.04845485;-0.06125612;0.06087332;-0.005323408;0.071860366;-0.06490477;-0.02641917;0.08194955;0.04534577;0.088601016;0.07583138;0.012863584;0.05248918;0.04224467;0.09219556;-0.08071826;0.053951327;0.013594368;-0.1274996;0.06840473;0.111027665;0.0026833098;-0.051617984;0.06580204;0.035918687;-0.030849924;-0.001858965;-0.047621094;-0.072237;0.046340555;-0.18103336;-0.08548015;0.025458092;-0.16553567;0.002448148;0.09140175;-0.04071085;0.04165107;0.058136594;0.045390517;-0.083194;0.0067312117;0.061677754;-0.03671251;-0.025022045;-0.03548147;0.037432216;-0.0339598;-0.04953842;0.03379006;-0.105693705;-0.02399496;0.059807505;0.0233298;-0.053592578;-0.11321116;0.0130701475;0.11817004;0.060256768;0.016128294;0.014074351;-0.021941068;0.07325447;0.08380102;-0.037178673;-0.03681327;0.044133805;-0.007425584;0.004365444;0.07784191;0.06769969;-0.07447274;0.03381531;0.030924404;0.0049614552;0.062779956;0.073543794;-0.114656575;-0.015351468;0.055276435;0.1426354;-0.05977502;0.12616012;0.05324198;-0.092200726;-0.03211812;0.06005931;0.009326407;0.037742253;-0.045389734;0.054098945;0.038997337;-0.08076333;0.0020642525;-0.24029614;0.012642243;-0.0142700225;0.15550265;0.007689494;0.09391793;-0.022914886;0.006302777;-0.076666445;-0.00431415;0.074748665;-0.039507266;0.025845636;-0.019265424;-0.05965003;0.08933559;-0.069094636;-0.045270458;0.048101068;-0.050916076;0.05642753;0.033433467;-0.050533142;-0.064928226;0.10531981;0.0038412607;-0.053139355;-0.02563522;0.003332946;0.049255792;-0.040124457;0.0040294128;-0.12152248;0.066656426;0.016675243;0.065397404;0.00045336437;0.06891969;0.060766272;0.09249567;-0.14844619;0.06248063;-0.21458116;-0.15923974;0.049114335;0.03499206;-0.07530349;-0.03376914;0.05121184;-0.08866808;0.049459156;-0.012765048;0.043180566;-0.03500934;-0.013029347;-0.029231045;-0.04514864;-0.075627916;-0.02485533;-0.062137462;0.0771218;0.0027355705;-0.070433736;-0.027647898;0.044572618;0.07023408;-0.07458459;-0.023854135;0.12663887;-0.070035584;0.0658849;0.13550453;0.038277;0.03994523;0.016603298;-0.017821362;-0.056593254;-0.013920797;0.0102266595;-0.010102017;0.03466472;-0.08466876;-0.01874265;0.0010036314;-0.033561673;0.009442648;-0.02633613;0.012752454;0.0533801;0.079022735;-0.031344168;-0.023103295;0.038239855;0.018952424;0.019035947;0.06886652;-0.06991223;0.054647256;0.0155098345;-0.036113236;0.06948205;0.070719406;0.07703859;-0.0034285884;-0.012226626;-0.2499629;-0.043232396;-0.06430372;0.04056952;0.041465297;0.05370288;0.06126203;-0.020583289;0.07281464;0.011170599;0.011110075;0.04442778;0.014553947;-0.024465226;0.05582716;0.04486953;0.057269577;0.07029789;0.013177985;-0.07308117;-0.03368661;0.02197666;0.06138569;0.008404137;0.06623908;0.019400578;0.014268362;-0.036135532;-0.07454704;-0.022560472;0.05676085;-0.039320283;-0.02846691;-0.021712545;0.060798727;0.054436333;0.14202707;0.070237614;0.041994028;0.095554635;-0.08228056;-0.029608432;0.064908504;0.05986205;-0.031925708;0.06994249;0.014520875;0.10446019;-0.029213388;-0.06565497;-0.032322545;-0.104325324;-0.0962858;-0.0352327;-0.013197765;0.012338616;-0.063661076
-0.019133385;-0.08934847;-0.09365183;0.13442048;-0.0073688556;-0.040693045;0.15694657;-0.056708492;0.06571683;-0.020987712;0.0028205067;0.0013883234;0.07890345;0.0377093;-0.063131474;0.058594927;0.09618194;0.080072284;-0.07500803;0.093834594;-0.058085892;-0.04032293;-0.10164973;-0.084305726;0.041185193;0.0064817327;0.02523089;0.0017012686;0.06221959;0.030308248;0.03171113;0.120578915;-0.09665183;-0.09888552;0.03316693;-0.054259583;0.01807519;-0.1089242;-0.09021661;-0.0040808036;-0.027468497;-0.1804515;-0.1313693;-0.00523271;0.13913523;-0.002813686;-0.116209984;0.074110135;-0.06569267;0.07212463;-0.25778833;0.014071834;0.018948251;0.020272652;0.09827303;0.054056447;-0.028879156;-0.030409997;0.08072895;-0.14091867;0.15044124;0.09914559;-0.07479058;0.018819602;0.06517303;-0.028616197;0.044456463;0.0082958145;-0.012632849;-0.014314532;-0.041835986;0.04161464;-0.092517704;0.13766234;0.081123605;0.035068143;0.12952282;0.03557411;0.017591367;-0.053155556;0.034632683;-0.095738225;0.0006938361;-0.048919644;-0.021324418;0.011137592;-0.066262595;0.058371622;-0.04763466;0.010005869;-0.10278454;-0.016826618;0.07822257;0.13424833;0.108945034;-0.012693328;-0.030533241;-0.057258517;0.0012737488;0.055793464;-0.086190134;-0.02111393;0.041926622;0.06908881;-0.01070734;-0.13228454;-0.0744887;-0.03075873;-0.018106526;-0.01486672;0.05383555;-0.02206217;0.018972568;-0.09857573;-0.06210843;0.065103956;-0.2870075;-0.14672127;0.11104514;-0.0034489234;0.039354738;0.023671005;0.07233636;0.05725201;-0.001994933;-0.037885047;0.07994818;0.022819886;0.12416856;-0.07742024;-0.008720981;0.046110287;0.1334832;0.092019565;-0.09070129;0.04961768;0.052874908;-0.0005805755;0.078811705;0.038145334;0.00014110263;-0.074827395;-0.036344822;-0.044017684;-0.03658717;-0.089258164;0.07413274;0.0131780235;-0.050354637;-0.076670036;-0.06820664;-0.0006181948;0.07884519;0.017979924;-0.2177678;-0.05992093;0.06906304;-0.07401568;0.018742384;0.06382411;-0.039325617;0.079404004;5.3279247e-05;-0.05260494;0.052634194;-0.08918063;0.012630563;-0.10212336;-0.053756267;0.036049772;0.0062264493;-0.10367753;0.06137153;0.035052024;0.0055807116;0.011987047;-0.09508649;0.038148936;0.15645365;-0.018277066;-0.0357061;-0.050529506;-0.071321756;0.033116776;-0.036877736;0.056800064;0.06307;-0.15113008;0.08577139;-0.03843733;-0.03476129;0.028281532;0.04741752;-0.10409122;-0.079491;0.03691408;0.006254101;-0.09377528;0.0068037743;0.029841276;-0.058855478;0.004604019;0.0024843141;0.033640884;0.0021050677;-0.07765628;-0.064973526;0.074911885;0.02743656;-0.008487108;-0.0060812556;0.02939693;-0.054974478;0.047770154;-0.0060301973;0.043445513;0.07479548;-0.10368578;-0.040266033;-0.039913747;-0.098369166;-0.029567646;0.033464696;0.09410188;-0.058730822;0.06395161;-0.023412881;-0.015241125;0.20058942;-0.039672624;-0.00041026896;-0.087424405;0.04717374;-0.16783148;0.006980192;0.03202309;0.011626925;0.013568981;0.04411084;0.018193154;-0.103296235;-0.056385513;0.014617702;0.04357634;0.05879102;0.024101974;-0.06452887;0.054313082;0.17406623;-0.053635374;0.07106838;0.022417596;-0.14991806;0.10488465;-0.11363899;-0.11436831;-0.162923;-0.03329892;-0.06634191;0.0964762;-0.06719701;-0.018735351;-0.019675361;-0.048622034;-0.044648293;-0.07909285;0.036418743;0.04312293;-0.025632035;-0.05276426;-0.028802624;-0.1819826;-0.010291538;0.036875825;-0.09954758;-0.09598965;-0.0739869;-0.07910329;0.15415281;-0.043373782;-0.004865758;-0.10151726;0.03025513;-0.088878095;0.02671649;-0.056700196;0.029927138;-0.025493914;0.009216128;0.043700464;-0.062522545;-0.04590898;-0.014548944;-0.019561423;0.023301186;-0.09443584;-0.0017384978;-0.06932097;0.11201254;-0.105398804;-0.11734378;0.053113814;0.06747438;-0.03800104;0.09146251;-0.06712607;0.03637532;0.06301036;0.03096043;0.019578058;-0.02302865;0.09253087;-0.1135489;0.043008238;-0.020575935;-0.0354778;-0.1381779;-0.058409393;-0.06950323;0.28824106;0.05865796;0.06916067;0.015331524;0.056603268;-0.065089576;-0.06974603;0.011037236;0.0136301;-0.00602209;0.015038755;-0.07247609;0.01321907;0.077816136;-0.18442877;-0.0065847742;-0.04637922;-0.055927876;-0.17963809;-0.1432932;0.06049121;0.010995047;0.095393635;-0.08781204;0.22344555;-0.011814178;0.055562276;0.024066385;0.005417039;0.02259193;0.061171472;0.042248126;-0.007846145;-0.07517337;-0.08718391;-0.016260834;0.09919208;-0.018437356;0.03823409;-0.080269895;-0.010651139;0.04500784;0.07885048;0.06903756;-0.1814608;0.052495226;0.08342375;-0.056741644;-0.07153361;0.042488627;0.029033918;0.04834045;-0.1925304;0.05032657;0.07056461;0.031437412;-0.13706791;-0.11545517;0.03631348;0.005793694;0.07220583;-0.0716692;0.022481188;0.10453072;-0.022674927;0.061106436;0.09664951;-0.021629745;-0.05549686;0.026892021;-0.033905048;0.09910262;-0.076761104;-0.069776036;0.029091721;-0.08712716;0.0302958;-0.07837998;0.05131896;0.039638992;0.0058908365;0.13725445;0.032064993;0.122060806;-0.1253843;0.028729301;0.07546608;-0.1762269;-0.018648352;-0.057663724;0.034479182;0.26443997;-0.029190164;-0.22258027;-0.022252787;-0.0779314;0.13109577;-0.038622398;-0.13910818;0.024560658;-0.05221556;0.021364514;0.07852585;-0.063061096;-0.0568122;-0.057361726;-0.14026587;-0.16945417;0.027102012;-0.017267587;0.13536558;0.0030669044;-0.031049559;0.069394;-0.0034523064;0.17722775;-0.032715153;-0.038532637;-0.013234764;0.03788066;-0.032296546;0.07604438;-0.018272856;0.023988627;0.010424452;0.094014555;-0.100251086;-0.055312946;0.055748582;-0.11105869;0.018299332;0.06687129;-0.064884484;0.06776655;-0.061103888;0.044597503;-0.030574948;-0.100467645;-0.06489227;-0.026641719;-0.024034822;0.04259903;0.024804773;0.09907927;-0.03742583;0.013959446;0.034138534;0.08255271;0.0029740985;0.027255585;0.078457505;-0.024517775;0.12057829;-0.08305971;-0.00027913286;-0.028796554;-0.031119013;-0.07834134;-0.03087486;0.14682469;-0.026471531;0.059190594;0.005906922;0.0836416;0.0009853189;0.056991242;0.037509732;-0.015744971;-0.07771736;0.08257745;-0.10187003;0.03323887;0.043510925;-0.045003694;-0.00014312028;0.065862015;-0.12272692;0.0048412913;-0.037488807;-0.019518511;0.039674602;-0.10274766;0.11806665;0.20432922;-0.052162092;0.019712973;0.058612496;-0.0018517894;0.0045228386;0.1087243;-0.04243519;0.080820136;-0.045476727;0.017249435;-0.001443301;-0.11359073;-0.040755793;0.14373656;-0.052387096;-0.05632304;-0.23075455;0.03642785;0.042682804;-0.054950476;-0.14495173;-0.12194719;-0.05193624;-0.013034206;-0.0033031562;0.012636206;0.07099418;-0.014303226;0.022635208;0.07406663;-0.025034698;-0.06471722;-0.011025178;0.015273859;0.06575581;-0.1024397;-0.06331292;-0.0067134635;0.032857537;-0.056911703;-0.06028375;-0.07485045;0.04453394;-0.058148704;-0.04654112;0.03004402;-0.08923711;-0.07961482;-0.15710069;0.039005432;-0.08978062;-0.019831305;0.03869963;0.09179087;-0.00066453434;0.1329343;0.14351124;-0.045166012;-0.03130628;-0.13137345;0.08854486;0.0717849;-0.01300445;-0.0049496396;-0.074987054;0.01072296;-0.039147425;-0.06366246;0.0040309266;0.031212665;0.075213216;0.007817092;0.057348784
0.04448662;-0.118042514;-0.021318339;0.20947327;-0.07337358;-0.07929564;-0.15311794;-0.08895541;0.02278338;-0.051516708;-0.058841676;-0.09013903;0.058896273;0.0045260736;-0.025492614;-0.004610279;0.19787979;-0.022891462;0.050616812;0.007514509;0.022789242;-0.10473065;0.06654429;0.002089904;0.05170226;0.09130578;0.042279612;0.08388923;-0.09915676;0.049475692;-0.01578807;0.043123994;0.02528067;-0.06261716;0.035697345;-0.02170612;-0.08261935;-0.03639219;-0.04785928;-0.072680146;-0.033829514;-0.35568732;-0.23826256;-0.0644763;0.19409414;-0.10663608;0.02906953;-0.13959265;-0.07485513;0.048054103;-0.25009617;-0.03831792;0.054651674;-0.0368791;0.027915874;-0.07113564;0.010299937;0.012293522;0.033790976;0.007851223;0.2205992;0.065984525;0.012426633;0.060289267;-0.02302559;-0.12427669;0.072893955;0.119179666;-0.039958563;0.0046927338;-0.105472475;0.07721371;0.044465642;0.042454384;0.05805075;-0.0954768;0.020377083;-0.030661792;0.12835208;-0.09191161;-0.04056566;-0.10013275;-0.18831629;-0.080020756;-0.008484019;-0.09901269;0.051092986;-0.05581586;0.083889656;-0.07598689;0.06460455;-0.003978534;0.016359638;0.097910434;0.08050824;-0.0413502;0.009362109;0.013405513;0.07617029;-0.015053607;0.023705829;0.047615312;-0.08460648;-0.058910068;-0.04544291;0.00032714897;-0.07230997;-0.07796265;0.09738588;0.081150584;0.06578536;0.020091115;-0.026445014;0.042263217;0.05864725;0.0601864;-0.32915217;-0.015928827;0.08234803;0.100342624;0.05983718;-0.004803909;0.036165632;0.017544901;0.052569326;-0.023296265;-0.016926985;0.040226866;0.03232636;0.038899124;0.06432313;0.0787336;0.11332445;-0.005647892;-0.054737277;-0.008581089;0.031861622;-0.030621009;0.13974096;-0.08965864;-0.074952744;-0.034754716;-0.076179706;0.046085108;-0.065135345;-0.23252189;0.026571486;-0.083104394;-0.06832975;-0.07904545;0.019424975;-0.026281858;0.030545646;0.07372484;-0.01906078;0.026123438;-0.05928026;0.10053291;-0.06171618;0.05645682;0.07667891;-0.015347502;0.008406964;-0.055170663;-0.0849334;0.04222576;0.08345605;0.0433582;0.12776487;0.0010552197;0.041400865;-0.018471679;-0.012150835;-0.036588468;-0.030828828;-0.0022223315;0.04000532;0.008595165;0.26579863;-0.07724797;0.0239234;-0.10302193;0.00023091411;0.044019796;-0.12479255;0.006352712;0.042904004;-0.019942638;0.051150076;-0.043762796;0.037431814;-0.011095382;0.096468374;-0.07467031;-0.06091977;0.079007916;0.0933414;-0.19751753;-0.059687167;-0.025313048;0.04291638;-0.09877248;-0.05854692;-0.1069523;-0.09932722;-0.034956492;0.11952363;-0.015443626;-0.0018033091;0.06845248;-0.049281668;0.059191257;0.04845479;0.13303544;0.003600161;0.009568721;-0.03758052;0.03634594;0.09889294;0.077606045;-0.037100155;0.12361126;-0.11504169;0.09199993;0.034821134;-0.061677985;-0.053827196;-0.08528006;0.20262462;-0.17296842;0.036747638;0.025985409;0.0069813845;0.031224681;-0.07380503;-0.058133647;0.05911378;-0.050549354;0.047946375;0.06233837;0.042049356;-0.03831202;0.061954655;-0.03795006;-0.02893679;0.14710362;0.063448444;0.10467944;0.040867742;0.028422467;0.035237268;-0.02956471;-0.24187337;0.11402781;-0.06811561;-0.097397074;-7.6206605e-05;0.04996684;-0.07119181;0.053212818;0.02238011;-0.043565422;-0.003855431;0.0046751318;-0.113555245;-0.016951073;0.04427921;0.008868885;0.09019502;0.07657533;-0.08326467;-0.25258437;-0.031817537;-0.095030986;-0.031525034;-0.01035453;-0.12840424;-0.03257015;0.07539688;0.038927298;-0.11179674;0.0142343445;0.08042353;0.038657017;0.07804649;-0.03791629;0.03640653;0.05454849;0.009223468;0.051693767;-0.018019307;-0.08604267;-0.067456625;0.026726415;-0.015410068;0.04903275;0.063565515;-0.05990968;-0.024898011;-0.087343186;-0.096511476;0.11779194;0.035036933;0.080783226;0.11533244;0.069268964;0.046126258;-0.057520546;0.026331844;-0.09511381;0.03459496;0.07998295;0.02129913;0.23442625;-0.0560946;0.0541857;-0.14628528;0.12367984;-0.0079869935;0.20626384;-0.03193572;0.00085397606;-0.04807316;-0.09794822;-0.020885235;-0.01898923;0.053795736;-0.11028686;0.010327886;-0.065206826;-0.0120322965;0.046619467;-0.06861543;-0.17775503;-0.06705054;-0.11325266;0.051903177;-0.15301618;-0.26675054;0.07143874;0.07413666;0.06845754;-0.11695289;0.118754506;0.11665084;-0.067069024;-0.0890602;0.033947013;-0.017348725;0.016580937;-0.21222228;-0.07470474;-0.0077818497;-0.022102393;-0.02749327;-0.022454454;-0.053843495;-0.0013718402;0.04239867;-0.04788343;-0.066340834;0.10314026;-0.08255927;-0.14874575;0.0657586;-0.084456995;-0.08747664;-0.08367227;-0.0053205807;-0.061193563;0.018714145;-0.21188809;0.027361585;0.053174365;-0.10083452;-0.17205454;-0.07866255;-0.02415233;-0.048316505;-0.00671077;-0.040857814;-0.09223624;0.19417797;-0.050006665;-0.06933622;0.058624316;-0.020244714;-0.104665816;0.054534633;0.073284775;0.038243886;0.026774274;-0.06516447;-0.05309373;-0.071339555;0.03362637;-0.0845094;0.046352975;0.047752038;0.09205375;0.084787555;-0.0600636;0.08789515;-0.03013329;0.13058631;-0.11605433;-0.15606022;-0.106500104;0.08124445;0.059690405;0.1748325;-0.0319258;0.012426921;-0.015900098;-0.061953276;0.089509755;0.08122274;-0.12572281;0.020352615;-0.1276283;-0.04047828;0.14197583;-0.010634197;0.05944972;0.04924992;0.022654276;-0.08317745;-0.07620433;-0.04774153;-0.006313905;-0.03755875;-0.1058974;0.039294574;-0.051251367;0.14497483;0.031305782;0.03954964;-0.06457203;0.11194107;-0.044818863;0.029235257;-0.075298876;-0.061624806;-0.048157938;-0.073745176;-0.17486106;0.051300894;-0.07133963;-0.106190644;-0.06816592;-0.07341185;-0.04275003;-0.07196787;-0.0065602846;-0.08526283;-0.0025729274;-0.084012106;0.005358086;-0.07855521;0.061889343;-0.020051336;-0.07569724;0.061073635;-0.054920245;0.019445779;-0.08163042;0.06750051;-0.09205124;0.032964922;0.0045729675;-0.006174063;-0.055580225;0.060916003;0.025169216;-0.06914638;-0.03658106;-0.043979064;-0.05608324;-0.012056215;0.08501579;0.061763827;0.027497116;0.25333905;-0.17522654;0.004246648;0.120991796;-0.03739254;-0.037013475;0.1325987;-0.03185099;0.079880856;-0.080599725;-0.10113947;0.0438747;-0.06982727;-0.060407862;-0.06673826;-0.01433075;0.006972239;-0.004310381;0.09973032;0.05624889;0.04709736;0.048512474;0.055042017;-0.060760118;-0.10570053;0.03732729;0.1850599;0.06021311;-0.013548975;-0.031552244;-0.08878816;0.03856592;-0.10636023;-0.07834592;0.16875513;-0.027581876;0.07752347;-0.040959723;-0.021965506;-0.05035521;-0.051198725;-0.012731358;-0.0033312931;-0.019747166;-0.059249114;-0.10238316;0.015146254;0.10787426;-0.036472574;-0.074422345;0.15613405;-0.1073975;-0.010698479;-0.041499607;0.072412625;-0.0825413;0.032207146;-0.028621001;-0.014946287;0.016229073;0.05077396;-0.094917156;0.039962392;-0.014334205;-0.009398183;-0.05721544;-0.005039544;-0.043389343;0.01382652;-0.06347351;-0.049302336;-0.077592075;-0.00030160556;0.15111588;0.028613385;-0.06078388;-0.05937015;0.06626439;0.021776838;0.022368353;-0.052212454;-0.07646889;-0.016462032;-0.05673223;-0.21756193;-0.052471537;0.017610632;-0.01903905;-0.06858695;0.013556007;-0.19155876;0.076713115;-0.023485709;-0.021995146
0.0840913;-0.09257497;-0.07090832;-0.09196662;-0.10102631;0.048089553;0.033521436;0.019741751;-0.12763654;0.07046488;-0.076898396;-0.012138342;0.072677374;0.040642373;0.020330856;-0.066680506;0.016559264;0.20192076;0.0020093266;0.00012317637;0.03533886;-0.1130502;0.011505327;0.012880003;0.038455956;0.17056054;-0.058869984;0.05880481;0.025141953;0.0034144884;-0.09698121;0.039315734;-0.012197034;-0.16752361;-0.0067490796;-0.0074126283;-0.0018820163;-0.18373333;0.002891526;-0.07378603;-0.060877122;-0.10214107;-0.11166617;0.021593794;0.1400314;-0.11826254;-0.069279194;-0.059055734;-0.0035907489;-0.057162885;0.0006267702;0.22799505;0.0238746;0.15709409;0.11428024;-0.10258362;-0.05426044;0.051820848;0.034628734;-0.053798523;0.1943757;0.08841226;-0.10337544;-0.050300535;-0.016594488;0.06425562;-0.054761853;0.06702642;-0.122288905;0.01983302;0.031398233;-0.0038506074;0.02992637;-0.051298015;0.098857224;-0.039129347;0.026660096;0.10821579;-0.030245882;0.017527422;-0.01923347;-0.046867583;-0.32889104;0.08712383;-0.0019167924;0.047338363;-0.029807776;0.04288168;0.022213161;-0.058240276;-0.059644546;0.016355855;-0.045445833;0.08264363;-0.1340511;0.058937468;0.17317773;0.026982514;-0.06320104;-0.07604874;0.02382191;0.083210714;-0.12212328;0.0518935;-0.09445998;-0.12976979;0.027574591;0.015858056;0.065031566;-0.05554961;-0.033575073;0.034309417;0.16287917;0.11398689;0.11790705;0.010907133;-0.33255765;-0.13395552;0.11148065;0.04141719;-0.18490909;0.007037736;0.037486535;-0.0072329002;-0.066253364;-0.07341358;0.042909753;0.03742233;0.06953186;0.051224828;0.03163168;0.039249666;-0.13884684;-0.24640182;0.121810324;-0.010028906;0.060423028;-0.03630749;0.1017252;0.091766536;-0.0788063;-0.07088029;0.051590938;-0.014919367;0.030891603;-0.31910363;0.14752914;0.017160157;0.08646671;-0.054865606;0.0015170734;0.08632753;0.043173037;0.010932015;-0.21358252;0.03989233;0.056912757;0.04400004;-0.04204089;0.027429178;-0.035047036;-0.0074533154;0.016383605;0.005565773;0.0013487887;0.008025792;-0.008949576;-0.033003505;0.09390308;-0.005804382;0.07261633;-0.19217026;0.037841026;-0.06407932;0.02148175;0.057196133;-0.024237104;0.034545507;0.07598258;0.08230539;0.009199724;0.049898252;-0.013040857;-0.07925413;-0.09294218;-0.058404244;-0.039089;-0.1332637;0.04519392;-0.0017644016;0.0015873056;-0.0069791013;-0.03294184;-0.0016229225;-0.04416503;-0.013812225;0.068121925;-0.109696075;-0.022805417;-0.0788637;0.033624366;-0.016994128;-0.033816576;-0.07493276;0.052540213;-0.0035146473;-0.16746072;0.16722311;0.012540699;0.060403503;-0.1680942;0.0328454;-0.06974003;-0.05295519;-0.15523903;0.051947568;0.06657934;0.04209637;-0.008375312;-0.09101964;-0.05516498;0.0054144072;0.015475166;-0.06686192;0.047576733;-0.07395205;0.01650585;-0.10293334;0.01707743;-0.13630669;0.045261543;0.13610104;-0.059892688;0.06775702;-0.049262784;-0.020319605;0.03281758;0.032250647;0.04529762;0.068987004;-0.028371353;-0.009774073;-0.0903835;0.05364971;-0.0037249296;0.08120196;-0.017435921;0.036635;0.15619892;-0.017956285;-0.063716836;-0.042474225;-0.09800443;0.05179108;0.029907627;-0.0577208;-0.14861266;-0.026133513;-0.018562423;-0.0035191828;-0.056851733;-0.06342476;-0.09925176;-0.09278822;0.0040524327;0.012424002;0.035436023;0.034193575;0.045359436;-0.034328256;0.061867602;-0.22596478;0.03526642;0.013854993;-0.024131216;-0.05730308;0.014264279;0.09357891;0.0056703277;-0.044336572;0.009662386;0.04786332;-0.06415405;-0.11546753;-0.05925326;-0.031557173;-0.036995724;-0.07807094;-0.013541975;-0.034175638;-0.0170981;0.06480844;0.025615385;-0.026655937;-0.09103583;0.2173526;0.15728843;-0.28587246;-0.077643566;0.027503524;0.03189385;0.1259565;-0.012210698;0.0027505753;0.021173747;0.0075909775;0.05580419;0.08901272;-0.023788648;-0.074254505;-0.017400736;0.07193231;0.03559688;0.28409567;-0.05058043;0.03429706;-0.1956916;0.072953984;-0.07363442;0.2629734;0.04473468;0.037705164;-0.04614319;-0.07403376;-0.010085581;0.018209068;0.009929634;-0.28535816;-0.03583721;0.009911222;-0.04010669;-0.010022848;0.004445971;-0.24081612;-0.10199272;-0.024125624;-0.042337984;-0.13645661;-0.12970915;0.0023239786;-0.0014890392;0.119367294;0.031988945;0.22568256;-0.07006651;0.11329225;-0.03645576;0.016504552;0.057335805;0.014578219;-0.16571699;-0.12123091;-0.025788693;0.063388035;-0.044353154;-0.07703515;-0.0062544206;0.029597955;0.019903928;0.0867603;-0.07700328;0.048351485;-0.04192363;-0.06645702;-0.01508099;-0.031072726;0.056607414;-0.07307896;0.068801686;-0.05116116;0.06624919;-0.22520919;0.062460072;0.079431176;-0.058016025;-0.004587883;-0.10238681;0.042791616;-0.005827008;0.022652782;0.04920455;-0.013785436;0.14792618;-0.043990564;-0.0682924;0.019221326;-0.06753733;0.034224182;0.079056725;-0.05329576;0.0356691;0.059925623;0.10694842;0.032713424;0.026596455;0.17662922;-0.010837237;-0.031747095;0.10848419;0.054476548;-0.08501736;0.058559697;0.14026015;-0.10226801;-0.04723627;0.12693234;-0.120270565;-0.08086672;-0.068985336;-0.05954716;0.07175274;0.02314693;-0.10815764;-0.046259012;-0.09627847;0.051701985;-0.066720895;-0.088423595;-0.04839727;0.028327366;-0.08762643;-0.08654586;0.0241855;-0.03243974;0.034104936;-0.098637186;-0.16306417;-0.006550903;-0.026633313;0.13056861;-0.059382264;-0.003726512;0.11757038;-0.0336044;0.17953649;0.09812677;-0.024730207;0.009900939;-0.012331779;-0.05577776;0.10109282;0.012335995;-0.020712841;-0.04484151;-0.00011854976;0.09035731;-0.102450676;0.19132484;-0.1817439;-0.06723115;0.072045155;-0.02160267;-0.008295613;0.16937828;-0.01172313;0.08811754;-0.20910466;-0.07027749;0.025500858;-0.01854406;0.0588579;-0.036500823;0.04277067;-0.029500669;0.003404462;0.040556706;-0.07493685;0.11018304;-0.0046375333;-0.027366912;0.013872848;-0.06660319;0.0466093;0.061426137;-0.084846005;-0.044186763;0.03250667;-0.010212249;0.11099988;-0.050751276;-0.017082635;-0.043991998;0.16189134;-0.069084644;0.035416298;0.10715801;0.04614555;-0.07134743;0.09613898;0.038000386;-0.06974363;0.022653162;0.044127014;-0.016356658;-0.06815202;-0.16207162;-0.03197365;0.0058317087;0.030464774;-0.060577933;0.021563154;-0.046570532;0.1794575;0.047642037;0.07302594;-0.08622891;-0.011153368;-0.0042821965;0.066465884;0.022393337;0.10644241;-0.06930471;-0.011325543;-0.0020948118;0.07452563;0.08846287;0.0018524993;-0.0024735136;0.07134187;-0.087503284;0.03591254;0.065470695;-0.044133585;-0.06750082;-0.066955574;0.06491252;-0.056698985;0.01575426;0.071449436;0.11328418;0.030969193;-0.012497804;0.18405685;0.00398403;0.02794058;-0.003983285;-0.043972023;0.071461275;-0.020443153;-0.24716514;-0.005476873;0.010976667;0.03730444;0.057893287;0.010080552;0.07692283;0.0009385494;0.042578228;0.05652909;-0.014401099;-0.06561899;-0.0043645473;-0.06097964;-0.026960203;0.027604597;0.109282464;0.07460623;0.026521087;-0.04924039;-0.15157664;0.040523473;-0.07179571;-0.21471316;-0.110733636;-0.007837245;0.04216569;-0.11983413;-0.1563463;0.049947303;0.04299673;0.1008075;0.059457287;-0.14927037;0.051374126;0.08275908;0.06262014
0.019555474;-0.096592166;0.05577915;-0.064546585;0.012334469;0.07745843;0.051744204;-0.065881774;-0.16677444;-0.08442265;-0.06589742;0.012685185;-0.077263065;0.0343197;-0.035423595;-0.039828014;-0.13402586;0.03620272;0.044999402;0.025829704;0.08545905;-0.105888255;0.06929918;-0.05451706;-0.023514766;0.05330644;0.08914842;0.050255153;0.036709942;-0.090434015;-0.1255674;0.08468384;0.03328299;-0.15021652;0.08685471;-0.05882425;-0.1770788;-0.071833305;-0.09437414;-0.047915466;0.032110307;-0.16535652;-0.0027291512;0.050185975;0.16040522;-0.07220875;-0.057568274;-0.10262716;-0.034795567;0.066725366;-0.39095998;-0.021915529;-0.0692474;0.09331606;-0.015857588;0.007434502;0.011103874;0.027037399;-0.1024646;0.09235638;0.14546518;-0.09774701;-0.0011622522;-0.1509084;0.02202642;-0.00457352;-0.08238649;0.12648416;-0.009464643;0.057117004;-0.1015813;-0.01598405;-0.05436285;0.14806265;-0.069704086;0.04269277;-0.059422344;0.06741873;-0.19966337;-0.07158195;0.032157373;0.043061253;-0.23162912;-0.1194992;0.015188839;-0.11368303;-0.026652751;0.0342015;0.0049689696;0.10746358;-0.0439604;-0.023835128;0.113452695;-0.041113645;-0.016447354;-0.037206244;0.09017716;-0.008880706;0.0045394525;-0.087306574;0.03514053;0.17778102;-0.010672113;0.04555437;-0.017096445;-0.12100081;0.0071383873;-0.023932606;0.0006382143;0.023931326;0.12790716;0.021019489;0.048791666;0.07291845;0.12710558;0.0032432014;-0.5160823;-0.045501128;0.026741818;0.032367237;-0.24330725;0.07566345;0.026639827;0.0024211877;0.0011749552;-0.04505012;-0.09961507;-0.054331254;-0.0063812453;-0.0323305;-0.010778463;-0.036325995;-0.24532157;0.060107075;0.1900303;-0.06275542;-0.06883717;0.0044962955;-0.02964492;0.020981386;-0.1274669;-0.061212704;0.06019188;0.04699239;-0.107705;0.010412314;0.075041786;0.0073595475;-0.0061442344;0.027904714;0.037695266;0.016809858;0.020412948;0.16663277;-0.029416317;-0.071166;0.007512741;-0.039391607;-0.0033364813;0.009493756;0.003910508;-0.0244137;0.11887069;0.01683627;0.047118135;-0.005312721;-0.07151306;-0.055346563;0.0033319257;0.0075919875;0.059682384;-0.14106244;0.018989258;0.033185847;-0.025726808;0.0005502241;0.08725052;0.023302374;-0.031257164;0.040928096;-0.07549107;-0.07045021;0.06573242;0.012385501;-0.023182064;0.06780348;-0.022402188;-0.062263597;0.028798556;-0.050077673;0.18743064;0.044486217;-0.073699795;0.020760594;0.05308655;-0.035528846;-0.07169443;-0.1975723;0.0016006182;0.021696692;0.07388782;0.25937515;-0.046611514;-0.051117457;-0.06724574;-0.065290384;-0.29031187;0.06656287;0.057620917;-0.015787581;-0.05086722;0.0074007222;0.07823229;-0.16953126;0.02263462;0.05152987;-0.058697533;0.048204053;0.001636942;0.073018186;-0.07472745;0.14215603;0.044218786;0.0001785678;0.08720892;-0.068832956;-0.13928229;0.11228972;0.022508757;0.02153238;0.08688301;0.32244763;-0.043583136;0.06644842;-0.02142553;-0.056665078;0.08335542;0.022485286;-0.046833567;-0.06732387;-0.004506276;-0.06264598;0.15780412;-0.004529444;0.072998025;0.057118762;0.021931201;0.069761;0.07584991;-0.017780997;0.055218175;-0.032547116;-0.30589458;-0.073112845;-0.12232858;-0.01533986;-0.13353616;-0.004980411;0.04006928;-0.007105162;0.070159554;0.05757786;-0.03501781;-0.05544567;-0.074626416;-0.039549883;-0.04091754;-0.08075015;-0.08115588;0.014247652;0.05210319;-0.10703108;0.02896016;-0.07030259;0.09638882;-0.040024057;0.117308415;-0.13062409;-0.24297735;-0.07846771;-0.015601435;-0.10333904;0.04604983;-0.07056031;0.062349975;-0.13778232;-0.04964146;-0.103945255;-0.10841352;-0.052532688;-0.08410036;0.026644642;0.020063905;0.0519936;0.01982039;0.07101409;0.12743711;-0.07461217;-0.039367538;0.11494619;-0.11791114;0.11914841;-0.093561485;-0.029265327;-0.10751713;-0.030770652;-0.015921537;-0.01828295;0.12704681;0.072482966;0.06353176;-0.030862259;0.08679101;0.20095217;-0.14259298;-0.058091197;-0.25024635;0.058722064;-0.0360107;0.3243408;0.038041946;0.00049850094;-0.0287668;0.012233236;0.06182221;-0.020583065;0.015495639;-0.11562446;-0.019071188;-0.038894136;-0.111471094;-0.0644964;0.013268135;-0.19240054;-0.13282438;0.011633713;0.024715172;0.018284371;0.10095778;0.07517557;-0.14170112;0.037615936;-0.04197766;0.16448733;-0.031302925;-0.032178987;-0.008851255;-0.021100454;-0.026504101;-0.0014273328;0.11932151;0.091525674;0.05600031;0.054175586;0.084957965;0.13315608;-0.017791534;-0.03416866;-0.04166891;0.008346384;0.12460068;0.030700436;-0.13635191;-0.1861517;0.041621767;0.026136098;-0.0022844884;-0.034732047;-0.01993235;-0.069244355;-0.023748979;-0.19531223;-0.062824205;0.06977373;0.078205004;0.036161784;-0.25108775;0.18842037;0.002550714;0.07623067;0.00889747;-0.08479581;0.09586446;0.016822902;-0.03231792;-0.10944734;0.07054278;0.09389549;-0.09489209;-9.2364215e-05;-0.08050826;0.057131313;-0.03605082;-0.022289906;-0.07763944;0.10853472;0.027681228;0.0015984913;0.043347754;-0.031250942;-0.03857718;0.047133833;-0.06593048;0.042075373;0.050573613;0.14503492;-0.17906924;-0.06597443;0.030843511;0.0064506107;-0.042925827;-0.003512473;-0.16738297;-0.032178327;-0.048552733;-0.040785443;-0.14639987;0.00023227077;0.056235027;-0.19041179;-0.038679466;-0.037974752;0.031039521;0.03877916;-0.02571313;0.11720784;-0.15142092;-0.053199537;-0.027864618;0.20779835;0.027751498;-0.006156466;-0.03220783;-0.054239657;-0.077541396;0.019511584;-0.0422284;-0.10491817;0.021759667;-0.055526473;-0.020145811;0.021937145;0.006453514;0.036678556;-0.07560345;0.05186553;-0.035061143;0.13933647;-0.08286761;0.0055390545;0.018627603;-0.044159304;-0.019837955;0.058132745;0.009982852;-0.1229751;-0.1707925;0.19757192;-0.027845705;0.049685955;0.037022047;-0.017687414;-0.046499625;0.013911208;0.029387744;0.04547422;0.12892227;-0.044616465;-0.029175239;0.06512137;-0.008060339;-0.12299189;-0.06390223;0.05672487;0.09222109;-0.037948318;-0.0010236405;0.040433895;-0.006111708;-0.041569922;0.08752014;-0.072682664;-0.0027732528;0.13144837;0.047415935;0.054177336;0.03657099;-0.07570707;0.054576878;0.062775575;-0.011967214;-0.007033673;-0.05509536;-0.08694038;0.032456577;-0.2209741;0.072657794;0.031678952;-0.063420616;-0.006367724;0.07997108;-0.12189806;0.099960454;-0.09727283;-0.06385263;0.10470769;0.013148976;-0.07640697;-0.084844925;-0.107318394;-0.05762245;0.06596528;-0.015878616;0.006996955;0.15071067;0.021840435;0.00969029;0.0058526993;-0.070654035;0.021976735;-0.07388301;-0.018901937;0.038239524;-0.108281285;0.03285759;0.0058311457;0.035393186;0.03955041;0.004663164;0.10112462;-0.063734286;0.0029216346;0.091398805;-0.11434516;-0.057136424;0.07675375;-0.08650146;-0.044222858;0.0021104943;-0.110884614;-0.012333807;0.079001054;0.062455688;0.039818723;-0.0947203;0.06498466;-0.20976278;0.09526236;0.07713436;-0.041935574;-0.025351638;0.000992909;-0.10107298;-0.006763858;-0.08091823;0.0941374;-0.013935147;0.008709517;0.15345652;-0.14097081;0.10210401;-0.045291893;-0.30393842;-0.18873864;-0.049100164;0.012589895;-0.0118283685;0.08267817;-0.019986618;-0.011471975;0.109792635;-0.14870253;-0.25665784;0.038922075;-0.010018711;0.030215831
-0.074827135;0.053999424;0.037092384;0.020058405;-0.12073202;-0.025901316;-0.05097425;-0.0822919;0.07829571;0.041446574;0.0371222;0.19930357;0.0072878185;-0.06704926;-0.060224846;0.009794549;-0.009851898;-0.04143866;-0.018899988;0.03596634;0.025859447;-0.07548153;-0.076072864;0.012801292;0.0054356866;0.07789078;0.038954984;0.03808041;-0.01508446;0.11749292;0.052516345;-0.045183405;-0.027619109;0.06335196;-0.05188074;0.047727052;-0.094474345;-0.10715707;-0.08400541;0.095469244;0.035457954;-0.22047333;-0.13211231;-0.016230136;0.1672499;-0.08213794;0.030635944;-0.024790715;0.07468399;-0.22206254;-0.14980577;0.017887019;-0.055632032;0.14751314;-0.11171288;-0.015489064;-0.07790806;0.0032684898;0.0637263;0.060889672;0.14736947;0.0028401262;0.09719804;-0.07254486;-0.029375913;0.04848868;-0.052855387;-0.058649864;-0.028679227;-0.057611637;-0.02979775;0.032113403;-0.053011592;0.07013594;0.13761944;-0.09161229;-0.083914876;0.045894377;-0.029182518;-0.03941316;0.05329576;0.029481718;-0.346801;-0.079375625;0.06834453;-0.13902344;-0.11179266;-0.016732376;0.040741947;0.07164287;0.02583437;-0.01402376;-0.02853654;-0.034274116;-0.10065353;-0.0047019627;0.11719732;0.052768793;-0.02317113;0.04051129;0.025071986;0.069525875;0.05350665;0.03647862;0.020535689;0.01685102;-0.03644533;-0.049058754;0.080229215;-0.07655875;-0.03816202;-0.057277992;0.10641251;0.026919004;-0.031431492;0.032588996;-0.33144262;0.072197236;-0.037522767;0.035108425;-0.13729845;0.07745916;-0.035703998;0.029113378;0.015042024;-0.032471165;-0.058052678;0.036015637;0.03534184;-0.019180708;-0.051037095;0.03834251;-0.16474742;-0.08432327;0.046880044;-0.054075327;-0.0039771735;0.008109844;-0.124569215;-0.013283249;-0.18485144;-0.066790424;-0.03924791;0.04384158;0.06012056;0.11922875;0.09213185;0.07770764;0.022296581;-0.021879466;-0.06609654;-0.026216285;-0.04836463;-0.07632989;-0.005273606;-0.01932375;0.020980937;-0.010818111;-0.039326917;-0.031242779;0.033381224;-0.030114654;-0.15368854;-0.082195796;0.05254333;-0.10130356;0.076166905;0.04987083;-0.049783956;0.00041813153;-0.030845435;-0.015016947;-0.08070115;0.04679712;0.043169778;-0.028768584;-0.03174537;-0.14165148;0.098041095;0.027058786;0.10449655;-0.02182832;-0.04515562;-0.018467033;-0.041362368;-0.053537317;0.017710937;0.036686394;0.12722199;0.058280814;0.111929946;0.030764882;-0.15002018;-0.026874097;-0.06614264;-0.06115627;-0.020234223;-0.112443976;0.055651404;-0.048736487;0.010526227;-0.06414993;0.07309473;0.06269099;0.03236029;0.03370688;0.054025758;-0.0044002132;0.047226805;0.091583736;-0.11184624;-0.08049726;0.0001701882;0.1520593;0.03864371;0.21304502;0.05022359;-0.029429669;-0.04734867;0.099558175;0.03841469;0.016459918;-0.0046390537;-0.13117824;0.04192302;0.028678978;0.083910525;0.06936011;0.012838987;-0.23773153;0.11069135;0.22291726;-0.0041163107;0.14244048;0.0030761142;-0.0024397923;0.020414373;-0.039488975;-0.051715016;-0.007925952;0.0011872394;-0.15329474;0.010339717;0.05673413;-0.072247736;0.06244383;-0.054915186;0.12455624;0.019562142;0.04888213;-0.048716836;-0.12224644;-0.15441093;0.0005141603;-0.0556996;0.06957799;0.037459724;0.033884883;-0.0653251;-0.104174346;0.06512608;-0.06877965;-0.014812242;0.029836956;-0.122541696;0.030975195;0.05728562;-0.05812816;-0.07529782;-0.028484292;0.021090955;0.00061624614;0.0032313366;-0.068017855;-0.12907463;-0.0055366587;-0.09443799;-0.05465502;0.002414949;-0.09945518;0.145954;0.10763257;0.019933507;-0.10525335;-0.037331033;0.07711274;0.020822836;0.07851418;0.03893292;0.063303865;0.029414192;-0.005841633;0.057107497;-0.094185926;0.05432951;0.111562505;-0.007951955;0.027624479;-0.03921601;0.03814221;-0.074292205;0.11881335;-0.09109214;0.079960965;-0.022107879;-0.016875483;-0.08853838;0.011201478;-0.025477285;-0.008009916;0.097039334;-0.08895583;0.08927201;0.05809638;0.005349997;-0.0906359;-0.07514677;0.040371366;0.053405955;0.22564436;-0.021378253;-0.012578877;-0.062630646;0.028662488;-0.040035125;0.021361962;-0.023828082;-0.18015453;-0.048737753;-0.07842992;0.008457232;-0.24596463;-0.048308704;-0.13822596;-0.1071693;-0.0032706298;0.026951447;0.06926854;0.023935266;-0.033632655;-0.09302679;0.0734886;0.074490175;0.10314465;0.023047926;0.00017971662;0.028010488;-0.068513736;-0.0566008;0.030138051;0.07515402;0.0027717706;0.12852551;0.019553345;-0.08064008;0.033591203;0.12753771;-0.0022156038;-0.059168424;0.06783164;-0.13900974;0.20232007;-0.013578839;-0.08915794;-0.050024897;-0.075144514;0.10745149;0.011621915;0.061171;0.005648532;0.008770115;-0.30504084;0.018337402;-0.08787691;-0.06970176;-0.00042586282;-0.0038816747;0.039230987;0.024168272;-0.005649383;-0.102570176;0.037433963;0.12047056;-0.08640142;0.05814878;-0.15312102;-0.05069457;-0.01628272;0.010525209;-0.003599782;0.066507116;-0.0053519662;0.047781732;0.014220804;0.0643683;0.049721472;0.029834522;-0.033444613;0.0074828803;-0.074473;-0.053859994;0.0019931379;-0.026874747;0.06275046;0.053677168;0.036912493;-0.10492852;-0.0969603;0.026950236;0.0023325898;-0.018636132;-0.10270888;0.043197107;-0.0037980084;-0.08976757;0.08828368;0.10076751;0.20228271;0.04196961;-0.11285332;-0.074908644;0.0069198906;-0.10664739;-0.021090657;-0.050148103;-0.06537253;-0.0075366185;-0.087653615;-0.07129712;0.1206547;-0.12351602;0.007133985;-0.075763926;-0.07225496;0.048271943;0.0564731;-0.03420543;-0.049156938;0.046249192;0.000924977;-0.11938022;0.0029409241;-0.101342276;0.10941889;-0.07095363;0.101176046;-0.0054004826;-0.0021229496;-0.053893328;0.018844562;-0.019282851;0.020835755;0.01952327;-0.15986864;-0.025714654;-0.07955904;-0.25805515;0.036439065;-0.05527651;-0.010996066;-0.009341143;-0.042382333;0.08229179;-0.062339023;-0.06006675;-0.09880514;0.08305232;-0.05695667;0.028268922;0.04628662;0.022237532;-0.100410745;0.02987347;0.05476859;0.0070049656;0.08936105;-0.03268067;-0.08563505;-0.13120326;0.040865928;0.062727645;-0.07164047;-0.01960924;-0.15241037;0.028449519;0.11319021;0.024855627;-0.028960038;-0.03387868;0.0733429;-0.04855956;0.049215797;0.0314931;0.017791936;0.049279217;-0.07460739;-0.013863926;-0.034567874;0.04931274;0.014341591;0.012053915;0.05726067;0.062482875;-0.0043743537;-0.033095125;-0.035103194;0.02086121;0.08802247;0.1667449;0.044223044;0.06984273;-0.03897204;0.095237516;0.08034934;0.12021564;-0.025863422;0.08361294;0.049325675;0.0073104617;-0.09298263;0.093431;0.05585846;0.04665078;-0.05887818;0.055133726;-0.06983613;-0.024196733;0.005370215;-0.030136134;0.034043625;0.03694286;0.038660172;-0.0041033207;0.05435998;0.059766326;0.04815101;-0.103568286;0.034045193;0.028493501;-0.20422837;-0.060272887;0.05216879;-0.04028317;-0.026050933;-0.00265809;0.09574825;-0.0398371;0.02348462;-0.030419676;-0.025042847;0.009797398;0.07337818;-0.021734918;-0.021646932;0.0166377;0.013159257;-0.014161717;-0.027139334;-0.14799994;0.0008879983;0.043991797;-0.042433485;-0.16003105;-0.16526882;-0.07409006;-9.773678e-05;-0.037509933;-0.034466844;-0.004032698;0.037626367;0.005226054;-0.066093326;-0.43820634;0.06149811;-0.057152636;0.07989485
-0.034218933;-0.024500888;-0.035355907;-0.048228957;0.062008463;0.041254275;0.07489216;-0.05519705;-0.025878;-0.016097136;0.082599305;0.025726939;0.040323887;0.00021849337;0.026725478;0.058312103;0.08256172;-0.15300176;-0.059422024;0.028064812;0.0017660451;-0.057301737;-0.019579649;-0.060988102;0.0489003;0.092980556;-0.024657594;0.023975696;0.14632866;-0.041007724;-0.07011477;-0.019806532;0.028241245;0.19071424;-0.03671511;0.075211465;0.05352226;-0.16461177;-0.08306661;0.060160115;-0.018426685;-0.24584551;-0.15723588;-0.09673079;0.05937455;0.0033198544;0.06426278;-0.110194504;0.08723424;-0.12613009;-0.2677165;-0.22248924;0.029384615;0.05042575;-0.007766766;-0.039695326;-0.047599606;0.029251387;-0.025285643;0.022826374;0.05280272;-0.02142127;0.11572976;0.010774797;0.0044554416;-0.049154665;0.072044834;0.0011789512;-0.007176481;-0.025454327;-0.06224289;0.086111814;0.058552235;0.014965762;0.06645206;-0.03586356;-0.07148034;0.08941622;-0.039281428;0.05684161;0.043301027;0.009650633;-0.21545127;-0.15772054;0.0150469085;-0.12822692;0.02919393;-0.05493493;0.030880354;0.035861954;0.0040609613;-0.009021333;-0.101742655;0.047111407;0.032756545;-0.04612679;-0.09269119;0.015674189;-0.0403957;0.027008101;0.016121972;0.07916627;-0.045396995;0.0654731;-0.03244911;-0.032256078;-0.081952706;0.003340308;0.00078335404;-0.041834045;-0.091011204;-0.08507377;0.10224434;0.06670278;0.07200192;-0.061886255;-0.32164556;-0.011873794;0.020683907;0.07104909;0.07832246;0.036072396;0.009719235;-0.077042386;0.06856867;0.08538304;-0.08320734;0.06201018;-0.0018789499;0.0003835872;0.04338956;-0.046217706;0.038361613;-0.02572027;-0.023230053;-0.035988394;0.03763925;0.021093287;-0.15707129;0.044296082;-0.0774899;0.009554516;-0.101681836;0.055885397;0.010354095;0.06939053;0.21002753;0.02842345;-0.07508537;-0.0826582;-0.078256786;-0.024684092;0.035081528;-0.04112271;0.25949138;-0.002582958;0.05800999;0.16244952;-0.07772033;0.05779423;0.04479748;-0.011031369;-0.15017979;0.051420327;0.0499677;0.023399541;0.0067667277;0.06657561;0.032133248;-0.08539502;-0.006513601;0.07855572;0.023827242;-0.01490811;-0.07396574;-0.064039454;0.0013767377;-0.012236907;-0.09970411;-0.06788295;-0.022964692;-0.032592434;-0.05257939;-0.05124154;-0.123595975;-0.16604397;0.05046963;0.17363569;-0.1281265;-0.063681826;0.07252929;-0.038395375;-0.22616069;0.06611115;0.07527112;-0.004047933;-0.03250883;-0.10638953;0.103001155;-0.009999329;-0.00196282;0.04996003;0.060357932;0.015311307;-0.06939413;-0.03363438;-0.046049096;-0.07141857;0.020898968;0.008902382;-0.12682669;0.04095175;-0.013361553;0.012766308;0.11400316;-0.034847002;0.034943156;0.037195966;-0.041767474;0.055241294;0.07195774;0.05224194;0.025460416;-0.07313061;-0.02180596;0.003914742;-0.0022935797;0.1609888;0.19954345;-0.13017239;0.08245876;0.18189026;0.079913974;0.36296463;0.030005448;0.028580084;0.00255644;-0.006596959;-0.03802273;-0.07106879;0.082017474;-0.14127824;0.078615755;0.1093619;-0.01910907;0.055014294;0.032545373;0.18929052;0.06667143;-0.08441245;-0.082910925;0.055992924;-0.14058608;0.11452212;-0.036873247;0.20402774;-0.13089636;-0.039891213;-0.008445738;-0.079817355;-0.04980922;0.056844562;0.05779477;-0.013507799;0.059540544;0.0706777;0.014380268;-0.06782086;0.038639393;-0.04579812;0.03260947;0.14483918;0.06077272;0.064553864;-0.054211687;-0.037931334;0.08870381;-0.07459002;0.14696659;-0.009220923;0.17755684;0.06701233;0.0638816;-0.074748755;-0.065527454;0.13573033;-0.090687834;-0.0717052;0.035239406;0.042978633;0.05655901;-0.013845006;-0.011803075;0.0069096605;0.0028425497;0.009641647;-0.16779417;-0.029942272;0.019743387;0.07986566;-0.13368706;0.06835517;-0.094198674;-0.063615985;0.04458699;-0.07803929;0.05381019;-0.0100001;-0.13830721;0.03707292;0.051674232;-0.06219223;-0.0052810917;-0.07688579;0.028192166;0.064287685;-0.20055701;0.067946695;-0.017488843;0.24394993;-0.0523473;-0.010599908;-0.07018409;-0.04564759;0.023713585;0.058594804;-0.051690176;-0.078566305;-0.104297295;-0.068658136;0.04484722;-0.11354677;0.06337434;-0.16246296;-0.0773251;-0.0049452265;-0.0474336;0.14398655;0.16528817;0.08388196;0.11306438;0.14523241;-0.037329633;0.09195299;-0.0422317;0.092012465;0.00457509;-0.0131963445;0.048833843;-0.08422436;0.08159378;0.1160362;0.052010916;0.034179732;0.033971474;-0.03419453;0.038600016;-0.06415705;-0.07853197;0.00833602;-0.052485883;0.101975866;-0.1030016;0.00021094919;0.060418177;-0.03820752;0.04069323;-0.0140965115;-0.016783975;-0.0004268062;0.03872813;0.041624956;-0.019079814;-0.063840434;0.03386812;-0.05324138;-0.11069945;-0.00888084;-0.057407334;-0.08462363;-0.09008225;0.057159305;0.100497395;0.055089;-0.06657174;-0.044813607;-0.023415145;0.034477666;0.019032493;-0.005312342;-0.09895694;-0.08710617;0.0036009324;-0.064861484;-0.0016860727;-0.05499631;-0.067339174;-0.08231307;0.055481125;-0.0006101795;0.057622395;-0.019737296;0.13781089;0.13913481;0.09355357;0.08389923;-0.16501871;-0.035135094;-0.057680346;-0.057012968;0.05938404;-0.07232719;0.087237716;-0.008712961;0.103078194;0.0992814;0.012201197;0.17249374;-0.06036731;0.031825665;-0.033634946;0.078622006;-0.0783398;-0.014234931;-0.026946252;0.06457943;-0.093888775;0.016265871;-0.061128434;0.13725919;-0.0707468;-0.07026429;-0.06154859;0.016405461;-0.011563371;0.035857387;-0.050328992;-0.10284296;-0.019434739;-0.026106412;-0.12477307;0.027926447;-0.0737642;0.03363096;0.09557398;-0.0785055;0.16574311;-0.009255099;0.07545835;0.073178716;-0.04908937;0.04377239;-0.10505474;-0.0072465376;0.20734774;-0.14082739;-0.012735929;0.18950507;-0.05061241;-0.07927138;0.096035;0.015204164;0.005882992;-0.06860893;0.037931256;0.017820207;0.022931723;0.024066793;0.045929357;0.030918317;0.0013987774;-0.1678042;-0.06308016;-0.10669735;-0.043509386;-0.075384185;-0.013032262;0.03966401;-0.01525435;-0.0061646462;-0.007594411;0.048422784;0.07956285;-0.20925365;0.03840392;-0.0029588905;-0.00072561856;0.016362729;-0.0054208804;0.08783674;0.045979377;0.04580505;0.04750829;0.0070971698;-0.041375756;-0.3370356;0.034594912;-0.061781123;0.053044878;-0.07379173;-0.084525846;0.06954867;0.10893442;-0.021847501;-0.0681555;-0.057142437;-0.0069822683;-0.00020274395;0.032051552;0.005243089;-0.071879685;0.103145644;0.11791468;-0.08331534;0.05607193;0.023876779;0.034225978;0.03182903;0.07581667;0.091463454;0.028866572;0.0040967814;0.0857203;-0.092274174;0.010179912;0.0059782257;-0.040891614;-0.0647555;-0.01919516;-0.017705183;-0.017453564;0.005203266;-0.033422887;-0.057730775;-0.025349343;0.07308526;0.034490526;-0.02909384;-0.08828703;-0.087608606;-0.021656776;0.015366193;0.0781557;-0.03090399;-0.062482998;0.039248917;-0.05577064;0.0008959127;-0.09594187;0.041717127;-0.037573367;-0.05279254;-0.000819289;-0.011986088;0.01223545;0.049736355;-0.086994216;-0.0063643605;-0.121961564;-0.14701197;-0.04880788;-0.006069246;-0.15713768;-0.17744547;-0.064823896;-0.056138724;-0.08272298;-0.059871722;-0.0960736;-0.017928267;0.12258223;-0.2749308;-0.057139345;-0.06464163;-0.012743365;-0.0040797186
-0.07783813;-0.11563709;0.04851101;0.013960629;0.02511037;0.047991566;0.04912387;0.023788959;0.039961927;-0.083372645;0.073931426;-0.1182257;-0.07930423;0.005259232;-0.03342047;0.02888976;0.0061779437;-0.21266095;0.02443359;-0.06515332;0.06939608;0.05465622;0.0075479886;0.03195241;0.045763712;-0.19806822;-0.08765357;-0.08602462;-0.18394439;0.0807844;0.040257774;-0.09066728;-0.048302304;0.29945523;0.006936303;-0.03472033;0.18865283;-0.09607612;0.03791041;0.024516698;-0.012152433;0.06319523;-0.055076506;0.06959103;0.023168312;-0.1153645;0.0720859;-0.036373448;0.018698394;-0.12768626;-0.16894752;-0.027426895;0.043065753;0.021979837;-0.10744706;0.065591365;0.036894903;-0.043007545;-0.03462754;0.05102231;-0.19699189;-0.07895376;0.1414604;0.005117715;-0.043305263;0.060254745;0.071474686;-0.046732314;0.1208955;-0.04961791;0.03213024;0.17243421;0.05203895;-0.049643703;0.3059411;0.00091897754;-0.072167486;0.10521669;0.07498951;0.039567042;-0.00821544;-0.04333373;-0.04032977;-0.11324987;0.012241827;-0.051755182;0.0655522;-0.07023534;-0.079193026;-0.076725885;-0.05494514;-0.062266294;-0.003327525;0.044079516;-0.05674886;0.011582678;0.047458272;-0.031735968;0.04243382;-0.009269579;0.010375029;0.06616305;0.10165446;0.046385817;-0.059934106;0.0011906554;0.040720925;-0.0003986408;-0.022072446;0.0284369;-0.11265861;0.029508028;-0.026105316;0.07598873;-0.070921;-0.023478635;-0.15923831;0.0690861;0.12490365;-0.06758777;0.05683353;-0.06822447;-0.11579982;-0.09730181;0.01892223;0.052680526;0.0642045;-0.034986604;-0.059965614;0.024901226;-0.0020074954;0.07982721;-0.10230769;-0.24862882;0.16326548;-0.07315296;0.032789115;0.035319787;0.042643234;0.049690347;-0.29268217;-0.027336475;-0.055712283;-0.018904105;-0.03167969;0.0015890647;0.04266126;0.07824086;-0.040020544;0.057274956;-0.022514606;-0.084443875;-0.055667926;-0.05560285;0.0629419;0.06742174;-0.050869755;-0.14090203;-0.04422117;0.07871859;-0.046070974;-0.062161613;-0.23447877;0.04479958;0.08143368;0.010858203;0.002247417;0.047358695;0.015105014;0.016630905;-0.019940788;0.04910002;-0.020360583;0.051050637;-0.017978203;0.02495121;-0.044564273;0.008162058;-0.06382123;-0.04858902;0.15680099;0.0440872;-0.07887758;0.066088185;-0.02665812;-0.0031720158;-0.006008967;-0.059025127;-0.039567664;0.08713232;0.010021535;-0.033252325;-0.24128307;-0.056991804;-0.03616751;-0.021453865;0.08771589;0.11036041;0.013425325;0.033663787;-0.026721539;-0.011682708;0.07073587;0.08083128;-0.0206519;-0.031251345;0.016385864;0.022579879;-0.051783245;0.12467011;-0.2865641;-0.107125625;-0.018992791;-0.07727843;0.043653492;0.079879574;-0.027564561;0.004924262;0.013559534;0.059632465;0.06592721;0.07295822;0.09557697;-0.087003656;-0.03188403;0.067650095;-0.010711235;0.0076346043;0.15977906;-0.20094429;0.011224123;0.01646491;-0.06940772;0.1561347;0.06449776;0.019696366;-0.027173355;-0.0037369896;-0.06430666;-0.018436722;0.042902585;-0.10117833;-0.07997157;0.0076523228;0.0016915782;0.09726424;0.028921241;0.08339678;-0.09438302;0.060518943;0.022243815;0.083492436;-0.00679496;-0.141921;0.09452071;0.13607581;-0.10182181;0.021449897;-0.03431674;0.014047926;0.112440355;0.040905133;-0.0025597308;0.02889088;0.012927644;-0.027695436;-0.05425477;0.03105917;0.031105593;-0.033792343;0.12801084;0.11383327;-0.03590708;-0.054980174;0.044179797;-0.06754143;-0.2116292;-0.07641067;0.002845373;0.035524327;-0.046527915;0.03343079;0.071398355;-0.29746825;0.009472232;0.09918409;0.055599783;-0.051678553;-0.028266674;-0.037323065;0.08822446;-0.018019035;-0.08581305;-0.093980476;0.014736676;0.11882076;-0.005820197;0.0021284027;0.014148098;0.058676224;-0.030245114;0.12249926;-0.03574062;-0.13299853;0.044914655;-0.039452218;-0.06639865;-0.03360814;-0.19381955;-0.029928882;-0.055056415;-0.0435953;0.012585633;0.12471279;0.12557575;0.04715178;-0.15952626;-0.025690997;-0.023458518;0.18602811;0.039616518;-0.030328447;-0.04713303;0.0444271;0.009115999;0.08016566;-0.11501962;0.031833835;0.06225005;-0.0410137;-0.0029326659;-0.04012555;-0.035599425;0.09909453;0.138709;0.10980642;-0.057360236;0.13708444;0.026916552;0.033996474;-0.007344815;0.21228945;-0.025231982;-0.008930864;-1.1449003e-05;0.019676596;0.06496484;0.01793801;0.07479179;0.010596131;-0.09971987;-0.03357199;0.077070415;0.09635034;0.20422329;-0.015154678;0.009451405;0.04752743;0.00084600836;0.041357543;-0.21699601;0.21983881;-0.013008008;-0.16458261;-0.046887558;-0.03220316;-0.036198508;0.049149465;0.014454299;-0.051885627;-0.05695117;-0.089797765;0.058754448;-0.038869753;-0.081133194;0.036772422;-0.015589642;-0.023768488;0.024050603;0.0510865;0.045308836;-0.06278871;0.19311208;0.001948437;-0.05219594;-0.023048809;-0.078953594;-0.026386168;-0.09058055;-0.010315448;-0.042613845;0.008742302;0.03989918;0.04898276;0.06371783;-0.21140641;0.07596585;0.023174932;0.0885462;-0.043824777;0.13999097;-0.015247774;0.07154523;-0.07325562;0.13633475;0.022243619;0.06907863;0.013023676;-0.014365702;-0.08212745;-0.08381076;0.033146195;0.12660724;-0.024122996;0.06445886;0.045759946;0.081944264;0.16141054;-0.018010095;0.011182178;0.046866152;0.12159975;0.029666191;-0.031828858;0.015395841;-0.12226196;-0.13460873;-0.012200835;-0.044255476;0.11743293;0.054124642;0.0066171954;0.014716869;-0.036736127;-0.019837387;-0.021898188;-0.08027234;0.014291269;0.10900748;-0.024578726;-0.09236833;0.013807134;-0.0061212713;0.12923162;0.05882176;0.13050738;0.08156598;0.23437908;0.065697886;-0.016543355;0.0659936;-0.011073454;-0.052032813;-0.13044548;0.17458287;-0.06904106;-0.15038048;0.12644099;0.17832068;-0.0729081;0.054540858;-0.06693222;-0.11818794;-0.04659458;-0.0022622023;-0.061763313;0.24792452;-0.027087204;-0.06537883;-0.07164571;-0.0345784;-0.31299654;0.05122092;0.024387846;0.034849215;0.07815316;0.0025630584;0.0056398;-0.033771165;-0.025511298;-0.0564609;0.057791185;-0.1211764;-0.28843695;0.030264327;0.044242613;0.034991678;0.013169735;0.05536455;-0.01598328;0.06117418;0.023334617;-0.022053367;0.062202163;-0.045086917;-0.25468248;-0.062446795;-0.032336004;0.002199037;0.036420133;-0.11585666;-0.17989033;0.15214814;0.04626745;0.012151902;-0.059867837;0.07003895;-0.05698461;-0.03316005;-0.007495102;-0.004444386;0.07214616;-0.05601885;-0.09194064;-0.127705;0.027262053;0.12051654;0.038815957;0.11554309;0.010304007;-0.058801226;-0.0025737623;-0.013683539;0.01856244;0.063703746;0.02701278;0.051020365;-0.04576908;-0.09292003;-0.026471369;0.03363225;-0.028403196;-0.13244858;0.0630481;-0.049747013;0.03405242;-0.05121515;0.043213744;-0.11069942;0.16360568;0.067101486;-0.002533297;-0.055275206;0.025524681;0.07185331;0.05361809;0.11220423;0.025807422;-0.07378532;0.09171446;0.0491957;-0.13653155;0.037390023;0.07269876;0.031596437;-0.05766889;-0.09506735;0.04631684;-0.18419647;-0.10035345;0.02582512;0.08107806;-0.12045408;-0.09606744;0.0017442021;0.011744731;0.102963015;-0.009941972;0.019926863;-0.08712747;0.07130102;-0.16382532;-0.061751377;-0.005632178;-0.020551408;-0.08015566
0.07504943;0.030374827;-0.043592874;0.05975249;-0.08227349;-0.009536828;0.14660509;-0.07201086;0.09793413;-0.00054508506;0.08582284;0.004610683;-0.043536004;0.031241916;-0.05604519;0.056325644;0.05151939;-0.050093263;0.025882961;0.04615051;0.07292325;0.032957476;0.020082416;-0.008361365;0.03108563;0.06792118;-0.012618256;0.018752402;-0.20039672;-0.0396817;-0.056524515;-0.083188795;-0.03938077;-0.101342835;-0.07692061;-0.04146858;-0.008607176;-0.023728171;0.014740707;0.053593542;-0.085372455;-0.16091225;0.09031811;-0.07089481;-0.11682194;-0.019813273;0.017514793;0.10690479;-0.012698396;0.029635718;-0.039494686;0.021874625;0.031672932;-0.12558545;-0.16124922;0.060028043;0.06512616;0.09376704;0.02018533;-0.05752424;-0.072511435;0.102876775;-0.14180242;0.056848835;0.06838552;-0.011684545;-0.022193791;-0.096868284;0.035924047;0.018865813;0.00901573;0.008018148;-0.006855241;-0.0822503;-0.11789311;0.058820363;0.08324195;0.057495266;0.121607445;-0.022492038;-0.08021371;0.098344594;0.0635393;0.12422624;0.08667467;0.057889797;-0.015915714;0.032873023;0.03657619;0.052588865;0.018642012;0.03968902;0.017764268;-0.00468711;0.051830117;0.029735833;0.08243146;0.035358034;-0.050095364;-0.08593258;-0.058706887;0.12658127;0.047053933;-0.04582211;-0.04518448;-0.16415428;0.047754444;-0.03615816;-0.096353315;-0.04921788;-0.2105287;-0.074655384;0.096163526;-0.016579691;0.107442565;0.016871242;0.12174252;0.06082799;-0.010188521;-0.06127207;-0.13544282;0.06398186;-0.061026163;0.041891932;-0.08112112;0.027182804;0.0036340181;-0.049396046;0.036652226;0.016526377;-0.010007688;-0.047407225;0.2642453;0.19352847;-0.092606574;0.0791859;-0.062774725;0.005695589;0.04543257;0.16691853;-0.20063901;0.06914229;-0.049109995;0.018627226;0.03311352;0.045263782;0.060723186;0.012154299;-0.051860254;0.100395046;0.018505936;-0.06277136;-0.063141845;0.09529105;0.15392336;0.13366212;0.247097;-0.04876713;0.033568785;0.058288824;0.004456775;-0.0045842943;-0.09819624;0.043068737;-0.018112006;0.059870876;0.0023809099;-0.03392136;0.17809865;0.0041204006;0.07851244;0.11287181;0.066040225;0.06404787;0.013125337;-0.020233471;0.02207534;0.00750735;0.05172085;-0.027897019;-0.09008622;-0.04729699;0.021952208;-0.06752548;-0.119059704;-0.054622583;-0.05211557;0.14718276;-0.018161839;-0.009542834;-0.0042789425;-0.0036794515;0.14899804;-0.0064954017;0.027700499;0.0662271;-0.19485302;-0.2872432;-0.07307374;-0.07705101;0.06838451;-0.112439066;0.08661939;0.014154334;0.0738547;-0.084811926;-0.22708194;0.01120791;-0.004291135;0.19669878;0.0061800745;-0.10087523;-0.04401538;0.10037099;0.01781646;-0.11717979;-0.02144115;-0.046451457;0.07371892;0.008520579;0.062372297;0.05637241;0.062044952;0.03543447;0.06332783;0.07074201;0.04479653;0.033533137;-0.043628886;-0.22796544;-0.11769698;-0.0010436884;-0.11910425;0.08968555;-0.05718095;-0.018808616;0.0015673796;-0.050223533;-0.17906098;-0.10166072;0.04559313;-0.09375605;-0.053671397;0.09661449;-0.056398988;0.12739307;0.05606756;0.11284884;-0.033787128;-0.07397203;0.025020061;0.107290596;0.34114358;-0.00976516;-0.1744752;0.03359297;-0.22332776;-0.014338636;-0.063090354;0.06445605;0.045149315;0.03893766;0.01585845;0.03342742;0.052254748;-0.05133738;0.06455623;-0.002258276;0.028934786;0.023417998;0.14176124;0.13973881;0.016527582;0.0903183;-0.023460858;-0.025453607;0.029154418;-0.1267228;-0.008802678;-0.09803338;0.15271106;-0.07496618;-0.03789304;0.077454165;0.013681951;0.11460952;-0.03347997;0.069701195;0.028891414;0.070208855;0.05762989;-0.03472075;0.05394451;0.10516684;0.0050245556;0.31836548;0.101058885;-0.08109596;-0.0317514;0.06839688;-0.0019222155;-0.03972898;-0.046475682;-0.0076345885;-0.064734325;0.038478117;-0.0015647206;0.05143239;-0.1468517;0.056650728;0.0019460856;0.10548685;0.05811542;-0.060013365;0.01476567;0.052292842;-0.23059121;0.07319767;0.018895188;0.14329939;0.07228872;0.020206857;0.0077662105;0.09766985;0.021718835;0.01846823;-0.0034766416;0.10152652;-0.03142921;-0.08242897;0.10115245;-0.087119915;-0.057216633;0.0077483887;0.095526434;-0.054366805;0.038869027;0.18962204;0.052722048;0.1348064;5.1465286e-05;0.055986878;-0.084924296;0.11166653;-0.0690355;-0.015108954;0.008728736;0.021753639;-0.04056992;0.03968992;-0.14349748;0.06951755;-0.049319103;0.059445556;0.13189651;-0.0037979116;0.051039606;0.030691972;0.032085918;-0.13391441;-0.06829083;0.08576598;-0.048002016;-0.19047502;0.052703653;-0.034417573;-0.067647405;-0.05153752;0.03354192;-0.07351585;-0.025675133;-0.13190964;-0.054986343;-0.07680839;-0.009574965;0.094097465;0.025279991;-0.08345798;0.004706095;0.04341716;-0.075785905;-0.020243533;-0.07929751;0.020372735;0.057751983;-0.029429821;-0.049213212;0.05583602;-0.06213551;-0.06760425;0.11382986;0.025287088;0.047665246;0.04313444;0.03789288;0.100687735;0.062278956;-0.092707604;0.0023352292;0.17957415;-0.023246393;0.013820209;-0.07679563;-0.20551917;-0.02098751;0.17796344;0.2768373;0.16198318;0.022202898;0.04770765;-0.23119286;0.031752884;-0.18848056;0.1202461;-0.048217792;0.1070463;0.05740077;0.019625584;0.053908564;0.21430798;0.12976463;0.073466115;0.10231134;0.07875218;-0.060404554;-0.12465627;-0.28785804;-0.041317694;0.023312744;-0.09436504;0.0061313002;0.08419522;0.08830017;0.06736966;0.026459;0.0025874039;0.059561998;0.10004236;0.001588316;-0.010103368;-0.055677827;0.07003879;-0.03004456;-0.024676602;-0.087357976;-0.021744886;-0.012503442;-0.10907444;-0.02171581;-0.087617256;0.088423535;-0.08664638;0.08036065;0.07424509;0.11145951;0.07419551;-0.13273491;-0.030176742;0.14490174;-0.0828698;0.046944104;0.036220465;0.074764766;0.0055228146;-0.029275008;-0.0011453035;0.08843512;0.07019542;-0.05119847;-0.014487014;0.030962195;0.028923556;-0.06714222;0.014110535;0.047861204;0.04658844;-0.07762164;0.01131948;-0.121490665;-0.026317889;-0.019656625;0.01714215;0.036034796;-0.12503919;-0.06678811;-0.0009274653;0.011422154;-0.0024328197;-0.020433333;0.07965232;-0.06978152;0.0053124256;0.034210842;0.004644186;-0.0028829933;-0.2869916;-0.00079591584;0.011353736;-0.05414796;0.089037865;-0.03193773;0.15826696;-0.010011522;0.049822107;-0.070572406;-0.074979566;-0.009384285;0.008142446;0.080106765;-0.0034244764;-0.0053840773;0.07528616;0.037613187;-0.042082258;-0.16036235;-0.0033306808;0.08585932;-0.04256274;-0.040269267;-0.097502306;0.0754865;0.020646133;-0.07111282;0.16254908;0.037197392;-0.077602014;0.022570752;0.07389921;-0.07851519;0.022710312;-0.04737386;-0.04136415;-0.121518165;-0.048280418;-0.026212964;-0.019049333;0.05798907;-0.062825374;-0.1450442;0.09081321;0.017872037;0.09546792;0.029599503;-0.00601335;0.1582298;-0.114326075;0.1560491;0.03245944;0.0017161736;0.06632972;0.10021125;0.0063586743;0.009611672;0.0121998135;0.036481913;0.0015379096;0.057433963;-0.0016511561;-0.045241237;0.08567656;0.038110796;-0.077879526;0.01493276;-0.115036435;0.0038364856;0.05794469;-0.27465853;-0.078652024;0.08471141;0.06896872;0.03261087;-0.26579377;0.0451838;-0.10829244;-0.029211154;-0.064033225
0.0049852277;-0.067347325;-0.029329814;-0.061620887;0.093416125;-0.06735268;0.15289585;0.11734471;-0.13833646;-0.052722238;0.048102427;-0.0510438;-0.017011179;-0.013764219;0.041373167;-0.051025085;-0.2910922;-0.07895975;0.037355613;0.023802886;-0.10813188;-0.05670234;-0.07259427;-0.01423343;-0.03636591;-0.17559706;-0.09047447;-0.007386247;-0.034425676;0.11428261;-0.007866849;-0.17369942;0.05873237;0.14986831;0.02929039;0.04104921;0.14303914;0.10376814;0.004699212;-0.04255269;0.0018865156;0.030351993;0.1777695;0.07674313;-0.05855424;0.071882315;0.060202546;0.06316649;-0.13267322;-0.06996083;-0.020443074;-0.12769893;0.05307563;-0.061732132;-0.09886899;-0.033823702;0.052068744;0.0010355249;0.06776552;-0.008496012;-0.060433816;0.117938496;-0.07660644;0.05963331;-0.04803462;-0.02397718;0.017733328;-0.30305544;-0.0023257453;0.0389824;-0.026680557;-0.06624084;-0.04098378;-0.08020774;-0.007124749;-0.027706064;0.010962307;0.06216495;-0.16644862;-0.075566955;0.019090276;-0.078359134;-0.069209665;0.07076878;0.11512582;0.11538363;0.07612191;-0.03227828;0.011840257;-0.06545017;0.0054988284;-0.04554739;0.028114725;0.14532638;0.096388355;0.055261012;-0.05126406;0.029732754;-0.106994204;0.06476354;0.09114488;-0.11172571;0.04868554;-0.024691554;-0.015737666;-0.052697964;-0.0033150513;0.025764612;-0.0731179;0.037791822;-0.01432689;0.0095430855;-0.0068868618;0.19369999;-0.062186386;-0.039973654;0.14728536;0.02135532;0.065990664;-0.038301885;0.06751066;-0.0681568;-0.10237826;-0.043280225;-0.006028159;-0.021024385;-0.040248714;-0.054752372;-0.0486001;-0.024996571;-0.023815695;0.015783053;0.18142799;-0.006325485;-0.048188973;0.10426478;0.02367638;0.020000665;0.07762764;0.16007203;-0.06852826;0.07602649;0.059635635;-0.03209857;0.014970356;-0.15784559;-0.0901641;-0.016416337;0.046268426;-0.07914131;-0.040836968;0.0047076438;-0.13759658;-0.28414276;0.02748051;0.24426936;0.08830838;0.008862465;0.09791385;-0.019464433;0.030716604;0.033334237;-0.0058816983;0.009894146;0.09375786;0.044884875;0.006329375;-0.013981763;0.15860307;0.022543753;0.02288937;0.10323852;-0.02914345;-0.098763414;0.021324253;0.023624104;-0.050785597;0.043460373;0.078311175;0.0026052946;0.023964038;0.10868222;-0.03278843;0.059347294;-0.003856278;-0.052721914;0.04647202;0.104443125;0.012282599;-0.031383656;0.062653065;0.055350255;-0.095167965;-0.00571559;0.048878;-0.00044348254;0.051630177;-0.1284093;-0.10700354;-0.047286797;-0.023365816;-0.17870769;0.0016699333;0.068527885;0.03287066;0.005304081;-0.049011424;-0.017994665;0.059774023;0.18991174;-0.08944142;0.026159046;0.03247015;-0.061967;-0.058701955;0.028378759;0.03937968;-0.018491685;0.044358768;0.03437541;0.01937934;-0.050698694;0.005671117;-0.11569177;-0.054948702;-0.030341124;0.21837251;-0.05745195;-0.008452176;-0.103856534;-0.12354444;-0.12450224;0.0011196714;0.0037254577;-0.0011732625;-0.057674743;-0.06682972;0.024179982;-0.1210181;0.01576806;0.03507959;-0.1973387;0.002539877;-0.054835144;0.0036002437;0.021934982;-0.06898599;0.07268991;0.033190314;0.0016513465;0.06823401;-0.062181022;0.31476265;-0.062864296;0.041945416;-0.056046247;-0.04610291;0.07812279;0.0839018;0.014777836;-0.05309572;0.016454123;-0.05425926;0.04141575;0.04770617;-0.02670375;-0.07799597;-0.05994071;-0.012928574;0.0315089;0.1366304;0.28676745;-0.0039583896;0.0029511976;-0.075614184;0.12051162;0.06113819;-0.106149174;-0.1355009;0.035697926;0.023287144;0.032348957;0.00048149208;-0.0082812095;0.056343697;-0.081739694;0.044159215;0.07382744;-0.018020142;-0.04292451;0.0035184915;0.06551185;-0.044319388;-0.048830044;-0.08536117;0.17108446;-0.28144306;-0.08252753;-0.04757994;0.0732142;0.01670379;-0.027933275;-0.05177082;-0.03660239;0.021842703;0.073558904;-0.1282506;-0.04145928;-0.20062539;-0.03530918;-0.0045479406;0.014682026;-0.018860172;-0.077649824;0.185689;0.014314895;-0.021542069;-0.07235403;-0.044657707;0.16645788;0.0014955221;0.027813753;0.0707372;-0.02519371;0.02572619;0.067064136;0.011708311;-0.04149937;0.07589672;-0.038466223;-0.027845813;0.070770994;0.025293816;-0.03735189;0.12663487;0.010997804;0.00340261;0.17596737;-0.052706603;-0.06714917;-0.10629397;0.03593095;0.007398224;-0.028370367;0.032627437;0.049764913;0.028774124;0.03994325;-0.024035374;-0.0724846;0.025152633;-0.034734007;-0.06141387;0.032754477;0.13053094;0.04420904;-0.0013846694;0.010372389;0.002433051;-0.05428555;0.12589398;-0.052952427;-0.030835591;-0.20912127;-0.023458961;-0.0075804763;-0.033067655;-0.06103281;0.03702002;0.08200602;0.05607233;0.055682342;-0.011891481;-0.061304763;-0.021179428;0.21724185;-0.04254362;-0.19907603;0.07770374;-0.04763306;0.016308956;-0.0075805453;-0.021396136;-0.012661544;0.041097432;-0.0025928295;0.014287096;0.004460905;0.066041924;0.043433946;0.002449005;0.052601542;-0.03067959;0.0054738033;-0.032194905;-0.2445612;-0.06405282;0.005714744;0.09180474;0.06829322;0.029439727;0.023031237;0.08311363;0.010849948;-0.038264606;0.2402524;0.14218214;0.24581131;-0.05768508;-0.044230364;0.061252188;0.06647811;-0.05157101;-0.0015717729;0.10887092;-0.077400245;-0.060157645;0.02615407;-0.04346543;-0.047713008;0.0045655053;0.03311898;0.053495523;-0.054800723;0.047757126;-0.03567959;-0.038344145;0.03666114;-0.00045854767;-0.21207303;0.011887807;-0.05766625;0.21356335;0.034355484;0.019993449;0.016042799;0.056193624;0.050425928;-0.10459063;-0.041409936;-0.075824864;0.037248705;0.01296861;0.047603592;0.08551568;-0.047803316;-0.11328767;0.017507734;0.2077486;0.069494516;-0.008784539;0.028380558;0.106951065;0.12680885;0.04091937;0.07032604;0.026177542;0.12527137;0.23387785;-0.0129174525;0.064177945;0.02484821;-0.18122192;0.040609945;-0.06708172;-0.10952905;0.05063335;0.05403254;-0.037641127;0.043795805;-0.02841914;0.1408477;-0.039240487;-0.096099995;-0.08028267;0.09869354;-0.017378109;0.02414172;0.013788755;0.081967086;-0.11848445;-0.014486623;-0.30748487;0.050131004;-0.044106793;-0.023285555;-0.006618561;0.03699984;-0.022772778;-0.0056366036;-0.07303716;0.064209744;-0.08940168;0.07709991;-0.03579048;-0.23155054;-0.03270785;0.047403447;-0.056753002;0.04951889;-0.20732012;-0.07101848;0.03970313;-0.001866068;-0.04816196;-0.06829782;0.016807586;-0.04848263;-0.05775247;-0.0087399995;0.0016644328;-0.03168338;-0.06514932;-0.027052902;-0.21080421;0.053913437;0.09832791;-0.042909347;0.035025626;0.020034064;-0.02296126;-0.008784261;0.054563794;0.14744255;0.02326097;0.08110516;0.009847652;0.06772102;0.045108255;-0.13095208;-0.033589397;0.053958997;-0.10428154;-0.030298509;-0.07653766;0.018956548;0.012372418;0.05894623;-0.05530254;0.16720621;0.01085405;-0.063931346;-0.037184592;0.05471482;0.04203268;-0.012110209;0.20666224;0.022246977;0.02953216;-0.0583412;0.08430218;0.058809984;0.02333345;-0.008230545;-0.08953282;-0.077043936;-0.07759657;0.061686706;0.018127337;0.0025778324;0.024639102;0.0057125743;0.0850891;-0.0949657;-0.026570769;0.03477122;-0.20136918;0.08178244;-0.071994275;-0.04211145;-0.08483824;-0.04667672;0.18710361;0.0017344614;0.0920705;-0.061444916
-0.019621335;-0.0330137;0.032925222;0.09737731;0.01106057;0.08263397;-0.1683837;-0.021518666;-0.030062359;0.08556176;-0.014005683;0.109715424;-0.027058085;0.010270719;-0.023703821;0.09209166;-0.030421216;0.022061098;0.011990185;0.003820647;-0.024631554;0.07443849;-0.00174028;0.07157934;-0.10360581;-0.1082083;-0.012421354;-0.07870888;-0.06619962;-0.02677371;0.045321383;-0.018818045;0.03724043;-0.21757959;-0.06415479;-0.027810307;0.013147738;0.09210855;0.02647797;-0.00089552085;0.04732765;-0.040689886;0.053873286;-0.017143931;0.030341629;-0.033347156;-0.08068921;0.02331222;0.0014099674;0.12029069;0.15904175;0.0013111507;0.020263894;-0.27422124;-0.13757028;0.03824299;0.06468215;0.035744864;0.049988244;-0.01698366;-0.03391694;-0.016064474;-0.15124632;0.004807785;0.084217496;0.033879515;-0.0585577;-0.21575865;0.03161991;-0.020232903;-0.0273915;-0.19137424;-0.030467961;-0.06328628;0.069752514;-0.047791854;0.08955408;0.080082454;-0.23495674;0.012180403;0.09324464;-0.08773774;0.09701255;0.027989868;-0.06917285;0.023205036;-0.06434095;-0.057366364;-0.10090893;0.009122043;0.009103299;0.08285148;-0.048222996;-0.007930127;-0.0330118;0.0002385017;-0.009831603;-0.033525918;0.07002562;-0.07844201;-0.060409363;-0.09601576;-0.0067823203;-0.11917009;-0.026456289;-0.11866682;0.052691508;-0.023872798;0.02300943;0.0492114;0.099814676;0.049827203;-0.015588802;-0.14574683;-0.13015948;0.06766174;-0.0005514221;0.07053468;-0.09334631;-0.067822605;-0.06238142;-0.09553264;0.030187976;0.014554119;0.025107218;-0.02132515;0.03933626;-0.0019363213;-0.0092682615;0.04785025;-0.02684074;-0.041165505;0.074628495;-0.14303698;-0.24708216;0.024577828;-0.094814;0.02742103;0.093548484;-0.09745864;-0.07809408;0.122625574;0.057867784;-0.0011484178;-0.038266625;0.0726467;-0.095103055;-0.07252751;-0.04420245;0.079525374;0.045181483;0.007289451;0.0178515;-0.2742855;0.08231196;0.07223878;-0.036215253;-0.0069474787;0.13392843;0.00035541225;-0.0510491;0.024136277;0.12522519;0.0007587747;0.08253162;0.043488506;-0.08873717;-0.052662887;-0.0746613;0.014714562;-0.066052094;-0.055062313;-0.0067532924;-0.10228753;0.005023885;-0.07283862;0.073889926;-0.0051253377;0.15139301;-0.011799338;-0.01873884;-0.0067883763;0.064094484;0.08163088;0.025194671;0.0024307673;-0.10728222;0.10118543;0.09811563;-0.012607293;0.12819555;0.028568882;-0.14509358;-0.0904151;0.006170124;0.0706859;0.058876533;0.007090582;0.05227586;-0.061640207;-0.029570136;-0.13546796;-0.081773184;0.009292078;-0.0050202967;-0.07479915;-0.002892789;0.050481807;-0.016058408;0.20367487;-0.11100164;0.05997931;-0.029968727;0.025913946;-0.08646339;0.07181557;-0.009679598;0.033063125;0.072257735;-0.039347358;0.0031505583;0.07205677;-0.09612139;0.11359398;-0.06135632;0.08106086;0.1364976;0.13362962;-0.07318923;-0.069492586;0.0421539;-0.10734215;-0.03142318;-0.0090863425;0.03135443;0.048568394;-0.0677795;0.042326946;0.028822977;0.070896514;0.004061965;-0.17105816;-0.046421167;0.026600676;0.07505737;0.076821074;0.05446581;0.0040005688;-5.250182e-05;0.008198619;0.03368288;0.040987145;0.27229315;-0.119685605;0.092900604;-0.079564385;-0.069023065;-0.031853553;0.06394621;0.06610487;0.06667762;-0.05150767;-0.062944606;-0.017380614;-0.06756706;0.02352484;-0.047154773;-0.069271624;0.11624546;0.11392546;0.1099928;0.23604856;0.02627331;0.03136489;-0.0736884;-0.043135457;-0.14326753;-0.013755589;-0.14368509;-0.06958988;-0.17617399;-0.08691984;-0.04842832;-0.11093087;-0.036878232;-0.00072587025;-0.078364685;-0.05151427;0.07345997;-0.009539797;-0.078188226;0.06962205;-0.057538975;0.025023818;0.016948335;0.12603272;-0.19638765;0.119910285;0.05670338;0.003103672;-0.07606929;-0.12573603;-0.01801643;0.011639233;0.020667015;0.015305347;0.06509031;0.03169875;-0.20310944;-0.10074243;-0.095820665;0.20751216;-0.07262999;-0.07554556;-0.021179251;0.028704517;0.006605461;-0.043038324;0.060726654;0.004373809;-0.036302514;0.04362833;0.0633299;-0.052265126;0.017228328;-0.001040567;0.007283418;0.0041151484;-0.11438535;0.07223298;0.016866924;-0.0007389453;-0.026297383;-0.16219507;-0.09205769;-0.08912206;-0.0899783;0.0012495704;-0.13432439;-0.12962636;-0.08150353;-0.15962124;-0.037377063;0.09419414;-0.030874833;-0.04943976;-0.00017369323;0.018735131;-0.02903246;-0.05061538;-0.12299352;0.033466376;-0.039461147;0.057521485;0.1725663;0.003621985;-0.0074490644;0.044405013;-0.075961985;-0.07492859;0.13331173;8.351662e-05;-0.023391971;-0.13649924;-0.034287065;0.076806486;-0.0034875884;-0.05496761;0.0261914;0.052595798;-0.064642005;0.07126236;-0.019532232;0.034491092;-0.08061235;0.021197915;0.1181072;-0.260674;0.009789601;-0.02259404;0.027131703;-0.003129178;-0.09541075;-0.059452087;0.06333533;-0.1748115;-0.040080175;0.114169024;-0.055297107;-0.019210896;0.13901985;-0.083412424;-0.04520597;-0.017197823;-0.018469615;-0.22878885;0.096450716;0.06261677;0.07646118;0.06284646;-0.11941501;0.0087484615;-0.02820318;-0.022866728;0.004323212;0.17449377;0.13028932;0.00891729;0.10314126;0.03661458;0.020214887;0.044975515;-0.1859415;0.009088237;0.035997394;-0.042367477;-0.033187825;0.047616694;0.0029751796;0.13719106;-0.043179646;-0.047128115;-0.07127886;0.004092988;0.009776701;-0.052532945;-0.108748764;0.018974038;-0.06922485;0.017428307;-0.012999328;0.024443587;0.1099661;-0.030041669;0.05601378;-0.07563257;-0.02803432;-0.038282134;-0.007189665;-0.04830698;-0.13510758;-0.046831086;0.025288912;0.035346642;0.11308666;-0.1971944;-0.09374616;0.04907869;0.08943906;0.008829387;0.047548614;0.01418361;0.091698155;0.0815502;-0.025219442;-0.036367323;0.06530344;-0.04526038;-0.025755432;-0.0011836763;-0.08123454;-0.039313197;-0.19075072;0.001315608;-0.020057088;0.089021616;0.06673733;-0.009092548;-0.011220417;0.04658076;0.06541067;-0.007454789;-0.017240679;0.009185232;-0.068347335;-0.018982654;-0.03809439;-0.09100948;-0.073488995;-0.05049231;-0.08060357;-0.013011578;-0.16659504;-0.093308166;-0.10784792;0.032264467;-0.014024444;-0.05723377;0.03557388;0.027693534;0.035105336;0.010424951;0.021128308;0.011853705;-0.042897798;-0.1170874;0.09022465;0.050377354;-0.05275568;-0.010753253;-0.04031162;0.007912084;0.028876247;0.012466148;0.03966502;-0.010035519;0.0881599;0.020144487;0.01733884;-0.043988753;-0.06628282;-0.07314988;-0.07462422;-0.08278324;-0.024283165;-0.00015153312;0.009598609;-0.067887686;-0.025942456;0.036141343;-0.033659354;-0.038826317;-0.0045717903;0.15244752;-0.096261434;-0.056464925;0.07072575;-0.08133717;-0.003323343;-0.0039266692;-0.044560917;-0.040631246;-0.22805731;-0.071091816;-0.0018008517;-0.07939651;-0.043786675;-0.036454566;-0.00603664;0.01580822;0.06342351;-0.054788437;-0.06721564;-0.019610776;0.07454139;-0.065647066;0.17447577;-0.02076205;-0.051624;0.09570302;-0.0868092;0.09165977;-0.036562104;-0.009595805;-0.021948816;-0.110811815;0.00023107287;0.014834786;0.06334549;0.090566546;-0.0011878023;-0.009671173;0.008822211;-0.085332215;-0.03998739;-0.03167328;-0.093754545;-0.0034600298;-0.029984301;-0.059253212;-0.06264449;-0.16161537;0.03438424;-0.06899906;0.005655782;-0.024291752
0.05907432;-0.12307968;0.04812336;0.18412031;-0.045745205;-0.040240005;-0.2750832;0.07672243;0.00031619734;-0.008558717;-0.05913566;0.05897116;-0.06942379;-0.09403335;-0.0007912781;0.02244339;0.21677099;0.15646087;-0.063873895;-0.061457984;0.04013851;-0.0041021397;0.093986705;-0.0063867206;-0.07353201;-0.16801351;0.06452998;-0.11490253;-0.32528704;-0.03836269;0.064188525;0.116136275;0.048890986;-0.17593154;0.040064886;-0.0025968277;-0.057388313;0.20966253;-0.02436184;0.063373305;-0.008166835;-0.17827004;-0.02046033;0.004038406;0.14738034;-0.035835735;-0.028308254;-0.03974646;0.049096357;0.038223166;0.16666463;0.003484329;0.07810942;-0.28075156;0.059654105;-0.07301219;0.04103973;0.046921004;-0.056643512;-0.0145775005;-0.2648355;-0.030466305;0.055947367;0.014474851;-0.024333842;-0.038839884;-0.08082841;0.13940266;0.003147556;0.06891906;0.03960697;0.090321824;0.07181577;0.021225452;0.105123214;-0.010377696;0.057180125;-0.0075757275;-0.03566901;0.08322481;0.016909385;-0.033160705;0.08024216;0.12941256;-0.030784568;0.003730347;0.001084771;0.06244115;0.0118007595;-0.034863226;0.043377865;0.0059542237;0.0061500454;-0.0817185;0.07400241;-0.013126488;-0.04229876;0.016456895;0.06574503;-0.048386797;-0.054278176;-0.056542076;-0.04993327;-0.10295726;0.0544955;-0.028592832;0.05848039;-0.022261634;0.019141432;-0.024305617;0.19412856;0.026784431;-0.16279441;-0.090455346;-0.12703076;0.08978058;0.011160319;0.01191648;-0.073391296;-0.17824693;0.043625936;0.016046088;-0.09742827;-0.040144272;0.05488225;-0.0055041946;-0.06252257;-0.0038404975;-0.15987515;-0.07107832;-0.07142122;-0.07087822;0.12691282;-0.11729488;-0.21474677;0.015091014;0.0445679;0.044689413;0.07477765;0.0061697885;-0.33786228;0.028689925;0.014249768;-0.0027447229;-0.10442965;0.043287583;-0.08463019;-0.08861662;0.0170257;0.036583964;-0.030465206;-0.0020390213;0.07071068;-0.097803734;-0.028337536;0.01195417;-0.054963842;-0.058476176;0.03884591;-0.06299682;-0.03164542;-0.025859986;-0.05574245;-0.057921782;-0.04928367;-0.08138609;-0.120728664;0.0053311647;-0.08573977;-0.004490204;-0.042681362;-0.012383146;0.11432949;-0.0021724293;0.011392477;0.05629587;0.016548421;-0.022601776;0.12036325;0.04165196;-0.06811552;-0.025172262;0.01962534;0.024357973;-0.101157725;0.00669767;0.03526368;0.092672475;0.05720917;0.0032188334;0.047702212;-0.018687582;0.014325653;-0.00025093913;0.018134113;-0.07309166;0.205003;-0.02642262;-0.04464282;0.016469996;0.022538248;0.043219883;0.038802307;0.07321962;-0.09224546;0.0754258;0.05707162;0.0586096;-0.044094533;0.104691215;-0.021868726;-0.034964755;0.063975364;0.083205424;-0.02418342;0.10393928;-0.07428816;0.06551578;-0.05246997;-0.036186747;-0.06230393;0.103027456;-0.14153278;-0.03018157;0.00078542816;-0.007213131;-0.025232827;-0.045056526;0.14554118;-0.07443641;-0.005049583;0.07622479;-0.019797903;-0.091525786;-0.09677074;0.041226275;-0.028007897;0.031728584;0.01509712;-0.075160645;-0.04530202;-0.065487064;-0.09478078;-0.05721308;0.0099230325;0.057285603;0.00094402046;-0.0027969135;-0.1346785;0.018159067;0.03733567;-0.12048307;0.19555198;-0.030012365;0.17180654;-0.0692023;0.066912025;0.051243626;-0.040654253;-0.065958045;0.06280093;-0.009772849;0.025092458;0.06296812;-0.10467929;-0.03484809;0.044018075;-0.09622604;0.056263063;0.08437714;0.15435621;0.20712404;-0.01834075;0.07823258;0.012981458;0.082017876;-0.17741416;-0.08998318;-0.123289764;0.023260172;0.15375689;-0.14957626;-0.07425511;0.06525448;-0.044547055;-0.07686664;0.023606058;0.0004488089;0.04993042;0.06764258;0.11233175;-0.040176775;-0.013670081;0.090240285;0.047433972;0.17988034;-0.085561156;0.13176572;0.042552143;-0.014080242;-0.03420572;-0.13501614;0.097828105;0.18596321;0.016231652;-0.06403422;0.087492615;-0.08957584;-0.15025964;-0.094509766;-0.02509726;0.21444385;0.003933635;-0.05239909;-0.0743118;0.025148842;0.21637891;0.26230174;0.08072922;-0.06864469;-0.093091115;0.050453197;0.07706985;-0.025341807;0.0040064096;-0.07932651;-0.004318675;-0.087553255;-0.065056235;-0.0925499;0.038983766;0.054330494;0.002278975;-0.10427159;-0.18107633;-0.08027027;-0.0011987858;0.052163884;-0.10437104;0.051825654;-0.12366656;-0.040620994;0.10369337;0.040288545;0.06488086;-0.030889463;0.07174778;-0.09574871;0.011240967;0.12977998;-0.06282603;0.01071617;-0.1120103;0.0013430418;0.15033147;-0.031434607;0.06987875;0.045625374;-0.062327236;0.033885404;-0.05424691;-0.15075637;0.042509243;-0.17228745;-0.0085615;0.039908778;0.016782526;-0.041277915;-0.07908476;-0.02899602;0.012252593;0.028939318;0.0010873693;-0.033180133;0.043277144;0.13275656;0.09581781;-0.3333481;0.027508881;-0.09387213;0.018105268;0.002571275;-0.15059704;-0.052747272;-0.04919612;-0.0008867756;0.06603218;-0.046168152;0.0035732447;-0.07709952;0.05733239;0.055347938;-0.037578844;0.038597837;-0.024698306;-0.097177856;0.010879818;-0.05776551;-0.011630184;-0.041144095;-0.10107664;0.08565844;0.05370699;0.058022607;0.06553181;-0.10989547;0.11775818;-0.12489965;-0.01340356;-0.08130663;-0.06917922;0.026286637;0.07036297;-0.04264085;0.06819574;-0.0079743825;-0.02366915;-0.10897714;-0.031042093;0.032207135;-0.04098743;0.13834545;0.061091043;-0.030207967;-0.019717649;0.06493935;-0.11729772;0.01849922;-0.106968455;0.10083386;-0.0051034125;-0.06548186;0.094952226;-0.0071462123;0.05658026;-0.052169897;-0.026380459;-0.0097261;-0.07057506;0.03734312;-0.15508634;-0.112147614;0.016950151;0.078037396;0.086081;-0.18818587;-0.11556058;0.08551174;0.1612412;-0.06233823;0.07270833;0.03070083;0.06777557;-0.16384067;-0.04254305;0.02297568;0.11805295;-0.08306469;0.08160472;-0.095117144;-0.07456846;0.09497246;-0.16803657;-0.10529988;0.07706141;0.0992094;0.1831778;-0.04062355;-0.010166395;-0.09809854;-0.06874566;0.034647685;-0.05745429;-0.012749017;0.072104074;-0.057166114;-0.015330879;0.039916582;0.10117272;-0.051970415;-0.011783015;0.017723443;0.055839296;-0.19710225;0.043833822;0.04073935;-0.030821448;0.015938211;0.11865007;0.002358861;-0.05827925;0.02965593;-0.03460048;0.061974827;-0.010331744;0.05944879;-0.03628304;-0.012434943;-0.08638835;0.0053852936;-0.16404939;0.11917471;0.029859416;-0.049251366;0.008409634;-0.050748218;-0.05269403;-0.13166632;0.12586991;0.016743317;-0.06052162;-0.020093082;-0.10538152;0.015388556;0.106732175;-0.0421252;-0.11974192;-0.018901208;0.030438293;0.07382533;-0.04529781;0.044056125;0.06899424;0.038844198;0.007950971;-0.08827716;-0.009113557;0.024328167;0.0609551;0.06612065;-0.03331844;0.050011415;-0.13930471;-0.040477388;-0.09278625;0.0690039;-0.04494034;0.035771184;0.06757784;-0.049329646;0.02780757;-0.07507737;0.005896849;-0.06292434;-0.050638795;-0.030024659;0.12071588;-0.13541415;0.036593303;0.004249466;-0.07524825;0.08386899;-0.018274168;-0.017230233;-0.033092722;-0.035957266;-0.07833418;0.012402636;0.08677583;0.21992818;0.002261005;0.07104915;-0.04987811;-0.14294109;0.07938284;0.048133925;-0.40154216;0.14409356;0.04498432;-0.021055754;-0.002520744;0.10552877;0.08503281;-0.023828158;0.025606291;-0.060061585
0.028316708;0.0051604607;-0.0724369;0.028977612;-0.010566315;-0.0350513;-0.3224132;-0.09997285;-0.105395764;-0.04235864;-0.060279883;0.04167555;-0.07001428;-0.013726976;0.014872491;-0.15342407;-0.05780612;0.014507643;-0.049040683;0.042049065;-0.06820239;0.05447648;-0.03224541;-0.010508811;-0.054529287;-0.17033121;0.057271134;0.059994202;-0.22492588;0.039580803;0.048638448;0.036212556;-0.08003063;-0.17739104;-0.04383308;0.009252077;-0.16224651;0.033433273;0.074826695;-0.046483114;-0.063161775;-0.096938804;0.04760991;0.047554433;0.078544475;0.036419302;-0.0021971045;0.059974596;0.06463221;-0.1158499;0.09196883;0.029449495;0.082555555;-0.14644101;-0.2129438;0.03963567;-0.053449024;-0.08867193;0.07319546;0.00042296862;0.029366378;0.014851632;0.122284085;0.08579613;0.039763313;-0.060008783;-0.0059155375;-0.011195655;0.09406047;0.04126478;0.053082358;0.1625301;0.0055596074;0.02880558;-0.10587058;0.056969382;-0.0077571096;0.101456575;-0.11342311;-0.05261414;-0.027482426;0.008705654;-0.089053996;0.15206192;-0.07678937;0.10149213;-0.101127334;0.0032801055;0.026441218;-0.029288298;0.041130368;0.059141286;0.09520363;-0.02183971;-0.019527022;0.011757869;0.036258318;-0.089854054;0.05466751;0.0033425924;0.005890072;-0.18739432;-0.17805839;-0.1190947;-0.051487356;-0.02392374;-0.07964788;-0.04759189;0.082259566;0.044175286;-0.08813325;0.0042656516;0.040840756;-0.02568741;0.0063909492;-0.013547746;0.071582735;0.0045042126;-0.058147956;0.03427898;0.019381283;-0.06001043;-0.11086683;0.013726976;-0.018097784;-0.041533004;-0.08006664;0.06639196;-0.043348838;0.037198022;-0.08193491;-0.046000615;0.06556647;-0.057655692;-0.011556261;-0.0111209275;-0.0019758297;0.04859178;0.055657387;0.12011623;-0.06990767;-0.04956487;-0.00067095726;0.025257971;0.015197173;-0.038585875;-0.15648913;0.018753994;0.009648609;-0.028050154;0.015721317;-0.035406727;-0.08421847;-0.15986344;-0.029261949;0.081877396;0.16763932;-0.03772734;-0.09549168;-0.040990632;-0.027852172;0.005688445;-0.03323094;-0.0824317;0.068755336;0.020038603;0.033043124;-0.021749342;0.12182302;-0.0884035;-0.0076427273;-0.09701727;-0.04552418;-0.040862944;-0.02900014;0.06747101;-0.07087305;-0.07217343;0.104872905;0.052188814;0.024079606;-0.08858601;0.007837991;0.03806513;-0.02930438;-0.026020562;0.06951581;-0.12757975;0.23562977;0.026896024;-0.06839609;-0.015769357;0.049825616;0.02648847;-0.020719254;0.030944774;0.0277707;-0.019720694;-0.018761972;-0.057519946;0.0582405;0.1643488;-0.077088855;-0.030898964;0.05348749;0.0251794;0.030665642;0.06665553;-0.08910769;-0.0011969493;-0.012616538;-0.02987727;-0.00636391;-0.21662168;-0.08542294;0.13000464;0.050198082;-0.024026865;-0.091618106;-0.14186454;-0.017341197;0.08967538;-0.06095853;-0.04092665;0.013780043;-0.088533655;0.11769309;-0.05388404;-0.06816487;-0.05969208;0.011778126;-0.11284974;0.06719387;0.065109186;-0.06402161;0.029201552;0.06466591;-0.013239279;0.08063578;0.054054987;0.002277926;-0.018976089;-0.11192883;0.054627493;0.01294096;-0.0251347;0.035520647;0.10420953;-0.10037286;-0.0070479675;-0.017421136;-0.13603209;0.28687546;0.08050544;-0.0017834617;-0.043521743;0.12744233;-0.047913954;-0.019824944;0.014115141;-0.06744329;-0.03742558;0.010525061;-0.047232702;0.01629975;-0.024465702;0.010749194;-0.06641623;-0.05039018;0.07789459;0.073721;0.013187675;-0.0026190656;-0.043799527;-0.11297157;-0.046886444;-0.08695511;-0.057701357;0.019038966;-0.07923403;-0.008015227;0.045543127;0.0042363256;0.049644906;-0.07228716;-0.014384816;0.022616524;0.025188448;0.008200855;-0.06666597;0.07167987;0.07123803;-0.033464544;-0.06773297;-0.1003378;-0.013398712;-0.16723423;0.061795305;-0.08642496;-0.002184074;-0.068862304;-0.04554314;-0.011558201;0.04670288;0.00029822587;-0.06859746;-0.057096366;-0.026471145;-0.05012014;0.054959744;0.003819111;0.10371813;-0.009863464;-0.16182734;0.060287256;0.020038294;0.09806024;0.11375022;-0.04324404;-0.13082868;0.06394014;-0.033545546;-0.0792394;-0.01916964;0.039184976;-0.09229761;-0.026427412;-0.2543725;-0.036714472;-0.005119538;0.09076285;0.093524955;0.065677315;-0.12173026;-0.11075299;0.03529283;0.00977415;-0.16489694;-0.15772758;-0.019175984;0.012360033;-0.10607062;0.08325129;0.037394404;0.068237536;0.03268248;-0.05812347;-0.050967384;-0.054670967;0.09476826;-0.0475213;0.038796794;-0.007901225;0.071654506;0.0027968134;-0.0025895822;0.08598916;-0.020097844;0.038624443;0.10440802;-0.018436067;-0.17390767;0.057492457;-0.061706454;-0.07454906;-0.012420061;0.06489771;0.07406133;-0.09652675;-0.049748834;-0.022679223;0.05439668;-0.019761343;0.057151634;-0.062819675;-0.08296048;0.09644213;-0.15776247;-0.063337095;0.0293474;0.037746377;0.09034162;-0.15015015;-0.09966789;-0.04904283;-0.07595384;0.063838415;-0.024468038;-0.049166016;0.053298075;0.094090015;-0.08733427;0.04190686;-0.06973586;-0.06404636;0.09057881;-0.03996667;-0.09506703;-0.07395548;0.010137463;-0.19773576;0.080248125;-0.09700151;-0.0018724937;-0.13899417;-0.00472751;0.19938864;-0.20363836;-0.10089253;-0.0964032;-0.18946286;-0.038683392;0.082519345;-0.034097467;0.019651825;-0.048141435;-0.068903655;-0.17046872;0.019564694;0.058918037;-0.07080483;0.15131122;-0.036215056;0.0718702;-0.008242851;0.02618795;-0.008109598;-0.023905924;-0.018954556;0.06185066;0.046832275;-0.059414636;0.046822973;0.06618705;0.11866406;0.07058269;-0.07421194;0.025317322;0.03176704;0.06129406;-0.15868281;0.040320512;-0.03383367;0.05899611;0.051004164;-0.3071153;-0.1505896;-0.05574566;0.10116477;0.009192106;0.011825453;0.053440247;0.07749529;-0.005290151;0.0792887;0.017255424;0.08287445;0.004498171;-0.044112086;-0.06499049;-0.0013486441;0.008821041;-0.020340346;0.034484494;0.027523167;0.0020223388;0.085161425;-0.014342778;0.0009935657;0.09101873;-0.04247506;0.03666572;-0.020487543;0.037471708;-0.010577816;-0.02644282;-0.055194255;0.067810975;0.075245015;-0.015079967;0.09451311;0.014179684;0.046862584;-0.12041733;0.005760684;0.016505934;0.017923526;0.02713536;-0.016911993;0.04281427;0.009574135;0.10172507;-0.058161695;-0.07188885;-0.02144496;-0.015193795;-0.030535696;-0.014232023;0.043365173;0.077457815;-0.13144273;0.12897524;-0.03963183;-0.031733602;-0.0028120764;0.0032337774;-0.019061325;0.0037545445;0.08937612;0.06334037;0.007464127;-0.04995082;-0.028337998;-0.006381891;0.10673912;-0.049717616;-0.11309787;-0.00403333;-0.105651475;0.081491426;0.030663123;-0.026483836;-0.033076633;0.14784484;0.021536002;-0.02992162;-0.07928269;-0.074063264;-0.054228485;-0.044418752;0.023787016;0.044617377;-0.119978644;0.039989248;-0.0813943;0.039060026;0.06717393;-0.07426764;0.09200836;-0.080942996;0.044116363;0.026599377;-0.002959126;-0.004567825;-0.013673492;0.012547545;0.16509542;0.01522859;-0.045248415;-0.006766351;-0.023799857;0.0005577034;0.0041326685;-0.0025187226;-0.04541091;0.029213598;0.07638269;-0.009948179;-0.01886188;0.10389678;-0.113918595;-0.032116268;0.024390085;-0.09273767;0.058069475;-0.076181896;-0.33694506;0.07059217;-0.07327578;-0.03223865;0.011682361;-0.07144187;-0.0016754415;0.008673987;0.03699585;0.08007941
-0.07509466;-0.09300804;-0.030778825;-0.008180542;-0.044415444;0.021898197;-0.30430752;-0.028922908;-0.06528536;-0.059460286;-0.05161449;-0.11021796;-0.032219615;0.06519705;0.023241654;-0.032462634;-0.1599157;0.10599956;0.016169574;-0.06067567;0.049009316;0.031796258;0.04589014;0.026417237;0.044687472;0.05257498;-0.06510944;0.021387864;-0.20618135;0.11474897;-0.09349175;0.021081703;-0.023015827;-0.26303685;-0.0084332535;-0.0750353;-0.21573521;0.043157384;0.08253289;0.040802244;0.029346434;-0.024109976;0.17122671;-0.02435928;0.1309291;-0.0026933982;0.0027704611;-0.00089159707;-0.08100844;0.05637979;0.13090077;0.11922743;-0.038578838;-0.21866305;-0.083635405;-0.030325219;-0.021804797;-0.027133383;-0.0960737;-0.01874532;-0.12681198;0.05365835;0.06476826;-0.04817608;-0.06568559;0.05955853;-0.04119801;-0.11828267;0.022128388;0.004158992;-0.024817424;-0.10844344;0.070783734;0.24265216;-0.23315448;0.065151714;-0.069401994;0.009865621;-0.43611702;0.05942246;0.0005492946;0.06237359;5.4623873e-05;0.14266297;0.053137828;0.10074868;-0.083780736;-0.07258975;0.059921052;0.04346067;0.013575079;-0.008481967;-0.10815039;-0.12199942;-0.0559989;-0.011317474;-0.013851134;-0.055633772;-0.06995691;-0.03635338;0.025649697;0.0028354719;-0.04823275;0.01959788;0.08461348;-0.2640649;0.0035822953;-0.039755568;-0.079483554;0.06824237;0.073942654;-0.050036054;-0.010303255;0.1299512;-0.0415327;-0.06703853;0.009293858;0.016328167;-0.04440153;-0.13769387;-0.058568936;0.08351605;-0.009859545;0.068678536;0.08414661;-0.06672824;-0.013069796;0.04633288;-0.0697097;0.017091116;-0.03351614;-0.040254377;-0.17040439;0.07811422;-0.10302993;0.03887812;-0.0278809;0.028437072;0.10381558;-0.035882726;-0.14116819;0.040577434;-0.039099097;0.02401308;-0.09414584;0.036885444;0.0013925649;0.06119072;-0.07061015;0.027841998;0.047221523;0.05475061;0.078146085;-0.076508105;0.016507212;0.10740967;0.12763426;0.025179164;-0.005561728;-0.016578948;0.014016114;0.018994952;0.103211105;-0.06730124;-0.033250645;-0.085619695;0.064226985;0.088977;-0.032628298;-0.103454515;-0.061862476;0.17532621;-0.022924328;-0.007721823;0.04379699;-0.06566812;0.06216723;-0.015802717;-0.019194197;0.06326112;0.058473732;0.014428027;0.016878964;0.020041963;-0.082755275;0.14564806;-0.021607267;-0.021743687;0.13774106;0.0085504465;0.13259289;0.041697774;-0.17015134;0.034641083;-0.018993957;0.010427032;-0.094748124;-0.04423444;0.00090726605;0.05161029;0.05363413;0.06460356;0.01395478;-0.0063348245;-0.060519643;0.07078678;-0.072505526;0.027497789;-0.04012441;0.0062194183;0.016879018;0.042941637;-0.08964007;-0.15336378;0.079277016;-0.06539522;0.024611127;-0.054370623;0.061800085;0.04311831;-0.019058948;0.008676246;-0.018534305;0.043746263;-0.069767535;-0.10648068;0.051116362;0.07316716;0.0052332957;0.10344782;0.10939282;0.13768987;-0.0504375;0.07711083;-0.03605963;0.017577665;-0.02874566;-0.06773502;0.086407036;0.07725207;-0.060925737;0.062483;0.018082192;0.099506296;0.0340669;0.13757023;0.016333321;-0.039490473;-0.06096262;-0.057255387;-0.10175864;0.0644925;0.24903047;-0.0250215;0.012259043;0.07109578;0.07996251;0.014953389;0.053733982;-0.014508478;-0.0438132;-0.0012786769;-0.06140487;0.04297122;0.05117867;0.06578856;-0.06848579;0.009292386;0.02876614;0.04843274;0.024627794;0.08856909;-0.025853904;0.02777109;0.12311211;-0.0024114635;-0.029142793;0.12880935;0.1204827;-0.04030892;-0.052925006;0.01611857;-0.10130748;0.04122835;-0.02446996;0.039483164;-0.051794026;-0.04099266;0.091833025;-0.061334394;-0.044562582;0.0024158082;0.07692167;-0.056648865;0.06015933;-0.040287502;0.01720017;0.0617614;-0.080148265;0.0072181304;0.019732006;-0.057263687;-0.022145446;0.05477216;0.01754692;0.054907657;-0.034312177;0.055858124;-0.022606177;0.026140222;-0.050092295;0.04432104;-0.024879877;-0.1585988;-0.07268934;0.018817559;0.062053733;0.10581321;0.02413296;-0.12584989;0.057920214;-0.07727382;-0.03099955;-0.004560613;-0.03415542;0.049076993;-0.033750907;-0.2762053;0.06525555;0.0817325;-0.051779684;0.11396625;-0.030527458;0.04587999;-0.10483732;0.07340569;-0.02255981;-0.050045624;-0.03226779;-0.021570478;0.034850348;-0.10438618;-0.034617554;0.041790873;-0.07803793;-0.09441385;0.010439935;-0.07311954;0.011363667;-0.051411603;-0.07458376;0.10936946;0.10285247;0.038038794;-0.04102254;0.10350443;0.076175146;-0.01923924;0.030883621;-0.07354424;-0.007128152;-0.34006336;0.060120214;-0.1670464;-0.064903915;-0.03338496;-0.052712146;0.04156917;0.012438443;0.03199706;-0.042769063;0.100518145;-0.023761556;0.0247633;0.09911773;0.13492155;-0.019218909;-0.19375922;0.0077012647;-0.038271982;-0.050305273;-0.0877246;-0.23216206;0.050187472;0.016562486;0.0120947445;-0.032550942;-0.029923774;0.096149646;-0.04608182;0.067229785;0.06006679;0.018975804;0.019696148;-0.0024958416;0.026795885;-0.03877777;0.02426295;-0.06276523;-0.15823424;-0.18570317;-0.04795485;-0.060228046;0.063890755;0.062453456;-0.13932577;0.05730493;-0.12298952;-0.06089655;-0.0103061525;-0.09373557;0.020909224;-0.33120745;0.028039126;0.17485546;0.05201012;-0.17533457;-0.052117825;-0.039251268;0.19739328;0.053386174;0.08715862;0.008990065;0.01245092;-0.0063750427;0.05062698;-0.11536732;-0.03014136;0.018217288;0.121601276;0.08823312;-0.0039842906;0.12877747;-0.092640966;0.1064357;0.021631707;-0.064493164;-0.019735267;-0.052812565;-0.041720923;0.023432108;0.038894746;0.045172058;0.09442521;0.0342881;-0.22699766;-0.07873323;-0.010758042;0.056245387;0.0706016;-0.07844413;0.028438857;-0.025833404;-0.070448294;-0.12891404;-0.024329964;0.07812833;-0.1489655;-0.10460885;-0.0036298297;0.02674751;-0.006105688;-0.011078184;-0.041290328;0.0011388274;0.017630907;-0.122042336;0.007904781;-0.0026490572;0.0043466534;-0.01292199;-0.083030246;-0.11949684;0.04610956;-0.015576068;-0.009171688;-0.007828232;-0.022663703;0.093866475;-0.053273614;-0.0070960433;0.011890897;0.032966312;0.091720045;-0.081912026;0.112531506;-0.0006729075;-0.015555761;-0.005434651;0.041926067;0.051630974;0.06933051;0.052468155;0.013024089;0.07094797;-0.097955555;-0.052412733;-0.070874006;-0.00013789091;0.015910912;-0.0065926276;-0.054853804;-0.16680454;0.08302449;0.02255396;0.1140819;-0.055210397;-0.0024810086;-0.019366043;0.058430333;0.013846511;0.026335059;-0.060266845;0.036290288;0.22865418;0.048362177;-0.12789412;0.08799557;0.03573383;-0.029683935;-0.035207562;0.042858317;-0.04024865;0.15946767;0.04663085;0.030948646;-0.033588283;0.06079041;-0.03843857;-0.102420166;-0.007715767;-0.0020053638;-0.19810177;-0.01613526;0.081147864;-0.07151563;0.051547103;-0.08191531;0.16529317;-0.07458997;0.01600244;0.06250112;0.0491531;0.03243142;-0.002690528;-0.041261073;0.15724581;-0.09059809;-0.0034586967;-0.036317103;-0.037031654;-0.011474909;0.032184713;0.060583502;0.06799528;-0.009158179;-0.07286162;-0.020405523;0.027755234;0.03079424;0.027848583;-0.040620327;0.12463114;-0.060580302;-0.060063925;-0.06778635;-0.26700544;0.1943925;0.0069372244;0.004648903;-0.014432167;0.028836055;0.02325015;-0.08093612;0.0101841;0.050467066
-0.06693137;0.002722451;0.055614192;-0.08487995;0.040107384;0.050254337;-0.19151454;-0.07378275;-0.15687741;-0.057697203;0.050092313;0.05653503;-0.030618522;-0.09557068;-0.034798056;0.018715592;-0.0052760732;0.05699149;-0.008256796;0.030613685;0.07339103;0.022317186;-0.063696735;0.025365716;0.00016038617;-0.115583204;-0.004139404;-0.064281516;-0.03058602;0.22233368;-0.11379592;-0.019209534;0.021414021;-0.08615653;-0.041735984;0.007877707;-0.08004852;0.031730562;-0.018531838;-0.05914488;-0.07292723;0.10206349;0.20914155;0.012116036;0.18899527;0.006976099;0.04610563;-0.038242012;-0.010776071;0.16784856;0.25800753;0.15032555;-0.046060078;-0.0593663;0.09424542;0.00089288753;-0.09092926;-0.038464032;0.029438987;-0.006659304;-0.08019369;0.035005163;-0.12614258;-0.0058797086;-0.001232109;0.1154418;-0.024107808;-0.15306084;-0.06320447;0.06173494;0.231881;-0.18692248;0.027255204;0.25725597;-0.13370112;-0.04780793;-0.12625293;0.1009685;-0.1676155;-0.05532079;0.012749902;0.0060912455;0.04913017;-0.029876456;-0.0451365;0.04634358;-0.12166869;0.017744802;-0.033400334;-0.030949468;-0.011404037;0.0628707;-0.107075155;0.047597513;-0.06585801;0.04442749;0.048724014;0.038796697;-0.065426886;0.05722394;0.033369545;0.01008179;-0.0023789383;0.009076312;-0.05721174;-0.07194023;0.015319489;-0.016664926;-0.043672;0.062774055;0.054445125;-0.058731228;-0.018179841;-0.07050503;0.021096371;0.021620296;0.18461688;-0.023483966;-0.028226146;-0.039866008;0.057493187;0.068666056;0.013621354;-0.03581134;-0.041414537;-0.07042265;-0.024412895;0.045201264;0.06841835;0.0538897;-0.04527718;0.05803593;-0.16184355;-0.11789585;0.19135515;-0.026688352;-0.02584638;-0.054061167;0.10442174;0.09729344;-0.16007957;-0.102803655;-0.072870694;-0.0816777;-0.11180123;0.015925555;-0.08684859;-0.09934441;0.052987814;-0.028145222;-0.042206407;0.07368059;0.07672479;0.08543373;-0.049247496;0.23769678;0.24483961;0.07453309;-0.06059851;-0.08451291;-0.052423883;-0.054963987;-0.035778843;-0.023362022;-0.047898203;-0.00033830848;0.00033530063;0.05230581;0.1813583;-0.07310154;-0.004240256;0.11125325;-0.02049702;0.0600368;0.07918366;-0.08705479;0.063271336;0.095691346;-0.33886823;-0.04461496;0.073859565;0.1001081;-0.04986079;-0.043825824;-0.087481804;0.078192055;-0.06557454;0.031390518;0.13666189;-0.09483112;-0.083611675;-0.08780006;-0.14122505;0.08573985;-0.03297545;-0.057619922;-0.074975856;0.032762147;0.051770087;0.02075663;-0.038323697;0.18818551;-0.0643027;-0.14006265;0.0120649105;0.044750247;0.06042015;-0.0054471875;-0.023448683;-0.16522872;0.07735727;-0.026633749;0.033984184;-0.16407225;-0.12861142;0.015673354;0.059940122;-0.08039599;-0.039892517;-0.0032314647;0.05102587;0.03566802;0.10449727;-0.079162546;-0.031015338;-0.08094697;-0.029184643;0.010533189;-0.121963345;0.14773458;0.1517452;0.03565814;-0.08408085;-0.13613226;0.0076751113;-0.031531367;-0.032693982;-0.061930083;0.031387366;0.01733299;-0.044781215;-0.0106709385;-0.084034115;0.12848577;-0.12722524;0.05274606;-0.08279984;0.010664982;-0.1655802;0.036284287;-0.056967556;-0.069667466;0.08873363;-0.07724237;0.15282167;-0.042672392;0.06740282;0.02057966;0.028105156;0.029387772;-0.05193827;0.02145632;-0.043302983;0.016505957;0.04441986;0.023758195;-0.03314151;0.10066096;0.06400177;-0.078018665;0.057336777;-0.076543175;-0.048908167;0.07689781;0.058367938;-0.06773675;0.11794514;0.12454121;-0.057387967;0.007481549;-0.1266828;0.1414346;0.015677162;-0.20399092;0.02484627;-0.10183617;0.053042583;-0.009003136;-0.063385144;0.014527468;0.09249268;-0.018152395;-0.024913523;0.0606521;0.07455946;-0.24707481;-0.0963315;0.026404912;-0.022842094;-0.05331405;0.06431557;0.013575733;0.07357908;0.09583372;-0.06854019;0.009451922;-0.077837;0.021145124;-0.13581432;-0.0668915;0.04286987;-0.28910488;0.033574972;0.05426183;0.091290325;-0.06477824;-0.008945064;-0.027518576;0.05038975;-0.12960862;0.010320782;-0.007554207;-0.01042393;-0.063392006;-0.043115307;0.041073326;0.03752271;-0.1616255;0.02833808;0.026309853;-0.13210076;0.13667268;-0.03996282;0.024345694;0.16613333;-0.042583764;0.016704032;-0.1175005;-0.11462749;-0.13846783;-0.020946765;-0.021688858;0.14001705;0.06203775;0.040291786;0.033306208;0.049855124;-0.025410451;0.009448903;-0.0074645886;-0.0278481;-0.069149934;0.046121027;-0.18094175;-0.30511132;-0.09619629;0.27236977;0.010144158;0.027450042;0.009327692;0.10078225;-0.11983734;-0.048299853;-0.018163126;0.014576133;-0.070367776;0.07848899;0.024365831;-0.004553185;0.0030614317;0.014913471;0.22021253;0.065472804;0.076140486;0.08562464;0.17970873;0.05746171;-0.16470785;-0.025777116;-0.06946722;-0.018077163;-0.017762983;-0.2578525;0.0055624335;0.007660835;0.04398019;-0.0012108439;0.0045397487;-0.040301815;-0.017797844;0.030738698;-0.01955493;0.029467411;-0.063835114;0.13909274;-0.06337722;0.051390428;-0.047185175;-0.13329561;-0.20643514;-0.056257967;0.018807668;-0.051233057;-0.07177185;0.07820208;-0.10075921;0.14410825;-0.18429415;0.056765504;-0.06256729;-0.120797396;-0.122813895;-0.15793549;0.031319;0.017382985;0.003723831;-0.020009251;-0.13809842;-0.07237597;0.13893162;0.061721995;-0.05448299;-0.01584182;-0.051631168;-0.08407744;0.0050100554;-0.1455876;-0.01469722;-0.049167447;-0.15146492;0.0021119213;0.028674863;0.22221206;-0.067067534;0.051591072;0.060101643;-0.057003003;-0.040484853;-0.011924162;0.08218948;0.053866833;0.15902446;-0.018720997;0.26518428;0.0026395875;-0.1612839;-0.11558995;0.08783309;-0.02310643;-0.08744044;0.07899489;-0.06948477;-0.01338896;-0.13214566;-0.114079095;-0.053580455;0.12917861;-0.05001209;-0.073334225;-0.055075813;0.14077905;0.01065738;-0.06835115;0.08010138;-0.10031169;0.024144405;0.03896582;0.07085592;0.027619136;0.03265768;-0.05092143;-0.06978591;-0.09281903;0.07048836;0.024725141;-0.01036992;0.020283138;-0.06194103;0.087469526;0.017263744;0.07519007;0.050807897;-0.11312955;0.16013242;0.027227735;0.021932859;-0.1177822;-0.0988495;0.07724492;-0.022658542;-0.0063896994;0.13978505;-0.08593473;0.04425517;-0.04104091;-0.021849006;0.010909833;-0.10065935;0.04292096;-0.06594825;-0.0745324;-0.16398565;-0.10789362;0.0598172;-0.07542664;0.020196736;-0.057680123;0.06834803;-0.11990205;-0.06438752;0.0052998634;-0.07995719;0.03478279;0.01510858;0.1728512;0.060384735;-0.13560711;-0.009749493;-0.016414255;0.12553671;-0.07460692;0.024892109;-0.04452557;-0.10332459;-0.055641625;0.008388105;0.0040753875;0.08824803;-0.0502901;-0.052884083;0.04899303;-0.02015796;0.04520918;0.15151751;0.03335641;-0.03201678;-0.010631246;-0.07280354;0.04929827;-0.101255365;0.006139302;0.07155677;-0.10664128;0.0015876282;-0.0096036885;0.07423073;0.050747402;0.033544436;0.003142194;-0.058662027;-0.0059435647;0.007344554;-0.02070188;-0.05662659;0.038959235;-0.0073882365;0.01851368;-0.07162087;-0.01858888;-0.26150215;-0.09181053;0.030385314;0.00013821537;0.009385946;0.03834933;0.005639846;-0.29009518;0.096513174;0.05116185;0.04861634;0.0012738163;-0.113808125;0.10477277;-0.06844964;0.034599897;-0.017942904
0.054428168;-0.075703844;-0.11368781;0.10965861;-0.05005014;-0.034982502;-0.26327485;-0.031842757;0.036220472;0.038658265;0.07547357;-0.016338557;-0.09705726;0.019203922;0.01707854;-0.028263707;-0.06846553;-0.11556518;0.0073957136;-0.0878776;-0.058446623;0.092070535;-0.16165352;0.004341245;-0.06091616;0.02745399;-0.028664473;-0.09011979;-0.055934012;0.18040815;0.056337826;0.15667744;0.051247407;-0.10790834;-0.022686401;0.050602023;-0.11341732;0.16911379;0.05005218;-0.022225369;-0.041846115;-0.025829058;0.073376656;0.03069561;0.13661095;-0.053579874;-0.058263425;0.047092337;0.047022574;0.01703066;0.01227725;-0.022669837;-0.055599134;-0.022981293;0.17842343;0.016054036;-0.039113905;-0.03649682;0.06477228;-0.04222076;-0.1894141;-0.108878516;-0.046434697;-0.08482823;-0.021983707;0.09973525;-0.06594037;-0.27288747;-0.03195171;0.06740728;0.1959308;-0.0867157;-0.03674383;0.33405873;-0.008989704;-0.05921607;-0.030487083;0.1270636;-0.06080623;0.02497361;0.051296137;-0.0726212;0.008580966;-0.04252848;-0.108897954;-0.0017160414;-0.055300176;-0.09090931;-0.06856505;-0.04866939;-0.08782383;-0.032994483;0.059016064;-0.13575165;0.03617383;-0.056470916;-0.09232483;-0.0016404925;0.051579997;-0.023717538;0.047427382;-0.10965772;-0.03613187;-0.024620796;0.0662921;0.1653366;-0.03866144;-0.0655149;-0.09424198;0.049412448;0.13398053;0.024673155;-0.03491983;0.15441835;0.0766963;-0.06844613;0.024745282;0.008264864;-0.12509534;0.011996509;0.009369531;0.109273076;-0.05912318;-0.06178372;-0.028367134;-0.015404198;0.044575255;-0.012095369;-0.019520884;0.014438092;-0.059315514;0.046268404;-0.20278;-0.0626905;0.040012147;0.060850196;0.019292938;-0.037582107;-0.049731787;-0.052515034;-0.148491;0.035726085;0.05606888;0.0570842;-0.08255343;0.21112134;-0.061736215;-0.0032314183;-0.01870469;-0.03933917;0.0036371595;0.0016830686;-0.034781903;0.041362435;-0.002232411;0.0019779901;-0.111459926;-0.1819448;0.028119696;-0.031495426;-0.018812343;-0.104623005;-0.0070003383;0.05097853;-0.05617941;0.0034750898;-0.053787734;-0.035277423;-0.09861201;-0.02155032;0.00084241334;0.010673249;-0.07444391;-0.0011012631;0.07428885;0.006455132;-0.058035415;-0.017416649;-0.025285231;0.0058016763;-0.0044864756;-0.036171816;0.06272118;-0.008262959;-0.050842516;0.07250107;0.063340135;0.09843401;0.19278812;0.034875646;0.015166876;0.019451085;-0.23035453;0.04618693;-0.059383903;0.002523002;0.22214793;-0.030976715;-0.041478533;-0.006859695;-0.07965411;0.114311524;-0.067166045;-0.094776124;0.037134055;0.03571887;0.060771886;-0.10531656;0.08058451;-0.22095183;-0.20736974;0.036206312;-0.0013788036;-0.045773715;-0.08727218;0.06817648;0.050500244;0.021398954;0.05062822;-0.015071776;-0.016600538;0.073233485;0.07315186;-0.0617321;0.07791733;0.05816938;-0.17083006;-0.06428745;-0.14893271;-0.027630292;0.14618069;0.20143439;0.04454743;0.08083149;0.08976475;-0.028639838;0.03662227;0.012231358;0.052799672;-0.077549346;0.023113431;-0.14706852;0.017621484;0.16478787;-0.0074500437;0.050232936;0.02090755;-0.061645176;-0.13063322;-0.055574194;-0.0049854927;-0.072185405;-0.0445255;-0.030484727;0.18830048;-0.014499106;0.18301502;-0.07123184;-0.079003125;-0.08562848;-0.02597457;-0.03394464;0.043487385;0.05946617;-0.13206463;0.022992285;0.032768197;0.03471178;-0.11880439;-0.10215698;0.20210555;-0.04607625;0.083931684;0.08411085;0.038046442;-0.093783945;0.18224977;0.16615267;-0.13156211;-0.008937768;-0.024816653;0.05664298;-0.02146747;-0.25335678;-0.049324613;0.010859779;0.059066907;0.05775573;0.06013576;0.056195315;0.24750862;0.016667774;0.0072213076;-0.013764089;-0.06344832;-0.29500064;-0.07205714;0.05492681;0.03870327;0.083569475;-0.09240143;-0.17086357;-0.0077852705;-0.008952504;-0.0023995559;0.011806942;0.04961442;-0.023044232;-0.10417223;0.02831626;0.006857226;-0.20749077;-0.048818585;-0.007721015;0.0591359;-0.015326693;0.117430955;0.03569339;0.04054643;-0.2512563;-0.004841382;-0.08629271;-0.06295983;0.0946958;0.00018715735;-0.00796353;-0.011595075;-0.27940896;0.043372124;-0.019072114;-0.0031829458;-0.0007189176;-0.015045882;-0.111173086;0.07193941;-0.05931427;-0.047884446;-0.11547349;-0.24281797;-0.054709867;0.07478294;-0.08483939;-0.004784362;0.09090039;-0.018071527;-0.054881852;0.078310445;0.077889256;0.072175585;-0.038282473;-0.12773821;0.13942964;0.05724112;-0.03413382;-0.14678605;0.028529441;0.24661766;-0.022664016;0.016119424;0.11809656;0.027452398;0.038596835;-0.031536825;0.0599576;-0.029331062;0.049176473;0.08311472;0.038014546;-0.04367149;-0.0603426;0.013943627;0.21840817;-0.030500095;-0.03657105;0.06290916;0.03874373;0.03890595;-0.048193432;0.00879236;-0.00079843035;0.013434711;0.02494397;-0.0778642;-0.03950747;-0.024726247;0.061942272;-0.042658806;0.0693877;0.04029234;0.022511391;0.0013545256;-0.037346985;0.02734287;0.011517701;0.113339074;0.09104387;0.088037424;-0.08613413;-0.025033386;-0.27026096;0.00053748593;-0.045159277;0.053412467;0.14780605;0.08075035;-0.35722157;-0.019372867;-0.43428332;0.010695325;-0.10342733;-0.0904905;-0.0769989;0.034885596;-0.024131367;0.12727204;0.09814883;-0.07807147;-0.058900617;-0.029728148;-0.070043385;-0.005594322;-0.12534256;-0.06518125;-0.069081746;-0.010436796;0.01509731;-0.03379254;0.008313989;0.0024895673;0.21724033;-0.0010176009;0.0055337166;0.14130726;-0.041646596;0.008320569;0.03182329;-0.024335906;-0.029657725;-0.024950976;0.06955477;0.03880661;-0.029180102;0.020755775;0.23348472;-0.07394443;-0.13248114;-0.08745334;-0.008774683;0.047328025;0.03591246;-0.04412951;0.024427863;0.017822733;-0.32881272;-0.12775159;-0.138046;0.025024075;-0.05337512;-0.012275515;-0.0494254;-0.06515042;-0.0685425;-0.17930162;0.062228415;0.038516186;-0.090326175;0.07390151;-0.023304772;0.0073040146;0.0104027605;-0.043756776;0.012745667;-0.03064066;-0.0803414;0.032008197;-0.039180927;0.031277448;0.046092227;-0.04271985;0.044218667;0.082169086;-0.06694846;-0.06821678;-0.0044177063;0.0033301685;-0.06783515;0.021961669;0.024340153;0.009051147;-0.110525794;-0.08328336;0.12018361;0.020915622;-0.04344466;0.008639171;0.10783893;-0.048952505;0.012100078;0.03152024;-0.057299633;-0.15944701;-0.14464107;-0.2307183;-0.02293925;0.014934417;0.018218402;-0.06444002;0.091655366;-0.07739488;0.025403913;0.053921346;0.016909169;0.011039226;-0.07176908;0.11661986;0.038538776;-0.083613805;-0.021566104;-0.13318492;0.094112955;0.05343876;-0.017104387;-0.025444249;-0.2338125;-0.09119478;0.048798822;0.05023292;0.0007675267;-0.059871867;0.050833896;0.074875735;0.01768002;0.08617375;0.08721518;0.03245057;0.04389385;-0.047394402;0.020904908;0.19803496;-0.093856215;-0.03340962;-0.04056043;0.020659229;-0.035492357;0.009919434;-0.021924581;0.00068456423;0.04744539;0.032983463;0.025034698;-0.03185777;-0.060956363;0.050852653;0.04166767;0.0385891;0.06365304;0.025693534;0.0615767;-0.10578697;-0.17071578;0.038062833;-0.06881851;0.10975846;-0.029490627;0.06966898;-0.04627668;-0.041995265;0.064178504;0.06763285;0.04180145;0.0932566;0.105019554;0.20891105;0.010409394;-0.066314906;0.010266546
0.14370415;-0.056735497;0.030557694;0.10771849;-0.016939025;-0.0679215;0.1317135;-0.027847983;-0.066585995;0.021415645;0.008328982;0.065820046;0.09597486;0.004004428;0.015729448;-0.05359845;-0.1404824;-0.16082191;-0.0139369145;0.148848;-0.079812795;-0.0642292;-0.12131833;-0.13595231;0.050816096;-0.052167274;0.01662809;0.015158669;0.12962615;0.18081182;0.08842261;0.12084397;-0.011583126;-0.047465704;-0.012068579;-0.105414204;0.06674707;0.10400128;-0.04118823;-0.08052702;-0.059792686;-0.10029143;-0.061522815;0.07138047;-0.10456765;0.035065155;-0.0069167037;-0.09359167;0.07461163;0.047346838;0.09541894;-0.093692884;0.0029801866;0.058794707;0.14283444;-0.07933476;0.050359074;-0.0039938795;0.054458532;-0.0027169483;-0.04137671;0.007796165;-0.2752363;-0.032711666;-0.056887314;0.044341628;-0.0658755;-0.28703898;0.04657053;-0.041778307;0.017491877;-0.10378477;-0.032205127;0.21809141;-0.045384195;-0.024850057;-0.054125477;0.2844405;0.018819222;-0.12960851;-0.119359374;0.010116953;-0.0005574034;-0.03255643;-0.07012515;0.053676065;-0.19217099;-0.102814585;-0.091797605;-0.06812919;0.0111668985;-0.00705087;0.035497215;0.031797193;-0.058382753;0.049867835;0.064135745;-0.054514;-0.07664927;0.0479398;-0.09416765;-0.34756127;-0.10318392;0.116076194;-0.050637744;0.06788211;-0.033708543;-0.055420414;0.00513253;0.02919922;0.16239062;0.0875923;0.005740049;0.117848575;0.08866573;-0.06795741;-0.055535708;-0.025441954;0.104227036;0.22505586;0.24365993;-0.020679586;-0.10157082;0.0798852;-0.1088486;-0.020894626;-0.0054861647;0.011075526;0.040128734;0.016062193;0.0016513991;-0.02090743;-0.18246901;0.108483665;-0.25864777;-0.026222149;0.02085396;-0.16297144;-0.12789145;0.045752656;-0.0427477;0.037422843;0.06066659;0.07606272;0.03547368;0.19453494;0.07248463;-0.031469394;0.07500502;-0.23065357;0.016367817;-0.07000507;-0.070423275;-0.17603488;-0.037397478;-0.005589538;-0.05867114;-0.08176233;-0.103060395;0.044060603;-0.07789254;-0.031966254;-0.1291915;0.022368403;-0.08324241;-0.050643913;0.053125467;-0.036629092;-0.11169123;0.078749314;-0.05412707;-0.055859514;0.01293633;-0.016289188;-0.04199251;-0.065209396;-0.08207315;-0.021945596;-0.114168316;-0.07174919;-0.035426673;-0.029420126;-0.0015815764;-0.12643342;0.07489502;-0.10311856;-0.004153317;0.06125556;0.19387282;-0.11918698;0.13662416;0.0037817257;-0.032613486;0.029431973;-0.052704763;0.012672372;0.046092883;0.0620088;0.06716447;0.023954066;0.0035854543;0.013235183;0.02220068;-0.0544329;-0.062343214;0.018856188;0.09112964;-0.05667697;-0.08400043;-0.086830564;-0.098656945;-0.013576933;-0.03707514;-0.07449334;-0.0533356;-0.0929562;-0.051085565;0.005083894;-0.018558394;0.105050676;-0.022008698;-0.08153313;0.0456921;-0.074465275;-0.019523893;-0.07392627;0.053512543;-0.050332878;-0.028571786;0.050555382;-0.019425156;0.0034826072;0.08770871;0.17662546;0.039106082;-0.0021129753;-0.112480514;-0.04888961;-0.0021501349;0.061996106;-0.04072374;-0.1330256;-0.047697656;0.17429838;-0.05033257;-0.033709288;0.04990414;0.083263084;0.1817799;-0.042364195;-0.16025518;0.04701735;-0.16998327;-0.0036158722;-0.06559886;-0.051513787;-0.027762955;-0.0098928595;-0.019620938;0.0012802802;-0.08974575;0.06263449;0.054252572;-0.08586745;0.03239733;-0.052015185;-0.026758038;0.033702254;-0.1181617;-0.0673412;0.15256074;-0.08614577;-0.055651326;-0.06469076;-0.16853365;-0.008618604;0.21751958;0.13029248;-0.16355444;0.037041828;-0.10701745;0.066730335;-0.01909573;-0.169397;0.01150129;-0.0056098495;0.028556965;0.009434625;-0.04247195;0.031132393;0.120164156;-0.06752663;0.036216576;-0.015605342;0.06213311;-0.14117575;-0.055745345;0.17875025;-0.047808412;-0.09155609;0.017673194;-0.15449859;0.010634494;-0.021571944;-0.06882802;-0.017390957;-0.040146533;0.09049321;-0.049561962;0.04467311;0.001958117;-0.016644537;-0.028824212;-0.00065483473;-0.03757225;-0.0030032024;-0.008651122;-0.10959286;0.041354705;0.14181527;0.040720608;0.10856184;0.037602257;-0.07006768;-0.09948725;-0.062628895;-0.03596934;-0.1972243;-0.007877293;-0.052166034;0.16327094;-0.117926605;-0.027372634;-0.2698703;-0.037317876;0.036221515;0.0842944;-0.22148445;0.08566036;-0.029684884;0.08195628;-0.096987695;0.028501876;-0.06321666;-0.056493524;0.04255649;-0.0026908026;0.0008178003;0.029931547;-0.01526641;-0.013450323;-0.091146216;0.13229209;-0.110320404;-0.05675757;-0.07516057;0.1440394;-0.04354367;-0.06537515;0.16658919;-0.1282864;-0.049036473;-0.011407828;0.121790454;-0.0033576216;-0.008750803;0.036244787;-0.015646191;0.09483454;-0.06944323;0.031120362;0.16268851;0.056245405;-0.04095426;0.023653068;-0.02485638;0.091537744;0.0045242924;-0.07310353;-0.0039272113;-0.048823137;0.018656356;0.108448066;-0.015078722;0.04106793;-0.11548111;0.062016103;0.054507576;-0.011490534;-0.042413533;0.16231188;-0.06305723;-0.06865159;0.08497662;0.14057188;0.012994373;-0.09594713;0.110162675;0.13269584;-0.13227928;-0.0061706896;-0.013426699;0.068355;-0.13463476;0.15092663;-0.27444637;-0.053603694;0.010871523;-0.07626812;-0.049068023;0.19216502;-0.046593964;-0.018370789;0.075457305;-0.010556222;0.02736754;-0.04703077;0.01596849;0.0898816;0.037679818;-0.027605169;-0.037414167;-0.08545847;-0.009498933;-0.06339171;-0.022846123;0.027572429;0.024218174;-0.022053396;0.16858596;-0.053797625;-0.13800222;-0.029569604;-0.010872186;0.1176025;0.17261;0.08408838;0.040581778;0.072157465;0.037535746;0.1255602;0.102659814;-0.023884974;0.27389947;0.004844653;-0.11216726;-0.14859854;0.108128294;-0.009610691;0.090296775;-0.0137781855;0.09017435;0.039597966;-0.30945614;-0.18999507;-0.0015242486;0.08947378;0.027269248;-0.017102892;-0.010740765;0.09047852;-0.07111306;-0.08064871;0.091033265;-0.08790211;-0.10675473;-0.2060665;0.08641216;-0.024466729;0.14398272;0.057177264;0.23541164;0.041167725;-0.045345917;-0.068889834;-0.060022376;0.06840553;-0.07340992;-0.12573121;0.07003877;-0.030744916;0.0149623295;-0.18699048;0.060199395;-0.04730539;0.13941872;0.07592157;-0.06871439;-0.07097144;-0.095991805;-0.07570797;0.25360036;-0.052728165;-0.028724996;-0.03712569;0.08173931;-0.026036954;0.02723129;0.0674364;0.003418684;-0.15032843;-0.09693938;0.0917188;0.12975349;0.06646206;0.04715684;0.057522558;0.0874009;-0.22063473;0.03699849;0.12595154;-0.0022124436;-0.037646916;-0.024164204;0.10672908;0.03994134;0.15752009;0.012107105;0.053030092;-0.12624428;0.06337175;-0.047723472;0.06259014;-0.17603981;-0.053238425;0.048825838;-0.04400685;0.0362229;0.052035894;-0.03864228;-0.043682255;0.0012534392;0.0057175956;0.02021793;0.029769802;-0.039352123;-0.104065016;0.015622791;-0.022480488;-0.16890034;-0.07313137;-0.044418924;-0.00985501;0.08512496;0.049333557;-0.10543264;0.017540367;0.022205003;-0.09769479;-0.04251606;-0.0050180703;-0.041810393;-0.060142476;-0.03347074;0.011519827;-0.14799637;-0.014227847;0.06792951;-0.13978525;-0.09158982;-0.1364144;-0.024494313;0.16437209;0.047652606;0.022951854;0.00060839305;-0.14538871;-0.14100105;-0.10597993;-0.022170557;0.11668965;0.112415895;0.17562771;0.030501867;-0.0883323;-0.074998625
-0.08816244;-0.104316995;0.021231998;-0.2450921;0.03259539;0.059934955;-0.21344028;0.011959587;-0.32666203;-0.041976668;0.034037586;0.0014712701;0.011634697;0.03528188;-0.09578841;0.05814005;-0.07523975;-0.06420952;-0.03320377;-0.06001103;-0.009058355;0.010049409;-0.079579316;-0.014242058;-0.008806907;0.014551478;0.018869434;-0.10282373;-0.017612908;0.052739955;0.0040888605;0.06868845;-0.08201925;0.11710163;-0.03298306;0.034524694;-0.025699196;0.22863343;-0.07338273;-0.05602775;-0.019450407;-0.16770253;0.054386966;-0.01983209;-0.12746057;-0.07559491;-0.06548218;-0.011285425;0.1352988;0.10101992;-0.060040787;-0.089935;0.059109546;-0.013025545;0.2688751;0.053894095;-0.052227154;-0.010906236;-0.08382194;0.0905;0.02111115;-0.022804854;-0.13877124;-0.16290198;-0.10461726;-0.04935159;0.015218429;-0.17338036;-0.051549096;-0.04456376;-0.055968404;-0.2508363;0.031079661;0.25326464;0.07980654;0.039103627;0.024112582;0.10114667;-0.2438671;-0.026696868;0.0082577;0.03726918;-0.04525154;-0.054935426;0.041704867;-0.22059803;0.022997754;0.045320507;0.051315058;-0.024293423;-0.059976455;-0.04907296;-0.09880925;0.036709845;0.018943015;-0.034099955;-0.045437407;0.05674283;0.037118472;-0.015450442;0.007691897;0.20927216;-0.074110605;-0.05082144;-0.06662317;0.17227358;-0.00795099;0.041110694;-0.081908286;-0.03252492;0.10921379;-0.031526428;-0.13508388;0.29135472;0.10013692;0.0946584;-0.20133628;-0.022594536;-0.11906378;0.053738546;0.2085382;-0.019011293;0.022816878;0.04730158;-0.045596384;0.049920574;-0.04093416;-0.07608959;-0.029697478;-0.08547409;-0.123678446;-0.13636085;-0.06073469;0.038166735;-0.03190223;-0.07591139;-0.047560956;-0.008077337;0.033231862;0.112872794;0.17111121;0.11688913;-0.08084321;-0.036026604;-0.004355574;-0.0068112677;0.22910938;0.014741784;-0.04980489;0.027026657;-0.053679775;-0.05392343;-0.021968646;-0.24784987;0.15443094;0.14928496;-0.013723695;-0.02543777;-0.010292497;0.020917889;0.036117762;0.058077455;-0.25485262;0.047308702;-0.028319076;-0.01249487;-0.01910148;-0.034932666;-0.05006847;-0.026197193;0.077224806;0.099544965;-0.008907604;-0.0312639;-0.0699749;0.042690456;-0.058021933;-0.108841576;-0.24826258;-0.046009704;-0.09875001;-0.08260579;-0.095548965;0.024523271;-0.09714553;0.032760225;0.0036474417;0.25142923;0.11025658;-0.06337357;0.049304835;-0.044340305;-0.27979904;0.031053048;0.030547794;-0.0136158075;0.03934095;0.15139839;0.18803845;0.01207867;-0.07943311;0.10704017;-0.09177279;0.07395158;-0.07759405;-0.031348974;0.2953123;-0.079820715;0.03721917;-0.0047021853;-0.20925097;-0.04793975;-0.04270015;-0.32798782;0.0043328004;-0.023476796;0.02532632;-0.05229562;0.062068455;0.15147799;-0.116192095;0.028601345;0.031340964;0.031461235;0.026313694;-0.023527049;0.085266724;0.06462473;0.14906278;0.089860335;0.04657776;0.022137089;0.054189954;0.29420856;0.023837524;-0.008227198;-0.0675155;0.03497095;0.014357478;-0.039206788;-0.03296948;-0.09809061;0.0074405605;0.04462816;-0.043645397;-0.025966264;-0.10406562;0.11668797;-0.1275665;-0.01126983;0.11237746;0.04267028;-0.23841457;-0.0053004944;-0.002619027;-0.050720707;0.022145925;0.07817149;-0.06888218;-0.030743886;-0.043566186;-0.107679255;0.12757806;0.06705924;-0.0924175;0.03999727;0.024074914;0.049482733;0.05360512;0.10671709;0.07143123;0.18682405;-0.017798161;-0.010953122;0.047960594;-0.07910245;0.20985347;0.06777306;-0.0857027;0.022766992;0.018880695;0.014831341;0.038574304;-0.06321706;0.024448875;-0.059673596;0.012305235;-0.033022404;-0.094250016;-0.009845099;-0.0080976505;-0.0284024;-0.10601277;0.056470573;0.05924925;0.06515015;-0.0077553256;0.05419469;0.065497555;0.12770173;-0.026413705;0.0062963576;-0.05292267;0.02705181;-0.12785369;-0.046912573;-0.043768983;-0.04472991;-0.0070619555;0.14211011;0.053899676;0.079122886;-0.05800157;-0.12734622;0.07565826;0.0609969;0.011251678;0.03163036;0.025347918;-0.16054353;0.037615437;-0.085280426;0.053937364;-0.038869906;-0.07397696;0.0058076847;-0.05909871;-0.2631374;-0.037988327;-0.036035564;0.18286254;0.05553233;-0.020629967;-0.33750147;0.016117958;-0.02759457;0.08723506;0.007333994;0.095906354;0.07412254;0.17226373;-0.12088611;-0.06004886;-0.16190916;0.0042122174;-0.02940024;-0.097815864;-0.031120166;-0.02114522;0.033661183;0.05816478;0.13859393;0.104746796;0.09600021;-0.19475636;-0.033757605;0.035154738;0.056327425;-0.06898846;0.05920194;0.044129133;-0.03361875;0.0053124516;0.23603584;-0.007209818;0.014941226;-0.011935396;-0.005736514;0.038822744;-0.0755445;-0.066791944;0.21478657;-0.06505187;-0.068880916;0.0024126275;0.095622875;0.20081772;-0.026973566;-0.019043157;-0.019856665;0.036097288;0.12371456;-0.15153125;-0.097982295;-0.009116963;-0.18223959;-0.010019578;-0.06552208;0.050782897;-0.023973016;0.0037000622;-0.000107016065;-0.06091633;-0.0007136461;-0.028840339;-0.001574792;0.015303856;-0.09443425;0.006112785;-0.011613794;-0.0011157384;-0.034927987;-0.15987527;-0.085666284;0.15581349;-0.25827965;-0.25013632;-0.28539145;0.001499413;0.0071985787;0.08910396;-0.011592104;0.20586729;-0.09358139;0.3314833;0.101344876;-0.060642477;-0.053665493;0.033093862;-0.035668064;0.06951368;-0.023298355;0.042717416;-0.022900505;-0.027293168;0.058940195;0.20140208;-0.014564341;-0.005271717;-0.03194098;-0.14427234;0.06455007;-0.113205135;-0.0092382245;-0.109620936;-0.029399578;0.0070899017;-0.020336391;-0.097013466;-0.0606938;0.02534128;0.08612406;0.055699363;0.15191936;-0.15729523;-0.028817493;0.08909647;-0.08371607;-0.17985196;-0.04940713;0.009929;-0.0493407;-0.10406342;-0.24561651;-0.08244619;-0.07394584;0.075950176;0.06012993;-0.1967023;0.083811596;-0.10238082;0.030795882;-0.12305714;-0.08882602;0.04732726;-0.07302193;0.060392372;-0.08030837;-0.018058619;-0.075334705;0.07893145;-0.046557765;0.020796424;0.024166035;-0.057993792;0.01590338;0.0058535733;0.06644046;-0.16279183;0.00766138;0.048797354;0.0049729063;-0.15364079;-0.022842476;0.008860062;-0.11250566;0.008718069;-0.07177626;0.09285023;0.020023676;-0.07510464;0.1410111;0.01488889;-0.06067992;0.017836804;0.15891556;0.058989584;0.052874975;0.022191072;-0.10060449;-0.1746827;-0.24892105;-0.1694492;-0.023955828;-0.034387253;0.026467135;0.0815188;0.01471018;-0.15038256;0.009410886;-0.09001251;0.076826796;0.034719475;-0.0057030376;0.21451972;-0.06408463;-0.035889905;0.023494298;0.042004507;-0.07439219;-0.03436877;0.020368986;-0.00051310804;-0.039032195;0.089451745;0.054089278;-0.022271184;-0.09321323;-0.047597762;0.026200922;0.07309766;-0.062443335;0.2432813;-0.13075827;0.04316719;-0.07362792;0.019399319;-0.046731662;0.06506669;-0.065521955;-0.07965056;-0.058007356;-0.034570742;-0.077820525;-0.13311611;-0.085632294;-0.13415878;0.03524808;-0.072686024;-0.04250444;0.014030861;-0.08818946;0.022655169;-0.07528122;0.04929586;0.16176672;-0.009052586;-0.05137655;-0.06527295;-0.10066908;0.002653911;0.03796658;0.25660843;0.03831079;-0.013415777;0.0035371664;-0.14655375;0.05012789;0.0009203768;0.06201101;-0.017360242;0.11730535;0.23773459;-0.09834991;0.019673113;-0.048735756
0.01756403;-0.022067968;-0.097653694;-0.0792493;-0.036887478;0.040854875;-0.2724007;0.063660994;0.096070416;0.003096478;0.025288785;0.10353672;0.06071739;-0.015379479;-0.09058133;-0.057259925;0.06832737;-0.06346428;0.06834175;-0.07757607;0.055402048;0.012223707;-0.0109496415;-0.043013994;0.0013692629;0.15090692;-0.06318329;0.024250131;-0.018245194;0.11195125;0.066688694;-0.03035969;-0.0029814623;-0.15410616;0.010467547;0.053199045;0.03528967;0.16601747;-0.102314726;0.043722853;-0.009907961;-0.16314632;0.09261961;0.02729379;-0.21449935;-0.056166697;-0.018616965;0.042997744;0.05903858;-0.07775251;0.09434184;-0.08360947;-0.03770357;-0.031900823;0.25040725;0.07558102;0.036299292;0.054929927;-0.018251346;-0.03537265;-0.14968324;-0.07281544;-0.024397556;-0.01818939;-0.027871901;-0.0019294986;0.0014397705;0.019292558;-0.08636203;-0.053381316;-0.11223157;0.05209901;-0.06926849;-0.011154933;0.16461848;-0.017588947;-0.018733133;0.27798522;6.404539e-05;-0.092919424;0.0545093;0.0350057;0.043907896;0.074418046;-0.077246584;-0.04624769;-0.102374546;0.035388008;0.009281767;0.062278144;-0.09035625;-0.071865894;-0.10391123;-0.03150884;0.06753703;0.029303063;-0.13913713;0.09935293;0.041273743;-0.095426135;0.019212104;0.14385472;0.039481517;-0.08255899;-0.04496766;-0.1487443;-0.063312836;-0.026571492;-0.011320282;0.045025;0.11448777;-0.09343779;0.012676871;0.15812983;0.02108154;-0.07855395;-0.15789753;0.12060841;-0.07869202;0.3018652;0.18303657;-0.011641119;0.060273685;0.03264493;0.033982545;0.0146445455;0.045505796;-0.036664043;-0.07224045;-0.024403643;0.07964312;-0.073180504;0.10573857;-0.033800106;-0.19413866;0.048528858;0.033587303;0.023453975;-0.09705506;-0.052488934;-0.16966356;0.013319168;-0.012307555;-0.017714854;0.030435191;0.04937456;0.21485762;0.06742793;-0.033276744;0.015231701;0.048693765;-0.09937654;-0.036619343;0.12655613;-0.044374153;-0.03041905;0.05946143;-0.0012045979;-0.047962714;-0.016543517;0.024520854;0.0663002;-0.0014957646;-0.05416012;-0.04586963;-0.050735783;-0.11193232;0.022392672;-0.14116125;0.029893316;-0.056489866;0.0411972;-0.05312841;0.052025545;0.061291408;-0.044575322;-0.067320034;-0.06665458;0.08348162;-0.060134;0.01904238;-0.07306536;-0.060625084;0.013353949;-0.11295945;-0.005983487;0.010823348;0.10508049;0.06857122;-0.054085944;-0.073842354;-0.100400195;-0.06432791;-0.007908461;0.02743978;0.009953012;-0.018283112;-0.040949382;0.039866555;-0.066602275;0.013620505;-0.09446283;-0.060467422;-0.010120018;0.045735825;0.024369162;0.019397203;-0.08552028;-0.08180894;0.014016474;0.036439817;-0.034390636;0.043713227;-0.0035617303;-0.1321565;-0.032866143;-0.051442843;0.004685216;0.061589412;0.0049742684;-0.019510493;-0.017806752;0.049471173;-0.064605094;-0.061711766;0.038230926;0.23286821;0.1513498;-0.0015758956;-0.032965433;-0.12766953;0.023920773;-0.053112;0.036335617;-0.01721697;0.020773936;0.020251263;0.0608954;0.008335426;0.015023691;-0.0056251646;0.0032457595;0.08726406;0.1819943;0.056878973;0.007669606;-0.05072659;0.109302;-0.11766374;0.04774267;-0.06457316;-0.0049621942;-0.24500635;-0.10238466;0.059885725;-0.051410306;0.14538586;-0.0629108;-0.012936581;-0.005415937;-0.011460579;-0.008012352;0.025985206;-0.07066604;-0.06630281;0.051359795;-0.07290542;0.06615438;-0.053172275;-0.006000346;0.20513904;0.10560682;-0.031377178;-0.036955822;-0.050322287;-0.0055674603;0.06090445;-0.0308784;0.017152391;-0.025983188;0.080126286;-0.022136144;-0.017876985;-0.0027109503;0.019682556;-0.018402582;-0.07626351;0.03910045;-0.05883159;0.027539078;-0.085391305;-0.048502527;-0.027906455;0.08841936;-0.021382082;0.015329131;0.20376009;0.106527485;-0.05934854;-0.05634537;-0.081795394;-0.047733136;-0.07104375;-0.0853935;-0.05152573;-0.042687926;0.04082202;-0.025422985;-0.10040453;-0.0014879161;-0.07655918;0.038926795;-0.051547077;-0.141788;-0.026723117;0.05199461;0.1421769;0.09499399;-0.019027453;-0.19722298;-0.023275988;-0.058223523;-0.07843044;-0.04528405;0.05691647;-0.08952948;0.027881589;-0.059947677;0.03479521;0.03535773;-0.040199757;-0.020583987;-0.045544375;-0.13060428;-0.30677012;-0.024699615;-0.03545706;0.08003535;0.09506737;0.04146373;0.122383885;-0.01368954;0.04364048;-0.03641711;-0.0070225913;-0.102354184;-0.08827562;0.02820182;-0.030031882;-0.0025109637;-0.049195144;0.11498628;0.088945605;0.1092123;-0.07652193;-0.031519294;0.18191189;0.042103298;0.0710353;-0.099216685;0.030557306;-0.09141881;-0.051697474;-0.022452302;0.004766316;-0.068101406;-0.002320948;-0.036296934;0.054301668;-0.007995439;0.008455127;0.17264298;0.07517106;-0.03129179;-0.0019211179;-0.0002528944;0.08326695;0.05981086;-0.04476636;-0.036981978;0.039316963;0.02432357;0.10552022;0.00031990735;-0.025502298;-0.14121312;-0.067360945;-0.04566758;0.050101243;-0.0058772042;0.18811855;-0.031332742;0.034737978;0.013320349;0.101801075;0.07704986;-0.017268313;-0.006628849;0.054936413;-0.0040008943;-0.0030494956;-0.0974961;0.0030201045;-0.043544453;-0.0113793975;-0.20486762;-0.11488483;-0.20735125;0.075364344;0.06728134;0.08718517;0.03482721;-0.21450707;-0.046693504;0.039852947;0.079047814;-0.11126665;0.11527567;-0.05518393;-0.023551194;-0.012310008;-0.035823137;-0.03703358;-0.010785531;0.03898784;-0.09154134;-0.012697496;0.0018905225;-0.011400585;0.0037095707;-0.09645184;-0.009858792;0.041621465;0.02793727;0.11331841;-0.00756188;-0.040625118;0.006546485;-0.06106445;-0.057226814;0.036537867;-0.04198717;0.0012174917;0.18086697;0.001919254;-0.14576903;0.1263485;-0.09651342;-0.14011931;-0.08198948;-0.039439537;0.0068691904;-0.12863427;-0.19564392;-0.117130324;0.019386016;-0.07877688;0.12439527;-0.034281775;0.0067596394;-0.07181401;0.014685814;-0.21114148;-0.102763325;0.050333455;-0.07264831;-0.090523034;-0.04309039;-0.05637738;0.051975526;-0.0734676;0.011139309;0.04000088;0.058035336;-0.05690067;-0.04008769;-0.035198953;-0.030286338;-0.13372768;-0.053876605;-0.026465839;-0.021919897;0.06403671;0.0028918188;-0.08213599;0.009784907;-0.05338875;-0.049139507;0.052554533;0.009707964;-0.027949043;0.10846965;-0.07099049;0.04023072;0.04705179;0.22020327;-0.072466604;-0.06078908;0.010222123;-0.035152145;-0.05726438;0.1511015;-0.13806671;0.00029671376;0.017475737;-0.0061633205;-0.03423808;-0.0024123888;-0.01970034;-0.09970638;-0.020744395;0.04617324;0.0792917;0.026613107;-0.044095397;0.038163435;0.16718297;-0.09126508;0.10333834;-0.03126673;0.020057794;-0.05764078;-0.07457083;0.09318266;-0.026558843;0.02052343;-0.02878482;-0.0067048813;0.064184465;0.056525715;-0.030702323;-0.088395506;0.07276808;-0.010434166;0.01981458;0.020898657;-0.056616027;-0.06570406;-0.017044937;-0.1715813;-0.04312965;0.04163028;0.07357616;-0.0007074565;-0.028837612;0.017071823;-0.016003981;0.084342055;0.021311505;0.01617982;0.06930667;-0.08365594;0.023592573;0.009495615;-0.05790812;0.18064077;-0.06835532;-0.058942094;0.0037731212;0.064417414;0.037186537;0.07606938;0.18425739;0.08915999;-0.029507816;0.0058626607;-0.1007329;-0.16393512;0.012850675;-0.09605972;-0.09431467;0.030775528;0.12124526;-0.103498764;-0.009332397;0.04960046
-0.057815075;-0.018326329;-0.02381608;-0.2039071;0.06326124;-0.0026705777;0.04591786;0.078339;-0.05634332;0.1576889;0.00845944;0.06392406;0.04657974;-0.03628046;-0.03844138;-0.0155760655;-0.02334979;-0.09741735;0.02759033;-0.021340763;-0.046843328;0.041057136;-0.08184468;-0.051027782;0.019351892;-0.07017623;-0.047234148;0.03560352;0.03589774;0.16828954;-0.034892894;0.08322377;0.0021228045;-0.0017187382;-0.038500413;-0.067001544;0.2745615;0.034842663;-0.0112985;0.013834813;0.029552545;0.06307356;0.09972684;0.0012167066;-0.24095908;0.066317104;-0.08354538;0.0287083;-0.040847942;-0.010402572;0.048917346;-0.053946044;-0.031257745;-0.031336058;0.28549665;-0.049624287;0.04301363;-0.024556052;-0.075559616;0.04552414;-0.11229096;0.04577915;-0.091459334;0.016745536;-0.07491364;0.07661466;-0.047371063;7.0874186e-05;-0.16736564;-0.08025846;0.005332548;0.11450579;0.05180995;-0.17862324;0.27734596;0.02088704;-0.1013302;0.16923025;-0.09867257;0.0027382495;-0.091235414;-0.08525535;-0.0710362;0.037488025;-0.091966644;-0.034874707;-0.019406592;-0.016298784;0.0032845119;0.008245736;0.018803868;0.010861242;0.093601845;0.002771827;0.03986485;-0.074687004;0.016831951;0.09198937;-0.0724375;-0.053698417;-0.051656898;-0.07274382;-0.039314583;-0.019464938;0.04974621;0.00754156;-0.029583577;-0.016631406;-0.025562359;-0.10268483;0.059727285;0.057420604;0.0022748823;0.07251879;-0.08949043;-0.096226625;0.0354532;-0.049052466;0.043099537;0.27112478;-0.100477405;-0.040851396;-0.020627558;-0.06599675;-0.017573815;-0.031990312;0.033145815;-0.065120235;0.024510393;-0.071563736;0.08290861;0.035054415;0.036806185;-0.027382867;-0.020579908;-0.037280552;0.07561236;0.023449447;0.009477973;0.020573333;-0.31078812;-0.09971251;-0.09395663;-0.0050765257;-0.0086884685;-0.0009064458;0.11422902;0.038502198;-0.013267406;0.033466615;-0.04913296;-0.0980585;-0.09251369;0.0648258;-0.15386423;-0.079949565;0.10343395;-0.037297353;0.04268877;-0.04433215;0.02625542;-0.07817133;-0.008541172;0.024020921;-0.05448801;0.0242807;-0.1364674;-0.16056804;-0.009509147;0.044641685;0.056040656;0.097586624;0.029867291;0.030450568;-0.056316953;-0.04150815;-0.061586954;0.041366734;0.162574;0.043317735;0.13408461;0.09373079;-0.09226594;-0.070900925;0.005929967;0.009880548;-0.046809077;0.009208689;0.035810456;-0.07996777;-0.032411627;0.033133253;0.025173418;0.048022125;0.061791927;0.029922092;0.08808704;0.12025906;-0.058539033;0.08661852;-0.030138826;-0.009552873;0.03013024;0.104057044;-0.037476607;-0.06885534;0.041629244;0.05728352;-0.024326054;0.109333165;0.10040499;-0.00088219607;-0.099352896;-0.13235255;-0.032988828;-0.0018951001;0.00088598253;-0.04516081;0.028026916;-0.056400813;0.007283105;-0.04478739;0.025211934;0.08768851;0.051140532;-0.06940538;0.23686576;0.10035353;-0.024494698;0.008434645;-0.034218878;-0.09468663;0.099076204;0.0576178;-0.03784502;0.08203583;-0.044194464;0.0008986169;0.042948995;-0.0006619295;-0.08070814;0.09294445;0.118993424;0.16819312;0.017873155;0.049294606;0.048054416;0.02298069;-0.17118895;-0.02966003;0.04644918;0.027072057;-0.054068632;-0.16550384;0.030006224;-0.02154403;0.1976185;-0.03325471;0.048962355;0.094520845;0.011633947;0.039522335;-0.008032644;-0.06143422;0.100858346;0.008335176;0.03670263;0.0635835;0.02997987;-0.07585921;0.030138506;0.0252043;-0.009746731;0.009565738;0.03431894;0.012488404;-0.12211279;-0.020509357;0.089244336;0.06082416;-0.053814884;-0.04079736;0.05189687;-0.2027275;-0.021071214;0.075301915;0.033065908;0.09116665;0.036483034;-0.030336952;-0.28104398;0.1059694;-0.065762326;-0.034557153;-0.027242573;0.013564165;0.14220662;-0.15936445;-0.040077306;-0.021588556;0.010199805;-0.020069713;-0.014317469;-0.21552284;-0.11300913;0.036055833;0.06801793;0.11363288;-0.17814663;0.043349132;-0.16066079;-0.11459401;-0.0224548;0.034493536;-0.10587167;0.028976334;0.17610182;-0.22143462;-0.053601645;-0.0045406157;-0.016926812;0.05606556;-0.0051981644;-0.05406823;-0.013033629;-0.062856875;0.012301319;-0.19155358;0.018457036;-0.017262658;-0.2184702;-0.052527487;-0.007460215;-0.1744406;-0.058150694;-0.05689905;-0.01991248;0.041347742;0.069248796;-0.043480176;0.045494244;-0.042976446;0.041818023;-0.11204295;-0.09242219;-0.0067513078;0.023284335;-0.0048234845;-0.05140999;0.048629668;-0.0052300096;0.1478711;-0.051160377;0.08958577;-0.031184645;0.03516811;0.07378291;-0.028869096;0.006796987;-0.0017102562;0.07375936;-0.37373316;-0.014431956;-0.0145612145;0.047808003;0.0042598313;0.05275558;-0.102629766;0.049113274;-0.012669723;0.014838648;0.035217717;-0.020043125;-0.019492853;0.04460873;0.13082315;0.061878886;0.06943362;-0.018732453;-0.06843758;-0.025536831;0.0036517612;0.118501164;-0.03805939;-0.058430586;-0.12486341;0.046183206;0.046924725;0.032197684;-0.030313494;0.14486597;0.053267557;-0.009450807;-0.009056848;-0.031555757;-0.17181174;-0.032038216;0.1019889;-0.053791586;0.12067604;0.10707402;0.031847466;-0.034660928;-0.017763328;0.11243946;-0.15001552;-0.10655951;0.010893485;-0.035591025;0.07651175;0.07318361;-0.027849888;0.034722403;-0.02175822;0.042181533;0.07558219;-0.025478188;-0.03495926;0.00085224735;0.068388954;0.031709284;-0.104860745;0.010576111;0.044303577;0.04055285;-0.104811616;0.06433642;0.046370268;0.08254101;0.09555189;-0.008456877;0.022525717;-0.07814794;0.07837797;0.11840555;-0.013518377;0.01641242;0.10276169;-0.033316776;0.05281234;0.06149821;0.11175175;0.04153403;0.16965464;-0.062078234;0.090441085;0.036635432;0.21768099;-0.14058007;-0.09315963;0.0739431;-0.068030246;-0.0057449597;-0.10138219;-0.016060486;-0.0071111354;-0.20230038;-0.032166958;-0.06393749;0.028157344;-0.0715404;-0.08658118;-0.19347942;0.053356223;-0.047851544;-0.0138295535;-0.23194689;0.07387789;0.05706113;-0.052357193;-0.011074717;-0.20608138;0.0800539;-0.07389065;-0.047164544;0.07229847;-0.06579256;0.050093513;0.14807068;-0.0039186794;-0.13201275;0.06519681;0.087443076;0.07002513;0.024800615;0.08884027;-0.03175069;0.07361375;0.021580856;-0.13040464;-0.05433034;0.17800924;0.04972074;-0.07343837;-0.031431857;0.10737166;0.070770085;-0.0056694318;0.012590063;0.0071226726;0.009784723;0.086645365;0.056076426;-0.052682236;-0.10953761;-0.012434681;-0.04858451;0.061065786;-0.11460569;0.043317467;0.005713524;0.008559161;-0.00768493;0.041391946;-0.12168344;0.03324219;0.13713303;-0.0136041725;0.13565671;-0.1931998;-0.053658124;-0.0750721;-0.03953596;0.259732;0.03522993;0.056385897;0.04626573;-0.026725413;0.06865806;-0.055484574;0.010064663;-0.07605794;-0.09403506;0.06624752;0.034654453;0.044106092;0.05131247;-0.013648095;-0.28287637;-0.21282299;0.016179292;0.032192152;0.0013405572;-0.004853173;0.077144384;-0.0047045937;0.17085257;-0.042951796;0.028647028;-0.12882438;-0.10036841;-0.106131464;0.0807646;-0.0057154777;0.061157014;0.048866216;0.058267754;-0.039669212;0.05833585;-0.05229633;-0.109188385;-0.04551518;0.12806131;-0.042450663;-0.068136215;-0.010079051;0.092672504;-0.073768884;-0.07747682;0.012234329;-0.17069256;0.05675753;0.093455896;-0.042453248;-0.050597828;0.0840909
0.027600514;0.022122253;0.010998947;-0.06884244;-0.07232025;0.00069989386;0.07894282;-0.06514744;-0.10020734;0.06148389;-0.022007568;0.049376164;-0.022803599;-0.042392734;-0.027365088;-0.11823042;0.0551517;-0.102193475;0.04456946;-0.024304481;-0.092789814;0.01967867;-0.09554557;-0.028367478;-0.025113668;0.04029365;-0.058558784;0.000116188385;0.0862623;0.1324669;0.06091994;0.13189699;0.07322613;0.24981008;-0.10904421;-0.023404518;-0.065816335;0.16785638;0.007023668;0.04558746;0.042360812;-0.035274573;0.16996552;0.06514155;-0.16962135;0.034618635;-0.02097062;0.0061275926;-0.061184533;-0.055352148;0.028792204;-0.16195406;-0.07276847;0.12752041;0.24326928;0.019178202;-0.019418629;0.02171121;0.03165513;-0.013130409;0.08196103;-0.0027176896;-0.056961782;-0.11492419;0.014991006;0.017434275;-0.097917974;-0.09147471;-0.060401216;-0.025032219;0.0026740786;0.13283356;0.044765025;-0.030259762;0.09262244;0.054158077;0.064430475;-0.013915989;0.0044205403;-0.078514084;0.018882284;-0.0007238167;-0.12076953;-0.20344646;0.05761851;-0.0048315325;-0.093934804;0.049708612;0.056586035;0.09034379;0.04701793;0.0046144705;0.09003658;0.09777742;-0.059609197;0.06306829;-0.13008314;-0.024298277;-0.06397078;0.06358591;0.089385204;0.0150446575;-0.008159393;-0.079309486;0.01622534;0.11386609;-0.062452786;0.030525917;0.07745013;0.021643372;0.27793142;0.050531894;-0.07828535;-0.06411811;-0.13125277;0.016303992;-0.05218283;-0.03744435;0.17005493;-0.017211745;0.0049246084;0.017066605;-0.0017295282;-0.038589086;0.0188072;0.053501792;0.005888092;0.0015465809;-0.1045016;-0.071174905;0.09773081;0.07001923;-0.073502466;0.12424131;-0.01267613;-0.06781666;0.0636911;0.036122277;-0.13659997;-0.0036139034;-0.1010163;0.02146961;-0.008770696;0.021615893;0.08372086;0.16046208;0.06577509;0.012540306;-0.023099275;-0.1001117;-0.048144627;0.087774;0.036827963;-0.0036249342;-0.19499494;0.1556425;0.22030748;0.102219954;0.10780545;0.05183077;-0.03801017;-0.052447964;0.025522212;-0.03483963;0.032917373;0.009852844;0.021618107;-0.09342555;0.16317928;-0.06923722;-0.056174573;0.22568329;0.06294344;0.0066010733;-0.056713477;-0.027067816;-0.03970321;0.052261416;0.074029505;0.09499318;0.09917901;-0.057563793;-0.089249365;-0.015447943;0.031934172;-0.07579403;-0.03936866;0.1878326;0.077160634;-0.070832655;-0.09983404;-0.08388915;-0.08248629;-0.0023599418;0.042385343;-0.024306878;0.16174068;0.07803272;-0.018998543;0.013183598;0.0664765;0.1291546;0.066895545;0.122603156;0.04987894;0.041250024;-0.001754672;-0.11192883;0.07091773;-0.035816707;-0.025528505;-0.012842911;-0.062254425;-0.026871147;-0.036417663;0.08950202;0.06360586;-0.05438963;0.03831735;-0.08706814;0.01231674;0.00046858686;-0.0943081;0.0672289;-0.008877952;-0.11639299;0.1461455;0.027077887;-0.15579358;0.14615005;0.0346776;0.015750166;-0.0014039535;-0.084482;-0.047120154;-0.018671932;0.05396907;-0.061041705;-0.09323154;0.009801651;0.0147707565;0.0810705;0.10602329;0.09873948;0.007396921;0.0044411165;-0.037154984;-0.061873533;-0.1815649;-0.045388877;-0.009804495;0.029887736;-0.17820035;0.061524797;0.1521325;0.002194717;0.14260702;0.02397279;0.042819988;0.035855528;-0.06317988;0.02753646;-0.056651942;-0.0026203992;-0.0035448284;0.04914807;-0.023565978;-0.084225245;0.011357209;-0.06596885;0.025601389;0.16379151;0.038260136;-0.054461252;0.07625959;0.082046345;0.009886254;0.0954451;-0.15541768;-0.08330702;0.10926987;-0.03247958;-0.0699819;-0.12119553;-0.014730363;-0.077335365;-0.058332853;-0.031482816;-0.04573995;-0.053149246;-0.15059568;0.063203484;0.047383077;-0.011278848;-0.013131243;-0.026338818;-0.022220468;-0.066507615;-0.036363594;0.07643836;-0.09742586;0.029480364;0.010343706;0.026691105;-0.026576534;-0.023735834;-0.05987398;-0.055818092;0.0926752;-0.029135058;-0.0738435;-0.15536255;-0.071532875;0.030318435;0.12332705;-0.09638851;0.05912162;-0.024914661;-0.04567305;-0.056550678;-0.07900155;-0.046237096;-0.06664632;-0.0118257245;0.015866369;0.044095393;-0.032769285;-0.089303926;-0.026845623;-0.010964611;-0.039401107;-0.11823102;0.037922017;0.055204418;0.09335878;0.008080617;0.07184314;-0.07024787;0.1176044;-0.11237254;0.0019554468;-0.08555006;0.011194999;-0.17644371;0.047454305;0.0972604;0.0742663;0.04892295;-0.039438415;0.009839645;-0.0008874173;-0.008299868;0.019741947;-0.061979827;-0.121857636;0.041924044;0.086745635;0.0012011456;0.032079678;0.09204313;0.14285284;-0.25728077;-0.03297134;0.19247757;0.06439473;-0.0058480357;0.022158474;0.001636059;-0.014901358;-0.033893883;-0.020451535;-0.010272342;-0.06661356;-0.03475431;0.08380951;0.1609429;-0.08283308;-0.072624095;-0.0556483;-0.017478483;0.034028236;0.03526217;0.056856945;0.049658153;-0.04482271;-0.008555277;-0.044066034;-0.0031656479;0.010379291;0.053370576;-0.037411567;0.005798854;0.03308463;-0.04855126;0.0070585925;-0.091084465;-0.001261349;0.0030307397;-0.027173351;0.04003079;-0.064239725;-0.055505328;-0.03730817;-0.13464555;0.087023675;-0.26760963;-0.1193809;0.03449124;0.015592184;0.0023857607;0.08089425;-0.0019334627;0.1394456;-0.091727234;0.17086859;0.050279256;-0.04678065;-0.07038329;0.013299769;-0.117986;0.054214653;-0.14224197;0.027733903;0.036409076;-0.017914226;-0.0003927531;0.20677298;0.027220966;0.07550718;-0.038355872;0.0030833082;0.03935064;0.020254934;-0.07196598;-0.07552288;0.08243959;-0.07061169;0.04184832;-0.007292724;-0.049241688;0.12923783;0.100769386;0.050074127;0.12692192;-0.17647447;-0.030789513;-0.24814811;0.17804411;-0.029085638;0.013633782;0.016220687;0.014443456;0.029075941;-0.15515663;-0.14662237;0.067044064;-0.11192771;0.00092387653;0.053122588;-0.05008128;0.07463374;-0.07783255;-0.1612848;-0.013188656;-0.03586903;0.038581267;-0.12622465;-0.11073025;0.05818305;0.080098785;0.06259235;-0.0768293;-0.051283054;-0.036778904;0.012687898;0.00067512516;0.002993401;0.09890219;0.13832082;-0.066980295;-0.098162726;-0.062141985;0.037673663;-0.028837826;-0.030794617;0.006394958;-0.03295678;0.03211035;0.055313047;-0.13892493;-0.104373015;0.0797051;-0.009823028;-0.034352068;-0.09190418;0.24124481;-0.031931538;0.029288987;-0.06665877;-0.029698841;-0.056641195;-0.051417712;0.22153111;0.042645957;0.027249984;0.08034216;0.012545672;0.025681231;-0.024410874;-0.011082381;0.0074097756;0.013158424;0.008198076;-0.063678786;-0.04305707;-0.01854536;0.037143797;0.048077326;-0.06533133;0.061456665;0.033042222;-0.030687805;-0.0039770133;0.01947267;-0.07786423;-0.02135161;0.08052819;0.0482355;0.060666505;-0.05257447;0.054622836;0.042583268;-0.081204705;0.050862595;-0.031795193;0.03232824;-0.017238459;0.08687454;-0.033025894;-0.15438466;-0.05133073;-0.06397803;-0.048064545;-0.024968449;0.0045274305;-0.0449541;-0.04517399;-0.06551235;0.00426289;0.025145601;-0.08784976;0.07040368;0.07110919;-0.050700452;0.06223546;-0.12253572;0.06746379;0.074313544;0.17425483;-0.030085912;-0.01052942;0.03231503;0.1765237;-0.06284129;-0.002426563;0.046488747;0.10486891;0.11458596;-0.047894254;-0.08563472;-0.15700237;0.12307013;0.19502087;-0.0051097716;0.028907996;0.058471482
-0.08414622;-0.008143897;-0.058706395;0.056555927;-0.061801523;-0.013872707;-0.033683993;0.053611107;0.018698936;0.024501715;0.06202031;0.17102945;0.005237581;0.032308143;0.015720654;0.037566658;0.09914846;-0.08801188;-0.057311434;0.022542235;0.039998535;-0.0035074283;-0.1386309;-0.057580676;-0.046139542;0.07665778;-0.021030176;-0.00034976494;-0.022653634;0.11770558;-0.0054463716;0.007562274;-0.0575236;-0.04165904;-0.03707542;-0.0713245;-0.2202294;0.030749705;0.0664417;-0.07283468;-0.05129275;-0.03464186;0.15362914;0.0004207073;-0.097440116;-0.041033786;0.050705172;0.045696035;-0.025173387;0.12125067;0.23562907;0.023230396;-0.026192516;-0.05690614;0.1475989;-0.07719976;-0.015894681;0.05076396;0.07122462;0.012147552;0.068571866;0.01807962;-0.085962884;-0.016822353;0.0053186216;0.068922624;0.0015221367;-0.02543203;-0.038069654;-0.031854674;0.023329964;0.2667112;0.01640173;-0.041344177;-0.018195027;0.04104055;0.060313534;0.22084923;0.012738354;0.0031290469;0.017803906;0.056571808;-0.010563877;-0.082713515;0.08495321;0.1414175;-0.13716057;0.00019435037;-0.01199788;0.06017322;-0.08464368;-0.045574542;-0.019524194;0.16213371;0.044930648;-0.04916683;-0.07785034;-0.074579746;0.07129376;0.039418887;0.002390274;-0.037648357;0.013475491;0.047054697;0.03215675;0.21499224;-0.0024861454;-0.012610355;0.02526563;0.0067466116;0.25837424;0.039235815;0.0011536881;-0.132163;-0.02023237;0.019326579;-0.14225824;0.09516408;0.14905496;0.10549773;0.080591284;0.046194453;0.038430728;-0.06973204;-0.12518919;-0.100113586;0.00097399275;-0.003517307;0.05643394;0.015529775;0.11511934;0.01021709;0.010600104;0.050470036;0.009631609;0.06698824;-0.038458608;0.048702445;-0.022593383;-0.038930226;-0.17553803;-0.10269523;0.033782817;-0.051915202;0.06626989;0.21517067;0.025209628;0.006307453;0.027135974;0.013425972;-0.0010315526;0.014539678;-0.032965895;0.17859058;-0.118123986;0.1766428;0.27496266;0.07046863;-0.007589387;0.066481136;-0.012815089;-0.038142044;-0.007098363;-0.0044820723;0.05704525;0.012465609;0.031843163;-0.11652898;0.2609082;-0.08063097;0.01830812;0.18658212;-0.07956157;-0.060938448;0.10795177;0.06872767;0.060732175;0.06620213;0.13979328;0.021042554;0.057818465;0.0030934813;-0.036558304;-0.049050603;0.039189357;0.05962158;-0.035195347;0.089519195;0.017654857;0.040740006;-0.009991769;0.04871405;0.08196684;0.039592236;0.06458159;-0.05599187;0.07776818;-0.063460775;-0.022876902;-0.047770794;0.053338114;-0.12397937;0.052403986;0.068583906;0.08559728;0.007442137;0.013874414;-0.060534038;0.020821312;0.004780636;0.021953499;0.02541999;0.030850602;0.16815685;-0.03618711;0.2167332;0.06663559;-0.0095227705;-0.08644286;-0.070377946;0.0030078467;0.02921373;-0.052369993;0.014083124;0.015077029;0.027325796;0.05025428;0.03230413;-0.19895534;0.023686867;0.06518294;-0.03770884;-0.069237225;-0.10676672;-0.06695338;-0.06464798;0.025803905;0.01766891;-0.10877956;-0.046560034;-0.06487578;-0.060452547;-0.046218917;0.055102844;-0.037875164;0.07608997;0.04084427;-0.12714654;-0.22404604;-0.009366216;0.011800286;0.024452543;-0.16392338;0.035264123;-0.076272674;-0.025922708;0.04074437;-0.06206159;0.042826544;-0.080773205;0.05977632;0.042214714;-0.09271081;-0.0572285;0.118696235;-0.10221877;-0.050298538;-0.014679994;-0.057716805;9.818174e-05;0.006755702;-0.14506476;-0.03787246;-0.008522914;-0.09073284;0.029639479;-0.0056926883;0.07834955;-0.051561024;-0.07646739;0.21172565;0.05629199;-0.04576194;-0.06274687;-0.07620492;0.068146646;0.006360606;-0.0200557;0.08622006;-0.04388689;-0.05741041;-0.040800206;-0.034064744;0.053931214;-0.11183319;-0.014790453;0.045374516;-0.1063165;0.08835805;-0.033529535;0.018729469;0.12479565;-0.04483758;0.07080528;-0.071848996;-0.055344693;0.039125632;-0.07479123;-0.12764698;-0.06279144;-0.10114239;-0.119788;0.0028872928;0.11914423;-0.015249934;0.019562026;0.08460911;0.02032525;0.06061706;-0.35157406;0.017402567;0.07614848;-0.01202871;0.049168807;-0.02877012;0.041390978;-0.00071119017;-0.05877855;0.034682084;-0.07974402;0.051833212;-0.06083632;-0.047056958;-0.13727152;0.09732281;-0.033936862;0.005757076;-0.078577206;0.024017764;-0.06568375;-0.014544336;0.01632427;0.044067334;-0.0751075;-0.06974651;0.03808669;0.059153844;-0.01651667;0.043827318;-0.04613167;-0.09316859;0.009251456;-0.17700194;-0.027632836;-0.0055046426;0.008829575;0.14198259;0.006812082;-0.050182562;-0.021143362;0.024417441;-0.08844363;0.08608969;0.06394776;0.06845538;-0.03729291;0.07893082;0.017071227;-0.0028866776;-0.031658754;0.056098845;-0.07254823;0.060312685;-0.02785515;0.04737012;-0.020351503;-0.034637228;0.0593411;-0.074337974;0.07291402;-0.010973492;0.009374602;0.12311164;-0.07350199;-7.275853e-05;-0.052213363;0.0638743;-0.058736317;-0.086125486;0.044059277;0.13007441;0.08951723;0.043696053;0.043747924;0.06634609;-0.007524794;-0.06319514;-0.05101585;0.0031084558;0.12736334;-0.09069054;0.009098157;-0.055102006;-0.009433549;0.13053796;-0.45142528;-0.028206872;-0.22089621;0.036551565;0.1055562;-0.020729855;0.022306351;0.25995466;0.059222467;-0.081084184;-0.021127786;0.04266193;-0.08099211;0.010589917;-0.035070334;0.069467254;-0.0958988;0.034813862;-0.026893256;0.04101965;-0.015186651;0.097413845;0.07347703;0.026582638;0.07723607;-0.037094764;0.06972548;0.24392393;0.043688834;-0.01997674;0.08197036;-0.038618032;0.08686501;0.08763314;-0.05490961;0.16849357;-0.049959656;0.024054768;0.051726054;0.068304755;-0.026818534;-0.2294649;0.16191033;0.121921994;0.072372556;-0.08232246;0.010792255;0.017842932;-0.26997545;0.009127382;-0.013059489;-0.12822616;-0.1469471;-0.004322766;0.095158845;0.034558915;-0.0034469853;-0.16140696;0.026371287;0.01845176;-0.0065177493;-0.09017699;-0.053526673;-0.069755636;-0.04943054;0.055150814;-0.2339025;0.10145044;-0.0043816124;-0.02288699;0.09933969;-0.04132202;-0.008046922;0.0065098032;0.06993597;-0.008137305;0.009392691;0.0075006387;0.115948446;0.09253271;-0.050457392;0.075965114;0.10495071;0.05947924;0.018493628;-0.0458322;0.053915955;-0.034416676;0.03202436;0.009830551;0.03510908;0.03950163;0.07163603;0.02583986;-0.013563613;-0.015593157;0.01774565;0.2514463;-0.014802018;-0.08114044;-0.02730441;-0.025277898;0.056522947;0.1636624;-0.07095901;-0.017373322;-0.047801677;0.02307505;0.104855545;-0.024773834;-0.023982884;0.02068903;-0.08411879;-0.106798634;0.06376326;-0.040768255;-0.06387252;0.06596989;0.076217376;-0.0001434547;-0.009534253;-0.045058068;-0.008081772;-0.053235397;0.007547486;-0.09064387;-0.013771314;-0.19621985;0.09816085;0.07368111;0.057936624;-0.056197397;-0.015242455;-0.09596399;-0.0940581;-0.04823088;0.02219932;-0.05048622;-0.06369043;0.07857312;0.011367342;0.25640157;-0.052567627;-0.033652063;0.0073130173;-0.058029298;0.09232524;0.08064364;0.06240753;-0.061790448;-0.099952996;-0.035304464;-0.040992416;0.13336705;-0.10535718;0.0057045324;-0.021064304;0.06471043;-0.08920271;-0.036648568;-0.058420558;-0.031712826;0.02652455;-0.025960684;0.029668009;-0.15673105;0.052695822;0.046457764;0.036741305;0.06994947;0.038681705
0.009560132;-0.007857021;0.016218636;-0.030418504;0.08614277;0.050488863;0.32888082;-0.09287828;0.073389605;0.0586287;0.07793327;0.07534752;0.108015895;0.04422887;0.058508918;-0.072720096;-0.064396285;-0.13073066;-0.032052565;-0.009054415;0.07037461;0.027854169;-0.08394911;-0.05431235;0.070866175;-0.023399727;0.04270821;0.047302257;0.18529725;0.158875;0.13777193;-0.013026293;0.059354197;0.17465875;0.042273715;-0.07611426;0.034517854;-0.033019494;0.0196127;-0.028818397;0.018397223;0.018736761;0.21282062;0.045290437;-0.1473959;-0.0055010375;-0.030594854;-0.023283849;-0.08425542;0.00027686608;-0.2306265;-0.14344785;-0.0171856;0.121010706;-0.0038848163;0.0018372624;-0.059043016;-0.023997743;0.035678253;-0.031457245;0.12489667;0.082164355;-0.039262697;0.037885614;0.0969813;0.046560884;0.07216215;-0.12026179;0.03816043;-0.05086796;0.016199678;-0.13849811;0.053013787;0.10389016;0.068290114;0.048680775;0.005369675;0.0073863035;0.020054318;-0.025623698;-0.06946049;-0.033298314;0.17874299;-0.27063736;0.07611781;-0.03910919;0.10831768;-0.0275371;-0.075633965;-0.0679767;-0.053062085;-0.011335271;0.017796803;0.02157431;-0.1067185;-0.03510003;-0.07198295;-0.044022087;-0.03181659;-0.04908862;0.04060797;0.12064916;0.04698656;0.101329066;0.038465403;0.029266717;0.06370281;0.114167556;0.08385621;0.026193444;0.12526286;-0.007453696;0.05307255;0.07879846;0.04745963;-0.027654676;-0.1655509;-0.12115958;0.13752864;0.23344639;0.106092736;-0.042712633;-0.026500767;0.08192612;0.025522746;-0.009775268;0.09245637;0.025085175;0.064867094;0.012755561;0.10435518;0.07546937;-0.07238371;0.22154169;0.18609984;0.031783756;-0.047504712;0.014573297;-0.14062762;-0.06582144;0.010990333;-0.020979384;-0.023079984;0.08592929;0.09457128;0.0986597;-0.13746752;-0.051284827;0.06624886;-0.06206977;0.07510685;0.047618832;0.011680102;0.077923544;-0.03275365;0.18514685;0.29438302;0.1513051;-8.7871565e-05;-0.05077244;0.08380522;-0.07128388;-0.12814035;-0.039270457;0.037683595;0.034243;0.09720346;0.01638289;0.22650544;-0.03621165;-0.019299706;0.11125401;-0.053301845;-0.015148399;-0.012801226;0.013376078;0.0002046748;-0.020475026;-0.04788861;0.058066834;0.0039419816;-0.035813432;0.113374926;-0.010154096;-0.046234716;-0.0008326396;-0.012634429;0.085456386;0.028024463;-0.062779665;-0.1428761;-0.005147342;0.018166551;0.040176295;0.05890058;-0.032636985;0.008585442;-0.08525227;-0.00781074;-0.07549813;-0.023262287;0.07043344;0.0024674856;-0.107367374;-0.0037287301;0.044950046;0.16296186;-0.03488533;-0.017737037;-0.052464023;-0.06692529;0.034049887;-0.012736146;-0.13931966;0.047001556;0.21886991;-0.028794061;0.09849201;-0.013889558;-0.011278544;0.07974683;0.06543114;-0.002047733;-0.10974765;-0.06618772;0.0076753823;0.29271862;-0.062475633;-0.22158505;0.15915443;-0.067169376;-0.16578692;0.04282211;-0.121863015;0.016688067;-0.085130036;0.05140154;-0.07589297;-0.058099;0.011319253;-0.04451292;0.14913686;0.07015718;0.13600187;-0.111230664;-0.033191867;0.07767637;-0.07447241;0.007724578;-0.03495702;-0.07602972;0.01730152;-0.031678364;-0.0069740787;-0.04519489;0.090601064;-0.048132125;-0.010605347;0.01864527;0.06120641;0.057486054;-0.03701276;-0.026057607;0.015445544;-0.015566804;-0.07168962;-0.0017098064;0.059257668;-0.044319164;-0.013793208;-0.124780715;-0.110371;-0.047002364;0.04374864;-0.04983799;-0.04896292;0.26812512;0.07289412;0.035366982;0.01690501;-0.0028514967;0.033212412;-0.009887819;-0.027415574;-0.017365417;-0.1385409;0.10895748;0.06562567;-0.06395774;-0.1211528;0.053921815;-0.05843627;-0.051140875;0.0185007;-0.008307174;-0.016690833;-0.08658956;-0.09502473;0.025984945;0.07138803;0.0062438273;0.12555453;0.07547211;-0.10498998;-0.08928146;0.044217467;-0.08634411;0.018169886;0.00436826;-0.082670756;0.003278118;-0.0603828;0.05061233;0.098421015;0.078463;0.030435525;-0.060729507;-0.22367585;0.057181176;0.0044098035;0.06367547;0.09073489;0.05284844;-0.08147692;-0.08414974;0.06951969;-0.015973119;-0.09464244;-0.015617537;-0.010435511;0.10187873;0.04263111;-0.030473817;0.07115269;0.21904474;0.10564434;0.05079432;-0.023524936;0.04367521;0.054783072;0.022663353;-0.11346831;0.055411503;-0.06447771;-0.04095216;0.065127805;-0.039251562;-0.060260765;-0.052801654;-0.06286883;-0.0008993678;-0.047599573;-0.01872387;-0.06117502;-0.105141856;0.0375893;0.11122552;-0.09338038;0.083438575;-0.049011026;-0.050669964;-0.1678801;0.07047065;0.08800539;0.0510949;-0.06700419;-0.047315076;0.08718735;-0.07441456;-0.031093167;0.10182765;0.011315153;0.0034762016;0.0032467812;0.016312325;0.18402787;-0.14330094;-0.0006216154;0.00774151;0.04279918;0.03650909;0.09608564;0.15593168;-0.06429529;0.08537857;-0.02256114;-0.027514461;0.059927057;0.026076226;0.06725941;0.063321225;-0.0420282;0.0041948776;0.048681706;0.006118531;-0.08558348;-0.009293556;0.06547939;-0.0033162206;0.053237267;0.060330357;0.027721897;0.041519605;-0.1309686;-0.0137127265;-0.15284814;-0.014306316;-0.011683209;-0.08108024;-0.008194112;-0.0015877238;0.06415979;0.123011746;-0.025330316;0.057333563;-0.02800078;0.009628404;-0.07115831;0.071989805;-0.1343411;0.028046336;-0.18607686;0.08865566;-0.12069572;0.06977663;-0.12949325;0.17299472;-0.04705877;0.0003525778;-0.068243004;0.07306834;0.054556273;0.17608845;-0.09040448;-0.07092585;0.050756395;0.08421919;0.07210267;-0.0243147;0.026965344;0.021861058;0.0013742343;0.053440373;0.15037306;-0.12987158;0.06787851;-0.057410546;0.31771028;0.068733335;-0.010516996;-0.08251528;-0.03112996;-0.019618753;0.0045527155;-0.14379032;-0.010997654;0.063124456;-0.032109477;0.005406226;0.0005165038;0.11319421;-0.026393287;-0.007878791;0.10162098;-0.101050675;-0.0055853827;-0.091260724;-0.097700134;0.08465365;-0.022142323;-0.04005734;-0.0012301614;0.058747612;0.01968938;0.040924106;0.09033583;0.027974583;-0.04152701;0.059432633;0.055215515;0.021867458;0.02145528;-0.18520777;0.04052201;-0.022842837;-0.13909237;-0.015276748;0.027276998;0.020696798;0.039865427;-0.11739139;0.082988515;0.022556342;-0.00070637336;-0.00016007356;0.13602644;0.08534954;0.056540973;0.060733024;0.0053604855;-0.014846459;-0.087469906;0.28078848;0.05921426;0.051420916;-0.03523589;0.04943745;-0.0155654;-0.12933274;0.0077398685;0.042181607;0.0033341474;-0.0030752888;0.116056055;-0.09093446;0.05470835;0.01994479;0.016143603;0.017743375;0.059312895;-0.03155889;0.03755749;0.061725922;0.12058536;-0.07343121;-0.0066422126;0.0032632747;-0.08831213;-0.0469747;0.010780026;0.09422992;0.035816785;0.057665948;0.041486416;0.043322876;-0.049998112;-0.08414452;0.047930874;0.053066324;0.061167635;-0.0050169616;0.013159299;-0.10496593;0.05564906;0.12384584;-0.07271282;-0.04977427;0.019492606;-0.028198974;-0.041050173;0.12416424;0.00063009345;-0.034506842;-0.010357092;0.06279378;-0.09992355;-0.020798896;-0.085420646;-0.006117311;-0.18804781;-0.011265416;-0.053054243;0.113957524;-0.10855916;0.0057162424;0.0703424;0.05058265;0.0009029849;0.014968197;0.0047783274;0.0821483;0.021383567;0.15767214;-0.028855069;0.010539014;-0.01648103
-0.04559735;-0.09819761;0.004522368;-0.04620823;0.023542525;0.027134866;0.008792815;0.036853984;0.098531015;0.04018578;-0.01925176;0.10019199;0.044968143;0.013176892;-0.054900326;-0.012162502;0.18856367;-0.009973325;-0.072892554;-0.049369145;-0.0653217;-0.00068105274;-0.161258;0.018587403;-0.043876633;0.06302856;-0.058556207;-0.00071474595;0.02758459;0.1653446;0.14002766;0.0046002544;-0.005506918;0.038624346;0.0021633166;0.048660323;-0.13784237;0.09742917;0.0051909667;0.0766657;0.047439072;0.04831158;0.20447761;0.09014728;-0.0983465;0.021500336;0.009085728;0.102973886;-0.027514074;-0.19978681;-0.103520714;-0.03729073;-0.015025706;0.008559812;-0.16343226;-0.099089995;0.006236956;0.051494922;-0.020608483;-0.008238913;-0.012630426;0.04727767;-0.03379429;0.0049990774;0.013793257;0.088661574;-0.023426028;0.14084956;0.013145504;-0.05561185;0.06831359;0.033944096;0.088567615;-0.05449708;-0.0046974774;0.032238584;-0.044786938;0.053876426;-0.015929125;-0.08471799;0.009484351;0.04060817;0.12936087;-0.15505356;0.09687197;0.059604898;0.08944044;0.0819612;-0.021566689;0.02762607;-0.062350176;0.031437624;0.046521317;-0.00808723;-0.10925391;0.0119141815;0.1228611;0.060039047;-0.013095476;0.10598705;0.022443723;0.032791637;0.04709917;-0.010122026;-0.06897936;0.11469087;0.04883278;0.11437042;0.041447736;0.07039445;0.12266693;-0.04976544;-0.06925986;0.08021255;-0.03498506;0.070555955;-0.2629796;-0.07006067;0.0816407;0.05172147;0.05335715;-0.0015521211;0.093817495;0.07268239;-0.083574526;-0.01652934;0.08263772;-0.030876407;-0.024660485;0.08271517;-0.01703522;0.00702799;0.18301709;0.12683976;0.099027924;0.095686845;0.012170084;0.018590325;0.07721472;-0.064035654;0.005428874;-0.05857001;0.0034071761;0.0101012625;0.08674255;0.25955722;-0.10699023;-0.03268337;-0.002939389;-0.015672317;-0.009648692;0.103467345;-0.07166958;-0.0130100995;-0.062461797;0.2728063;0.10986048;0.07445147;0.10442748;-0.028782008;0.05290807;-0.007224707;0.048202164;-0.029133275;-0.029083094;-0.041971475;-0.03458315;-0.075766526;0.21561301;-0.049712755;-0.016819378;0.016481932;0.047344152;-0.059372485;-0.032526862;0.08122187;0.0038291872;-0.00097224873;0.12769318;0.1179914;-0.06768691;-0.0976295;0.019256158;0.0068712845;0.032291207;-0.0682934;-0.023133295;0.019102521;-0.015996482;-0.022720369;-0.31199148;0.017701587;0.010079065;0.11876998;0.05331609;-0.013062145;0.120844185;-0.18095335;0.023029394;0.041490104;0.025213528;0.102579914;0.0063938256;0.036910925;-0.000801965;0.0012109167;0.07289936;-0.024474751;0.05216455;0.10212869;-0.018382993;-0.05005115;-0.022433093;0.13767122;-0.002075286;0.2359796;0.041369807;0.060625777;-0.11078355;-0.0258711;-0.049221523;0.010386406;0.025038192;-0.052157518;-0.07976549;-0.008954589;0.21730278;-0.08475827;-0.19473198;-0.11368014;-0.037436403;-0.24749583;0.053489704;-0.22520663;-0.026195606;-0.0020233016;-0.08908275;0.008821762;0.015565836;-0.0023499718;0.05077123;0.13796377;-0.05581382;0.10901193;0.018573156;0.112161525;-0.0003297891;-0.054380875;-0.04909037;-0.013068512;-0.11331123;-0.13026544;-0.09509792;0.031336714;-0.0010766477;-0.026686892;0.13403994;0.07430146;0.09431466;-0.09130127;0.06876583;-0.0020493763;-0.032003682;0.06649652;0.0067801257;0.054399204;-0.03315182;-0.057399392;-0.064420365;0.0017777133;-0.25418362;-0.1842495;0.037516776;-8.8557834e-05;-0.01002416;0.07708135;0.09839628;-0.063847534;-0.08515754;0.005961262;0.12341052;0.04350751;-0.036778193;0.065451115;0.07163726;-0.036807615;0.0049750004;0.013827549;-0.0018555494;-0.03715298;-0.10177431;-0.052035384;0.091666326;-0.111880146;-0.11201484;0.0020204098;0.06639555;0.07320456;-0.06813062;0.060277447;-0.035153493;0.09773038;0.057846416;-0.0023804072;-0.12735823;-0.03292934;-0.06395244;0.03551338;-0.0119758025;0.042784687;-0.003412355;-0.23730181;-0.09829118;0.15126522;0.06516202;-0.012238272;0.09096625;-0.1474953;-0.033240534;-0.14788255;0.050596345;0.01629902;0.011090118;0.05336058;0.058199454;0.07531265;0.028792964;0.028134273;0.12311868;0.017274242;-0.0752594;0.0030398034;0.003720488;0.074401625;0.16973245;-0.06800668;0.028530592;-0.05759214;0.039676946;0.08466133;-0.025206385;-0.1075681;-0.045790788;-0.035747606;-0.09762145;0.03695515;0.061693177;0.02864679;-0.020232117;-0.022213563;0.099317595;-0.016836474;-0.02212213;-0.013660815;0.05544658;0.033888143;0.1030521;0.05203308;0.04464243;0.03767435;0.02000421;-0.126546;-0.068856716;0.13765405;0.0031298082;0.0212253;0.07022495;-0.063269146;-0.044443987;-0.034382127;-0.05188872;-0.21952845;-0.06798542;-0.016918676;-0.098175295;0.14994927;-0.0849541;0.07175028;0.025825936;0.040976055;-0.02052126;-0.088163555;0.15279803;-0.040279157;0.07048497;0.05642209;-0.0031954215;0.029136032;-0.021039573;0.06395713;0.19105323;0.058859963;-0.045303576;-0.049280662;0.12194394;-0.061726607;0.058945425;-0.056555767;0.057479817;0.046164863;-0.06974673;0.028593844;0.064206496;-0.12910226;-0.10697668;-0.11970977;-0.07967465;-0.11856568;-0.03742056;-0.02294706;0.085929036;0.05443614;0.06717533;-0.13298692;0.12395849;-0.047968134;-0.08015703;-0.2341192;-0.056440204;-0.19318075;-0.010006471;-0.102076955;0.04662484;-0.017877733;-0.051560946;0.023250211;0.15736187;0.054475576;-0.055127293;-0.1435018;0.03537773;0.092112765;0.14240511;0.032665506;-0.08905892;0.08900298;0.10388646;0.11187469;-0.02457749;-0.056006767;0.06512491;-0.016237693;-0.017727932;0.036736738;-0.101398006;0.15956011;-0.06833466;0.21691799;0.08512566;-0.04913769;0.053005174;-0.052479118;-0.07175421;0.007809062;-0.14720298;-0.0023190207;0.056535807;-0.013076065;0.039992113;-0.015861304;-0.037808735;-0.0825935;0.08218328;0.10622469;0.015440982;0.020879079;0.047092292;-0.0940405;0.071187735;0.10386666;0.08403579;0.1327844;0.06535307;-0.056147214;-0.072311684;0.044763785;0.0050927405;0.07978531;-0.07498319;-0.027026825;0.05497511;-0.021277688;0.020614672;0.081008576;0.052757256;-0.09298069;-0.0011788498;-0.036738295;0.04149462;-0.017984526;0.043570615;0.14080206;0.039660566;-0.027612554;0.02838914;0.20706497;0.051884957;-0.06348383;0.008905274;0.04623568;0.18000296;0.116514556;0.12856336;-0.012260597;-0.007904745;-0.013347087;-0.0004992731;0.069866054;0.11478838;-0.072620004;0.027877495;0.013282613;-0.074049294;0.065812506;-0.025174484;-0.0413758;-0.00073748856;-0.093515426;-0.08309804;0.026551763;0.0011665474;-0.06458585;-0.04745056;0.010391076;0.039272565;-0.030152617;-0.053226262;0.048093874;0.05287628;-0.06897913;0.08309556;-0.029246729;0.055017084;0.1322484;0.0589592;0.039236642;0.03458248;0.061910585;-0.0324993;0.051676326;0.06863201;-0.04900954;-0.08418288;0.07584207;0.15823276;0.023938987;-0.17103551;0.022044495;-0.039914817;0.05352303;-0.029166922;0.07275723;0.06917669;0.019156406;-0.035460636;0.074459136;0.058564562;0.0678157;-0.12514716;0.003630894;-0.11462326;-0.036630344;0.063744366;-0.09798182;0.025103362;0.026165577;-0.074383266;0.16123372;-0.014748935;-0.07188853;-0.027656976;0.035776332;0.12044693;-0.0034926939;0.027468385;-0.09365914
-0.055722855;-0.026398081;0.047568593;0.17031117;-0.09742659;0.06402494;-0.047487058;0.061593473;0.18647668;0.09595486;-0.03022746;0.07374395;0.048635844;-0.052006602;0.047548614;0.08079579;0.16800548;0.009912575;0.04027605;-0.026357923;0.04643335;0.017187126;0.021636022;0.07296517;-0.011427524;0.20691447;0.06584359;0.018149966;0.047568124;-0.019056411;0.037866827;0.14123784;0.07542566;-0.099159114;0.08594535;0.06414045;-0.12071859;0.14889008;0.011874349;0.07451331;0.022214917;-0.03569916;0.028758075;0.010708431;-0.11988652;0.042934343;-0.012575818;0.019325178;-0.06332011;0.0724055;-0.043234505;-0.037357967;0.041935775;-0.072446;0.042418316;-0.02128026;0.10552357;0.0071951277;0.054570198;-0.096654125;-0.048034344;0.059078086;-0.08208054;0.11119461;0.043872442;-0.007345518;-0.044117022;0.26116616;-0.06652428;0.012919178;0.12082125;0.18927005;-0.03489417;0.060550693;-0.1364256;-0.0676521;-0.051737666;-0.104707375;0.20694378;0.06955451;0.03455109;-0.02736608;0.12657449;0.034049217;0.07866477;0.12417345;0.10110428;-0.037058774;-0.040193852;-0.05325084;0.045262516;0.07459385;0.1068134;0.039588258;-0.08753523;-0.0041928324;0.03462726;-0.030551398;0.10616326;-0.0028640388;-0.050400347;-0.06734896;-0.044119027;-0.056424286;-0.06457066;0.05965976;0.039193697;0.08028113;-0.08244827;-0.054143324;0.10296844;0.029358568;-0.08728471;-0.12707572;0.07841859;0.015698213;-0.19319141;0.011580525;-0.013030063;0.17166285;-0.054583896;-0.051174883;0.0061076595;0.06270867;0.009027299;-0.041266106;-0.095114745;-0.0041293553;-0.091057144;0.016588949;-0.009025749;0.015692385;0.1202827;0.124957584;-0.055443045;-0.086064056;0.07232493;0.019795936;0.12041491;-0.043243136;-0.08873024;-0.085286476;0.061318927;0.03370358;0.0054157614;0.2833244;0.09367956;0.0683733;0.029587295;0.043371085;-0.012661143;-0.04837976;0.10805986;0.20112038;-0.05553989;0.18838623;0.009413033;0.10256207;-0.014617316;0.042356536;-0.0156687;-0.008199759;0.036073983;-0.04018494;-0.00826665;-0.08515309;0.048933256;-0.040197086;0.1890157;-0.07048803;-0.07494829;0.0460014;-0.01663833;0.008163548;-0.06464217;0.071510896;-0.0601515;0.01642635;0.19405195;-0.021561932;0.06458248;0.00909354;-0.03898857;-0.02743783;-0.09650385;-0.05793256;-0.07487827;-0.04503687;-0.02986898;0.11070014;-0.092857316;-0.0015928511;0.19343834;-0.057056032;0.03716318;0.038329422;0.069747835;-0.26844937;0.04696044;0.012470737;0.039001517;-0.01918677;-0.055149224;0.0071312548;0.0068935803;0.005175758;0.106195025;0.13888448;-0.080444776;0.11259917;0.091742545;-0.09871366;0.013018992;0.35483435;0.026020536;0.17480901;-0.018756501;0.054532513;-0.046908084;0.027727034;-0.0064899772;0.025064116;0.09085565;0.061608784;0.06940046;-0.056558736;0.112669945;0.036102403;-0.20830452;-0.048889894;-0.009555419;-0.24995096;-0.035901163;-0.07289008;0.032160595;-0.021519871;0.07992768;0.032520153;-0.031213908;0.0062189596;0.013395366;0.002034287;-0.1333493;0.10788995;-0.011438372;0.12287282;-0.055338223;-0.25162238;-0.10058254;0.10751277;-0.069200605;0.07113937;-0.0180448;-0.0039919075;0.011419924;0.12641571;-0.035307996;-0.06361447;0.053772368;-0.069559895;0.040689833;-0.05492435;-0.045881398;0.016997403;0.017431777;0.030610802;-0.055983145;0.03853534;0.001688574;0.047293786;-0.13953182;-0.17544894;-0.051733274;0.032436647;-0.061000403;-0.0071106716;-0.035403293;-0.028033633;0.0435655;0.053192865;0.1666686;0.098829545;-0.04524292;0.1331929;-0.06589322;0.1210356;0.0024779413;-0.03886718;0.030228833;-0.018162401;0.039485086;0.039723966;0.08894537;0.047647074;0.07424495;0.20027064;0.14190666;0.07965409;-0.06716926;0.06831214;-0.08291584;0.06520514;0.05457442;0.28647214;0.13744389;0.058248293;0.027584974;-0.04907198;-0.037525356;-0.0067279404;-0.051398307;-0.13193412;0.058744863;0.07837836;0.04374921;0.08297872;-0.023531184;0.24729255;-0.08338869;-0.09290454;-0.051528003;0.00039118066;-0.026154112;-0.051512647;-0.013841208;0.064024076;0.033836257;0.10918306;-0.06559526;-0.04020661;-0.115379125;0.07978782;0.007233344;0.11479081;0.06800086;-0.049267076;0.0049898727;-0.07432003;0.009247161;-0.04351948;0.048362914;-0.039205153;-0.06839528;-0.05013948;0.044549912;-0.07457615;-0.026233958;-0.052687377;0.1027563;0.034016956;-0.15412737;-0.13753413;0.11449004;0.032072365;0.18306065;0.07700034;0.10536729;0.06655469;-0.06096446;-0.19232489;-0.0075359056;-0.13416886;-0.030419087;0.064890005;0.038711403;0.084794536;-0.08325011;-0.014348583;0.024266064;-0.010287814;-0.037623517;-0.24430455;-0.01515605;0.006997382;-0.0028001133;0.11681555;-0.06835682;-0.04351589;0.05230346;-0.0070585147;0.025062118;-0.067113645;0.08909083;-0.051411003;-0.031235926;0.040966794;-0.06218283;-0.03459761;-0.042934388;0.0049076425;0.15185803;0.0022885725;-0.05549911;-0.05575685;0.02286602;0.13667415;0.094129354;0.049630586;0.033823315;0.077019334;-0.05392703;0.012242932;-0.002229462;-0.061860755;0.08376902;-0.29039618;-0.035837498;-0.22928596;-0.0056401063;0.06428585;-0.004450226;0.083382495;0.10529321;-0.06578287;0.049351037;0.019077854;-0.09903493;-0.17492282;-0.030667534;-0.1422452;-0.004671817;0.05775959;0.05472304;-0.037974708;0.015490265;0.0664726;0.06385254;-0.03832326;-0.03992157;0.11510293;0.06883481;0.03691093;0.24211347;0.0905624;-0.05379601;0.032268055;-0.03724387;0.007793777;-0.017160201;-0.011212776;0.10968603;0.036768354;-0.02763994;0.09513871;0.07729839;-0.006762326;-0.25785148;-0.018277662;-0.0052158684;-0.039660178;-0.02835392;-0.04484459;0.049772695;-0.055416387;0.09872456;0.079234816;-0.21065675;-0.10436564;0.046822768;0.038418617;0.053933345;0.09472978;-0.07468546;0.016390447;0.029758913;0.07301467;0.06934834;-0.11046312;-0.044775717;0.05636778;-0.08270352;0.23585778;0.11724062;0.083721146;0.07448553;0.0022370187;-0.018477663;0.082119115;0.020133987;0.032529835;0.059737753;0.051560435;0.23306927;0.002215247;-0.08124233;-0.019046703;0.0139833;0.101622894;0.1435472;-0.028910318;-0.056595754;0.0042023025;0.078733616;0.008716226;0.03434629;0.019228864;-0.0045349943;0.053838767;-0.07904192;0.0030467543;-0.037712865;0.18014644;0.16878973;0.035589386;-0.068431474;-0.049318675;0.04560292;-0.08163161;0.2059407;-0.058618687;-0.0846438;0.0050297747;0.018317988;-0.021503018;0.07208847;-0.035673793;0.004318567;0.026416225;-0.07840006;0.08584685;-0.026208324;0.07595139;-0.03176378;0.110378705;0.06576448;0.025973681;-0.04126603;0.05164746;-0.08143954;0.013065453;-0.08096067;-0.021110712;-0.0788509;-0.030236833;-0.010425819;-0.03970182;0.0034889758;0.031558294;0.15056218;-0.077589646;-0.054776687;-0.024819076;-0.028014416;-0.08047399;0.16604172;0.015748752;-0.027467912;-0.040972512;0.09253239;-0.038948298;0.07683981;0.15413381;0.007546055;-0.09753597;-0.037943214;0.17039345;-0.06874879;0.0125678275;-0.008667741;0.12996931;0.04230225;0.03583133;0.054298617;-0.0268874;0.022339435;0.028153151;-0.24748884;0.071016;0.040373445;0.08535727;0.06935873;-0.032929823;0.009059194;0.04978974;-0.043990772;-0.028883187
-0.011748422;0.043940447;0.063429505;-0.10898471;-0.00828635;0.019689599;0.18162541;-0.0052536163;0.15837729;0.084962934;0.09576504;0.041938137;-0.04863034;-0.12859789;-0.085094616;-0.054078877;0.08631897;0.12791605;0.0025007369;0.03478151;-0.020909272;-0.10322209;-0.05872797;0.025706187;-0.041542824;0.010713216;0.025178403;0.10968066;0.1935155;0.08924037;0.07163211;0.08846521;0.10436051;-0.022185948;0.032607418;-0.04742175;0.051963456;0.01050601;-0.10162397;-0.040606543;-0.08388247;0.047484845;0.19287753;0.069795385;-0.1300326;-0.016685257;0.038929492;-0.05127797;-0.10628173;-0.06898361;0.11799951;0.053449005;0.05172433;0.04387021;0.0740708;0.019207645;-0.002618527;0.044914298;-0.060624365;-0.083429985;0.042286023;-0.012245795;-0.227205;0.052352928;0.025555756;-0.027912388;-0.038115866;0.01023557;-0.061790664;-0.0719199;0.110374115;0.077004;-0.0024798887;-0.017528864;-0.06248551;0.04512776;0.044478882;-0.009731859;-0.09572722;-0.004257266;-0.039018136;0.040978156;0.07029025;0.0024444265;0.034476202;0.07614876;-0.11947296;0.052434545;0.023117784;-0.01274055;0.014926798;0.07165132;-0.07086694;0.1339029;0.054409556;-0.07146809;-0.002258633;-0.0837411;-0.0022897776;-0.017352214;0.09986765;-0.24510875;-0.04201069;0.095992096;-0.055621754;0.10311848;-0.039607592;0.05924003;-0.012212843;0.017625535;0.044759475;0.02974797;-0.03593256;-0.17651016;0.0010658588;-0.033660546;-0.17835501;-0.09818684;0.1268905;0.13011667;0.021455603;-0.045328476;-0.035164893;0.0012193046;0.010346323;0.05901328;-7.8185425e-05;0.061591383;0.02679287;0.08645823;0.032634158;-0.011247275;-0.0010186713;0.058039453;-0.0017779522;-0.052512344;0.03555058;-0.065914154;0.012634588;0.039266635;0.07921489;-0.11431706;0.0020564862;0.060205534;0.07620261;0.001641301;-0.017691981;-0.026220797;0.030931659;-0.019244144;-0.03968072;-0.041471917;0.026551086;0.14552242;-0.055928558;0.14645989;0.06849129;0.1183505;-0.109499194;0.08296194;-0.038403444;-0.03142829;0.033756584;0.05165695;0.012731743;-0.09292035;0.043291926;-0.037797235;0.14515586;-0.039910473;0.06132372;-0.008570884;0.0063172136;0.042609464;-0.012466539;-0.067833066;-0.08983422;-0.08331681;0.076071784;0.036360264;0.023522267;-0.042042784;-0.045768403;0.036231607;-0.09079507;0.030236233;-0.034801584;-0.14201288;-0.059921816;0.10167371;-0.11094894;0.04829626;0.18963236;0.11515529;-0.0370267;0.052642874;-0.05052804;-0.06286687;-0.013526774;-0.044284217;-0.0755483;0.028575132;0.03500595;0.07104372;-0.003690028;-0.014136618;0.12120956;0.16823782;-0.088773385;0.21761987;0.03322154;-0.019737324;-0.021907158;0.029028684;-0.08644424;0.10911975;0.007814155;-0.09511668;0.07793163;-0.06497461;-0.015919581;0.059779227;0.034789186;-0.0433974;-0.038146198;0.030461261;0.2596244;-0.091095485;-0.12692082;-0.19318789;-0.015120727;-0.23464808;-0.06528755;-0.10138487;0.06944074;-0.05528861;-0.062061578;-0.026804755;-0.021771017;-0.050562944;-0.00492211;-0.007433106;-0.07331579;0.100075096;0.028988572;-0.05644746;0.026459044;-0.0088454075;0.20772284;0.059217557;0.017378403;-0.06888383;-0.022578387;0.12133533;-0.17850146;0.020116406;-0.09313415;0.07360253;0.13060601;-0.05586285;-0.035608962;-0.032034487;-0.0473716;0.07238171;0.042193122;-0.07826659;-0.018139796;-0.10583711;0.008872497;0.068266556;-0.264448;-0.05560046;-0.023689471;-0.070158094;0.072429754;0.024337046;-0.049135957;0.0066342326;-0.07196477;0.029803468;-0.08367455;-0.00044790204;0.05449284;0.06090641;0.08733203;0.09474889;0.043348752;0.080722354;-0.07913552;0.041633837;-0.12953381;-0.029900476;0.031657964;0.044050734;0.003535091;0.31927928;-0.11221987;0.081266;0.0016810738;-0.059691805;-0.09738062;0.12200138;-0.04590535;0.16592242;0.09781126;-0.08889396;-0.023615183;0.042738378;-0.21064825;-0.13687523;0.04708114;-0.21023469;0.02695171;0.13561675;-0.01873062;-0.08066075;-0.08319814;0.091989756;-0.0067476686;0.04574754;-0.07129123;0.0036016726;-0.06950166;0.019091291;-0.05781459;-0.08245393;-0.07032183;-0.020761933;0.029781803;0.025931865;-0.036020804;0.10549497;0.00092062214;0.020193756;0.23134154;-0.06470474;-0.08658241;-0.10241299;-0.045479856;-0.04833599;-0.06626719;-0.09592719;0.06440102;-0.040109653;-0.011555439;-0.022462199;0.04559013;0.029724084;0.0035044483;-0.06233163;-0.051507387;-0.093092136;-0.07995424;-0.054087713;0.07118374;-0.060817458;0.07341784;0.038619917;-0.008470323;0.019803597;-0.09773478;-0.2120359;0.1371752;0.050740592;-0.04035555;0.09769403;-0.033463378;0.0013279732;-0.047240917;-0.010618133;0.06995103;-0.027331218;-0.0067099915;0.061889466;-0.02374623;0.019457085;0.15128018;-0.012702553;0.052121267;-0.021455254;0.03249381;0.06353949;0.12814222;-0.082287125;0.022811608;0.05066109;0.025884535;0.015681772;0.005283049;-0.063797526;0.07848036;0.086332954;-0.03497024;0.08687299;0.029200155;-0.037821084;-0.0097164;0.0805335;0.09688109;0.07370959;-0.10964271;-0.0071206815;0.007935383;-0.10626705;-0.07094743;-0.081676625;0.14458661;0.12623057;0.015822599;0.010571676;0.04124077;0.10708153;0.16213271;0.057097655;0.10608812;0.0582823;-0.10049996;-0.20831513;0.09761251;-0.031523805;0.032622214;0.13809547;0.03683582;0.026122745;-0.00071968994;0.03917134;-0.026003532;-0.06303298;0.008699073;-0.11110588;-0.029029373;-0.055497326;0.03433584;-0.019403117;-0.04241732;0.114737086;-0.033028286;0.05145694;-0.030392025;-0.014054985;0.10141818;0.052343477;-0.004154627;-0.019187039;0.10115618;-0.07693266;-0.22968766;0.03128059;-0.11503812;0.004216277;-0.013564404;0.019786304;-0.013259037;0.21175548;-0.062911615;0.10975111;-0.05604956;-0.123507276;0.08120406;-0.023398304;0.1028085;-0.05721453;0.097650744;0.014072163;-0.08152621;0.017944837;0.096818544;0.08691675;-0.09033949;0.05075036;0.002539343;-0.026632648;0.06920858;-0.03559929;-0.04155177;0.082492605;-0.08012682;0.0055632996;-0.09131591;-0.03564197;-0.02934306;0.04571675;0.13165629;0.042876318;-0.03292919;0.038079094;-0.07653693;-0.008513333;-0.02139548;-0.037802488;0.013780001;0.11875809;-0.06756564;-0.07542686;-0.086620755;0.033325266;0.035256546;-0.03866922;-0.061169047;0.042896472;0.18058679;0.07495157;0.21948126;0.07551855;0.02452804;-0.023494797;-0.07795552;0.10821557;0.038492195;0.05864534;0.098012395;0.04041857;-0.07148683;0.015139469;0.047322325;0.020248456;0.18903553;-0.049180213;0.049884178;-0.07423031;-0.009293961;0.057475433;-0.022616494;0.18650943;-0.070120394;-0.046703424;0.0071292645;0.017946362;-0.0014570258;-0.028312936;-0.08806715;0.05955589;-0.20016465;-0.046172272;-0.030338705;-0.015012954;0.045407195;0.068758935;0.004109511;0.056864966;0.006248461;0.010472799;-0.013027466;0.082372054;0.08033176;-0.044014636;0.016919667;-0.010534248;-0.04247531;0.05529487;-0.010677836;0.023177352;-0.051113173;0.030963251;0.093747824;0.088284366;-0.028507795;0.054647226;-0.02059332;-0.054070078;-0.026953604;0.043853506;-0.028702097;-0.053371694;-0.05809401;0.0134280715;-0.03295094;0.034281407;-0.0937513;0.020328768;-0.046032857;0.054579295;3.389651e-05;0.0058631203;-0.057947397;0.015731858
0.11092266;-0.0056723524;0.054193463;-0.02240833;0.050541196;-0.05424373;0.25340608;-0.058884952;0.084819525;0.0018840627;0.012620719;-0.022742875;0.052292697;-0.017588036;0.058391362;-0.020248318;0.09573725;-0.027771547;0.035235375;-0.07268108;0.038368706;0.0090602115;0.058589857;-0.0068464694;-0.066680215;0.052430652;0.035137508;0.016126623;0.16215931;0.0338818;0.037395388;0.02054065;-0.030125557;0.06866921;-0.008871539;0.03749581;-0.11251243;0.14383858;-0.02854143;-0.044089343;0.04154536;-0.07450483;-0.023502002;-0.00579386;-0.038445994;-0.050204035;-0.006583007;-0.007821291;-0.11509817;0.092682354;-0.007935024;0.008715962;0.0583091;-0.07806015;0.09214797;0.065766;0.018194664;-0.08146469;-0.029307416;0.08489564;0.0099619785;-0.048620306;-0.091422364;0.109255895;0.07769204;0.09055067;0.048896767;-0.03986964;0.087758526;-0.059111893;-0.035902765;0.051816046;-0.0678853;-0.007341236;0.028867356;-0.04144757;0.06216995;0.011248973;-0.010483347;0.08049442;0.06647094;-0.02407084;0.14083321;0.015641376;0.12052158;-0.006562991;-0.04491162;0.035863265;0.019578768;-0.04787708;0.030033955;0.034109365;-0.10074094;0.041651867;0.15663941;0.039055064;0.047613535;0.05183011;-0.030192314;0.027204063;-0.044156626;-0.22068381;0.11504452;0.041201685;0.057671107;0.0023950348;0.026076667;-0.02130324;-0.058065776;0.013819519;0.0077984915;-0.006083515;-0.06543162;-0.16252834;-0.031740315;-0.052055884;-0.34986898;-0.05607624;0.020734118;0.0708013;-0.0861747;-0.041232076;0.034367103;-0.035069607;0.011274017;-0.08908165;-0.03840337;0.07862309;0.05582387;0.043881603;0.07646673;-0.016965808;-0.09796906;0.13152018;-0.05367122;0.055252157;0.024359407;0.083168685;-0.06894056;0.07211725;-0.0028823174;0.059926927;-0.0055378308;-0.02967676;0.01749717;0.103022665;0.09754459;-0.0013336043;0.076254606;0.034939278;0.0036321215;-0.09320065;0.08334522;0.1054262;-0.025157604;0.07561397;0.14717293;0.092075124;-0.04691153;-0.08291926;0.09573217;0.031972475;0.07093602;-0.030782603;0.011385701;0.05184393;0.09551519;0.011333388;0.03756056;0.03795986;-0.009935949;0.06634473;0.0031600578;0.06221857;0.028120497;-0.073368736;0.019932464;-0.08370098;-0.017740661;0.07547796;-0.08078384;-0.025687795;0.050930295;0.045677043;-0.12547703;0.13138051;-0.056311455;0.055754006;-0.022692613;0.07345857;-0.14306094;-0.04106345;0.10608842;0.08301754;0.07191549;-0.055920407;-0.12508133;-0.1691246;0.05901381;0.010270925;0.049553614;0.1307289;0.0061586034;0.026394304;0.081581004;0.06936422;0.00058176636;0.064596795;0.050972804;0.07621867;0.15828076;-0.032371834;-0.050402083;0.07613316;0.13405202;0.031571295;0.069471106;0.0148212975;0.012244291;0.031132478;0.018171774;0.041830152;-0.059650533;0.07439702;-0.03569776;0.17340557;-0.03440908;0.027946562;-0.11542688;-0.0090969065;-0.057548877;-0.037146244;-0.08150322;-0.06112076;-0.035893146;0.04809599;-0.09827501;0.07267296;-0.06102472;-0.0206254;0.07150103;0.06576869;0.049774446;0.06690186;-0.028005933;0.11614601;-0.01300837;0.14229879;0.04618326;0.0039467616;0.12751356;0.08612625;-0.053306367;0.031495597;-0.19083574;0.0395662;-0.17655614;-0.024781758;-0.06547851;-0.07785273;-0.06334418;-0.0350477;0.08512666;0.013238405;-0.052496888;-0.026044372;0.015811449;0.075344585;-0.013943971;0.073617175;-0.3042483;-0.008613995;0.07825643;0.047077686;0.12518811;0.020019736;-0.037159637;-0.07414494;-0.1432668;-0.045684412;-0.06015764;0.015706703;-0.06996553;0.084546946;-0.06828425;0.11260553;0.0604847;-5.89172e-05;0.072505355;0.047369596;-0.0018574856;-0.106866084;-0.0015363846;0.08505337;0.10553658;0.07489213;-0.06654622;0.14091907;0.045164976;0.027833017;-0.08126344;0.047808688;-0.05561258;0.16404703;0.054716934;0.011742181;0.12950082;0.027548859;-0.06034476;0.004147576;0.073835246;-0.08343993;-0.043988902;0.055590928;0.0790199;-0.07942101;-0.14618762;0.030783739;0.015838869;-0.020449761;0.016936569;-0.08159601;0.0602123;-0.004637979;0.051264536;-0.07726666;0.06880339;0.02614354;0.021003496;0.06472469;-0.059764806;0.17977765;-0.04655305;0.2121014;0.06526506;-0.07318065;-0.08242719;-0.07932404;0.04689686;-0.10399864;-0.14403546;-0.08733643;0.08732844;0.118342005;0.10875131;-0.006991815;0.05387539;0.013223879;-0.003484454;0.09069884;-0.038744062;0.13422593;-0.14743763;-0.054116633;-0.008773105;0.0791457;-0.036655713;-0.088340946;0.008353911;-0.020985857;-0.025741952;-0.22883187;0.029341467;0.029013405;-0.03325484;0.0035512992;-0.03716737;-0.022447184;-0.051402275;0.054296724;-0.029164147;0.020017387;-0.014678093;-0.009864828;0.11642225;0.14044335;0.016290115;0.04459627;-0.026538253;0.006862362;-0.014946426;-0.05476491;0.08957252;-0.009276774;-0.102443255;0.01798754;-0.030439561;-0.051722676;-0.033851985;0.014291526;-0.0042307824;-0.06395838;-0.059195817;0.031347014;0.098075494;0.026560824;-0.008355549;-0.062818274;0.060700122;-0.062006794;0.024891008;0.09640949;-0.123375565;-0.22279863;-0.020872591;-0.025409201;-0.0046735364;0.002616289;0.053029004;-0.053317647;-0.08540087;-0.08027707;0.053882804;0.04457548;0.043423686;-0.06042823;0.13901094;-0.030342273;0.09041429;-0.13434176;0.07429238;0.12570336;-0.082441695;0.056221936;-0.05308189;0.09925947;0.06076162;0.019957984;-0.014336013;-0.014438548;0.02758558;0.04991633;-0.13226266;0.04580155;-0.03865996;0.08920419;-0.05066212;0.0091055455;0.022006357;0.009975063;0.10572533;-0.039900728;-0.030324785;0.06388154;0.07295878;-0.017919634;-0.1687831;-0.027904604;0.080522284;-0.06559109;0.04148326;0.09015198;0.085171774;-0.018999185;0.14132653;0.07653315;-0.030372098;-0.04433734;0.24828167;0.0056616175;0.07499515;0.07591327;-0.03487523;-0.020418648;-0.068014234;0.039902616;0.020752495;0.06936285;-0.015676936;0.0837219;-0.007127201;0.022400856;0.068687625;0.028896583;0.077174336;-0.052045476;0.021043789;-0.04620153;0.038513374;0.0012160442;0.021516053;-0.06092736;0.10736674;0.038786683;-0.07121954;0.1377493;-0.051415224;0.08192884;0.036171895;-0.026558604;0.0073840586;0.023076912;0.018493932;-0.06637804;-0.045607384;-0.058636267;-0.09822789;-0.029387781;0.047202308;-0.11616282;-0.027519133;0.0027147147;0.17630628;-0.07175193;0.0077344747;0.031092595;-0.027290856;-0.031040661;0.0506145;-0.052898265;0.08564059;0.073232986;-0.057040937;-0.0349839;-0.08316;-0.007984109;0.034339752;-0.02752868;-0.047724813;0.036432125;0.030029912;-0.040987354;-0.053819545;-0.024413086;0.029223742;-0.0032119027;-0.08367484;-0.04963471;-0.041049764;-0.016387476;0.054840215;0.03679917;-0.13908668;0.05651901;0.018534428;-0.0060264645;-0.05167498;-0.029693719;0.12570278;0.18415523;-0.01348292;0.059467044;0.06743167;-0.01944088;-0.08125096;-0.07236978;-0.002861537;-0.07559893;0.053982265;0.004301074;-0.0724403;0.014836697;-0.01946863;-0.04521897;0.018660944;0.08857633;0.060150802;0.058569584;0.07936132;0.089622274;-0.03673806;-0.03584173;-0.19197758;-0.2325;-0.026298944;0.018148586;0.06716469;0.05620297;0.06810943;0.036371157;-0.028093731;-0.16451068;-0.01835356;-0.007867275;-0.022913571;-0.05346944
0.011781119;-0.16066703;0.014410616;-0.109564885;-0.0050324546;-0.016028743;0.2811127;0.01825706;-0.24751389;0.06470313;-0.078832865;-0.20037645;0.059735678;0.01434416;0.12831812;-0.06246577;-0.07091522;0.073715314;-0.001676607;0.009689269;-0.012729144;0.057812482;0.06312088;0.020627387;0.023344938;-0.27251992;0.10917988;-0.067474164;0.23767722;-0.055307344;-0.009655394;-0.029791862;-0.06373348;0.08720838;-0.024478933;0.091936946;-0.112594716;-0.015619703;0.062689394;0.026995907;0.042318698;0.19509365;0.073944725;-0.08559846;0.14188068;-0.026988763;0.001103252;-0.06572315;0.082982615;0.089107044;-0.11214326;-0.04221235;0.090257555;-0.07099241;0.011505331;0.0017688479;-0.027265927;-0.079233035;-0.096155226;0.13672899;0.02238259;0.07270213;0.069074936;-0.112302214;0.09114409;0.002155526;-0.045478713;-0.078677304;0.11895689;0.00830974;-0.05270055;0.15432166;-0.0156166125;0.079811834;-0.15111719;0.029835926;0.010269267;0.0039012241;-0.085825674;0.10611365;0.022638759;0.0003724513;0.09597328;-0.14390832;-0.05214958;-0.082924046;0.0021915212;-0.035181284;0.09121863;-0.015838536;0.031750042;-0.03214896;-0.054581206;0.021108834;0.12347809;0.043159522;0.04207173;0.07359193;0.10910903;0.06921834;-0.019211883;-0.17461786;0.08789547;0.086183876;0.013379533;0.09425462;-0.056044374;0.017236132;0.022276059;-0.055585958;0.04834209;-0.055167515;0.034914196;-0.212895;-0.02522358;-0.03102409;-0.39836782;0.051397663;-0.048584215;0.015390525;-0.10824664;0.066773735;0.029110763;-0.057566915;-0.03565303;-0.08290549;-0.06262959;0.12481906;-0.01589604;0.034812808;-0.056972373;-0.10397216;-0.2969232;-0.063748255;0.19710644;0.049534284;-0.07032539;0.11359362;-0.1933968;-0.056912936;0.09353283;-0.053247117;0.022140624;-0.0051096645;0.07716302;-0.049794152;0.22212154;-0.03295018;-0.010244907;0.07250925;-0.028809972;0.076820664;0.09885873;-0.0857277;-0.04027648;-0.064835295;0.057510905;0.12826261;0.11649832;-0.03507194;0.02782399;-0.028129965;0.20774607;0.028086688;-0.053905305;0.024879858;-0.034887727;0.08096865;0.018486716;0.025757836;-0.063332;0.04399653;0.1394403;0.02628795;-0.013540395;0.03894868;-0.038243063;-0.05722914;-0.22980359;-0.05282674;-0.1370769;-0.08002392;0.0018086623;-0.019447654;-0.121560365;-0.0029819133;-0.07093258;0.22576001;-0.13897546;0.018782716;-0.038011968;0.017729964;-0.03771994;-0.106877565;-0.026996652;-0.024864793;-0.27459043;-0.025606452;0.2129994;0.08990955;0.0052484404;0.25967956;-0.0678082;0.10194568;-0.03248227;-0.043036673;-0.09569468;-0.052790023;0.0266582;-0.004414513;0.078772105;-0.08069331;0.05000397;-0.26572892;0.040727228;-0.12634742;0.030217126;-0.06833674;0.09381541;0.1611702;-0.08479654;0.046288855;-0.010461539;0.07556823;0.054260775;0.017462853;-0.054869197;0.14063123;-0.031044284;-0.08810945;0.10229041;0.1022622;-0.02506428;0.09908434;0.0025455093;-0.04463865;-0.015813103;-0.0025223389;0.042502407;0.010561484;0.020829348;0.14576258;0.109740205;0.033398744;-0.046365432;0.14969015;0.011334404;-0.051801097;0.13887921;0.08209583;0.10793443;0.16157249;-0.0025609746;0.08134503;-0.29421905;-0.019280653;-0.25523794;-0.029799925;-0.03734563;0.04713089;0.010456894;0.056291897;0.09147496;-0.0050937734;0.040066276;0.023345852;-0.03394721;-0.018586924;0.08031682;0.016478904;-0.12762122;-0.045827635;-0.08491201;0.057417683;0.19609888;-0.045203015;0.112470426;-0.13283564;-0.124227725;0.08032102;-0.3497351;-0.056957293;-0.052027244;-0.1450063;-0.04680299;-0.026621826;-0.016456248;-0.06331702;-0.01661149;0.09810835;-0.086628884;0.07225407;0.030462893;0.005639882;0.082030304;-0.14224863;-0.23823936;0.09177549;0.060332067;0.036365677;-0.09185665;-0.013037658;-0.0022677914;0.0063963193;0.12597649;0.013480195;0.09677743;0.019778633;-0.020037835;0.0704466;0.10360983;0.06965178;0.056733787;-0.060423903;0.04661367;-0.07926924;-0.31058708;0.050763227;0.005352895;0.012174406;-0.056280505;-0.041454528;0.08418885;-0.011926406;0.040620703;0.07168326;-0.027123539;0.24637474;-0.081970975;0.01227418;-0.19572587;0.22347654;-0.056504108;0.028219247;0.16001041;0.05242967;-0.055782124;-0.04071216;0.16862422;-0.074218504;-0.11901438;-0.12521255;0.07367202;-0.052306555;0.1151223;-0.04873365;-0.05922393;-0.08207657;0.04488369;-0.069800325;0.003821908;0.14142103;-0.084913425;-0.10489423;0.019189492;0.06578068;-0.020479867;-0.083424866;-0.032376513;0.030270876;0.038770273;0.00105436;-0.017738402;0.0774323;0.03578086;0.0554166;0.037671007;-0.012255285;0.02733921;0.10076767;0.03080943;0.019312995;-0.045803327;0.024723077;0.014238378;0.12790293;-0.054290663;-0.10350698;-0.036198728;-0.015716704;-0.009690074;-0.024516344;-0.111982666;-0.029453797;0.0076095737;0.014916009;-3.0424015e-05;0.10125443;-0.08253088;0.03232515;-0.17862529;0.003115511;0.04586612;0.0059372964;0.015172977;-0.043467447;-0.03133314;0.029656056;-0.22032927;-0.11105718;0.024870098;0.060599886;-0.026905358;-0.15308097;0.019764591;-0.018102719;-0.09319011;0.16516148;0.064517856;-0.054787792;-0.099311896;-0.053604167;9.639524e-05;-0.09338433;0.08793113;-0.08870677;0.11833299;0.03703944;-0.031750616;-0.049549535;-0.016728764;-0.07137133;-0.06626947;0.0029041788;-0.005690724;-0.010814995;0.12406963;-0.04666714;-0.04876064;0.06644228;0.076972924;0.060972303;-0.2500438;0.009211247;-0.11752988;0.011617388;0.09500263;0.02011485;0.01588657;0.021265414;-0.19841437;-0.049747963;0.06723009;-0.030826386;0.1916126;0.09840585;-0.15324646;-0.016026055;0.16674002;-0.039472427;0.056737818;0.052317556;0.06469203;0.11137063;0.06630024;0.0035521835;-0.012084617;-0.095570266;0.12970382;-0.03105782;-0.057295233;0.093487516;-0.02730857;0.034378078;0.078347646;-0.0066571888;0.21519116;-0.002490965;0.038920134;-0.0933132;-0.06177859;0.10259147;-0.06970729;-0.05657796;0.0647667;-0.0857357;-0.06470297;0.021737838;0.24201171;-0.03602767;0.035155836;-0.040913083;-0.08443184;0.19593981;-0.024374472;-0.1491343;-0.06827724;0.001648795;0.100566946;0.04559061;0.111933276;-0.081456356;0.08661825;0.035798594;-0.027115151;-0.3375709;0.060472794;0.07021911;0.009884755;-0.09638033;0.024019511;-0.2915797;0.008367565;-0.0314178;-0.009717188;0.06754068;0.018871905;-0.021063982;0.04004856;0.03308952;-0.038275376;0.08395222;-0.010123702;-0.06877041;-0.08220642;0.030573538;0.023690134;-0.033843216;-0.036200058;0.044516344;0.069096856;0.029822076;0.026269672;-0.077819414;-0.054073453;-0.076391265;-0.06524241;0.0119934855;-0.05886588;0.06128728;0.03574788;-0.016234454;-0.15666121;-0.032278407;-0.020714605;-0.009464494;0.021252278;-0.08971299;0.1377904;0.24201241;0.047560874;-0.042636223;-0.010169682;-0.0051567378;-0.12247978;0.0061153215;0.07152257;0.12316858;0.0017683516;0.02905152;0.08525722;-0.031003257;-0.025440976;-0.045432508;-0.006003196;0.057011977;0.048425227;-0.05734691;0.086831674;-0.0324364;0.02497326;0.017135307;-0.121717855;-0.28472278;-0.05404442;-0.05637117;0.08376581;0.21582028;0.07423194;0.08552778;0.050983015;-0.2769276;-0.025470344;0.034045592;-0.034343097;0.054601565
-0.033852726;-0.12253063;-0.096863635;-0.057961415;-0.033405468;0.016417187;0.095733285;-0.027428495;-0.08999205;0.0472464;-0.061295204;0.025091728;0.09251925;0.057432033;0.047848716;-0.027850144;0.023369607;-0.01316607;0.07675266;0.05407015;0.006773174;0.0019093173;0.12127444;0.010247259;0.05808643;-0.0776288;-0.018397124;0.0115504805;0.1942864;0.05126975;-0.043655563;0.005231261;-0.0030280754;-0.053159226;-0.051083345;-0.09566566;-0.123446465;0.041603304;0.072027884;-0.051120583;0.06396539;0.041339647;0.10112406;-0.04027155;0.122587375;0.05363193;-0.05524496;-0.012332564;-0.036894828;-0.019126955;0.0141867045;-0.049044065;0.0061747297;0.09224074;0.13890196;-0.02322304;-0.009503534;-0.10096944;0.04796179;-0.03427852;0.14492333;0.100417;0.12301054;-0.030109426;-0.017785026;-0.0062691546;-0.036647204;-0.14102864;0.08575431;-0.021374183;0.0907674;0.16650625;0.060224123;0.12945229;-0.10661772;0.021768713;-0.012415944;-0.05019861;0.018187186;0.07416976;-0.032333985;-0.06282719;0.029762395;-0.084149696;0.027807122;0.009393306;-0.09201156;-0.07991522;-0.006765298;0.021363994;0.009206237;-0.073518306;-0.08187365;-0.02973571;0.03657068;-0.021663038;0.03027407;0.060376886;-0.07941843;-0.055285063;0.093042;-0.22320755;0.089907974;0.050485525;0.009580121;0.13116847;-0.0033777945;0.047435887;0.10869568;-0.020446539;-0.11734055;0.08122501;0.00032366984;-0.24873482;-0.06868608;0.033867884;-0.14027125;0.063525856;0.056968257;0.06256487;-0.2116946;0.024928356;0.06256335;0.05397407;0.0010165708;0.0254878;0.01979503;0.05220526;0.07400603;0.034301527;-0.058582958;0.064318225;-0.24426901;-0.21204178;0.06306024;-0.034965716;0.009893251;0.032135304;-0.046637405;-0.004277493;0.06650482;0.04399702;0.072858624;0.018623859;0.008631414;-0.03911322;-0.039003976;0.029660076;-0.031737532;0.013700255;-0.006975937;-0.004395483;-0.060776994;0.1513671;-0.10332153;0.12514366;-0.019944921;0.1444118;0.03824392;0.10556104;-0.036884017;0.051052667;0.29135507;0.060427293;-0.050754644;0.0674688;0.056527793;-0.028725997;0.1317483;-0.061459716;0.0027230391;0.008684878;0.014747292;-0.041481562;0.016880985;0.033785034;-0.016876018;-0.07664099;-0.16570301;0.049239825;0.047662683;0.043418385;0.06548972;0.07288598;-0.045555614;-0.08416525;-0.020261599;-0.017376224;-0.12106173;-0.06898465;-0.103135295;-0.05313126;0.031497695;0.019851739;0.0017551226;-0.024577096;-0.009397683;-0.030678289;0.094155565;-0.029363737;-0.04925779;0.08289127;0.011757723;-0.014431428;-0.0355312;0.0960006;-0.20520367;-0.005744584;-0.073361136;-0.036099397;0.0306771;0.031754684;-0.06551527;-0.008404843;-0.065634884;0.038302727;-0.03494112;-0.081495896;0.03236798;0.02052547;-0.0778301;-0.03217482;0.04917049;-0.010765089;0.03089713;0.02852657;0.0899913;0.025938585;-0.17268941;-0.105816156;-0.06713102;0.009693907;0.080309704;-0.25999695;0.009417296;0.019742304;-0.102746256;0.07538761;0.029155526;-0.012824031;-0.07581085;0.07232193;-0.00076605426;0.02870327;0.05297611;-0.025663855;0.091730714;-0.116500765;0.06704602;0.02619208;-0.017130518;-0.04492979;0.057150777;0.07252506;0.005629312;-0.12526318;-0.04333997;-0.009395805;0.06679551;0.03318796;-0.09243751;-0.018600157;-0.063058645;-0.010711462;-0.0029427854;-0.060328845;0.05759395;-0.10525294;-0.018600948;-0.07612287;-0.08436816;0.02202307;-0.035160102;-0.015945736;0.103975035;0.081322685;-0.18181604;0.011769004;-0.15643707;0.021576982;-0.14595285;0.10211699;0.058040496;-0.16008961;0.008081355;-0.03191717;-0.036492903;-0.0198727;0.09917787;-0.056816157;0.06268884;0.012685821;0.024290726;-0.06159301;-0.051995616;-0.08857289;-0.17749855;0.044922907;0.05550598;-0.117492795;0.013751774;0.018884884;-0.041233692;0.0593754;0.056956604;-0.067941025;0.0929224;-0.055506688;-0.13219284;0.024331538;0.07703216;-0.13027366;-0.078682505;0.08764967;0.09514734;0.037473496;-0.08486338;0.1688316;0.017854245;-0.21708809;-0.055303395;0.08216051;0.034446444;-0.031604353;-0.04440762;-0.023185574;0.0015708406;0.17222087;0.029082943;0.046518702;-0.055377144;-0.031004043;-0.02986741;-0.02378102;0.22755204;-0.07864387;0.021837952;-0.073783375;-0.07271295;-0.043308157;-0.22921604;-0.035923015;0.073840775;0.0131272;0.011170287;0.10290044;0.049464203;0.0027097818;0.0104449615;-0.07289692;-0.24280605;0.10677473;-0.14411795;-0.09261871;0.0019368111;0.051953092;0.01804348;-0.11000757;-0.0506554;0.025973387;-0.13401136;0.08919205;0.00061936246;0.16078536;-0.060211133;-0.04554497;0.002334626;0.07449654;0.055428013;0.08005702;0.033454232;-0.051732883;-0.017287394;-0.03984592;0.02110165;0.038023476;0.03480568;0.01896556;-0.031499084;-0.042433836;0.06978799;0.022164514;0.055852253;-0.00036663126;0.047653954;0.047779623;0.0711885;-0.00039987062;-0.008161728;-0.07398136;0.023063762;-0.002375196;-0.002324572;0.069106944;0.008115128;0.037511062;-0.0352608;0.035474785;0.0032216501;-0.06515676;-0.19705896;0.049603805;0.07139884;-0.08859854;-0.1332576;-0.15728384;-0.011332854;0.08658042;0.0155861275;0.043941595;0.08170104;-0.03163056;0.1257149;-0.039565835;0.11066248;0.020171;0.08598053;-0.10722827;-0.038366906;-0.063866295;-0.085374966;0.0062191035;0.048438083;0.02742721;-0.0029636377;0.06836737;0.14030321;-0.041677933;0.07479608;-0.03527473;0.075347275;-0.093371585;0.066487744;0.050126493;-0.033407442;-0.008748126;0.044308953;0.08006801;0.07193913;0.040313944;-0.22816472;0.0723958;0.025645731;-0.034776255;0.00031035405;0.09228422;-0.21011513;-0.00029449497;0.078073405;0.066103294;-0.0069395425;-0.018566128;0.06483957;-0.03211886;0.021487016;-0.006432542;-0.2260197;-0.13682608;0.13007693;-0.051987268;0.028108176;0.019550664;0.10176669;0.01267213;0.042548586;0.0588409;0.110337;0.051308144;0.06493036;-0.056001462;-0.05429831;0.0189226;0.008784328;-0.0042439615;-0.01818493;0.046655416;0.022876332;0.049514428;0.019043406;0.070656516;0.04747606;0.056471433;0.017396651;0.02956234;0.0878189;0.0051662386;0.050512135;0.07344808;-0.007202711;-0.079975784;0.012777429;0.039907508;0.022290427;0.062623575;0.014629209;-0.24038376;-0.04347449;-0.05756443;0.012677885;0.01821373;0.2457439;-0.08249251;0.08995801;-0.05511968;0.056136534;0.1271148;-0.020780455;0.07427165;0.062013138;-0.014064616;-0.054798525;-0.029901756;0.082883075;0.0924186;-0.123648025;-0.029449001;0.11450683;-0.04660973;0.03875316;0.014763486;-0.0011980017;0.059571188;0.031043286;0.062025648;-0.01617954;-0.004750521;0.009081155;-0.066864125;0.07005467;0.0195412;0.028349914;0.06847313;-0.19325131;0.0625832;0.017781496;0.055838414;-0.029601324;0.0019965607;0.023074107;0.075785525;-0.00095836446;0.02504924;-0.021964641;0.07397085;-0.012474713;0.050208114;0.07560258;0.0062745004;0.02028856;-0.05048365;-0.036538683;0.018073691;0.06515182;0.06019408;0.07173173;0.0874147;-0.107155025;-0.047295853;0.102983825;0.09333879;-0.004507388;0.013410216;-0.21993579;-0.11221792;-0.04422318;0.051426306;-0.044080317;0.14101288;-0.04313724;-0.022210777;0.00502347;-0.102051415;-0.062062625;0.03502873;0.008157218;0.008152589
-0.023938563;-0.20750464;0.024651974;0.12197142;-0.048821196;0.0027268277;0.10743929;0.06642055;0.07553112;0.027189787;-0.028026588;0.092176504;-0.0897141;-0.012954636;0.00833102;0.09950186;0.08255907;-0.15338631;0.074194446;-0.082137674;-0.0012702134;-0.014745737;0.11781998;0.02790019;0.021116229;0.04868821;0.067892745;-0.059045676;0.11600774;-0.071875945;0.070124716;0.22080237;-0.0015034969;-0.23766235;0.04023874;0.0028892555;-0.23848058;0.078123085;0.018758956;-0.056561194;0.019149536;-0.17907454;-0.14927597;0.0497926;0.24450341;0.08917469;-0.0075296587;-0.11550287;0.1355388;-0.15612152;-0.20066188;-0.20301495;-0.07763974;-0.03991089;0.09058014;0.0760773;0.038966168;0.07121958;-0.028192976;-0.051706962;0.038072266;-0.07378456;0.1626918;0.052820012;0.0025798343;-0.0036585615;0.001025971;-0.12964135;0.1034668;0.120092645;-0.0135486135;0.15866368;-0.0041231546;0.17638904;-0.083762355;0.087717555;0.039780162;-0.06120809;0.15370972;0.09120668;0.071779214;0.04136922;-0.05411685;-0.114583924;0.018736253;-0.087471545;0.019959407;0.112779655;0.002038151;0.10771221;0.108039826;0.025545232;-0.074314356;-0.21836857;0.1058118;-0.081278324;-0.119171165;-0.014921469;0.107969;0.052114405;0.047933802;0.05874773;0.19975713;-0.036071375;-0.0072246958;-0.028363822;-0.047320098;-0.0048115985;-0.020047156;0.07192744;-0.09611311;0.0636007;-0.03124926;-0.024230042;-0.040191136;0.011292394;-0.17513889;0.06864731;-0.12182663;-0.055757243;-0.17784254;-0.014464081;-0.049951848;0.00045646506;0.08158576;-0.058927327;0.07757126;0.008759492;-0.059809063;-0.032787837;-0.105162345;-0.046371896;-0.10131859;-0.11128497;-0.03760776;-0.05084555;-0.068975225;0.09623971;-0.16130188;-0.043393422;0.070968166;0.015882608;0.079585806;0.0586141;0.021721015;0.016628208;0.08470592;-0.07012793;-0.08399948;-0.021297524;-0.031803917;-0.0137188155;-0.022678008;0.10963058;-0.22273363;-0.006065204;0.044550523;-0.007923276;0.06631089;0.01450292;0.057365146;0.121574685;0.12927781;-0.013312626;-0.035872456;-0.052387428;0.0031112425;0.05584148;-0.06302398;-0.026863396;0.056689616;0.086791076;0.12817171;-0.04783239;-0.056958243;-0.06562975;0.09480085;-0.058704603;-0.01964455;0.04107773;-0.0028934826;-0.029614637;-0.06905983;0.01166073;-0.20973007;0.06178092;0.048121694;0.11506593;-0.10408761;0.012187082;-0.120461136;-0.00043941205;0.14049394;-0.04011659;-0.073883116;0.016586425;-0.21779439;-0.22423758;0.1696081;0.072373204;0.054939397;0.026302291;-0.02881119;-0.024627905;-0.067218065;-0.11169141;-0.14069028;0.024991253;0.04536956;-0.0673316;-0.002732533;-0.0014607097;0.05139919;-0.032962658;0.0217422;-0.070908666;-0.027789548;-0.07766987;0.068659045;0.024182562;0.04072691;0.12124288;-0.060642377;0.19550167;0.04829029;0.11213514;0.04797558;0.11911806;0.07824139;-0.03339384;0.019679397;0.1017426;-0.0065835407;-0.13936399;-0.03674734;0.05057494;-0.010378459;0.0022620352;0.08987858;-0.076934725;0.034354642;0.07202824;-0.04072589;-0.019745354;0.11427519;0.15951242;-0.03014959;-0.14855017;-0.052095637;0.086686164;0.12352917;0.050128415;-0.012487348;0.077961944;-0.1359314;-0.07853753;-0.085698426;0.04884164;-0.009156539;-0.027544599;-0.09929508;0.016220104;0.054743722;-0.10739738;0.094080046;0.061680574;-0.034483284;0.08313042;0.084181555;0.054974012;0.12641469;0.07992228;0.045093544;0.041661862;0.17281356;0.037777893;0.113952175;0.022936964;-0.07915396;0.09997295;-0.045413766;-0.010157554;-0.031060547;-0.1021609;-0.045912676;-0.0083391955;-0.06436319;0.025583822;0.051299483;0.107941024;0.112223305;0.09041416;-0.071488746;0.067534894;0.006209016;-0.21785954;-0.04420752;0.0030814693;-0.026255768;-0.09919056;-0.14112702;-0.018801406;0.0006128862;0.037225172;0.07511845;0.09188808;0.10608946;-0.032574106;-0.11913161;0.032252647;0.025410673;-0.01992747;0.028795246;-0.21260512;-0.047147937;0.013729758;-0.074043885;0.12077852;-0.036608916;-0.12579119;0.04587857;-0.061075352;-0.01089652;0.0833314;0.055106882;-0.1156961;0.12421358;0.04688288;-0.06104018;-0.09300464;-0.08972304;0.063467346;0.058422245;0.05107093;0.021138053;0.016138338;-0.100833945;-0.014633063;-0.026915709;-0.076597534;-0.030812714;0.03466376;0.07667697;-0.1265271;0.05803954;-0.12709403;-0.047619835;0.049298074;-0.047381286;0.03456877;-0.059278354;0.07703465;0.13544577;0.023037815;0.018108478;0.075777724;-0.08067546;0.023600034;-0.07924631;-0.1780199;-0.0013471986;0.11962283;-0.04371014;0.022335593;-0.06252692;0.103358276;0.0027484442;0.036417875;0.023734529;0.04948894;0.048115697;-0.13022484;-0.06634616;-0.09471034;-0.04565494;0.03151314;-0.1464816;-0.06241564;-0.070576034;0.00055736623;0.020165289;-0.05667157;-0.031218635;0.032785535;0.054886084;0.07338798;0.04236384;-0.056730613;0.025536647;-0.08123898;-0.19415906;-0.06751488;-0.08101574;-0.048829783;-0.081126705;0.18102929;-0.022707013;0.036916967;-0.07601883;-0.110533796;-0.03258084;0.013191851;-0.019508505;0.16188912;-0.10914797;-0.10443352;-0.049022663;-0.030002007;0.05915579;-0.01629502;-0.11005805;-0.026130758;-0.08186211;-0.0060996334;0.06712324;0.078845754;0.11946619;0.060375083;-0.008412529;-0.11087048;-0.022273034;0.032913946;0.088838324;-0.054259427;0.0032087057;0.08069291;0.045397256;0.03237073;-0.08548727;0.010434506;0.07644126;-0.020330343;-0.10994762;0.002412897;-0.16912241;-0.039823174;0.01693034;-0.031050548;0.04412267;0.026524413;-0.07354642;-0.0015357375;-0.046480663;0.013205317;0.030906131;-0.089377426;-0.1625806;-0.03235571;0.1477022;0.06695909;-0.0073148175;0.04357578;0.02930253;-0.088718235;0.024081072;0.0028433024;-0.146679;0.07851952;0.18448919;-0.03895187;-0.10936892;-0.054818187;0.009913663;-0.056863092;0.0701213;0.08910155;0.3342475;-0.057369716;-0.008755018;-0.123492554;-0.06546957;0.010494671;-0.038344555;-0.017424183;-0.03928322;0.024802513;-0.05425836;-0.06820011;0.16769402;-0.043458324;-0.04616304;0.05847861;0.18910283;0.040307928;-0.08864328;-0.13970129;-0.04910355;0.015342349;0.04637136;0.004565071;0.10187007;-0.012077057;0.06798258;0.0093866335;0.043602414;-0.29811913;-0.06437019;0.05633771;-0.047687527;0.09709595;-0.06939242;0.042139746;0.043185975;-0.084944226;-0.06993054;0.054314576;-0.033355065;-0.0647012;0.05871339;-0.036915217;-0.026234696;-0.043767814;-0.043485306;0.073656715;0.18860084;0.013239863;-0.010910217;0.06507074;-0.027627971;0.1304492;-0.092241995;-0.0067096623;-0.060810126;0.07066668;0.020733573;-0.035953697;0.08422268;-0.0010079849;-0.09550051;0.04240625;0.017602677;-0.012317122;0.10840562;-0.09673889;-0.048205536;0.015925657;0.04775037;-0.034391362;0.072193764;0.13700841;-0.013295119;-0.06800596;0.01261347;0.03738137;-0.1383966;0.003523365;0.009220458;-0.02954684;0.1045259;0.03603676;-0.074605405;-0.0038888634;-0.11133761;-0.07659593;-0.004412395;0.1451826;0.024515394;-0.0029942216;0.04679474;0.10466947;0.028470766;-0.028508788;-0.24700154;-0.211636;0.060236055;-0.02266605;-0.16540854;0.076724045;0.085525446;0.02272534;0.1219076;-0.17244239;0.018000156;0.077090934;0.0010028214;-0.021175649
-0.054470856;-0.03227514;-0.042450666;0.1161623;-0.05364065;0.034668762;-0.12913547;0.00021349816;-0.047578283;-0.012969836;-0.015204866;-0.058243874;-0.013551782;-0.0030942403;0.06144032;0.07990721;0.1682779;-0.0044835755;-0.043781914;-0.101856045;-0.07713101;-0.03565472;-0.061405327;0.035259243;0.014213675;0.17201987;-0.05353555;-0.024271261;0.08245112;-0.043210488;-0.005825881;-0.12025558;0.07049984;-0.30166614;-0.004631535;0.05281446;-0.22192231;-0.19570196;-0.044459093;0.017246734;-0.065362856;0.06159188;0.114908576;-0.051320054;0.09934599;-0.07018382;0.068934634;0.109822385;0.02677227;-0.06696451;0.03223946;-0.0587735;-0.009244796;0.027010305;0.057602502;0.0033865424;0.0020423117;-0.06556597;-0.039510474;0.023943204;0.14803483;-0.12276431;0.1285992;0.021525305;0.038004175;-0.07786908;-0.02547325;0.14270522;0.0318213;-0.04032257;0.0690204;0.23425668;0.019147271;0.12796625;-0.07559009;0.008757713;0.055561513;0.067401394;0.11895445;-0.023268279;0.002821542;0.05287832;0.058749136;0.08107075;-0.07946778;0.07025042;0.014912287;-0.006781447;0.018970875;-0.051859763;-0.078879066;-0.020742888;0.077484764;-0.1098378;0.004552189;0.02657425;-0.052549697;0.07156506;0.04684927;0.05646527;0.07402539;0.15711296;0.12963851;-0.11285734;-0.05706274;-0.1003875;0.05684491;0.023683414;-0.033513006;0.04129626;-0.22435936;-0.013620424;0.023293417;0.02857327;-0.045379553;-0.06946292;-0.21248691;-0.06378676;-0.04401493;0.07973142;-0.04105799;-0.03157533;0.08953691;-0.057203364;0.041948155;-0.030620584;-0.020064365;-0.022377748;-0.043009162;0.017506858;-0.008778965;0.0660676;-0.026330052;-0.019442393;0.06605495;-0.035978604;-0.016946524;0.06346855;0.16636415;-0.033749845;0.06519801;0.052222196;0.03927826;-0.004139766;-0.06277572;-0.067821;0.022897324;0.0032235414;0.0476849;0.06612295;0.061271597;0.08981019;0.0035992726;0.17695738;-0.196142;0.08736093;-0.033878144;-0.022105243;0.096727215;-0.024221908;-0.028831558;-0.0367983;0.040047523;0.012031458;0.026861228;0.050938454;0.027277756;0.014261589;-0.05915267;-0.05458118;-0.086205736;0.17949294;-0.053215683;-0.06621495;-0.03666317;0.01471325;0.09026697;0.017290588;0.109807536;-0.045436975;0.09202284;0.13433273;0.063927874;0.072634205;-0.12627664;0.039201077;-0.042306032;0.0074953623;0.009163984;0.10922488;-0.06629394;0.019595264;0.13294905;-0.013625412;-0.005629436;0.014664073;-0.18492846;-0.05535568;0.13700981;-0.03059087;-0.07441165;-0.047364406;0.040120114;-0.1467426;0.03958399;-0.08537019;0.10895562;0.04163651;0.06710045;0.01741339;0.023807282;0.01890219;0.05024511;-0.018508665;0.124069236;-0.11020226;0.0082594305;-0.10844409;0.0029149824;-0.076310985;-0.0072506936;0.1373532;-0.06664017;-0.04012092;0.04071127;0.07306499;0.091359526;0.18198709;-0.010451892;-0.16562681;-0.10870952;0.077381864;-0.064574845;-0.1416615;0.057078082;-0.03784017;0.01889242;-0.048406627;-0.00894944;-0.07297701;-0.025808364;0.1393231;-0.10309701;-0.107166134;-0.011247281;0.066283874;-0.06235177;-0.068898045;-0.011598939;-0.0661226;0.08498623;0.039437648;0.0051024766;0.0018716027;-0.072554156;-0.0801274;-0.09215487;-0.06412104;0.060453214;-0.031618867;-0.0119891865;0.06532508;0.12067744;0.0073540076;0.021962686;0.014391172;-0.015222946;0.044489417;0.023609038;-0.020539053;-0.12154695;-0.06366767;0.0031037417;-0.08084101;0.05790436;-0.07723373;-0.07799093;0.066785775;0.009118474;0.014913688;-0.07853191;-0.07648513;-0.020556;0.09441028;0.01788731;-7.3457384e-05;0.0741316;-0.08435685;-0.05668701;0.052901786;0.013153727;0.076944396;-0.08521148;0.018509395;-0.041809972;0.043382127;0.166692;-0.037489466;0.06073637;-0.13285297;-0.06717632;-0.018961852;0.094651036;0.07819176;0.053278923;0.009808053;-0.039073046;-0.018799216;-0.010710035;0.034719925;-0.033206206;0.07737767;-0.05013706;-0.14072904;-0.01945247;0.02949187;-0.12220185;0.032267295;-0.0368183;-0.13587463;-0.0023780542;-0.08367626;-0.005479274;0.049873665;0.04562704;-0.073257014;0.08344209;0.26542035;-0.045841627;-0.09087054;-0.010028393;-0.09493129;0.04682661;0.20306553;0.11217602;0.066851996;-0.06546626;-0.09951565;-0.13204919;0.06881677;0.08213322;0.048992157;0.07627091;0.07412719;0.02836312;0.0635066;0.031102225;0.014544356;0.07058748;0.099320635;-0.18335101;-0.051587965;-0.03923027;0.12722643;-0.013515311;0.044352558;0.038643602;-0.023616428;-0.10073429;-0.023171553;0.010240083;0.11194799;-0.08902794;-0.044816054;0.028934423;-0.0015418999;0.09166018;0.037488855;-0.017718015;0.04164634;-0.027795337;-0.03406452;0.012236918;-0.09135308;0.0154371355;0.00979043;0.05553492;-0.08760738;-0.038740225;0.013483348;0.043684524;0.0866265;-0.088417865;0.041785434;0.019354975;0.022175783;0.07485891;0.039872598;0.026579183;0.02395798;0.050976083;0.013888784;-0.047923174;-0.07667144;0.02863178;0.13113451;0.09113919;-0.010096681;0.0038045775;-0.02837886;-0.06252671;-0.03589701;-0.0023020403;0.022818584;-0.15278342;0.046513934;0.037680116;-0.07897193;0.0077920444;-0.031089693;0.12654868;-0.044799533;-0.13306582;-0.06752729;-0.13199022;0.052759428;0.16407026;0.04971359;0.06819027;0.010118065;0.040678203;0.038375244;0.066685885;0.04466797;0.041909862;0.049345665;0.062156804;-0.027387038;0.074413456;-0.21640266;0.04909433;0.03143293;0.047572292;0.025567332;0.06676656;-0.073436365;0.039840717;-0.030152056;0.07124575;0.052282307;-0.08152881;-0.08988391;-0.017244363;0.030715708;-0.035604894;-0.14111108;-0.08400165;0.022287205;0.1962129;-0.066508785;-0.05155866;-0.016335988;0.0015411763;-0.05743644;0.001259318;0.07095745;-0.014091708;-0.055321608;0.18393448;0.056510486;-0.10098061;-0.0026297881;-0.0029769852;-0.028919986;0.01725454;0.06865433;0.17270386;-0.09372098;0.051257916;0.06580714;0.031512182;-0.01623432;-0.036100954;0.0379968;0.08958088;-0.029784352;0.06601243;-0.0030082795;-0.036088545;-0.049442824;-0.0001425882;-0.005237645;0.23778377;0.015823826;-0.0072385566;0.17683436;0.038001172;-0.0189907;-0.020967208;0.073200405;0.005597394;-0.057736613;-0.0105188545;-0.004245985;-0.061060783;-0.22531104;0.02869789;0.039020535;-0.0047709756;0.007488536;0.055516005;0.053148437;-0.20625046;0.024616526;-0.025564408;0.061316703;-0.062090833;0.012638965;0.14473319;0.04316663;-0.018209418;0.08295608;-0.08444947;-0.09077205;-0.024227185;0.014698441;-0.06572246;0.039032105;0.004093804;0.03762121;-0.08287564;-0.065665804;0.07026849;0.010594325;0.028120406;0.06930258;-0.008842741;0.0686984;0.057309043;0.07620017;0.037899688;-0.013078827;0.16697347;-0.08783085;-0.039754447;0.045241147;0.055402067;0.06417686;0.058174033;-0.043664653;0.011188347;0.055229295;0.020462839;-0.03948907;-0.029062109;0.028197652;0.0009398557;0.0020138517;-0.021901792;-0.045318928;0.01469125;0.07812769;-0.036618408;0.098905735;0.004423678;0.13525778;0.009597225;0.028169995;-0.049817998;0.12597619;-0.052932393;0.06570639;-0.08105513;-0.08012631;0.010206857;0.0056767617;-0.25606877;0.12783642;0.036781996;0.013917185;0.08471071;-0.22680292;-0.0748079;0.051985018;0.035357002;0.059749752
0.022901926;-0.024155363;-0.0490221;-0.020478303;-0.009463694;0.02076638;0.0119576845;0.057416882;-0.20549083;0.016495846;0.046663314;-0.032680143;-0.022122912;0.0038866075;0.06720228;0.08895096;0.06972297;0.10212689;-0.01319604;0.021232042;0.02008605;0.03726236;0.11207105;-0.07037173;0.018650755;0.06739304;-0.033279702;0.049833924;0.19122508;0.083010204;-0.057619985;-0.10396892;-0.0468341;-0.17449649;0.00503413;0.039615076;-0.13972874;-0.09815966;0.05140799;0.07581732;-0.064731985;0.057612225;0.044320352;-0.004482654;0.050572935;0.008550807;-0.024624452;0.12539689;-0.013509119;-0.109058335;0.10447381;-0.0010934087;0.0107394885;0.10084326;-0.096691415;-0.0017900212;-0.06923185;-0.0043879207;-0.065991685;-0.049727567;0.112356104;0.015902907;0.056929603;-0.022391763;-0.07132574;-0.009948501;-0.024297208;0.03126347;0.07177672;0.040190082;0.07694239;0.05232542;0.0006076324;0.026416637;-0.07252072;-0.09753746;-0.059994962;0.10204753;0.18153179;0.0051756944;0.042979002;0.0076143667;0.0871403;0.076918624;-0.07177481;0.11664838;-0.025908055;-0.020649437;-0.00012368275;-0.06542738;0.02824944;0.0042998353;-0.006836807;0.10985623;0.009716299;0.015895879;-0.033807103;-0.04218216;0.084214486;-0.047059994;0.05477063;0.044387504;0.0347968;0.047933653;0.03222381;0.043714765;-0.016635943;0.07286399;0.08592397;-0.03981126;-0.14025405;0.08066825;0.10640384;0.107918985;-0.100931905;-0.0326902;-0.115536496;0.0021345683;0.044320874;0.07747387;-0.07065518;0.059614047;-0.0070884577;-0.07268453;-0.03855126;0.026606154;0.09751767;-0.099071585;0.06369674;-0.05210518;0.08507049;-0.008378892;-0.16017571;-0.12588993;0.16831508;-0.04146839;0.028468557;0.03298737;0.22675118;-0.038597874;0.048242074;-0.08676169;-0.026848359;0.029482592;-0.06782166;-0.09357912;-0.054103553;0.0031705105;0.021042679;0.027421314;0.015417292;-0.06008485;0.049219597;-0.015106068;-0.09078843;0.061113518;-0.15000963;-0.005091796;0.07105093;0.06448754;-0.0094266385;-0.09566842;-0.0751461;0.047403164;0.01349049;0.036367066;0.049930133;0.123306096;-0.1040871;0.05586428;0.044212334;0.101541154;-0.05147227;0.028597293;-0.04079877;0.034041077;-0.086623885;-0.019081416;0.0015821685;-0.021949109;-0.0684901;0.05892752;-0.051335264;-0.0046503483;-0.026399257;-0.08913172;-0.077835225;-0.17249252;-0.16048744;0.03678468;0.09102368;0.064272426;0.0019497712;0.029369658;0.11395957;-0.03740639;-0.19051453;-0.1167862;0.084719196;-0.028150316;0.00029951657;-0.20353812;0.03186288;-0.051007725;-0.08251458;-0.02086755;0.1324187;0.09991729;0.003709208;0.022896886;-0.24054474;0.057624843;-0.0026999852;-0.07662887;-0.029610218;-0.009240328;-0.066178955;0.04383949;-0.014460143;-0.08326111;0.051357903;-0.022134783;0.039363097;-0.027995307;-0.016599143;0.062221102;0.17619163;0.14280792;0.023085106;-0.07430026;0.06736891;0.12455798;0.13167085;-0.13818173;-0.0369542;-0.017307723;0.005970793;0.012383944;0.030246679;0.030443382;0.025423754;0.05871193;-0.03390203;-0.04979736;0.0028751597;0.06738772;-0.09278068;-0.1801575;0.10182623;-0.017160907;0.006101967;0.06507284;0.1384706;0.022613836;-0.004953341;-0.034011923;-0.018344762;0.045040924;0.05533065;0.033244696;0.059852555;0.011213838;0.086665526;2.1421249e-05;0.0787014;0.0036207607;0.016105046;0.010966223;0.016950749;-0.003928092;-0.06383114;-0.22525339;-0.043024432;-0.04932129;0.05000878;-0.07471225;-0.05108949;0.08975476;-0.018310264;0.080836944;-0.09205535;0.032881185;0.053030454;-0.16093278;0.031113794;0.018444913;-0.028026508;-0.035048887;0.030489702;-0.06549189;0.13601004;0.0489916;0.009926097;0.016331244;0.02749078;0.18772052;0.066078715;-0.12775345;-0.043045152;0.027035028;-0.052874897;-0.049708687;-0.019702993;0.020408895;0.030318886;0.07565529;-0.06572263;0.08886963;-0.08445391;0.06524609;-0.08427916;-0.0966658;0.062083643;0.0109368935;-0.025293713;0.006209249;-0.12962757;-0.06810133;0.077175744;0.035585202;-0.07851886;-0.029957741;0.044665128;-0.07667859;-0.08176932;-0.046577763;0.053761236;0.11051917;-0.0562867;0.061009284;0.13438146;-0.030298194;0.009899338;0.08590355;0.16145544;0.059996046;-0.06449179;0.017595392;-0.18174921;0.07658093;0.055843916;0.0053115063;0.0097105205;-0.02897458;-0.061573744;0.06357135;-0.019997308;-0.010979219;-0.07019234;-0.06903867;-0.14756933;0.14651111;-0.09758188;0.1767701;0.097861886;-0.013342852;-0.003138245;0.030566793;0.078290045;0.049813285;-0.076801516;0.14645512;0.09950543;-0.13863042;-0.014171124;-0.07644779;0.029930659;0.032952067;0.04129083;0.057386354;-0.056665584;0.00445069;0.032092374;0.015904251;-0.04976047;0.06596977;0.114641175;0.12009192;-0.03442433;-0.047073793;-0.066041656;0.12913299;-0.13380727;0.053411677;-0.004580826;-0.050079424;0.05285817;-0.02453135;0.043718137;-0.08431403;0.19206357;-0.07392043;0.036195893;-0.08796181;-0.024815682;-0.009323686;0.03768699;0.054979376;0.09443408;0.13846807;0.117550395;-0.055819977;-0.055369843;-0.03329336;0.00948604;0.13308093;0.12539849;0.1428748;0.035087306;0.056401707;0.11840041;-0.07746581;0.0137136625;-0.015726464;-0.11287992;0.042711332;-0.029004078;0.098637804;-0.027702425;-0.014363242;0.01874867;-0.041316394;0.021238128;-0.044186376;0.03824975;-0.09515141;-0.10533447;0.09493966;0.051782303;-0.14967708;-0.040754758;0.056896634;0.09429861;0.044694923;0.20016186;-0.050160542;-0.009266935;-0.030465186;0.09484775;-0.02486799;-0.11103135;0.021493807;-0.028045744;0.10048736;-0.073182456;-0.01312186;-0.1067164;-0.07283253;0.05650209;0.06380148;0.03829829;0.052179746;-0.020457586;0.15792142;-0.076712444;0.029101204;-0.05621439;-0.04535075;0.047740385;-0.042558074;-0.063187025;0.017834174;0.090988964;-0.043143127;-0.06452929;-0.010317474;0.13785623;0.06863187;0.066663414;0.06127549;-0.014605985;-0.23895885;-0.059106737;0.09088939;0.018252123;-0.026175914;-0.034097627;-0.04455878;0.014098986;-0.05615209;-0.021745045;-0.013095658;-0.006440028;-0.25475264;-0.0106752;0.23306426;0.07430015;0.070396535;-0.021285674;-0.05740619;-0.056403127;0.011809698;-0.075371586;0.050793223;-0.026472457;-0.10769432;0.083538294;-0.07468083;-0.0062973797;0.07570202;0.087609;-0.10303296;-0.14353487;0.123398185;-0.050117984;-0.05020593;0.02908851;0.032725565;-0.029484814;-0.06209683;0.013285993;-0.045156393;-0.024959251;0.038597118;0.03280684;-0.03834013;0.09137848;-0.044990078;-0.03258569;0.080051355;0.044664603;-0.051324476;-0.0004858581;0.14611246;-0.10363736;-0.041283622;0.068085305;0.0033091777;-0.0065129963;0.025066912;0.05551386;-0.06690294;-0.08161562;-0.03507803;0.016722623;-0.004287287;0.03269713;0.045192465;0.07062602;0.043205913;-0.03742289;0.05218951;0.023104146;-0.036119245;0.0015991448;-0.046958074;0.05936501;-0.026358798;-0.019553542;-0.030116942;-0.021610308;-0.044524226;0.03333115;-0.002255454;0.065617345;-0.05718075;0.017165037;0.0041009355;-0.08622576;-0.0061641233;0.041946616;0.03501448;-0.03319565;-0.1272648;-0.05508204;-0.06877554;-0.26846033;-0.0076716836;-0.0456326;0.08394614;-0.03917873;-0.10139073;-0.12415263;-0.0013853458;0.059731107;-0.092933595
0.09064938;-0.07889494;0.019822039;-0.024417365;0.08676384;-0.03260787;0.077965684;0.051241517;-0.20777315;-0.093978286;0.019617015;-0.05254261;-0.028681608;0.07919249;-0.021569638;-0.01237971;0.049333632;-0.0057499562;-0.052014742;0.034779064;-0.052223604;-0.007874442;-0.05939539;0.01822959;0.09539379;-0.053559355;-0.023534225;0.07044736;0.24798322;0.065025985;-0.090411864;-0.012037231;-0.015497388;-0.060285106;0.049423266;0.035381377;-0.17363167;0.0147817535;-0.07857213;-0.019130263;0.0720897;0.070957534;0.044109672;-0.044635404;0.011314017;-0.006620066;0.021920674;0.06681723;0.012073702;0.0011392372;0.004884486;-0.02867462;-0.068148606;-0.021153713;-0.04436404;-0.07914655;-0.05077722;0.064387046;0.093821056;0.06620541;0.11695362;0.062540054;0.101260185;-0.12824532;0.01663633;0.08475962;0.054461226;-0.07616024;-0.04896209;-0.02619357;0.011115899;-0.076035276;0.035721164;0.06818183;-0.106072664;-0.03880305;0.0027122747;0.016870718;-0.054708622;-0.009600875;-0.067862526;-0.048642084;0.20765889;-0.053602215;-0.00012190062;-0.06885942;0.09283202;0.017661395;-0.07435983;0.09090128;0.009241018;-0.05792428;-0.04517212;0.04860126;0.013178833;0.044219874;0.052463267;0.023882007;0.057192206;-0.075752296;0.06816589;0.060586747;0.13737331;0.046166167;0.049497157;-0.14497107;0.0055627744;-0.08190513;0.08868179;0.01861901;-0.08440833;0.081449255;0.031100918;0.14311746;0.09086708;0.028816614;-0.036098376;-0.006196966;0.074742116;0.0656724;-0.19274782;-0.023857258;-0.07271073;0.054343134;-0.046398867;0.05705967;0.057021823;0.0023008978;0.017211787;-0.042144433;-0.0013895292;0.027412161;-0.07620344;-0.03454501;0.06097151;0.0010063994;0.028395172;-0.010638523;0.12415636;0.018370664;0.18984134;0.03025142;0.014396829;-0.040651754;-0.045738406;-0.09921403;0.019218761;-0.05823664;0.014494319;-0.0730992;-0.021297794;-0.0031543816;0.07870857;-0.123582;0.11277517;-0.09321082;-0.090496816;-0.02621961;-0.03391187;-0.016052455;-0.02168929;-0.10273813;-0.293278;-0.048626885;0.021011252;0.011387586;-0.013704902;-0.037351772;-0.07000347;-0.07589094;0.0635715;-0.069568604;0.027990725;0.054489642;-0.012746616;0.019075055;0.051870152;0.04732713;-0.27900994;0.029003171;-0.045612656;0.10404806;0.13458683;-0.08144141;-0.018927626;0.06649541;0.08371235;-0.031430498;-0.19590421;0.013954105;0.11382461;-0.07715328;-0.23195392;0.046117388;0.0015791359;0.036527436;-0.23147999;-0.08867008;0.081989065;0.009742523;-0.00059033674;0.050912037;0.010311457;0.07361409;-0.039328903;-0.017047405;-0.014297676;-0.120809;-0.0052520507;0.015947191;-0.20853083;-0.028900726;-0.051999886;0.009466988;0.16317385;-0.15652266;0.027162775;0.060294855;-0.010478356;0.015134153;0.03262437;0.06009141;0.07994033;0.0031701904;0.03696468;0.10190696;0.15015733;0.04211617;-0.092642866;0.039182905;-0.06213429;0.030289313;0.12545246;-0.09632337;0.0360017;0.028782858;0.014643518;-0.052037355;0.05345797;0.061846524;0.022425111;0.091925696;0.117565766;0.04874247;-0.08551056;-0.01377206;0.029063541;-0.14590621;0.06989177;-0.099490285;0.053463776;0.023326073;0.11993976;0.0040824558;-0.0681421;0.041765053;-0.03394818;-0.00224659;-0.04885622;-0.016092518;0.0557417;0.019951517;-0.03591284;0.026217988;0.08419452;0.008857639;0.040870547;-0.022210494;-0.06477404;-0.0377813;-0.19055195;0.010647189;0.025752556;-0.098867185;0.15342805;0.08298108;0.20050155;0.12111132;0.0833063;-0.03774514;-0.014334967;0.015568323;0.011483814;-0.13614061;-0.05281258;-0.021322533;0.008797034;-0.044331733;0.031208642;-0.027933957;-0.061542973;-0.051804915;-0.06778573;-0.034979127;-0.03756363;0.1446419;0.11250157;-0.046137176;0.032719802;-0.0664734;-0.008877433;-0.055410784;0.004218778;-0.14096479;-0.053835887;0.09307577;-0.015214278;0.08282282;0.1307332;0.0147664035;-0.03384699;-0.086970404;0.02235106;0.09441315;-0.06738517;0.0059098983;-0.09288791;-0.02855516;-0.053435747;0.08944463;-0.033949498;0.012280895;-0.064392805;-0.009765969;-0.06302709;0.10192606;-0.024437206;0.013341365;-0.02335473;0.04209405;-0.024950646;0.06213129;-0.03958111;-0.00067335524;0.22438803;0.06452916;0.06186991;0.060698226;0.13665903;0.034924775;0.07427885;-0.13341983;0.042219236;0.070641585;-0.0065395283;-0.012214375;-0.020877246;0.04100615;0.010651242;0.021550292;0.13154772;0.11306465;-0.07131963;-0.052278824;-0.029941201;0.1015607;0.06660462;-0.04129872;0.00057376665;0.06587823;0.047525056;0.14228542;0.0012347348;-0.25149816;0.045720153;-0.06853559;0.014850311;-0.028736817;0.03870626;-0.0035548254;-0.027829766;-0.01896303;-0.053172547;0.011667033;0.079658374;0.05408776;-0.21676785;0.1503607;0.07049023;0.043083653;-0.076992854;0.073394716;-0.014120983;-0.06651252;-0.008626646;-0.08112651;-0.025315167;0.031393465;0.05138818;0.009763303;0.13399094;0.019338744;-0.02566392;0.013287579;0.022352312;-0.06943436;-0.0855484;0.011762142;-0.07932073;0.13257398;-0.011344751;-0.053562794;-0.064519644;0.015095233;-0.0062744925;0.15655375;0.15710567;0.18645456;-0.045608453;0.07489893;-0.007675832;0.038996138;-0.013014896;0.02150577;0.12491528;-0.08263939;0.056902435;-0.0195871;0.023777459;-0.060523253;0.10567853;-0.12021856;-0.11217755;-0.009891259;0.03815732;0.031795084;-0.24331631;0.06620579;0.092729405;-0.1715807;0.019951148;0.058176354;0.13872403;0.017181735;0.10545505;0.037453853;0.054237116;-0.068503276;-0.036135145;0.012288963;0.08144234;-0.02902508;0.07637866;0.034864336;-0.08451569;0.06365994;-0.01665735;-0.02398127;0.031532522;0.046735294;-0.08079702;-0.065018736;-0.09143425;0.14665136;-0.10682054;0.07152526;0.029984169;0.04970234;0.17400965;-0.09615252;0.023378026;0.014429017;0.09194241;-0.017574977;-0.023963472;0.021566473;0.083834365;0.07999413;0.085810274;-0.028722988;-0.040318627;-0.037177473;0.04328042;-0.07080211;-0.033320278;0.016415438;0.05401271;-0.044838525;-0.0039408654;0.07794728;0.03664458;0.05485696;-0.14256221;-0.0067258095;0.104205735;0.090371236;-0.03747169;-0.029129544;-0.04173306;0.00077625376;-0.011806439;-0.048036676;-0.035721757;-0.050413914;0.010752147;-0.15751284;-0.040605817;0.036492407;-0.0010856685;-0.033855904;0.09557429;-0.21849816;-0.04031128;0.06460979;0.018701028;-0.060686428;-0.017499253;-0.060690083;-0.029114483;0.06088056;0.051967394;0.08339356;0.06161986;0.03352023;0.14983195;-0.06616943;-0.02506876;-0.052025896;-0.07658528;0.014614854;-0.030556241;-0.10137449;-0.017955245;0.15521103;0.0630536;-0.016701771;-0.039059244;-0.10660766;0.052310538;0.0073399898;-0.014058399;-0.055578146;0.17578925;0.013982779;0.063711286;0.06052364;-0.08572819;-0.022259027;0.12028913;0.10062472;-0.11042954;-0.049261454;-0.030091848;-0.06253984;0.06725605;-0.03152026;-0.09118732;-0.010957482;-0.06043102;-0.017729463;0.11581529;0.014951574;-0.030709274;0.043960325;0.00081405125;-0.19510578;0.07793677;0.0053574643;-0.18384506;-0.21192637;-0.019425295;-0.09260563;-0.10917524;-0.23439258;0.056204896;0.05726907;-0.14920783;0.11235143;-0.09694111;-0.016939757;0.13149105;-0.14390415;0.12978648;-0.048425984;0.047352135;-0.04833825
-0.05794462;0.037709128;-0.0065562003;-0.22148876;0.07879641;-0.04408961;0.030879855;-0.061572168;0.027111394;0.0094801765;0.033357322;-0.091941655;-0.03434705;0.084752865;-0.071952686;-0.0050141322;0.013794406;-0.09631076;-0.021814818;0.05760659;0.06728011;0.039141487;-0.08463916;-0.02567397;-0.003858863;-0.123357974;-0.08457754;0.04485591;0.26252496;-0.046288703;0.027097344;0.038426004;0.08522801;-0.05070021;0.06164802;-0.041372936;-0.09267574;-0.023746476;-0.039926205;-0.11074902;0.012930901;0.10152407;-0.06743334;-0.05114673;0.115803294;0.039317057;-0.09160338;0.030395782;-0.09810975;0.051988162;0.02182298;-0.004571703;0.032574598;0.12079844;-0.0885658;-0.03885625;0.048081443;-0.017513646;0.07108035;-0.003473587;0.14944518;0.059418194;0.011198048;-0.05250919;-0.061516248;0.014599386;0.05291982;-0.045416933;-0.0049821376;-0.10496428;0.05502866;-0.18410116;-0.052216616;0.019768173;0.18435927;-0.047241725;0.022228455;0.038011696;0.09649671;-0.10353791;-0.09821554;-0.02785988;0.015168682;-0.17657867;-0.059603896;-0.038924832;-0.025820404;-0.092535354;0.0004843338;-0.05132687;-0.010348858;-0.024187244;-0.045995027;0.012175089;0.08894533;-0.04461974;0.02741313;-0.012115753;-0.03372519;0.042906262;-0.031572998;-0.13638407;0.037761305;0.10679912;1.157969e-05;-0.21560456;0.009444488;0.040469512;0.0014593616;-0.09600831;-0.033604473;0.019240057;-0.004895393;0.18831544;0.04407606;-0.08401269;-0.09695885;-0.1084817;0.043804895;0.2876674;-0.09552104;0.038512744;0.06535815;0.047002867;-0.038248003;-0.05026048;0.013969206;-0.077309884;-0.008280732;-0.0417148;0.057205707;0.045066323;0.094062015;-0.026834067;0.13080452;0.02533615;0.021225039;-0.1077355;0.14522225;-0.008952484;0.0040019196;0.051417723;-0.10638457;-0.09561264;0.086051844;0.026761634;-0.24503773;0.013317734;0.07595883;-0.10126044;0.045306474;-0.041592833;-0.07193333;-0.1619371;0.047239956;-0.13069738;-0.18408358;0.0824462;-0.0021406116;-0.019252831;0.0074543883;0.017793348;-0.19154787;-0.013383882;0.006074992;-0.018526318;0.026004886;0.00068012666;-0.14823312;-0.0071634995;0.026893156;-0.10313091;-0.11010562;0.08832361;0.058440987;0.036586344;-0.076265275;0.093245946;-0.19863203;-0.07937756;0.06707461;-0.06243752;-0.07226154;-0.047606397;-0.058359638;0.05782549;0.081789844;-0.025824606;-0.029556802;0.01675221;-0.11868849;0.044127423;-0.18964593;0.055391;0.061647635;0.047625516;-0.14653146;-0.004988147;-0.085743636;0.05509072;0.015243304;-0.05303361;-0.043925643;-0.04181705;0.07607786;0.0125806555;0.09661489;-0.039258663;0.07462776;-0.038234763;-0.24647924;0.044457342;-0.054565106;-0.0482511;0.0153395105;-0.02215139;0.026902277;0.05307716;-0.033528063;0.0059087584;-0.08668012;0.07287801;-0.013690425;0.0761986;0.07382579;0.047367025;0.18804167;0.0800753;0.13471188;0.012650661;0.030671392;0.12428541;0.06432316;-0.0740501;-0.034312237;-0.045214158;0.01122234;0.04650535;-0.014790546;0.06904658;0.00066055625;-0.011866213;0.0676394;0.066285744;-0.071588874;0.04379339;0.054077882;-0.077540465;0.14932546;-0.055738956;0.04630049;-0.042521894;0.1037208;0.21719453;-0.057521794;-0.024117684;-0.25824797;0.06634946;-0.060933746;0.008266664;0.006427543;-0.054931134;0.01535774;0.07521153;0.03407591;-0.030117216;-0.088101976;0.11881593;0.039833337;0.02338339;-0.0051598703;0.032158457;-0.052580923;0.015746161;0.021456165;-0.02271458;0.15877295;0.112600826;0.021312183;0.05710963;-0.15479738;0.061220016;0.04045346;-0.18409951;0.08209693;-0.010102155;-0.05289504;0.09665512;0.026080227;-0.09596171;-0.04847547;-0.06021715;3.957998e-05;-0.014629321;0.053493045;0.083499014;-0.033671815;-0.0010514364;0.06238048;-0.054662146;-0.0006887916;0.0410991;-0.062036324;-0.21708961;-0.084882736;-0.0019004444;0.037100364;-0.04905473;0.10809661;-0.12481554;-0.10898147;-0.07752457;-0.06608052;0.12827297;0.059690706;0.08172858;-0.24662702;-0.17448011;-0.068383746;0.21211396;-0.033640407;-0.029189244;-0.0904637;-0.034667388;-0.066674426;0.030969003;0.052446887;0.0816216;0.0032161202;-0.040954772;-0.04982605;-0.064028114;0.09548065;0.12083564;-0.027705701;-0.018124033;0.063823566;-0.05609371;-0.041133188;-0.13560207;0.074949056;0.006748613;-0.10696982;-0.07617808;-0.08380936;0.122077405;0.0059740394;0.05616415;0.059684224;0.074333295;-0.027010703;0.16084737;0.03627554;-0.06821615;-0.16734211;-0.05403927;0.019071205;-0.023503333;0.0020267402;0.09165518;0.010796725;0.11797576;0.0066999816;-0.070168406;0.058386408;-0.048604596;0.10473013;-0.066981755;-0.059455864;-0.0012494563;-0.030571079;0.059873216;0.08174851;0.088219866;-0.10500432;-0.06046849;-0.20468175;0.31533852;-0.0074161794;0.018063992;0.025561538;0.0033084222;0.03757325;0.07922652;0.07215493;-0.0483317;-0.05120314;-0.0123657035;-0.054279003;0.002244939;0.0992736;0.06584528;0.102614574;0.004536544;-0.090987355;-0.015804816;-0.07713052;0.04968465;0.080507405;-0.024543308;-0.036338113;-0.022996549;0.11014287;0.0010145057;-0.024922045;0.18212324;0.19089824;0.04079098;-0.004203251;0.10799269;0.16753238;0.025113903;-0.19656602;-0.0057154787;0.025264068;0.06643949;0.021081438;0.007341384;-0.030560317;0.054557636;0.018076405;-0.045614462;-0.009429495;-0.05463122;0.058210965;-0.10356917;-0.22079313;0.06797007;0.07346691;-0.20752077;-0.10464979;-0.009095537;-0.062543616;0.04403405;0.25595;-0.03881511;0.076378234;-0.0011435574;-0.004440177;-0.029887602;0.06868196;-0.049423873;0.039113484;0.03376002;-0.04915034;0.09083061;0.08172142;-0.0016673094;0.007683412;0.02733688;-0.03498416;-0.08386955;-0.07487273;0.1843718;-0.03260451;0.016129212;0.05926935;0.087485336;-0.013476863;0.04482809;0.043374203;0.010605129;0.023270177;0.058353428;-0.034620527;-0.09071782;0.15069684;0.029083233;-0.06390569;0.046247177;0.04222469;-0.018685421;0.04049175;-0.038004562;0.060909707;0.00487725;0.00846285;-0.08745964;0.04029149;-0.03206181;0.002169879;0.037629213;-0.18781732;-0.15191099;0.04910417;0.1723419;-0.04517014;-0.0041246396;0.02368452;0.007024517;0.04577957;0.060408793;0.047747724;-0.049226735;0.05033596;-0.14280619;-0.060700916;0.061489224;0.08173229;0.0025677131;0.036851205;-0.16428256;-0.0007705072;0.030224627;-0.058002833;0.027461212;0.0030339507;-0.032301255;-0.064722784;0.000682614;0.011514972;-0.004946437;0.07104138;-0.06429786;0.07397428;0.03955442;0.11327766;0.066112965;0.03495445;-0.0029576484;0.0660535;-0.028613614;0.020619975;0.13093522;0.008561451;0.076297864;-0.021337964;-0.087170325;0.04169163;-0.02508934;-0.0444159;-0.013726409;-0.0086486135;0.057815414;0.0099208485;-0.06687491;0.022303708;-0.011066042;-0.10298144;0.044267133;-0.09804229;0.012487827;0.0013648579;0.02847047;-0.015422448;-0.04022944;-0.10647512;0.055707898;-0.031528756;-0.021796782;0.011952787;-0.21744727;-0.047982316;-0.07829496;-0.045560602;0.06217192;0.003526378;-0.005756472;-0.22100303;-0.11549598;-0.12739731;0.04428044;-0.08892227;-0.1432254;-0.04119726;0.060693797;-0.1232752;-0.02835344;-0.056203667;-0.02442698;-0.106127284;-0.07091336;0.118425034;0.08210243;0.07355957;0.012365089
-0.09453578;-0.107790224;0.021298913;-0.13837336;-0.02016498;-0.06434633;-0.4489929;0.031455666;0.13601446;0.009896676;-0.0033798148;0.081274725;-0.008334659;0.011732404;-0.0353238;-0.0023373452;-0.033539377;-0.08531333;0.05215426;-0.16374402;-0.052403018;-0.0031051403;-0.0954885;0.0077902046;-0.07698476;0.025108024;-0.0187186;0.014192222;-0.124239765;-0.048749212;0.004311694;-0.02258781;0.00034355023;-0.31481355;0.042031;-0.072521225;-0.08392427;0.0142428;-0.0040801885;-0.030868422;0.08270204;-0.09776918;-0.122723535;0.0106068775;-0.1034737;0.07699743;0.06643949;0.10383975;0.041513972;-0.017476048;0.17026895;-0.0061848327;-0.054503415;-0.03469842;-0.048645526;0.029816339;-0.07593397;0.0012951455;-0.023671942;-0.02012841;-0.08285534;-0.12952584;0.15490352;0.1086223;-0.06275375;-0.08481835;0.052459016;-0.04665585;0.014239813;-0.00902743;-0.0471407;0.08821397;0.07280368;-0.18636572;0.19444433;0.068674766;-0.046697266;0.11175437;0.22930475;-0.007734485;-0.036277834;0.008305944;0.024707943;0.016357182;0.053852335;0.025474774;0.10388594;-0.06762532;0.066735;0.018779099;-0.047185704;-0.05534167;0.02335899;-0.014399645;-0.059478566;-0.06667764;0.09652744;-0.013782287;0.03576738;0.008140764;-0.076727614;-0.0031606026;-0.11212104;-0.04316146;0.04962774;-0.33965358;0.030073382;0.044675507;0.016084775;-0.032031957;-0.014349741;-0.10465224;0.09365066;-0.062297925;0.0060272687;0.03355319;0.034242798;0.029698582;-0.0070988173;0.1845229;-0.087360464;0.026568297;0.037419163;-0.10201525;-0.06408807;0.013931105;0.016165314;0.07433708;0.059322346;0.024147164;0.034113783;-0.04627778;0.19040057;0.10177998;-0.08630511;0.050738577;-0.04601776;-0.12687857;0.21693867;-0.14981237;-0.3365047;0.077801235;0.07161114;-0.010818577;0.062114794;-0.1088469;-0.17581683;-0.047841597;0.060700987;0.010151131;-0.105052605;-0.04163829;0.02867032;-0.09734984;0.031243373;-0.18758169;-0.30987778;-0.14981236;-0.038411908;-0.008104067;-0.06396313;0.05454262;-0.22040725;0.029475952;-0.039241876;-0.007103655;-0.023940824;0.027582597;0.030416109;0.010614933;-0.0061387536;-0.06638806;-0.03579464;-0.06385928;0.04261348;-0.058943994;0.047887035;-0.08710626;0.15829352;0.032013703;0.11472817;-0.10467509;-0.025721554;0.039613567;-0.09676095;-0.05248889;-0.08554526;-0.22587992;0.01354343;0.04576548;-0.03918682;0.027989909;0.15523432;-0.067406654;-0.023810988;-0.030222477;-0.16132809;-0.24902539;-0.14145981;0.048070807;-0.03388295;0.02817944;-0.09006873;-0.013936634;0.10157179;0.1140008;-0.0792877;-0.09650583;0.034269594;0.0691806;-0.20821288;0.0012077517;0.02938435;0.17088735;0.00047302875;0.056157984;0.05132473;-0.018489383;-0.03617135;-0.12899591;-0.06334015;0.08284851;0.06840335;-0.003278977;-0.019059142;-0.007295764;0.2166395;-0.043583423;-0.007264166;-0.032212153;-0.12674645;-0.07688149;-0.026386322;-0.05289865;-0.013556957;-0.09104475;-0.07251725;-0.0037792928;-0.07677534;-0.07804075;-0.03602737;0.13334785;0.05257862;0.017474802;0.059156995;0.09110224;-0.00090966414;-0.16668527;-0.21163988;0.0063821143;0.05827134;0.013043331;0.18229018;0.060246505;0.013610265;0.023175152;-0.13468295;0.062823586;-0.040499423;-0.047528014;-0.073528074;-0.009700329;-0.1314415;-0.05435869;-0.031167572;0.020862672;-0.009967988;0.06334901;-0.024137218;-0.04099459;-0.2277073;-0.03352622;-0.009617169;0.0016710878;-0.16716906;0.021146957;0.03558763;-0.033982743;-0.023458658;-0.010868117;0.18468934;-0.095703505;0.014338269;0.08269734;0.044400338;-0.09513405;0.020894926;-0.0010353142;-0.076331146;-0.034197785;0.020258594;0.006406593;-0.008962122;-0.018098174;0.009712416;0.07645304;-0.026992772;0.03872833;0.09334043;-0.0639086;-0.06583138;0.011499015;0.04623245;0.026147995;0.08835926;-0.08919322;0.07732309;-0.09913508;0.1537034;-0.00067957427;0.061792996;-0.09458014;-0.036501292;0.21206698;-0.0868138;-0.04057177;-0.19188619;0.02595203;-0.036792945;0.0056948015;-0.05377799;0.03669121;0.017806415;0.01329635;-0.042552304;-0.09407602;-0.045389112;0.21013024;-0.03154911;0.07833339;-0.2268063;-0.037913408;0.060276557;0.1274381;-0.17409667;-0.028169071;-0.019753562;-0.039260622;-0.19055429;-0.07790924;-0.055042088;-0.010745662;-0.08423374;-0.002177903;0.0051839217;0.055410303;-0.08734701;0.05142618;-0.025621645;-0.035234574;-0.12860154;0.016756853;-0.10353506;-0.028121289;-0.068694346;0.048104685;0.030129284;0.01246477;-0.026886923;-0.04136106;-0.10149784;0.17935255;0.001858684;-0.21567644;-0.012868855;0.10045433;-0.058526106;-0.09778899;-0.020117817;0.008887818;0.024209334;0.07218371;-0.028043881;-0.011453387;-0.09302981;-0.00966724;-0.16497226;0.12154095;0.06938184;-0.07766094;0.050336506;-0.04703777;0.10242441;0.0298126;-0.10048059;0.022002516;-0.03652867;0.015754227;-0.04986657;0.051379427;0.17726575;0.058829654;-0.0017671684;0.06622873;-0.018888218;0.041697893;0.096901506;-0.1003006;-0.024104644;0.010216702;0.038584374;0.0328231;0.004425278;0.017354527;-0.003783797;-0.077217;0.2350383;-0.13391036;-0.032163545;0.017698295;-0.053988867;0.008888009;-0.1305572;0.044630736;-0.03445951;-0.052291974;0.08518319;0.004699306;-0.10467871;0.0881184;0.04562029;-0.045605227;-0.07610526;-0.033294432;-0.037762675;0.0038813837;-0.32437247;0.0068035936;0.05208446;-0.076564156;-0.004041771;-0.066773884;0.094660684;-0.07549534;0.32448187;-0.055721834;0.037767623;0.017785037;-0.00013985886;0.0086313775;0.115803055;0.0073309084;0.05395358;0.075705886;0.014850167;0.016741168;-0.102018036;0.22248372;-0.097502895;-0.032045633;0.017145284;-0.12019955;-0.08186421;-0.21582526;-0.07222499;-0.02729287;-0.0072499025;0.13461356;0.08369313;0.09079896;-0.013558539;0.01710373;0.050096076;-0.044737812;0.07171772;-0.03311922;-0.010148366;-0.13293143;-0.0032531267;0.023625912;-0.0009616491;0.2666714;0.102670975;0.051990252;-0.038307715;-0.014224805;-0.03587666;-3.1512172e-07;0.014181509;0.07135516;-0.096426114;-0.07222692;0.115077965;-0.15161736;-0.0079014385;0.19173911;0.0002799608;0.012544337;0.11013627;-0.08106866;-0.014357407;0.025019774;0.0129550705;-0.058573563;-0.041546747;-0.07869546;0.045989193;-0.030789727;0.016795227;0.015273468;0.083890475;-0.07145567;-0.08849252;0.029165894;-0.018582987;-0.13050671;0.059593804;-0.049692966;0.07170207;-0.08944086;-0.02208099;-0.035354283;0.04447366;-0.023374707;-0.060695253;-0.10292886;0.15972571;0.06924735;-0.029968997;0.08108707;0.025979629;0.016086427;-0.082634345;0.13558848;-0.04692651;0.01508477;-0.082675755;0.024248973;-0.032245725;0.038488038;0.007602936;-0.03793805;0.14184514;0.109771036;0.029425073;-0.06446326;0.0013071037;0.071857214;0.012933223;0.029979818;-0.01220211;-0.05835586;0.07622725;0.036331084;0.065879345;-0.050501324;0.026580485;0.0011144985;0.09612372;-0.05240045;-0.016363464;-0.048264656;0.008728226;0.035116214;0.050364476;0.1744361;-0.064740114;-0.052348502;-0.092057094;0.08415161;0.010545368;-0.0076183667;-0.1284086;-0.18783076;0.024852697;0.04819103;-0.30513725;-0.07738408;-0.02763223;0.008720813;-0.07740615;-0.06311974;-0.019819772;-0.03180406;0.032668673;-0.048919655
-0.021192815;-0.0454189;-0.05706507;-0.15813288;-0.07171085;0.061465546;-0.1042012;0.010886779;-0.151139;-0.11582725;-0.09249461;0.026586322;0.034559328;-0.084194414;-0.038776904;-0.033580534;-0.040351376;0.023585388;-0.013949362;0.030106202;0.014777794;-0.055408165;-0.029167034;0.04767331;0.044792227;-0.04244752;-0.0444305;0.056593023;-0.2554362;-0.026699292;0.018809326;0.08950414;-0.025240391;-0.041867178;-0.013961394;-0.031012438;0.08651268;0.06998045;-0.0003958347;-0.065068245;-0.026152465;0.09601451;-0.13035806;0.023920678;0.06673991;0.1467268;0.011201554;0.045886938;-0.036902864;-0.090638176;0.19998288;0.0424532;-0.030616255;-0.007113266;0.07711894;-0.009572703;-0.019353064;0.014978093;0.059524562;0.021073878;0.08412042;-0.09631571;-0.11964062;-0.13217008;0.035433475;-0.060527276;-0.0053766486;0.01337734;0.019059857;0.048040688;-0.046525728;0.058945064;-0.049745046;-0.10379397;0.23550296;0.05095875;-0.062295556;0.08581107;0.105910435;0.057590302;-0.041036654;-0.010910928;0.076373;-0.029842941;-0.022499379;-0.0067238025;0.070589505;0.051730804;0.015093294;-0.050474163;0.0753056;-0.023004174;0.090601936;-0.065796174;0.065851696;0.00023569647;0.054854564;-0.09968462;-0.031947248;-0.006820179;-0.045918446;-0.0073318062;-0.122405805;-0.02907749;0.060916524;-0.28314728;0.065147705;-0.029967215;-0.046726976;-0.087894686;0.04864498;-0.04942458;0.04688362;-0.08244705;0.034512736;-0.047288753;0.04564674;0.0040723705;-0.039163467;0.110395946;-0.20560151;0.00044018353;0.048647568;-0.0022318629;0.04881583;-0.009992885;0.010230976;-0.00730912;0.03948902;-0.05867136;0.05850477;0.074582025;-0.0698312;-0.037332106;-0.07114149;0.014352822;0.031475224;0.020975478;0.009219023;-0.0047830357;-0.27019346;-0.07695883;0.07396064;-0.015839268;-0.03749706;-0.23012918;-0.013815445;-0.013265479;-0.044595134;0.07535396;-0.039441768;0.07075403;0.07511122;-0.052417092;0.065458156;-0.31602252;-0.21358871;-0.11747378;-0.040156383;-0.058429368;0.050678883;-0.019719256;-0.09033654;-0.047035772;0.032567732;0.041541684;-0.046382785;-0.012860212;-0.010532998;0.08971689;0.015373045;0.06351366;-0.072353154;0.056263227;0.028242916;0.03724213;0.010768847;0.07064336;-0.10820327;-0.018256452;0.109647304;-0.093191534;0.023123015;-0.042198017;-0.11348941;-0.0057275086;-0.06898724;-0.020301882;-0.07542826;0.02571736;-0.077817984;0.020670837;-0.22754268;-0.10388109;-0.05134631;0.045830306;-0.10953509;-0.07482731;-0.044247076;0.03308795;-0.02977918;0.1516931;0.012597256;-0.05634368;0.01614001;0.0018760661;-0.06914396;-0.007819742;-0.06292816;0.11544876;-0.17555577;-0.035897613;-0.037312936;-0.0038005733;0.058094647;-0.10822425;-0.053790554;-0.039516583;0.015124812;-0.058626655;0.07335492;0.035068866;0.00024505312;-0.022039967;-0.06510093;0.0050198818;0.095911115;0.047431555;-0.009614607;0.12340208;-0.0868638;0.15660538;-0.09381018;-0.16793701;-0.06380975;-0.009584502;0.07337746;0.06648773;-0.018398358;-0.06108421;0.01650861;0.03334019;0.048251133;0.05469885;0.031149274;0.15454179;0.009839909;0.054484136;-0.12202512;-0.034064937;-0.030525094;0.045806527;0.115515046;-0.029519897;0.051134195;0.04243052;-0.038298883;-0.09128206;-0.08909744;0.055082034;-0.009468422;-0.029559268;0.0052728485;0.068456955;-0.1511595;0.0014524915;0.014191002;-0.018835016;0.01780583;-0.112156674;-0.21271737;0.03886843;0.0297633;0.07464291;-0.07157165;-0.041040365;-0.039608732;0.051152308;0.0438421;-0.058839254;-0.06880941;-0.02705199;-0.034188345;0.04406115;-0.06147737;0.0012776845;-0.080126174;0.053666048;-0.094738655;0.033728525;-0.25876462;0.037819643;0.043107685;0.035047274;0.03260504;0.08172873;-0.03408286;-0.10896861;0.0979314;0.04067608;-0.10616269;0.015375339;-0.05031868;0.06844051;0.01153483;-0.026717724;-0.056004614;-0.016149938;0.14747928;0.061268214;0.044120386;-0.14573345;0.020368483;0.18665482;-0.049606945;-0.06986121;-0.09947473;0.022086442;-0.016525932;0.053141676;-0.05309524;-0.026646636;0.055660985;0.06247074;-0.063851126;-0.07827991;0.011646484;0.07852079;0.040968206;0.022455582;-0.22007912;0.0069859917;-0.04593978;0.07252093;-0.21216224;0.004721076;0.06394985;0.024792278;0.050030056;-0.012354026;-0.072086304;0.04287499;0.026623087;0.028300429;-0.0855242;-0.043903172;-0.01622526;0.040884852;-0.055984095;-0.0064916727;-0.049588688;0.11023667;-0.13452868;-0.033018485;-0.033765804;0.10752983;-0.06089151;-0.038976673;0.008564137;-0.0703069;0.1002131;0.05254321;-0.051907256;-0.169518;-0.00029986462;-4.138861e-05;0.047969673;0.022389475;0.055031057;-0.037706815;0.0645631;0.10747404;-0.025560904;0.001503319;0.068747886;0.117641054;-0.1586493;0.18269494;-0.022374084;0.007327357;0.025790926;-0.086238965;0.25817525;0.0045839986;0.013569783;0.087114245;0.027516432;-0.010335391;0.035939652;-0.053821422;0.047776483;0.04816304;-0.016847078;-0.0032633662;-0.037723;-0.1581195;0.031242756;0.0020647026;-0.12784036;0.07077218;0.032000963;0.066486515;0.11720619;-0.13748643;-0.06993978;0.050728783;0.17879999;-0.0045731314;0.056128595;-0.056426723;0.0051517617;0.005679067;-0.1750337;-0.054755267;0.11340805;-0.098884605;-0.039506283;-0.034746457;0.017277723;0.11208325;-0.06475551;-0.081662476;0.014258971;0.061218187;-0.046533827;0.027157288;-0.22461046;-0.09155445;0.06635607;0.020427478;-0.047970656;0.043511886;-0.041548293;-0.007732142;0.16028276;-0.05957878;-0.08360353;-0.0064861644;-0.017653316;-0.032638405;0.07282611;-0.06255112;0.07944463;0.08805771;-0.080689676;0.18895769;-0.083416834;0.1991223;0.030492874;-0.0057881614;0.04285871;0.048626788;-0.13418508;-0.019966183;-0.13990904;-0.06903169;0.10036526;-0.05327233;0.13691376;0.036315516;-0.13140084;-0.006976994;0.046882793;0.031501595;0.053699367;0.0027679247;-0.04585354;0.014246359;-0.0331023;-0.036830816;0.035886187;-0.073610656;-0.083979584;-0.017736444;0.011585584;0.021715943;0.0015947147;-0.06785458;0.053249836;0.02723441;0.023736691;0.015392816;-0.10942625;-0.20879605;0.0014345858;0.14150396;-0.022132823;-0.033607587;0.05781282;0.01690291;0.048165996;0.052749462;-0.086534336;-0.021296363;0.03721091;0.08497336;-0.0066158604;0.016130025;-0.035838384;0.051883068;0.08075069;-0.23304048;0.0055126925;-0.081818886;0.04428738;0.04770228;-0.078119755;-0.0111933015;-0.08474992;0.0775008;0.036958687;-0.030142056;-0.027366843;-0.080716275;-0.014118132;-0.00706564;0.16034013;-0.024957083;0.057567887;0.12520923;-0.022650722;0.08391978;-0.017103314;0.23267224;0.022045333;0.0185952;-0.070094846;0.025430411;-0.017690994;-0.06607867;-0.06264505;0.053501025;0.11044145;-0.0110267745;0.048747964;-0.041635152;-0.050450914;0.09024899;0.19041736;0.1628593;0.04644511;0.027768089;-0.032961898;0.07071409;-0.15464276;0.024521088;-0.06888491;-0.04967906;-0.06649962;0.006340988;0.021139638;0.0026885644;-0.020820014;0.10817859;0.013256593;-0.050016977;0.029795218;0.028701644;-0.2049657;0.03264898;0.029871318;-0.021222206;-0.22638808;0.009700374;0.0040885382;-0.040906932;-0.15946509;-0.07007455;0.021673346;-0.045194272;-0.15450504;0.08435107;0.07489337;-0.0028174224;0.037539184;-0.037848342
-0.07132011;-0.16490442;-0.06653454;-0.062038317;0.031060629;-0.0024876662;-0.24904034;-0.048806034;0.10927907;0.0109488;0.030783944;-0.016633358;0.034875344;0.009932859;0.055398364;-0.057233956;0.19365253;-0.025021533;0.030594122;0.03454811;0.07953081;-0.008931735;0.14137372;0.0425159;0.021140229;-0.08610119;0.07117987;-0.014009371;-0.07812495;-0.034823168;-0.112573825;0.16483767;-0.0012736408;-0.21562937;-0.020518849;0.08883105;-0.10590682;-0.033948425;0.0395908;0.07666488;-0.035337385;-0.021146683;-0.23419663;0.042472277;0.2828094;0.07509475;-0.060127098;-0.08131304;-0.001662816;-0.097272165;0.2315225;-0.12029218;-0.04771999;0.06961327;-0.033375904;0.040535692;0.077453494;-0.041751575;-0.0797593;0.08253937;0.12920979;-0.11557623;-0.03467442;0.04625496;0.07604086;-0.12094501;0.062172495;0.002875261;-0.05914854;-0.010221545;-0.12937838;0.19965908;-0.09120681;-0.11411378;-0.067886956;0.020000225;0.08172705;0.050024543;0.2543916;0.08392045;0.04399978;-0.05151796;-0.006006882;-0.17240596;0.043224066;-0.00085515954;0.004200551;0.101406924;0.034385167;0.08841372;0.039624684;0.013045591;-0.007908296;-0.07172181;-0.09704005;0.0028403394;0.0059051453;0.017892417;-0.020598996;-0.06494924;-0.11546094;-0.12879673;0.018369738;-0.036189295;0.014448754;-0.22454064;0.05834053;0.06577186;-0.022821963;0.018507779;-0.040543023;-0.013204717;0.13305219;-0.17977759;0.067120336;-0.0023540463;0.10764741;0.07327706;-0.15919591;0.15157333;-0.31161878;-0.044295862;0.08845312;0.026562687;-0.04819112;0.025833718;0.04062792;0.05434466;0.047233395;-0.06352133;-0.0555782;-0.03998012;-0.16307478;-0.021346414;-0.22617613;-0.06738867;0.047308933;0.047542967;-0.050356895;-0.12735271;-0.10835914;-0.084394224;-0.04365743;0.06044165;0.009476302;-0.10291365;0.048448496;-0.10534825;-0.04082695;-0.025479475;0.047433566;-0.0527527;-0.04334253;0.058496382;-0.03128299;-0.23695874;-0.13602829;-0.13329804;0.033812247;-0.052958112;-0.039132874;0.048205696;-0.09115017;0.076103024;0.03584188;-0.08783283;0.028363932;0.052242823;-0.011628229;0.071177125;-0.043219224;0.09860302;0.04790315;-0.0580973;-0.05189915;-0.01776351;0.01392771;0.010166819;0.14984527;-0.014504146;-0.003213739;0.029523648;-0.01528611;0.030425124;-0.12583646;0.0021699066;0.00014746208;0.12922582;-0.0676233;0.00950323;-0.030713815;0.019455725;-0.048904236;-0.090136826;-0.05116704;-0.022650566;-0.15414649;-0.2576821;-0.10249029;0.007934768;0.026138982;0.12823404;0.027928868;0.064071395;-0.0196176;-0.078106746;-0.15826689;-0.07181303;-0.063518755;0.066763;0.030708596;-0.03759035;0.040728886;0.04240696;-0.058775723;-0.1779287;0.0039048044;0.009798176;-0.03174611;0.05111703;-0.062156364;0.08101594;-0.07301513;-0.035495337;0.048433114;0.035140954;0.19381727;0.09289949;0.13603532;0.007019304;-0.01249065;0.16322468;0.05576229;0.014633537;0.06767059;0.057899572;0.037147485;0.014641512;0.04891232;0.0032643361;0.020160722;0.08525075;-0.063405246;0.03347234;0.037774764;0.08675774;-0.03142683;-0.09224208;-0.057700492;0.058105763;0.030651864;-0.012991427;0.07132396;0.16380617;-0.027119216;0.014232953;-0.12480826;0.02025599;-0.022275403;0.028070727;0.050779324;-0.06735069;0.03196719;-0.022471543;-0.14572872;0.0037646133;-0.040524416;-0.028018102;-0.062532075;-0.02174202;-0.10764479;0.06863871;-0.024220716;-0.06193293;0.06350696;0.012019686;-0.23145083;0.14540222;0.13771275;-0.029362332;0.12289872;-0.023038412;-0.007463353;-0.055807408;0.03650492;-0.0064247674;-0.025726492;0.04200465;-0.025432536;-0.009858165;0.11770325;-0.06195322;0.033984415;-0.009779958;0.034360766;-0.11439202;-0.1282916;-0.11966574;-0.032628164;-0.008436081;-0.034876544;-0.12382284;0.0056069107;0.08488644;0.058014713;-0.018595465;-0.064631194;-0.045437846;0.15148723;-0.03467095;0.076670304;0.02226113;0.0125482045;-0.026506403;-0.13055566;0.0030781843;-0.09483257;0.06295659;0.08871678;-0.1931408;0.025747178;-0.032717813;-0.006969781;0.0779767;0.029002141;0.061433457;-0.014789524;0.0048839254;7.265867e-05;0.0073305187;-0.24713424;0.0006900767;0.040409975;-0.04101509;-0.16024882;-0.029694285;-0.09946665;0.09527325;0.019429432;0.03300799;0.10437378;0.11481155;-0.0783228;0.003441582;0.0024507372;-0.03243287;-0.050853677;-0.069303304;0.0040691136;0.0016525016;0.011569028;-0.028073918;0.0025539766;-0.08678515;0.037827842;0.061563596;0.02314606;0.020037431;0.019283209;-0.09869265;0.022058446;0.1528057;0.037558824;-0.1735314;0.08287907;-0.042330135;-0.085682854;0.10192355;-0.020748088;-0.08303095;-0.041203238;0.029366191;0.006405729;0.061798282;-0.017470049;-0.019353759;-0.04038658;0.28767535;0.048028797;0.043058988;-0.030405778;-0.032541983;0.07927136;-0.01766719;-0.055107556;0.14547548;-0.06829337;-0.07937209;-0.05502665;0.03216974;0.040207144;-0.027776908;0.07328713;-0.059684835;-0.05963769;-0.12591058;0.0008058716;0.036725998;-0.03593257;-0.051929522;0.10432095;-0.076235585;0.1210364;0.07160778;0.09691446;-0.05512377;0.09447508;-0.16664442;-0.065211676;-0.064018145;-0.020652223;-0.0046769883;-0.2294163;0.05280796;-0.10939116;-0.05704726;0.1848812;0.19591607;-0.049036816;0.14692153;0.097606204;-0.07023086;-0.05515117;-0.004857486;0.020640446;0.04678061;-0.21264839;-0.0516129;0.075054996;0.22834006;0.1096838;0.044698227;-0.15825479;0.05784877;0.23259775;-0.10555661;-0.068847775;-0.062348444;0.019514898;-0.03870659;0.11526448;-0.047378883;-0.1029161;0.036399893;0.08694458;0.013617618;0.064713456;0.049751632;0.039881423;-0.064739406;-0.06684078;-0.030089611;-0.01884845;-0.21053317;0.060682878;0.014210615;0.09186685;0.06068528;0.10387009;0.09437339;-0.14836885;0.00090832345;0.13692279;-0.011198732;0.03500848;-0.030396556;0.09289199;-0.05011957;-0.051118325;-0.051111054;0.05193861;-0.10097094;-0.050021786;0.042251885;0.019209476;0.022042021;-0.0049635894;0.067353725;-0.13111074;-0.021184625;-0.024650285;-0.0736705;-0.04030617;-0.08327563;-0.0056325947;0.10478049;0.046595495;-0.0059288633;0.14121804;-0.005836907;-0.05787402;-0.090098985;0.06211376;0.09321609;0.07549369;-0.13179019;0.053250145;-0.053001907;0.019876095;-0.03956225;0.08130738;-0.0026926603;-0.008630762;-0.04525867;0.09397292;-0.07408377;-0.013365152;-0.14185183;0.06814478;-0.04514543;-0.08366986;-0.03684918;-0.018287728;0.068958625;-0.19405192;-0.053371534;0.1873997;-0.06628249;-0.014589175;0.12663193;0.02855142;-0.025551045;0.052092716;0.18613376;0.038626127;0.04143079;0.059632808;0.09668275;0.042150605;0.1248031;0.03427598;-0.02757086;-0.025761943;-0.11385302;-0.07648715;-0.016674269;-0.013591491;-0.08072537;0.101678;0.0016490726;0.0484182;-0.07014446;0.1223905;-0.08815946;-0.09582434;0.03680486;0.023021042;0.034887113;0.03342501;0.04503005;0.010673844;0.043143384;0.028712455;0.050916515;-0.12886325;0.09407319;0.015502584;-0.0144338645;-0.084235795;-0.12455692;0.03545343;-0.047051013;-0.2157453;-0.034626666;0.058737393;-0.04999936;-0.3342797;-0.062283568;0.081267916;0.023606306;-0.092735;-0.09963531;-0.077601105;0.018662086;-0.1030924;0.063214906
0.024315165;-0.047958914;0.033756778;-0.14224134;0.05701222;0.0130275125;-0.14193137;0.008134576;-0.11341226;-0.11278979;-0.084544145;0.060069077;0.017633457;0.03213237;-0.050823964;0.023104362;-0.12055933;-0.04344384;-0.049692262;-0.088990234;-0.035381433;-0.036923885;-0.06968119;0.022743039;0.02255561;-0.07828094;0.03697531;0.007805547;-0.0028831891;-0.014030324;0.0016999752;0.051334888;-0.072338186;-0.16958728;-0.044875827;0.064859584;-0.05051634;-0.052903775;0.04582271;0.009394437;-0.03005032;0.06991986;0.05644494;-0.0532319;0.11845763;-0.018554434;-0.012409025;-0.016472282;-0.022438789;-0.07354308;0.20450638;0.009977685;-0.061371643;0.018578945;0.14518294;0.009126973;0.040787153;-0.025017865;0.04942574;-0.032822944;0.14561394;-0.063339435;-0.1311347;-0.07833624;-0.049539972;0.06901557;-0.061267123;-0.07827334;-0.05040058;-0.07119108;0.02903394;0.123315476;0.0090782875;-0.07874013;0.040037423;-0.021087162;-0.08649662;0.020507438;0.04335456;0.0045055323;-0.07094174;-0.026703846;0.13816808;-0.16926606;-0.027228814;-0.06749382;0.067037985;0.0744048;0.06729126;-0.032582145;0.008364005;-0.008405167;0.05595531;0.045117654;-0.04743994;-0.0626903;0.15004301;-0.061739802;-0.035522003;0.05673807;-0.02423002;0.15694328;-0.050771333;0.04973869;-0.018006813;-0.2231877;-0.0013636992;-0.048166487;0.0019730222;-0.0133447675;0.017408919;0.05499687;0.11637198;0.033747926;-0.049252436;0.04755241;0.06942332;0.007565963;-0.1320724;0.16208576;-0.32555044;-0.043015573;-0.018338822;0.08715704;-0.032538254;-0.020514209;-0.028902512;-0.076789655;0.06466143;0.008354538;-0.05089701;-0.04338824;-0.26281798;0.01153483;-0.07291013;0.043096423;-0.0187187;-0.07284457;-0.031472202;-0.0829985;-0.047965486;-0.0058554867;0.031626716;-0.0316804;0.03566121;-0.08490297;0.12234398;0.058590855;0.0008529049;0.065766215;-0.009594213;-0.03611047;-0.0302725;0.0015562287;-0.056141302;-0.1217834;-0.2294169;-0.021299329;-0.06870604;-0.030341128;0.097152755;-0.029039487;-0.17857401;-0.042603236;0.03098833;0.024147846;0.08284659;-0.108751625;0.09370549;0.008793573;0.058470394;-0.040450316;0.047667895;0.002131075;0.032487255;-0.015079312;0.015099799;0.14225866;-0.09658575;-0.048032332;0.037672922;0.13528515;0.037829757;-0.07709564;-0.040926665;-0.020404935;0.08649112;-0.14798859;-0.106781915;-0.049834777;0.18248093;0.004934993;-0.11075074;-0.0076769004;0.06388564;0.06958765;-0.18467748;-0.15153742;-0.13431492;-0.025632333;0.019898001;0.027339967;0.03134858;-0.059772562;0.018153762;-0.0754372;-0.17201929;-0.028068421;-0.068033904;0.0026955307;-0.30611503;0.055425007;0.05518454;0.010918359;0.03435145;-0.19081411;-0.010895737;0.02359514;-0.076369144;0.13742927;0.096648104;0.08758194;-0.039031975;0.054513704;0.00930885;-0.11415826;0.17659575;-0.11311771;-0.09129999;-0.12698163;-0.001813721;-0.0018249567;0.0064204405;-0.13352995;-0.057865985;-0.024335008;-0.0030418874;0.051867265;0.049982946;0.059223585;-0.045249376;0.19278698;-0.0955736;0.044173114;0.07212084;0.007409895;-0.0627384;-0.14269637;-0.00937318;0.039251275;-0.10369965;-0.031337522;-0.066778354;0.017937172;0.009053745;0.040919956;-0.10154309;-0.05419208;0.06920899;0.068338506;0.056396928;-0.052959967;-0.028349334;0.02384384;0.009289352;-0.09142799;0.041335683;-0.017782826;-0.07950645;-0.04133471;-0.101275235;0.015473802;0.09578312;-0.0044435076;0.0066501815;0.019076753;0.00036859486;0.031299077;-0.05125043;-0.08583301;0.087781616;0.06965455;0.08094331;-0.080882765;-0.023973271;-0.02625881;0.058715984;0.062914476;-0.06800397;-0.034782223;0.008767691;-0.060641486;0.052305114;0.017998977;-0.0689808;-0.005687214;0.07807946;-0.16538516;-0.029548192;0.041476026;-0.07859488;0.014473394;0.10052757;-0.08827559;-0.07669844;0.094245404;-0.019673388;-0.05552631;0.26922485;0.031519033;0.017626647;-0.1916487;-0.061844487;0.0839071;-0.08647534;-0.031936586;0.010276035;-0.03672171;0.05240572;-0.03371043;0.08141154;-0.05119795;0.051131867;-0.04093702;0.011005894;0.076881506;-0.038150597;-0.025356201;0.01698092;-0.06384503;-0.20623024;-0.029256294;-0.02198469;-0.07671479;0.1256585;0.040220316;0.048651613;0.09476823;-0.13963468;0.052346475;-0.15928918;-0.07973203;-0.00069505005;0.16435057;-0.05037655;0.04377592;-0.03062605;0.04994927;-0.021542937;-0.022130046;0.08447463;-0.072537966;-0.08413948;-0.030792624;-0.03769582;0.022828646;-0.052110396;-0.07318924;-0.06519491;0.06660486;0.09989721;0.1151397;0.056823358;-0.21628788;-0.020838985;0.027194846;-0.045552365;0.05333889;-0.014119716;0.038485136;0.027673658;-0.027991462;-0.014127103;0.10077686;-0.081014894;0.103798375;-0.100234464;0.3472902;-0.022577228;0.07233121;-0.03707895;-0.0821045;0.16592734;-0.067435026;0.027961375;0.012281655;-0.02043304;-0.09488331;-0.0073301755;0.052528527;0.20658505;-0.0013637011;-0.07092812;0.0099536935;0.022336656;-0.16975698;-0.07537725;0.03157261;-0.1319802;-0.04167194;0.046773765;0.042765606;0.19182622;-0.08615953;-0.004071834;-0.22327334;0.081661575;-0.13732933;0.058537543;-0.023041196;0.012859276;0.06579095;-0.14528969;0.068881504;-0.10627998;-0.11299874;-0.073963486;0.019172741;0.024109816;0.09960791;-0.029325247;0.012345515;0.008992016;0.048394356;-0.021247873;-0.08969702;-0.17259979;0.002397251;-0.0140707875;0.12662719;-0.04408208;0.03944525;0.059298478;-0.09885363;0.23060547;-0.0059767566;-0.051798042;-0.079515666;0.06385136;0.008838503;0.04435841;-0.0693384;0.06672911;0.014596107;-0.0023494672;0.12218886;0.08447912;0.16103545;-0.021247393;-0.048110835;0.020066237;0.06350565;-0.069693096;-0.11807929;-0.14385407;-0.10772505;-0.020537458;0.00143963;-0.11494933;0.07602057;0.026160063;0.015983468;0.196379;-0.045104355;-0.0014603668;-0.020521188;0.022081012;-0.07044216;0.028398681;0.015250087;0.0019094592;-0.1368482;-0.0073011937;-0.03973071;-0.0019662813;-0.004154281;-0.01125236;0.077561334;-0.17266172;0.045346532;0.076685496;-0.029829266;0.10119087;-0.11093099;-0.035506964;0.16960475;-0.033683747;-0.09442997;0.057548534;0.0026509052;0.012680447;-0.049810894;-0.0019530656;0.011484409;-0.02873788;-0.18440314;0.022428002;-0.05106056;0.0862393;0.051772814;0.0636013;-0.22337866;-0.108054936;-0.009512369;0.07136291;0.047766484;0.08678278;-0.0031697792;-0.19198988;0.024234869;0.097441755;-0.07082232;-0.048359625;0.055193383;-0.15800895;-0.019962166;0.11307501;-0.035836346;-0.03748045;0.030916385;0.030993814;0.064889826;-0.02228776;0.06329452;-0.07944428;-0.052563854;0.07353145;0.056849264;-0.007540847;-0.06896419;0.0137813045;-0.006098308;0.000115422685;-0.036130805;-0.07529113;0.022480901;0.065654255;0.02574688;-0.016253723;0.06761015;0.035266493;0.020877171;-0.008338298;-0.05052912;-0.024602825;0.07495594;-0.06351351;0.06174176;0.0053662322;-0.05871128;-0.110257804;-0.04846977;-0.057707608;-0.012365863;-0.064783454;-0.109456405;0.034951407;-0.03177884;-0.0008876629;-0.18127102;0.044149898;0.053057596;-0.31705728;0.087062344;-0.05571173;0.018031705;-0.19940233;-0.07969036;0.056879397;-0.020557782;0.018893253;-0.10118135;0.07220582;0.029427337;0.0009769446;0.07553406
0.06517129;-0.093598545;0.0463776;-0.10283175;0.06319487;-0.020862881;-0.07520531;-0.1211662;-0.09616265;0.06854569;-0.06886593;0.10275674;0.074100934;0.00081153156;0.03636503;0.054916907;-0.05521805;-0.07306164;0.045626115;0.060874972;0.007019023;-0.014424574;0.031189268;-0.09135376;-0.032762893;0.032823645;-0.049121153;0.06600112;0.075074;0.03424268;0.07660555;-0.16581683;-0.022875225;-0.16650696;-0.08235528;0.033659294;-0.10736784;-0.07963725;0.039396442;0.111711964;-0.049863204;-0.10548248;0.035228506;-0.02356101;0.21676046;-0.021505544;0.05292462;0.16249253;-0.119370006;-0.11088161;0.21296139;0.08428139;0.052586317;-0.042158708;-0.017506275;0.011421561;0.049190637;-0.04566723;-0.024662469;0.00018255814;0.082276836;0.082034044;-0.08906005;0.027567122;0.12420457;-0.05092743;0.0808033;0.048465915;-0.043135375;-0.06631879;-0.036072027;0.026068982;0.050114345;-0.10589787;-0.08297956;-0.01699949;-0.10930116;0.17299233;-0.044052836;-0.079611525;0.057350993;0.051436972;0.06393369;0.091588184;-0.03693709;0.0722753;0.042196;-0.08396523;-0.077552;0.025354;-0.02322922;0.052014463;0.10931683;0.10814259;-0.13448183;0.05399295;0.19204141;0.010514181;-0.109799325;0.02960958;0.05306891;0.20516218;0.06381076;0.074659295;-0.046574496;-0.08888542;-0.03184967;0.09797507;-0.028972363;0.046289034;-0.044289425;0.010005542;0.048975233;-0.20229225;-0.047821615;-0.0055332645;0.1315564;0.05747476;0.033837494;0.32893848;-0.16453011;0.07159874;0.003029041;0.042273063;0.025470039;0.095817916;-0.08255017;-0.04317254;0.16537069;0.07026262;0.06195614;0.07939091;-0.22146915;-0.15957609;-0.1946143;0.06576829;-0.0036668293;-0.04381386;0.105085894;-0.13223588;0.14760448;0.0053584375;-0.0375532;-0.06508482;0.1068184;-0.20388937;-0.028246261;0.063906655;0.068128034;-0.03439857;0.04699908;0.100996956;-0.0795311;-0.03850259;-0.07899789;-0.04142408;-0.17483127;0.06503849;0.03927824;-0.013806286;0.00032666733;0.068280526;-0.22172219;0.020820903;-0.050933577;0.08317524;0.0987126;-0.024235336;-0.040893305;0.01112976;0.04144047;0.08441913;-0.038106896;-0.036475204;-0.004904164;-0.05934004;-0.035507042;0.0015095734;-0.08646936;0.047129814;0.021009702;-0.012729907;0.010780401;-0.02215572;-0.09115481;-0.038170315;0.0568399;-0.14630562;0.124044254;-0.09926596;0.1652996;-0.09429445;-0.13420647;0.06288453;-0.00589781;-0.029557308;-0.020403625;-0.1181352;-0.11539777;0.055620812;0.0047417446;-0.056482952;0.124843985;-0.043046534;-0.020248502;-0.012927692;-0.29184172;-0.0038753639;0.022195933;0.06273651;-0.30330542;-0.038092256;-0.06625858;-0.02449446;0.007641063;-0.09351715;-0.02117089;0.06481547;-0.012815686;-0.025965322;-0.032790527;0.018223811;-0.003254783;-0.0908511;-0.08977443;-0.16500503;0.011121545;-0.1397694;-0.21563381;-0.09718113;0.008192049;0.12003181;-0.006997416;-0.0010740494;0.056532804;0.0733733;-0.07511878;0.03913;0.0294118;-0.012420361;0.008847605;0.09522581;-0.19791026;0.14614749;-0.10966017;-0.027303912;0.016485535;-0.06002206;-0.00446906;0.054190945;-0.15371366;-0.12084635;-0.0687546;0.0074571557;-0.041372012;0.0046139;-0.14653839;-0.028882317;0.009874333;-0.030617878;0.0024644118;0.043810736;0.016658628;0.035353065;0.10934713;-0.03888559;0.06432032;-0.08940332;-0.05136475;-0.0014503512;-0.24708983;0.038079213;-0.0046265824;-0.083516166;-0.13469139;0.023335848;-0.24739397;0.040330674;-0.07387093;0.009512952;0.031996045;0.08885412;0.093021244;0.047931656;-0.032609154;-0.008512247;-0.050931066;-0.02893909;0.04473889;0.024412626;-0.09033874;0.031816076;0.026963515;-0.11591715;-0.06960073;0.12314063;0.009213609;-0.019602306;0.033675373;0.07518322;-0.052119754;-0.004979508;0.01686934;-0.042972896;0.01087242;-0.008123253;0.02547067;0.04199302;0.2898887;0.022965038;0.025883332;-0.09985053;0.098739095;-0.033865925;0.013002848;-0.028805818;-0.1151174;0.13211004;-0.043919716;0.020260718;0.071187295;-0.012514338;0.05603516;-0.0568353;0.02553962;-0.008241373;-0.073250875;-0.00857949;0.049443193;-0.06287047;-0.013026033;-0.019010508;0.114410706;0.070881836;-0.13677248;-0.044909183;0.10137957;0.04907719;-0.03308384;0.021566326;-0.1998652;-0.1549023;0.07589497;0.29205483;0.09115262;-0.02229692;0.056694888;-0.009731944;0.036222953;0.026889881;0.02784781;-0.13738999;0.011222353;0.027551778;-0.018334024;-0.0717159;0.011382056;0.016009027;-0.008241531;0.049555402;-0.083716884;0.20435922;0.02610803;-0.07847015;0.0049163806;-0.0071645994;-0.024124648;0.055553798;0.06961185;-0.08609296;-0.022413572;0.01269899;-0.026827464;0.05295076;-0.028045679;0.11744996;-0.000113823946;0.33705738;-0.012212184;0.073133424;-0.062079314;0.06688797;0.027159786;0.062005773;0.037038237;-0.1415673;0.08050861;-0.0006334634;-0.016136577;0.08237359;0.2094422;-0.05790516;0.04112444;-0.018295873;0.0053421524;-0.092935756;-0.09340784;0.05221654;-0.05097187;0.027673334;-0.06627425;-0.03884753;0.14255941;0.003928412;-0.0709185;-0.14944117;0.15278946;-0.09646909;-0.039680544;0.11732452;0.016957117;-0.021131836;-0.2011237;0.028686348;-0.17507486;-0.1502946;0.07328264;0.019101927;-0.03527089;0.04031856;-0.11711971;-0.026953006;0.06930531;-0.048563387;-0.021325957;0.16512442;-0.050601017;0.027755827;0.07934208;-0.06981883;-0.09056995;0.043872382;-0.00047220508;-0.04685361;0.12876411;0.017094554;0.06649708;-0.051924683;0.00033165285;0.00104716;-0.34042004;0.0272979;-0.045949902;0.16279143;-0.16522744;0.07341708;0.08693957;-0.0033387165;0.0973551;0.010329056;0.04699514;0.04891998;0.01976871;0.01313231;-0.15384403;0.083082095;0.021326467;-0.13834861;-0.109602906;-0.03701432;-0.081083275;-0.033578195;0.12068872;0.073486395;-0.025418116;-0.08628781;-0.13386759;-0.018189942;0.01366067;-0.039336275;0.09351628;-0.26123002;-0.028717553;-0.016560838;-0.0063854386;0.058342963;-0.003341061;0.10139638;-0.18515663;0.058566533;0.102079935;0.029610364;0.04855244;-0.096321896;0.081444226;0.045791127;0.05358136;0.03261879;0.015864631;0.06965171;-0.01741577;-0.00039312165;0.04156264;-0.0022167594;0.0009825783;-0.027127005;0.10560741;-0.011119213;-0.008500492;-0.003730008;0.00021939141;-0.09975864;-0.15841009;-0.045871526;0.08960502;0.041577227;0.042439863;-0.050995734;-0.019940075;0.05682552;0.052386343;-0.064802684;0.02374513;0.00733631;-0.10546057;-0.041688092;0.12926976;-0.039518893;-0.051040813;-0.023496898;-0.021222916;-0.028016075;0.0902958;0.0922256;0.07957637;-0.06209092;-0.0075285244;-0.05362507;0.013138346;-0.12570451;0.026635244;0.09804854;-0.124034196;-0.016766557;0.063184805;0.027624464;-0.073938176;0.07009475;-0.011840567;0.004973715;0.063329585;-0.09708579;-0.020271527;0.01990898;0.06927755;0.1028914;0.0003534166;0.029318793;-0.06904764;0.10031022;0.050828107;-0.062253743;0.018115534;-0.068691835;0.07448143;-0.037482694;-0.07107426;0.00020739845;-0.026488459;-0.24039745;-0.002955394;-0.04206543;-0.023913905;0.114004225;-0.09734157;-0.027318358;-0.20658465;0.026982646;-0.08170611;-0.10295949;-0.13199365;-0.0037430557;-0.156212;0.1131814;-0.07881452;0.025031285
-0.018830838;-0.0033931034;0.05954798;-0.012658426;0.086116925;-0.070718944;-0.044310495;-0.08733087;-0.1359686;0.0987844;0.054734673;-0.022871116;0.080941364;0.0029483584;-0.09342877;0.040489007;0.08234139;0.074956685;-0.1201562;-0.008914818;-0.02437967;-0.03556542;-0.056006625;-0.043767914;-0.107492834;0.07322248;0.01953796;-0.038520563;0.23266514;0.07590144;0.03132525;-0.13542022;-0.020203082;-0.30264717;-0.014856427;-0.0010996521;-0.05277705;0.08989287;-0.010297788;-0.021109803;-0.07644643;-0.19841355;-0.004455254;0.03972895;0.17592695;0.07253048;0.03009821;0.026393704;0.03249613;-0.090698935;-0.0151628805;0.06395229;-0.005597413;0.072690845;-0.04898877;0.07889121;-0.05733159;0.0071695894;-0.0773267;0.08352924;0.12988617;0.049827825;-0.0023998364;-0.036056932;0.056202795;0.03445266;-0.020345405;0.23537159;0.06879007;0.007001412;-0.027663035;0.1249039;-0.10621152;0.0026991402;-0.19730802;-0.0888877;-0.056524962;0.13775535;0.0868297;0.04823948;-0.020335712;0.098686084;0.18587455;0.040954508;-0.001923296;-0.123487756;0.09811864;0.054644536;-0.06378031;-0.022224547;-0.014480215;-0.036725324;-0.024953717;0.09297137;-0.04236974;0.07664028;0.13155025;0.0811256;0.002782994;-0.032991156;0.033257302;0.2126803;0.068186;0.092702895;-0.009149792;-0.13107108;0.049244214;0.0112584615;-0.06477498;0.02460686;0.08319699;0.0010811368;-0.08135209;-0.040417988;-0.035880197;0.04893474;-0.04576476;0.07601041;-0.04037966;0.105034955;0.010336867;-0.06783376;0.07360136;-0.0076322923;-0.022485642;-0.016665526;-0.03310381;0.07405048;0.12887107;0.029168515;0.08047691;0.036266077;-0.011392767;0.11460786;-0.4291192;-0.030831838;0.024348048;0.084065;-0.065932885;-0.087022126;0.2335395;-0.072608225;-0.014520799;0.0222423;-0.02537401;-0.050956573;0.20441839;0.02659006;-0.0010985493;0.08080132;-0.02802889;-0.036965217;-0.11460389;0.23563407;0.04475016;-0.10578099;-0.11530875;-0.027396604;-0.03647659;0.06429297;0.07342578;0.03918454;0.05560639;0.015754892;0.044103425;-0.0988552;-0.017412513;-0.016312286;-0.16273683;0.0856659;-0.006687599;0.1680487;0.02957637;-0.012232619;-0.024845453;0.077594936;0.0017984799;0.04146599;-0.04775029;0.0012111146;-0.0741116;0.047424775;0.025722113;0.051301345;-0.12258706;0.023543645;0.038041435;-0.049524676;0.016792364;-0.07144822;-0.05466175;0.0033638438;0.2048772;0.0046847565;-0.019986268;-0.018920938;-0.0910615;-0.19414231;0.14797549;-0.046711475;0.026252175;0.119047455;-0.031024711;0.07363934;0.026975138;-0.09783995;-0.21938959;0.05505527;0.0033258644;0.031923365;-0.16556598;0.025970584;0.051230695;-0.061650395;0.052598976;-0.12806863;0.010915177;0.039332125;-0.010288659;-0.02410047;0.047501944;-0.031354554;-0.0071523697;-0.06269846;0.032729693;-0.044480607;0.068170354;0.097321115;0.11102204;-0.12869413;0.056499757;0.081965975;0.036634415;-0.17062369;0.07079864;-0.079984985;0.039230313;-0.087925315;0.061507408;0.033514615;0.027038269;-0.080633946;0.053958863;-0.00041081075;-0.05577821;0.09156832;0.037250876;0.06997912;0.17240155;0.039683465;-0.016900897;0.048321154;-0.15623775;0.08617999;0.025526365;-0.0055204565;0.053976923;-0.05330242;0.003106583;0.05318432;0.047634702;0.06348814;0.00438575;0.007422932;0.032899726;0.03352136;0.06312112;-0.07265925;0.04316987;-0.06682475;-0.12162902;0.14543176;-0.038274582;-0.01929113;0.07547482;-0.015780434;-0.12599418;0.036432657;0.1030377;-0.014244851;0.056224555;0.07793383;0.022494648;0.24892044;0.0353955;0.09584186;0.07148615;-0.082660414;0.008831495;0.06821418;-0.09879875;-0.03308004;0.004813745;-0.0029167673;-0.06722378;0.027611699;0.13303018;-0.030683741;-0.06944338;0.05213801;-0.11902254;-0.038748603;-0.0011081933;-0.031311125;0.03605579;-0.08689522;-0.05707308;0.01764728;0.2438263;0.06071297;0.0026973102;-0.054580387;0.09078973;-0.094690025;-0.053759925;-0.0733483;-0.0801605;0.12879404;0.034679104;0.10417566;-0.01422993;0.040090773;-0.04236559;-0.050033513;0.072481826;0.074824356;0.0028087557;-0.09646186;-0.090412006;-0.011760402;-0.07257892;0.054656677;-0.024958743;-0.0398478;-0.042021677;0.057347037;0.022672988;0.13944179;0.08099029;-0.0033365588;0.03927328;0.057308324;-0.072218254;0.082419515;0.11190007;-0.05921509;-0.0061544855;-0.016810814;-0.045193538;-0.049713854;0.16753365;0.03005641;-0.053600978;0.075598225;0.016288135;0.06799816;0.0075448025;0.06278504;0.06790399;0.120458275;-0.07324407;0.041951012;-0.010093492;-0.063624516;0.045581155;-0.032089878;0.005541519;-0.07983942;-0.0075724893;-0.0876887;-0.10168766;0.034224357;-0.02279413;-0.04780769;-0.016147984;0.14798805;0.08029083;0.1599744;-0.025681214;-0.013019916;0.044568565;-0.13748826;-0.08218608;0.054246716;-0.06697977;-0.10636096;-0.041363448;-0.07457254;-0.045915816;-0.019326223;0.15112029;0.02549675;-0.08375125;-0.050289743;0.049400527;0.07832953;0.07731726;-0.03050608;0.08646032;0.023380708;0.002751339;0.012902573;0.01900995;0.10413552;-0.028654385;-0.110212095;-0.08266043;-0.0038646564;-0.018522898;0.031169275;0.09592713;-0.005946094;-0.26418847;-0.026785398;-0.023206666;-0.081080616;0.106599666;-0.06529445;-0.0029960303;0.025976289;-0.032459006;0.06649827;0.001739287;-0.020135429;0.02110213;0.17582576;-0.06724656;-0.079889186;0.008483487;-0.052230958;-0.045244504;-0.022752374;0.037439838;0.019410957;0.039194047;-0.0761305;-0.04328422;-0.06990313;-0.06254847;-0.104409926;-0.1335352;0.038991045;-0.034170166;0.17136496;-0.039139982;-0.15783393;0.11372606;0.08206634;0.10978694;-0.01935312;0.10127107;-0.0986426;0.11477369;-0.084556885;-0.009449084;-0.07346219;0.017953256;-0.10469054;-0.1104293;-0.078121506;-0.020352928;-0.06304945;0.04807598;-0.014722549;-0.08218158;0.05242311;-0.11860836;0.063217245;-0.02489838;-0.0124633545;0.0015422483;-0.12365419;0.045055244;0.037585467;-0.11298093;-0.08997129;0.044168506;-0.067906335;-0.0017366533;-0.05097351;-0.06237653;-0.01752667;0.09339551;0.11591598;0.0093656285;0.0050495947;-0.0014807147;0.082927;0.07928109;0.11568557;0.034476746;0.055842336;0.035474107;0.030606687;-0.002778737;-0.07051158;0.013369607;0.06626704;0.004494336;-0.030880742;0.13480613;0.069189325;-0.106121086;-0.07174075;-0.027376894;0.096936494;-0.034978885;-0.019548949;-0.12154893;-0.02760117;-0.057748772;-0.028006066;0.06907981;-0.03907632;-0.02956011;0.061265573;0.137518;0.06088803;-0.0027289423;-0.15021427;-0.031577986;0.043052826;-0.034684174;-0.08966389;-0.052568085;-0.021663342;0.048394416;-0.025259078;-0.03219375;-0.075340524;0.0043406053;0.02573808;-0.0035789076;-0.06355373;-0.06338574;-0.045040756;-0.09211745;-0.06758132;-0.016100787;0.0013131473;0.028067635;0.089493826;-0.060520668;-0.04495048;-0.07169609;-0.030619595;-0.11087907;-0.022238942;0.04591036;0.057511635;0.041527882;-0.029903064;0.025088448;-0.10978971;-0.0637021;-0.01827963;-0.07070212;-0.06418209;-0.0086476365;-0.16650306;0.01767199;-0.07712143;-0.0876595;0.16299613;-0.037481423;-0.035815667;-0.3818546;-0.07500517;0.070308045;-0.0029308253;0.009059786;0.07191575;-0.0024628092;-0.033606812;-0.0632332;0.044772413
0.0006234549;-0.11304515;0.06394218;0.07118261;-0.023861816;-0.046509672;0.0444569;0.06981046;-0.091209926;0.06061223;-0.034793407;-0.13690896;-0.0047891783;-0.08189027;0.029666902;-0.055588167;-0.04230292;0.041813936;-0.007118073;0.056516405;-0.05439244;-0.07477922;-0.00412783;-0.011130091;-0.056372993;-0.13301438;-0.00085572415;-0.0009991362;0.14476371;0.0180877;-0.068912685;-0.07341788;0.008812431;-0.09634068;0.06346541;-0.085599214;0.047593873;0.013965731;-0.019541819;-0.014365651;0.07328826;-0.1530928;-0.019804798;-0.051362686;9.846524e-05;0.004386469;-0.0205321;-0.087015375;0.053187396;0.0007298788;-0.05949665;-0.084938005;-0.05256509;0.08042673;-0.07969204;-0.0683082;-0.07010993;0.010428277;0.055307534;0.07267392;-0.042218134;0.062095188;0.07012325;-0.058533657;0.014968399;-0.03874955;-0.040931843;0.2455085;0.008098611;-0.001738035;-0.034379534;-0.038093325;-0.10354296;-0.11506501;-0.09354571;0.044621594;0.09299173;0.2024689;0.028842118;-0.07379364;0.07852834;0.016612587;0.17278254;-0.09686234;-0.09012352;-0.02333033;0.16457374;-0.020823292;-0.0014474576;-0.016697397;0.020737307;-0.035550974;-0.038382936;0.029253189;0.0141482875;-0.08391402;0.1383198;-0.053570915;0.003379055;-0.032518514;0.050918892;0.07379813;-0.060647666;0.09173511;0.043446284;-0.111500524;-0.08649902;0.068691656;-0.024063757;-0.005229923;0.08749353;0.060702376;-0.092861116;-0.02843193;0.07800618;0.09521823;-0.30598614;-0.009336592;-0.013000444;0.24058996;0.13434088;-0.07130493;-0.04640591;-0.021831762;-0.014415224;-0.087979466;-0.017444145;0.013189981;-0.08713301;0.0073752357;0.083698854;0.0170052;0.11075557;0.07498305;-0.17537779;-0.06180607;-0.037385385;0.09748847;-0.029848441;-0.1170834;-0.035577413;0.014839466;-0.008312952;-0.06145425;0.02334364;0.09930796;0.021770956;0.006430139;-0.09223466;-0.004466518;0.02263149;0.082819;-0.050203085;0.097115315;0.1751863;-0.29487458;-0.19044968;-0.03481168;-0.025135744;0.027637498;-0.018620081;0.008358074;0.010184653;-0.03553546;-0.035150748;0.05413128;-0.051297303;0.01704024;-0.12329907;0.0034975095;0.08067075;0.07383425;-0.06188086;-0.029502207;0.028230956;0.0739233;-0.0012667201;-0.044915885;-0.18420044;0.01786591;-0.09647584;0.03669881;0.033063028;0.071867384;-0.021486728;0.0022596582;-0.0961466;-0.01935201;0.03091083;0.052224107;0.0447334;-0.07933611;-0.05292632;-0.035572432;-0.044166837;-0.024434254;-0.055258207;0.030106202;-0.03861596;-0.024870306;-0.022284715;0.27643728;-0.05283514;0.020444028;-0.04179826;-0.058109246;-0.10322918;-0.08665906;0.072359994;-0.075195044;-0.107501045;0.090131946;0.027567701;-0.1121288;0.07460377;-0.098635904;-0.060291864;0.058739685;0.03756609;-0.05416433;-0.009570868;0.120676;0.060464688;0.040665332;0.071839415;-0.124773964;-0.02389292;-0.016467206;0.17291474;0.1220919;0.02942373;-0.018331839;0.12043734;0.051499326;0.051438604;0.038989555;0.035055764;0.0043507745;-0.04639337;-0.072044685;0.029373458;0.11366317;0.10135607;0.08956289;-0.02729374;0.102465376;0.052470054;0.13317396;-0.0321964;-0.019164577;0.0010096722;-0.006769619;-0.24771439;-0.04618472;-0.0051469584;0.14075121;-0.13231511;0.073042154;-0.0037600806;0.028315397;-0.06073566;0.035145;0.08522133;-0.04375131;0.0252917;0.04213054;-0.03442747;-0.074904494;-0.03946387;-0.045303896;0.002254292;0.15161051;0.02260099;0.060917716;0.07365042;-0.015130424;-0.055046752;0.031398203;0.05298081;0.05324162;0.10735339;0.004590309;-0.06486181;0.22722863;-0.048490807;0.002807103;-0.030910317;-0.031016449;-0.007686823;-0.010242514;-0.13462502;-0.021334687;0.06069224;-0.075312994;-0.06052447;0.0041906703;0.10242382;0.04771466;-0.041968383;0.07381318;-0.010335939;-0.051469173;0.05017801;-0.03538471;0.066079564;0.036907334;-0.005625093;-0.04416199;0.18314746;0.055171125;0.11844071;0.13564976;0.08893217;0.18050826;-0.045338657;-0.035265412;-0.057634942;0.005116363;-0.01857557;0.25545943;0.046550866;-0.05247479;-0.033126514;0.088531956;0.092437424;-0.07138576;0.0038982027;0.00063216186;0.05036888;0.08102631;0.08121624;0.060879897;0.015346189;0.06491916;-0.10416878;-0.050708946;0.012497927;0.005489889;0.22103587;0.08203649;0.045861255;0.24806935;0.015246692;0.012676802;0.06320893;-0.072379574;-0.050288465;-0.040281557;0.068817645;-0.06697876;0.19221385;-0.02555118;-0.005470689;-0.0256879;-0.03778671;-0.036723133;-0.015518071;0.08155555;0.031601444;0.14611773;0.09787245;-0.1041173;-0.0650729;-0.04586766;-0.066720806;-0.05536587;-0.03724126;-0.03160015;-0.06916494;0.07914541;-0.018758912;0.15295748;0.064267;-0.06044943;0.10895333;0.21006607;0.03001259;0.2135094;-0.07564207;-0.06363827;-0.059135072;-0.03217602;0.16925232;0.025468007;0.06956963;-0.11376618;0.03908288;0.017652791;-0.07882536;-0.07135849;0.011802475;-0.0035673166;0.024328057;0.056104463;0.044274833;0.0006017311;0.016721953;-0.0062231924;-0.07094816;-0.034073777;0.07155146;0.0010832839;-0.037759677;-0.01377195;0.09587387;-0.2020905;-0.18968725;0.038886447;-0.080518715;0.049955375;0.030731257;-0.028414452;-0.14192547;-0.04861776;0.06356382;-0.09339815;-0.08258645;-0.14088778;-0.04235242;-0.11574462;-0.026831755;0.104030944;-0.046566498;0.0027688018;0.009073444;0.02665549;-0.09189444;0.010225085;-0.08040044;0.046188265;0.059655417;0.020354569;-0.009909349;-0.07465801;0.03971143;-0.039504357;0.0047886497;0.014824177;-0.0524851;0.037748847;-0.03536745;-0.02604242;-0.05037244;0.1303092;0.04409596;-0.08183979;0.17604421;-0.0746561;0.031814955;0.026152486;0.10528446;0.039739862;0.07391414;-0.07960039;0.0624095;-0.08479473;0.19491759;0.17446354;0.06325809;0.023676194;0.055189166;-0.005634519;-0.09987191;-0.10973522;0.06398933;0.0028018442;-0.14407559;-0.008185512;0.041478615;-0.06906712;-0.038420036;0.11428165;-0.04794005;0.021043127;0.002538509;-0.006981352;0.07170711;-0.080519155;0.14040196;-0.09186419;0.05900603;-0.035887644;-0.13599625;0.17911088;-0.09252623;-0.09037298;0.040752076;-0.031580374;-0.02889265;0.0064588757;0.031605136;0.039960537;-0.050434567;-0.023344697;0.024281299;-0.1512491;-0.049061332;-0.08048865;-0.060484875;-0.044738013;-0.16445154;-0.14493743;0.004310181;0.026545836;0.0052376133;-0.061487336;-0.0064609135;-0.04949153;-0.10867001;0.034826998;0.064774424;0.072783135;-0.042629194;0.05647227;-0.15039843;0.07098033;0.09788269;0.0018593054;0.06217064;-0.11915422;-0.008030296;-0.038547087;0.026642064;-0.107505195;0.043126404;0.00500929;-0.0504296;-0.045383796;-0.040516227;-0.052291095;0.03982567;-0.0046612583;0.25259265;-0.0026082317;-0.06596917;0.02175398;0.032374766;-0.07873133;-0.119130865;0.1537242;0.05411375;0.077509224;-0.064581275;-0.068464085;-0.0041826055;0.045807805;-0.07886378;0.020748707;-0.03436448;-0.08275829;0.020328827;0.11159991;-0.03745813;-0.060841296;-0.06852664;0.008316592;-0.048602603;0.082302205;0.13918188;-0.0614411;0.08316569;0.047589693;-0.0150270555;0.005968243;0.030850384;-0.008142427;-0.269913;0.062399067;0.048816577;0.035837505;-0.07348501;-0.026627824;0.12179674;0.07449474;-0.013843658;0.0028168699
0.028406588;-0.05705837;-0.012480566;-0.20765053;-0.025352305;-0.117568865;0.22617821;-0.04534551;-0.21331777;0.05155711;-0.105718784;0.007923064;0.07441053;0.0693018;-0.014012384;-0.09269304;-0.11505826;0.1657157;-0.039729394;-0.005742371;0.015753152;-0.019908521;-0.09596428;0.025942435;0.060558442;-0.0587842;0.020137051;0.06724856;0.16691978;0.16084045;0.023956573;-0.18117826;0.038383003;0.084663816;-0.014469351;0.043505453;0.1543299;0.2193939;0.021354627;-0.080666915;-0.09054588;-0.092540324;-0.070687324;0.056098726;-0.11081798;-0.101538315;-0.03717109;-0.0065445504;-0.005785108;-0.015951071;0.042891093;0.09388518;0.061015997;0.14461534;0.015406247;-0.062178575;0.021220721;0.0666022;0.013266649;-0.07343155;0.08258998;0.03761742;-0.018173227;-0.037120394;0.03663606;0.06107742;0.04295278;0.010611473;0.0498594;0.025756584;-0.06407858;-0.14975084;0.04811904;-0.1380975;0.036462255;-0.017323324;-0.059935283;0.16178028;-0.11180968;-0.08376711;0.046720456;0.017761637;0.123930335;0.08514318;0.002636417;-0.017522126;0.12514777;-0.06679148;-0.054744106;0.037618794;0.012009007;0.011716538;-0.059913903;-0.08083054;0.05003313;0.02056797;0.011537717;-0.04360288;0.0091069015;0.06506471;-0.03526944;0.0034310468;-0.042150833;0.036536917;-0.0063930387;0.09959621;-0.06592374;-0.014636483;0.1290491;-0.017224133;0.117231764;0.024663815;-0.04712615;0.030955488;-0.029423298;0.0019571267;-0.24943976;0.04467382;0.13510518;0.00031172627;0.1579122;-0.016630778;-0.08371793;0.0688276;-0.048765562;0.11123209;0.053727552;-0.07699459;-0.009272537;0.0022138392;-0.03375524;0.07542444;-0.06379289;-0.002008775;-0.18337445;0.04121077;0.11417515;0.07437953;-0.04926197;0.099789515;0.15922113;0.014685369;-0.060375568;0.061129298;-0.0010136628;-0.10240236;0.03408546;0.10465852;-0.037657477;0.043377858;-0.027631933;0.067307055;0.051909078;-0.022963433;0.18583025;-0.32535598;-0.30222255;-0.040624354;0.016484976;0.014816039;-0.05770633;-0.0799774;-0.049427312;0.01011911;-0.056118943;-0.011723866;0.064966105;-0.058093537;-0.1897753;0.01953357;0.040373154;0.07175405;-0.024922572;-0.042979166;0.093377285;0.08652323;-0.052483752;-0.046518594;-0.2349678;0.019359982;-0.11404491;0.037599623;0.024220634;-0.086384736;-0.060966812;-0.025186786;0.051031314;-0.17335315;0.08555525;0.0031128917;0.014781072;0.02753447;-0.17757325;-0.05729594;0.05475971;-0.012572174;0.11480861;0.08725773;-0.11643905;-0.002280994;-0.083449185;0.19265746;0.09296499;-0.027044503;-0.10257526;0.024744341;0.032087497;0.065749;0.05542748;-0.012681514;-0.17672908;0.09210474;-0.06912796;-0.20563397;0.021206724;0.065996334;0.011995178;-0.03985579;-0.11046952;0.07298519;0.037311587;-0.04998867;0.008630228;-0.08264407;-0.028638797;0.025346687;-0.10280016;-0.30137193;0.1124101;0.039269336;-0.005937355;0.05522163;0.050479077;-0.009059601;0.09450627;0.05316293;0.045322217;-0.05840177;-0.009275886;0.057769425;0.08408395;0.07231203;0.04743984;0.0939314;0.019004367;-0.038704168;-0.06702928;0.060541056;-0.0064247325;0.04162984;-0.066891454;-0.06971908;-0.19507183;0.05534126;0.00790068;-0.122208215;0.10847907;-0.063090615;0.055599134;0.0146318255;0.07193257;-0.054108374;-0.11115121;-0.06464321;0.08569891;-0.04674213;-0.07243239;-0.09233607;0.06131043;0.052597485;-0.16404046;0.23644982;0.08817041;0.017810656;-0.082454406;0.117785916;0.091631085;-0.09080487;0.013535754;0.09030277;-0.14741413;0.01259686;-0.037425365;0.08870317;0.060729645;0.019451637;0.08149522;0.09547917;0.016807163;0.025544267;-0.18485716;0.044120226;0.018379813;-0.047727577;-0.076591335;-0.015180732;-0.048493046;-0.028860094;-0.02221706;0.073202275;-0.068322666;0.041205093;-0.09001083;0.0118498895;-0.12769952;-0.010063869;-0.060832027;2.2390781e-05;0.035640445;-0.031460322;0.03221215;0.043374915;-0.025276817;0.057983592;0.12717123;-0.024100253;0.12043847;-0.16647688;-0.0022686685;0.25594795;-0.042013932;0.006616528;0.022594258;0.034740143;-0.07697491;0.1161906;-0.04629144;-0.08028369;0.037155047;-0.08229575;0.21965325;0.05469358;0.116052665;0.05969753;-0.15505975;0.074454255;0.05351856;0.0370556;0.15547365;-0.061034452;-0.095871955;0.134312;0.08104638;0.09445113;0.047998797;-0.047650784;0.0414394;-0.00024688538;-0.032036312;-0.06415453;0.06352212;-0.09072204;-0.14693949;0.04051834;-0.019558793;0.0845866;0.10904047;-0.093219146;0.073096454;0.060563203;-0.045534823;0.026728515;0.026235629;0.084251985;0.049613032;-0.019757826;0.037907492;-0.034126133;0.055818018;0.028579026;0.015344404;0.02264194;0.013225952;0.013538008;0.018578982;0.22493437;0.10591834;0.19488992;-0.011017641;0.09043365;0.054815967;0.0786044;0.13119712;0.050289176;0.051770464;-0.079060756;-0.04436717;0.054956477;0.08268084;0.06477086;-0.03051292;-0.06426246;0.031839952;-0.0706608;0.030051712;0.028594084;0.02979301;0.080213085;0.06789143;-0.07693399;-0.02461348;-0.033811606;-0.029895222;-0.09940954;0.032764062;-0.039967205;-0.16753638;0.06360312;-0.0268703;0.0008117121;0.1379548;0.027597677;0.024517596;-0.1368477;0.06254899;-0.16851325;-0.25660437;-0.05575988;0.032327577;-0.061685678;0.008859853;0.053570803;0.004316328;0.039910253;-0.006649598;0.12125877;0.04445968;0.03340104;-0.022836132;-0.19945924;-0.07107781;-0.023905322;-0.051955935;-0.024478525;0.065742455;-0.027058112;-0.044801284;-0.00528725;-0.09114067;0.0627743;-0.23140766;0.019257523;0.0272482;0.07982615;-0.059123173;-0.13379295;0.16453193;0.012197744;-0.0020836862;-0.022226952;-0.001141195;-0.01594539;0.022028299;0.11147274;0.019247018;0.015849743;0.11213086;0.08513011;0.009994628;-0.09669716;0.059517466;-0.0016047774;0.020909576;0.010031352;0.020961799;-0.040835984;-0.11152006;-0.0052680145;0.017655151;0.021871457;-0.044422127;0.0020807774;0.08731095;0.025194447;0.009262479;-0.02996367;0.1062996;0.06330728;-0.054199323;0.0047722273;0.06087753;0.049436547;-0.03199433;0.03623115;-0.06722029;0.03998012;-0.075972244;0.10865819;0.1006003;0.07352655;0.024300672;0.03674921;0.05219606;-0.009316996;-0.120007746;0.1539978;-0.012816728;0.071500994;0.062325362;-0.10909678;-0.104608275;-0.23345412;0.005048308;-0.044480547;-0.042754598;-0.03962776;0.086909145;0.06687117;-0.16388063;0.057407685;0.028952803;-0.021271693;-0.043624446;-0.055904243;0.0026299963;0.07127509;0.026077608;-0.00740104;0.09966175;-0.14234094;-0.03855444;0.019344913;0.061911743;-0.18912321;0.0323576;-0.009026021;-0.012520704;-0.043922607;-0.021685941;-0.145255;0.024463618;0.04238073;0.0186212;-0.12103694;-0.064309895;0.054746937;-0.05972614;0.05121385;-0.0854304;0.23587628;0.08587213;-0.047901645;0.0489698;0.10107798;-0.047753517;-0.05368279;-0.047467165;-0.08202062;0.058966268;-0.0014122772;-0.053464305;-0.0016201553;-0.045033623;0.075760536;0.059746623;-0.017603137;-0.059636075;-0.052201483;-0.08409559;-0.19081347;-0.07936603;-0.029024174;0.05739336;-0.05712533;0.021145811;-0.0057444936;-0.1444396;-0.062342104;-0.035331726;0.028047258;0.005787002;0.14874364;0.02217965;-0.032409582;0.01364936;0.06597255
0.10142761;-0.018568631;0.040431015;-0.33935276;0.0943585;0.025338123;0.1224105;0.068764046;-0.3103611;0.050754387;-0.008735677;-0.093288176;0.0033272533;0.00041395365;-0.052940734;-0.06292815;-0.13751717;0.15290216;0.026694598;0.078702986;-0.040587254;-0.0046266136;-0.05044889;0.03272307;0.03661315;-0.029777205;-0.032086942;0.03439957;0.0020150952;0.06510835;0.000960019;-0.09979196;0.023474932;0.23404212;-0.07461108;-0.010938536;0.13680653;0.18943572;-0.012458519;0.08528086;0.0046798047;-0.26105803;-0.15734702;-0.0073647345;0.1250486;-0.1005737;-0.03576581;-0.060904462;-0.052603044;-0.14562291;-0.030330533;0.06348059;-0.039665673;0.018958569;0.10530691;0.007076998;0.027531845;-0.03547481;0.045579936;0.020975426;-0.18247677;0.039106812;0.22978164;-0.07073972;0.00975819;0.049672373;0.039397493;-0.0460801;-0.01238395;2.620488e-05;-0.10919367;-0.054851543;0.09696434;-0.18960488;0.072566375;-0.0058277305;-0.08365361;-0.038371153;-0.15481447;0.02547695;-0.059545334;-0.051864523;0.093609;0.021612722;-0.038500566;0.057422157;-0.1109328;0.0489391;-0.027844517;-0.050678607;-0.071113035;-0.013872061;-0.009299432;-0.00017808957;-0.013978694;0.10876102;-0.07836265;-0.06340117;-0.011313577;0.092654325;-0.01199476;0.19405794;0.16816191;-0.04816721;-0.07024081;0.14149608;0.029708998;-0.08624126;0.06632729;-0.0024640164;0.045132633;0.014999646;-0.112604;-0.031935684;-0.057412505;-0.035648413;-0.26393557;0.013161379;0.026366472;-0.1298859;0.11136594;-0.006437651;-0.107094504;-0.03125049;-0.028260369;-0.043925166;-0.026804494;-0.07274207;-0.070408426;0.06031607;0.027114475;-0.06863321;-0.1097964;0.07271016;-0.2667336;0.062304374;0.043417282;0.014527378;-0.20927095;0.11418148;0.06346839;0.014146055;-0.013196292;0.011605007;0.062656134;-0.14109974;-0.025293488;0.018943466;-0.040735018;-0.06286725;-0.0023660022;-0.053070843;-0.0004844062;-0.06931542;0.12179307;-0.1465382;-0.13264726;-0.04987695;0.09937932;0.03650744;-0.0013588436;-0.039960347;0.12233512;-0.08157501;0.07321178;0.017056609;0.0053443345;-0.066689245;-0.208967;-0.06937266;0.027039884;0.12981261;0.009361858;-0.02086734;0.050279215;0.0017222033;0.052036066;-0.048175465;-0.11898489;-0.059990738;-0.09306704;-0.062106177;0.032854736;0.030434603;-0.07407649;0.07200902;0.040198795;-0.18111794;0.1588462;-0.025255727;0.07021984;0.038821794;-0.049232885;0.06447704;0.03050506;0.03903187;0.24404283;0.08156149;-0.019921279;-0.06456655;0.04810331;0.05840898;0.07111995;0.08666542;-0.036021072;0.068823494;0.15424998;0.11652745;-0.008646378;-0.035795234;-0.11422128;0.025247106;-0.044000845;-0.18676317;0.055950347;0.051181886;-0.08803067;0.07511232;-0.0533703;0.06574782;0.031561676;0.010256143;-0.018058741;-0.04482445;0.016594453;-0.044770844;-0.23826098;-0.049760766;0.053043414;0.04493683;-0.02571969;0.045300245;0.028219022;-0.05821696;0.07797561;0.025132619;0.07090797;0.032293957;0.042239226;0.059070133;0.020985993;0.16062912;-0.028052382;0.017254159;-0.041379694;0.11998039;0.06406824;0.1836697;0.08963058;0.034624938;-0.013346618;-0.02062797;-0.2886478;0.10283163;0.09052597;-0.07911813;0.061458837;0.02518984;-0.012646191;-0.08296802;0.06828516;-0.04108238;-0.0012479329;0.01264971;0.024165692;-0.017429896;0.07765045;0.0013709852;-0.0039175367;0.023919128;-0.16721757;0.12314047;-0.01779535;-0.0069134086;0.02739512;0.07732436;0.12340136;-0.1552028;-0.21160871;-0.023289902;-0.17901626;0.016615426;-0.00837138;0.04061446;-0.004860615;-0.06310533;-0.034360416;-0.07757383;0.12118825;-0.07987279;-0.24541518;-0.004849313;0.021101957;-0.010125837;0.0080535505;-0.085053846;-0.19466166;-0.12083318;-0.0018104552;0.06204336;-0.110346824;0.04504987;-0.00027514;0.009505477;-0.08181619;-0.015808193;-0.11337051;-0.054928325;0.13485743;-0.052119162;0.081831284;-0.029428286;0.0004942493;-0.0002382271;0.05058552;0.05710723;0.19176528;-0.052032795;-0.017063614;0.14664398;0.06287197;-0.035242222;0.024741737;0.07346281;-0.055882886;0.09483504;0.017887713;-0.066923425;-0.017995227;0.017633406;0.2049153;-0.023485836;-0.05085694;-0.053161267;-0.000554772;0.0866814;0.06266981;-0.045532122;0.017028188;0.0076740105;-0.11319658;0.083973534;0.0039037548;-0.080274194;-0.07714847;0.009653812;0.060418062;-0.0537524;0.0078480095;0.008006818;0.11856104;-0.10698671;-0.15296257;0.04619572;0.06695524;-0.06046845;0.10813963;-0.026288372;0.08493489;0.034880992;-0.003876664;-0.09605779;-0.038352497;0.030212568;-0.014592468;0.015076798;-0.071419455;0.10719724;-0.026468111;-0.03812894;-0.07301007;0.048071776;-0.059977647;-0.017785305;-0.011023966;0.16182566;0.1901401;0.11535463;-0.04301782;0.07803197;-0.036951363;-0.009082305;0.03925129;0.05422517;0.004996259;-0.11588191;0.052134518;-0.061401017;0.035393752;0.031072019;-0.067535944;-0.08918269;0.034667134;0.060497772;0.0025294616;-0.06820926;-0.03243576;-0.01548524;0.012415703;-0.010822205;-0.14184187;-0.03934598;0.12098437;0.03232581;0.09137403;0.0053808335;-0.26779884;-0.047237605;0.02497171;0.020697763;-0.040930912;0.005542545;0.15895718;-0.05815253;0.043568242;-0.14615624;-0.06477039;-0.0997452;0.054737642;-0.21513513;-0.0040746187;-0.06428075;-0.035539296;0.03766858;0.06827544;0.010840309;0.16808967;0.026635433;-0.042954244;-0.21047856;-0.091346115;0.08511777;-0.11182125;0.013430989;-0.1804158;-0.04795311;0.06968165;-0.007191423;-0.0028316793;0.02930205;-0.08906682;-0.043313883;-0.026799396;0.06674146;-0.030999837;-0.11877386;0.10601174;-0.02182595;-0.038255397;0.031004218;0.106455944;0.09020153;0.08726007;0.095803805;0.024139209;0.03741497;0.027478956;0.19852795;0.08738092;-0.073479556;0.0024833847;0.04160149;-0.14609349;0.045919195;-0.033530187;0.0035670255;-0.18671648;0.036634333;-0.066865005;-0.023762561;-0.0131711485;-0.15037009;0.060591858;-0.011425593;-0.016190974;0.0093567;0.07731661;0.055846184;-0.09732424;0.047024027;-0.0659775;0.077487856;-0.15046504;-0.07228143;0.023340665;-0.06965934;-0.05084907;-0.04857493;0.08943531;-0.07977502;0.052822437;0.10734189;-0.034731936;0.03542064;0.04652898;0.2771078;0.05537521;-0.03941514;-0.048738025;-0.048616145;-0.2648154;-0.21927677;-0.023835521;-0.055554386;0.08964758;0.051656008;0.019271513;-0.016950125;-0.12472438;-0.060640812;0.0117967585;0.011419611;-0.026352024;-0.059764;0.047161333;-0.0050069196;-0.03598999;-0.08692267;0.021495115;-0.1274745;0.04070798;-0.03897618;-0.053721618;-0.28807133;0.019843696;0.0010133205;-0.0081365695;-0.07347426;0.08196481;-0.061034862;0.08594251;0.06325886;-0.04524191;-0.14308572;0.024752757;0.007992559;0.027456699;0.0175253;-0.02606531;0.031867392;0.009962196;0.0575305;0.052048184;-0.077734284;0.0071620266;0.013718129;-0.062340528;-0.032380592;-0.08573894;-0.01033679;-0.059686176;-0.11085424;0.04572543;0.010956887;0.037457075;-0.06630136;-0.03693919;0.0060561365;0.08070364;-0.017313773;0.04263954;-0.027872724;0.07841206;-0.028649902;-0.0026509364;-0.009889315;-0.12995018;0.056384396;0.063336685;-0.05341044;0.09514774;0.27480114;0.06714566;0.05929628;-0.04117683;0.0077525326
-0.02198854;-0.08753518;0.03806388;-0.24955733;-0.000785024;0.07240007;-0.10630948;-0.03325677;-0.16926159;-0.08664093;0.00059411355;0.0630147;-0.09500977;0.05652321;0.02272112;0.11822448;0.025822666;0.05190285;0.008047666;-0.07038009;-0.06161002;0.05829779;0.03570793;-0.013126294;-0.016939154;0.04026063;0.03959579;-0.011220654;-0.23817025;-0.020798007;-0.005540487;-0.014424703;-0.03468712;-0.0026615537;0.083408594;-0.046521094;0.050820928;0.10677575;-0.07588061;0.081333235;0.022419808;-0.25075218;-0.14651251;0.0736316;-0.09711828;0.037662607;0.0706527;0.1511372;-0.094595164;-0.10144052;0.10386559;0.24224378;-0.0108264;0.09887963;0.04550506;-0.056252092;-0.020647034;-0.038988505;0.06415947;-0.15083985;0.050937086;0.04968095;0.26985615;-0.062434472;0.069562264;-0.08629106;-0.023162315;-0.11090846;0.017128553;-0.028354602;-0.1506672;0.03155258;-0.050648276;-0.16032721;0.11216883;-0.024986874;0.054805797;0.022450399;0.011839665;0.059959497;0.0066333874;-0.07032265;0.1016982;0.12530304;-0.020953191;0.025782919;0.03280384;-0.02626516;-0.035498913;0.0132482145;0.09305752;0.09288637;-0.0135568185;-0.10668072;0.0970775;-0.004815927;-0.21604298;0.05748904;-0.023839802;0.057873808;-0.098427266;0.1999881;-0.01972008;0.0070774383;-0.08171249;0.037249863;0.0085623395;0.02015781;0.024934724;0.034890316;-0.0038050301;-0.11139425;0.05107288;-0.14983964;0.054344803;0.098300256;-0.17188412;-0.044673897;0.017885607;0.03291949;0.09963437;0.056337845;-0.11528542;-0.032254666;0.021669157;0.07590593;0.025136176;0.009153183;-0.047571465;-0.03449712;-0.039709117;0.013298609;0.011451001;0.16301699;-0.24463668;0.023133408;-0.058206744;0.066504546;-0.25026134;0.08899237;-0.22938643;0.08894733;0.11453186;0.034377903;-0.038053606;0.003303133;-0.07676725;-0.03624599;-0.061593506;0.14639165;0.056769535;0.07339549;-0.031293053;0.08670794;0.075798325;-0.018775625;-0.03726847;-0.20192227;-0.002203061;-0.06821725;0.087546915;0.028465852;0.2139184;0.06404655;0.007911822;0.065824315;0.05206557;0.027044695;-0.10670244;-0.057397492;-0.09905138;0.104315;0.05230288;-0.041716453;0.07929867;0.028442996;0.04773884;0.019334376;0.04038481;0.019847164;-0.0008329006;0.004011265;0.015868615;0.08536635;-0.021551814;-0.028997578;0.11816037;-0.052513894;0.11423239;-0.0012640292;-0.080444;0.048442416;0.008407638;-0.09047054;0.010097396;-0.0534374;0.07515174;-0.018678963;-0.11910495;-0.048340023;0.047258165;-0.048149586;-0.017105162;0.05345578;0.036103677;0.013137076;0.062288683;-0.046068262;-0.02813437;-0.0344059;0.055002414;-0.098277666;-0.012631261;-0.15173224;0.0047700675;0.0333899;0.0040254584;-0.018719353;0.0651401;-0.068230696;0.04266383;0.06589463;0.022056332;0.06524222;-0.05798434;0.004466832;-0.13848892;-0.034585066;-0.01371094;0.0031467448;-0.01989007;-0.19073637;-0.058321238;-0.2670042;-0.050675385;-0.00024255022;-0.05952574;0.049739663;0.030269975;-0.042079333;0.096893825;0.16168526;-0.0009754093;0.11059015;0.0102017475;0.05692941;-0.07911781;-0.088252194;0.015879624;-0.072041996;0.16562001;-0.007156219;-0.3212872;-0.018872093;0.05714408;0.05681732;0.108848654;-0.05959156;-0.040339638;-0.01642704;0.000861095;0.058080263;-0.10278042;0.0953334;-0.05461449;-0.056937527;-0.06234111;-0.075507425;0.026798721;0.08347709;-0.16623925;-0.09992182;0.008096232;-0.051690467;-0.02609108;-0.0046726097;-0.105256915;0.018247806;-0.10130187;-0.052327145;0.079243444;-0.09083188;-0.06314783;0.086956106;0.032783646;0.017527038;-0.0682317;0.050782144;-0.0447071;-0.007481682;-0.039688207;-0.021568134;-0.06997052;-0.09296857;-0.057151068;-0.07045216;-0.13181283;0.0034074371;-0.035582796;-0.10166943;-0.091952614;-0.014654998;0.04350673;0.17533363;0.13018976;-0.07636382;0.035187207;0.100153156;0.09480067;0.090828285;-0.018266536;-0.06206707;0.053811137;0.113959424;-0.10537713;0.0070767426;0.04595561;-0.06198951;0.024970371;0.024047095;0.07022551;0.034754332;0.019160315;-0.059520118;-0.021084137;0.059860904;0.029597681;0.12152687;0.03862156;0.0014777821;0.095514245;0.03436312;-0.005147472;0.044853825;-0.0921424;-0.065586925;-0.10144606;-0.0019717517;0.076763324;0.06856101;-0.021663731;0.044898886;-0.0070420885;0.05925582;0.043332074;-0.056313448;0.07418132;-0.019239873;0.06390436;0.043292735;0.07718475;-0.10970706;-0.13527563;0.01251057;0.14466041;0.123995215;-0.025913706;0.048318543;-0.05007314;0.01593511;-0.004767768;-0.016333332;-0.036395326;0.078293175;0.03462121;0.0006760984;-0.06823341;0.05918922;0.008508858;0.03614062;0.037716623;-0.118444815;-0.022509694;-0.0029931874;0.04449981;-0.20173094;0.05732731;0.1011408;0.007710184;-0.09388123;0.04458762;-0.09822821;0.052193865;-0.0856844;-0.018815208;0.014968563;-0.10695486;0.08494237;-0.008852168;-0.057543464;-0.10061095;-0.046931174;-0.07748559;0.028263807;0.039250832;0.10695522;-0.06389236;0.0030052292;0.06383693;0.031576175;-0.122491404;0.017474746;0.039584845;0.06315062;-0.118288755;-0.18130565;-0.15152842;-0.32608345;0.0854036;-0.024939978;-0.05455657;-0.02020525;0.07253627;-0.028510585;-0.04494023;-0.0042515;0.062174335;-0.059695315;0.07431648;0.14657126;-0.02730928;-0.015251185;-0.020584652;0.019719368;-0.0002812373;0.08714736;0.04037984;0.06867628;-0.015418723;-0.02837996;0.014235252;-0.041825168;-0.09696498;0.039840605;-0.026288996;-0.08503181;0.02338636;0.10674456;0.021730954;0.064958796;-0.16043368;0.03785664;-0.05291636;0.048995033;0.124914184;-0.13004121;0.007698128;-0.08396938;-0.11889142;0.056548964;0.051967442;-0.033130053;0.017455492;-0.18723968;0.1135048;0.072968885;-0.03250945;0.0906842;-0.033379544;0.0010931514;-0.07246146;-0.013158763;-0.1257693;0.015606502;-0.020430312;0.021378184;-0.0823453;0.003692834;-0.039000172;0.012863071;-0.06715693;-0.05893066;-0.00518253;-0.06769584;-0.07568059;0.09892649;0.005739633;0.042636022;0.02214628;-0.0623293;-0.03859031;0.005717515;-0.021500863;-0.052803963;-0.0027977587;-0.09098483;-0.042433325;0.09147997;0.026565824;-0.11052048;-0.012868476;-0.011006719;0.0124720335;-0.015357174;-0.02428606;0.280665;0.08907554;-0.042363632;-0.057926692;0.106046975;-0.16584332;-0.034795612;-0.009153092;0.0663271;0.005593579;-0.010398726;0.0028061115;-0.0901842;-0.11268485;0.0064907246;0.033510137;-0.023332188;-0.06359166;-0.050289635;-0.123113856;0.028846515;-0.106131345;-0.018566515;-0.0425079;-0.069206946;0.006653116;0.101168945;0.038276985;-0.20939003;-0.040697895;0.014248511;0.04163826;-0.054228928;0.0021633946;0.0870986;-0.06322191;-0.02596007;-0.010652045;-0.0058476683;-0.033165112;0.08828415;0.08177809;-0.04673817;0.19282545;0.17610888;0.03343799;0.042206608;0.070744716;0.04337435;0.095992826;-0.043640904;0.11433179;-0.0054585687;-0.055691827;0.067335755;-0.067967385;-0.009462636;0.021603012;0.04319835;0.04259544;0.07253302;-0.0478947;0.0493627;0.07756782;-0.052830487;-0.0029332507;0.0071712118;0.091772065;0.0028638719;0.06913862;-0.04466471;-0.063766405;-0.012436814;0.06303498;0.015243691;-0.020666743;0.27724257;-0.16568343;0.07285104;0.070163846;0.0024469646
-0.09120673;-0.06983179;-0.011485295;-0.07033527;-0.104562655;0.072871596;0.040784966;0.0469221;-0.13706471;-0.07978138;-0.0032197756;0.12226049;-0.06076658;-0.09460656;0.009715374;-0.009415949;-0.035158373;0.006515318;-0.0012680627;-0.013121514;-0.020069422;0.10019426;0.075897396;0.09352453;-0.046317205;0.27764454;-0.024163228;-0.06358666;-0.1442088;0.0029725377;-0.024630658;0.017635133;0.05347435;-0.043950643;-0.0040027453;0.033565775;-0.00041311217;0.062822945;0.06695379;0.084506154;0.09120272;-0.123933874;-0.26811382;0.014634361;-0.04944899;0.058999024;0.08987414;0.049076334;-0.062233016;-0.069505684;0.03807367;0.13030238;0.08767742;-0.029258193;0.081945516;0.06800659;0.025508367;-0.026256599;-0.109912;-0.110597;0.06440725;0.05453313;0.05604878;0.115337744;-0.03511375;-0.06359536;0.011279925;-0.04388345;0.055362653;0.07452593;0.043379296;-0.073892124;0.05821529;-0.21791182;0.100637905;-0.020312656;0.089049;-0.06884385;-0.10349562;0.0762431;0.051552296;0.039765418;-0.006498323;0.18817843;-0.056215312;0.11799035;0.03738404;-0.020618122;0.055662453;-0.041021235;0.056572057;-0.03177674;0.06269251;-0.11417099;-0.03408376;0.004331181;-0.14479734;-0.033366017;0.09396022;0.047216304;-0.012677733;0.0358084;0.09873979;-0.028088853;-0.031616323;0.0046594352;0.0067085405;0.02491262;-0.02225698;-0.040662833;0.07785851;-0.09450463;0.06183468;-0.15882155;-0.08637482;-0.005242579;-0.032645557;-0.06016116;-0.11301828;0.059223894;0.11066872;-0.062356196;0.05745559;0.02188794;0.060759995;0.03223881;-0.07100029;-0.049563646;-0.019977747;-0.02012826;-0.0812925;0.033320896;-0.040589858;0.11410174;-0.3170542;0.04784969;-0.011593267;0.03356595;-0.014426736;0.09164879;-0.16376409;0.067165256;0.08173968;-0.06719097;0.008065975;-0.1502747;0.081526086;-0.018178664;-0.006892013;0.05669219;-0.011679368;-0.06779806;0.001825006;0.039620608;0.037981346;0.17324334;-0.05057788;-0.11090167;-0.03548593;-0.013805969;-0.06722704;-0.029563209;0.13972186;0.06837185;0.06634293;-0.004349805;-0.013387875;-0.011983077;-0.22089076;0.04683203;-0.062312543;0.053436972;0.055532355;0.08379641;-0.04210732;-0.059477337;0.09136144;-0.04830196;0.005119274;0.044370152;0.077267654;0.088969;-0.0151041495;0.06377722;-0.036824048;0.0055609094;-0.009277315;0.0022619162;0.14692852;-0.003970324;-0.061640278;0.06922819;-0.043369386;-0.067450166;-0.014503255;-0.036453;-0.0025681278;0.033137538;-0.07071264;-0.0043446356;0.09826783;-0.041162223;-0.035350513;-0.06774983;0.06408218;0.06995567;-0.024471184;-0.028031139;-0.024855716;0.020364353;0.021862147;0.057852082;-0.049685102;-0.042433456;0.07166616;-0.020230755;0.022376452;-0.032426905;0.0352505;0.08195222;-0.06689418;0.1420102;-0.062533855;0.06766057;0.1032258;0.15532841;-0.10323085;-0.21307322;-0.01716741;-0.060928334;-0.09268644;-0.045903783;0.020804502;-0.15048893;-0.03766992;-0.07676311;0.08062724;0.012388522;-0.058210272;0.015519654;0.08794328;0.05168172;-0.05393325;0.011684731;-0.040096506;0.08154324;0.060259584;0.04001819;0.054573026;-0.074895956;0.008861447;-0.06682933;-0.2067075;-0.009798764;0.19834761;0.007585146;0.04972733;0.062439624;0.021199677;0.06460905;-0.022580473;0.023627711;-0.039182015;-0.007365812;-0.08334708;0.074657165;0.10548301;-0.046211198;0.014130747;0.009371059;-0.06153672;-0.06121975;-0.05352107;0.072831586;0.02726889;-0.0088170385;-0.13721216;-0.029822156;-0.06347633;-0.05170792;0.08300247;-0.12527467;-0.06914153;0.19165798;0.04829318;-0.012817987;0.008868081;-0.06198633;0.012203003;0.051341794;-0.10334179;-0.006720765;-0.03529775;0.010962338;-0.00014603024;-0.13615187;-0.083158374;-0.083560824;-0.026721004;-0.04629035;-0.14583522;-0.02010864;0.027297018;-0.054857906;0.1728181;0.07430208;0.09055076;0.079665154;0.057118036;-0.06790783;0.04425625;-0.0561771;-0.045620084;0.0561664;-0.058121942;-0.062828265;-0.038305942;-0.059376158;0.020216657;-0.028625133;-0.035890404;0.043346103;-0.046645015;-0.026950048;0.0803138;-0.088332646;0.08255121;0.12569988;-0.042806335;-0.03604703;0.09289052;0.10045484;-0.048212137;0.14886686;-0.055565853;0.022899445;-0.104326814;0.038084187;-0.025405306;0.09991445;-0.13568722;-0.111104354;-0.07637002;0.049888477;0.044655412;0.043256406;0.036474437;0.030304218;-0.05075368;0.017714351;0.0312775;-0.2859262;-0.053876776;-0.05319963;0.24724388;0.112678185;-0.072546214;-0.038003426;-0.03710787;-0.14891477;0.05603225;0.06305996;0.02980839;0.055290278;-0.046562668;0.10923279;0.04152382;0.037376944;0.039842173;0.109481744;-0.04828207;0.03179256;-0.014343486;0.071943425;0.03399889;-0.052932277;0.051663965;0.1179412;0.0059170355;-0.085960664;-0.05101357;0.0064349007;-0.052230358;-0.09408349;0.019598208;-0.09408137;0.011863246;-0.05313311;0.022143379;0.019149289;-0.07557926;-0.0420495;-0.0846418;-0.0044099726;-0.035484336;0.1622086;-0.04208583;0.037862718;0.025098775;-0.041484546;-0.05987033;0.0965104;0.09716656;0.0029025523;-0.013606735;-0.2894791;-0.07218289;-0.15521711;-0.02460757;-0.055598695;-0.1824871;-0.045592163;0.08538259;0.10650644;-0.12398358;0.018912712;0.04192814;-0.09208766;-0.05531433;0.15636192;-0.010701733;-0.026746528;-0.023201179;0.08005723;0.015926577;0.1136609;-0.04246076;-0.064642325;0.058205057;0.028133985;0.04469212;-0.034141317;-0.12788762;0.010660715;-0.013577997;-0.0534627;0.011391822;0.006538072;0.017933227;0.021329409;-0.10470432;-0.08181153;-0.028881954;0.067974985;0.06830816;-0.0998463;-0.039540682;-0.11381918;-0.101789676;-0.072272845;0.06487242;-0.037554562;0.008348531;-0.32662925;0.13027553;0.023253243;-0.03518237;0.012376901;0.17460077;-0.015340167;0.056660295;0.041643646;-0.050271392;-0.060947243;0.0119389715;0.040249284;-0.057402924;0.017421337;-0.0536104;-0.015315282;-0.033255834;0.04191596;0.09125435;-0.04979759;-0.00911459;0.05949864;-0.048436176;-0.029192895;-0.10528923;0.032134917;-0.023274621;0.049142167;0.15345374;0.07280431;-0.006556547;-0.15788439;0.06772585;-0.034294743;0.14879254;0.04853785;0.06485995;-0.10933922;-0.054268736;-0.020661777;0.03185602;0.16901459;-0.062888645;-0.05066038;-0.0028537596;0.049093388;-0.08067707;0.112222165;0.09669414;-0.04194532;-0.087491244;0.023542712;-0.05479716;-0.06291754;-0.14682764;0.008800116;0.018813448;-0.059928205;-0.014210875;0.020916482;-0.22490206;0.0051569375;-0.13009821;-0.07985461;-0.09518611;-0.06332366;0.049865212;0.04155248;-0.0410221;-0.14333604;0.095795326;-0.06795468;0.023503022;0.11560678;-0.0043997006;0.040007632;-0.108089544;-0.070770726;-0.19530104;-0.07374069;-0.08454524;0.0033449347;0.05741974;-0.041149706;0.10371983;0.15750444;-0.046228614;-0.043802857;-0.016198514;-0.03105774;0.05058155;0.0065514576;0.14143823;-0.07251883;0.10664695;0.023827503;-0.051621206;0.024348235;0.05662232;-0.011973822;-0.07060338;-0.024409136;0.06734712;-0.04243142;0.13366352;-0.12123702;0.04528612;0.042482737;0.16303426;-0.08058422;-0.023593029;0.089871824;-0.14162327;0.10603734;-0.04060555;0.0044953227;-0.0216637;0.13515282;-0.11332262;-0.05411976;0.03442817;-0.040539216
-0.08916554;-0.16667712;-0.060955666;-0.11920906;-0.05332998;0.059138604;-0.047916427;-0.009453416;0.026564438;0.029808965;0.08995277;-0.14366521;-0.008979111;-0.01756349;0.0872252;0.10327295;-0.0018571515;-0.14877671;0.04275281;-0.055007387;0.025437862;0.027135216;0.1439547;0.05604572;0.025345199;0.3564551;0.11424946;-0.023302091;0.05270323;-0.15781617;0.014607511;0.09449118;-0.08306371;0.012882038;0.043368027;0.041876175;-0.17577322;0.023728644;-0.063511714;0.013821197;0.037014775;-0.1883003;-0.44591218;-0.07013178;-0.02113905;-0.060712155;-0.065353885;-0.15760049;0.050928257;-0.030175803;-0.30053073;-0.152492;0.03361633;0.0033616913;0.05054223;0.08503951;0.0186767;-0.0019597046;-0.0014026368;-0.013004855;0.2885825;-0.015548614;0.062735386;0.16485973;0.036209118;-0.18001257;0.018946685;0.008841331;0.13058372;0.111101225;-0.015835524;-0.09381194;-0.02374247;-0.07603183;0.11698476;0.07017507;0.10286522;-0.304904;-0.10489109;0.09900893;0.07360459;0.13017589;0.13593702;-0.022103153;0.04409321;-0.07953674;-0.011205257;0.12480199;0.17387937;-0.015177798;-0.0073123304;0.106249586;-0.00581402;-0.19146863;0.03100928;0.017360153;-0.017859519;-0.028241662;0.02869942;-0.09580751;0.0114091085;0.015129953;0.1312273;-0.101113304;0.14113104;-0.015400165;-0.0285089;-0.08342739;-0.024936015;0.07471001;-0.01717296;0.0031544457;-0.009324341;0.053229876;0.037718594;-0.031044813;-0.27029693;0.12682694;-0.0025873142;-0.055647764;-0.013360353;0.023595663;-0.041290298;-0.06498459;0.13541625;0.061049253;-0.07657412;0.12511845;-0.0571018;0.08145471;-0.082682885;-0.110215776;0.025130458;0.0057684886;-0.37358853;-0.10050596;0.020605043;0.09961924;-0.29392028;-0.13042188;-0.20730977;0.002174538;0.105089575;0.05049046;0.008340826;-0.108095296;-0.032653704;0.03038075;0.02295055;0.068852864;0.041806363;0.027285753;0.08057746;-0.010632262;0.08941089;0.04328396;-0.07563638;-0.037037604;0.05979134;0.016795631;0.0023375163;0.07831925;0.073656775;-0.025949372;-0.022548262;0.036793217;0.01804073;0.015972838;-0.32755414;0.05720355;0.007124125;0.080837086;-0.027656218;-0.008887541;-0.10602637;0.030261787;0.07287722;-0.081599586;0.050049823;-0.027957734;0.11535298;0.015519628;0.008666438;-0.067055374;-0.1965367;-0.08493095;-0.03295747;0.15182324;0.055794585;0.14512469;0.059011325;0.025999088;0.017789546;-0.08390132;-0.10900941;-0.10520381;0.023252418;0.018172842;0.10284839;0.045971245;0.025602907;0.2068541;0.055476908;-0.012167858;0.097323395;0.0061915074;0.075674094;0.033328805;-0.06350879;-0.30340382;0.029457018;-0.12738362;0.102913335;-0.013050359;0.093174696;-0.113580085;0.011891139;-0.0638821;-0.026250865;0.06702455;0.032503597;0.14210166;-0.0636627;-0.009211474;0.038843;0.12270653;-0.03791988;0.02064188;-0.04554029;0.10916291;0.1578706;0.15236919;-0.0005227297;-0.025505682;0.06476245;0.02257449;-0.0793851;-0.023676464;-0.10035661;-0.0015541286;0.104716524;0.06100013;0.033876948;-0.06677287;0.04305209;0.18093272;0.13378054;0.03255221;0.051437724;0.05105109;0.15011984;-0.007541783;-0.33572224;0.12405176;0.021815095;0.15543437;-0.054895673;0.046890818;-0.105577655;0.013610656;-0.0055933804;0.033697296;-0.025602814;-0.04876929;-0.11743893;-0.024243377;-0.031215442;0.0889991;0.064883344;0.06923218;0.011087008;0.07482314;0.0023659293;-0.013288019;0.009930748;-0.044861853;0.011135501;-0.12894614;0.03893711;0.013024601;0.12264289;-0.068396345;0.06339063;0.17829064;0.027060198;0.01916633;0.032702938;0.025650423;0.03919543;0.08690883;-0.11007579;0.043733448;-0.030304;0.0497991;-0.04232902;-0.45085642;-0.07864524;-0.0040147766;0.036387324;0.01495491;-0.17202038;-0.12812552;-0.0006038665;0.26498973;0.051928412;0.021807866;0.031013977;-0.07022988;0.08319236;0.12014361;0.10890304;-0.007970849;0.083528765;-0.016002025;-0.012467404;0.087465465;-0.06043543;0.22973078;0.072220735;0.092438325;0.049199235;0.010809399;0.028677747;0.07888843;0.08497514;-0.043988522;-0.014516774;0.05563984;-0.061615217;-0.06537666;0.19405001;0.06875791;0.062163096;-0.03414107;-0.15300873;-0.0029903026;-0.034875575;0.014606075;0.07573569;-0.07278864;-0.03557516;-0.07034399;-0.10473909;0.057669695;0.019151885;-0.015661307;-0.15074919;-0.12485466;0.014135871;0.04802918;0.19549672;0.009565618;-0.024310049;0.06831383;0.22934893;0.06629852;-0.173546;-0.007933558;0.018149883;-0.083774954;-0.0059103235;0.11462725;-0.17671518;0.0072844555;-0.032147348;0.041407555;0.0058023664;-0.027748697;-0.08154835;0.07254887;0.041758575;0.09080794;0.07328686;-0.0412482;-0.08507151;0.031556055;-0.043811705;0.108456634;-0.00083798566;0.01283373;0.025607912;-0.030384773;-0.083020635;0.013420939;-0.083879486;0.0133627355;-0.0147613995;0.017748697;-0.08614264;-0.056512248;-0.18446453;0.026843565;-0.018712291;0.019589478;-0.055693254;0.1781383;0.057772405;-0.12090316;-0.049571544;-0.21663192;-0.034241002;-0.021123677;-0.060633082;0.15262634;-0.13283929;-0.46976718;-0.24752429;-0.13697772;0.044521317;-0.041541435;-0.16856219;-0.056986406;0.031346127;0.08246681;0.13960831;-0.015970798;0.08464315;-0.071032606;-0.114104256;0.09164749;-0.012234607;0.015976662;0.030659528;0.057289038;-0.10896894;0.06125212;0.055809416;0.0077764005;-0.088400744;-0.0131864585;-0.009412657;0.026122235;-0.20458817;0.10089831;-0.14284155;-0.12662904;-0.05625404;-0.12263416;0.031479698;0.060816415;-0.11363459;-0.13192622;-0.11911857;0.00042470708;0.06155763;-0.17775407;0.05354597;-0.29468432;-0.06949267;0.006794025;-0.067222714;-0.020875024;-0.12808453;-0.49201602;-0.097740844;-0.04578651;0.21600008;0.04668618;-0.08856271;0.011268217;-0.092531525;-0.049497504;-0.04370158;0.0026910356;0.07954499;-0.03400983;-0.018135453;-0.21814054;-0.065866545;-0.038709197;-0.024848467;0.037865523;0.003408255;0.082104996;0.09236843;-0.06636153;0.03940922;0.04985452;-0.07314507;0.021541595;0.07794598;-0.05647047;0.23947215;0.093693964;0.03147637;-0.35622355;0.015816094;0.0025576241;0.23800866;-0.0035040837;0.07379059;-0.124962136;-0.03721259;0.10316848;0.046709534;0.049736567;-0.03452234;-0.07120652;-0.10090621;0.1380508;0.046169322;0.12789026;0.027923914;-0.05515545;-0.0023531409;-0.03358317;0.06005536;-0.024318848;0.11948788;0.014135984;-0.110532634;-0.014595537;0.06979759;0.03336784;0.15925767;-0.04322062;-0.18184057;0.06625569;-0.029625865;0.12998845;-0.056786288;0.03384033;0.04388514;-0.30974725;0.042361107;-0.08390588;0.028197274;0.117534034;0.018966697;0.061351776;0.007883697;0.014632242;0.032968283;-0.03865116;-0.022206493;0.18452728;0.058039457;-0.07420977;0.27584264;0.111931205;-0.035289604;-0.08413166;0.07001882;-0.06113704;-0.042010546;-0.008151784;-0.090998344;0.015840154;-0.028179292;0.043087546;0.050580394;0.14863245;-0.1444319;-0.18049262;-0.013139828;0.03574369;-0.08560145;0.059533082;0.17045113;-0.051582284;-0.028404636;-0.06304942;0.12649855;-0.2793311;0.025173252;-0.020781856;-0.2555065;0.19515803;0.0027215125;0.039923154;-0.01617944;-0.005712805;-0.029936505;0.0006699863;-0.050479636;-0.031031137
-0.036343616;-0.08467641;-0.02962552;-0.13598576;0.053107567;-0.07410065;0.044892926;0.033649366;-0.091649555;-0.028548377;-0.00029731044;-0.023531558;0.008510437;-0.02099764;-0.060016267;0.04835772;-0.15800767;0.11601959;-0.030632483;-0.023741592;0.08519661;0.04297884;0.074070565;0.061592452;-0.033364266;0.100394934;-0.060154554;-0.047679063;0.017014815;-0.06749417;0.078174375;-0.17403083;0.075067215;0.017503418;0.009322575;0.066486135;-0.0250519;0.14768854;0.034670047;0.060726527;-0.042358745;0.0655577;-0.1715715;-0.053303618;-0.09875359;-0.008287459;0.01571442;0.008712482;-0.032603048;0.06985773;0.043364145;0.20575188;0.079295665;0.10513333;0.019414961;-0.005678837;-0.034689732;0.048170038;0.03453621;0.0045470623;0.20049182;-0.06664795;0.09285386;0.011156787;0.02270265;0.017729515;0.06415884;-0.17367774;0.0003434154;0.025650498;0.06584839;-0.1888326;-0.06399594;-0.059123788;-0.08701244;-0.07086218;-0.0224359;-0.2503165;-0.113913275;-0.037092548;0.08781338;-0.046498712;-0.12327719;0.16192937;-0.0072817556;0.024457334;-0.035894502;-0.0634885;-0.029434199;0.07356375;-0.01844229;-0.025159366;-0.020457543;0.085922405;0.0012062753;-0.04742291;-0.04445911;0.022920143;0.04415004;-0.02782834;-0.03235122;0.0628158;-0.07709128;0.017730527;-0.041307963;-0.061459307;0.010197436;-0.08565219;-0.06324946;-0.009951254;-0.007077615;0.04226242;0.014826049;0.07715289;0.036541075;-0.008038066;0.06953637;-0.010422346;-0.12831937;0.0118279625;0.12666708;0.0006820681;-0.06052952;0.045957386;0.05700317;0.004695046;0.011056028;-0.011019422;-0.006681157;-0.082246706;-0.045408625;-0.061850086;-0.05926673;-0.10773387;-0.048597652;-0.052517105;-0.06418342;-0.06531666;-0.04500343;0.017546622;-0.11733668;0.039718684;0.041210163;-0.013576271;-0.047921386;-0.058724042;0.1142945;-0.013186137;-0.011255466;0.057563607;-0.034088418;-0.008278552;0.080128625;-0.040010516;-0.058546152;0.07190196;-0.017125402;0.003310747;-0.015991101;-0.037520554;-0.0046489965;0.048137564;0.014855617;0.037402738;0.034268215;0.0754632;-0.021883782;-0.06706932;-0.19404048;0.098412246;0.046262633;-0.035245482;0.0695806;0.08845767;-0.02245907;-0.025430387;0.0069235605;0.019163206;0.10442922;-0.035158418;0.09934598;0.066072635;0.09802968;0.06713512;-0.09449183;-0.11581694;-0.0029835508;-0.11198784;-0.14489396;0.10525976;0.101193905;-0.07721297;0.08027128;0.099206574;-0.04405127;0.0504354;-0.20912655;0.043719392;-0.058581196;-0.019213622;0.0084735975;-0.062785566;0.005271866;0.05014118;0.08420859;-0.048452705;-0.05494473;0.07318019;-0.08500158;-0.11475627;0.08668975;0.074057125;0.012228611;-0.09711527;0.06478867;-0.06594158;-0.026900854;0.06317534;0.015709115;0.0042157997;-0.04457368;0.05131216;0.041948307;-0.009157768;0.005499488;-0.0440128;0.0021343844;-0.0163679;-0.03423097;-0.09544168;-0.020784676;-0.007238836;-0.00825249;-0.0029677958;-0.035942193;0.030634796;-0.07481595;-0.0638583;-0.0011320845;-0.035964176;-0.010747496;0.086090714;-0.05218199;-0.051396064;-0.044311024;0.17640777;-0.044466056;0.028261866;0.09864273;0.013048491;0.09902772;-0.027402813;-0.16109802;0.099789225;0.063578255;-0.03913114;-0.043924764;0.00958965;-0.07567268;0.00035457025;0.05174248;0.05771766;-0.014796983;0.02964811;-0.0538087;0.04460586;-0.0055504167;-0.07756146;-0.06442164;-0.033085037;-0.038664002;0.08182286;0.05540833;-0.08183101;-0.044257823;-0.07177391;0.055894606;0.041695997;0.093984425;-0.040660888;-0.13607612;-0.03964999;0.09734688;-0.015411903;0.03129805;0.14696583;0.02066337;-0.037073802;-0.05441147;-0.06467928;-0.09776297;0.029485833;-0.053779967;0.041861437;-0.054416277;-0.10541767;0.035251882;0.036122058;-0.041622616;0.037560977;-0.09785236;-0.12330729;-0.06942635;-0.06493981;0.033905864;0.04791713;0.062419657;0.033134505;0.027216919;-0.06154143;-0.0007865134;-0.022325102;0.035576385;0.092709154;-0.13748924;-0.0353661;0.038954888;-0.12223429;-0.0641537;0.16491821;-0.04065905;0.0040217224;-0.058532335;-0.07328004;0.02128857;0.043734968;0.085554235;0.16681246;-0.07129672;-0.032370728;0.015366621;0.05016574;-0.036959726;0.09285106;0.004859244;0.034232922;-0.032072328;-0.051509835;-0.085313216;0.021833185;-0.061156563;-0.06335147;-0.039475143;0.07092775;0.006344035;-0.05562793;-0.029769806;-0.022548333;0.06348867;0.03718212;-0.0036209822;-0.046204753;0.025791412;0.1272096;0.24175747;0.13358547;0.013399468;0.05921896;-0.0029796148;0.10601256;-0.051260795;0.0019574428;0.047233168;-0.031975497;-0.0010663092;0.031202974;0.04934841;0.087254174;0.07815185;-0.029546931;-0.009849344;-0.0067708297;-0.050978087;0.06606497;-0.016028374;-0.076117136;0.009159648;0.058668762;-0.08365683;-0.049994994;0.007226976;0.020611325;-0.06687216;0.086162366;-0.06889595;-0.06177886;0.09293099;-0.0970011;-0.020694409;-0.05987108;-0.102138154;-0.020121938;0.10265011;0.0430657;-0.10013794;0.15583102;0.04081983;0.019852873;-0.11053945;-0.043808848;-0.057029016;0.07375116;-0.035544515;-0.10021161;0.034370884;-0.17838174;-0.111121364;0.12130495;-0.04720615;-0.0013716123;-0.16900127;0.022743784;0.06611806;0.14223005;-0.0066183493;-0.049467664;-0.06505622;-0.034998663;-0.053982954;0.095092;-0.036107104;0.13887791;-0.016687196;0.027127892;-0.015684083;-0.0025632775;0.055193648;0.051097307;0.011947551;0.018109266;0.021745786;-0.10016035;-0.10486724;-0.08815154;-0.021368066;-0.04355265;0.05177114;-0.08097659;0.13381281;-0.035921104;-0.05896417;-0.0319777;-0.05361101;0.01345652;0.02966939;-0.06388916;-0.09020696;0.11839677;0.07714955;0.02624302;-0.08841741;0.037195086;0.044676106;-0.24284472;0.039048657;-0.019117014;-0.004552826;-0.08477026;0.0149613675;0.012882274;-0.109013796;0.025931345;-0.047404557;0.0138578545;0.005182313;0.041023035;-0.10082228;-0.011022519;0.0808721;-0.07215185;-0.0386501;0.026302299;0.01044643;-0.028761955;0.10389928;-0.03306459;-0.05743526;-0.04395847;-0.056750853;-0.008836621;0.098864876;-0.0125996005;0.18944927;0.06578294;-0.028226458;-0.040593203;0.036621068;0.056914464;0.116438046;0.03732846;-0.007085926;0.037614424;0.019948853;0.013741521;-0.045533285;-0.07551451;0.0039267363;0.0439385;0.07290463;0.11506146;-0.11613041;0.022139732;-0.012045313;0.06934735;-0.037476774;0.05077181;0.04174721;-0.054275766;-0.16321652;0.04266035;0.031341124;0.05611935;-0.01585048;-0.06486666;0.061816584;0.08896095;-0.0062315115;-0.040426057;0.049343653;0.06343573;0.0035891838;0.03941542;-0.014817034;0.05155228;-0.008777534;0.05970125;-0.03626038;0.074529715;0.00078357523;0.05692915;-0.06042737;-0.054408345;0.041539013;-0.038988166;-0.066134006;0.06647637;0.026505755;0.033211283;0.04185085;0.06108913;0.050225895;0.031913694;0.081682205;-0.026757529;0.11160398;0.062223274;0.123505704;0.019278591;0.022213805;0.0087459;0.10082902;0.014426523;0.08099079;-0.019741226;-0.06692572;-0.15971784;-0.017895844;0.054166168;0.10885937;-0.2381361;0.058193527;0.022769509;0.04415494;-0.22057492;0.026010685;-0.029002702;-0.017439757;-0.063760094;-0.06831112;-0.06663607;-0.11336395;0.01234178;-0.053420328;0.02145344;-0.004959389;-0.05180125
0.08657302;-0.067804344;-0.00071580464;-0.026519591;0.017087167;0.033317044;0.18556482;-0.020466147;-0.20029226;0.042395838;-0.03613238;-0.038672004;0.023987057;0.112464555;-0.031923033;-0.022367386;-0.09412205;0.05305886;0.06332853;0.041868802;0.03233007;-0.047552355;-0.093545966;-0.029581849;0.046273094;-0.111110345;-0.07484642;0.0010454097;0.1439767;0.08014626;-0.039995197;-0.1496793;0.11090232;0.17281657;0.07886102;0.029480642;0.14303945;0.084380776;0.008789734;-0.07679012;-0.032201152;0.02222291;-0.0053757266;0.046493933;-0.14844827;0.061538488;0.119728334;0.09982724;-0.07792313;-0.05255037;-0.05453901;0.057991974;-0.017479742;0.07437382;-0.043617815;0.02523209;-0.04769931;-0.055795807;0.004036599;0.08006099;0.14879642;-0.057666127;0.13759005;-0.048413794;0.08631512;-0.041960873;0.07022396;-0.146421;-0.032506377;-0.08410747;0.016979933;-0.16872045;-0.052052133;0.00540835;-0.114724204;0.047288828;0.057480518;-0.16575797;0.028450973;-0.044816438;-0.08205234;-0.03633728;0.054044805;0.0032904549;0.07073492;0.007449076;0.10290252;-0.08585419;-0.023264427;-0.026295498;-0.06238123;0.082217805;0.052488755;-0.044079475;-0.12905864;0.051563278;-0.015768418;0.019918455;-0.048371434;-0.04738594;0.10577331;0.02290163;-0.04595038;-0.058036774;0.015360366;-0.03590131;0.021785319;-0.037640218;0.050503854;0.09719428;0.013558681;0.025432464;0.121996135;0.029771887;0.044882935;-0.001307278;0.052103404;-0.017000753;-0.098870136;-0.050582882;0.1854052;0.053877518;0.09394768;-0.055845954;-0.092238955;0.0789322;-0.021427408;-0.052073956;-0.042008262;-0.0656695;0.05739052;0.051655367;-0.17369746;-0.14169091;0.049905002;-0.030981958;-0.0046892194;-0.12824817;-0.0034232563;-0.10215881;0.14555266;-0.056574866;0.03994974;0.05123041;-0.050711166;-0.10742834;-0.125325;-0.024325138;0.08612237;0.045788232;0.08376747;-0.01716754;0.057769183;-0.043630034;0.2510436;0.041516528;0.010019496;0.03144964;-0.039290674;0.04046269;-0.03337182;-0.017888714;0.0017660984;-0.044807106;0.094436474;0.023896521;0.055060178;-0.0795169;-0.11617351;0.07264694;0.008410267;0.015829464;0.00999391;-0.088753976;-0.00082063733;0.0012388875;-0.033268422;0.12415631;-0.08095398;0.07497851;-0.009861566;0.18628767;0.06516846;0.042534582;-0.011596409;-0.004132966;0.03854428;-0.06949318;-0.106996834;0.055082608;0.14761586;-0.0788563;-0.045649707;0.093337186;-0.034640703;0.052494776;-0.017038137;0.11858743;-0.045736376;-0.022662444;-0.083399646;0.04584953;-0.049975827;0.013672341;-0.03895299;0.023353657;-0.02588652;0.021820104;-0.05536202;0.014693631;-0.1245346;0.08788856;-0.0557688;0.14179994;-0.05748212;-0.0098005375;-0.030409638;-0.008305188;-0.00054899114;0.052950792;0.05893522;0.058586564;0.055735487;-0.031968508;0.005642513;-0.1229844;-0.004682567;-0.20880276;-0.1665657;-0.012187659;-0.062766336;-0.09200333;0.01951549;0.08011185;0.027685901;-0.0079245465;-0.043035135;-0.0035443401;0.039163426;0.0034739138;0.05839589;-0.01151222;-0.11070634;-0.040405106;0.05374711;0.14826213;0.028921971;0.08588963;0.016521376;-0.0019104235;-0.06779154;0.050104298;0.04154192;0.09671847;0.23146728;0.05097595;0.2470569;0.07116908;4.576939e-05;0.04374507;0.035271853;0.0014109832;-0.039403122;0.043679856;0.10752241;0.06371328;0.013604352;-0.086904086;-0.06729414;-0.03312032;-0.0012299819;0.12154142;0.041546337;0.025387367;-0.05560415;0.009008201;0.00738092;0.089439474;0.015765132;0.044283442;-0.014579835;0.07929162;0.10631358;0.011700038;0.03895273;-0.0016501847;0.0840555;0.029700687;0.113396704;-0.076067425;0.015193713;0.09595967;0.022497617;-0.07551741;0.0641393;0.0006621756;-0.10033395;-0.22609451;-0.0028849372;0.032423235;-0.13048927;-0.06276207;0.03200722;-0.10249595;0.028844604;0.045443594;-0.02779677;0.06908484;0.1330273;0.066098206;-0.018491467;0.0025759316;0.034679346;0.041181944;-0.0015491457;0.04550981;0.22827886;-0.1515238;0.106955096;-0.0021801428;-0.04593999;0.060750615;-0.0356456;-0.0062850676;-0.07765462;0.033417013;0.048368674;0.119833305;0.0741057;0.070471294;0.10379329;-0.094729476;-0.0076569603;0.14235283;0.14696991;-0.03412268;0.070601895;-0.064665474;-0.11696537;0.011702234;-0.09280054;0.073158726;0.05646306;0.039305408;-0.076871894;-0.02355338;0.043098986;0.09640679;0.0064114397;0.0099903345;0.052991718;-0.06584945;0.0762604;0.09406784;0.14309613;0.020507116;-0.011189394;-0.02592427;-0.034570806;0.13388681;0.06597645;-0.02446809;0.004891911;0.02411946;-0.00803415;-0.018183464;0.042528912;-0.03386189;0.06904267;-0.10169722;0.03442508;-0.0055357735;0.03531899;0.116531774;-0.102847956;-0.13705808;-0.018282462;0.006955953;0.06933558;-0.0125468755;0.04555696;0.12706207;-0.07225672;-0.007711853;0.04560257;-0.113108605;0.06758239;0.011788447;0.08225093;0.09111107;-0.17475508;0.07958266;0.07882646;0.0631948;-0.059088815;0.028128512;0.054756682;0.0626628;0.0011152374;0.12861253;0.034992658;0.02661324;-0.026113166;-0.062427957;-0.035139475;-0.1528637;0.071198106;0.14899647;-0.002154292;0.071169496;-0.079769686;0.043909907;0.16510083;0.08932203;-0.008154407;-0.015232433;-0.054686125;-0.04918753;0.089267835;0.15600814;0.053355828;-0.088731565;0.050071742;-0.10627166;-0.065589726;0.0060118497;0.04468712;0.015366729;0.12279136;0.05314911;-0.030364351;-0.037097387;-0.15872161;0.08197212;0.008251467;-0.08840208;0.020025935;0.010748432;0.10153165;0.082841836;0.00061584666;-0.014760776;0.004180611;0.07104463;0.029233092;-0.022810826;-0.024184527;0.090080865;-0.04601813;0.053455945;0.04812979;0.073373005;0.070007384;-0.09649339;-0.0374432;0.10450271;0.09402764;-0.0530979;-0.16202354;-0.011607886;-0.095561035;-0.066945784;-0.09626784;-0.057877544;0.057375554;0.047129285;0.015056107;0.14509709;0.040977877;0.015909804;-0.043775603;-0.118302874;-0.033261996;0.03640909;0.09027046;0.023904053;0.021499153;0.017569322;-0.10332005;0.074328035;0.034035716;-0.014291927;-0.05052797;0.051419836;0.071024746;-0.008612187;0.06540483;0.013270461;0.09162612;0.091528624;-0.0076565347;0.07118155;-0.01451422;-0.031840097;0.048422407;0.05006189;-0.014988318;0.07304072;0.07471857;-0.04605276;-0.06706119;-0.10962658;-0.0047285687;0.08450677;0.010095425;-0.094104044;-0.073632225;0.024415296;-0.23901153;0.028163802;0.10988248;0.021120002;0.028703542;0.08182567;-0.08495777;0.035928268;0.0221154;-0.018097796;0.05904475;0.0802749;0.08075737;0.02343734;0.09412513;0.1557211;-0.038663503;0.12876464;0.05723977;-0.0011346185;0.03124293;-0.047618385;0.07292838;0.023530506;0.14127064;-0.0042143133;0.10461934;-0.04490134;-0.029959736;-0.0036144352;0.095265135;-0.037342276;0.04160195;0.047795568;0.06197204;-0.042153087;-0.042857803;-0.006428314;0.1795871;0.03372913;-0.07476297;-0.019926239;0.091263585;0.071210764;0.04011828;0.08071301;-0.007014301;-0.13475582;-0.096067;-0.07027532;0.07665077;-0.29306227;0.06071407;0.026096284;0.13227178;-0.07827334;0.008883727;-0.07062521;0.20738669;-0.1348222;-0.003907402;0.06841602;-0.11265135;0.0057527623;-0.023119146;-0.06162845;-0.037605193;-0.04897078
0.052833162;-0.049160313;0.0088160485;-0.009236218;0.08684584;0.05698643;0.36494946;-0.06764052;-0.09091304;-0.024514288;-0.054472573;-0.026820555;0.03893019;0.07308697;-0.014802876;0.0917059;-0.21036783;-0.07105124;-0.020923581;-0.047889054;0.048388183;-0.021199767;-0.12571949;0.049861792;-0.0070700757;0.003006764;0.0014034183;-0.050389323;0.23481251;-0.089785114;-0.018337982;-0.19993941;-0.030521015;0.113323875;0.05011808;-0.020992666;0.23114966;0.09807148;0.076835595;-0.07867833;0.06291671;0.16069649;0.0013364077;0.03317169;-0.075224034;0.15473531;0.10879522;0.059303768;0.06959166;-0.014164538;0.08237035;0.11478585;-0.033411745;0.057874307;-0.002328562;-0.0033000028;-0.050189283;0.10587763;0.1123952;0.008449935;0.09512647;-0.00039080027;0.1510564;-0.03376879;0.011251051;0.042584416;0.02431481;-0.26184294;-0.062087066;0.06961676;-0.07126746;-0.10112906;0.060172524;0.048473477;-0.00872272;-0.077207506;-0.000116419564;-0.11155458;-0.16268174;0.040731113;-0.087443665;0.060994353;-0.01574595;0.069633596;-0.026452437;0.054037195;0.07858231;0.020355849;0.07620199;0.026298951;-0.038909025;-0.050949633;0.0106470715;-0.041575197;-0.071583055;0.050866984;-0.036171112;-0.014302271;-0.05912418;0.026548065;-0.055565413;0.17954281;-0.075367145;-0.026272899;0.03367125;-0.06856421;0.007489749;-0.025310118;0.016529039;0.07931464;0.06773071;0.08035871;0.01008887;0.14902386;0.08824089;0.056338213;0.09148906;0.04772889;-0.088688366;-0.13394383;0.12481438;0.01341604;-0.06620607;0.030286228;0.052010745;-0.014686646;0.038657866;0.03160209;0.032126192;0.024980593;0.007185474;-0.007411599;-0.08944127;-0.010625071;0.15956515;0.040798556;0.09365347;-0.05609604;-0.18438895;0.041345086;0.24088497;0.10594295;0.07243166;0.05060768;0.03848746;-0.019453142;-0.18428442;-0.04316343;0.07251734;0.05876887;0.07462628;0.113270655;-0.023117222;-0.11308468;0.011968037;-0.14879927;-0.07355033;-0.05118717;-0.037717678;0.01086548;-0.008144403;0.042490646;0.14779909;-0.009280085;-0.03952731;0.006885597;-0.08006969;-0.034949824;-0.1380095;0.11916599;0.07754495;-0.040109765;-0.06626589;0.02688938;0.055925116;-0.020543175;-0.054874938;0.08208278;0.019084878;0.061106548;-0.0052391775;0.15554972;0.04386451;-0.07756271;-0.12387792;-0.03113054;0.0120398225;0.058516175;-0.00031563063;-0.036512118;0.20913939;0.06924727;-0.016962983;0.00020461889;-0.026821112;0.10213249;-0.022496069;0.20187125;0.011866925;0.03237558;0.021914743;0.1330624;0.10755741;0.05024382;-0.016436439;-0.034134507;-0.06504789;0.04651924;0.06410007;0.03078835;0.005586699;-0.004563583;0.022634914;0.062738106;-0.02928995;-0.15390357;0.0010924549;0.031484228;0.01831504;0.036342695;0.094947934;0.13318922;0.072869465;-0.06167203;-0.086044386;-0.056996062;-0.021960668;-0.20229514;-0.070597075;-0.089546934;0.060583774;-0.019091144;0.0555828;0.14140324;-0.03552122;0.0737624;0.090508364;0.07318162;0.053430405;0.03901142;-0.030806487;-0.011686968;-0.10277501;-0.10019443;0.008790584;0.045819942;0.05690939;0.10007219;0.18446909;0.028229855;-0.07065219;0.0364745;0.089673564;0.0982058;0.050119143;-0.019989695;0.07128961;0.07178176;-0.0033133782;0.03617212;-0.0021341525;0.0516568;-0.026876654;0.0012728113;0.09918295;-0.009337805;0.04705387;0.039474726;0.05820913;-0.042024888;0.10311345;0.027553363;0.016185464;0.01776983;-0.091363564;-0.022035707;-0.043702547;0.06338262;0.0024665692;-0.01226663;0.058512893;-0.09343799;0.07534861;-0.025788445;0.095851615;-0.03864153;-0.05123589;0.043247484;-0.008127045;0.033582926;0.0654976;0.098803304;0.110611446;0.040803727;-0.011265582;-0.15739986;-0.014446329;-0.0650004;-0.0256452;-0.024310546;-0.1331409;-0.056963723;0.088823475;-0.053586513;-0.027031792;0.10134573;0.060824715;0.13013315;0.040943123;-0.041625492;-0.08104249;-0.036240052;-0.042523462;-0.06548439;-0.04655489;0.11993972;0.002113325;-0.0051917564;0.07124464;0.13049953;-0.0061360723;-0.00022018203;-0.02519315;-0.0050887293;-0.022080272;-0.028092613;-0.050599992;0.23199767;0.0656962;0.0020102044;-0.007360459;0.05179779;-0.0021060305;0.0059478227;0.016366342;0.08053711;0.07269441;-0.108460285;-0.08955596;-0.023504786;0.08709259;-0.24293865;0.026589863;0.10220906;-0.045806963;-0.031366624;-0.08116537;0.0732059;-0.0727058;-0.021455184;-0.04939003;-0.04640973;0.1593246;0.06990876;0.08696415;0.12255899;0.049218122;-0.019203683;-0.028731706;0.14889948;0.02866403;0.027765857;-0.013799039;-0.10394343;0.038175438;0.03667927;0.0027299006;-0.0063640526;0.025747428;-0.016760996;-0.0008561769;-0.049463414;0.028803147;-0.012596231;0.11651976;-0.057390142;0.0038036823;0.040124487;0.04678994;0.004896025;0.016808245;-0.0199424;-0.029356986;0.13517411;-0.053679854;-0.031256177;-0.048903503;-0.0029855254;0.052622832;-0.0041745394;-0.23162852;0.05898091;-0.020108024;0.013942257;-0.044851836;0.096924216;-0.0011014662;0.018687708;-0.110086925;0.02198055;-0.058308747;-0.005961791;-0.055529457;0.12711222;0.10846318;-0.020638503;0.013019519;0.17010793;-0.021689737;-0.01902736;-0.09066925;-0.012323092;0.11627497;0.161775;0.15244444;0.0062865787;-0.023858873;-0.05193116;-0.05341552;0.16928178;0.025286049;-0.13577443;0.0013605661;-0.0052031884;0.053842075;-0.16763373;-0.12892844;0.053959407;-0.009699965;0.026424393;-0.059073627;-0.020914502;-0.18307814;0.0597476;-0.009978369;-0.09770527;-0.037231088;-0.08913687;-0.03324035;0.0021042111;0.11188146;-0.008133294;0.08557354;0.041864;-0.037273664;0.005365471;-0.09090022;-0.013166008;-0.038518023;-0.005577284;0.06489499;-0.031693827;-0.020951713;0.060665183;-0.15396217;0.026682561;0.0066082934;-0.05878644;-0.14457007;0.021453617;0.037494503;0.009640489;-0.031759255;-0.011926609;-0.03149904;0.009767561;0.15405463;0.07791838;0.013637531;-0.048457276;0.038133223;0.024671732;-0.08565315;-0.041824523;-0.036449686;0.010637721;0.040964335;-0.04805538;-0.01744189;0.07019461;-0.04549391;0.105129965;-0.027211599;0.086319074;0.05783637;-0.117919534;0.040420707;0.0050188713;0.10438156;0.0033066436;0.0008756039;-0.021294871;0.060358956;-0.015788395;-0.042693753;-0.15429904;-0.022299357;-0.042726547;0.060959477;0.035467774;-0.005360619;-0.04131999;0.01835656;0.0057317335;0.029589435;-0.055299506;0.039861206;0.06943082;-0.14681192;-0.047294658;-0.04761982;-0.014580614;0.009326711;-0.071731366;0.23988006;-0.052447658;0.0077292603;0.09559869;0.024329375;0.020334752;0.051733218;0.07433033;-0.009029178;0.04495375;0.07179056;0.003508521;0.090200596;-0.03334106;-0.042858504;-0.06757288;-0.016971763;-0.037240412;0.08230288;0.054414913;-0.005209803;0.00020969973;0.017528187;0.06834476;0.056439262;0.02625451;0.054445934;0.0486465;-0.05453251;0.06458309;-0.015059494;-0.06615437;0.1497189;0.0878232;0.047208212;-0.07024365;0.0057650357;0.06254655;0.10993823;0.080373466;0.0128818285;-0.03887225;0.016761582;0.06510054;-0.0038090835;-0.23965904;0.03805807;0.046687175;0.11711349;-0.20984577;-0.07141349;0.07250923;0.09517106;0.14091216;-0.08281773;-0.021303477;0.08237082;0.06460933;0.16152164;-0.078472205;0.09675861;0.042593975
0.09519886;-0.16188271;0.044590235;0.019083861;0.0022235028;-0.040509503;0.3213846;-0.026346382;-0.12525864;0.00026437672;-0.04542474;-0.10152768;-0.011768117;0.04554368;-0.016049216;-0.0011348868;-0.14032984;-0.028791215;-0.0044041635;-0.0207563;0.03530626;-0.07717767;-0.103111625;-0.07014243;0.03174604;0.021418136;-0.043400995;-0.00044613823;0.22299731;-0.00877328;0.03494831;0.0060124975;-0.0070454567;0.28372744;-0.07753423;-0.07572805;0.02528413;0.09736198;-0.050984897;0.07400063;-0.044202223;-0.12506035;-0.1805149;0.043505758;0.0035223193;-0.0069393506;-0.017918762;-0.037669525;0.020352095;0.04968874;-0.1459289;-0.03719223;-0.0042319503;0.07051459;-0.070078984;-0.081336565;-0.032495067;-0.02335048;0.057421055;0.01324067;0.09228958;-0.045606315;0.008366882;0.06111812;-0.015146747;0.060883854;0.045165926;-0.041826885;-0.025485795;0.106917344;0.059563983;-0.15364364;0.0014463698;0.03286739;0.0636687;-0.00881171;-0.037498157;-0.2768167;-0.15130988;-0.017121358;-0.019560155;-0.03039332;0.051611844;-0.040688146;-0.04124256;-0.013996121;0.0593276;-0.042999636;-0.061398644;0.060273502;0.026869735;-0.009017343;0.009236154;0.01968519;0.07221816;0.003405445;-0.0102156475;0.01026047;-0.06469006;0.051064465;0.018883863;0.10717933;-0.05598038;0.100990824;-0.036900286;-0.012111335;-0.04612399;0.036247257;0.057715226;0.008204481;-0.07842732;-0.040314037;0.13200718;0.203118;0.0075572687;0.083115004;-0.09015863;0.09968614;-0.015827732;-0.11710783;0.08504719;0.0054508937;0.08069243;-0.05256683;0.029185854;-0.043106433;-0.01848233;0.067219906;-0.009454666;-0.07949;0.06855807;0.04360198;0.15327993;0.107575804;0.018805763;0.0056945826;0.089463085;0.026381562;-0.045781136;-0.078277744;0.17562406;0.037987147;-0.083783075;-0.0027400285;-0.0119339675;0.08664692;-0.11972767;0.0865603;-0.025163347;-0.037966523;0.074377805;0.09755887;-0.032734033;-0.08644787;0.20515977;-0.12365416;0.009338613;0.045201045;0.005610146;0.028926507;0.07202566;0.004718657;0.034898598;-0.052296598;0.060256135;0.0563393;-0.078489535;0.014769149;-0.04181181;0.041963957;0.022768501;-0.053745937;0.057333726;-0.073306106;-0.042906113;0.09248324;0.04362888;0.015394196;0.016504852;-0.033295557;-0.006228915;-0.026441421;0.12533821;0.04064435;-0.04239661;0.051345546;0.03511694;-0.046238784;-0.12829177;-0.08576104;-0.017139427;-0.03357975;0.018184701;0.107345365;0.0045558885;-0.020155022;-0.14186995;0.09005747;0.06227848;0.023029886;-0.044847075;-0.0064245984;0.09868404;0.018914446;0.012434406;-0.06078684;0.011074127;0.0428137;0.044820685;0.019949598;0.0152602615;0.07024716;0.02168234;0.03833495;-0.0015809634;-0.06268521;-0.03403676;0.0758463;0.078400806;0.02932985;0.11190118;0.061712157;-0.03358444;0.08310992;0.062323976;-0.0474781;-0.21764505;-0.19993362;0.023248073;0.013163388;-0.03490771;-0.04116089;0.025153335;0.08660316;0.021855496;0.0956657;0.0673776;-0.044074584;0.089855276;0.03432529;-0.060048833;-0.15307063;0.100604005;-0.031288557;-0.043755677;0.13497202;-0.06611608;0.06572887;0.10271065;-0.034458842;0.037997205;-0.041587584;-0.02580953;0.2041181;-0.0020363228;-0.042230427;0.021076623;-0.03938243;-0.05085359;0.001778777;0.014520859;-0.008874366;-0.025758509;0.112569645;0.1347265;0.051290326;-0.024534298;-0.048171032;0.0757137;0.08361934;0.01602978;0.2652713;0.10653488;0.06838843;-0.015674368;-0.030807227;0.0058687488;0.08187994;0.09378089;-0.015218675;0.19940154;0.028595163;-0.030732755;0.08405959;-0.01592645;0.03276468;0.026553223;-0.0437754;0.03301119;0.06496289;0.120130174;-0.027051695;0.10079048;0.051856864;0.056294806;-0.09091085;0.024215814;0.15002689;-0.046928223;0.075262934;-0.097300105;-0.027896158;0.029215403;-0.012685665;-0.0629993;-0.045026086;0.027298143;0.105739206;-0.070991;-0.03321713;0.012625438;0.030382728;-0.08730082;-0.019952562;0.025822194;0.03138294;-0.020791316;0.037858628;-0.048817117;-0.005751382;0.09845643;-0.006482577;0.038924575;-0.048555553;-0.035828914;0.06047263;-0.02697966;0.24958153;-0.007958118;0.06366633;0.015025415;-0.04031223;0.07964388;0.0050442917;0.034165755;-0.05673687;0.025216669;-0.0041035987;0.0816123;0.06173706;0.16394484;0.022845466;-0.031724393;0.08740053;0.02270091;0.08443293;0.071869954;0.096888445;0.02829958;-0.0006918369;0.0902591;-0.05123507;0.099872075;0.054468215;-0.08525479;0.13254523;-0.0005902653;0.0543306;-0.025628738;-0.0011139635;0.019848477;0.16540577;0.017280236;0.069726385;0.091344655;-0.03181884;0.09365775;-0.018705359;-0.06837067;-0.07084742;-0.038524535;0.04765699;0.04469897;0.10700279;0.065388374;-0.056879986;0.07069468;0.028603785;-0.057392597;0.016161619;-0.075525895;0.04476321;-0.1239689;0.13627945;0.07487465;-0.04989151;0.024433376;0.007625095;0.056103192;0.075599276;-0.11416855;-0.068815775;0.035914894;-0.029861439;-0.040762078;0.075075954;0.031385656;-0.00640882;-0.0042028343;0.030292368;-0.046809107;-0.080520935;-0.087699875;-0.041781843;0.09159786;0.06001314;-0.11904057;0.2101861;0.07469333;0.03040379;0.05834362;-0.010749234;0.08104689;0.1702648;0.1271157;0.066429995;0.0029853024;-0.15816039;-0.032636624;0.2174034;0.07943791;-0.022612723;-0.0070781005;-0.010288924;-0.07156279;-0.06428235;0.06999671;-0.065209605;-0.014362464;-0.11749804;0.044118576;0.021683881;-0.23245865;-0.033621706;-0.08426773;0.051777147;-0.03887123;0.07765232;-0.07816341;-0.005554334;0.04644588;-0.0036319874;0.11393449;0.0040489426;-0.016415527;-0.077042826;0.10115845;-0.17255881;-0.0049730833;-0.030901175;-0.027284753;0.002826483;0.043656554;0.021022866;0.039395954;-0.04307422;0.06833405;0.14282763;-0.10630285;0.02722999;0.08579307;0.0055832905;0.06889025;0.035554778;-0.008441204;0.04492504;0.16558921;0.10140779;0.039782327;0.06983805;0.07053291;0.17528939;-0.004065217;0.07947589;-0.044144806;0.03767403;0.040177915;-0.022410613;-0.07860775;-0.030763805;0.011843193;-0.04019805;-0.093347274;0.14319083;0.02334696;-0.1112706;-0.0008156658;-0.03836059;0.13603993;0.0393406;0.018942704;0.009100504;0.068253525;0.035195548;-0.009692379;-0.15566413;0.10470069;-0.042759262;0.092902794;0.0062512388;-0.07153719;0.05938405;0.024247207;-0.08532423;0.0960944;-0.04120952;0.06681302;-0.053425763;0.005317118;-0.017575026;-0.05828949;-0.012504345;0.044513695;-0.0043188646;0.015890198;-0.040200073;-0.021071963;-0.005008713;0.065827414;-0.020699184;0.08305339;0.041775774;0.08141673;-0.07767555;0.015262779;-0.017174207;-0.009945917;-0.014059203;0.07871523;-0.04873361;0.09147762;0.027285991;0.09405119;-0.016114062;-0.015256391;0.048252832;0.047153886;0.016480822;0.037510157;0.026828755;0.05004678;-0.07666832;0.027061315;-0.047964912;0.048299327;0.036946326;-0.00026570092;0.08529031;-0.08300714;-0.06593064;-0.03925229;0.0014301974;-0.054006737;-0.042101268;0.03727711;-0.009756329;-0.01650537;-0.09577278;-0.036559813;0.12114698;-0.0633143;0.07237618;0.04818432;-0.25898468;0.025264831;-0.044136964;0.11446059;-0.030463085;-0.0025266716;0.08451999;-0.063797005;-0.06046284;-0.006843853;0.011987084;0.11978805;0.07273749
0.053809498;-0.08594035;0.011974673;-0.013684324;0.06733055;0.07082487;-0.015221207;0.042082187;0.09151795;-0.03907917;0.031061783;0.0670522;0.060770087;0.009285432;-0.037263602;0.03603212;-0.1377507;0.14937778;-0.07281556;0.092814796;-0.0001023003;0.06331675;-0.11643419;-0.019228067;0.036097568;0.20736057;0.019169748;-0.027015094;-0.100073196;0.031034699;0.05108076;-0.034079604;-0.007914762;0.16884224;-0.09972028;0.07572701;0.084973894;0.07915323;0.073732704;0.037453532;0.033084247;-0.11752438;-0.03940282;0.039376527;-0.04946308;0.14872716;-0.019591184;0.03827648;-0.0015600713;-0.07551921;0.09174795;0.23762783;0.024538442;-0.07367847;0.04734015;-0.098389655;-0.0008109816;0.00050824136;0.029090568;0.12267895;0.1426194;0.06670165;0.015449245;0.090638906;0.037355416;0.018906778;0.015402858;0.11949105;-0.06632169;0.056690544;-0.014520356;-0.0812384;0.050175365;-0.09185299;0.01389141;-0.08568505;-0.09320136;-0.18772005;-0.048225895;-0.057312082;0.07072136;0.013669143;-0.1425823;0.06646285;-0.05456718;0.026053345;-0.018958062;0.03077803;-0.07448349;0.024385681;-0.005521321;-0.06446774;0.016139349;0.0640445;-0.00094498164;0.070014596;-0.09739078;0.04183011;0.009850614;-0.05426563;-0.05647387;-0.060493484;-0.042770293;-0.06731878;0.06468674;0.07633484;0.027293274;0.014988811;0.0022018966;0.030997593;0.10266015;-0.010888921;0.062656626;0.07593971;-0.07793966;0.08289851;-0.14931954;0.12071197;-0.02977367;-0.008036373;0.20004445;0.017902805;0.06700421;0.055356212;-0.07492895;0.011223342;-0.04881218;0.00775974;-0.051770244;-0.0290831;0.013623318;0.07100036;0.15666956;-0.012675747;-0.04013549;0.015276086;-0.047640756;-0.06666985;0.11446996;0.079964764;-0.1277942;0.023757938;-0.09991785;0.0074883406;0.004566877;0.13176045;0.03364264;0.079557315;0.012351153;-0.05522163;-0.06573674;-0.0015901937;-0.07343544;0.031302307;-0.009855323;0.030477531;0.054615796;-0.08884244;-0.020876195;-0.03751498;0.051505994;-0.017127795;0.028479934;0.044290666;-0.047672015;-0.0507758;-0.03333981;0.0010728067;-0.12638219;-0.039893277;-0.038469426;0.14577089;0.024250684;-0.024833491;0.06470466;-0.030697007;-0.03111553;-0.03165725;0.19361964;-0.014218254;-0.032244463;0.014329432;-0.009648301;-0.074611664;-0.026635943;0.15131576;0.048393495;-0.20870177;0.010868259;-0.08288912;-0.085125595;-0.01815383;0.115854576;-0.02222927;0.0314519;0.044440396;-0.05007577;0.15282866;-0.10452931;-0.078951344;0.03608181;-0.10308281;0.062016312;-0.082925335;0.016270056;0.09146369;0.03805087;-0.019094866;-0.0005717395;-0.026802493;0.021931982;0.0057905097;0.069900274;0.09261366;-0.020282468;-0.05247656;0.026006922;0.040910713;-0.06905756;-0.120738566;0.07521071;0.10450839;0.057723887;0.008281997;0.021831082;0.08551136;-0.18694472;-0.18566388;-0.024260275;-0.008771623;0.021596376;-0.09758286;0.046470415;-0.045483924;-0.0029994561;0.123857275;0.051681973;0.09174152;-0.04855247;0.06320556;-0.02482011;-0.17797045;-0.11158482;0.005298354;0.08064068;0.11309878;0.05453362;0.16562678;0.17044419;0.04373656;-0.07305436;-0.0025219214;0.07837396;0.1202457;0.01925459;-0.06694717;-0.057133716;-0.069029495;-0.055532463;-0.008094403;0.042810366;-0.06851472;-0.0028035895;0.000982532;0.0050386055;0.055507652;0.06364279;0.016898008;0.008601864;0.045150712;0.092840575;0.058518223;-0.056272455;0.0026288114;-0.03999948;0.05716973;-0.16174503;-0.038815957;-0.11016605;-0.025455324;0.042021308;0.06783585;-0.012469209;0.07490104;0.029748093;0.07349122;0.013263246;0.0695678;0.058377154;0.08484805;0.0045822076;0.08255366;0.048784465;0.09519255;-0.06574929;0.1427834;0.12613277;-0.07035301;0.09258463;0.028500587;-0.13780119;-0.061278254;-0.046077605;-0.09581214;0.017138591;-0.07894794;0.0110231275;-0.074963585;0.009741474;-0.04252173;0.081850156;-0.025008436;-0.0016073271;-0.116950475;0.07441717;0.07883523;0.047049627;0.11188403;-0.04750283;0.024369499;0.037560582;0.07382506;0.0067811594;-0.020130847;-0.009979148;0.013954689;0.053289775;0.23717095;0.045267582;0.057440687;0.09061462;0.003171318;0.084713;0.051642485;0.108420365;-0.038052272;0.035683095;0.15190336;-0.1847301;-0.04587986;0.0077215866;0.052558355;-0.013115192;0.12847841;0.059391074;0.059530817;0.0018998123;-0.020582158;-0.049299594;0.05871309;-0.111471705;-0.19818418;-0.14368846;0.0667553;-0.18126506;0.055043824;0.022384511;0.08018606;0.090090595;0.013784791;0.06060371;0.115643;0.12572879;0.026884288;-0.033781502;-0.01901773;-0.019124735;-0.034698743;0.061095487;-0.0028431907;0.005097003;-0.13490075;-0.06585044;-0.02538903;0.093315504;0.012971582;0.21586841;-0.015020915;-0.052043762;-0.006807146;-0.02638013;0.047849268;-0.22922188;0.029533487;0.06813786;-0.04197193;0.060941976;-0.055133186;0.009876299;0.062165633;0.049158897;-0.053388506;-0.022842506;-0.052417528;0.042587776;0.1750059;0.046147916;-0.017770205;0.112381525;-0.024446968;-0.06720642;-0.03446766;-0.08538987;-0.09317476;-0.017445706;0.101284906;-0.057593416;0.16535021;-0.032745097;0.10644501;0.07517724;0.02009601;0.04633828;0.07921429;0.12734553;0.07239231;-0.12285584;0.006315931;0.075899094;0.14708339;-0.0033123088;0.13734809;-0.054634694;-0.015955647;0.024648441;-0.048219405;-0.05059603;0.0012604619;0.025632612;-0.20127814;0.036604874;0.09766003;-0.18622269;0.0736593;0.18589328;0.058566414;0.087343626;0.1015374;-0.0946057;0.06622926;-0.031373758;-0.025473379;0.08542415;-0.17414156;-0.02972035;-0.030065423;-0.13049525;-0.06759377;0.042227134;0.019802183;0.015819985;0.03294823;-0.02422379;0.14187938;-0.0656656;0.030560955;0.034761786;-0.092838764;-0.09707901;0.08927471;0.0048677633;-0.05945926;-0.026200736;0.08353955;-0.047801834;-0.033316053;-0.003641044;0.13138811;0.022195546;0.06229196;0.024826761;0.102786474;0.079565436;0.05624048;-0.021920884;-0.0029753202;-0.055144545;0.06635988;-0.07261638;0.07806702;-0.12888902;0.07861657;0.16102207;0.054932263;-0.044969615;0.13915545;0.055747565;-0.055076335;0.12498598;0.052937906;0.028392065;0.064146355;-0.055181514;0.040919513;-0.010545062;-0.08411822;-0.0134717;0.026209941;0.056661516;-0.021740925;-0.099369355;0.18801428;0.09201366;-0.008941025;-0.050480284;0.11437431;-0.00017878322;0.033449277;0.058245223;0.087733194;-0.0523206;0.092104785;-0.0434777;0.05035511;0.0849528;0.00465304;0.07942341;-0.026078964;-0.0036346982;0.002713353;0.07175762;-0.05764989;0.013597837;0.19725725;0.018707031;0.079141796;0.038106207;0.0067696325;-0.07749451;0.015799755;-0.011997023;0.05138113;-0.070296034;0.09736114;0.0066385386;0.0044760886;-3.1470336e-08;0.07465614;-0.01459871;0.024813846;0.08334351;-0.07294432;0.000779113;-0.008537526;0.056396086;-0.0423839;0.27938524;-0.004036262;-0.046651892;0.045875598;0.04166326;0.033681028;-0.022995895;0.054787625;0.012245749;0.20778954;0.045142528;0.049122553;0.07662781;0.1971602;-0.072711185;0.0360142;0.1566095;-0.24035649;0.0045677065;-0.018950582;-0.09920291;-0.09466006;0.05938295;-0.06814001;0.020023389;0.088171594;-0.011878682;-0.06061641;-0.0091537945;0.0018177317
-0.032551166;-0.13081826;-0.028249044;0.15382896;0.0141080385;-0.015551526;-0.09935794;0.0003656102;0.108084746;0.021001229;0.0037286452;0.114005394;-0.04823529;-0.07063894;-0.011875953;-0.11603238;0.05134652;0.1413415;-0.0102675585;0.0688309;-0.033685166;-0.026066978;0.057391934;0.049325265;0.012915232;0.1270828;0.0060140886;0.04733024;-0.32869574;0.053025924;0.08590285;0.16010623;-0.045202475;0.02238134;-0.091571234;0.022504633;0.015931346;-0.029452708;-0.04079633;0.05449604;-0.018414987;-0.14845566;-0.1437277;0.017064394;0.020162567;0.0788396;-0.048596527;0.057199623;-0.011209367;-0.067158975;-0.063247986;0.18293805;-0.058185205;-0.0363995;-0.07425686;0.07147168;0.04009335;0.08300262;0.03606228;0.022373997;0.045930922;0.047359265;-0.07559655;0.13247555;-0.07435162;0.10353821;0.017073069;0.15220961;0.078040615;0.08710545;0.19813274;0.15337418;0.036662035;0.014038727;0.016067702;-0.006976758;0.004645366;-0.22301155;0.0802753;0.02499275;-0.06667839;0.063510895;-0.08483741;0.08888289;-0.0692361;-0.013767843;-0.037594285;0.034392715;0.020632941;0.023219226;0.025340332;0.037356008;0.03229206;0.18710381;-0.07296305;0.03510269;-0.10647761;-0.009285238;-0.0710047;0.058646385;0.083166875;-0.09654134;0.027464574;-0.0598455;0.05123549;0.049142767;0.0460976;-0.01714339;-0.08645431;-0.047626812;-0.08068272;0.10176465;0.059082475;0.014108683;-0.06290049;-0.10442033;-0.13091522;0.07230119;0.041555334;-0.010435786;0.17310645;0.071500234;0.030346865;0.068265125;0.029670455;-0.050982714;-0.021337096;-0.055792548;0.00094804243;0.064687304;0.023357112;-0.033189483;0.18206567;-0.029213157;-0.09114543;0.04902746;-0.016814368;-0.016619125;-0.052419014;0.10039032;-0.20909227;0.108722985;-0.09053341;0.011783268;0.066518664;0.07405356;-0.044514775;0.06590765;-0.08626812;0.03092775;-0.032353837;-0.09825273;-0.08823017;0.21702564;0.088880666;0.1480179;0.11393677;-0.017980501;-0.04940013;-0.05210393;-0.012432996;0.027974587;0.20502748;0.029800199;-0.052723426;-0.034714494;0.020764155;-0.03879944;0.07121332;0.04940615;-0.037232887;-0.06145868;-0.01492121;0.07939146;0.055540252;-0.05618817;-0.06124552;-0.008594771;0.28432125;-0.054312784;-0.00438158;0.016855134;0.009010486;-0.00013201211;-0.025882978;0.101893865;0.03727786;-0.042076215;0.07233306;-0.010889958;-0.18793108;-0.00039688;0.12792113;0.050260577;-0.0040239412;-0.024905156;-0.014241039;0.12990887;-0.07649862;-0.008777411;0.020696707;-0.018731017;-0.051848404;-0.022219494;0.0169812;0.047809556;0.11186345;-0.04708464;0.060112566;-0.16305017;0.16627713;-0.085532874;0.05378316;0.14712551;-0.085392036;0.06467149;-0.041265965;-0.027277652;0.0625388;-0.08543882;-0.06045928;0.018991455;0.018455781;-0.05037017;0.02380033;-0.006964407;-0.06277103;-0.11444042;-0.070153445;0.051353984;-0.041579284;0.026138397;0.10286986;-0.18585883;0.026461884;0.020647814;0.017390016;-0.063195355;0.021218743;0.06567788;-0.03893704;-0.122991115;0.011234092;-0.10146114;-0.07132506;0.16055857;-0.06617673;-0.018243313;0.025856217;0.051521238;-0.05541356;-0.062037818;-0.07610235;0.07899699;0.118466705;0.07808253;-0.034449052;-0.020756185;0.06000986;-0.016477996;-0.0041815178;0.07806912;0.061492484;0.028887806;-0.08188831;-0.026803946;-0.072759725;-0.094503894;0.06739235;0.00037862474;0.08331068;0.2160178;-0.013315063;0.049835604;-0.013375194;0.13204168;-0.1520954;0.11979683;-0.14207745;0.0052798474;0.19606447;0.058172632;0.00888674;0.19028507;0.0148547515;0.08088358;-0.05351632;-0.023425344;-0.06481162;-0.015895702;0.16574639;-0.07847299;0.07026523;0.054060675;-0.0292814;-0.12428173;0.2034365;0.08574073;-0.043991655;-0.08940146;-0.097675204;0.013045052;0.032457143;-0.004016728;-0.030044729;-0.018911693;-0.05736165;-0.031342696;0.009439319;-0.00026130438;0.041134596;-0.008839;0.08659473;0.009989542;-0.027019922;0.06770657;-0.0494017;0.139412;0.008656681;-0.020456456;0.11525254;0.07470199;-0.046593733;0.07286407;-0.06531842;0.09290721;-0.050500978;0.19983582;0.041326728;0.06909543;0.1766106;-0.12126903;-0.06388261;-0.021610439;0.1273802;0.041252375;-0.035160914;0.11431609;-0.18161395;-0.040755738;-0.1053952;-0.06572764;-0.026144238;0.011421071;0.059898283;0.02911958;-0.043736774;0.027484465;-0.035235368;-0.06678051;-0.19093229;-0.08757534;0.09528878;0.07518037;-0.039452165;0.127339;0.06322754;-0.06331457;0.054472618;0.055441055;-0.006822086;0.012234531;0.11511208;-0.04731105;0.007695639;-0.09602904;0.030436913;0.02884918;0.01586715;0.04139102;0.0679941;-0.1259954;0.034519278;0.087737344;-0.0249638;0.10152124;0.14618117;-0.18773;0.09350987;-0.018780878;0.05747557;0.020493124;0.08471001;0.114210814;0.037094623;0.09639214;-0.015881067;0.034709908;0.04491855;0.012438061;0.028151114;0.07842834;-0.001057782;0.026214996;-0.05985045;0.19641624;-0.0070716934;0.0849846;0.10443772;-0.027745722;-0.10135532;0.020719629;-0.062424;0.115119085;-0.03757859;0.06994803;-0.12029;-0.032643802;-0.006856677;0.01630824;0.08499731;-0.0033983872;0.13474987;0.07144943;0.012542673;0.011678904;-0.035046875;-0.059185907;0.080524206;0.08154676;-0.04017397;0.13518119;-0.06657781;0.054220267;0.057569433;0.102339506;-0.036745396;-0.0010286971;0.08575658;-0.05796554;-0.056585994;0.07563711;-0.046845835;-0.043074545;0.070833385;0.031783357;-0.07022906;0.038383365;-0.067975715;0.0553854;0.15929048;-0.020066386;0.012016414;-0.11267797;0.0457473;-0.048730522;-0.08014659;0.114074826;0.063557655;0.004629186;0.005504436;-0.07697831;0.07993036;-0.12896429;0.040276855;-0.060210224;0.07224707;0.035753872;-0.19482055;0.09558486;0.035781953;-0.03132073;0.013892143;0.08545232;0.002240792;0.021041617;0.0052119466;0.029858517;-0.050094344;-0.07262093;0.05706515;0.024618292;-0.013643851;-0.024102;-0.032847386;-0.017942302;0.032494593;0.039158665;0.07648731;-0.033312242;0.069278695;-0.030446552;0.21161391;0.047008958;-0.0587872;0.14264499;-0.01726531;-0.042069778;0.063641;0.010843214;0.0069729425;-0.053249344;0.004921889;0.051100526;0.02505534;0.048046;0.036327813;0.02933183;0.07756661;0.017449927;-0.11353695;0.21504213;0.15414417;0.029120326;0.029721148;0.04502463;0.05078221;-0.05448077;0.20958969;-0.06271337;-0.062367447;-0.053719845;-0.06662955;-0.010665647;-0.06128213;0.081534065;0.120727025;-0.018166633;0.09162086;0.2819919;-0.0801893;-0.054193392;0.05493493;-0.027548812;0.075241;0.060789846;-0.031258095;0.08444971;0.031584226;0.052053303;-0.06334466;0.048255928;-0.18876678;0.00579117;0.06633432;0.0877723;0.035256904;0.017717615;-0.17503826;-0.15123606;-0.05013224;0.10457998;-0.0038466495;-0.025660148;-0.00046022088;0.01763502;0.092730574;0.07983815;-0.013721406;0.0738729;-0.051081665;0.097118944;0.04647617;0.083670095;-0.03176853;0.067603044;0.044191916;0.06784112;-0.036574434;0.17672934;0.04049689;-0.0043815933;0.17644551;-0.15292421;0.05007957;0.06473907;-0.27588028;0.01803989;0.09213064;-0.03883881;0.039764676;-0.008493816;-0.024519486;-0.041490015;-0.046822354;0.08889392
0.07627708;-0.012578739;0.052056465;0.025550986;0.05822484;0.014062142;0.2589065;-0.019749042;-0.07220864;0.005978634;0.07082942;0.121541396;0.00886764;-0.06505661;-0.04227401;-0.10265033;-0.12135404;-0.016428446;-0.035796843;0.07276418;-0.027736884;-0.0040885494;0.03385649;0.0062868884;-0.024937155;0.08558171;-0.050877932;-0.003904609;-0.09181832;0.008132931;-0.017395953;-0.0031594804;-0.01146027;0.18454216;0.0002970884;-0.0013438679;0.21333581;0.10534607;0.050146364;-0.10944566;-0.00046836602;-0.008111439;0.09172073;0.0136010265;0.14921984;-0.042545635;-0.0044806106;-0.00594449;0.050228067;-0.16148867;-0.019069953;-0.00030269395;0.049368225;-0.008191503;0.011264061;0.038167827;0.08046228;-0.06322147;0.09599617;0.03400081;-0.022518935;0.007676348;0.019786945;-0.15639836;0.033873554;0.111678146;-0.058207367;-0.1060271;0.0016267088;-0.057641003;0.17127007;-0.0010685234;0.11288809;-0.024092978;0.08920497;0.053804904;-0.10370191;-0.17774667;0.029650457;0.0018681951;-0.018960569;0.09772315;-0.0030288494;-0.16902703;-0.0066340207;0.067913696;-0.05751577;0.11180425;0.03092449;0.07232598;0.00379117;-0.06865341;-0.048071012;0.15323992;-0.121711284;0.07273506;-0.09139606;0.020625671;-0.051560264;-0.008704927;-0.05547265;-0.04454132;-0.06387329;0.03794899;0.054885045;0.014685103;0.03906129;-0.03436225;-0.056418583;-0.015787035;-0.057648055;0.06529208;-0.01901327;-0.053213008;-0.043830097;-0.035921473;-0.032652237;0.06358756;-0.029761251;-0.12254212;0.108117834;0.07303934;0.0563155;0.04448257;-0.0016324107;0.05079577;0.0669596;0.005657778;-0.04752124;0.014183559;-0.06713328;-0.013574922;-0.055043306;0.07740093;0.14632572;-0.015249569;-0.0104716895;0.013984164;-0.14600341;0.19612022;0.020153008;-0.05006622;0.061617807;0.021760738;-0.012006439;-0.08701361;-0.14496145;-0.052113283;0.022901328;-0.016819282;0.032437995;-0.026289811;-0.04455839;0.12408696;0.06535321;0.14268602;0.2453954;-0.038771596;0.0625154;-0.048831467;0.00013173229;0.016465355;0.21068093;0.06538217;-0.02930353;0.041523993;-0.024244623;0.035994828;0.16017745;-0.009464273;-0.030922502;-0.08291138;0.0808756;0.040603504;-0.04581855;-0.059476703;0.041174643;0.04246391;-0.08354054;0.026058873;0.042524163;-0.045033462;-0.012178426;-0.032270182;-0.08164192;-0.013268726;-0.095467865;-0.13966921;0.09081091;0.0046387035;-0.14930719;-0.059064567;0.02526501;-0.049088713;0.0645483;0.003920413;-0.021154732;0.1259754;-0.14573817;0.0932932;0.04432859;-0.029256055;-0.05414263;-0.04397608;0.09298167;0.025046539;0.031093933;-0.15896422;0.06713872;-0.037524045;0.011831317;-0.006175564;-0.044727482;-0.0805813;-0.03098639;0.053596493;0.08909835;-0.005886512;-0.04690042;0.013691025;-0.0056677936;0.12080895;-0.01723076;-0.04948424;0.0053760335;-0.16702536;-0.10456326;-0.09549875;-0.2387822;0.04067463;0.04515719;0.14736354;0.02521482;-0.1893867;-0.006290973;0.012817582;0.036125176;0.0056925407;0.06211548;0.04790799;-0.07896009;0.022070358;0.13685426;-0.002475392;0.04115577;0.010581018;-0.050803017;0.2230378;0.17574744;-0.02543078;-0.08367966;-0.07040943;-0.046675988;0.036624912;0.09647661;-0.06940249;-0.25691783;0.05500984;0.088216834;0.06324604;-0.015610012;0.07881051;0.07048512;0.071162686;-0.051942766;-0.0012133948;-0.060905673;0.00084606244;0.043980736;-0.03965923;-0.049101233;0.03278275;-0.0691709;-0.030754717;-0.02485088;0.042966884;0.022108732;0.021093471;-0.019609602;-0.03154813;-0.07705604;-0.02760919;-0.032681953;-0.111895196;0.08625634;-0.15103446;-0.058450516;0.04716111;-0.08613829;0.032907013;0.10051355;0.0018204276;0.02919439;-0.018113459;-0.016414858;0.010481922;0.13837747;-0.016689187;-0.00049686123;0.08277665;-0.0023329868;-0.072784275;-0.08019703;-0.04705849;-0.11756299;-0.0146638295;-0.1392087;-0.06521045;0.0033933434;-0.017989691;-0.096107945;-0.13773307;-0.03112367;-0.060708277;-0.0213635;-0.076971516;-0.22038178;-0.022329142;-0.040041443;0.25762933;-0.022965664;0.056243163;-0.032447107;-0.08847843;-0.055483863;0.02788286;0.029747892;-0.04357325;0.025402347;0.11780797;0.065910704;-0.00560778;0.07733682;0.11136028;0.09579406;0.070644245;-0.04954501;-0.084344596;-0.09647484;-0.071574986;-0.0893694;-0.2160891;-0.006219515;-0.11756111;0.026721034;0.04827826;0.1169578;0.0042560785;0.05147348;-0.06823269;0.0511951;-0.13536148;0.04737718;-0.09993852;-0.09050095;0.06782385;0.10071785;-0.038186464;-0.04306923;0.039109197;0.067883685;0.0097835725;-0.033285547;-0.049863666;0.04431174;-0.024897518;-0.0049898927;0.100631565;0.00867186;-0.025188409;-0.05770244;-0.13071421;0.02810697;-0.048588928;0.025964068;0.15178859;0.101976976;-0.21975107;-0.021069199;-0.014798184;-0.0140911825;0.064024396;0.09825728;0.08709515;0.0891607;0.04832539;0.023817016;0.014022624;-0.006662561;-0.04662597;-0.056123447;-0.056076966;0.06650766;0.08053204;0.05795148;0.036151238;-0.078055404;0.08779195;0.035897806;-0.038990393;-0.059231423;-0.0701577;0.010008943;0.11743968;0.01048769;0.14383171;-0.11038575;0.15372902;0.00061878946;-0.046155605;-0.087368995;0.048349135;-0.01560823;-0.024810556;-0.06265799;0.06905638;-0.025290068;-0.025115475;0.094988905;-0.014731883;0.016608087;-0.034510393;0.10338435;-0.08439282;0.07916574;-0.0057209744;-0.05169545;0.028494729;0.07400048;0.108127736;0.066188596;-0.03081925;-0.039173312;-0.09089849;0.006032577;0.09175603;-0.007960842;0.075987495;-0.10717991;-0.026205154;0.056586243;0.1001486;0.003940277;-0.1200831;-0.08676212;-0.018514527;-0.008549321;-0.076306395;0.05190827;0.036113825;0.02165558;-0.066060506;-0.064937875;0.14023125;-0.046327077;-0.0662052;0.07262735;-0.052902237;-0.06006709;0.025454883;0.107450195;0.0002805194;-0.1303075;0.04915502;0.00088594743;0.026661169;0.14894974;0.10887649;0.0065343864;0.030006032;0.072548434;-0.012993361;-0.061053302;-0.09875584;0.011465584;-0.023418678;-0.0031106605;0.06354926;0.112302415;0.032573927;0.05914965;-0.009837774;0.07877091;0.049567636;0.0062479787;0.014743863;-0.02728906;0.062863305;0.101204045;0.06247862;-0.048879746;0.093725555;-0.046271276;-0.00024458277;0.04919947;-0.1909985;0.095604874;-0.0019619311;-0.08292567;0.015925873;-0.12639053;-0.011641999;0.24795128;0.05822286;0.111689925;0.035747446;0.0058805053;0.06251847;-0.13356493;-0.05180065;0.0013353847;-0.045631696;-0.05050745;0.119282864;-0.00906831;0.035356246;0.18172175;0.08916842;0.08330865;0.14628616;-0.020366091;-0.03826301;-0.05144227;-0.051392004;0.027516296;0.09883339;0.08816585;-0.027022745;-0.06490168;-0.080352545;0.04428305;-0.018307963;-0.08388554;0.035162263;-0.006039967;-0.0016104308;0.006999489;-0.0012050249;0.028666973;-0.0046101767;-0.071149394;0.034847014;0.015170567;0.081424244;0.0058992743;0.028262852;0.06591847;-0.015796624;0.044563483;0.038770348;-0.090596445;0.117711514;0.007621264;0.16205071;-0.04558068;-0.008288197;-0.043862764;-0.012759871;0.02102916;-0.09740226;0.08383108;-0.01677308;0.061003424;-0.13172889;0.068570085;0.049520995;-0.1707816;0.029005202;0.06408014;0.06637204;0.01088454;-0.13064016;-0.09035013;-0.08523727;-0.06048295;0.080191776
-0.008161962;-0.03618553;-0.030441519;0.08292814;-0.055184282;0.04814387;0.12215717;-0.030289534;-0.064319715;-0.02565522;0.02388695;0.36563975;0.10793716;0.110771105;-0.025295526;-0.07688658;-0.18624254;0.011907581;0.062147155;0.04333356;0.03210721;-0.00023682984;0.111914136;-0.018665638;-0.047274686;0.21739851;-0.10380278;-0.05328644;-0.2063829;0.0952094;0.106083915;0.07581074;0.030250631;0.13188581;-0.10333105;-0.102046065;0.31874862;-0.03993116;0.08156475;0.043593876;-0.030380586;0.031435695;0.117026195;0.11873431;0.115099125;0.08761093;0.06279756;0.07068918;0.08905483;-0.23323324;0.10532301;0.08227664;-0.0065265056;0.15494253;-0.04852148;-0.0094230035;-0.0024315915;0.06701272;0.019995308;-0.05784156;-0.166862;0.003885192;0.12909862;-0.1403179;-0.041069258;0.09255672;-0.027821392;-0.13814774;0.07916878;-0.0030350308;0.020832047;0.13339423;0.13812946;-0.07834489;0.23109184;0.032685764;-0.106487006;0.08428606;0.082221895;0.04787177;0.034912746;0.07756703;-0.10749247;0.1115808;-0.008598258;0.08963981;-0.061323255;0.0078030895;0.001256324;-0.045469407;0.03311881;-0.028647456;-0.017834859;0.033186596;-0.10913769;0.022604585;-0.15190215;-0.019300919;0.045156684;0.019055085;-0.037643485;0.07905871;-0.1180779;0.035738073;-0.06793844;0.12782921;0.0015170675;0.10718789;-0.10369467;-0.06478765;0.004354262;0.048597954;-0.04017563;-0.20954305;0.033148162;0.046362367;-0.1367716;-0.024758937;0.0333022;-0.14991051;0.26576754;-0.057809744;-0.028649269;0.07199592;-0.0036086198;0.018111613;-0.061094556;-0.023620756;-0.091193445;0.0379583;0.093902506;0.024453467;-0.18780378;-0.046962935;0.06325607;0.07953781;-0.02973269;-0.03883049;0.021871163;0.19538969;0.026003568;0.037241112;-0.056157738;-0.009415529;0.0033355914;-0.055649996;0.10257928;-0.017985279;0.043761734;0.03707528;0.01623054;0.056788173;-0.014844228;-0.10340374;-0.08604447;0.040402785;0.20341076;0.07741592;-0.015376154;-0.043800253;-0.04621204;0.06409792;-0.16847928;0.058709875;0.050007418;-0.034135904;-0.07043323;0.036895923;0.15065221;-0.07311403;0.030100884;-0.051043324;-0.06950648;-0.0092703;0.1023914;0.072055355;-0.09341161;0.03316497;0.029683782;-0.042001743;0.03322991;0.023916615;0.018232774;-0.023548491;0.015483715;-0.070309326;-0.023768352;-0.079332486;0.093308225;-0.08595461;-0.102041356;-0.05318585;0.005384843;0.035323974;-0.010737901;0.08561907;0.17409396;0.28328222;-0.16877668;-0.008143856;-0.012325203;-0.12379167;0.03474223;0.057881076;-0.08535274;0.016164413;0.18461235;-0.05030714;-0.03554432;0.059766255;0.00032088184;0.05386711;-0.008409703;-0.071198374;0.0050936984;0.12008692;-0.031617407;-0.02018579;-0.008698531;0.032854006;0.026792947;0.015691081;0.021321265;0.0348599;-0.102749735;-0.1473425;0.14372198;-0.20349449;-0.2298628;-0.14302808;0.04918279;0.03883829;0.040317234;-0.061419822;0.01927998;-0.0013940481;0.02176813;0.014615425;0.057879943;0.05636062;-0.027053991;-0.08670524;-0.0924235;0.108938195;-0.04100017;0.08940341;-0.10174516;0.18553542;0.08474783;0.053979624;-0.0821924;-0.039330646;-0.0070653153;0.07149683;0.12048533;0.006775189;-0.12675253;0.038309775;-0.0064273253;-0.04126912;0.034228206;-0.008688353;-0.052610602;0.027765129;-0.06857178;0.006524955;-0.0318145;0.028558549;-0.047261927;0.004785702;0.11591851;0.050252832;-0.0129494425;0.0143555505;-0.18666153;0.01804073;0.0542964;0.12872641;0.003367011;0.0122294435;0.029595671;0.11516262;-0.0643121;-0.07720751;-0.076362796;-0.04238375;0.09779046;0.101844184;-0.016110474;-0.08573103;0.29218575;-0.021551223;-0.07158848;0.028370805;0.00564068;0.09051869;0.13027632;0.04666249;-0.047737204;0.071672514;-0.052139245;0.02324573;-0.06659709;-0.034175854;-0.03226668;-0.004531632;-0.04710677;0.035514597;-0.13514896;0.04532125;-0.014112989;-0.037101947;0.032237444;-0.094391644;0.13623372;-0.03958769;-0.04355566;-0.042583335;0.013224103;0.14562526;-0.028098254;0.05015412;0.010805373;0.026079355;0.014948065;0.061530076;-0.06971682;0.167111;0.057646118;0.11903543;0.26134938;-0.041171018;-0.0047842874;0.07963471;-0.019702323;0.10313958;0.07199765;0.022077098;-0.23502044;-0.066888705;0.0032437027;-0.19087055;0.080970965;-0.1504499;0.025484324;-0.016966365;0.097417824;0.015886972;0.061609;-0.054383345;-0.13819581;-0.34786192;0.040214393;-0.10757911;-0.08349958;-0.025642764;0.0002043387;0.052870836;0.04399294;0.14024186;-0.0911992;0.104487285;-0.02266748;-0.056887187;-0.045633633;-0.04127266;0.059591312;-0.044179127;0.07860759;0.030950958;0.07507422;-0.3443202;0.039843254;-0.06107952;-0.0041883425;0.20759578;0.24119706;-0.23498595;-0.054081846;0.046999224;0.046831302;-0.050441142;0.017219592;0.010835881;-0.038006462;0.063911915;0.06103362;-0.0040888875;-0.041883647;-0.0440576;0.01857522;0.037176706;0.048543114;-0.0016333616;0.054274224;0.13222906;-0.08626847;0.061831985;0.10710273;0.03602748;0.006304611;0.007597526;-0.056645572;0.18208347;0.016201656;0.14531863;0.059194475;0.11042011;-0.09267068;0.01260918;-0.021764059;0.06582469;0.19357432;-0.08189642;-0.08544827;0.05500811;-0.043601945;0.099668495;-0.017249784;0.021242699;-0.09316328;-0.115091085;0.09388735;0.049817447;-0.046396382;-0.012756644;0.035906073;0.107401796;0.07582714;0.12558982;0.009673382;-0.015980536;0.07089908;-0.03920158;0.08444723;0.04346384;0.026619451;0.12971655;0.0061940267;-0.008587705;-0.07334973;0.0819358;0.01463119;-0.12580447;0.022121474;0.018771198;-0.08828859;-0.14646514;0.15213582;0.071245395;-0.030279355;0.06100235;-0.016079405;0.045086168;-0.1735486;0.01651596;-0.23430859;-0.0070556006;-0.095376596;0.009593485;-0.013558733;0.05504155;-0.14733191;0.015786458;-0.08660028;-0.016503403;0.15505633;0.0732956;0.016058201;0.038850445;-0.016100163;-0.1541194;0.05907498;-0.0017822341;-0.03124867;0.07783533;0.0036247184;0.0059613055;0.015976349;0.02859954;-0.042669445;0.026967024;0.10965605;-0.30586264;-0.025405286;0.08192858;-0.029997986;-0.08437104;-0.033463232;-0.025562085;-0.08373254;0.0010678967;-0.0018145867;0.054881778;-0.0047939117;0.050622065;0.07736464;0.06602137;0.03994012;0.051167957;-0.04587818;0.085571684;0.2385406;0.011073763;0.06938568;0.03645497;-0.043280765;0.07422069;-0.098074645;0.028215822;0.01676171;-0.09472047;0.06872231;0.074712925;0.0614279;0.0807883;0.16016981;0.05225966;0.06981719;0.15537085;-0.08237468;-0.07975212;-0.04734323;0.02302381;-0.024060981;-0.0070904414;0.020853275;-0.01670855;0.05032896;-0.0017447723;0.041146442;-0.022016503;0.034038328;0.118196934;0.039245125;-0.10930461;-0.07069444;-0.044176843;0.07947288;-0.07480166;0.03583286;0.024091903;-0.025989147;0.078509144;0.111645356;0.07626872;0.09545068;0.047580075;0.020796005;0.044016257;-0.01185856;0.039877687;0.082284145;0.092154086;0.11199379;-0.054800123;0.03097874;0.032472145;-0.2901461;-0.19289221;0.050189223;0.0014704845;0.18094027;-0.040915582;0.040359367;-0.046250794;-0.04994105;-0.04493359;-0.08545511;-0.080203585;0.1409586;0.09984787;-0.00024505;-0.061487705;0.03383667;-0.08287952
-0.029042305;-0.12435384;-0.08038809;0.19368526;0.06909292;0.039330866;0.008826848;-0.01847924;0.13750276;-0.027083063;0.08291176;0.019912679;0.08551227;-0.01930013;-0.060864918;-0.021685755;0.06658175;-0.04367228;0.044328734;-0.03143918;-0.06668022;0.113497734;0.04146971;-0.032593157;-0.017059043;0.14480789;0.017857824;-0.055241335;-0.12789881;0.06747371;0.04793381;0.0686191;0.032322302;0.14099844;-0.06700902;0.043403838;0.15793908;0.040576566;0.0793117;0.039906923;-0.018177053;-0.014443863;0.080265105;0.014116426;0.031495064;-0.062135063;-0.03264071;0.031391807;0.14852135;-0.05740341;0.21965352;0.016341856;-0.014561415;0.009334666;-0.10343418;0.03498003;-0.044092163;-0.02661123;0.026068293;-0.05428762;-0.14371777;0.042914245;0.06617594;-0.035861287;-0.07184687;-0.010644615;-0.02917495;0.024604185;-0.07588994;-0.04236137;0.02400779;0.08076377;-0.036569204;-0.12511791;-0.067917794;0.046080086;-0.09378725;-0.054265;0.14060818;-0.052550133;0.023697581;0.014538439;-0.012953674;-0.18061638;0.062519304;0.07268293;0.0017106436;-0.07158684;0.044073086;-0.060208384;-0.002840179;-0.07097607;0.05442757;0.09851177;-0.041299954;-0.07006568;-0.17723033;-0.0031307817;-0.03600222;-0.055909682;0.0018641072;0.095092386;-0.100336246;0.028342346;0.006733431;0.12324896;-0.0070032715;0.031406328;-0.015437097;0.064373605;0.13920629;-0.068143696;-0.12242015;-0.012004827;0.0037006238;0.056181505;-0.115659125;-0.012972846;0.03514204;-0.07772107;0.12590525;0.060349118;-0.059489883;0.035721865;0.04470851;0.06772891;0.020662215;0.028209306;-0.010220665;-0.06054649;0.022134852;-0.06605639;0.025732717;0.004694528;-0.13938013;0.029866658;0.055750567;-0.07531691;-0.010168644;0.16644968;-0.09688834;0.05665407;0.057052307;-0.018118517;-0.071059644;0.12519869;0.074480444;0.06529532;-0.016179172;-0.023106266;0.029242055;-0.013552813;-0.0180998;-0.14767826;-0.06891157;-0.06330362;-0.057790477;0.048523318;0.023668954;-0.036506478;0.054878175;-0.06489806;-0.19062181;0.031189566;-0.056708507;-0.06668968;-0.055856712;-0.038088646;0.053966314;0.037296113;-0.014994803;-0.14096689;-0.051452544;0.056112595;0.10168919;0.036982402;0.0028810713;0.036179755;0.03181252;-0.04379413;-0.08429002;-0.074943386;0.018690346;0.009787312;-0.13871743;-0.03252735;0.0031826154;0.03684192;-0.030258838;-0.10275647;-0.1249098;-0.058805384;-0.097918294;-0.026004711;-0.025054889;0.05068769;0.07585212;0.08744311;-0.066361904;0.042268977;-0.009323494;-0.07056123;-0.03887733;0.067835644;-0.006171775;-0.014265007;0.048933703;-0.13768183;-0.07727754;0.02620003;-0.13210855;0.056579627;-0.08862318;0.11305669;-0.08747089;-0.13385905;0.02563484;0.048691597;-0.11480691;0.04559036;-0.0016859663;0.04284593;-0.006596618;-0.06653429;-0.047572378;-0.14381099;0.083345525;-0.117128946;-0.153327;-0.040707525;0.10191756;0.02392348;0.026288038;0.12310901;0.05554643;-0.06025487;-0.06430553;0.011410636;0.058488775;0.056680985;-0.036783837;0.00020394921;-0.047841895;-0.018564902;0.08359201;0.10332813;0.002797384;0.034322817;0.04093719;-0.023163032;-0.051261403;-0.1432294;0.11670762;0.008884837;0.040640984;-0.056765344;-0.24541213;-0.07026919;0.035393175;0.053190958;0.04401566;0.011345242;0.05223419;-0.024822341;-0.052614696;0.06128899;-0.041828744;0.015558713;-0.09635675;-0.036009904;0.11207611;-0.0885478;0.0034245688;0.055494662;-0.049054664;0.10758593;0.16071594;0.034585062;0.021313472;-0.03289552;-0.09114758;0.0013156038;-0.03571119;-0.04702484;-0.074496165;-0.09141563;0.04883174;0.081975356;-0.07498615;0.0439035;0.2306802;0.056199122;0.032306075;-0.072557956;0.019471481;0.094531395;0.0020810384;0.10804734;-0.107384466;0.025512332;-0.1275285;-0.033732988;0.056752313;0.05914342;-0.057756837;-0.055096135;-0.052087963;0.011200961;-0.013382442;0.053782888;0.058120973;0.2071866;-0.084947914;-0.08691368;0.068061225;-0.01099299;-0.22997242;-0.017849559;0.09799179;-0.055470865;-0.04880155;-0.011997746;0.040319208;0.05512569;0.052649308;-0.061724998;0.008252386;0.18138306;0.066406466;0.018552527;0.13783503;-0.022900205;0.031777345;0.1637585;-0.14548779;0.04536097;0.08580072;-0.006480471;-0.07490235;0.10628181;-0.02326493;-0.055714663;0.068519145;-0.11266928;-0.035974152;-0.038978685;0.079721;0.043737933;-0.0654106;0.0110403765;0.05543885;-0.29617703;0.14194934;0.017489683;-0.059659947;-0.0041122953;-0.062228296;-0.007560219;0.062518336;-0.042263553;0.007874452;0.19454493;-0.011468363;0.046838783;-0.029569304;-0.07393936;-0.11480291;0.060602736;0.052858036;-0.0016126487;-0.043836422;-0.114646055;0.037760943;-0.05388945;-0.012152735;0.16124997;0.08618263;-0.20401789;0.053002145;-0.0885758;0.052817505;0.028607154;0.06712598;-0.064852506;-0.04520026;0.11674935;0.019463973;-0.05769604;0.019806204;0.05374655;-0.065099925;0.034353238;-0.07590889;-0.06469178;-0.0034900103;-0.006230059;-0.047530193;-0.024051977;-0.026410552;-0.04290734;0.06490869;0.058659997;-0.013414465;0.100389674;0.04346778;0.11359136;0.07324689;0.10175331;-0.075820565;-0.047882996;0.07810019;-0.09327512;0.06549874;-0.086077146;-0.0544411;0.09220519;-0.013158815;0.013153468;-0.00083491975;-0.031972628;0.035662957;-0.09672643;0.0073938966;-0.03335271;0.010745665;0.13264298;0.038144406;0.08654397;-0.010852627;0.22168453;-0.035606824;0.032447495;-0.04008776;-0.01893227;-0.060844127;0.025687883;0.01800234;0.10342266;0.02480103;0.023137588;-0.09573012;0.03415179;-0.002551525;-0.06428413;0.0047350493;-0.06754645;-0.07588213;-0.12664358;0.18022029;-0.06804587;0.0016052832;-0.030917995;0.008533716;0.20963575;-0.12231674;-0.0052285464;-0.0029446308;-0.031187441;-0.12580127;0.08401141;0.049594358;0.063828625;-0.13980052;0.020461796;0.048113473;-0.10347541;0.18282528;-0.030477619;0.00893406;-0.06652121;0.04592949;-0.00083311176;-0.029566435;0.066441014;-0.007324081;0.08024786;0.0464623;0.015572102;-0.14016989;-0.072567075;-0.029911451;0.004661117;0.101139106;-0.12097443;-0.059127893;0.019471887;-0.018875169;0.07080399;-0.003630817;-0.11262705;0.056420203;-0.05014333;-0.061178483;0.032258812;0.055498756;-0.18906178;0.06797206;-0.02749484;-0.07334527;-0.04496568;-0.120293275;0.015930586;0.08619799;0.01057786;0.08439159;-0.07743323;0.0017953735;0.016562995;-0.0020865486;0.020090923;0.073124126;-0.050949585;0.044899072;-0.00086171663;0.25725165;-0.070092;0.10165203;0.070582666;0.10277254;0.14430799;0.0486955;-0.06541809;-0.062494524;0.0198308;0.04466099;0.013442368;0.067580156;-0.014789548;0.049550306;0.04193714;0.054126494;0.026833698;0.08448405;0.12568207;0.070397705;-0.011500393;-0.026777325;-0.060023103;0.16817738;-0.018434761;0.0195368;0.027611308;-0.037601057;0.048309077;-0.0016261297;-0.016612718;0.14149433;-0.05201086;0.021573879;-0.10176173;-0.053440996;0.068944685;0.107293844;0.14584023;0.053658754;-0.0031908157;-0.0064579383;-0.08290738;-0.097446725;-0.056637112;-0.07092788;-0.031005682;0.082553916;-0.17817606;-0.056435518;0.04423639;-0.050798394;-0.010771588;-0.0062661786;-0.03378762;0.09404589;0.018517341;0.035665717;-0.016641507;-0.061805584;-0.0119218165
0.022231545;-0.108181976;0.061594594;0.15157153;0.06500145;0.040180836;0.2968905;0.0027429392;-0.037572857;0.09050745;0.03611295;-0.0127599165;-0.00880358;-0.044487927;0.030383002;-0.014882178;-0.047293346;0.05530338;0.0008185466;-0.046412703;-0.07989453;0.0648238;-0.02161792;-0.009172725;-0.03020619;0.020643804;0.02193361;-0.004682058;0.08198397;0.14940839;0.08809788;-0.11492407;0.06332827;0.0027613766;-0.005435117;0.018707482;0.034815397;-0.04132421;-0.05025824;-0.018400615;-0.077421226;-0.045625594;0.10358959;-0.009953129;-0.07950439;0.0054431693;-0.05508307;-0.012375089;0.07334457;-0.02558847;0.12956016;0.17090508;-0.06791936;-0.06915649;0.0646327;0.044660855;0.0043129465;0.018172143;-0.038891394;-0.077001505;0.011672543;0.037810013;-0.028101947;-0.13316646;-0.09263941;0.09122474;-0.08074793;-0.08541529;0.0040772357;-0.0271274;0.010945796;0.026240606;-0.041823264;-0.10806412;-0.2950029;-0.0013296674;0.029839411;0.09179247;-0.17926754;-0.079484925;0.027153388;0.07080102;-0.049079712;-0.0057945508;0.059643004;0.114556186;-0.062498312;0.032238018;0.014579455;-0.007920822;0.011394655;-0.034181464;0.13821444;0.041173935;-0.059019122;0.053366188;-0.10116708;-0.0765294;0.012435246;0.041910958;-0.043535445;0.05949565;-0.037901007;0.0704707;0.028202364;0.026676748;-0.06820523;-0.0472635;0.005715087;-0.005620241;0.09106621;0.03328703;-0.092422985;0.0040241415;0.04863294;0.068190634;-0.04398638;0.057525784;0.041509;0.03938762;0.09538676;0.0003153578;0.004012507;0.08115214;0.02003449;0.0004910977;-0.05903182;-0.100857325;-0.04777816;-0.021814238;0.02131407;0.016336244;-0.08965708;0.15894067;0.007621354;0.031235399;0.057835985;-0.029714357;0.20794126;0.14222606;0.14584194;-0.042288657;0.054016065;-0.042177677;-0.0292644;0.10906279;-0.0036368822;-0.060819667;0.037156645;0.010872198;0.041394882;-0.0028966526;0.040012147;-0.20723207;-0.19614403;0.04578486;0.08870846;0.052293006;0.028005501;-0.022027474;0.04239199;-0.041678604;-0.2085754;0.05513594;0.05825172;0.06795775;-0.046983007;-0.10603106;0.19083118;-0.07421676;-0.03252691;-0.109462954;0.031806126;-0.007896798;-0.02100727;-0.028272089;-0.022345923;0.038756695;-0.059795763;0.05351368;0.020051502;-0.0049733883;0.008644727;-0.01693949;-0.08806969;0.012740749;0.09035958;0.03717903;-0.10908311;-0.12049456;-0.16070263;0.07036598;-0.17281817;0.06986564;0.061912358;0.029739246;-0.2598264;-0.026674692;-0.065779276;-0.026970528;0.006343331;-0.057499923;-0.080340415;0.05579813;0.04394289;0.09755974;-0.18929325;-0.013111704;-0.047001965;0.15886533;0.013587045;0.04580245;0.0125436615;0.08285991;-0.1351804;-0.05779597;-0.068251826;0.07254011;-0.0064502116;0.066375;0.033148885;0.0042774836;-0.03805595;0.037147317;0.032536857;-0.13280888;0.029318655;-0.19744907;-0.24091841;0.012378681;0.027907006;-0.113344;-0.0023437946;-0.16123717;0.04027299;0.030361442;-0.07483387;-0.068633534;-0.009463026;0.008568273;0.0028282423;0.0030802975;-0.029139202;0.041488443;-0.07670762;0.0888842;0.047873657;0.10993857;0.15513974;-0.06737749;-0.05986391;-0.025846606;0.08133887;-0.05123289;-0.15170898;0.011415557;-0.26586345;-0.007953452;0.006698118;0.037244223;-0.0654243;0.07972621;-0.10058591;-0.021991042;0.034510873;0.03821421;-0.06741391;0.02799372;-0.029155802;-0.084255695;-0.05278018;-0.088042215;-0.03887605;0.007616381;-0.020403592;0.08807811;0.112582214;0.115846224;0.01619387;0.09350439;0.002350603;0.06770833;0.029610923;-0.1685067;0.04953046;-0.20571445;0.03505149;-0.03532173;-0.0050545963;0.037130613;0.06511749;0.052703507;-0.0861647;-0.075386256;-0.07634881;0.15185411;0.050232586;0.06821278;-0.0825772;0.103443235;-0.11968462;0.11286979;0.04548642;-0.07939427;-0.1266868;-0.08652453;-0.10820315;-0.03463288;0.060954906;0.017976835;-0.04702954;-0.04319054;-0.0426692;0.038746778;0.07335515;0.0075711776;-0.25097913;-0.030941857;0.08958378;0.10242078;0.084285416;-0.028701438;-0.044330858;-0.060452014;0.02070014;0.047901433;-0.1277192;0.05364352;-0.03227338;-0.011913877;0.031665586;-0.077363476;-0.0099858735;0.025102567;0.00651735;-0.05287288;0.022731392;-0.05141482;-0.0050624576;0.041407384;-0.10111522;-0.18712486;-0.042091437;0.007666537;-0.02957633;0.022248928;-0.0636653;-0.071385376;0.054480754;0.062737815;-0.015589292;-0.3381157;0.026613161;0.03163287;-0.18686503;0.015586505;0.107909605;-0.06264887;0.028667158;0.027303737;0.20368464;0.11499754;0.073057555;-0.049147714;0.07076721;0.022624858;-0.02342005;0.08468583;-0.032167487;-0.1079695;0.031851124;-0.19731645;-0.01574187;-0.007980061;0.01208316;0.24376641;0.101082936;-0.18333195;-0.0037014703;0.035711255;0.0012890886;-0.043031655;0.020253211;0.048293393;0.072288565;-0.079802416;-0.037343733;0.00019931134;0.0072194794;0.07451161;0.012439062;0.0051385756;-0.073326446;-0.05777037;0.08862522;-0.20287284;0.030282816;-0.018768571;-0.051416818;0.13627;0.037428975;-0.038549624;-0.059539493;0.13129129;0.007850289;0.23628151;0.040516198;0.25444546;-0.03715234;0.024483941;0.014507909;0.03936863;0.03451668;0.12778771;-0.11302655;-0.03172646;-0.0866646;-0.22855511;0.06704145;0.15827678;-0.007297357;-0.09331213;0.020108461;0.06670347;-0.07694677;-0.07333136;0.02521492;-0.03839503;0.02266638;0.033183508;-0.019681564;0.0021859757;0.0010999792;0.077521436;0.05861607;0.042595718;0.10434459;-0.046183933;-0.02740897;-0.037836377;0.027811762;0.08612987;-0.01489869;-0.07560009;-0.13035388;-0.011240348;-0.21452855;-0.10085863;0.14514121;0.04642818;-0.059028618;-0.056470305;0.11072085;0.20600405;-0.18750708;0.017403256;-0.10722207;-0.019585159;-0.12692071;-0.016570669;0.1268756;-0.011153492;0.028578041;0.045076184;-0.097645074;-0.03676212;0.058368146;0.06277989;-0.071449086;0.046585035;0.044273056;0.048741378;-0.04880422;0.06068174;-0.06903203;-0.04770028;0.0137787135;0.089974225;-0.11474233;0.042395506;0.02861562;-0.05956708;-0.2634199;0.07426244;0.023243666;0.17678964;-0.05611577;0.054607958;0.0627933;-0.14287144;-0.07340962;0.12963459;-0.0657686;-0.06360253;-0.03367644;-0.19031997;-0.05355717;-0.070546985;0.03214648;-0.04085123;0.13502192;-0.06703745;0.014626485;0.014801201;0.0006584428;-0.024307601;0.06172144;0.11233768;-0.09912191;-0.034221373;0.0023232251;-0.05402811;0.031035088;-0.016165998;0.22342566;0.086281255;0.020119466;-0.07284091;-0.04250983;0.09574635;0.057762075;0.07470399;-0.00084028905;0.034937583;-0.026259046;0.08747466;-0.05404006;0.02490642;-0.051074218;-0.14937791;-0.012573631;0.023337958;0.018374572;0.057920314;0.1319573;-0.08106672;-0.038338974;-0.04542891;0.15723293;-0.19569457;0.04703447;-0.1036044;0.036411203;-0.008824061;-0.005312565;-0.07152464;0.082961254;-0.082657814;0.029223619;0.040703855;-0.07121576;-0.07668222;0.102833584;0.023011765;0.09111574;-0.16623397;-0.0074994727;-0.02041131;0.03240093;-0.14226545;0.032771174;-0.06955467;-0.11329215;-0.0690808;0.0040137493;-0.041991673;0.04624176;0.04829604;0.00049122307;0.072372414;-0.026296724;-0.14563291;0.020931534;0.034762062;0.09340744;0.06561792
-0.047096584;-0.1278258;-0.012025656;0.011427141;0.07914569;0.061664168;0.30451465;-0.062636115;0.06443213;0.047972955;0.08598697;-0.17589906;0.015270477;-0.058163773;-0.046833556;-0.020771878;0.02168349;0.15501758;0.09235062;0.054361716;-0.026499856;0.16239475;-0.009446958;-0.008319408;-0.0775403;-0.014669802;0.057095665;-0.076826625;-0.040019445;0.06268451;-0.07806541;-0.1039859;-0.10272074;0.19107594;0.02662388;0.01897119;0.13693768;-0.07569438;0.0028783127;-0.0824029;0.0140784625;-0.27037042;0.022117421;0.012381622;-0.19745657;0.03670583;-0.0155415125;-0.01746874;0.079692736;0.050677557;0.10633465;0.054162968;-0.06808419;-0.013017331;0.025173876;0.065112725;-0.031166699;-0.067774944;-0.03336476;0.02993725;-0.15165378;0.029677656;-0.027158715;-0.01983939;0.00083901983;0.06262035;-0.0626702;0.06354572;-0.010562578;0.012340472;-0.07788487;-0.0720437;-0.0048558894;0.037459657;-0.027041225;-0.00018493876;0.0036900383;-0.015627509;-0.09842484;-0.009506896;-0.053404972;-0.052041065;0.15104105;0.0021612972;0.062587045;0.03996586;-0.0628211;-0.030660583;0.019324075;0.03767328;-0.054283097;0.09235004;0.11714886;-0.061888363;0.08036468;0.047305897;-0.016409928;-0.029687041;0.047219213;0.09100921;-0.076622166;0.09584513;-0.043810543;0.067825265;-0.019899992;0.06647546;0.04187707;-0.030271696;0.038451705;0.014969037;0.13059837;-0.07213204;-0.05267394;0.10586825;-0.03890403;-0.0660077;-0.22365586;-0.004149231;0.0853501;0.05874425;-0.08324929;-0.05218046;0.06757973;-0.0022119351;0.00792813;-0.043360304;0.028244104;0.058264017;-0.025908096;0.058467656;0.008208823;-0.035891045;0.07862193;0.091379076;-0.042022087;0.007910509;-0.010474955;-0.01371627;0.12504879;-0.013050627;0.2112707;0.023462739;-0.015325434;-0.009757768;0.047276832;0.19369778;-0.004617361;0.063030496;0.050284386;0.018948145;-0.03014677;0.09119492;-0.03423158;-0.15161356;0.052053213;0.007952067;-0.013421723;0.10515012;0.040599413;0.07363227;-0.071051605;0.009197871;-0.22286424;0.011686623;-0.066865325;-0.036357667;0.03386408;-0.09800032;0.108195685;0.012963773;-0.042868942;-0.07390569;-0.07725853;-0.058457855;0.049883373;-0.054628246;0.022741292;0.090229854;-0.051508795;-0.017649734;0.023338964;0.0062545263;-0.11049995;-0.06647196;-0.11968553;0.049568497;-0.056251094;0.1525254;-0.07346598;0.02041464;-0.034880687;0.06728163;-0.157551;0.025689604;0.050369453;-0.06895822;-0.14404622;0.119695656;0.1400239;0.067664385;0.05039865;0.05636788;-0.021502865;-0.048895467;0.07978426;0.06726628;-0.07024933;-0.042951025;-0.043672867;0.06856327;-0.0080846995;0.039381757;-0.035595227;0.11135326;0.066939466;0.067848295;0.051164344;0.012295006;0.0010408252;-0.06551247;-0.08100533;0.14760526;0.0067417687;-0.046154585;0.0364298;0.016769556;0.050789285;-0.021174261;-0.20239851;0.14718777;0.039253168;-0.22841088;0.09910365;0.06383603;-0.047430884;0.02103369;-0.049789328;-0.02920716;-0.026218599;-0.022337934;0.073456444;0.116601266;-0.0072927577;0.07502245;0.042621594;0.04383617;-0.01638064;0.13015336;0.16011995;0.022966245;-0.08221275;-0.057089914;0.09186212;-0.1385972;-0.24352917;-0.033442188;-0.19834727;0.077647865;-0.05510082;0.0802518;0.08068444;-0.00761817;0.017932367;-0.081177875;0.004762508;-0.031670544;0.003545283;0.00999923;-0.036622703;-0.059576306;0.0016884864;0.044932373;0.020429542;0.027078636;0.100243814;-0.045337625;0.20608325;0.082214706;0.027867472;0.015799318;0.0033969865;0.016739797;0.03971297;-0.05776849;-0.0035872238;-0.08364003;-0.031628795;-0.0069342605;0.090374485;-0.06338126;0.07539606;-0.0056246985;0.03320026;-0.016016904;0.032636765;0.14300686;0.022747593;0.12871242;-0.0035219546;-0.07293578;-0.04238288;0.10661614;0.042785726;-0.093026824;-0.05380328;0.09626108;-0.011960127;0.017913733;0.06756368;0.04276172;-0.11561099;0.13744833;0.006015169;0.05795357;0.091807105;0.011795579;-0.19158193;-0.08352357;0.079190046;0.12497093;-0.030770184;0.04109002;0.012089738;0.05836821;0.006376501;-0.058183867;-0.027550017;0.008376606;0.08493764;0.02595248;0.05751508;0.14745645;-0.07743945;0.005809974;0.00794566;-0.030247781;0.032079697;-0.09739256;0.13152541;0.03110396;0.19588871;-0.113698125;-0.07329865;-0.11304858;-0.019129023;-0.057455312;-0.045965455;0.0525821;-0.0029281133;0.024924878;0.07200126;-0.0040236693;-0.016349306;-0.0002509134;-0.17421095;0.047042057;0.0064684288;0.08068959;-0.025380418;0.079473436;0.03521792;0.19567567;-0.021735027;-0.024614519;0.065209985;0.04233511;-0.06522572;0.09069988;-0.070205085;-0.0291123;0.09064471;-0.059952967;-0.07217629;-0.0047751195;0.033793338;0.16029269;-0.030832564;-0.18247664;0.016091736;0.0028897675;-0.04810681;0.006592673;-0.031233422;-0.080019526;-0.03331771;0.053113922;-0.06649995;-0.014651232;0.024131235;0.0643863;-0.14607765;0.041385654;0.03317431;0.019147858;0.102719344;-0.014828944;-0.0146676265;-0.016934447;0.08871193;0.08755028;0.05820741;-0.03367418;-0.056305233;0.115949094;0.019367035;0.07198229;0.02537268;0.23094682;0.05329409;0.053133376;0.009070342;0.01635591;0.21314691;-0.114539765;-0.018316451;-0.093891725;0.0025565242;0.0016425867;0.014837104;0.07616976;0.05138123;-0.06279414;0.05808623;0.06939512;0.012320731;0.12780301;0.027896488;-0.06056692;-0.027727267;-0.09454891;0.01491768;0.032295503;-0.23247406;0.056950163;-0.037765633;0.1189949;0.06990047;0.058737457;-0.07666504;0.0588089;-0.026103977;0.03489665;-0.0460253;0.017087577;-0.079877995;-0.0143602695;0.042660873;-0.08832769;0.11997218;-0.08750692;0.031611558;0.025928129;0.021760747;0.1861629;-0.11492685;0.077633396;0.019489417;0.09120346;-0.11363345;0.093224086;0.1471523;0.037913587;0.077577524;0.064290695;0.077851884;-0.04588211;-0.050653186;-0.013272029;0.046343528;0.0009847895;0.022417339;0.17453933;0.07351176;-0.07336392;-0.055476516;-0.0152464835;0.09102664;-0.012494545;-0.10994267;0.04095487;-0.0729623;0.05102887;-0.1980549;-0.22772747;-0.009019527;0.027453749;0.03566191;0.06401275;0.037431374;0.025512464;-0.01846005;0.120873265;0.0346768;0.04897837;-0.016824404;-0.17973801;-0.08351467;0.004771131;-0.004324849;-0.043351606;0.13962936;-0.14604618;-0.039670862;0.00038378383;0.035698686;0.0596693;0.026471725;0.057303477;0.0049364623;-0.009018145;0.025408449;0.06944957;0.017017255;0.07581825;0.11402385;0.03288779;0.040343076;0.07910262;0.050664827;0.12255924;0.068302795;-0.032509066;-0.05676775;-0.024514845;-0.04065669;-0.00013800466;0.011628627;0.06957131;0.09209265;-0.12286198;0.061927415;0.06985114;0.14561419;0.099943034;0.07145075;0.058090955;0.04941192;-0.06896942;0.054135893;-0.0029762685;0.036437064;-0.061504;-0.014282503;0.12358588;0.040422846;-0.027791744;-0.14628008;-0.08396514;-0.025309317;-0.027096463;-0.014602555;-0.033406977;0.09007421;0.0034464456;0.031162472;-0.024682691;-0.006132056;-0.023708697;-0.183253;0.04381716;-0.08927365;-0.01327209;-0.021296035;-0.11577199;0.0043283026;-0.036587063;-0.16165923;-0.06049664;0.015510288;0.08018177;0.080007315;-0.08250462;0.20635605;0.008242847;-0.05969258;0.06386409
0.04547148;-0.05216443;0.019846119;0.089818336;-0.057900667;-0.05351265;-0.118305996;0.016529577;0.17667155;0.09859273;-0.03576315;-0.24657497;0.048374027;-0.02565492;-0.039689627;0.0076331077;0.09049514;0.027040957;0.012399898;0.025997477;-0.06195148;0.07144642;-0.09496729;-0.053558845;0.0036177707;0.04638284;0.051229257;-0.067769326;0.10239889;0.04528574;0.024137996;-0.019280866;-0.0007350277;-0.13655679;1.7487237e-05;-0.014853118;-0.029531348;0.03428097;-0.060436077;0.033849593;0.10392856;-0.22756366;-0.043503806;0.02137114;-0.020303637;-0.09388015;0.06794514;-0.12696643;0.014818902;-0.067377694;0.08591306;-0.017362423;0.044913817;-0.2118467;-0.0836608;-0.0133584775;0.054649487;-0.061736155;-0.08181674;0.01370014;-0.10413577;-0.05518282;0.08051035;0.07685833;-0.043342937;-0.025599958;0.06510711;-0.045620278;-0.11327923;0.047311094;-0.035042975;-0.2686699;-0.039957006;0.078432724;-0.16755292;0.03565751;0.08493619;0.025994428;-0.10807541;0.10897018;-0.05456898;0.0379155;-0.013789506;-0.09926376;0.011715728;-0.048440784;0.009385624;0.043233756;-0.0016070004;-0.030978272;0.011380858;-0.011662558;0.022569556;-0.011040539;-0.0031485506;-0.007337221;0.0668447;0.044562303;-0.067608416;-0.009075839;0.015501089;0.057833966;0.06348321;0.0076281573;0.06528838;-0.068375744;-0.07873944;-0.06138842;-0.017023578;0.03624393;0.11659697;-0.09215325;-0.093233705;0.1849207;-0.06363819;0.02091047;-0.117751144;0.040766716;0.07919193;0.08116582;-0.20970117;-0.030011212;0.06277717;-0.009589969;-0.0028836695;0.10891249;0.08641322;-0.06684608;-0.009120241;-0.036724668;0.02404355;0.024614967;0.0655755;0.16991565;-0.25372028;-0.07730541;-0.06985284;-0.07051605;0.0673613;-0.10343137;0.124890424;0.027551314;0.07098983;-0.051661722;0.038552802;0.26710293;-0.19520636;0.060847457;-0.08259676;0.010699935;0.070709065;0.092488095;-0.013634881;-0.033013955;0.030323165;-0.105474934;-0.031619437;0.21980004;0.095560916;0.046539363;0.02783716;0.053885896;-0.20911482;-0.08088114;0.026214264;-0.01698706;0.06491677;0.022529924;-0.08995977;0.07311468;0.0013955366;-0.02190746;-0.062734365;-0.06455424;-0.051725827;0.030601645;0.08984993;-0.1137799;0.026478948;0.06877299;-0.08284335;-0.07376761;-0.02899337;-0.0398792;-0.05667316;0.079438426;0.048761945;0.015523963;-0.06782391;0.02904002;-0.15703644;-0.03198012;-0.039344855;0.03348103;-0.04978733;-0.049327035;-0.11365251;-0.16313532;0.064045854;0.041087892;-0.002461012;0.011291949;0.058566596;0.022000398;-0.10111558;0.021140115;-0.1377508;0.03484347;-0.048502862;0.12660937;0.044407673;0.057156686;0.09330831;0.16204502;-0.019096516;0.006103996;-0.034942135;0.033496566;-0.07624035;0.039486513;-0.015402153;0.18515886;-0.04390975;-0.015515375;-0.06728615;0.052495413;-0.01370637;-0.07019285;-0.037700094;0.09942302;-0.049483612;-0.07284451;-0.011470206;0.05271057;0.04364892;-0.12859511;0.017386125;0.023833204;-0.07094237;-0.021362383;-0.032787673;-0.06743994;0.13192905;-0.06547237;0.004447016;0.16437966;0.08563128;-0.07727665;0.2508733;0.057021867;0.0072980807;0.041613948;0.036755927;-0.05639436;-0.41683862;0.03934526;-0.30968663;-0.009339891;-0.016794106;-0.030486044;-0.018934902;-0.06283591;0.016031625;-0.022852518;0.018337423;0.026502265;-0.035927944;0.03410803;-0.028135614;-0.057457373;0.119574964;0.027261578;0.0026950904;0.082878724;0.031907823;0.07993306;0.16465189;-0.02901458;0.065099396;-0.0052074287;0.113800116;0.022920966;-0.013076001;0.1933016;-0.07958753;0.055197008;0.01723528;0.021033742;-0.038907714;-0.07527763;0.031177677;0.02413635;0.030778335;-0.022396846;-0.07330053;0.13402764;-0.0053056055;0.066418365;-0.038537182;0.019665405;-0.14980191;0.0774558;0.010196328;-0.03837507;-0.014913264;-0.0038229076;-0.009051281;-0.0077411258;-0.08452461;0.046366315;-0.069117956;-0.0757529;-0.07745695;0.02417229;0.02987706;-0.03683014;-0.3367518;-0.0075857756;0.012290848;0.16461232;-0.04513422;0.05317266;0.037619762;-0.0015322104;0.024880655;0.0025595508;-0.08880718;0.0363215;0.04476672;0.049912594;-0.21843785;-0.0650319;-0.017554462;-0.0060609286;-0.19598919;0.033561092;0.051393688;0.04544458;0.057516113;0.007129304;0.06667711;-0.13680758;-0.050581228;-0.21231642;-0.01210957;-0.061189074;0.0852626;-0.07802834;-0.056597635;0.073775396;-0.050200634;0.13903338;0.1373295;-0.0045584007;-0.07246005;0.124577716;-0.02651954;-0.030712081;0.08797258;0.0095284395;0.11830324;0.16596054;-0.009529744;-0.07658423;-0.012180021;-0.05370229;-0.08891003;0.06376196;-0.0959531;0.060528293;-0.05316572;0.015954;-0.06085252;0.04625203;0.06679449;0.09989772;-0.09320829;-0.06508101;0.024613166;-0.033970136;-0.021491796;-0.07203098;0.018495569;-0.1165844;-0.057034276;0.040098768;0.029124973;-0.046292715;0.04388872;0.039896436;0.079245105;0.0020757965;-0.013218993;0.09438382;-0.08391874;-0.028302537;-0.044550575;-0.008236641;-0.03319521;0.06250577;-0.03734776;-0.050519343;-0.18799286;0.21711506;-0.032709025;0.21350195;-0.055934582;0.18372399;0.081011906;0.030730693;0.12807044;0.017418424;-0.16425359;-0.018974634;0.022819431;0.0022989383;-0.17125162;-0.17266074;-0.093917124;-0.08366785;0.034780677;-0.1876033;-0.05590992;-0.053103667;0.09098898;-0.06710254;0.020450165;0.032035716;-0.088557705;-0.11124816;0.015849264;0.08117266;-0.14023493;0.05544404;-0.024471482;0.014792159;-0.012441638;0.04583345;-0.03052616;0.024620768;0.0037945267;-0.06838897;0.06846839;0.06080038;-0.075136036;-0.24451499;-0.032625694;-0.16297203;0.10703539;0.013313414;-0.002763671;0.0052277204;-0.11703793;0.13831107;-0.1415806;-0.025618395;-0.0038746903;0.07158658;-0.0031395042;0.0106979525;0.038550384;-0.050267387;0.20102915;-0.0011520543;0.09032299;-0.0558555;0.009970167;0.027102493;-0.01244987;0.01816737;-0.03456487;0.042862996;0.04744191;0.033639286;0.085449964;-0.056779686;0.030947946;0.009637953;0.016869213;-0.044970676;0.02610653;-0.06825909;-0.17572835;-0.18476187;0.044766467;0.072181135;0.009753132;0.07468249;0.14316075;-0.10092082;0.07568488;-0.010094272;0.07612284;-0.05318845;0.08157671;-0.15616076;-0.05772544;0.018260852;0.004642047;-0.03832598;0.24260828;-0.00912629;-0.17544843;0.03973501;-0.06250413;-0.028065158;-0.06867972;0.037066676;0.1626009;0.07207278;-0.069883764;-0.0029134832;-0.0028309978;-0.01726976;0.17316712;-0.0926358;0.0859362;-0.037144814;-0.02342441;-0.048037317;-0.06381803;0.07145483;-0.053866293;0.10548487;0.031912692;0.00018578497;-0.010126565;-0.003815014;0.03508315;-0.01914855;-0.022950718;-0.036108762;0.10530308;-0.017557135;0.02486513;-0.010804625;0.059649464;0.0449549;0.04147124;0.063830726;0.020422308;-0.032009423;-0.0060547884;-0.035756845;-0.12344108;-0.02014663;-0.04911606;0.055373352;0.040001508;-0.013646419;0.05500318;0.050517086;-0.0015653557;-0.12277367;-0.054221187;-0.1618831;0.011591833;-0.049962882;-0.27976772;-0.04431384;-0.066591375;0.05635348;0.074959196;-0.20816027;0.006637032;0.009572869;-0.13890404;-0.0033803408;-0.023401909;-0.034102783;0.025350839;-0.053134996;0.10182169;-0.031817064;-0.051280577;0.06970705
-0.043010756;0.04155419;0.0104458295;0.1318655;0.026505686;-0.103039436;0.026428776;0.07492209;0.13475636;0.04800074;0.008802169;-0.05144078;0.08539255;0.10658613;-0.054418463;0.0026094117;0.1469679;0.09825102;-0.030599039;0.021412665;0.068316154;0.018435417;-0.04146306;0.043125056;0.09019306;0.015944256;-0.014477329;0.08127239;0.1428368;0.024638288;-0.016706405;0.016382046;0.04956452;-0.18360029;-0.009765028;-0.05544081;-0.19935083;-0.22655609;0.05158925;0.019515902;0.060957894;-0.20361243;-0.066397615;0.0984048;0.01884686;-0.0067303185;0.09128769;0.052846864;-0.048264906;-0.16694963;0.23790027;0.11812475;-0.02346374;-0.15376897;-0.14500204;-0.07146483;-0.013890201;-0.023979383;-0.03322938;-0.07592897;0.23000352;0.10576146;-0.13594851;-0.009584878;-0.03496045;0.01858138;0.04003113;-0.10025976;-0.0057876706;0.017167823;-0.06968554;-0.28507227;0.005897736;-0.032597687;-0.14244433;-0.07654291;-0.030442346;0.18340425;-0.011401716;-0.045515537;-0.077233255;0.02726028;-0.14954832;0.015944911;0.0533542;-0.04981313;-0.01975189;-0.027311971;-0.019654326;0.028497308;-0.095443554;0.031525347;-0.07381641;0.08462538;0.05563299;-0.0018269545;0.048337948;-0.08943983;-0.068641566;0.09240292;0.073754594;-0.0725619;0.006465038;-0.07523434;-0.008199432;-0.059624605;0.0014619144;0.012836106;0.045341782;0.07677798;-0.14571887;0.04393676;-0.020528024;-0.09558693;0.011313362;-0.059202887;0.038376678;-0.08951812;0.10693067;0.1284645;0.12619126;0.028904019;0.01903178;-0.08584466;0.009938064;0.08962799;0.022971293;-0.03242135;-0.005575875;-0.074867666;0.028419234;0.048909664;0.0015635283;0.176695;-0.35078043;0.026929848;0.031982962;-0.010068988;0.15552507;-0.0049040304;0.15674299;-0.02807656;-0.09592478;0.07804388;-0.003816203;0.121951744;-0.0408709;-0.057056602;-0.048735965;-0.06107626;-0.05117532;-0.047868535;0.0071159517;-0.22485596;-0.111789405;0.0012231651;0.15689361;0.14567181;-0.10553364;0.09581994;0.051973358;-0.021651471;-0.24148373;-0.06320401;-0.012342275;-0.032837503;0.13762574;-0.037232187;0.022156117;-0.009989729;-0.09591887;0.0038354837;-0.10446227;0.0071342275;0.0939051;0.07053811;-0.080242485;-0.01973607;0.0663839;-0.04203112;-0.09520507;0.08438114;0.038494717;0.04468533;-0.05774268;-0.033521302;0.08272584;-0.09264409;0.22014317;0.055661134;-0.044404693;-0.036437757;0.15062371;0.114584625;-0.012255767;-0.05444282;-0.040924173;-0.017349202;-0.10901474;-0.10428218;-0.015127768;-0.03436598;-0.039792914;-0.13107479;-0.04465983;0.069974035;-0.0953055;0.041655317;-0.003944936;0.12711312;-0.06057217;-0.043799315;-0.060147244;0.06332975;-0.009805671;0.15936762;-0.06290773;-0.007888542;0.012803534;-0.02994456;0.06594237;0.011869075;0.10498752;-0.023850057;0.021463571;-0.0011443101;0.21946505;-0.1470751;-0.08536345;-0.037556753;-0.05479179;0.00679327;-0.032897763;0.086269915;0.02485688;0.00042127166;0.07298717;0.022860752;0.12321614;0.02984349;0.009957243;-0.07645741;0.05531569;0.04185197;0.03231769;-0.005219727;0.07419246;0.13213268;0.21556225;-0.017398575;0.07986391;-0.093522556;0.09901761;0.16804972;-0.27904162;-0.03274173;-0.18946369;0.0074920882;0.11252825;-0.067995556;-0.044118058;0.09605539;-0.09193564;0.050754707;0.08829471;0.020020073;0.057795167;0.015338086;0.01926308;0.023507068;0.097600155;-0.18940827;-0.014864155;-0.06781338;0.013154959;-0.08310029;-0.0690211;0.017800001;-0.17789821;-0.047840025;0.32892552;-0.018686168;-0.005544498;0.17010467;0.044693545;-0.07594622;-0.0120078;-0.010036508;-0.0016990945;-0.08484175;0.006677926;-0.0270647;0.023975158;0.07733585;-0.06738806;0.21178313;-0.09494129;0.03405909;0.07433967;-0.024794148;-0.0019406298;0.13170502;-0.11040199;0.09414426;-0.038816318;-0.0023067002;0.073711134;0.10725728;-0.16392478;-0.0040442343;-0.013283703;-0.12280301;-0.09091315;-0.07999431;0.03922814;0.057281386;-0.08023017;0.0026004899;-0.03814961;0.098307475;-0.018956073;-0.035917997;-0.09339375;0.051393665;-0.09849392;-0.041422628;-0.07438748;-0.06736697;0.0549083;0.1047274;0.017925672;-0.11618021;-0.038250964;0.105861776;-0.30077386;0.05731717;-0.0024872716;-0.031213459;0.22947346;-0.076817565;-0.021368548;-0.14772289;0.016517863;0.026539117;-0.04511517;0.05209592;0.102954715;0.051482834;0.021412857;-0.09272971;-0.010111939;-0.035339817;0.1546536;-0.11830682;-0.15314943;-0.062805444;0.046469685;0.002423928;0.05130063;0.08378653;-0.1672982;-0.041492954;0.0434421;0.16352178;-0.049333863;-0.053519264;-0.022282919;0.0010933256;-0.04068386;0.04870277;-0.008446866;-0.23107281;0.004050849;0.043061152;0.05696163;0.011969042;0.009308885;-0.043380953;-0.020705674;0.029246986;0.032342322;-0.027559865;-0.07916449;0.059561722;0.07748967;-0.028413814;0.098872535;-0.009746376;-0.033492062;0.069306105;0.12542461;-0.0953647;0.06346605;-0.00033735976;0.074732505;0.1362785;-0.07008689;0.0009873442;0.16736819;0.11799043;-0.04989259;0.085995644;-0.061791934;0.13376136;-0.06712863;0.2209823;0.02710688;0.1222641;-0.09460938;0.09065109;0.15512152;0.048049465;-0.058862828;-0.03953859;0.05000734;-0.017605336;0.014500472;-0.057081934;-0.023403782;0.12547489;-0.016037764;-0.06821548;-0.02997774;-0.018142184;0.09590543;-0.03751228;0.064019255;0.11886708;0.039553035;0.001314004;-0.036768634;0.017749695;-0.16245136;0.0036846092;0.14678945;0.09226121;0.120115854;0.1295742;-0.050545525;-0.078934625;0.077547766;0.089407176;0.0833791;0.12473443;-0.05058468;-0.43811938;-0.070589244;-0.1029428;-0.0988047;0.005196796;-0.0043844;0.053644363;0.096314386;0.14840713;-0.14374037;0.10854673;-0.09176794;-0.0017790848;0.024919428;0.047351725;0.06927804;-0.02155858;0.18290798;0.027307555;-0.014459619;0.0058930595;-0.1015492;0.04631391;-0.028168838;0.011095676;0.010150291;0.202479;0.020797007;-0.02595297;-0.03658121;0.06713693;0.07925189;-0.0010279231;0.02042815;0.062492326;-0.029104266;0.08813298;-0.2028106;-0.16897254;0.091757335;0.040766623;-0.029504623;0.043315373;0.07860496;-0.08721823;0.037643958;0.14934832;-0.039973706;-0.09689614;0.003644247;0.12130475;0.026003374;-0.059683237;0.082615435;-0.051314615;0.29199374;0.12149316;0.0212178;-0.020392377;-0.068906054;-0.05820575;-0.01185208;0.058287095;0.16457145;0.05311565;-0.0050780526;0.026953597;0.0824227;-0.032923624;0.020022599;0.015606825;0.07366229;-0.024396932;-0.060901154;0.09388192;0.058224063;-0.008945561;0.029027883;0.14936148;-0.07957786;0.04891545;-0.024332576;-0.09869669;-0.00283128;0.06249005;-0.00962525;0.0136796795;0.03148587;-0.01532322;0.033303063;-0.035487093;-0.0646482;-0.018873977;0.043091655;0.023239594;-0.059220996;-0.09114952;-0.07176766;-0.03174147;0.06805636;-0.021575015;0.06344363;-0.0013173828;-0.018437989;0.056846708;0.07289136;0.08368371;0.06569674;-0.031109793;0.037450373;-0.12887396;-0.047907338;0.01923317;-0.32698375;-0.066843815;-0.08221747;0.0042773895;0.24781662;-0.05328958;0.0004566105;0.043308888;-0.4079971;-0.0047548446;-0.09441284;-0.013715746;-0.057792522;0.049485147;0.0073581035;0.11361486;0.024864974;-0.09460776
-0.0055868984;-0.14426976;0.0922611;0.056076165;0.049690723;-0.03860352;-0.08630152;0.029349586;0.10948149;-0.021182772;-0.005532671;0.09302121;0.020827161;-0.009295193;0.06791239;0.08551322;0.14885081;0.10809855;-0.052654795;-0.058186423;0.03510123;-0.040028147;0.0034238684;-0.02319944;0.05225613;-0.34354067;0.041556034;0.023216821;-0.06401911;-0.012963671;0.05688375;-0.09391491;0.06839483;-0.27659273;-0.02754701;0.017977128;-0.0470624;-0.1323767;-0.022998486;0.021160062;0.034045808;-0.127798;0.08595873;0.03599389;-0.055033885;0.027778596;-0.006251619;0.07695306;-0.051914725;0.028990371;0.12437578;-0.0053093466;-0.03526839;-0.25108287;0.011741967;-0.01694624;-0.010960943;-0.026920509;-0.013120782;-0.105674125;0.03416312;0.002284256;0.18238583;0.019946767;0.074277475;0.0942302;0.083180726;0.071671516;-0.06676115;-1.7049071e-05;-0.006554834;-0.09797587;0.012393336;0.08226531;-0.017086675;0.01378838;0.047566246;0.12228865;0.022116736;0.009037606;0.008196065;-0.04566455;-0.06253083;0.035394322;-0.006605141;-0.016806705;0.043929674;-0.027776338;0.05395756;0.02172302;-0.002910333;-0.018940331;-0.07911473;-0.04411779;0.09217247;-0.015604689;-0.009757125;-0.0018015973;0.007370497;-0.06593199;-0.0116223525;0.1308977;-0.03949802;0.013053841;0.011095165;0.03850113;0.025603527;0.067217626;-0.05169476;-0.05860002;-0.033854295;-0.011523997;-0.08762846;-0.1570647;0.097454004;-0.014128632;-0.036796555;-0.13267417;-0.0029764234;0.083391376;-0.1670763;-0.057289943;0.013498675;0.0019124533;-0.022109047;0.007477489;-0.075227335;0.05195516;0.030426215;0.016261037;0.01889373;0.032349225;-0.120553985;-0.19887187;-0.3145101;-0.0158278;0.04329572;0.040196765;0.032070205;-0.20100006;-0.0939712;-0.016341709;-0.06316837;0.02138537;0.0829721;-0.027635876;0.032374885;-0.039311484;0.03128576;0.03605602;-0.040917378;-0.056815457;0.028617969;-0.16325897;-0.22618416;-0.14493139;-0.17394634;0.002766369;-0.11156658;-0.03828437;0.033275288;0.11560587;0.093316235;-0.013270108;-0.0686869;0.0762398;-0.04219258;-0.006998208;0.02360432;0.040117912;-0.09190116;-0.20959897;0.055011887;0.08953268;-0.03379164;0.029398639;0.07039755;0.05476744;-0.026056232;0.06334594;0.09871295;-0.028272377;-0.033575233;-0.0014428338;-0.15172754;-0.09781822;-0.044567443;0.07750541;0.13471276;0.027449096;0.038501747;-0.0027500212;0.024886377;0.06082599;0.026586479;0.0061918697;0.09256788;-0.01368728;0.05668999;-0.03591994;0.0668176;-0.0388179;0.047989547;-0.09334386;0.0010348377;0.036878478;0.12911084;0.02203963;0.090120554;0.21398118;0.12196092;-0.07204372;0.0059543843;0.12870675;-0.021565212;0.08485254;-0.07489709;-0.015105861;-0.022600189;0.055824164;-0.0572704;0.066314094;0.07621248;-0.01612701;-0.05996087;0.1624011;0.13720104;-0.046605807;-0.07207109;0.03497957;0.02520214;-0.06198341;-0.07335861;0.048173927;-0.0146401245;-0.0048269224;0.012249782;-0.06685451;-0.031462118;0.04010858;-0.054720227;-0.10126523;0.028580446;0.048206523;0.086058885;0.077523984;0.039110325;-0.09181411;0.0072642174;-0.0520041;0.07834224;0.09218726;0.057852928;-0.013023026;-0.21665266;0.022485683;-0.013440909;0.060281184;0.0775194;-0.055662166;0.036757912;-0.00957493;0.06526828;-0.058106232;-0.102563605;-0.0044982135;-0.0038127399;0.05504441;-0.021485137;-0.02229003;0.09127073;-0.18966417;0.06056517;-0.025455637;0.04323457;-0.09230177;-0.1330637;-0.09038289;-0.01941447;0.09613491;-0.11129236;-0.08276658;-0.04104417;0.06331223;0.04331538;0.1090657;-0.03838405;0.07340507;-0.07289943;0.0666328;0.00814111;0.010123865;0.047458112;-0.023666333;0.017506143;0.111194275;0.11316737;-0.010035642;0.00202213;-0.08918863;-0.13411042;0.0030536922;0.021759326;0.08913309;0.071429886;-0.024529018;0.1383172;0.017850328;-0.16512077;0.039211087;0.051021717;-0.10418749;0.078904934;-0.19282049;-0.11728821;0.040190272;0.065904215;-0.08816021;-0.061819743;-0.13837153;-0.044422653;0.049870197;0.060307402;0.03131596;0.057046343;-0.00042859;0.07178561;0.058362458;-0.03914016;0.045896377;-0.15613836;-0.08847652;-0.080478705;0.15906161;-0.2413034;-0.0041896566;-0.093797915;-0.05036457;0.008998461;0.07559484;-0.0002580978;0.025105262;-0.008676953;-0.21316528;0.031630866;0.0144103505;-0.014040257;-0.014968607;0.008580824;-0.00089933735;-0.12370109;0.071214855;0.11469031;-0.10167025;0.019049602;-0.001348695;0.117839575;-0.012152198;-0.005028914;-0.057219435;-0.18684772;-0.025960658;0.06429697;0.02926371;-0.04603088;0.09254606;0.079080805;-0.05161624;0.07961125;0.026895918;0.015168741;-0.19267458;0.045167398;-0.060147565;-0.09818539;-0.0442406;0.073498525;-0.1332557;0.041489247;0.012079233;-0.04092092;-0.004536578;-0.030151028;0.006874354;0.101387836;0.028013054;-0.022378005;0.06661218;0.0036923047;-0.018362677;0.13913308;0.034670345;-0.012017372;0.045757715;0.064413264;0.017541295;0.031218978;0.09450365;0.0031837479;0.075643025;0.0711543;-0.003765666;0.012572029;0.15594906;-0.07212052;0.154303;-0.06376496;-0.0032115278;-0.051705748;0.07350451;0.11422463;-0.0073938156;-0.10223898;0.030044803;-0.087487854;0.08605312;0.10996402;0.025058495;0.06523518;-0.008105173;0.059638012;0.018497312;-0.023648752;0.023080695;-0.06316727;0.03507753;0.011871416;0.025095819;0.06876644;0.16179486;-0.041915074;-0.06148021;-0.10398706;-0.06892236;0.09170971;0.040920846;0.07626017;-0.03946089;0.02902862;-0.04422309;0.08406861;-0.07481673;-0.08499683;0.007943715;0.09773088;-0.28267643;0.003128787;-0.0077945865;-0.060323145;0.033411782;-0.0433861;0.01606411;7.024857e-05;0.14510837;0.0495461;0.019278694;-0.031635817;0.033194218;-0.015449826;0.025442058;-0.06283154;0.04052687;0.051311307;0.003941281;-0.051984236;0.0623549;0.1294749;-0.11531038;0.03335028;-0.022986691;-0.02470678;-0.06095775;0.04725761;0.032526813;0.050915245;-0.030036183;-0.009189294;-0.0038338609;0.032053135;-0.083408155;-0.008765088;0.03757272;-0.10879499;-0.18859126;0.070775665;0.11559644;-0.02534737;0.009598617;0.05896962;-0.023476558;0.024880793;0.06339697;0.050882734;0.008823637;-0.04277319;0.16733596;-0.00993384;0.061734278;0.056713775;-0.019407084;0.19042584;0.057919636;-0.09265013;-0.016614897;0.022417234;-0.015252831;-0.0055854297;0.040245842;0.057289373;-0.016422331;-0.059352156;0.1090992;0.1077749;0.062816575;-0.036885437;0.035905007;0.21066219;0.012982353;0.024682553;0.104876004;-0.010908008;0.028568268;0.09152643;0.032714818;-0.006051447;-0.044333886;0.0100347465;0.0807674;-0.0450401;0.11410993;-0.039472952;-0.035858527;-0.10588395;0.012577541;0.053292323;0.08502194;0.012119165;0.08890667;-0.13417965;0.06756891;-0.089672185;-0.014235012;-0.05838029;-0.013346334;0.0143272;-0.009482134;0.08622284;-0.11872226;-0.06634978;0.0015162914;-0.027144847;-0.103567794;-0.053648528;0.0019509059;0.0048068464;-0.028693898;0.0037278736;0.053994887;-0.067506775;-0.1889301;0.072030745;0.06975997;0.1264126;0.057381984;-0.05957222;0.059158467;-0.2338769;0.023351321;0.0347618;0.006303788;0.1552227;0.05105117;-0.02186193;0.011773544;0.004469196;-0.110282905
0.075447455;-0.08659218;-0.015381897;0.07600794;-0.035435338;-0.06282717;0.07315911;0.091828085;0.19601694;0.035391826;0.002466483;-0.045957036;0.019123046;-0.057008434;0.07347637;0.046500605;0.18507949;0.17520693;-0.015066723;0.08131123;0.014616898;-0.07895406;-0.0024291712;0.01601387;0.0065272236;-0.28432935;-0.05713924;0.001449739;0.049697004;0.07338607;0.084885515;0.04877776;0.0065011596;-0.024187356;0.10834124;-0.023399532;0.008237196;-0.017596003;0.004884789;-0.012766231;0.097824536;-0.23849064;-0.15572588;0.042092208;0.042682365;0.10494421;-0.045713276;-0.14877307;-0.053092305;0.18648158;0.17209108;0.06395633;0.014795063;-0.373213;0.014668979;-0.0053418637;-0.06912923;0.05181948;-0.03553744;0.0474549;0.15657713;0.021956533;0.10926025;0.13065387;0.06668968;-0.026399095;0.03960649;-0.08604867;-0.0021750524;0.040247157;-0.14132378;0.17998949;-0.0023391738;0.10766728;-0.094365865;-0.037378926;0.13886124;0.05978414;0.14436124;-0.034711864;0.09904627;-0.06511364;0.03085494;-0.06843075;-0.005508106;0.030383898;0.047743164;0.03229392;0.010646901;0.032407578;-0.027864618;0.06978228;-0.048980873;0.10648024;-0.015389783;-0.044430528;0.11431588;0.0018476917;0.010661769;-0.061291687;-0.0027179196;-0.23142321;0.006976296;0.0119596;0.08504353;-0.11370522;-0.01679297;-0.045022003;0.076799355;-0.03903152;0.047754444;-0.08314616;0.04010504;-0.08104071;-0.074607134;-0.03850234;-0.12991284;-0.06385363;0.009545032;-0.049904704;0.04996798;-0.016094062;0.005693638;-0.078267165;0.004242396;0.038221877;-0.08285609;0.0651569;-0.07439624;0.015688928;0.022598919;-0.0009817996;-0.06486174;-0.026566232;-0.1840018;-0.008492543;-0.051244453;-0.0097456975;-0.04540506;-0.100347176;-0.19114648;-0.09310374;-0.02453662;0.03507717;0.088900864;0.05359436;0.072190106;-0.014331437;-0.019055221;-0.114044756;0.014037089;0.026328634;0.05638283;0.009866858;-0.16860405;-0.06206362;-0.07139674;0.0662784;-0.055716548;0.08820567;-0.009791621;0.054746892;0.13488589;-0.02654002;0.023103803;0.016574891;-0.085879244;-0.007936177;-0.13727646;0.059747644;-0.018163126;0.044665124;0.047482833;0.07439849;-0.10813301;-0.005242612;-0.010153667;-0.08365981;-0.019776804;0.024072543;0.0991841;0.021616861;0.028679946;-0.029242016;-0.04077526;-0.05402363;-0.122967675;0.13054885;0.12525998;0.09794881;0.13983354;0.025934288;0.13878934;-0.0058759307;-0.011151708;0.018498847;-0.05543882;0.09557764;-0.013229808;0.016491575;-0.059727643;-0.027623136;-0.056007348;0.06088559;-0.069767185;-0.0784981;0.15798104;0.047250967;-0.0407518;0.12049519;0.2644618;0.03521594;0.039313167;0.15802976;0.07186298;0.09237948;0.039169274;-0.061044186;0.04572035;-0.024228819;-0.04839986;0.14044978;-0.10293395;0.080532946;0.008376387;0.1175334;0.04707482;0.11366596;-0.013027107;0.12979361;0.012857239;0.112149864;-0.09315398;0.09686599;-0.067350365;0.0482395;-0.06774447;-0.009657292;0.07320944;0.064386;-0.03418457;0.18091834;-0.06474701;-0.09731472;0.037254333;0.059207782;-0.05803984;0.108634256;0.25858292;-0.012970959;-0.027902748;0.14591326;-0.058204487;-0.00084511243;-0.20350294;-0.012794403;-0.15874861;-0.06736737;-0.066775165;0.10744519;-0.077526905;-0.05683414;0.080672674;0.037658848;0.05022629;0.0136050815;0.13108712;0.050696254;-0.021070467;0.08145599;0.1170515;-0.07377523;-0.06817014;0.044008188;0.07424349;-0.026610961;-0.1653359;-0.16361962;0.06654166;0.10978761;-0.026149917;-0.11185435;0.038179483;-0.038682874;0.06447366;0.061819866;-0.048026726;-0.0075748065;0.024309136;0.08006927;0.028459003;-0.0554224;-0.038816664;0.03632635;-0.014303552;-0.004847653;-0.014636051;-0.12011273;-0.016067946;0.037200328;-0.081689276;-0.020994602;0.07406609;0.09447372;0.13167661;0.019449862;0.1801542;-0.006799809;0.10399663;-0.09000101;-0.0679229;-0.11768188;0.006384507;-0.18483242;-0.10178686;-0.07940137;-0.16292427;-0.034162167;0.030981034;0.033804342;0.020850742;0.03143019;0.034155756;-0.014226175;-0.052581508;-0.029502144;0.108492374;0.06314816;-0.10031935;-0.040057708;0.010268878;-0.029218478;-0.0030880806;0.21751684;-0.17053498;0.0293907;0.014260223;0.023088807;-0.06485649;-0.021764906;0.10304587;0.21807736;0.031210985;-0.008533222;-0.03700067;-0.052785106;-0.05867926;0.018749407;-0.018221201;0.017760111;0.021223594;0.17855439;0.103216164;0.011868581;0.16050312;0.13549489;-0.013920561;-0.047868922;-0.045720186;-0.08193066;0.009131263;-0.08602096;-0.059960816;0.00013520103;0.0675388;0.014074837;-0.050211266;-0.026826171;0.10261415;-0.035949674;0.07616778;0.070349514;0.03935088;-0.05114284;0.05868403;0.046606187;0.012781633;-0.11141077;-0.017054806;0.053132556;0.058214866;0.06540813;0.05042334;0.06425334;0.08410404;0.111953154;-0.06647489;0.088773906;0.02748651;-0.0756557;0.023502788;-0.078603424;0.051274583;0.08601566;-0.090517744;-0.08389065;0.06417074;0.065287486;0.018238269;-0.10604925;0.11327563;0.07065314;-0.12761925;0.11398671;0.049920097;0.18633634;0.03280905;0.08375771;0.11281178;-0.074792445;0.1830716;0.037483174;-0.17211707;-0.012550624;0.079610385;-0.026506914;0.05292086;0.08284904;-0.020006482;0.16738555;-0.0028582143;0.036348194;-0.035111148;0.033484206;-0.0045880224;-0.070470124;-0.060808253;-0.04871121;-0.053588305;0.12394194;0.13523717;-0.062825754;-0.12876439;0.033888508;0.04601455;-0.06648502;-0.07506313;0.08401215;0.07259921;0.046719994;0.24031076;-0.05035119;0.029860716;0.0824149;0.056257058;-0.27674207;0.043561626;0.018992105;-0.13729204;-0.06625458;-0.03177927;-0.051912956;0.10607586;0.12927592;0.17019063;-0.016615847;0.093475826;-0.06426341;-0.018616771;-0.036268704;0.021875735;-0.06680926;0.11551433;-0.018236479;-0.038275868;0.0039579254;0.00063598674;-0.06550351;-0.009715315;-0.0268279;0.046519235;-0.009306377;0.078912646;-0.024932025;0.04205541;0.04542807;-0.005781399;0.021811655;0.09255197;-0.08511516;0.023300692;0.016094266;-0.083442084;0.06067049;0.01993541;0.07353087;0.04673105;0.000493066;0.057791233;0.09860019;-0.04769208;0.0157777;-0.042256672;-0.056426443;0.060718812;0.099300794;-0.0009632458;0.059177972;-0.030580215;-0.016521014;0.019048063;0.03960617;0.16620775;-0.003393563;-0.068731695;0.071974866;-0.0024410456;0.05081047;0.14278603;-0.087336786;-0.014581648;0.02388389;0.06128606;-0.091032416;0.047291797;0.009314755;0.21588364;0.032326203;0.1038752;0.03637191;0.022675518;-0.027681971;0.02999378;-0.027297195;0.032268666;-0.09788763;0.049565136;0.022666294;0.06227102;0.07588843;-0.04737581;-0.047277145;-0.099157535;0.030334868;-0.024575522;0.11124296;0.08304365;-0.04039477;-0.057949945;-0.06867862;-0.07087109;-0.036101654;0.04396078;-0.055962186;-0.076875634;0.029160786;-0.012970748;0.0039917207;0.06248947;0.037743565;0.05650275;0.054525968;-0.06370105;-0.007026393;-0.09712861;-0.15257168;0.02164613;0.024580056;0.072319254;-0.2441936;0.0023626545;-0.08708826;-0.08781666;-0.114382535;0.031784642;-0.040635884;-0.3341547;0.0021371613;0.093658805;0.00064907735;-0.06585111;-0.026909126;-0.07053742;-0.060754832;-0.021591108;-0.029837206
0.08622552;-0.0070037427;0.096386015;-0.078674;0.00021393993;0.04372341;-0.17831016;0.029490527;0.0051099327;-7.568739e-05;-0.02234784;0.06327479;0.02513687;0.05491338;-0.019574076;0.00520249;0.12721166;0.14732482;-0.04423335;0.059903566;0.068313584;0.061449397;0.044276826;0.031181948;0.00037707126;-0.29831252;0.04264011;0.04383733;-0.19055583;0.09232347;0.1365448;-0.0062107984;-0.001761777;0.14632511;0.06754102;-0.019722667;-0.052125905;-0.010645012;0.05402346;-0.01193792;0.0057365377;-0.25937817;-0.010760295;0.0020421233;0.11256673;0.061891064;0.019388102;-0.09992655;-0.049522057;0.19868761;0.121269375;0.07230461;0.077783436;-0.40154895;0.03736062;-0.0625143;0.0645708;0.070839554;0.01975341;0.03424593;0.027611542;-0.046810206;0.033749346;-0.0045197513;0.086906016;-0.07561996;0.0329276;0.09774911;-0.05386617;-0.078961775;0.0104807755;0.20043357;0.009942468;0.19120741;0.10921768;0.049632523;0.107654184;0.08954249;0.07761112;-0.0045591197;-0.033561606;0.038947776;-0.043341316;0.070536524;0.09286011;-0.030736016;-0.010499631;0.048657827;-0.050270334;-0.048150063;-0.020556143;-0.013530131;-0.09498187;0.021865202;-0.008710315;0.0038468558;-0.06425149;0.09050659;-0.003342583;0.07504241;0.11385184;-0.023041334;0.1037136;-0.08696859;-0.055691782;0.09525579;0.028825635;0.12590386;0.050213296;0.011478047;0.027340136;-0.0056057083;0.0028175504;-0.035594847;0.065044306;-0.062004738;-0.12227708;-0.11007099;-0.0067185205;-0.34411415;0.20930612;0.098968856;-0.08332151;-0.01221708;0.05273606;-0.096147835;0.048122413;0.0020513602;0.00031868514;-0.0055235517;-0.07535158;0.08488525;-0.023896288;-0.053942677;-0.1073669;-0.070549734;0.007844118;0.03528365;-0.05784777;0.15041023;-0.035361763;-0.0608341;-0.0330728;0.07985875;0.04361509;-0.025788598;0.06550323;-0.047589906;0.038705535;0.04920488;0.022968644;-0.0050056004;0.10355125;-0.13890518;0.03297263;-0.017141525;0.06327014;0.06729214;0.04348838;-0.024428187;-0.025769914;0.026298827;-0.00710775;-0.005139103;0.0723244;0.068893135;0.023494361;0.13078564;-0.06124226;-0.048953373;0.043527003;-0.11718024;0.01698976;-0.0025254604;-0.041366424;0.05701096;-0.058200363;0.039878387;-0.06678543;0.006287488;0.023885544;-0.07283683;-0.0037274421;-0.03605272;-0.15449385;-0.062350765;-0.018275883;0.035142627;0.21040075;0.07767146;-0.0114215845;-0.03329838;0.04257599;-0.03871417;-0.009333226;0.06061272;0.043756146;0.27210972;0.07867648;-0.020953627;-0.069592446;0.08363967;0.060655683;0.09713238;-0.0291749;-0.0022548607;0.32625473;0.11480368;0.05677478;0.16275495;-0.0023020622;0.022906985;-0.062200755;-0.018146338;0.028905042;0.18756111;0.03811663;-0.012217357;0.041032266;0.0011710165;-0.06795138;0.07126733;0.04729221;0.06359646;-0.031925265;0.053927116;0.042410742;0.08864051;-0.05471559;0.092518605;-0.011042845;-0.00038004492;-0.07907194;0.040442165;-0.11611527;0.12084366;0.017214907;0.09365172;-0.0120108295;-0.0018799942;0.025377544;0.0384831;-0.05327833;0.032691877;-0.04651474;0.009307182;-0.038691197;0.17621388;0.12431708;-0.016605163;0.029466083;-0.0068678427;0.0047329785;0.020169294;-0.016551903;0.02661713;0.13802713;-0.02125023;0.08069435;-0.04808074;-0.05663096;-0.019378817;-0.05439096;-0.06183658;0.111604825;0.018488266;0.02504559;-0.08394501;0.00813776;0.0067084725;-0.034364607;-0.3234828;-0.023962244;-0.03859815;-0.037915643;0.028113086;-0.033903696;-0.08080595;0.15942508;0.09960113;-0.15541217;-0.07986663;0.045515705;0.0066728974;0.07632597;0.11687112;0.07475403;0.027894238;0.068315454;0.018637884;-0.15928942;-0.011562854;0.027479015;0.0606473;0.056028914;0.100061655;-0.015753904;-0.056660783;0.098038405;-0.03517999;-0.12479405;0.038704257;-0.07994459;0.0024780752;0.049986083;-0.052387353;0.07039138;0.017180776;0.08037489;0.0045161317;-0.0679547;-0.13043791;-0.017732916;-0.16764395;0.091272265;-0.08182605;0.06391089;-0.07761268;-0.054285098;-0.24622142;0.073371634;-0.06092789;0.004971318;-0.008168247;0.031195674;-0.03617486;0.070199095;-0.013472252;0.06410643;-0.012863559;0.07463313;0.057932712;0.07701414;0.008524455;-0.009352084;-0.004692198;0.07604693;-0.07912511;0.05503978;-0.07636297;0.09460095;0.18839835;0.025261125;-0.0889085;-0.020789698;0.014579996;-0.0075340765;-0.011826192;-0.002450309;-0.0033573213;0.09536797;0.07022925;-0.08547392;0.061270807;0.20899539;-0.00701506;0.040667884;-0.016113317;-0.021470824;-0.059321024;-0.0995975;-0.14992145;-0.020467728;0.23128916;0.08251785;0.07013522;0.0077271652;-0.084147856;-0.012910711;-0.008688223;0.08773509;0.0040414413;0.06246671;0.00062036474;0.01984803;-0.008946721;0.21293508;-0.1752251;-0.023116317;0.057770003;-0.04665291;0.13557635;-0.17224737;-0.05418283;-0.037604116;0.094361894;0.062479775;-0.036569316;-0.03890398;0.07326456;-0.02007566;0.08832389;0.06980791;-0.036776718;-0.0689681;-0.16883843;-0.055499956;-0.08381473;0.030075535;0.011518142;0.12633054;-0.009429475;-0.069605745;-0.11491746;0.027969562;0.21209896;0.07549349;0.021703849;0.0063102124;-0.04069466;-0.024936745;-0.009777409;-5.7048026e-05;0.05463621;0.09822506;0.13544002;-0.06758011;0.082234725;0.0495495;0.22854918;0.08524246;-0.026893297;0.079527974;-0.01328082;-0.062095914;-0.08511256;0.11413059;-0.076641545;-0.031151582;0.08167467;0.06542142;0.023439849;0.038806703;-0.05486225;-0.12901857;-0.030446965;0.011868064;0.15097767;0.05034184;-0.013994242;0.2063489;-0.011106796;0.0047838697;0.00036579976;0.06431166;-0.22494309;0.0712151;-0.18327287;0.023102606;0.07878729;0.006784368;0.0036840227;0.0044483575;0.110773;0.09482749;-0.0017846394;0.052692804;-0.07710633;0.084354036;0.06885789;0.021126831;-0.0348301;-0.012210955;-0.073294096;0.040205337;0.10937405;0.03736254;0.1161818;-0.016280869;-0.041365035;0.020450912;-0.011983833;-0.04507453;-0.046874788;0.06961734;0.001088725;-0.007958767;-0.058790796;0.0052760737;-0.068690434;0.054532323;0.05861805;-0.018960793;-0.01869929;0.08901246;0.053514708;0.084881864;0.07505554;0.01800048;-0.039284807;-0.062879845;-0.06382982;-0.030361049;-0.060782827;-0.07236775;0.20056029;-0.038230248;-0.037078645;0.006235874;0.09065612;0.005507355;-0.1627911;-0.04674687;0.004866426;-0.063661404;-0.09347557;0.05330083;0.010461542;0.14733154;-0.06915762;-0.009628118;0.020890016;-0.055843957;0.10113248;-0.07997636;0.044987112;-0.04078556;0.04730839;0.03588112;0.052002463;-0.002816838;0.002316131;-0.095366895;0.09908651;-0.0035201178;-0.015148496;0.019913994;-0.053546283;-0.033561826;-0.009377513;0.068544306;0.0482151;-0.021034913;0.024652366;0.017143015;-0.04831606;0.078696385;-0.030714722;-0.052331068;-0.10790484;-0.0958889;0.07791264;-0.027986072;0.071447425;0.11944779;-0.008550081;-0.09355638;0.0092215445;0.03438844;-0.060347814;0.087579705;-0.057245586;-0.062368408;0.08416588;-0.04633597;-0.09605391;0.11013521;0.04983392;0.06976743;-0.19339755;-0.08422064;0.044171836;0.0020030178;0.034193218;-0.0012145076;-0.030158894;-0.09519804;0.20484495;-0.06459952;-0.024723558;0.077630684;0.16193649;0.046375103;0.06782525;0.051963985;-0.06298242
-0.016461618;-0.12692517;0.0707896;0.07967657;0.069004744;0.0593843;-0.008734203;0.06296041;0.08770248;-0.0072057433;0.039062392;0.09025268;-0.004037303;0.0044090515;0.08638349;-0.035070322;0.05214097;0.14492358;-0.05494469;0.058577023;-0.013842988;0.014390464;0.13223244;0.029846774;-0.022266304;-0.42440626;0.06059153;0.048145156;-0.025338354;0.11368196;0.045832466;-0.07512519;-0.042011656;0.15848906;0.0064089755;-0.047825705;-0.1014849;0.030737566;-0.028572094;0.07037192;-0.011136367;-0.12339801;-0.013874091;-0.042458817;0.0495257;0.036306053;-0.07082256;0.07988643;0.10308988;0.080666445;0.13902727;0.065075226;0.011713678;-0.3671943;0.0060509755;-0.008245198;-0.0040066172;0.013551722;0.02820035;-0.034038685;-0.0050828033;-0.022542233;-0.040420953;-0.06407643;-0.09514561;-0.0029895378;-0.032099236;-0.073932625;0.04873034;-0.07344374;0.0032700938;-0.015273707;0.062478036;0.09833226;0.11861409;0.027249016;-0.065080166;-0.026725695;0.113568336;-0.0206725;0.056376413;0.00037053897;0.007666155;0.2573485;0.07947141;-0.023757882;-0.075733684;-0.056368995;-0.039116744;0.03576477;0.085545994;0.015906239;0.07883778;0.049215544;-0.00032604786;-0.019246029;0.21087433;0.04181419;-0.006853981;0.01347486;0.050723795;-0.22322883;-0.015140959;-0.061121773;0.05956631;0.034788016;0.08068405;0.039556757;0.049599756;-0.018402621;-0.004512766;0.08847873;0.09136697;0.08353152;0.05013733;-0.05745114;-0.022228058;-0.031824853;0.049416922;-0.2773265;0.08867714;-0.024628494;-0.0137105705;0.029488675;-0.022867568;-0.0746143;0.08335759;-0.041145362;0.010062238;0.061449815;-0.05147238;0.04161767;-0.1442973;-0.16245332;-0.1401563;0.00248893;0.029818898;-0.03454511;-0.09948869;0.13471358;0.09928521;-0.012074574;0.10548094;0.011355872;-0.03434639;0.09087865;-0.06862662;-0.051599856;0.0044512795;-0.068720825;-0.004844094;-0.07976546;0.08166829;-0.1146072;-0.067175016;0.07071893;0.18996753;0.002214806;-0.044737384;0.030075256;0.07132239;-0.06934267;0.12888776;-0.07670962;0.0507519;-0.030428005;0.054377664;0.10891553;-0.14285089;0.025149047;0.041303523;-0.13062844;0.009316039;-0.0030746935;-0.05856616;-0.028160369;-0.025590196;-0.013209321;-0.12369461;0.012760214;-0.030834777;-0.022064416;-0.026161345;0.02515334;-0.11619857;0.024802947;-0.0797545;0.12524764;0.041352727;0.039194115;0.09487644;0.072020315;-0.08656005;-0.037906487;0.12893994;0.076749936;0.115381315;0.26405257;0.03425793;-0.08581258;0.006198461;-0.1116448;-0.055065658;0.10367454;0.04425863;0.044260483;0.20549148;0.14909394;0.039234173;0.1556392;0.047343556;-0.028164512;0.018317156;-0.032374706;0.0035343445;0.110270634;-0.047856145;0.086205564;0.07625268;0.03934041;0.012288779;0.13555;-0.0145577295;0.067526385;0.050124355;0.040347382;-0.05622153;0.028930664;-0.06135759;0.025344871;0.027546067;-0.053008556;-0.039343093;0.16703515;-0.00035588452;0.034270022;-0.016065892;-0.086035006;-0.020775087;-0.035285424;-0.010588773;0.08077581;0.08267975;0.022227148;-0.045549534;0.0027211483;-0.09045576;0.011778821;0.034695674;-0.045085676;0.108449094;0.074277274;0.02504019;-0.0081045665;0.06450246;-0.1393658;0.060044818;0.031225547;0.020658834;0.025424672;0.04226618;0.050147887;-0.017937487;-0.022280384;0.08747721;-0.065516144;0.08544509;0.08259466;-0.07720464;0.01797525;0.04284244;-0.23513341;0.023235405;-0.06876592;-0.12428896;-0.0008936655;0.13276607;-0.1533678;0.11260732;-0.053583857;-0.21002346;0.029161263;-0.050841212;-0.2857199;-0.023249116;-0.004280011;0.08731156;0.015604919;0.069732755;-0.03709103;0.19461544;0.004527568;0.02459028;0.050019443;0.08394159;0.19832954;-0.06357547;-0.031630427;0.0051976056;-0.11029655;-0.0002696832;0.04413097;0.04525744;0.021492071;-0.039420765;0.05936791;0.09305484;-0.042741876;0.031744394;-0.07898608;0.050291575;0.09921641;0.0141817555;-0.2580108;0.08173049;-0.076977775;0.054340683;-0.22105287;-0.018241521;-0.27594742;-0.051979885;0.07135296;0.03329751;-0.058851995;0.06628868;-0.0191647;0.011048407;-0.08074357;-0.007518;-0.049810607;0.016432783;-0.0008601678;0.08577109;0.028218111;0.04512282;-0.05578684;-0.06186786;-0.19017832;-0.119070046;0.070222;-0.10780712;-0.033307508;0.060365677;0.08571922;-0.03672455;0.010148446;-0.01337093;-0.010543268;-0.012139492;-0.00036676755;0.011106371;0.018412683;0.050852202;-0.0029798402;-0.00641443;0.002825975;0.053337593;0.049697097;-0.02937593;-0.08693064;0.03503448;0.0337342;0.066859126;0.121524654;0.015588188;0.047506075;0.0110181095;0.047489025;0.07571507;0.025903314;-0.015698586;-0.0032232224;-0.090529114;0.024459142;-0.081946;-0.026146833;0.15139908;-0.12069602;-0.0077106156;-0.037457105;0.044748127;0.0044739363;-0.22154614;0.09314633;-0.021141382;-0.016283548;0.032519158;0.009768177;0.06261622;0.016972806;-0.025341501;-0.0050917175;-0.06750936;0.0051421765;0.04444272;-0.12814726;0.084232084;0.06856695;0.011504945;0.011798602;0.0112207495;-0.059260704;0.03314619;0.121145315;0.06565308;0.21694565;0.003561189;-0.04290871;0.00973503;-0.0016336293;-0.022050425;0.0051796;-0.06371183;0.06410069;-0.15259586;0.15537432;0.10527867;0.05819871;0.042473372;0.2675244;-0.07249301;-0.03357832;0.00093348685;0.007458767;0.10916553;-0.047251247;0.1482924;0.071637124;0.017388005;0.13610432;-0.014748972;-0.04386683;-0.005872418;0.03428854;-0.02707107;0.067076534;-0.082294144;0.037058968;0.14529376;0.02935927;0.032297667;-0.079525396;0.024821803;-0.036041304;-0.15180694;-0.097796135;0.10140133;-0.24919043;-0.005760861;-0.0035122666;0.1076895;0.083696865;0.06700953;0.18752043;-0.047481775;0.11596624;0.026103823;-0.070965044;0.0501625;-0.032369282;-0.01381475;0.10011657;0.17786457;0.030993091;-0.054389335;-0.031568985;0.073724955;0.058923412;0.059257586;0.036490306;-0.025786988;-0.09863295;0.093922205;-0.015981069;-0.0010507263;-0.03541325;-0.04895472;-0.047636226;0.079386085;0.07941544;0.005157069;-0.05814533;-0.08845037;0.14285466;0.08799144;0.0785;-0.05848068;0.067446895;0.12708984;-0.06776374;0.05894989;0.0029866698;-0.0138161555;0.0008029567;0.035203177;0.051448554;-0.0008956874;0.07200392;-0.04947496;0.034340084;-0.05073708;-0.19193187;-0.054805532;0.07043355;-0.022581117;0.101230085;-0.036225863;0.0070782905;-0.13226964;-0.013107604;0.07356258;0.07281753;-0.04792554;0.10960988;0.12525025;0.039827436;-0.11724452;0.09799055;-0.02199647;0.020718435;0.06942341;0.07687573;-0.013834994;0.086718544;-0.036477987;0.055460695;-0.050538454;-0.042042665;0.0072137318;0.025173068;0.010767277;0.021975806;0.054618265;0.035156988;0.0090009505;0.017199336;-0.076514564;0.008172378;0.027610138;-0.10612399;-0.10643802;0.044041533;-0.021209441;0.016422594;0.17791212;0.037678566;0.015430204;-0.018777022;0.05403868;-0.03619395;-0.03155231;-0.10340665;0.002311508;0.027643034;0.082953244;-0.103319146;0.11949484;-0.05470308;0.03420662;-0.26146486;0.045240086;-0.018590717;-0.097745575;0.12564966;0.073269315;-0.056496922;0.09140971;0.09225643;-0.05671096;-0.010856626;0.13902108;0.039941993;-0.02428709;0.016967932;0.025469089;-0.010412938
-0.039451517;-0.11310013;-0.017659143;0.06429788;0.021874111;-0.006833179;-0.14504196;-0.0012838027;-0.049742363;0.10740767;0.021264493;0.06054525;0.031376507;0.031960163;-0.0708558;0.02032633;-0.20971647;0.1047712;0.07903348;0.04778972;-0.029176805;-0.10955743;0.007909715;-0.011776705;-0.017541487;-0.096961975;0.049605165;0.097434945;-0.0083010625;0.07999972;-0.029374184;0.0539572;-0.03088787;0.17501204;-0.028203301;0.04463849;0.00628911;-0.035311367;0.024598256;-0.05961636;-0.048271913;-0.051251784;-0.03265327;-0.06488229;0.051518865;-0.002289956;-0.015037374;-0.01323809;-0.053499054;0.029399803;0.218278;0.08983027;-0.004096479;-0.1781625;-0.031396307;0.04808578;0.06692428;0.006190184;0.08279253;0.019130941;0.24121964;0.057438433;-0.093756504;-0.011744776;0.04193557;-0.027640488;-0.044773526;-0.11143595;0.0013750442;-0.028163776;0.16024606;0.05453941;0.005098311;0.05172781;0.10157218;-0.0036744443;0.029886153;0.024252467;0.0562815;0.06885927;-0.045845293;-0.07102632;-0.14117682;0.24551974;-0.011068833;-0.043460164;-0.022476578;-0.0050166906;0.026413042;-0.050234083;0.089357354;-0.013574096;0.112241626;0.07372233;-0.017210802;0.033197958;0.25316924;0.021293363;0.056582414;-0.035075508;-0.0073227417;-0.060338464;0.036904007;-0.022684658;0.0121422475;0.08374295;0.0244686;0.05053393;0.05368387;-0.036994632;0.07347859;0.04194658;0.019921351;0.055046838;0.047169335;0.07800413;-0.04433741;-0.03493228;0.13007113;-0.102661304;0.25450727;-0.025154712;-0.040286917;0.037862025;0.01776678;0.081487976;0.011805482;0.07163353;0.10875549;0.0677697;0.060234744;0.01992136;-0.09557728;-0.044947702;-0.14466338;-0.07183571;0.056168616;-0.08275666;0.17292699;0.09331198;0.12549798;-0.00815089;0.041704863;-0.039409336;0.061920457;-0.03646567;0.075037666;0.059964437;-0.015015624;-0.05643177;0.01950569;0.054201916;-0.06895507;-0.0005720754;-0.049186274;0.16464701;0.2611751;0.07075127;0.051124014;0.062345803;-0.036290426;-0.012057614;0.068026625;0.08504067;0.0437609;0.050522488;0.10779163;-0.0381161;-0.078610614;-0.028523128;0.068710774;-0.14496247;0.054543253;-0.015236162;-0.033496387;-0.027054064;0.03750828;0.07709091;-0.11642708;-0.013057738;0.0023151294;0.090226874;-0.015971662;0.024604889;-0.032243747;0.03738947;0.04970989;0.08366642;0.11685022;-0.109585166;0.04275097;0.014432904;-0.22541176;0.0064328546;-0.013230994;-0.041314065;0.2072254;0.06517659;0.14103669;0.05903007;-0.01444728;0.011943729;0.05160237;-0.0015413616;0.009357143;0.009416153;0.25035334;0.07889661;0.02409566;0.13455749;-0.09195342;0.059382346;0.015592949;-0.19343251;-0.049245562;0.07132201;0.019855043;0.037759554;-0.08749487;0.025526024;0.027209707;0.11946432;0.006016293;0.09247543;-0.042508326;-0.075870745;-0.015440298;0.15421212;0.09101416;0.03909657;0.021608466;0.04269616;0.03387654;0.073958844;-0.016773945;0.048291292;0.06312003;-0.013034173;0.14360403;-0.007999509;-0.03496474;0.05789022;-0.050155114;0.085578054;0.051523548;0.097892754;0.034566224;-0.04953239;0.12843546;0.08102652;-0.06348574;-0.020498892;0.11559218;0.056134947;0.12430877;0.061666153;-0.021110479;-0.016287766;0.033818915;-0.018010823;-0.044084348;0.0006168928;0.10359645;0.066380575;-0.012837269;0.0073322044;-0.039953403;-0.045519046;-0.006401093;-0.04171415;-0.10112844;-0.18684211;0.022734482;-0.0032966025;-0.015072508;0.060337156;0.07663593;-0.021001639;-0.119965225;0.028226303;-0.0007141513;0.062961064;0.085052386;-0.17455462;-0.06977964;-0.048948698;-0.035472192;-0.08990441;0.0047034714;-0.048712257;0.060000196;-0.0054145567;-0.03520964;-0.048853654;0.10060415;0.15864073;0.07633848;-0.10993643;0.04674399;0.0060986825;-0.016832065;-0.0047984277;0.1446296;-0.16244642;0.01905783;0.03713641;0.095515445;0.079738356;-0.006685851;0.049070317;0.04886293;0.06740018;0.006479465;0.030662185;0.1405078;0.010532183;0.11773588;-0.23992439;-0.0063077873;-0.2747203;0.064029396;0.010278037;-0.10919118;0.0026742914;0.06472301;0.05983482;0.058952805;-0.06946626;0.0536074;-0.017283827;0.20741566;0.009275335;-0.009468818;-0.08961044;-0.03119994;-0.043262456;-0.004313375;-0.10154306;-0.06699933;-0.0068510207;-0.020535111;-0.06974758;0.030375589;0.1519217;0.00760566;0.041657124;0.018664218;0.066419184;0.019764585;-0.015103931;0.124257565;0.07449638;-0.041858137;-0.086211994;-0.11069631;0.11519697;0.080612525;-0.062246896;-0.011557651;-0.030176979;-0.05051588;-0.04217463;0.108707145;0.10731671;-0.0070894207;-0.013653067;0.10839571;-0.08142591;0.05725106;0.06484923;0.043988597;0.049707923;0.058662057;0.1097793;-0.08484977;0.058188;0.15853521;0.0052207625;-0.015347957;-0.008687848;0.063765734;0.042383946;-0.06049166;0.009943751;-0.013481109;0.04742747;-0.04011258;-0.100334235;0.04385206;-0.022849346;-0.09322208;0.013846518;0.0107229855;-0.08826353;0.022403799;0.036534622;0.07731488;0.06539398;0.083859526;0.14195438;0.0981281;-0.013308536;-0.01770732;-0.021225236;-0.083279155;0.21858563;0.122312844;-0.16078961;-0.05311505;0.012604048;-0.02968101;0.03748301;0.07004974;0.031680316;-0.035166893;0.100775056;0.018058013;-0.08524531;-0.049407754;0.2532625;-0.04973351;-0.071477756;-0.013030535;0.047763616;-0.009927934;0.03189528;0.09137111;-0.017522579;0.12908272;0.039721575;-0.058667548;0.04295494;0.07846852;0.08458037;-0.0468399;-0.016195817;0.018445795;-0.019175015;0.04101686;0.019603204;0.13349862;0.0061906506;0.017583007;0.049378622;-0.05796274;-0.116783045;0.045633156;-0.14089525;0.058080878;0.05656404;-0.022935286;0.06436515;0.03556778;0.28632525;0.046917208;0.10791398;0.1011618;0.030189611;0.008512918;-0.074918866;0.09425823;-0.05569605;0.24110103;0.07109461;0.065983295;-0.06601829;0.13915734;0.061051257;0.06754246;0.062448304;0.016304124;0.016417047;-0.009462553;0.06525517;0.0800737;-0.068934195;-0.07980135;0.053018253;0.09748822;0.048058327;-0.0077670254;-0.00038010452;0.03899529;-0.006548479;-0.067153566;0.11041004;-0.0026854998;-0.022115279;-0.011757976;-0.062221903;-0.013573639;0.11259605;-0.014063273;-0.055300962;0.02693167;0.02148461;0.082842015;0.008026876;-0.015070294;-0.023068639;0.098294556;-0.07067827;0.083599515;-0.0069507337;0.00019164672;0.088656366;-0.04666763;0.021583593;-0.21910836;0.09551696;0.057174902;0.08825648;-0.0398231;-0.010517973;0.09810513;0.02673954;0.0046323906;-0.001094606;0.0046809064;0.0046406835;-0.02056707;-0.0191705;0.045672555;0.14276575;0.010382843;0.06924677;-0.0072712526;0.07088439;0.025066143;0.13048263;0.04115137;0.091747;0.1356025;0.06143526;0.034138754;-0.028839128;0.026936833;0.07389112;0.089027315;-0.08326494;0.07638099;0.09210572;0.08187976;0.05667138;0.05584079;0.048170935;0.055012286;0.036691647;-0.085375555;-0.043067154;-0.0076096607;0.080671094;-0.037390795;0.08523115;0.026867526;-0.07919167;0.036749046;-0.0022953975;0.011893016;-0.2771081;0.0069510215;0.041491624;0.008313762;0.05346915;-0.03979852;0.04374571;0.007332233;-0.07412493;0.055752486;-0.033515554;0.0062236055;0.024332127;0.07958858;0.06767048;-0.0021447684;0.062274974
-0.0731511;-0.13505709;-0.015942205;0.066231586;0.04612959;0.010456213;-0.54182535;-0.068919174;0.032544505;-0.040622987;0.03484283;0.047941472;-0.04161018;0.027868858;0.109386556;0.04204753;-0.27853698;0.097825;0.07176261;-0.017421894;0.05129691;-0.103094794;0.024015794;0.0721075;-0.05839485;0.016005494;-0.04180825;0.01164662;0.000113592636;0.10820787;-0.0023660224;-0.008208224;0.05737429;-0.025027601;-0.036087405;0.030842166;-0.24236007;-0.038541943;-0.039080657;-0.005323978;0.060796812;-0.14620052;-0.031676196;0.019004267;-0.03984238;-0.004985823;0.08527633;-0.03263054;0.018591857;0.17537902;0.16310172;0.0036319331;-0.035476305;-0.1638411;-0.22191304;0.020772845;-0.024470702;-0.018488578;-0.024633307;0.03736846;0.05096564;0.025106892;0.03669822;0.13004608;0.056205697;-0.030559327;0.04323415;-0.014859011;0.06543244;0.014785531;0.06889857;-0.04393608;0.07647499;0.1240372;-0.08914007;-0.02785701;0.056367215;-0.025696639;-0.028460033;0.061796315;0.04360397;-0.016874794;-0.0859777;0.12714608;0.02086013;0.07701293;0.14060454;0.0068441303;0.04123274;0.00053848955;-0.0208706;0.03477258;0.14793788;0.04950552;0.032331966;-0.0038622334;0.176854;-0.07045747;0.034752905;0.036091555;0.052225385;-0.036363967;-0.060096946;-0.031416457;-0.047414653;0.026356053;-0.030622698;0.06035731;-0.035509992;-0.0509811;-0.10100922;0.03519304;0.10219225;0.105540164;0.0012886142;0.06676944;-0.09265992;-0.011707243;0.021526434;-0.09722102;0.060111728;0.098549195;0.10931224;0.06141027;0.011691542;-0.10337046;0.09738337;0.0003679753;0.029606607;-0.003271942;0.09516947;-0.04080725;0.14915246;0.036022652;-0.19390212;0.0583528;-0.010508423;-0.04767383;0.25451759;-0.01871174;0.1520075;-0.010307318;0.14364527;-0.046924837;0.036379427;0.048980642;-0.10489374;0.05849666;0.07515102;-0.01398233;0.0284256;0.08517996;0.0425078;0.07540299;-0.022959972;0.30109885;0.27396977;0.09495404;0.02466309;-0.06341377;0.11306302;-0.03218803;0.17041135;-0.0511104;0.03443565;-0.05787194;0.054746713;-0.0020666532;0.008775147;-0.013280618;0.042878784;-0.31397542;0.08547101;0.039281275;0.026167605;0.006565374;0.02921024;-0.04813621;0.12511742;0.06766406;-0.017411062;0.020776127;0.07807363;0.034339994;-0.1378829;-0.080901645;-0.029960182;-0.08742403;-0.0057847225;-0.015460641;-0.04806285;0.019620102;0.06584097;0.030244937;0.09110633;0.00984994;0.121427946;-0.21127945;0.083269194;0.01894286;0.0023050685;0.116830185;0.00095520535;0.0069031175;0.055616375;0.029266564;0.12062406;0.05643485;0.018096436;0.10254918;0.11049573;-0.06323685;0.07654156;-0.090023994;0.005982891;0.053876836;0.07056548;0.010716491;0.049487777;0.11547467;0.0985879;0.14004986;-0.02032092;0.014408209;-0.012405215;-0.06974515;0.0077120387;-0.0018079678;0.052917447;0.11066705;-0.053838346;-0.14319484;0.014308074;0.092513345;0.0112885535;0.06798159;0.03096128;0.0303659;-0.07330112;-0.027363898;0.072699115;-0.08828952;0.16516387;0.0042262087;0.012476115;0.08395572;0.06414374;-0.03879454;0.050504383;-0.011387783;-0.026439464;0.020762442;-0.013708387;0.15856126;-0.12356817;0.13207233;0.097505406;-0.02816476;0.056975756;-0.043424074;0.023050375;-0.06401822;0.059056822;0.019471576;-0.04183839;0.02067231;-0.020960111;0.0067797126;0.02468984;-0.080148585;-0.0041566696;-0.05141673;-0.028095676;-0.0237556;0.07994937;-0.10351962;0.28660953;-0.08337433;0.21005495;0.005764777;0.03702546;-0.0033722867;0.032513626;0.14356644;0.03467417;-0.044306476;0.041561335;-0.07941838;-0.040771432;0.043526556;0.056700274;-0.0017159821;0.061396454;-0.044946842;0.016767383;0.18673033;0.0004149958;0.003878002;-0.07101495;0.08974728;-0.06850944;0.008600736;0.09473528;0.026558992;0.003085521;0.08215746;-0.028534396;0.0023176887;-0.025611334;-0.027237756;-0.03138168;0.024630953;-0.05054016;0.003875595;0.070397645;0.062218837;0.07805904;-0.16860771;-0.10098158;-0.41665906;0.055564187;-0.04839589;-0.042107187;-0.0428308;-0.055078007;0.026372384;0.048906915;-0.020857016;-0.076644525;-0.060677387;0.017652795;0.031202817;0.071955115;-0.1801448;-0.11594534;-0.033750635;0.04737612;-0.051708322;0.03792459;0.059177134;-0.003759182;0.0014154477;0.120191604;0.15748413;-0.06727667;0.108880594;0.040869143;0.035267603;-0.049739502;-0.037048098;0.3252905;0.07156616;0.18291543;0.06983353;0.119567715;0.06778832;0.09920445;0.065478735;-0.04823476;-0.098582245;0.012397026;-0.07378619;0.13554166;-0.01579316;-0.01207757;-0.012817945;0.066425495;-0.034711894;0.057861816;-0.044317596;0.025997426;0.07840246;0.009738158;-0.0047498858;0.039232947;-0.028347025;0.053392816;0.005378893;0.09796736;0.07362039;0.05062036;-0.06600165;-0.08212019;0.038602673;0.027999816;0.067611806;0.038255632;0.056921553;-0.068577155;0.019481553;0.016894592;0.058113314;0.010649051;-0.019475274;0.05057677;0.08369478;-0.022812566;0.010853846;0.05407371;0.066773735;0.12670165;-0.025354026;0.01190719;-0.025707595;-0.12564176;0.19885391;-0.0013163153;-0.13890691;-0.026143493;0.10543037;0.0035310024;0.060226947;-0.10733104;0.054086983;-0.049500525;0.015826069;-0.04866449;0.012153155;0.040638022;0.09203917;0.023386238;-0.010840621;0.0055428594;-0.06297282;0.043026417;0.029195916;0.11922882;-0.01314049;0.06070497;0.03723476;0.037455153;0.002202982;0.09014388;0.0436484;0.0026124548;-0.007151532;0.019149933;0.021545054;0.09052458;0.07574746;0.07851752;0.011603591;-0.03991439;0.031088306;0.10348358;-0.26304114;0.0711524;-0.3652423;0.060909465;-0.036289226;-0.08373934;-0.04752724;-0.07693758;0.2733986;0.26434195;0.10385856;0.051547814;0.1026;-0.036035907;-0.024171786;-0.014963408;0.015732717;0.1761482;0.018418998;0.07300887;-0.012667479;0.07113465;0.121062346;0.009495397;-0.029706279;-0.037302356;0.21301118;0.05343831;-0.016295593;-0.05767524;0.06818605;-0.0067228703;-0.031005764;0.10281254;-0.0018095502;0.00032059327;-0.05714235;0.0006469713;0.1359273;-0.043952864;0.08220328;0.053078648;0.08615241;0.086095326;0.10093136;0.033826847;0.11360596;-0.00694584;0.093703024;0.04354608;0.07455316;0.019839482;0.02970169;-0.011454019;-0.022632163;0.18425465;0.13222764;-0.108222134;-0.04633108;0.03972679;-0.052235495;-0.011487461;-0.074624285;-0.21979538;-0.014555868;0.005318362;-0.057959788;0.04444361;-0.016451469;0.038286086;-0.08570214;0.11045087;0.0029733626;0.02351173;-0.04393972;-0.03633721;-0.022844817;0.029768223;0.20163316;0.016825741;-0.032520425;-0.023911165;0.04759135;-0.024314571;0.04830599;0.0073710796;-0.073434144;0.25052667;-0.030278055;0.041684832;0.09943892;0.07893104;0.13510224;-0.09388932;-0.12379417;0.1139599;-0.0028125069;0.010303714;0.03723716;-0.078717895;0.07056949;0.042171557;0.049772657;0.031190883;-0.027491283;-0.0054580076;0.13282368;0.018825244;-0.03135586;-0.046038207;0.074844554;-0.042126834;0.018389568;0.20749883;-0.3669623;0.04783321;0.050226223;0.044628516;-0.06557634;0.037520844;0.016184429;-0.013085733;0.025354646;-0.028871337;0.04527582;0.02974627;0.08993906;0.09324742;6.0505296e-05;0.037120447;-0.027422143
0.1173426;-0.08502905;0.0005004053;0.004517529;-0.018447204;-0.008185415;-0.15810889;-0.07420768;-0.2023469;0.020361597;-0.011289908;-0.106241725;-0.011427038;-0.014418591;0.054273315;-0.10181525;-0.20759355;0.07542519;0.08976487;-0.00032513542;0.03482219;-0.13076809;0.10553073;-0.037849113;0.09783549;-0.3417014;-0.112017564;0.00887725;-0.040162362;0.14198217;-0.031037372;0.044733517;0.038461257;0.17794177;-0.008785497;0.017855927;-0.1970681;0.085318364;-0.042401038;-0.10560048;-0.058536455;-0.16145355;-0.007651663;-0.0065282746;0.09846218;0.009791511;-0.027590754;-0.010849096;0.04092845;0.2522332;0.21052606;-0.116363496;0.02824351;0.102515124;-0.24066275;0.02812933;0.017201921;-0.019844491;0.051126856;0.060001846;0.048275296;0.04437516;0.105932854;-0.09399953;0.011466834;0.034275375;0.042507667;0.1117159;-0.039412353;0.014218549;0.26692486;0.032736026;-0.0353217;0.12391943;0.1176066;0.05444622;-0.059626427;0.044610582;-0.06682311;-0.054072283;-0.08567132;-0.025808077;-0.1873096;-0.040922068;0.034716353;-0.05656181;0.023197811;-0.05365106;-0.038863078;0.07103072;-0.03611514;-0.012728224;-0.02081047;0.056236565;0.0029752008;0.0047283554;0.06081045;0.076433785;0.031693984;0.06373132;0.14167613;-0.17427112;-0.0077443738;0.14804657;-0.042496577;0.30466282;0.032131363;0.04765939;0.069458865;-0.016735084;0.10250103;-0.0029151517;0.061534803;0.108661145;0.037269328;0.066672966;-0.016119825;-0.04148303;0.045708455;-0.09637804;0.101244755;0.006212521;0.12070007;0.043134145;-0.038300917;0.013942821;0.052838862;0.0053238487;0.04285746;0.00071489834;0.09166488;-0.00068147515;0.0820638;0.025419718;0.17995179;0.041216403;0.003507802;0.06606381;0.099965684;0.06647128;0.32367867;0.08657644;0.016888784;0.07129135;-0.019992186;-0.098785594;-0.38983282;-0.019746983;0.12563024;0.06528535;-0.07247436;0.043772705;-0.0058006207;-0.078792736;0.018237146;0.3545404;0.24471979;0.03815546;0.11068785;0.04901836;-0.021486675;-0.016519895;0.24382696;0.09046512;-0.018883908;-0.030191107;0.00072583277;0.017461108;0.1792816;-0.015843702;0.12041439;-0.28161892;0.013387678;0.031088242;0.10409689;0.06666894;0.036554705;0.13414207;-0.20491517;0.09072568;0.075874366;-0.0021171612;-0.07188013;0.07146476;-0.0059235175;0.043430965;0.0017855022;-0.17155397;-0.036660332;-0.042087115;-0.07588549;-0.05386879;0.021633772;-0.0014090812;-0.012272559;0.09561485;0.10447534;0.00052353996;0.22592789;-0.0090329945;-0.013301341;0.057213176;-0.0024742738;-0.017719638;0.11928911;0.015338017;0.17741288;0.046199862;-0.025032163;0.10808289;0.16807586;0.025835115;-0.035608012;-0.21516098;0.08154261;0.09059593;0.08575236;-0.029791685;-0.047507774;-0.008839591;0.04635364;0.023499995;0.05965931;-0.049326595;0.012973814;-0.11103561;-0.03455407;0.10784938;0.038414475;0.031226207;-0.025583653;-0.03737196;0.15826772;0.20743322;-0.024823165;-0.007508815;0.054847065;-0.005595667;-0.03944652;-0.025830502;-0.005058584;-0.06423911;0.111418925;0.14618552;-0.048739024;0.09626123;-0.05750824;-0.053394087;0.11157755;0.024865553;-0.13213338;0.010702658;-0.10283434;0.12028633;0.030561589;0.04654231;0.15311684;-0.06966729;0.028579788;-0.017247053;0.03183616;-0.036057077;0.07320425;0.0011259126;0.106879786;-0.02137496;-0.09263376;0.07244446;0.05529608;0.0353338;-0.120588325;-0.24982336;0.01794712;0.019442782;-0.058768947;-0.11894043;0.1086284;0.05286872;0.017202713;-0.00588132;-0.22424325;0.08546732;-0.03406828;-0.23272271;0.062005695;-0.09329232;0.031478845;0.034648888;0.06629878;-0.0702731;0.14944956;-0.026654642;-0.031960186;-0.084367596;0.124351695;0.021141112;-0.2535448;-0.029475762;0.042084496;0.05987266;-0.10079939;0.12819193;-0.046072017;-0.056215383;-0.02459342;-0.066049635;-0.18773319;-0.04104516;0.11362295;-0.02222234;0.13800064;0.02734981;0.0671537;0.2069279;0.17889082;0.0062689926;0.035718113;-0.23227134;0.036843386;-0.23228608;-0.03796476;-0.025218109;0.063450985;0.071214475;0.050254934;0.08246859;-0.15562494;0.07608266;0.027074821;-0.0014475182;0.16493696;0.03471169;-0.02105567;0.023295147;0.41649795;0.07658709;0.017519502;0.1142964;0.13224106;0.07438398;-0.08335193;0.10446541;-0.020116007;0.025213357;0.10798546;0.15267837;0.032131214;0.062440556;0.08115657;-0.012315117;0.041913513;0.121096626;-0.01374118;-0.042183425;0.05010032;0.009133026;0.052746136;0.09067205;0.033336733;0.13130793;0.023109747;0.080477975;-0.027063167;0.26816726;-0.0056310236;-0.071368255;-0.0007201825;-0.041240763;0.036961358;0.06795249;0.07049988;0.096384905;-0.004026502;0.0052333144;-0.118725315;-0.043015808;0.07071077;0.020699577;-0.04571288;-0.008438391;-0.051993337;0.13408042;-0.064157784;-0.039001256;0.098076925;0.12055702;0.067451276;0.06348747;0.011966778;-0.038137265;-0.05325072;0.103552006;0.07235238;0.05548021;0.026352605;-0.19200419;0.008522087;0.025548782;0.046992462;0.14479902;0.10439199;0.054900836;0.024824334;-0.15114303;0.002640148;-0.050036535;0.035996433;-0.07435426;0.0037268254;0.032987073;-0.03247591;0.10941353;0.33141932;0.027759103;-0.011628755;-0.15675713;-0.005573993;0.15846643;0.009742616;0.14908628;-0.06031062;0.17031881;0.042196617;-0.05734672;-0.03858246;-0.07611325;0.23821771;-0.05649564;0.0072234855;-0.13428424;0.022623794;-0.12891904;-0.039499402;-0.0059418185;-0.19942577;0.04963689;0.094753996;0.038058735;-0.028928159;-0.047991604;-0.12895277;0.10101391;0.064516634;0.091125846;0.093896866;-0.026862914;0.11045602;0.00087078236;0.11763637;0.03952447;0.08953989;-0.05395364;0.043535884;0.122581646;0.12007043;0.041842334;0.12546377;-0.01578502;-0.00481025;0.050662395;0.11824546;-0.00716289;0.1368143;0.062502116;-0.036328644;-0.043425456;0.25270158;0.07826788;-0.010926882;0.07775545;0.08590639;0.17094654;0.07209803;0.024072034;-0.032269906;0.05944017;-0.00014468719;-0.00501628;0.19370824;0.054167014;-0.010808584;-0.055831674;-0.3586482;0.15964769;-0.03683722;-0.16625488;-0.03447361;0.04726046;0.07416663;0.06127905;-0.010913748;0.028628457;0.045011356;0.02609009;0.0341691;0.034013275;-0.012148739;0.04654309;0.019125072;0.009959604;0.1867636;-0.092265084;0.007305069;0.041467603;0.056293346;-0.06726647;-0.031352587;0.0013741809;-0.27414954;-0.032432336;-0.022229312;0.07058557;-0.03140413;0.02574743;-0.2066488;-0.006991313;0.025101963;0.037479863;-0.08205084;0.088048965;0.0053475196;-0.018153593;0.0668504;0.046934273;0.016488021;-0.015769942;-0.026465278;-0.04247706;-0.018589867;-0.011504083;0.050547797;0.05559627;0.0304788;0.12778702;0.01887154;-0.013854693;-0.10064757;0.001569183;-0.07684644;0.053910147;0.001660396;0.009876067;0.0042951484;0.058048595;0.085125275;0.022553528;-0.041267797;0.07419305;-0.055851687;-0.040170997;-0.046412654;-0.04795955;-0.01929618;-0.014032477;0.026900709;-0.10489761;-0.019039912;-0.038976908;0.2597047;-0.3826754;-0.020060884;0.055691216;0.04751842;-0.067431115;0.0016441928;0.058416422;0.037455693;0.029671585;0.016072651;0.031890973;0.16504204;0.02645366;-0.11296256;-0.049174413;0.030325076;-0.018286327
0.021199293;0.28335285;-0.08242419;-0.66611814;-0.13134941;-0.22739062;-0.45508024;-0.044653412;0.36750904;-0.06047223;-0.08224498;0.5874397;0.03659464;0.041709006;-0.023231043;0.5280062;-1.0030111;-0.40290904;-0.0478819;0.033439;0.009278317;-0.35136354;0.14248964;-0.48460522;0.059975605;0.19730172;-0.30985123;-0.03134738;0.2679317;0.33848903;0.026084015;-1.2544422;0.036100958;-1.2551225;-0.07382525;-0.4469356;-0.9675822;0.38665995;0.0012721502;-0.03504565;-0.32501912;-1.0528517;0.93244916;-0.032077327;0.2453822;0.028130848;-0.0033333588;0.3042629;-0.28864866;0.050363258;-0.5654312;-0.663289;0.04639865;-1.0129889;-1.2666925;-0.024337905;-0.022217173;0.05853072;0.031182146;0.09006744;0.672366;-0.009018907;1.5405035;0.08372044;-0.08857375;0.19350737;-0.0025696727;-0.0624217;0.07644513;-0.281547;0.18002802;-1.4741738;-0.11196799;-0.8124976;-0.34851074;-0.07788479;-0.07510833;1.7907149;0.80845636;-0.12441639;-0.3535015;-0.017900806;0.5447702;-0.4454746;0.024624083;-0.4131275;0.21092023;-0.033146963;-0.46026632;0.018296909;-0.3973155;-0.046515346;0.032725956;1.088523;-0.042742062;-0.023570523;1.1578678;-0.1525771;-0.0074456264;-0.08278945;-0.09685388;0.22665036;-0.35650587;0.42829072;-0.33849016;-0.11879432;-0.04007846;0.030907467;0.049813338;-0.023998784;-0.09319204;-0.048763696;-0.34171024;1.8367068;0.020394415;-0.007927852;0.10060307;-0.015185522;-0.011721705;1.0756813;-0.45235565;0.025720106;-0.054306664;-0.05211332;-0.41626978;-0.09566111;0.04048863;-0.00338985;0.4488001;0.013381369;-0.050218035;-0.036886167;-0.44448003;-0.0070326184;-0.81765896;0.08904728;-0.05213041;-0.50573814;0.88368005;-0.9028862;0.44035593;0.017814413;0.14540431;-0.00073359883;-0.082411215;-0.23739451;-0.8029445;-0.05735062;0.022982745;0.08789138;0.003909549;0.017136376;0.071598336;1.6217082;-0.9239524;-0.3880079;-0.13339114;0.43329576;-0.4328579;-0.06722646;0.006390695;0.53812534;1.1709021;-0.019226845;0.0047655725;-0.09801721;0.05715102;0.20056897;0.9591258;-0.03781125;0.0038713403;0.8267484;0.0229215;-0.04835444;0.07377387;-0.010877976;-0.20146999;-0.05179807;-0.40238625;0.02559282;0.043216035;0.117083475;0.071239516;0.114642024;0.4224282;0.12154806;-0.037886072;-2.1003993;0.7951761;0.045371685;-0.8823827;0.0062124436;0.9984312;0.06014591;-0.048047557;0.026005773;-0.5828657;-0.40292528;-1.1175808;0.20620318;-0.2594137;-0.60462856;-0.09458266;-0.130345;-0.06332252;0.024097657;0.17195675;-0.28436306;-0.04389469;0.8677834;0.73286396;-0.03271638;-0.3934156;-0.89442176;0.081682324;0.057894703;0.052942723;-0.031816218;-0.039812453;-0.76557577;0.04945788;-0.5281257;-0.045556515;0.38778344;0.038463105;-0.07977936;1.9543974;-1.2385614;1.2091994;0.4533469;-0.5097541;-1.5665078;-0.5428624;0.10480671;0.0037842565;-0.07440106;0.03404621;0.07274459;-0.045224473;0.104593486;0.002148759;0.27936265;-0.1131773;0.14927126;-0.48559773;-0.62290466;-0.00031605724;-0.31730852;1.0596846;-0.05813878;0.03402914;-0.51036024;-1.1838983;0.05795416;-1.7204572;0.25959748;-1.2641227;0.10499198;-0.075904995;0.018516548;-0.057486184;-0.0042375866;-0.8385318;0.0016025316;-0.028941795;-0.41372532;0.0026291753;0.052075613;-0.034076396;0.039166197;-0.08932511;-1.6111828;-0.08546371;-0.11441594;-0.67207086;-0.08639274;-0.64092994;0.12290209;0.7902857;-0.07152863;-0.86177933;0.14684002;-0.043721985;0.4308375;-0.033260066;0.05495071;0.06300005;0.074836075;0.0070833885;0.03061761;1.2379768;-0.07094352;-0.034859966;0.051215746;-0.33237955;0.6587228;-0.6867548;-0.41513482;0.29409876;0.13347316;0.31535637;0.06061435;0.0631967;-0.10493902;-0.3083504;-0.021603346;-0.54671043;-0.0028591598;0.79415584;-0.0124735525;-0.21921848;1.8852191;-0.04132342;-0.14072467;-0.4651359;0.09720465;-1.1030991;-0.39885038;0.053288855;0.15968776;-0.040846173;0.011687115;0.058513828;-0.07103382;-0.23318587;-0.025019715;0.08167414;-0.5983451;-0.08990596;-0.09869402;-0.7191762;0.3046932;0.022656495;0.8643146;-0.6917076;0.0574083;-0.091850914;0.19801319;-0.6971309;0.18212427;-0.24322115;1.4209346;-0.14614557;-0.55165297;-0.18731584;0.04996301;-0.01464069;-0.03298092;-0.010911377;0.02284479;-0.85906565;-1.020647;0.0036657592;0.06412995;0.7410366;-0.6437453;0.36129242;-0.05029123;-0.062388763;-0.012907677;-0.004787694;0.1882689;-0.16565715;0.49297136;-0.00907975;0.08124101;0.046456676;-0.058387805;-0.023945529;-0.0020898886;-0.062142666;0.813786;-0.0017104379;0.01818522;0.0017906;-2.043639;-1.2140914;0.2191336;-0.041153144;-0.06053467;-0.014864009;0.026530238;0.6862708;0.07453827;0.021979507;-0.52225673;0.039419577;0.042508516;0.039381906;-0.08331014;0.5839481;-0.05269945;-0.06433476;-0.078705385;0.19021593;0.37975287;-0.20131798;0.058329534;0.698807;0.21548493;-0.39314458;-0.03883058;-0.07147309;-0.5113285;-0.16474214;-0.49111065;-0.5016428;0.19290122;-0.037176177;-0.073606566;1.8996533;-0.10332797;-0.32584873;-0.12617946;-0.44681033;-0.54927045;-0.038715415;-0.405355;-0.020104676;-0.15423638;-0.27014336;0.28827107;-0.10277816;-0.073048554;-0.089675054;-0.0054371785;-0.50000954;0.13007592;-0.01609315;-1.2392255;0.085146576;-0.2760493;0.13452682;-0.08045104;1.1924195;0.16575338;-0.06855936;-0.0036340493;-0.027918149;-0.067541994;-0.7101303;0.3153726;0.009191217;0.38905498;0.28750506;-1.3257837;0.91318214;1.7668912;0.6824061;-0.091899656;-0.1147972;-0.047282223;-0.0015931166;-0.3799852;1.6843237;0.030330352;-0.6315397;-0.13542125;-0.44698143;0.07833953;-0.04558437;-0.035936568;0.74862045;0.039253436;-0.3977088;-0.036779966;0.38205877;0.0355295;-0.008835754;0.21010725;-0.04591781;0.43579766;0.080274515;0.07728123;0.08561947;0.052593157;-0.012211076;-0.020300325;-0.62007314;-0.013825827;-0.0056010117;-0.025816457;0.53850716;0.7023627;-0.0058311378;0.4774153;0.009894092;-0.038162455;-0.68291056;-0.01609641;-0.5256144;0.2708969;-0.010356678;-0.028070312;-0.47405344;-1.1800574;-0.030337505;-0.09421411;0.04004588;0.081135854;2.1515794;-0.14499633;-0.572401;0.27405226;-0.04445193;-0.10609977;-0.010315645;0.16537136;-0.687078;-0.121051125;0.18846525;-0.1404117;-0.059728507;-0.07829425;-0.4736726;0.21718127;0.20817925;-0.050811272;-0.03660243;0.07070837;-0.090970084;-0.04062324;0.05523092;1.4627773;-0.102899596;-0.036400948;0.036597963;0.00054374087;-0.065167494;-0.8162748;-0.04665393;-0.0955524;0.8713501;0.08827506;0.11859363;-0.6245652;-0.36349013;-0.03277812;-0.61240417;1.6750145;-0.0184127;-0.069814764;-0.4951073;0.025572265;0.5529508;-0.019788766;-0.44979787;0.079797305;-0.039134026;-0.08811993;-0.008435099;-0.039331302;0.1372787;0.4011837;0.024598159;-0.008143234;-0.05622653;-0.0438378;-0.13277167;-0.25563568;-0.38171113;0.031619415;0.49116668;0.15419674;0.020057991;-0.07407658;-0.3404986;-0.72621113;-0.35598;0.0040500164;-0.18718472;-0.5358083;-0.014626217;-0.051764242;0.016651584;-0.005645478
-0.009915133;0.057234578;-0.048564706;-2.0699987;0.08230755;-0.06869402;0.40143067;0.037859507;-1.2328166;0.022319088;-0.11994535;0.6050608;-0.06175346;-0.031519488;0.109600775;0.36951983;-1.4867277;-0.123572215;0.012521585;0.02941034;-0.06320432;0.45918846;-0.52081513;-0.22057058;0.033483133;-0.53247267;-0.12932129;-0.069108896;-0.22571574;0.11293717;0.019156057;-0.035904463;-0.092956565;-0.6087804;0.0019492625;-0.28808922;-0.7892464;-0.7418485;0.06134886;0.077318855;-0.084043354;-0.7529885;-1.2626675;0.019715346;2.1410327;-0.042361397;-0.06161218;0.26142403;-0.6629249;0.481304;-1.0687449;-0.9448387;0.04826467;-0.90026325;-1.4359735;-0.077036545;-0.023623079;0.05511445;-0.06930794;0.07980521;2.413797;0.042980168;1.241131;0.031619113;-0.012216263;0.014337982;0.02011599;-0.1495034;0.1583545;-0.16078827;-0.017084725;0.4214002;-0.009222157;-0.36286038;-0.8155336;0.08636334;0.05675073;-0.6259354;0.5577421;-0.07915109;-0.08110368;0.060629144;1.2730168;1.209788;-0.053772762;-0.41084772;0.044036824;0.024164783;-0.37255773;-0.00836851;-0.13218299;0.007356044;-0.083669014;0.7393342;0.07102896;0.031474967;-0.13642561;-0.1909117;0.037359264;-0.047773637;0.045252122;0.0012771616;1.1652386;0.22431889;-0.20413212;-0.5857188;-0.051876087;0.03587238;-0.07141911;-0.0068597887;-1.0423375;-0.05353863;1.1251827;0.3957298;0.023118233;-0.038265046;0.08039477;-0.047034223;0.051799756;-1.4931972;1.8714215;-0.041238863;0.012109963;0.10011304;-0.30307415;-0.08477422;-0.010405098;-0.05221748;0.030934457;-0.0101503;-0.055578224;0.009368973;-0.9479147;-0.3466439;0.028334321;-0.005077087;0.05856828;0.08514562;-1.0239544;1.1209497;0.67957586;-0.09087905;0.1741964;-0.004891592;-0.0068179127;-0.064662255;-0.22656786;0.03458823;-0.0118403025;0.06157404;0.03969814;0.04259282;0.02765755;0.3783824;-0.87190336;-0.35709292;-0.37219107;-0.16836695;0.100575805;0.045680437;-0.07602553;0.669711;1.7249845;-0.018888997;-0.08944005;-0.0014860202;-0.098037235;0.09471071;-0.2735315;0.035415318;0.01657874;0.48684976;0.07124076;0.018989002;-0.030218828;0.024789432;-0.113083616;0.10975859;-1.1529669;-0.04193949;-0.019787103;-0.02121112;0.06292105;0.060629968;0.18013193;-0.0034210419;-0.019362215;-0.6068157;0.4457057;-0.03955388;0.4440248;0.076156996;-0.655316;-0.069287136;0.0066318773;0.00429062;-0.90328074;-0.76533127;-0.6250181;0.07964694;-0.11080971;0.9132087;-0.025801433;-1.5365157;0.007950228;0.05570735;-0.7329932;-0.5517036;-0.0062300563;-1.0741792;0.81779164;0.01349574;-0.24703772;-0.60783714;0.15589492;0.034835678;-0.07972808;-0.07531803;-0.014521956;0.040819883;0.07757296;-0.402756;-0.056383457;0.8915402;-0.07036968;-0.083325624;-0.52132803;-1.1662295;2.0054996;2.1924763;-0.3545894;0.6449049;-0.619204;-1.053187;0.036404654;-0.03399458;0.0348292;0.016577858;0.0023625668;0.01791811;-0.004653361;0.88311386;0.4289109;-0.05710821;-0.2855519;-0.39761084;0.0038281062;1.7282816;0.5898506;0.00764528;-0.060719445;-0.012739002;-0.4703361;1.462958;1.7970712;0.23236756;-0.32152146;0.018054891;-0.068198;0.013360527;-0.0049683154;-0.054195974;-0.05092877;-0.040710527;0.0034873516;-0.16217583;-0.017882062;0.09808758;0.058042783;0.05465844;0.2811181;-0.14147738;0.001986673;-0.012056611;1.0524099;-0.061015412;-1.4169631;0.28504932;1.0510299;-0.03785751;-0.69202685;-0.032790057;-0.02275796;-0.8921147;-0.073854364;0.09560695;0.043814305;-0.06050851;-0.020375982;0.017195223;-0.22228499;0.014276017;0.04736626;0.07363025;0.30176303;-0.8772229;0.6236861;-0.532199;0.27489498;-0.34654045;0.10665922;0.008353733;0.05677253;-0.7899127;1.0069306;0.06448212;0.54336345;-0.009590192;1.1319735;-0.08361837;0.35164496;-0.44524238;-0.0065414314;-0.3836414;-0.24990045;0.079696074;-0.38104928;0.050947893;-0.072686;0.545222;-0.031189824;-0.040407978;-0.007054837;0.07415037;-0.05166483;-0.048027344;-0.021737851;-0.23918504;0.019538848;-0.08464133;1.8266946;0.7863697;-0.018727362;1.4079269;-0.06872398;0.069737546;0.0025865817;-0.5408107;-0.23906085;0.30787766;-0.28487796;1.2796125;-0.07522848;1.6377695;0.024369128;-0.013130879;-0.06000804;0.0013227145;0.039637752;0.034489427;-0.9504476;0.020763064;-0.38840756;-0.15818124;0.33680013;-0.3668418;0.04987068;0.042883378;-0.035898652;-0.4527098;-0.8289173;-0.20689823;-0.21563181;-0.4040871;0.04043533;0.029916385;-0.015062365;-0.044324886;-0.038459793;0.02336862;-0.017332554;0.0066845114;0.060313232;-0.04660166;-0.11463034;-1.9722058;0.8172869;-0.113626786;0.07940264;-0.060428053;0.11871417;-0.067543976;-0.8170469;0.32280356;0.07842908;1.1320683;0.05822662;-0.036096413;0.038031183;0.025344143;1.1684285;0.006212436;-0.019122045;-0.04418779;0.011460998;-0.30516547;-0.011372225;-0.0020104577;0.5091152;-0.24819623;0.09625121;-0.011916609;0.03716734;0.75814295;-1.1261256;-0.2372259;-0.42510295;0.7457047;0.048976373;-0.030245367;-0.22062956;-0.049370956;-0.6599253;0.19436532;1.0272554;0.017480133;0.105837695;0.07919387;0.038020846;1.3937376;-0.117122136;0.20036572;-0.024546564;0.015835015;-0.030756233;-0.007084519;-1.3475419;0.02655779;0.006795682;-0.72355825;-0.14226997;-0.41631463;1.1633968;-0.0040614377;1.1361772;0.11540123;-0.041183222;-0.11181275;0.053154998;0.011405369;1.3814735;0.14091776;-0.05790431;0.15697342;0.5347651;-0.1647252;-0.0006490376;-0.007852341;2.0068774;-0.019010566;-0.0059402143;-0.0417593;-0.015759626;0.49206558;2.2653925;-0.05225065;-0.45735192;-0.2141101;1.6459836;0.070052065;-0.03722119;0.062506475;0.25115898;0.041807197;-0.37355652;0.10090096;-0.81703866;0.055719662;-0.026097374;0.13408633;0.03126288;-1.6167542;0.02985453;-0.000594764;0.005900917;-0.022280581;0.047759537;-0.0003257879;0.54612225;-0.05913968;0.054298203;0.05852607;-0.41729233;0.67573917;-0.018931879;0.41891477;-0.035924833;-0.0789417;-0.42261228;0.019836007;-0.25424865;0.13374397;0.08032123;0.019042486;-0.35282257;-0.58878034;0.04659851;0.002268332;-0.004094017;0.23271482;0.23583992;-0.42604506;-0.2990048;0.1325773;-0.05428545;0.0045881704;0.02621479;0.09769047;-1.1628985;0.039392885;0.091014184;0.027100518;0.00784371;-0.00032584125;-0.34544498;0.10996242;-0.12831067;-0.107383505;-0.037004612;1.2155404;-0.055223957;-0.03210697;-0.009403049;-1.0864625;-0.029453361;-0.09367244;-0.07299334;-0.044394072;-0.096504755;0.7572431;-0.078507245;0.05716242;-1.6224495;-0.2273574;0.07318342;-0.40673357;-0.25264627;-0.0316038;-0.45540962;0.38420567;0.042568583;0.03440813;-0.2748593;0.0540048;0.37301886;0.050494056;-0.8820639;-0.045687273;-0.018063148;-0.017832598;0.05675778;-0.065291405;0.118521824;0.0734553;-0.022523386;-0.1819424;0.07970973;-0.056605406;0.41747808;-0.1433503;0.020362176;0.012061499;0.4363125;0.11744828;0.08291637;-0.0038415513;-0.13970147;0.54609036;-0.12902834;-0.06028687;0.34718087;-0.40987122;0.50871336;0.0014869812;-0.043476418;0.07545351
-0.026918117;-0.12049194;-0.055318836;-2.4887283;0.13683136;-0.1308243;-0.75890845;-0.17314456;-0.039620917;0.04960379;0.024830002;-0.36078486;-0.0020955338;-0.061959725;-0.02158237;0.18400319;0.034975003;0.42226446;0.14430471;0.10955159;0.015886212;-0.12799452;-0.33160493;-0.14224623;-0.018390179;-2.2051125;-0.09840418;-0.04950153;-0.604586;-0.2383041;0.027385859;-0.5520098;0.060689505;1.0464529;0.011550281;-0.060412996;-0.082848676;0.5242094;0.05019909;0.033357285;-0.09993165;-1.1391436;-1.1983811;0.052468587;-1.6234545;-0.04794953;-0.08934154;-1.2155074;-0.057431042;0.9815026;-0.2197334;-0.14961094;-0.07140597;0.60010374;-1.2908795;-0.08133599;-0.031646885;-0.09980282;0.023194047;-0.04958445;-0.4617542;0.06357814;1.1337961;-0.07039314;-0.03379552;0.019019106;0.01585776;0.040225156;-0.07365198;-0.1757209;-0.19407287;-1.882634;0.064744584;-0.4265773;0.88472825;0.03900384;-0.1036922;-0.44648036;-0.6918481;-0.09937404;-0.08075104;-0.022659253;1.9025655;-1.7135739;0.058286015;-0.39197034;0.21573286;0.029236963;-0.19973935;-0.04996688;-0.115223296;0.049598124;-0.015340144;0.78546906;0.010696177;0.030457532;0.6224176;-0.345229;-0.081699066;-0.06629495;0.016055658;-1.1439339;-0.23762478;0.27699402;-0.17278269;0.55749226;-0.12411376;-0.028382907;0.08957469;-0.038903706;0.3633287;0.044833563;-0.17571528;0.9033468;0.06807073;-0.08109005;-0.3294238;-0.050773785;0.07361373;-1.0163528;0.31022716;0.03210392;0.0024246043;0.024131808;-0.15812537;0.029745292;-0.019899959;-0.009460582;0.11530035;-0.0003260012;-0.05003845;-0.045085102;0.27426955;-0.23290582;-0.22250138;0.020870263;-0.014773363;-0.1664327;0.32942918;0.21709819;0.3680788;-0.07903492;0.14540821;0.013592053;0.021612275;0.83613914;-2.3834295;-0.03295769;0.07687417;-0.009431992;0.02561426;0.024860412;0.028821452;0.6146122;0.9337043;0.14795782;-0.104277104;-0.45884198;-0.508735;0.016156733;0.019778611;0.08154183;0.8889275;-0.025724694;0.03470817;-0.009316408;0.01831572;0.067584656;-0.7206699;0.07072304;-0.060723096;0.181609;0.06382423;0.0436693;-0.0062750024;0.07408249;-0.07387135;0.020271955;-0.4638826;-0.027682943;0.08638779;0.027634729;0.071979605;-0.016795237;-0.07525587;-0.018049384;-0.09010596;-0.03863176;1.1596017;-0.059081905;0.97725844;0.0760241;0.34513357;-0.0648944;-0.057192083;0.07668565;0.93419504;0.057073846;0.58122385;0.11103594;-0.11993693;1.1905009;0.012578787;0.17157201;0.02757596;0.057067867;1.1004676;-0.4229558;-0.016270492;-0.32128274;0.45048764;0.04932551;-0.18803243;-0.00490193;0.26083922;-0.0049580145;-0.055069923;-0.0907254;0.023815697;0.022368286;0.053166088;-0.1525968;-0.12918298;0.13086748;-0.09170751;0.015617025;0.4538603;0.14233577;1.1276379;1.3826426;-0.31098667;-2.3743389;0.49466613;-0.1434867;-0.0226769;-0.020789122;-0.13483585;-0.011948073;-0.056958966;0.014027502;-0.016990725;0.039736062;1.4222996;-0.17118497;-0.17070505;-0.20187965;0.042079058;0.9566047;-0.34191355;-0.015672002;0.07358305;-0.023909893;0.02446588;1.0268801;0.8269692;0.5081525;-0.8270523;-0.06511856;-0.013824167;-0.08524754;0.028944768;0.005217057;-0.033704586;-0.0094732195;-0.0078663835;-0.16782819;-0.117858626;-0.023888608;0.028835423;-0.07458355;-1.2769338;0.22942188;-0.065139376;0.038878173;0.00093715265;-0.0041323374;0.90676606;-0.06255144;-0.29256278;0.010109674;-0.55671096;-0.050615583;-0.03778303;0.7835805;0.067288026;0.022137789;-0.045013484;-0.026543455;-0.017541133;-0.026115334;-0.2527006;-0.040220335;0.065080985;0.046342768;0.12941891;-0.76382834;-2.124313;-0.4186203;0.015944157;-0.39567915;-0.13431151;-0.06098955;-0.07232829;0.062168177;0.34199882;0.006956612;-0.40985194;-0.050437327;0.61336136;0.015791385;0.010888349;-0.15042067;0.007564054;-0.078099824;1.1078086;-0.009357154;-0.81932485;-0.03502033;0.04232708;-0.18173623;-0.07248066;-0.06566851;-0.06487003;-0.06882785;-0.06871299;-0.009815458;0.009513036;-0.6785491;-0.06578613;0.12134743;0.63713944;0.4498353;-0.08021788;0.026197221;-0.041259818;-0.044664375;-0.04822355;-0.7747856;0.38690558;-0.07212659;0.23099537;0.52377504;0.011215167;-1.0873604;-0.14746267;0.013552244;-0.034789525;0.0889049;-0.0410331;0.015457139;1.474812;0.07286984;-0.40600255;-0.079997376;1.3407378;-0.1268896;-0.21688119;-0.013133675;-0.008002575;0.8269292;0.051873196;-0.45308718;-0.0018409062;0.5989569;-0.015860049;-0.058721457;0.0010507312;0.056606654;0.04364149;0.06369349;-0.036948845;1.3656937;0.062542304;0.072803326;0.046199005;-1.6603135;-0.044466954;0.6354662;0.016308278;-0.07573268;0.010909111;-0.07038847;0.44701102;-0.0734816;-0.0757299;0.96225995;0.027639251;0.014262182;-0.017449137;-0.070091896;-1.1906006;-0.049786717;-0.015082461;-0.07671743;-0.13285086;-0.3797618;-0.11323334;-0.036069438;0.25990838;-0.035499666;-0.93310916;-0.030109428;-0.04760369;0.76622695;-0.2445136;0.8265136;-0.09921893;-1.0958624;-0.031288538;-0.07536556;1.0495832;-0.0629698;1.0785606;-0.12655921;0.51699513;-0.7781073;0.085219994;-1.7491512;0.0065949406;-0.6174865;0.014152856;-0.21763931;-0.06631281;0.033560347;-0.025669008;-0.03772648;0.28561032;0.0664963;0.07519773;-1.4375968;0.051728122;-0.20733747;-0.83288056;-0.097544946;-0.8774021;-0.107113756;-0.0050121313;-0.060394313;-0.09401404;-0.06942598;0.23159909;-0.121176586;0.015767409;-0.07161611;0.406269;-0.82102114;0.76083577;-0.13137631;-0.24291924;0.024670504;0.06285562;0.0077887406;-0.06416636;0.8704058;0.692245;0.021972554;0.65286326;0.47477174;-0.57317543;-0.026140217;-0.01115748;0.029672172;0.891519;-0.04254062;-0.07906244;0.017299354;-1.281742;0.06795928;-0.0061119217;0.012435404;0.045616347;0.22023502;-0.0055463314;0.02115297;-0.03673512;0.024909163;-0.0012656538;0.009000938;-0.4028414;0.006356575;-0.016058572;-0.03036271;-1.0531452;0.500282;0.009878933;-1.591307;0.0029766608;0.0029611608;-0.16130397;-0.07850229;-0.1513846;-0.14877172;0.031807594;0.0266071;-0.08056888;-0.74461347;-0.042182215;0.0806032;-0.023680203;-0.15404099;0.58508646;0.6212697;1.4127264;0.061864927;-0.017746955;-0.03989075;-0.08364324;-0.08691363;-0.8421267;0.028156219;-0.066679254;0.05375316;-0.043645903;-0.068484075;-0.86847717;-0.07561359;-0.034083292;-0.09088766;0.15930744;-0.25314403;-0.058541924;0.034047943;-0.014493285;-1.4179759;0.030879883;-0.006454619;0.04057446;-0.046557046;-0.045721848;-0.19077276;-0.052638292;0.019249748;-0.16033188;0.31426787;-0.051731467;-0.059693426;-0.14147776;-0.060512315;0.7311011;1.3224823;0.05023526;0.0165615;-0.15144739;-0.03333529;-0.80436444;-0.08117756;-0.66258365;-0.026509354;0.03081864;-0.057055615;0.0683844;0.021258056;-0.07359419;0.044098917;-0.036403354;-1.6340452;-0.054406933;-0.00066303345;0.00064432283;0.015338223;0.04790341;-0.083347045;-0.71878505;-0.16838191;-0.059483405;-0.07936464;-0.9607836;-0.27921605;-0.12435223;-0.034525227;-0.5609747;-0.74325037;1.8177186;-0.03926456;-0.00030109816;-0.020056648
-0.028799988;-0.25036585;0.048102923;0.59940976;-0.06913261;0.005405807;-0.59376633;-0.11278007;-0.29019547;0.04503658;-0.056315754;0.121039316;0.0059158574;0.0028517714;0.0041836114;0.013259304;-0.26491624;0.0399643;0.17527255;0.08591519;-0.028288905;0.022770235;-0.02070854;-0.015007439;-0.0595545;0.88140064;-0.077476956;0.06434918;-0.008578323;-0.48201796;0.030401435;-0.41768363;-0.012044141;-0.68599474;-0.046800245;-0.0030370182;-2.04053;-0.73301476;0.07677221;0.032140836;-0.052058764;-0.4383159;-0.7887811;-0.043530434;-0.7745329;-0.0007321032;-0.048637144;0.06611567;-0.012861287;0.46362606;-0.5457798;-0.0925397;-0.050606713;-0.48223063;-1.2014691;0.053233568;-0.029809834;-0.09135155;0.035649385;-0.03307413;0.16345704;0.11044915;-1.2212337;-0.031336423;0.06554578;-0.0847346;-0.038586617;0.2465418;-0.042826805;-0.08126231;-0.13736399;-1.0477855;-0.010328484;-0.024948262;-0.61321187;0.018847406;0.016387256;-0.28633463;0.6954876;-0.067522414;-0.10358639;-0.00835094;-1.4360788;0.57979965;0.017935123;-0.36190274;0.08935068;-0.020080825;0.072673984;0.038898643;-0.017714659;-0.026038868;0.040543605;0.08793361;-0.061473753;0.054194063;-0.08020056;-0.22970526;0.030352876;-0.035465546;0.012783239;0.76635534;-0.48302513;0.01243273;0.011897715;-0.67578655;0.029772699;0.013159864;-0.057355855;-0.046141773;-0.10023686;-0.01067861;0.45700723;1.097571;0.04316132;0.017467735;-0.10734186;0.048618175;-0.094187416;-0.7683953;-0.3745395;0.05495075;0.036215343;-0.05541853;0.036291763;-0.018731968;0.036564406;-0.09354667;0.041946556;-0.0925368;-0.00893227;-0.052646037;0.24885698;-0.43596;-0.15117134;-0.059901975;0.012591397;-0.28171414;0.34557757;0.034749247;0.58634716;-0.035813116;-0.014096785;-0.0065337685;0.003001047;0.3606986;0.08169781;0.058214158;0.085895345;0.045428857;-0.036999214;0.0716487;-0.06312043;0.035085436;0.86133325;-0.73961836;-0.534303;-0.19026001;-0.18348564;-0.055440143;0.045551986;0.027426856;-0.3058505;0.021278232;0.002440801;0.0028129092;0.067519255;-0.0728178;-0.7612416;-0.047765967;-0.05712961;0.09180089;-0.087675706;-0.024372004;0.015285534;0.040402405;0.044059306;0.0026496795;0.71767473;0.06094692;-0.01289824;-0.06751992;0.0008455369;-0.064741194;-0.27322394;0.0103936605;-0.07130185;-0.41915414;0.15891317;-0.052441277;0.6851807;-0.096224956;-0.28520256;-0.1508747;-0.026135886;-0.059829812;0.13257731;-1.4909613;0.501854;-0.22377999;0.02398591;-1.764225;-0.030894652;-0.7428875;-0.06082292;0.115158446;-0.14064583;-0.18228047;-0.08732761;-0.4726283;-0.530548;0.047707092;-0.033704415;-0.05267552;-0.07311446;-0.1136671;-0.06337643;0.09837234;-0.10328275;0.12883806;0.08751395;0.099116385;-0.08699392;-0.189217;-0.046748143;-0.0038739378;-0.9000328;-0.55466735;0.10600805;-0.040532984;-0.13983932;-1.3413452;0.018052286;0.3180582;0.019754786;0.053479694;-0.04625345;0.025290266;0.04423908;0.056639686;0.041703995;-0.79375327;0.42431316;-0.27024534;0.082570896;-0.06029514;-0.08159873;-0.39734;-0.7393608;-0.09616786;-0.11937951;0.04947438;-0.046657454;0.5075275;0.91976666;0.18493517;-0.16496336;-0.046600394;0.033018682;-0.0677673;0.08466115;0.0063678115;0.10174992;-0.05223272;0.051372495;0.03377496;-0.06688309;0.06269838;0.027555946;0.06493154;0.38710552;-0.27215898;0.014837559;0.018064791;0.61198974;-0.030675327;-0.8668805;-0.06313924;-0.34347945;0.036482085;-0.3836026;-0.23546295;-0.031454794;0.3475173;0.07139751;-0.1333353;0.07760631;-0.025820112;0.062723026;0.03005367;0.8807246;-0.028230632;0.0037948322;-0.040337566;0.069831744;-0.49865857;-0.25122818;-0.102298535;-0.073760524;0.122695714;-0.33313707;0.0031778982;-0.07746121;-0.21140863;0.3017506;0.024919638;-0.05786673;-0.053128075;-0.10927497;0.07258843;0.16289076;-0.2827012;-0.06273643;0.14871117;-0.05339696;-0.1134871;-0.87001806;0.08805715;-0.04244598;-0.13036287;0.0019802956;-0.0015457174;-0.044163413;-0.051347356;0.0058212928;0.03992195;0.009202326;-0.35193947;0.01282643;-0.24432558;0.089062646;0.010009562;0.038539685;-1.2431015;-0.4525352;-0.058373317;0.072846085;0.25551894;-0.60534847;0.049218167;0.07523066;-0.44170195;0.07754049;0.49615473;-0.1302069;0.010464627;-0.041774083;0.059664905;-0.035921473;0.011198606;0.86338073;-0.16982064;0.17168152;0.06790992;0.27145618;0.073717564;-0.32088572;-0.10640898;0.066897005;0.09598819;-0.62766767;1.2285258;0.085200876;-0.1560486;0.05502341;-0.06112189;-0.029208332;-0.024458861;0.094137564;-0.037022583;-0.009816138;0.30098146;0.029926576;0.055340465;-0.22751337;-1.1967251;0.013410658;-0.22837694;-0.025617363;0.075239524;0.032626923;0.066857666;0.02897194;0.0910207;-0.018637637;0.21342279;0.09712151;-0.031809803;-0.047815036;-0.041952543;0.7941474;-0.07767548;0.007963633;-0.079130106;-0.1846094;-0.4045162;0.05319124;0.021697467;-0.22022888;-0.09315318;0.068253435;-0.026468543;-0.39444032;0.021656444;-0.19335054;0.59286785;-0.36171064;-0.20138578;-0.10299146;0.056564204;-0.16813448;0.020918036;-0.14557545;0.03303596;-0.6761641;0.5043856;-0.041885972;0.09781416;0.03954676;-0.10741663;-0.07621719;0.31713575;-0.012840369;-0.0054864306;0.07460513;0.0041716457;-0.44731057;0.079297625;-0.04784828;-0.017416468;-0.18457308;-0.31260487;0.4008939;-0.05728882;0.10349751;-0.21390699;0.0024309768;0.09271839;0.055351768;-0.06738687;-1.4267616;-0.27133682;0.038898364;-0.4165922;0.15827811;-0.079700686;0.43534788;-0.34372124;-0.6546903;-0.042539775;0.10564388;0.0033625436;0.01960297;0.55199724;-0.37872526;0.07349202;0.4890005;0.48743913;-0.080298185;-0.030591851;0.0042067133;0.04788143;0.053209614;0.028115897;-0.030140132;-0.0534558;-0.99855936;0.088688746;-0.06077182;-0.098043576;-0.041938875;-0.8825707;0.0039514895;0.072451234;-0.11581149;0.0255908;0.014155616;-0.010176199;-0.35619095;-0.024208894;-0.0040442613;0.03177511;-0.4032734;-0.5462081;-0.02775113;0.06283669;-0.015638145;-0.06109755;0.025211219;-0.00096700166;-0.0069690556;-0.42981252;-0.077149555;-0.021387639;-0.01757218;-0.64105844;0.028481327;0.065125845;-0.08548831;-0.04199722;-0.23169635;-0.18839929;0.08173433;-0.0064806337;0.030288206;0.118630044;0.002431859;-0.18877536;-0.7231648;0.022867113;-0.08631467;0.08097182;-0.04559763;0.053455714;0.89714307;-0.09447366;-0.06156378;-0.0837387;0.029361121;0.09390949;-0.051589884;-0.061950818;0.039934408;-0.34035194;-0.038476057;-0.053186286;0.015220986;-0.0032989718;0.00037875512;0.6250486;0.076704234;0.059181094;0.24550767;-0.109558396;-0.16553861;0.02154104;0.008979908;-0.021165501;-0.488495;-0.6509075;-0.024787683;0.005296639;0.028946979;-0.10726542;-0.23123944;-0.005301864;-0.46482408;-0.047799822;-0.00857095;0.10072832;0.011057477;-0.035611242;-0.06900735;-0.08144586;-0.09308752;-1.8086399;-0.0028800587;-0.111422755;0.18171735;0.20280762;-0.060907654;0.009928327;-0.9241505;-0.42677182;-0.00596353;0.04070678;-0.5523454;-0.19705215;-0.04648798;-0.0837662;0.116986535;-0.556001;-0.52840495;-0.006730411;-0.07574572;-0.112271324
-0.08437669;-0.66812086;-0.06947227;0.42277172;-0.26053023;0.18909754;-0.30151808;0.20627621;-0.38199782;0.032820262;-0.05683532;-0.21793996;-0.025493683;0.025304034;-0.09887589;-0.10148762;0.18021145;-0.10335575;0.4095509;-0.023331683;-0.0022872034;0.50768566;-0.6708908;0.37102455;-0.049403004;0.0442956;0.21430565;-0.06354633;-0.6763063;-0.74073714;-0.08115153;-0.0075076013;-0.054544274;-0.09694999;0.19047117;0.16828045;-0.070030704;1.2901455;-0.06189809;-0.04543871;0.129778;-0.3528759;-0.8689653;-0.019714897;0.09271071;-0.0373417;0.05594336;-0.08966409;0.07265409;0.61778384;-0.57228017;-0.08838411;0.016824305;0.38728344;0.6055029;0.10395017;0.10323368;-0.10305712;0.0013262822;-0.12032754;-0.4048275;0.004406237;-0.22374347;-0.014449728;-0.06577997;-0.21119206;-0.015670454;0.29163167;0.0967757;0.15230416;-0.46642926;0.9934076;0.011672181;0.6683368;-0.1479496;-0.02313188;-0.057889815;-1.205339;-0.36204407;0.14610693;0.13828278;0.049427662;0.12929548;0.8567014;0.060858417;-0.41010454;-0.5385101;0.08872001;0.29962966;-0.07336583;0.23732029;-0.079077646;0.02957733;-0.7864594;0.051079564;-0.098647505;-0.43161783;0.28769723;0.024684986;-0.019157855;-0.05375634;0.19152269;0.33216715;-0.5068086;0.2471568;-0.17868207;0.06414216;-0.026350291;0.07282761;0.05955745;2.0659242;-0.033172026;-0.16849941;-1.1660777;0.05229649;0.07072074;-0.7284274;0.023052178;-0.04523144;-1.3055084;-0.67218703;0.04794696;-0.06636035;-0.012070493;0.35035723;0.040685922;0.012285918;-0.02270354;-0.17143564;-0.079265736;0.0135870455;-0.08240345;-0.3081857;-0.9441427;-0.21127518;-0.076187745;-0.0011322825;-0.062401164;0.20552444;0.34546185;-0.21721837;-0.036886673;0.080479026;0.04753413;0.021444473;0.56655675;-0.44900087;0.07028928;-0.067253664;-0.017025186;0.028949548;-0.021590699;0.030629579;-0.71491456;-1.0278194;-1.4394103;-0.30207396;-0.380962;0.33024323;-0.023764782;-0.07192659;0.16289511;-0.020577896;-0.024137637;0.019447254;0.05266984;-0.016219115;-0.21662724;-0.7382675;-0.03310542;0.1502146;0.72895443;0.057616048;0.029850354;-0.073864736;-0.059778675;0.020446721;0.097660966;-0.05879695;0.08058986;0.008570485;-0.23282501;-0.0725397;-0.07497694;-0.7041093;-0.14887607;-0.027457537;0.6701201;-0.823649;0.038777273;0.24140598;0.07426806;-0.9771871;-0.20865473;-0.10922063;-0.015795622;0.13128968;-0.424475;0.62471664;0.33844042;0.20817961;1.3725857;0.063758016;0.6412974;-0.0023209965;0.04808505;-0.8392386;-0.096006714;-0.018506212;-0.67105186;-1.3626531;0.0456372;0.31251305;-0.21466175;-0.33132958;-0.04233562;-0.0021868008;-0.06251634;-0.0062511084;0.09866327;0.035354204;0.55138755;-0.3153748;0.12131574;0.08509365;0.0032879743;-1.7791975;0.48558837;-0.41240153;-0.8585518;0.45263833;-0.3607255;0.15768145;-0.9200171;-0.05717753;-0.0023984266;0.03026947;0.06567141;-0.015707752;-0.122498326;-0.13831334;0.08608541;-1.1474391;-0.6449321;0.41708055;0.5578622;-0.016035428;-1.6075327;-1.4315993;-0.0043013687;0.035727408;0.21433996;-0.5474315;-1.0980773;0.19352347;-0.47126186;0.27738014;0.011111744;-0.028797993;-0.0021120366;-0.04316067;0.059791062;0.13568278;-0.035541844;-0.032440472;0.21205504;-0.14192718;-0.097910486;-0.029461278;0.047684334;-0.39341715;0.18229352;-0.04838282;0.08719191;0.8471951;0.109797694;-1.2411548;-0.31611437;-1.5743278;-0.028338451;0.20485903;-0.40604416;-0.057320096;-0.46568322;-0.07601448;-0.15842429;0.010087077;-0.056023296;0.047251232;0.06324738;1.2601284;0.07679621;-0.01437819;-0.045624323;-0.16554604;-1.1614513;-0.12803403;0.47335657;-0.7566205;0.5524031;-0.68639064;0.0020683284;-0.002792131;0.041667853;0.21965894;-0.025651945;0.3869295;0.008855483;-1.0904001;-0.01953858;-0.11258524;-1.0967841;-0.050858624;-0.09494295;-0.06189503;0.016784368;0.24403161;0.67501014;0.046015274;-0.832089;-0.020045456;0.055191778;0.00052777986;-0.055600077;0.051559377;-0.036525644;-0.011042211;-0.098011605;0.006418585;-0.3680383;-0.9642328;0.7556507;-0.012539624;-0.20629174;-0.63942343;-0.06352154;-0.022646185;-0.57354784;-1.4039637;-0.15984263;-0.6535028;-0.5535363;-0.04548426;-0.48158062;0.28898078;-0.1078004;-0.07104072;-0.053953435;-0.009050502;0.062421195;-1.2469226;0.39679334;0.0678002;0.059090655;0.060533736;0.62223005;-0.7125408;0.038057562;-0.009405889;-1.0231658;-0.5099447;0.57871866;-0.03605401;-0.7163951;0.04310798;-0.056810193;0.02214448;-0.028338592;-0.10678919;-0.026169114;-0.06734165;0.13109227;-0.053685352;-0.01132473;0.23519099;-0.2973247;-1.6045674;-0.73053116;-0.020088827;-0.031895183;0.37939653;-0.23273072;-0.40092787;0.019785754;-0.064682834;0.8595897;0.0049118195;-0.067146726;0.053645696;0.029727101;-1.2042819;0.049366374;-0.0030541231;-0.03944731;-0.2716105;-0.91230035;0.076270826;-0.025506854;-1.0276567;0.021674134;0.01776189;0.020244503;0.17539576;0.004184906;0.9920031;-0.3738237;-0.54384506;-0.3137397;0.015914751;-0.034861084;-1.3680286;-0.08195771;0.44898403;-0.29249966;1.0552711;0.3193663;-0.17344213;-1.0481056;0.07543705;-0.62273127;0.13146958;-0.5670917;0.11465476;0.019295815;0.013032171;0.04695167;-0.29205215;-0.14138383;0.06423444;0.6812129;0.22554739;0.089516856;-0.1918326;-0.005350364;-0.7267784;-0.27697238;-0.084591664;0.044001915;0.0050926236;-0.010685586;-0.96577585;-0.43981695;-0.058028907;-0.81673306;0.15452081;0.836381;-2.0537434;-0.5941328;-0.10576704;0.0641748;-0.07714737;0.04902701;-0.016671695;-0.030926445;-1.4863904;-0.11480454;-0.31797308;-0.39209482;1.4399161;-0.049547084;0.02225579;0.013552252;0.07225704;-0.014928543;0.43384528;-0.06863345;0.04439554;-0.027771926;-0.014768509;-0.2569511;-0.05646213;-1.2035935;0.05039193;-0.013461413;0.05242298;0.04099207;-0.029605323;0.011901445;0.42135343;0.02476055;0.07070133;0.016904002;-0.9782607;-1.7039104;-0.07132379;-0.26593107;0.04826314;-0.0403065;0.6051865;-0.002363032;0.33564696;-0.731594;0.049977303;0.13891318;0.47806603;0.5589361;0.027225932;-0.104018144;-0.030072182;-0.07154149;-0.07337885;-0.45434573;-1.0762974;-0.19519527;-0.034444876;-0.045374107;-0.06169089;-0.2405051;-0.77944124;0.015152511;-0.13185254;-0.027568169;0.034162898;0.013622717;1.3453029;-0.118283056;-0.185514;0.060133316;-0.16946724;-0.44607833;0.07292587;-0.055573873;-0.017627355;-0.7827851;0.24274683;-0.063120894;-0.0095858;0.05630682;0.07391551;0.15585586;-0.070407994;0.044649754;-0.77550405;-0.45668665;-0.29414645;0.5185196;0.31219238;0.021516427;-0.7783411;-0.27743942;0.06102679;-0.00554654;0.476094;-0.07189552;-0.22756177;-0.07475385;-0.38826936;-0.003425739;0.062321767;0.009609954;-0.049112815;0.016886123;-0.08091853;-0.19759896;0.018358363;-1.2857293;-0.008010719;0.07695788;-0.105944484;0.6054138;0.30625126;0.033892646;-0.6961917;-0.22122397;0.069697745;0.120536104;-0.040124755;0.67869;0.15917127;0.026795091;0.49134624;0.38436803;0.18899152;0.06340281;0.03495597;0.07066912
-0.05698172;-0.40314484;0.01543126;0.39045268;-0.0288516;0.17954808;-0.52930266;-0.0735602;-0.48503497;-0.16467632;-0.013333638;0.055614118;-0.09446311;0.021397822;0.09514242;0.1590834;0.7439614;0.094573826;-0.04150904;-0.2060846;-0.013020631;-0.08877718;0.15407647;0.23679565;-0.110827066;0.22770879;0.15618871;-0.05842278;-0.8021332;-0.4268875;-0.12617017;0.3533761;-0.09524193;-0.7284036;0.052290697;0.110535905;-0.9756246;0.67363834;-0.07892069;-0.04431769;0.18000585;-1.0972625;-0.9955788;-0.013577031;-0.21380852;0.035029616;-0.024826631;-0.1584339;-0.038328066;0.32807237;-0.30279347;0.091245696;0.08204414;-1.1453964;0.5309319;0.10020938;0.14431967;0.099775046;-0.10197643;-0.0143132135;-0.26825115;-0.07897322;-0.26226518;0.11505247;-0.044737663;-0.17749713;0.06529302;-0.21951768;-0.09270942;0.22432561;-0.46376744;1.1435307;-0.06994471;0.72164816;-0.36811602;0.10409888;0.12456247;-0.61285245;0.03283372;0.104158506;0.18326825;0.037816487;1.0013655;0.96584916;-0.07962185;-0.323557;-0.038738593;-0.011088549;0.24952754;0.08471786;0.14106065;-0.001161387;-0.046892177;-0.117717244;-0.034091186;-0.16670404;0.3092948;0.076879814;0.1187774;0.02571138;-0.026851224;0.28281265;0.6907468;-0.2909176;0.190975;-1.5282468;0.19686866;0.040306445;-0.043340288;0.20020714;-0.0010409338;-0.0025790078;0.0964499;-0.4997509;-0.0062843827;-0.07722082;-0.5962377;0.09050965;-0.026200227;-0.5720045;1.6718906;-0.1423987;0.09545125;-0.25907868;0.19870342;-0.01854895;-0.035024107;0.123318344;0.03587705;0.1501124;-0.114248;-0.07545034;0.14510131;-0.16256283;-1.2247548;-0.13513994;-0.033594694;-0.049324058;0.6051806;1.5067745;0.6168021;0.08465815;-0.039443824;-0.053401057;-0.07538866;0.11431246;-0.00175725;-0.10635015;-0.037255142;0.1143194;0.001103005;-0.10865379;0.106594756;-0.11969914;1.2591138;-1.0515351;0.12277005;-0.081234455;-0.14916381;-0.08520584;-0.027754754;0.27608696;-0.26937285;0.13462617;-0.18459924;-0.051200543;-0.18909143;0.1867723;-0.79349035;0.013636674;0.12604319;1.2388405;0.041364312;0.04801075;-0.08159229;-0.02775394;0.16025366;-0.09458799;0.51117593;-0.030451443;-0.0131337745;-0.17004614;-0.056644715;0.053775165;-0.4102725;0.004634807;-0.03948277;0.41829237;0.305708;0.18891998;0.6368718;0.04845878;-0.19677284;-0.17695789;0.011792342;-0.05939643;0.1282834;-0.27483332;0.6843139;0.2583727;0.09176662;0.15765896;0.05522825;0.24835368;0.10502967;-0.056383397;0.11410836;0.29823995;0.059235718;0.06390935;-0.63016915;0.0032503884;0.26209685;0.44345444;0.17033514;0.030040033;-0.017107934;-0.024375828;0.08978557;-0.35136706;-0.07367361;0.34890062;-0.13733414;0.17154396;0.19518873;0.18301788;-0.8381881;0.7370062;0.60772055;-0.7290513;-0.14289951;-0.60467666;-0.9155827;0.18561189;-0.013010024;0.02628031;0.13436703;0.048963416;-0.08272777;-0.22340102;-0.03522015;0.49669254;-0.2164087;-0.45640293;0.21772511;0.2943793;0.12970893;0.5985722;-0.8450898;0.20286785;0.10324679;0.22339208;-0.26302773;-0.051130395;1.1654632;0.14200598;1.105369;0.12335053;-0.08237043;0.06917889;-0.09720106;0.03472285;0.19110757;-0.034892444;-0.030959796;0.23707633;0.11774272;-0.039249387;0.0289992;0.007548576;-0.30611977;0.45500004;0.02505457;0.10834548;0.38835222;0.08706758;-0.001386631;-0.28819352;-0.31674898;-0.061715197;0.9168407;-0.23082656;-0.013269535;-0.28378788;0.070245825;0.19018322;-0.1192035;0.0075552138;-0.10105454;0.14415418;-1.5929552;-0.033598203;-0.03239782;0.0011251317;-0.29029748;-1.0324134;-0.70293134;0.31745523;0.5175537;-0.11023084;-0.2660269;-0.076916836;-0.0041825618;0.044249658;-0.36606592;0.115900345;-0.0504339;-0.08557198;-0.914409;-0.10583903;-0.34093583;0.029675072;0.0518802;-0.537933;-0.032144323;0.1200212;0.4309869;0.52118677;0.047003087;-1.956586;-0.0067669796;-0.06473644;0.05042895;0.07917809;0.16032773;-0.14491136;0.0058305785;-0.4640925;-0.045927346;-0.43496117;0.6643723;-0.24656984;-0.11359345;-0.4251245;-1.7609717;-0.03650857;0.0007775199;0.093638614;0.12545352;-0.045185275;-0.45536247;-0.35210547;-0.58043134;1.4515098;0.03470489;-0.028967572;-0.21642293;-0.18877253;-0.018179916;0.09522763;-0.36755738;0.46216083;-0.5934851;0.048187274;0.039438814;0.33181438;-0.354976;0.12541218;-0.006090828;-0.93877614;0.029646201;-0.09390213;-0.013552192;-0.68026817;-0.037002537;0.028310005;-0.0035391666;0.05881556;-0.17346124;0.099466495;-0.06642925;0.014313591;0.010304288;-0.08564444;0.22003955;-0.3427361;-0.15508185;-0.13455744;0.046373624;-0.04124683;0.12256352;-0.24979831;-0.42278042;0.100796014;-0.028317844;0.13043848;-0.12119202;0.028964158;0.028600346;-0.035331972;-0.22990146;0.15850316;-0.015785858;-0.02403094;-0.17246655;-0.4886436;0.10686116;-0.15894103;-0.088718556;0.00024626532;0.02029073;0.042674635;0.2719652;-0.17953044;0.1814463;-0.4235439;-0.23726279;-0.47339934;0.10220259;-0.069897346;-1.0534278;-0.07697449;-0.96608174;-0.2987187;0.8036159;-0.26976407;0.24069217;0.34361875;-0.036441963;0.060559887;0.31422126;0.0033180371;-0.0004130478;0.10663365;-0.02001169;-0.065819174;-0.6180897;-0.088650756;-0.010856652;-0.959304;0.00011272221;0.22116517;0.6900203;0.18274222;0.43044087;-0.14939478;-0.087480426;-0.12945658;-0.083494924;0.06571323;-0.84992707;-0.19762878;-0.09211988;-0.33210897;-0.12816551;-0.88921744;-0.54926515;-1.4042159;-1.9026185;-0.11389023;-0.07214411;0.0002338382;-0.11711691;0.947635;-0.568562;0.019431867;0.063174754;0.15801014;-0.689402;0.049665432;0.0004893062;0.07845241;0.5590591;-0.105764836;0.28581282;0.071231246;-0.3622913;-0.02172352;-0.14414763;-0.21801017;-0.15033501;-1.0182284;-0.016898684;-0.082706876;0.08264884;-0.02454695;-0.119535476;-0.13399316;-0.383497;-0.074876465;-0.0953447;0.03398111;0.30630538;-1.2039993;-0.04574881;-0.8216882;-0.08141823;-0.06524387;0.3069435;0.1743256;0.3148529;-0.34232965;0.14863701;0.13198467;0.39663297;0.86712736;-0.05983797;-0.16617316;0.014478303;0.23228443;0.706844;0.8513718;-0.5149902;-0.07857083;-0.057655018;-0.12497891;0.05901189;-0.102385774;1.3794492;-0.14663804;-0.035621516;-0.03847543;0.0394482;-0.089933224;-1.6159902;-0.0941225;-0.23243831;-0.0028617918;-0.12739114;-0.36222538;-0.07427864;0.061111018;-0.10946349;-0.26705363;-0.054904576;-0.1437056;0.0097734835;0.1082579;-0.065861486;-0.22964269;-0.047102034;-0.086245775;-0.22015944;-0.6499366;-0.1067688;0.39402696;0.27027026;-0.08521996;-1.0261998;1.1458092;-0.0336441;0.097948946;0.39592364;-0.105131805;-0.03284613;0.011879474;-0.15551844;0.055478234;0.18208188;-0.109749235;0.039553408;0.048796806;-0.106309794;-0.15323886;-0.055326942;0.8823525;0.0563227;0.15970297;-0.09198863;0.2705036;0.015488447;0.18371078;-0.55096257;0.060580675;0.20098665;0.17770107;-0.43933252;0.14955719;0.15477388;-0.038329724;0.023362732;0.6668696;-0.08455776;-0.09840325;-0.0093795825;0.018592136
-0.031017242;-0.4562451;-0.06460539;-1.6966183;-0.014646103;0.007824071;-0.91832244;-0.19479077;0.15861289;0.0131360395;0.08804962;-0.2832443;0.021020446;0.051786423;-0.079670735;0.081023574;0.22392206;-0.22282316;-0.14478686;0.03724831;0.028202366;-0.12213954;-0.014189259;0.23132211;0.021763287;-0.5207698;0.17974639;-0.079001956;-0.6496501;-0.54954076;0.07514286;-0.3489204;-0.015003848;-2.3576903;-0.11572087;0.20255442;-0.45111766;-0.841481;0.018614145;0.039592046;0.14598013;-1.2095304;-1.2082205;-0.06659525;0.055705495;0.001270764;-0.036942896;0.22531255;-0.087683976;-0.11406672;-0.6570672;0.12053908;0.033791687;0.67968786;-0.46581933;0.07238242;0.081405476;-0.03277637;-0.088383175;-0.06790114;-0.58574617;0.012689371;-1.7159928;-0.07732309;-0.03534324;-0.22242491;-0.056342646;0.47822127;-0.12507285;0.14470324;-0.31643614;0.88699096;-0.07032402;0.4046703;-0.1494594;-0.102369025;0.036180016;-0.64110875;-0.1918647;0.08429808;0.13881221;0.007771351;-2.3274772;0.29142484;-0.035659336;-0.17553225;-0.07360688;0.03797412;0.3798297;0.041710418;0.16261162;-0.040381223;-0.015913766;-0.53433853;0.009074617;0.117930554;0.471086;-0.17051531;0.01535352;0.03731137;0.052722435;-0.8815493;0.22827014;-0.20216501;0.1250958;-0.84709656;-0.10247766;0.04729284;-0.07242022;0.0015902251;-0.083224565;0.03480005;-0.5065036;-1.1800594;-0.050888732;-0.06229195;0.11693014;0.0495861;0.019349543;-0.5092535;-0.36829636;0.007830003;-0.021028979;-0.040108066;0.28745502;0.049192347;-0.07836732;-0.094837695;0.02625334;-0.04008143;0.056797605;0.032497954;0.0647498;0.081800185;-0.59485304;0.023880184;-0.08996593;-0.09744453;-0.2309278;-0.39362314;0.61757624;0.011212278;0.084025;0.03061166;0.08663574;0.3001642;-0.67356294;0.00330762;0.0566013;0.025071329;0.057397936;0.015297107;-0.07690085;-1.6559976;-0.2563308;-0.75324833;0.036828276;-0.29012826;0.047288932;-0.048646454;-0.07397707;0.036643606;-0.9730005;-0.119214475;0.053914648;0.05125208;-0.080697075;0.041647956;-0.4114672;0.04773329;-0.06587105;-1.4937525;-0.042051382;0.057815358;-0.100554764;0.030416861;-0.009813379;0.06538153;-0.02447676;-0.012746144;-0.09763539;-0.07947843;-0.026612325;0.0018496776;-0.53609765;-0.09289198;-0.08993234;0.31526572;-0.7392354;0.02804079;1.0244472;0.022857388;0.15757464;-0.087189846;-0.051865567;-0.041532643;0.028951926;-0.7447938;0.5284312;0.0737934;0.02639132;-0.49877962;-0.06838807;0.30737793;0.054021243;0.0038731424;-0.27089417;-0.16956131;0.034436397;-0.23983663;-0.6639607;0.03954102;0.23980713;0.11808199;0.11354826;-0.036579307;0.06432987;0.028941352;-0.080401696;0.1677674;0.043301973;0.52042836;-0.3104713;0.22509025;-0.055389993;0.033938505;-0.1503825;0.9698235;0.7643596;-0.7435049;-0.052328184;-1.2989613;-0.21406278;0.5835272;-0.014050208;-0.015980175;-0.092871286;-0.0516938;-0.041319024;-0.055022944;0.07351064;0.10173848;-0.19178529;-0.5622387;0.33759293;0.5055413;-0.016537767;-0.9770024;-0.25250623;0.059271324;0.036479324;0.13953635;-0.69000316;-0.7287323;-0.17895144;0.018182911;0.92203784;-0.012276268;0.034964293;-0.01373058;0.040638633;-0.04003193;0.023304319;-0.029753182;-0.06096691;0.23674923;-0.13294816;-0.08373173;-0.004240322;-0.034209806;-0.8838772;0.290424;-0.036109433;0.042193867;0.6437753;-0.11873134;-0.48209852;-0.3540961;-0.15608765;0.04394024;0.19789526;-0.34960213;-0.021953749;-0.7764963;-0.027239254;0.074122906;-0.06142111;-0.009133249;0.0027423198;0.02407516;-1.8190027;-0.050642718;-0.043550406;-0.07008382;0.048854183;-0.45056334;-1.1269679;0.44185248;0.22084637;-0.027146606;-0.48107246;-0.019937731;-0.012689529;0.22294536;-0.6117329;-0.07396551;0.10918713;0.005794848;-0.50012964;-0.018633239;0.13775061;0.030574799;0.06447279;0.060705405;-0.9073092;-0.072506346;0.4592652;0.8917273;0.008934917;-0.692002;-0.039389636;-0.064915866;-0.00077773933;0.042980354;0.091141865;-0.009349513;-0.060594037;-0.70828503;0.0012537821;0.39223823;-1.0687078;-0.49822462;0.05634361;-0.29983917;-0.9137714;0.05208513;0.05562983;-0.4270313;-1.1650245;0.08685668;-0.28267205;0.31482753;-0.33209214;-0.44700006;-0.10710003;0.015697554;0.041718643;0.018079598;-0.07267609;0.08028866;-2.4117079;0.670923;-0.26878026;0.17048599;1.4246829;0.5226501;-0.6501874;-0.064405814;0.028977511;0.048723947;-0.10469391;-1.3339064;0.14115582;-0.016250437;0.04996928;-0.077528566;0.009310197;-0.07198604;-0.013432276;-0.010597478;-0.052449286;1.3057003;-0.024214042;-0.036363635;0.091776595;-0.729698;-0.7949296;0.2514116;-0.011334252;0.031727504;-0.15667507;0.0017986861;0.011494625;-0.0032252644;0.05714366;-0.29397812;0.0074674436;-0.11059499;-0.009993995;-0.062995486;-0.4282837;-0.105743475;0.028466173;0.05621396;-0.19320486;-0.41850376;0.018120276;0.014882119;-0.26955038;-0.03403905;0.15954466;0.07735643;-0.013368791;-0.11969209;0.15041116;0.8009186;-0.47913954;0.73256665;-0.0829872;0.04120702;-0.9493632;0.06103222;-1.0672207;-0.33970967;-0.38675907;-0.35428724;0.10653524;-0.4396877;-0.020759849;-1.0577978;0.34322113;0.16375497;-0.044712134;-0.03166535;0.010588136;-0.027563484;0.2639973;-0.032899346;0.03990113;0.3900414;0.05354921;-0.014052251;0.1456161;0.042077985;-0.076440044;-0.2504119;0.05055993;0.03735839;-0.05143446;-0.044368222;-1.0486249;-0.2611457;-0.0055082953;-0.6372795;0.38607106;0.7755663;-0.17978065;0.15958983;-1.4818631;0.06002672;0.049549002;-0.048607532;0.016020793;-0.3754917;1.3818427;-0.016189136;-1.0609952;0.0152909765;-0.9211231;-0.025995698;-0.0449733;-0.0735802;0.966664;-0.08859113;0.4120602;0.014565039;-2.0091536;0.055903554;0.00079512305;-0.2523013;0.051357172;-0.75456333;0.036848944;-0.06260085;0.045794725;0.023230761;0.0060902215;0.11176569;0.06604462;-0.070235275;-0.029880472;0.02747977;0.038206168;-1.5016001;0.039642807;-0.20381503;0.010460302;0.06922862;0.5657976;0.0005700559;0.33969238;-0.58044416;-0.07444102;-0.06710157;0.4989372;1.4293935;-0.03549649;-0.042540547;0.021887502;-0.2661901;0.2775081;0.8719184;-0.32553682;-0.17279632;-0.063872546;0.03981489;-0.075310044;-0.23650165;0.5916711;-0.021086887;-0.123820335;-0.037856355;-0.005889515;0.023211535;-2.2223544;-0.08343397;-0.029834487;-0.0069405963;0.04007886;-0.9543559;0.01929939;-0.015376163;-0.036898363;-0.09453725;0.009896072;0.034090847;0.06789896;-0.026455317;-0.050638117;-0.3522846;-0.0030921968;-0.032512497;-0.8169841;-0.18532678;-0.15495452;0.5802385;0.2514675;0.012369193;-1.0797416;-0.56894094;-0.0016415025;-0.023057869;0.39995584;-0.1219761;-0.4560894;-0.026963132;-0.47197825;-0.052759554;0.0036303268;0.008633705;0.004424648;0.04565482;0.009494689;-0.059940763;0.049357265;-0.8650207;0.035670746;-0.06897386;-0.0902101;0.5948468;-0.0431339;0.009803687;0.19702819;-0.13175356;0.013238358;-0.08343098;-0.4684198;0.1820918;0.118167035;-0.06915757;0.064721905;0.9027197;-0.8234126;-0.052504964;-0.05645248;0.038049694
-0.07355643;-0.32732183;-0.057735454;-0.74373704;-0.3000895;0.14375839;-0.11025415;-0.0072383634;-0.0870395;0.038561527;-0.028798806;0.15878245;-0.027104048;0.034658674;0.011646501;0.12478086;0.6918435;-0.44527325;-0.08091751;-0.16052903;-0.073967956;-0.05992255;-0.02743121;0.30533677;-0.108578265;-0.38634658;0.17396717;-0.06947883;0.3109036;-0.38826624;-0.01207506;-0.99947596;-0.032017227;-1.3720567;0.007986823;0.2894876;-0.2563747;-0.6112781;-0.014846116;-0.08380652;0.13338266;-2.2993867;-1.5000703;-0.014741632;0.1757722;0.05451221;-0.0037979567;-0.48699737;0.042450625;-0.891471;-0.29983017;-0.12981889;0.009616205;-0.66807187;0.29245058;0.13637833;0.07160968;0.0135264285;-0.053094402;0.054399345;-0.70372015;-0.06389317;0.1473383;0.02532636;-0.017718129;-0.07576295;0.07009066;-0.07235754;0.05646461;0.2260525;-0.36072302;-1.1496651;-0.03025348;0.15982094;0.1563514;0.109868065;-0.025058717;-0.39431483;-0.7024858;0.0789544;0.2250713;0.044887975;-0.24835712;0.38128674;-0.034152694;-0.051038064;0.011243092;-0.00054418243;0.28261492;-0.003958397;0.1470344;0.033082977;0.04273248;-0.3135904;-0.035392076;-0.17358433;0.4295031;0.045613937;0.09366574;-0.07825565;0.0027634574;0.26406425;-0.19930288;-0.17543505;0.14726219;-0.68265074;0.12411124;-0.065064825;-0.043715328;0.016227193;-0.10797225;-0.06738909;-0.19886497;0.6509821;0.07620382;-0.072063506;0.6303344;-0.07333897;0.027129043;-0.08409423;-1.7836249;0.03627407;-0.0028611773;-0.20652013;0.26059753;-0.115208864;-0.019188663;0.06790447;0.060328666;0.023734555;0.0034700236;0.0049609425;-0.20689164;-0.07629399;-1.0102806;-0.03629209;-0.077374056;0.04844028;-0.1419616;-0.6131992;0.34401;-0.051062282;-0.03234189;-0.017155485;-0.0573381;0.32217944;0.4033891;-0.00037150038;-0.08402933;-0.052281436;-0.07811023;-0.011961585;0.03578395;-0.14266317;0.29928738;-0.28126;1.5472702;-0.2883154;0.065890215;0.014453545;0.038621966;0.10785478;0.3832668;0.07035895;0.011481855;-0.049744595;-0.065692805;0.049265593;-0.5317296;-0.05419338;-0.027071519;-0.48727036;-0.039264522;0.009726021;0.025006887;-0.0063329814;0.16141723;-0.1483156;0.43130475;0.0589524;-0.023895506;-0.045806326;-0.046705544;-0.038209055;-0.41307917;-0.029689908;0.013267901;0.21874495;-0.40063798;0.12496651;-0.47085118;-0.037829164;-0.041797593;-0.16182438;-0.102418564;-0.05294843;-0.15220176;0.2120531;0.25544047;0.06823193;0.16984345;-0.7453506;-0.011407729;0.01052827;0.08829708;-0.0021676517;1.1331177;-0.06724871;0.08029632;-0.58838403;-0.6418496;0.02714726;0.19793765;-0.9508239;-0.12343928;-0.050964452;0.02276639;0.051103454;0.024125801;-0.2548879;-0.13135289;0.3997914;-0.14852488;0.5371457;0.069018684;0.10799724;-0.19820018;0.28173137;0.99702233;0.2674725;-0.15021001;-0.6426613;-0.44467497;-0.68082714;-0.04533496;-0.0013589474;0.13292155;-0.031907666;-0.060277864;-0.08499798;0.010753375;0.1781292;0.18905073;-0.41907537;0.38846502;0.42346683;-0.046842422;-1.3835164;-1.0087178;0.035590447;-0.06738184;0.06375959;-0.39985207;-0.70348096;-1.3004655;-0.26515037;-0.02332785;0.035990424;-0.01229209;-0.0044271755;-0.023977274;-0.08437415;0.023708476;0.05497036;-0.03233326;0.25881648;0.032406278;-0.08431363;0.04886367;0.059576035;-0.2375744;-0.65265185;-0.0131712835;0.023347868;0.43510118;0.031791914;-0.7897597;-0.39505813;0.3873309;0.04493302;-0.20104611;-0.15112714;-0.021919409;-0.90177083;-0.08135376;0.15062723;-0.07813969;-0.036479387;-0.08139306;0.021895073;-2.649006;0.025595447;-0.06044709;-0.023408378;-0.14943926;-0.7753736;-0.439146;-0.054175943;0.003399183;-0.033199005;-0.39896846;-0.025403561;0.047021434;0.0070490343;0.42756826;-0.009074491;0.52842283;0.07008359;-0.0021345434;0.021009458;0.108384565;0.23413141;0.07631334;0.24580453;-0.56233454;-0.003077793;0.06638512;-0.1520721;0.039572462;-0.8428603;-0.0005536695;-0.003165958;0.08244579;-0.036878895;0.14713067;-0.07421776;0.0067179594;-0.4116467;-0.08530958;0.057775117;-1.8134593;0.2224128;-0.0233131;1.1582338;0.20468813;-0.08082317;-0.027727855;-0.20574386;-0.008497028;0.1710401;0.6585799;0.8075999;-0.30216536;-0.5010907;-0.016061764;-0.01178818;-0.041928336;-0.111685716;0.056683924;0.095871925;0.238164;0.37401873;-0.03706063;0.09550678;-0.24787591;0.45814076;-0.4055824;0.00430442;-0.09206192;-0.53642267;-0.09909717;0.47179204;0.061943814;-1.3801194;0.019838413;0.079930924;0.03611399;-0.018524047;-0.084621936;0.07901073;-0.041838545;0.18471923;-0.051268205;0.06741513;-0.061405834;-0.27195567;-1.4738475;0.54646355;-0.04273507;0.014229837;-0.023915835;-0.22974657;0.47904253;0.02049581;0.033273738;0.115948305;-0.04366837;0.089957386;0.068493575;-0.058398154;0.20396203;-0.05120398;-0.055160016;0.009442571;-0.0984969;-0.27597207;0.15353917;-0.046303205;-0.1707337;0.022334686;0.50261086;-0.061526712;0.37676245;-0.22629249;-0.18297906;0.7240615;-0.1820511;-0.40345803;0.054203194;-0.058825247;-1.0742686;-0.06637205;-0.6357173;-0.23278216;-0.5692499;0.35852554;0.1548628;-0.4154763;0.030935915;-1.5912015;-0.08835338;0.6132178;0.07356428;0.065003954;-0.074788176;0.058768824;-1.2920191;0.02557261;-0.00018225332;0.020313272;0.21650855;-0.02314709;-0.47920218;0.094413035;0.4160981;-0.26973313;-0.07759488;-0.00015534184;0.029381154;-0.07340472;-1.5957174;-0.14864026;-0.041367333;-0.33041948;-0.05992372;0.13160343;0.49752215;-0.43332762;0.24451017;-0.011580398;-0.07532438;-0.037616093;-0.008623431;0.07194835;0.8025123;-0.020213645;-0.30885842;0.014171291;0.4972034;-0.04014215;-0.025198516;-0.015245774;0.38914946;-0.01897212;0.3389959;-0.065422304;-0.47530445;-0.03584681;-0.13881116;-0.2146973;-0.095326275;-1.0102596;-0.07362633;-0.075063705;-0.032802593;-0.045757998;-0.080884814;-0.11150917;0.17004997;0.010683825;-0.052603513;0.034802776;-0.47288844;0.24265078;0.017517248;0.036223594;0.025051987;0.074537374;0.49409327;0.027759738;0.36716825;-0.4310424;-0.03266488;0.027899481;0.397188;-0.10129925;0.028993001;0.0216301;-0.10335318;0.30976656;0.5585411;0.8036818;0.4595423;-0.10312927;0.03284807;-0.060774926;-0.05994439;-0.20207554;1.0401623;0.01105437;-0.042242937;0.020773532;0.0372856;0.064829834;-0.32178345;-0.13250923;-0.14643246;-0.028007746;-0.18463585;-0.38699102;0.04777906;0.023649545;-0.08692443;-0.30107528;-0.04525014;0.0028988356;-0.01594573;0.10730384;-0.009743302;0.5765234;-0.09020169;-0.04484958;-0.08981293;-0.17249224;-0.087042734;0.35779458;0.29342553;-0.0052733216;-0.0617041;-0.63251376;-0.06810332;0.07318376;0.2959303;-0.08624705;-0.33138058;-0.053195357;-0.17176118;-0.055478822;0.13962416;0.017501717;-0.026404502;-0.016494673;0.012334755;-0.21634191;0.006547396;-0.85359913;0.076817684;0.07579218;0.55818594;0.63902134;0.052877527;0.10170073;-2.7806997;0.27075323;0.10231109;0.15981625;-0.2592745;0.06545648;0.19906588;-0.0143683525;-0.79577434;0.232902;0.34121788;-0.0697303;0.06038932;0.034758322
0.013769721;-0.4915408;0.041338194;0.21684843;-0.18193655;0.11801243;-0.7547819;-0.014218383;-0.0006875765;-0.055291146;-0.0010663171;-0.5191329;-0.061188772;-0.11240173;-0.017045321;0.18239579;-0.20920259;-0.34583035;-0.17898567;-0.009894259;0.004956992;0.03181882;0.21648726;0.24252374;-0.07799514;0.53079015;0.1421237;-0.13550746;-0.4724962;-0.5123084;-0.099575065;-0.1251866;0.03155671;0.681215;-0.0913085;0.2228274;0.00027618554;0.093750976;0.034851108;0.016032899;0.18819933;-0.21144605;-1.3422596;-0.13118117;-0.021142093;-0.06916868;-0.042781323;0.65293187;-0.15985471;-0.7156999;-0.5494736;-0.2345742;0.0011341622;0.33753577;0.0020604932;0.029938765;0.0898115;0.01213014;-0.1010093;-0.056769524;0.3042671;-0.068838455;0.1362912;-0.013800983;0.046838928;-0.24439351;0.04401502;-0.2521995;-0.108699225;0.12303188;-0.14080712;0.20939977;-0.106323116;0.35536078;-0.09914502;0.03440375;0.010302421;-0.6241655;0.6140631;0.10361948;0.08673879;0.020265307;0.68606067;-0.8052822;0.014064016;-0.15773088;0.15312223;-0.004731388;0.2565084;-0.043497276;0.21866983;0.00476987;-0.07263816;-0.55371493;-0.008223342;-0.009756706;1.350441;0.013899902;0.11538588;-0.10492811;-0.063221395;0.3729994;-0.2722873;0.020126473;0.10193575;0.13599414;-0.01883192;0.017004905;-0.082542785;0.005188726;0.55147886;-0.09993608;-0.012461975;0.9457282;-0.03125529;-0.060057193;0.32133067;0.05572182;-0.14056638;-0.24612059;-0.42940006;-0.090924315;-0.015350862;-0.12835626;0.16960168;0.008964751;-0.06808147;-0.025841389;0.22100487;0.102699965;0.046033937;-0.04672808;-0.7760452;0.1538132;-0.3178013;-0.16594897;-0.0406705;0.04499307;0.17493346;0.1358238;0.90676147;-0.04301377;0.14363134;-0.012279656;-0.048227288;0.4566267;0.00741876;-0.0136497505;0.005434182;0.10105668;-0.043345384;-0.07605079;0.02372149;-0.7706613;-0.018975388;-1.6727569;-0.6859374;-0.08965087;-0.01466258;0.021394763;-0.05307282;0.08830826;-0.4466008;0.110376336;-0.09691673;-0.052951973;-0.0013982133;0.13553837;-0.72543657;-0.026811361;0.055329263;0.54342;-0.018526113;0.08762115;-0.05137336;-0.024734793;0.03194997;0.019655613;0.20656842;-0.0455652;-0.047774315;-0.13839376;0.028476251;0.024285719;-0.39572853;0.021925949;-0.11896302;0.45611143;0.20330463;-0.022698678;-1.1930299;0.065215945;-0.10972803;-0.17069343;-0.09655409;-0.13077264;0.16734312;1.3366004;0.45626977;-0.037868;0.054676834;-1.021751;-0.066464044;-0.24479556;0.045599915;-0.109072074;-0.11625598;-0.03543819;0.06495458;-0.28707394;0.24179848;-0.07795832;0.19803531;-0.5113645;0.061268523;-0.035067197;0.017443867;-0.07606311;0.018616691;-0.27185404;0.014355082;0.21597414;-0.33035418;0.23513427;0.09956652;0.09753501;0.43762416;0.5304148;-0.60595125;0.5625276;-0.12398945;-0.43643358;-0.32042524;0.04284877;0.018758234;-0.06320189;0.038461376;0.018489879;0.0019208686;-0.10565857;-0.079200394;1.1496637;0.48927507;-0.49218276;0.18617624;0.27685642;0.037234608;-1.0962259;-1.4579635;0.105612196;-0.044238564;0.1428711;-0.29494962;0.47452858;0.35457072;0.06937146;0.8054688;-0.005591046;0.050627243;0.10932352;-0.07758701;0.06773662;0.017278126;0.023896372;-0.05715556;0.2376063;0.06698452;0.060042717;0.062364567;0.1191997;-0.8813667;-0.25902444;-0.09056914;0.06881376;0.5574865;0.069620885;0.51866174;-0.436425;-0.4144169;-0.054484725;0.8551641;-0.24915543;-0.053176157;0.11164997;-0.08122875;-0.2391876;0.04125275;-0.07217734;-0.055490106;0.035957426;-0.5769336;-0.071168855;-0.028572006;0.012633522;0.28931847;-1.2594622;1.0519289;0.35974857;-0.06270007;-0.115756735;-0.45636415;-0.09090389;-0.047969997;0.07186671;-0.67618227;-0.042721774;-0.0069333618;-0.027625145;1.1634611;-0.002096521;0.17511126;0.15461367;-0.06411123;0.13695985;-0.3793453;-0.028190821;0.3811156;0.08537088;0.046495352;-0.26465553;-0.0024365035;0.05051877;0.035598893;0.093758546;0.092706874;-0.050921246;-0.048285667;-0.050256655;-0.06813947;0.14387053;-2.1339376;-0.1232866;-0.09582766;-0.028781597;-0.9979609;-0.065497845;0.017283065;-0.52739906;0.7067271;0.30258924;0.38283694;-0.10070703;-0.20088242;0.30519736;0.0021043147;-0.12796377;-0.090424396;-0.011486271;-0.041041024;0.05949578;1.2635181;0.766967;-0.12209452;0.114494525;-0.69535625;0.28379756;-0.5185724;0.006597611;-0.078535326;-0.4519475;0.6671358;0.34056678;-0.04777033;-0.28327635;0.051529795;-0.044435702;-0.062140368;0.032429487;-0.0509909;0.073653;-0.004877473;-1.0269585;0.011112135;0.008336678;0.2576036;-0.2825923;-2.0438402;1.0782045;0.051321708;0.07399826;-0.0049700174;-0.09727281;-0.29645923;0.116456576;-0.046234008;-0.16598381;-0.027620643;0.09150257;-0.05074438;-0.039916545;-0.6064855;0.0010824408;0.016918872;0.061393026;-0.29834208;0.010340742;0.023972848;-0.018020986;-0.17177935;0.022335043;0.1828969;0.088332325;0.13374656;-0.6672526;0.1572108;0.13294351;-0.37715855;-0.0892275;-0.03853058;0.0049585425;0.9346863;-0.07678;-1.3711812;-0.011308092;-0.47409284;-0.67997754;0.05807006;-0.69085026;-0.09940615;0.29269487;-0.151515;-0.13685985;-0.03488913;0.0143719325;-0.047833227;0.118420355;0.46311277;0.07385615;0.015888883;-0.9644064;0.039537914;-0.32822946;0.55888903;0.009891728;-0.1330518;-0.36768875;-0.025668731;-0.0053482996;-0.025398739;-0.03588779;-0.26024717;-0.3204948;-0.045611747;-0.46602052;0.08417169;0.4177827;0.6508197;0.6503468;-0.5014789;-0.035622023;3.803011e-05;-0.039107412;-0.01049931;-0.34192213;-0.9506287;0.04212828;0.68532526;0.10099229;-0.86082727;0.0870182;0.014387014;0.07089551;0.8477096;-0.11766819;0.2518944;0.08518983;-0.88986343;-0.05539471;-0.033902783;-0.21102545;-0.14553815;-0.12854524;0.02174952;-0.049434923;0.045955025;-0.08199952;0.020279381;0.0034077468;-0.1133896;0.05986171;0.014358133;0.0056960625;0.19107543;-0.8858329;-0.08459132;-0.81891423;-0.027794031;0.029724082;0.32194912;0.08291991;0.23646271;-0.45617974;0.060534194;0.06885736;0.3124642;0.16512178;-0.10645895;0.023310395;0.01165997;-0.022228265;0.6601382;-0.064238936;0.10692375;-0.19660097;0.043915406;-0.032792415;0.029300181;-0.1218417;0.08958593;-0.040321123;-0.13488317;0.023763886;-0.03987352;-0.08961269;0.16107383;-0.1424463;-0.025341865;-0.029764755;-0.077600725;0.21879612;-0.0835168;0.020563016;-0.009612891;-0.010690529;-0.12966977;-0.0016200441;0.01096023;0.041739438;-0.09322305;-0.1812658;-0.016325943;-0.0405351;-0.21411896;-0.5225061;-0.19779119;0.24696662;0.11414789;0.015188598;0.90036565;-0.21138594;-0.04280046;0.027980803;0.2094717;-0.10717293;-0.45426533;-0.053531658;-0.37590423;0.022849042;0.07897752;-0.07472373;0.004572602;-0.025042742;-0.088873506;-0.32050282;0.0045928224;0.34769878;-0.07262631;0.04384434;-1.0343448;0.24812628;-0.08944901;-0.009580376;-0.5105367;0.025753953;-0.03490954;0.13204364;-0.2394766;0.3404276;0.13708545;0.0681431;0.60044336;0.47392994;0.6208274;-0.056402404;-0.0110952975;-0.024457105
-0.04832665;-0.40810376;0.06864023;0.6618217;-0.4686023;0.09350788;-0.48036566;-0.0026946452;1.1893306;-0.045669176;0.02688797;-0.22509463;-0.069936946;-0.1084557;0.03507409;-0.059964526;0.68375766;-0.2908222;-0.009234359;-0.009832599;-0.07014845;-0.08073458;0.044499226;0.22040442;-0.10370418;0.21733809;0.14211944;-0.0003737266;-1.6582105;-0.46690363;-0.12688814;0.56853676;-0.10234489;-1.3369186;0.13241991;0.13795848;-0.87430215;0.69917655;0.0103504285;-0.022060655;0.13738397;-0.620392;-1.0174878;-0.042333867;-0.27650094;-0.008072415;-0.04746628;0.47280335;0.10275926;-0.08460211;-0.3392144;-0.1800204;0.119892076;-1.2206358;0.2941651;0.12535325;0.007894968;-0.0091959685;0.02876272;-0.062917344;0.07179954;-0.12163885;-0.36763096;-0.0026538407;-0.009634102;-0.104943015;-0.0029188883;0.28499871;0.004490788;0.15244076;-0.21165629;0.89436984;-0.0134463785;0.1252109;-0.5407608;0.0013187707;-0.0045075295;0.015971111;1.792956;0.059416115;0.11190293;0.087087594;-1.0413277;1.248253;-0.010513989;-0.18986705;0.070942454;0.012153485;0.33800867;-0.008988426;0.21924277;-0.03631602;-0.043266356;-0.35869655;0.053722102;-0.14576736;-0.2762736;-0.19395763;0.040406764;-0.08141737;-0.073852085;0.2409488;-0.5229108;0.007978082;0.24509203;-1.7029005;0.09805489;0.022458728;-0.035805944;-0.030752508;-0.33906797;-0.0008178576;0.52278924;-1.3026087;-0.010575926;0.040196694;-0.45102093;0.042881154;-0.1575924;-0.7078978;0.074661985;-0.06363577;0.02369038;-0.08742707;0.2993505;0.007952581;-0.053746928;-0.0044793547;-0.28334087;-0.010578248;0.0020548787;0.0050314204;-0.58266133;0.71286;-0.029000688;-0.022327483;-0.09851869;0.12031313;1.0342457;0.031612672;-0.7688278;0.007494492;0.28653532;-0.10442365;-0.03249971;0.2019451;-0.74486345;0.032655302;-0.11225235;-0.040897563;-9.478492e-05;-0.08810431;0.037022732;0.82291406;0.0508244;-1.4559082;-0.3843831;-0.3118687;0.11015891;0.031132292;0.07105744;-0.06001851;-0.07394682;-0.0077920174;-0.090524495;0.022243936;-0.12017721;0.068070926;-0.544482;0.056932293;0.096708216;0.49989864;0.10733059;0.06920588;-0.10346489;0.016052559;0.1332178;-0.07985423;0.7609278;0.057160612;0.026981475;-0.07486893;-0.024706682;-0.050947182;-0.37787384;-0.013855685;-0.0114688035;0.23158947;-0.23299581;-0.0072078668;-0.28457004;-0.06295911;0.9802398;-0.059713483;-0.12463306;-0.034536194;0.09476202;0.17325066;0.0786626;-0.12086699;0.09628225;-2.395585;0.03245595;-0.6751849;0.034055725;-0.003732861;-0.43414837;0.2579887;0.06045648;-0.15746981;0.5193501;0.02776114;0.26920414;0.13331613;0.020377683;0.046654392;-0.026039913;-0.077171944;0.084837444;-0.05335964;-0.13777825;0.44354966;-0.18447036;0.020258138;0.091673635;0.082300365;-0.12270152;-0.4218982;-1.0530865;-0.5057242;0.015050122;-1.0445873;-0.9212798;-0.51802146;-0.0067662247;-0.19394843;0.021265924;-0.06110206;0.055363894;-0.13210797;0.050656233;0.12618786;0.5889231;-0.29365593;0.28062394;0.3124609;0.11784315;-0.47107756;-0.82309103;0.047086917;0.056783978;-0.103477895;-0.31895158;0.13255405;0.40696806;-0.07943539;0.21847779;0.058635227;-0.010553702;0.011272291;-0.007363615;-0.077053905;0.010581697;-0.024519129;0.025918052;0.28097552;0.023450103;0.013964644;0.03810828;0.12217471;-0.33766192;-0.59384304;-0.10593377;0.06144952;-0.029864771;0.08410424;0.03450861;-0.29674006;-0.5787077;0.009510487;1.3502038;-0.22724079;-0.076483116;0.04651314;0.037846763;0.37481004;-0.10263984;-0.08081279;-0.092012934;0.06832356;0.4700207;-0.0702444;-0.0068602436;-0.024055867;-0.38702473;-0.7540307;1.462933;0.28749442;0.048809707;-0.17627141;-0.46734652;-0.027237328;-0.020066755;0.3691485;-0.25938216;0.0675105;-0.0076195532;0.051709116;0.12601624;-0.027113004;-0.025804056;-0.7409546;-0.0051072463;0.20422265;-1.0027004;0.11241298;-0.738718;0.022971654;-0.06589681;0.2655411;-0.031236138;-0.03718458;-0.005607397;-0.002400294;0.12306232;-0.054218452;0.039463986;0.37024528;-0.057396244;0.01982031;-0.24402858;-0.05127938;0.0039555905;-0.87509924;-1.5947746;0.044695906;0.046344433;-0.59224606;0.9117804;0.2808921;-0.0016799317;-0.9190459;-0.17485082;-0.4205583;-0.08828371;0.01275904;-0.076446995;-0.14500912;-0.025699263;0.0957286;1.1449354;0.25745416;-0.18690503;0.061862346;0.56849325;0.38717574;-0.56180084;0.12707332;0.007674787;-0.6924886;-0.49736568;0.6372963;-0.079427354;-0.99584347;0.0361094;-0.0020232857;0.029587122;-0.04892133;-0.10123503;0.016318213;-0.10980146;-1.0726247;-0.010501791;0.016366301;0.088026024;0.77447295;-1.0841011;0.58895457;-0.03470233;0.010941024;-0.13111602;-0.037878502;-0.43413347;0.1477905;0.058249164;0.6827314;-0.006192903;-0.007966471;-0.06758339;-0.1341064;0.03916844;0.10587364;-0.094987914;-0.011503847;-0.16868296;-0.05629954;0.17731886;-0.09663662;-0.35607997;-0.00747576;-0.019044317;0.006645594;0.20112601;-0.7231557;-0.6094586;0.38315928;-0.25392145;-0.6788825;0.033488523;-0.10543125;-0.99414843;-0.034272157;-0.7136213;0.13552266;-1.1160386;-0.13817483;0.015408948;-0.43394086;0.008703111;0.6833847;-0.09454165;0.023778388;0.0648549;0.13164653;0.026264425;0.0032617971;-1.2922729;0.014539377;-0.022137694;-0.546069;0.068004;-0.13254026;1.4079123;0.13256536;0.12148475;-0.32603386;-0.00079980155;-0.09189439;0.029753618;-0.027845327;0.61022955;-0.30131304;-0.017303608;-0.5185006;-0.09243959;0.11904836;-0.41099313;0.00027563138;0.40122443;-0.11319499;-0.03554787;-0.030551517;-0.04898159;-0.38003033;-1.1819416;-0.05361758;-0.77817035;0.22797054;-0.5822251;0.046189096;-0.013020299;0.06552215;-0.14996542;-0.118497156;0.36245707;0.06952085;-0.42477822;0.07731679;-0.08086776;-0.2932553;-0.05976949;-0.021776013;0.05075726;-0.0128252115;0.10386439;-0.05723863;0.022050703;-0.059435584;0.18796396;-0.071006335;0.08001327;0.03574277;0.3791727;1.1348706;0.02023861;-0.539501;0.005475323;-0.067365974;0.47739753;0.056656085;0.31772232;-0.4235487;0.034621704;0.1776726;0.38004306;-1.2524931;-0.0531493;-0.07687757;-0.054096885;0.5616169;-0.019267768;-0.7611633;-0.45412758;-0.1459642;-0.06355272;-0.0068941014;0.071677305;-0.20350957;-0.19810967;-0.024080418;-0.21010366;-0.06700773;-0.071983464;0.0013568234;0.025028296;-0.10499874;-0.049729582;0.020462308;-0.13807419;0.75138456;-0.06486003;0.027467916;-0.08650584;-0.23180844;-0.021060128;-0.08427161;-0.040986657;0.008192201;-0.067303956;0.035377424;-0.10828493;-0.043541864;0.33675462;-0.17941274;-0.21315518;0.50994396;0.19323158;-0.03331943;1.0185955;0.35350752;-0.0481634;-0.018918328;0.33006;-0.017376259;-0.14244302;-0.04908181;-0.24650803;-0.072899945;-0.0012779356;-0.0039006113;0.0018833316;0.012945296;-0.042743273;-0.19424416;0.073215954;-0.2619707;0.0398811;0.12040524;0.37029582;0.41936395;-0.13591486;0.09809538;-0.060750403;-0.36470133;0.071826965;0.07988546;-0.024232661;0.36090407;0.14543064;0.0095811505;-0.11246252;-0.40429094;-1.1297655;-0.03648674;-0.07453578;0.029228343
-0.11509947;-0.3872159;-0.044854734;-0.7397037;-0.16710152;0.17160559;-0.39855638;-0.03437424;-0.89669883;-0.07578866;-0.016939975;-0.44808885;-0.102500275;-0.037366927;-0.050783962;0.13820143;0.55140334;-0.43566507;0.18439369;-0.1938654;-0.027620409;0.038397435;0.13272364;0.33417442;-0.16572179;-0.34204972;0.18403435;-0.14844778;-0.40976125;-0.4624046;-0.07151971;0.53996736;-0.12668295;-2.1251485;0.093897484;0.21551068;-0.33583966;-0.64044243;-0.0945637;0.06712694;0.20957424;-0.41128427;-0.97783864;-0.070669495;-0.1827012;0.06868195;-0.04001045;-0.35982466;-0.057955485;-0.06028383;-0.3459847;-0.25439975;0.13479675;-0.06878741;0.20621333;0.05639011;0.0064184093;0.01652098;0.004152104;-0.05065602;0.5111017;-0.14071;0.15874107;0.10393034;-0.098593034;-0.18837263;0.058550205;0.17177938;0.008647197;0.14527683;0.003325227;1.1634235;-0.12245386;0.0076184934;-0.796546;0.10578696;0.026112376;-0.54753286;0.64201456;0.07484742;0.2071092;0.0804484;-0.2904892;-0.46743155;0.0038408434;-0.19239196;0.041898727;-0.009000071;0.34860632;0.0027406805;0.22442238;0.0022233846;0.049751412;0.41373914;0.0852587;-0.028971432;-0.3216717;0.09510888;0.07172951;-0.060271736;-0.023090014;-0.10460896;-0.20590846;0.2428293;0.1700436;-1.9093983;0.07799248;-0.023787042;-0.08318318;0.07859058;0.46801758;-0.13940403;0.3588385;-0.2359419;0.008917232;-0.0038342765;-0.3933459;0.07880515;-0.078575365;-0.15687543;-0.6256459;-0.040127497;0.035263214;-0.162588;0.2789686;-0.15543243;-0.071234874;0.18103741;-0.24040647;0.17595564;-0.08975456;-0.11770076;-0.18796161;0.6740756;0.019775258;-0.092712365;-0.052728705;0.15228279;-0.017706452;-0.7176165;-0.17403522;0.06762934;-0.009277969;0.011494415;-0.08688328;0.21112335;-0.108092345;-0.06892332;-0.0015222869;-0.02821799;0.040604975;-0.05258891;0.069900066;0.534781;0.32683706;-0.58289313;-0.31215864;-0.07840052;-0.20923166;0.0015662924;-0.010674657;0.18027309;-0.164644;0.08495183;-0.060462303;-0.07290961;-0.063757636;-0.005865348;-0.3627286;-0.04779796;0.052477688;-0.53306526;0.059087753;0.06116913;-0.0016728783;0.012475478;0.16419943;-0.1365478;-0.13791634;-0.040321935;-0.005040076;-0.12641986;-0.14785069;0.06930444;-0.4069554;-0.07292655;-0.05983123;0.33513832;-0.66131926;0.17628317;-0.40426052;-0.004869047;0.34487933;-0.14888184;-0.0660799;-0.07477312;-0.799259;-1.02463;0.2571335;-0.009672631;0.0981556;-0.036211155;-0.07225796;-0.44448346;-0.0063554733;-0.059443068;-0.66531426;-0.15935905;0.03990331;-0.25160357;0.10398545;0.0027637063;0.25409675;0.6034862;0.04036459;-0.035141744;-0.03351214;-0.013279017;0.017101679;0.007166334;-0.08722831;0.46170136;-0.20915738;0.049363;0.03949304;0.08658095;0.49656463;-0.18998715;0.10602923;0.4624395;0.25613835;-0.22540972;-0.49746647;-0.028448852;-0.078931995;-0.23537572;0.1974771;-0.013292197;-0.10012288;-0.1615452;-0.05728996;0.43669844;0.44924292;-0.3046948;0.2875429;0.37137356;0.04414151;0.06591278;-0.77820736;0.14601785;0.10622878;-0.0036963415;-0.48044848;0.2852899;-2.2536507;0.41964677;-0.99963045;0.13338028;-0.10761295;0.039683085;0.06665526;-0.026753949;0.010181517;-0.11393295;-0.06005557;0.20269065;-0.0046584047;-0.0688999;-0.04509255;-0.017071536;-0.16355087;-0.2131203;-0.06190491;0.04641897;0.4369529;-0.073546976;-0.59042746;-0.2669165;-0.09142446;0.018018706;-0.018793935;-0.23841152;-0.1034973;-0.21226186;-0.07341684;-0.1942667;0.016990555;-0.11445758;-0.11000158;0.11610943;-0.38349572;-0.08551642;-0.07605884;0.059092555;0.075516835;-0.8279336;-0.2652117;-0.42267814;0.1739555;-0.3578114;-0.39966586;-0.040335257;0.010347684;0.038554322;0.09188348;0.08147374;0.23298782;-0.106307045;0.6683185;-0.074778646;0.17787804;-0.61552894;0.11627589;0.3152764;-0.40293053;-7.252248e-05;-1.092629;-0.114520565;-0.0977197;0.4741988;0.0038734644;0.023404352;-0.009699286;-0.032547217;0.1935043;-0.062281273;0.028588353;0.6679841;-0.006765186;0.47259754;-0.22647196;-0.12584163;-0.06368071;0.097644426;0.21563472;0.063857876;-0.026615342;-0.32451963;0.3925875;0.028942112;0.15071987;0.36096206;-0.13329898;-0.7245088;0.061250582;-0.09412192;-0.113442;-0.17334035;0.036851786;0.12972048;0.5440451;0.15724126;0.11236225;-0.102972925;0.026925921;0.46784088;-0.5336731;0.028089305;0.027868805;-0.044608783;0.28145558;-0.74227893;0.023145689;-1.9864482;-0.034337994;0.014080348;-0.02629881;-0.010815029;-0.14277585;0.09043554;-0.08025302;0.350938;0.12873095;-0.038931265;0.0881338;-0.7813787;-1.0313083;0.58981925;0.010971507;-0.031675104;0.10969663;-0.07873809;-0.3143801;-0.16971055;-0.07682651;0.20895983;-0.12132681;0.05593201;-0.058584232;-0.16276942;-0.9279601;-0.009441908;-0.008570308;0.050148085;-0.27561328;-0.48346516;0.053184442;-0.07293794;-0.5026103;-0.059306014;0.47521004;0.016253151;-0.04083383;0.6726483;0.08062218;0.55015516;-0.29205626;-0.09286741;0.10010797;-0.021191679;-0.55378896;-0.088536985;-0.2796024;0.10155309;-0.4191183;0.02113754;0.056485206;0.1361612;-0.10252092;0.4961834;0.06098806;0.11878515;0.015937712;0.09771868;-0.045456;0.048440862;-0.67006403;-0.08702296;0.018025026;0.70719373;-0.24615239;-0.29844812;1.1663494;0.044037644;-0.36267418;-0.24057838;0.033833347;-0.10259569;-0.010158233;0.0042192745;0.15884468;-0.22485185;-0.073819205;-0.45401725;0.19119535;0.9660382;0.036649715;0.31447935;0.250881;-0.11391008;-0.03489268;0.03613163;-0.13174783;-0.5367357;-0.22209387;-0.005480653;0.21685582;0.258826;-0.4660261;0.042259503;-0.030294878;-0.06354342;-0.37571147;-0.013225245;0.30306336;-0.050863326;1.1201693;0.06044006;-0.04304184;-0.21590418;-0.040734053;-0.73847914;0.0023645705;-0.014301286;0.111752965;-0.03539626;0.0014310819;-0.10959752;-0.06705714;-0.081068344;-0.026203455;-0.092221834;-1.062887;1.4074637;-0.10123599;-0.39131254;-0.09206889;-0.059504773;0.41169813;0.10158451;0.34768543;-0.52831423;0.1613232;0.1785758;0.453928;-3.1360228;-0.13564457;-0.12936905;0.0074670333;-0.1454789;-0.41466388;-0.4003199;0.6045395;-0.20752373;-0.013311522;-0.111000255;-0.021910124;-0.15426207;-1.2761301;-0.10441234;-0.22937578;0.050443612;0.039637163;-0.047977977;-1.0270388;-0.11875789;-0.13645074;-0.03245665;-0.14976601;0.6299326;0.0069022295;0.04787863;-0.11571578;0.07670824;0.024751121;-0.028512675;-0.07171819;0.03506417;-0.0047029364;0.1802655;0.0062551885;-0.10310134;0.81235564;-0.2088925;-0.22297548;0.47781074;0.16438578;0.0015663063;0.040420707;-0.42475128;-0.12869358;0.144509;0.40923;-0.05929012;-0.546768;0.06826913;-0.33780062;0.046859648;0.08549979;0.010514705;0.0085163135;0.004821072;-0.19859944;-0.6208512;-0.020005874;-1.0672181;0.02416346;0.15447985;-0.47899115;0.38556296;0.07688292;0.06487228;-1.8481562;-0.43877655;0.034500677;0.18598107;0.10820685;-0.5371796;0.08269994;0.05619721;-0.5519551;-1.5266625;-0.37136012;-0.043691907;-0.009745536;0.067667015
0.00035383462;-0.19453105;-0.009071986;-1.3021302;-0.05506923;0.0027824948;-0.49954543;-0.057981584;-0.7515287;0.09290646;-0.027252445;-0.29248664;0.03520071;-0.023366192;0.04848358;-0.0014508242;-0.43991753;-0.21008614;0.045191225;0.012852229;0.041783832;0.16255765;-0.14157328;0.24860491;-0.081317365;0.09478311;0.049059406;0.0070134494;-0.2473047;-0.42095312;0.04138677;-0.3402912;0.020414218;-0.65835637;0.03351958;0.078270346;0.28888324;0.013374034;-0.093917206;-0.016166953;0.03931332;-0.91018546;0.010517719;-0.071659245;-0.50210017;0.0152794635;-0.019968418;0.2910657;0.16428038;-0.10912531;-0.25960112;-0.07228476;0.021601032;0.42739198;-0.13918841;-0.0063051055;-0.017777856;0.0093194805;-0.04977031;0.03264917;-1.2738707;0.049980294;0.64947426;-0.06526706;-0.07390753;-0.18487005;-0.03138276;0.099281184;0.11320535;0.040142883;-0.2036349;-0.063328534;-0.06107102;-0.19717823;-0.14358634;-0.06265751;-0.008991567;-0.81800485;-0.64688945;0.05287239;0.13046196;0.08113819;-0.46887785;-1.3234686;-0.0130474605;-0.17190714;0.01328284;0.025443565;0.24350606;-0.058829244;0.13522032;-0.019146068;0.035447;-0.90729487;-0.029390395;0.008282266;-0.4606557;0.012046834;0.076935716;-0.04207345;0.008127349;-0.08334922;-0.25716478;-0.10549581;0.13570122;0.20135997;0.07724489;-0.029158857;-0.026506014;-0.054983098;1.2648609;0.049413335;-0.9983832;-0.5831188;0.078535;-0.0737554;-0.35521993;-0.0041894983;-0.0119142365;-0.4113631;-1.3220669;-0.080804355;0.025364814;0.030361293;0.17795663;-0.04610165;-0.05765803;0.023775944;-0.22327057;0.021561248;0.01128126;-0.09769509;0.1948004;0.35786745;0.057017032;-0.052614413;0.0069164177;-0.065947;0.24869268;-1.2965031;-0.34267157;-0.07681957;0.16879289;0.05323668;-0.08017106;-0.04622121;-1.5828791;-0.06623293;-0.05896651;0.073704295;-0.034960877;-0.08580096;0.007935804;-0.7938168;-0.0795829;-1.0539719;-1.2825094;-0.3952624;0.26904762;0.011162151;-0.0030918217;-0.09431519;0.41976056;0.037428595;-0.025395451;-0.028384255;0.016497334;-0.15459137;-0.5215504;0.005710963;0.025812073;-0.07523342;-0.057132177;0.009190499;-0.105624534;0.060793407;0.08698923;0.06999625;-0.26766244;-0.062867;-0.024400055;-0.052724063;0.05584248;0.054505218;-0.3567188;0.03324806;-0.07415722;-0.735958;-2.1498346;-0.0109140165;-0.32893738;-0.015347816;-0.45543525;-0.15954141;-0.01929018;-0.03381846;0.15763006;-0.68473667;0.14473252;0.32145336;0.16562642;-1.3540038;-0.045097552;0.3977069;0.053106554;-0.018389622;-0.6291212;-0.086460754;-0.04914905;-0.43458447;-0.20110512;-0.040470023;0.14198445;0.5379959;-0.042090636;0.042109225;-0.041922472;-0.08918121;0.033337757;0.084488004;-0.020752411;0.34675503;-0.095403515;0.1298853;0.021417102;-0.039192267;-0.97397965;-0.22713475;-0.77276564;0.0635294;0.2275516;-0.27230486;0.23850565;-0.50147414;-0.084997356;0.09373057;-0.0059617963;0.00075222855;0.028176993;0.05064945;0.077207655;0.1200757;0.03184239;-0.108804;0.24102366;0.34386477;0.068403125;-1.67957;-0.6350951;0.012156716;0.044369686;0.052392747;-0.41057608;-1.1906466;-0.85492307;-0.1353441;0.6856324;0.0071588787;0.0037341437;-0.053367298;-0.025618019;-0.0400836;-0.028043972;0.029902617;-0.010612833;0.16113071;-0.016253568;-0.009863733;0.0291401;-0.038341973;-0.19599447;-0.36532077;-0.092828006;0.025997449;0.24972536;-0.020816255;-0.4327812;-0.27593127;0.23191398;0.057412874;0.1921419;-0.17052418;-0.002727033;0.5822863;-0.058063336;-0.012112645;-0.008504963;0.008229997;0.02054179;0.07460833;0.11375681;0.041813385;-0.009841642;0.0037574533;0.030258913;-0.5244366;-0.21386035;0.028557172;-0.22563979;0.2944301;-0.2543188;0.052470356;-0.050654754;-0.103927426;-0.6985578;-0.055120237;-0.3189316;0.038087666;0.86570764;-0.0012877182;0.24394299;-1.0891497;0.089418985;-0.33852893;-0.035634313;0.037588514;0.6855797;-0.40009767;0.014459499;0.36096025;0.024195975;0.025432296;-0.010078046;-0.0071266927;0.12883317;0.054606352;-0.017670888;0.13538074;0.026467403;0.21048468;-2.5228333;-0.09828942;-0.010625018;-0.38641906;-0.43665504;-0.0046127415;0.033530205;-0.32149753;-0.7052419;0.19645146;-0.35609534;0.1529846;0.0040644393;-1.4187157;0.010256352;0.045594342;-0.0772931;0.05551606;-0.047756147;-0.06370285;-0.05318677;-0.08801228;-0.098695174;0.06382785;0.5672926;0.38979566;-0.23314086;0.037255764;-0.07891265;0.094930746;0.08890374;-0.59786844;0.06502233;0.6847614;0.021763556;-0.0009934751;-0.0041410867;-0.094537124;0.02090371;0.025171366;-0.092499904;-0.35688913;-0.07435468;-0.016614147;0.15519196;0.92214024;-0.9995628;0.4858748;-0.0016005954;0.021487784;0.022729777;0.013771339;-0.55637854;-0.2614071;0.034764934;-0.59445477;-0.059880264;-0.0056620645;-0.053305354;0.042959306;-0.4251067;-0.02694508;-0.03390344;0.06017392;-0.09200217;-0.19711408;0.023191022;-0.122264765;-0.6859162;0.058284473;0.15548493;0.0065221176;-0.31639203;0.10710072;0.57337624;0.55385804;-0.14874442;0.6878518;-0.04493466;-0.020321006;-0.31537458;-0.069861;0.06697333;-0.2580601;-0.22786415;-0.37701982;-0.028311279;-0.17197953;-0.042571828;-1.7279644;-0.011853466;0.109822035;0.08047323;-0.054578707;-0.0243531;0.007469852;0.52839947;-0.03379211;-0.066853166;-0.5009216;0.08477798;0.21168482;-1.0707157;0.056312304;-0.7303408;-0.14329794;-0.033645757;-0.08033473;0.035416283;-0.06576003;-0.60241073;-0.12468934;0.00035315694;-0.3718836;-0.047697965;0.886911;0.89100134;-0.6097621;-0.7047193;0.0018177457;-0.10423673;-0.015195891;-0.10019847;-0.615039;-0.71655655;-0.09650576;-0.035451677;0.12334029;-0.45217854;0.029909391;-0.01834465;-0.016588686;0.039094284;0.03269302;0.3392721;-0.03758391;0.24344994;0.030366525;-0.09454594;-0.094013244;0.02976646;-0.42993945;-0.07057956;-0.041513298;0.056890626;0.018427994;-0.07743373;-0.01994017;0.08548506;-0.03682381;0.065386064;0.011839663;-0.1781661;-0.25633213;0.04866191;-0.27953464;-0.09719018;0.056918312;0.45630223;0.00962953;0.29029074;-0.32137492;0.09414168;-0.012827886;0.32543555;0.36291382;-0.019219713;-0.03308791;0.007154106;-0.3194238;0.30692062;-0.14118908;-0.47724614;-0.18779911;0.045583963;0.0527935;0.07729333;-0.041278217;-1.3917068;-0.023501322;-0.043268327;-0.07878958;-0.06039917;-0.029565547;-0.92360234;-0.107765615;-0.05928719;0.05579474;-0.06298329;-0.67902434;-0.034973957;-0.044551283;-0.007358289;0.71913105;0.10262534;-0.014905271;0.033058446;0.0977994;-0.0990477;-0.21431138;0.045764245;-0.03206444;-0.75035;-0.240241;-0.11051101;0.2941548;0.19529772;-0.08680338;-0.9331067;0.15647267;0.04433319;-0.035225812;0.3726948;-0.043275177;-0.3743967;-0.054190293;-0.13721536;0.058096178;-0.05643303;-0.025252603;0.026201947;0.04066963;0.10473711;0.010315698;0.033797123;0.23011273;0.0044794003;-0.06331726;-0.04236273;0.28006744;0.30949003;0.055306874;-1.1949741;-0.2606014;0.057788134;0.105789095;0.47382253;0.16120753;0.122748084;0.041770022;0.21179342;0.41347036;-0.27874497;0.03690388;0.0048193173;-0.01942762
-0.0013985387;-0.31865215;-0.023142468;-1.3455133;0.18216261;-0.1999581;-0.5888667;-0.33150652;-0.106797315;0.10674718;-0.0013531392;-0.63660336;-0.00025598737;0.11905204;0.00096183683;-0.0059967996;-0.16329949;-0.14563127;-0.16421399;0.15974106;-0.04146748;-0.23573716;0.12625249;-0.07605791;0.12392333;-0.6775822;-0.15276204;-0.01157311;-0.08368713;-0.29220623;-0.024688557;-0.59545577;0.11420745;-0.08299936;-0.1968265;-0.094619505;0.12875618;-0.29161242;-0.028454201;0.051627416;-0.19896309;0.11747528;-0.6503228;0.047003184;-0.59269273;-0.017733539;-0.03930556;-0.39756203;-0.31541792;0.34550852;-0.2702018;-0.1281553;-0.0583251;0.48857048;-1.2909243;-0.1875727;-0.054572202;-0.081889205;0.07870358;0.030650804;0.74191207;-0.023828708;-0.87112284;-0.059259582;0.049928833;-0.16692173;-0.0026698615;0.15977862;0.06640833;-0.27518857;0.36639255;-0.379209;0.14009823;-0.33132327;0.10131244;-0.2167019;-0.22370014;-0.73748523;-0.03623281;-0.12743823;-0.25023547;-0.011517345;-0.3206081;-1.6337384;0.0139724435;-0.029928118;-0.13148096;-0.13593833;-0.07798359;-0.0019716844;-0.1834611;0.019953905;-0.0043954845;0.5038845;-0.021221543;0.2520489;-0.10973808;-0.16215163;-0.19450568;0.06466483;0.10069165;-0.28829253;-0.24922383;0.41824493;-0.17734961;0.10423141;-0.21905854;-0.06754662;-0.011086365;-0.09344484;-0.80058074;0.06964178;-0.13467802;0.36104468;-0.13064404;0.034126453;-0.20078084;-0.08998674;0.12869732;-0.25816643;1.6920205;0.12241451;-0.065240055;0.26303503;-0.12625106;0.09630623;-0.0888143;-0.27308294;0.037466843;-0.11772883;-0.0054980526;0.096450634;0.111840494;0.2663451;-0.32648337;0.06379296;-0.0018313272;-0.12894359;-0.7044477;-0.4010491;-0.7261238;-0.21632423;-0.4779896;0.09197185;0.14912266;0.1205256;-1.3610213;0.034788962;0.061794534;-0.06580936;0.021915635;-0.0029533254;-0.09108592;0.2602326;0.7068899;1.6933374;1.9662365;0.16123468;-0.19282082;0.084145986;-0.00014638477;0.20782192;-0.04909813;-0.092587285;0.038633857;0.074564785;0.100712515;-0.03270713;-0.2528548;0.0318769;-0.1331408;-1.8416153;-0.16774015;-0.044532515;0.0065599536;0.03541468;-0.135608;-0.030198313;-0.6782414;-0.043646056;0.080034874;-0.015028853;0.121954;0.019835109;-0.3623212;0.09261259;0.12591529;-0.13835545;0.57810986;-0.18375002;0.12184599;-0.009836704;-0.1474652;-0.028901849;0.050830495;0.044336647;-0.3152097;-0.31075373;-0.24970138;0.041031927;-0.16717929;-0.5601552;0.0072443034;-0.25707534;-0.11857345;-0.1090867;1.0267985;-0.232883;-0.13663352;-0.21935529;0.62610924;-0.03326013;-0.17493924;-0.1141264;-0.17544849;-0.0997303;-0.0591287;0.03371782;-0.12155849;-0.08656214;0.067846134;-0.035969812;0.13564216;0.072030276;-0.22652051;-0.25603235;-0.25751007;0.15821801;0.8925647;0.9228679;-0.20157357;-0.5754242;0.40559065;0.5076635;-0.016782288;0.17263345;-0.25011316;-0.0121121;-0.027471008;0.19475381;0.007979449;-0.52364576;0.636052;0.3085901;0.019325772;-0.0735373;-0.042952977;0.24257742;-0.2865307;-0.265732;-0.07220011;-0.020081362;-0.20890413;0.6955155;-0.9356802;0.5747326;-1.6578329;-0.034263875;0.042011596;-0.22772042;-0.081096396;-0.06885595;-0.020133164;-0.007241701;0.0379571;-0.04419497;-0.04210849;0.05151999;0.076261766;-0.024598291;-0.68779385;0.30108944;0.1242695;-0.14806496;0.12293189;-0.13171571;-0.78264105;0.036745276;0.8752507;0.0634748;-0.57290435;0.082864724;0.05281183;-0.971967;-0.030426638;-0.06377315;0.059970662;0.06359897;0.02351619;-0.089796394;-0.34399292;-0.002146046;0.024410972;-0.025214879;0.22399627;-0.33348316;-1.1288441;-0.23416285;0.15928799;-0.3038969;-0.273643;-0.033777956;0.0015513544;-0.20944664;-0.42141983;-0.23920605;0.0023989235;-0.010476272;-0.49227726;0.084052294;0.017904535;0.88261724;-0.11829062;-0.72257024;0.39124355;-0.06355489;-1.2740502;-0.6898912;0.008992344;-0.55530405;-0.08043252;0.04416646;0.057184566;-0.032500476;-0.15006468;0.1390284;-0.10441935;-0.06584551;0.05454662;0.31895456;0.5283392;-0.25598302;-0.03732303;-0.40471885;-0.4711926;0.049995206;-0.024336686;-0.26426497;0.7065774;-0.024947679;0.4227888;0.53314644;0.20097114;-1.0339346;-0.2958725;0.07612324;0.12219868;0.19471629;-0.09350181;-0.04483778;1.4531224;-0.12662944;-0.20678818;-0.0799272;-0.050759356;0.024884202;-0.36276132;-0.19776608;-0.023334704;0.29575136;0.28802368;-0.5039537;0.07983584;0.3260384;0.03678364;-0.1172716;-0.020559423;0.09283101;0.22179037;-0.13731751;0.14108157;1.3678635;-0.0791994;-0.0145542715;-0.023243915;-1.0007272;1.499098;-0.72764117;-0.056754194;0.0038207327;-0.29342535;0.16838053;0.016290203;-0.25314498;0.0050397255;-0.18180999;0.029157206;-0.18173233;0.060780086;0.11941851;-0.31423786;-0.04785355;0.008315047;-0.04426091;-0.16505721;0.058766436;-0.2034607;0.1581806;0.1005524;-0.09271845;0.2923919;-0.031303518;-0.22421677;-0.7668046;-0.2328766;0.4273965;-0.25932753;-0.16820292;-0.06834309;-0.012704258;-0.04838311;0.0649944;0.39162424;-0.004989746;-0.5275144;-0.49043703;0.022373185;-0.40744957;0.019627668;0.11205306;-0.14041993;0.36020732;-0.07634864;-0.17560343;0.08016707;-0.0018493455;1.1706902;0.32406384;0.036842514;-0.8865722;-0.28899115;-0.22361244;0.14774516;-0.23883884;-0.31016386;-0.09149292;0.07178342;-0.0131868655;0.025586508;-0.09489845;0.023621172;-0.22765765;0.25819993;-0.24662837;0.057633962;-0.18755461;0.7869773;-0.49605307;-1.2746536;0.031511158;-0.008473729;-0.0017481524;0.18816832;-0.37837553;0.84303164;0.033428684;0.35309714;0.15784775;-1.2095613;-0.049165007;-0.046399474;-0.059080955;-0.82419616;-0.029345214;-0.06874342;-0.00014035866;-1.667254;-0.010879174;0.10593386;-0.18425293;0.13990127;-0.57522637;-0.077033326;0.07167123;-0.06691105;0.036899608;0.13882764;0.07410491;-0.14303432;0.030630045;0.047743157;0.052879825;-0.9078023;0.8192449;0.15192246;0.37268624;0.06631968;0.024765482;0.028443348;-0.15819107;-0.015989073;-0.35683197;-0.16416311;-0.238282;0.06711332;-1.604647;-0.015710814;0.19048057;0.04712233;-0.50283325;-0.34954107;-0.5539322;0.6477017;-0.037620332;0.014047136;0.023679037;0.012573607;-0.04962265;-0.42454517;0.10756545;-0.032891996;-0.031492364;-0.06285942;-0.00021987194;-0.90692496;0.03561076;0.1951081;-0.1037636;0.15874048;-0.21688707;0.069281295;-0.06268341;-0.0024642078;0.08260246;-0.16013652;0.09073018;-0.00080702745;-0.283163;-0.010893257;-0.8989828;0.13204628;0.0116569325;0.701851;0.16593368;-0.083469376;-0.027070746;-0.07950036;0.013699073;-2.066652;-1.434594;-0.17279209;-0.1352981;0.024614856;0.050734513;-0.62458;0.0458207;-0.18146235;-0.04764898;-0.2184373;-0.043332104;-0.004930514;-0.026660692;0.04294147;0.12221685;0.004915555;0.06850079;0.003587017;-0.18586141;0.17771271;0.37066814;-0.15521549;-0.16142674;-2.7142134;-0.17900765;-0.07684354;-0.23456952;-0.72148573;-1.183427;-0.17445418;-0.042198747;-1.6642561;-1.1502786;-0.89523804;-0.058039695;-0.021924317;0.050176397
-0.025021173;-0.57012683;0.020334236;-0.8113427;0.10848451;0.22985193;-1.7079116;-0.07247768;-0.1521222;-0.09953025;0.04863927;-0.9595661;-0.011149087;-0.041086014;-0.037238467;0.18320452;0.13140967;-0.3507594;0.10040801;-0.1329788;0.027838264;0.06915573;0.5009967;0.32465744;-0.0731306;-0.78585815;0.17169672;-0.15303046;-0.5881866;-0.60480267;-0.12724786;-0.78885853;0.033975877;0.29127494;-0.05065756;0.21256943;0.022715386;0.40606198;-0.009845477;0.026335584;0.2385744;2.5813093;-1.4564364;-0.04367241;0.5507369;-0.046877313;0.02023517;-0.9167451;0.40637717;0.6229894;-0.4176307;-0.39331126;0.027899057;-0.1485897;-1.6978567;0.19668123;0.09012506;0.06517363;-0.113039635;0.042128123;0.42903963;-0.07674608;-0.7249911;-0.06326953;0.038742375;-0.23368178;-0.06348482;0.14308383;0.13367589;0.23491946;-0.42082244;0.05935154;-0.007752284;0.07886562;-0.15599515;0.02123988;0.024763724;-0.739204;-0.5662185;0.16987203;0.23827502;0.064985625;0.14438453;-1.7886281;0.040233612;-0.10564911;0.077400245;-0.01527012;0.35755813;-0.066423304;0.13369709;-0.0068604117;-0.08207506;-0.14258912;0.09253657;-0.12720853;-0.12435397;0.18567796;0.15569203;-0.11597908;-0.12353945;-0.10908495;-0.05753776;0.24706535;0.313809;-0.33716634;0.09214076;0.046813954;0.020029204;-0.018795945;-0.2636386;-0.11152942;-0.56168956;2.0831857;0.048047427;-0.02868242;-0.54744184;0.03506452;-0.03281382;-0.595389;-0.5519794;0.035652686;-0.04025564;-0.019916678;0.35947883;0.02574148;0.004360181;0.17248249;-0.122720376;0.023447482;-0.032982733;-0.11163903;-1.4790138;-2.906389;0.36066002;-0.058358397;-0.15839222;0.027047288;-0.25431907;-0.47320804;0.47227344;0.1130601;-0.4621426;-0.08813003;-0.0778738;0.052202735;0.14504567;0.030274604;0.015590818;0.038553536;0.042199723;-0.023987122;0.040661953;1.1717709;0.60477257;-0.34075758;0.03271997;0.43237057;0.077994384;-0.07005778;-0.01760982;0.31535354;-1.2898717;0.029810937;-0.019510789;-0.041655887;-0.09359234;0.10012703;-0.7187067;-0.0035061347;-0.051877394;-0.5203655;0.06934174;0.1150668;-0.09032064;0.045809675;0.18883027;-0.038571015;0.15462981;0.033521023;0.10480237;-0.108964026;-0.030033093;-0.005023529;-0.49599385;0.03746793;-0.027568005;1.3544478;-1.521669;0.040229548;0.44273058;0.019947177;-1.9043126;-0.020280762;-0.04512815;-0.09745871;-0.040719192;-0.19231743;-0.17457615;0.11758253;0.091703616;1.5329645;-0.03416395;0.19617379;0.018345362;-0.12523021;-0.29283634;-0.24283756;0.02257056;-0.6357421;-2.700573;0.042811584;0.26659307;-0.3973022;0.07015551;0.022689397;-0.056455966;-0.073409624;0.106247395;0.3110887;-0.024062501;0.5832724;-0.1480689;0.357216;0.06492415;0.1135313;-0.799905;0.002337026;1.2456133;-0.74221456;0.0789073;-0.088353395;-0.25185302;2.125745;-0.09773729;-0.18732463;0.0413749;0.06665264;0.038352344;-0.1263769;-0.05573214;-0.37458843;0.5090392;-0.27513322;0.41644162;0.5592068;0.11297428;-1.0371356;0.42343664;0.16384643;-0.009712995;0.17559111;-0.64905614;1.0789666;-0.096791394;0.39685896;-0.874593;0.03823087;-0.026587157;0.07071923;0.069062784;-0.020692348;0.10574784;-0.046619944;-0.062307518;0.3222488;0.07820508;0.008590939;0.03172172;0.07468418;1.1429722;0.83030725;-0.06911949;0.00920563;0.3038089;0.07001222;0.56646395;0.11443769;0.71938443;-0.03543636;-0.2775206;-0.20758562;-0.062917605;-2.5175064;-0.058446087;0.1370134;-0.069293275;-0.16233124;-0.07061062;0.07039287;-0.09668546;0.026934696;0.012918838;-0.03910033;0.53047097;-1.4946692;-0.62925285;-0.7577546;0.015253821;0.4851484;-0.47358575;-0.07202137;0.08598598;-0.43391758;-0.2873903;0.10568903;0.102763414;-0.01779049;-0.73533314;-0.04199915;0.30824652;0.79719645;0.031005418;0.1590765;-0.053081896;0.06659206;-0.8124111;-0.34329352;0.0055335695;0.33366585;-0.038759343;-0.10003387;0.0071087326;0.11651495;0.102728635;-0.13087156;0.10504412;0.23226973;-0.0019590713;-0.17815539;-0.5552782;0.14299524;-0.03504212;-0.5731819;-1.3028305;-0.07320616;-0.06556833;0.4984784;-0.0045408225;-0.0025786208;0.45280465;-0.11415346;0.123591796;0.07859794;0.0030730136;-0.10349982;-0.08085092;-0.037403587;0.032257706;-0.0073727765;0.042789705;-0.018598046;-0.017865954;-0.004286187;-0.22366922;0.6197635;-0.5567006;0.04502578;-0.04139393;0.02055522;0.6185261;-0.8830532;-0.07341245;-0.5532129;0.042739477;0.123514555;0.057184033;0.033250574;-0.14204386;0.11100413;-0.08050181;2.208773;0.11756591;-0.06317633;0.19176146;-0.19916797;0.030231955;0.2073855;0.041524485;-0.045388315;-0.009579155;0.028484672;-0.012694298;-0.19958496;-0.0009889252;-0.50945014;-0.08022383;0.045710694;-0.08344464;-0.022823814;-1.2803698;0.067748226;-0.03219516;0.06045638;-0.30719128;-0.5007312;0.062808976;0.020154415;-0.778815;0.041053962;0.5895671;0.022134742;-0.3762222;-0.8040935;0.7868057;0.7689628;-0.38847533;-1.0190687;0.05768359;-0.005103467;0.015653664;-0.0750005;-0.2871925;-0.1688181;0.9166131;0.20628454;-0.026935982;0.95451444;-0.077305555;-0.5323927;0.15546224;0.1039812;0.0028620765;0.13279605;0.029142931;-0.035250634;0.017259454;-0.17564721;-0.079075344;1.0332654;0.013061286;0.20916948;-1.0422682;0.06932025;-0.6428501;-0.31432918;-0.09894395;-0.01322694;-0.007802331;-0.03631603;-0.5124333;-0.37079927;-0.11587791;-0.36075175;0.073979944;0.15649591;1.2889524;0.16130568;0.6820023;0.02957525;-0.10065878;-0.05428872;-0.0060356455;-0.522894;0.75086707;0.039133273;0.08069367;0.22070009;0.0650365;0.07226578;-0.09430378;0.073082924;-0.49843213;-0.07765126;0.33712658;0.04248615;-0.14802894;-0.012294079;-0.021781238;-0.2577053;-0.053907864;-2.9530303;-0.07405112;0.010218071;-0.015898544;-0.030350696;-0.061032675;0.013976462;-0.15319933;-0.026804764;7.0895614e-05;-0.07525665;-1.1310052;-1.7643;-0.1041392;-0.6202175;0.030556945;0.030687684;0.55623394;0.07671073;0.35752606;-0.5119912;0.08362895;0.17730942;0.4074612;-1.278841;-0.027912013;-0.10840285;0.023011284;-0.22385141;-0.5271953;-0.6884988;-0.034365628;-0.15533817;-0.15695591;-0.041577503;0.08096039;-0.25279248;0.6761782;-0.12630309;-0.22127059;0.065516524;0.012968634;-0.085039064;0.4226693;-0.23570243;-0.1471869;0.058398757;-0.08234329;-0.14163706;-0.115069084;0.0031553458;-0.023325093;-0.7592021;-0.044664994;-0.03077079;-0.0731522;0.12751846;-0.095396645;0.14675212;-0.0072307936;0.020671342;1.1132823;-0.70170176;-0.24151345;0.54844934;0.31208828;-0.030527761;-0.7979575;-0.47325838;-0.03526369;0.1255363;0.42447686;-0.043854732;-0.7517229;-0.03603261;-0.26681262;0.023635881;0.12540765;-0.08229182;0.0039077485;0.07105849;-0.39292946;-0.5304034;-0.04076047;-0.9799934;0.04234158;-0.006590327;-1.4696108;0.09688968;0.32389307;0.1468035;-1.8420146;-0.48370898;0.1079013;0.09170029;-0.07507101;-0.2239567;0.19069712;-0.018006468;-0.4932319;-1.1782725;2.1110299;-0.027253306;0.018842079;0.07671466
-0.08708795;-0.50389534;-0.038708985;-0.6936262;-0.28418764;0.31113303;1.3172404;-0.015298746;-1.5252993;-0.13006438;-0.010414874;-0.34297508;-0.12467758;-0.015817193;0.17915156;0.24504095;-0.86436677;-0.60501486;0.2642588;-0.33625284;0.05144926;-0.20919247;-0.038737953;0.49223265;-0.29081294;-0.8612329;0.4944294;-0.15000375;-0.15640868;-0.59748256;-0.17622167;-1.4842464;-0.057672538;-0.08125827;0.34790662;0.4018003;0.75869983;0.58890563;-0.1603283;-0.04057838;0.39965627;-0.5196922;-0.55089206;-0.077240504;-2.3010998;0.033680104;-0.060260512;-0.008390406;0.28060743;1.389822;-0.54247063;-0.39770994;0.19806759;-0.08533018;0.6547935;0.24523692;0.15927915;0.071105115;-0.04208215;0.09940518;0.15786594;-0.054455634;0.98411804;0.13819394;-0.04132741;-0.20774001;-0.023623446;0.36588356;-0.08885057;0.3897168;-0.41885832;0.063503884;-0.23264232;-0.046239514;-0.9226755;0.25730553;0.2481584;-0.5596222;-0.31492344;0.38016656;0.3522922;0.10274821;0.97700953;-1.2684261;-0.036584955;-0.2132762;0.05435896;0.024599435;0.57471365;0.06238643;0.3724449;-0.03134383;0.024312206;-0.93074226;0.06934524;-0.22492638;-0.4364933;0.30163136;0.28297716;-0.0021213426;-0.16149889;0.38882428;-0.011126995;-0.29551494;0.49582502;-0.39241377;0.3541713;-0.0047378554;-0.08963229;0.21750961;0.76771593;-0.17263761;-0.099793606;0.8541607;0.056573626;-0.13840622;-0.48372746;0.08696495;-0.2049639;-1.0662197;-2.806049;-0.2128031;0.06956424;-0.19292097;0.5413847;-0.22686955;-0.08908136;0.27834904;-0.23070823;0.15220024;-0.06440582;-0.28973097;-0.112888716;0.44114;0.38218898;-0.17674568;-0.13862406;-0.08495286;0.07970051;-0.30575806;-1.2445718;0.19810963;0.29168782;-0.12431838;-0.18458106;0.065502875;-1.1364127;-0.16564305;-0.035595033;0.013126647;-0.017283384;-0.030761972;0.07624497;0.49305254;-0.21383664;-1.6802299;-1.3836172;-0.612002;-0.041597337;-0.08265456;-0.022052038;0.04123259;0.7780722;0.26069072;-0.23479795;-0.10485496;-0.292841;0.15096687;-0.2992716;0.013336691;0.27579322;0.5264557;0.17334042;0.095616855;-0.15301536;-0.017937418;0.395075;-0.0028970009;-0.6943729;-0.1050438;0.014631987;-0.0846972;-0.19442879;0.159794;-0.5687777;0.026624886;-0.06423081;-0.8224121;-0.94707614;0.26790395;0.4625877;0.058344524;1.1214589;-0.080751635;-0.14948414;-0.16145013;-0.86474454;-2.2402387;-0.5079731;0.20868517;0.36513913;0.22120869;-0.10339408;1.0258214;0.11633103;-0.015027416;-1.6366311;-0.15092494;0.30998;0.0699926;0.2924486;-0.112570345;0.49867576;-0.41856012;0.17901641;-0.08583589;-0.04413697;-0.13211975;0.17915949;0.22921723;-0.16514021;0.6840206;-0.08560363;0.24542224;0.25938812;0.21406573;-0.399868;-1.0858039;0.7994249;0.39033318;0.0692775;-0.7755802;-0.12049897;0.31672075;-0.14686343;-0.20564038;0.27009082;0.04874179;-0.12561028;-0.34455043;0.007215688;-0.11767315;0.36636367;-0.41719985;0.7037121;0.7291943;0.16958885;-0.5701175;-1.4743334;0.17209883;0.044269472;0.22502615;-0.70840734;-0.49244237;-1.05074;0.27438655;-0.9197328;0.18814549;-0.09538791;0.26180565;-0.08372427;-0.08753542;-0.017225651;-0.13627489;-0.020106385;0.53926426;0.13562736;0.052839912;-0.043776255;0.11271333;0.06283727;-0.05787754;-0.097753294;0.23327455;0.44931558;0.03044328;-0.5191599;-0.052684084;1.3242902;-0.08305205;-0.6628389;-0.2669454;-0.10423156;0.31348705;0.03620266;0.41813123;-0.06415132;-0.15473989;-0.15185724;0.1181443;0.2153582;-0.06501052;0.033516787;0.046515375;0.08697307;-0.32341585;-1.9270867;-0.02469227;0.021966392;0.54047674;-0.5283845;-0.1940333;0.01999122;-0.4161107;-0.21013138;0.31871426;0.2919141;-0.048366025;-0.074339814;-0.026802499;-0.107170865;-0.43707135;0.06913676;-0.20863017;-0.35490158;0.20010409;-1.0039233;-0.30430493;-0.09080162;0.69816613;-0.011765571;-0.024411993;0.017419036;0.11397278;0.40132344;-0.26619512;0.16941753;-0.30403596;-0.004813546;-0.15628862;-1.8193326;0.708446;-0.09513661;-1.3252441;0.72937363;0.031555206;-0.006398054;-0.3887626;0.559329;0.060990065;-0.6451197;-0.020852989;-0.15960225;-0.8884895;0.115510926;-0.059025265;-0.26081055;-0.3423254;0.12840557;0.0448256;0.24806838;-0.41297284;0.5719546;-0.00057229993;2.3265562;0.68479246;-0.59743124;0.19677229;0.0025382484;-0.36053982;0.03288636;-1.2237316;-0.06401575;-0.48361957;0.033377048;0.08116116;0.083058566;-0.030311385;-0.34371838;0.07442582;-0.12713632;0.89678365;0.12869987;0.010870913;0.107429825;0.46545982;-1.5351982;0.092251986;0.12361823;-0.105630055;0.12405691;-0.30814;-0.26797044;-0.090885065;-0.046855025;-0.23794298;-0.20471984;0.14480329;0.03318187;-0.13037354;-1.1958429;0.06700249;-0.10283658;0.03869875;-0.28519535;0.1963412;0.26240075;-0.11471371;-0.6242731;-0.029346205;0.78698397;0.012185182;-0.4812472;-0.18129596;0.21680437;-0.1917351;-0.28998137;0.16316976;-0.022735225;-0.0342071;-0.7987587;-0.23656787;0.6015383;-0.042706143;-0.034103505;-0.10805906;0.1101329;-0.8942089;-0.15862182;0.7654502;0.17551218;0.0067532514;0.0943748;0.15664129;-0.07126721;0.05265719;-1.0835174;-0.4348736;-0.061126005;0.76522887;0.20789899;0.104083255;-0.06464039;0.3211061;-0.59959656;-0.4003335;-0.0043787146;-0.139582;0.05561127;0.035932988;0.7242397;-0.26432878;-0.24657236;-0.2828295;0.2218037;2.5416212;0.91770613;-0.32394975;-0.45565045;-0.13582721;-0.17323458;-0.10753002;-0.25375828;-0.8888831;0.66292274;-0.17437975;0.077829294;0.14006542;0.70819134;0.15378486;-0.047586314;0.094789006;0.028207118;-0.08548707;0.5302353;0.133469;0.41112968;-0.049391247;-0.21019906;-0.32984275;-0.07201779;-0.53006095;0.022284957;-0.03787473;0.12448796;0.04876158;-0.14069188;-0.23674451;0.14099844;-0.037340175;0.08395892;-0.09136954;-0.9150258;1.1751965;-0.24100512;-0.14452869;-0.0762261;-0.0882579;0.75619453;0.2061393;0.5732087;-0.5175536;0.1695986;0.40391806;0.6587602;-2.0987916;-0.0345901;-0.31553224;0.031098539;0.36992592;0.30844343;-0.024077348;-0.7564153;-0.20708229;-0.1624674;-0.15609771;0.07142792;-0.102404945;0.5824363;-0.10671619;-0.2705363;0.027476108;0.044420417;-0.1306911;-1.4129303;-0.20972925;-0.33909583;0.021214258;-0.36688003;-0.13765843;-0.0319887;0.045499668;-0.012708049;-1.0268226;0.25942752;-0.09092467;-0.09032423;0.31764787;-0.14036354;0.18777429;-0.09198094;-0.06303274;1.4214326;-0.6541222;-0.17826018;0.7774982;0.50062126;-0.14170398;-1.6518323;0.57560265;0.08074286;0.2701163;0.61719733;0.023405228;-0.32365745;0.070049115;-0.43396586;0.07862076;0.29597968;-0.11022714;0.028258605;-0.030642213;-0.21357773;-0.45192632;0.033149753;-0.41735822;0.033602625;0.29537693;0.89135486;0.10527955;0.27900603;0.23451543;-1.887733;-0.3464263;0.24636364;0.25345126;-1.5919133;-0.5588898;0.39514914;0.06758576;0.13045152;-1.0111694;-0.13101411;-0.100434355;-0.05156066;-0.028425246
-0.03878604;-0.3549546;0.07145193;-1.5279999;-0.04920266;0.06372476;-1.6327435;0.08566813;-0.6005011;0.04342151;-0.05253142;-0.4584018;0.010507669;0.021672644;-0.04612124;0.07163158;-1.5185539;-0.4068674;0.049076494;-0.027931325;-0.026857683;0.14142308;-0.4387432;0.030159596;0.031804275;0.34747759;0.10793595;-0.077088624;-0.88209707;-0.40631256;0.02591959;0.2703896;0.0773752;0.3058444;0.022387123;0.12965173;0.32796568;1.1464148;-0.011458865;0.045046724;0.0056119524;-0.474804;-0.17573453;0.03769941;-1.1255207;-0.023713674;0.032692607;0.81042254;-0.09532357;-0.6336964;-0.22779101;-0.4749445;0.027652124;0.45494503;0.1348307;-0.110438794;-0.033051446;-0.05372688;0.019372623;-0.017792894;0.27981153;0.026131436;-0.4771963;-0.017669143;0.043880984;-0.1803892;0.023928145;0.24078849;0.038388018;0.06284011;-0.26424554;-0.68887955;-0.0121780615;-0.25958598;-0.42678723;-0.08482644;-0.02351274;-0.66046566;0.46180382;0.06319072;-0.04034705;0.020969693;-0.08485254;-0.82349783;-0.05539097;-0.1298196;-0.01089997;-0.0508331;0.13835612;-0.04939401;-0.020303885;0.050109122;0.053643063;-0.9193852;-0.03889767;-0.02182072;-0.40892345;-0.0067473254;-0.0481628;0.050086886;-0.018007215;-0.2914878;0.337208;0.10391512;0.002947442;-1.1551726;-0.05066218;0.040345147;-0.030324787;-0.076029174;1.2032825;-0.042465463;-0.55259484;0.38515598;-0.07243529;-0.076033264;-0.30019286;0.002581897;0.014027677;-0.48523805;-0.90990597;0.06830481;-0.005416001;0.068316795;0.10476769;-0.044246413;0.06423152;-0.019309657;-0.22947323;-0.029803565;-0.006463532;0.04910283;0.014361401;-0.032897383;-0.0025101346;-0.09131992;0.03210489;-0.051110666;-0.08795156;0.35372958;-0.6841459;-0.026119465;0.4124871;0.057406064;0.019011157;0.17289485;0.32036033;-0.033193488;0.030907134;-0.06640443;0.0031359263;0.002244051;-0.059751187;-0.8104066;-0.33452824;-0.6096345;-0.82461363;-0.4395462;0.3733193;0.061995436;-0.08053989;-0.3405167;-0.83668816;-0.000257402;0.083129324;0.003977487;0.07305619;-0.0920379;-0.017376423;-0.039945308;-0.0393538;-0.67420965;0.027659561;0.029324522;-0.062174547;-0.017580384;0.032102205;-0.0025276665;-1.2166888;0.023677649;0.049735952;-0.18231927;0.054481715;0.06213861;-0.35919327;-0.030687548;-0.07277738;0.09509919;-0.43492523;-0.009234473;-0.91826814;-0.07697913;-0.57685596;-0.17984971;-0.055944677;0.027377976;-0.020889606;-1.3073512;0.26418737;-0.033572614;0.070617564;0.7629648;-0.061817314;0.45644668;0.0815121;-0.10615181;-0.559206;-0.14226568;-0.13247117;-0.084039785;-0.51069635;-0.07341126;0.13334195;0.2758069;-0.099864155;0.030675221;0.018744648;-0.06962773;-0.08235422;-0.35520408;0.055790547;0.08848357;-0.112713136;-0.4599295;-0.104685165;-0.11334017;-0.12182322;-0.9156843;-0.31288132;-0.34286046;-0.27340823;-0.06196095;-0.3366274;-1.8545867;0.056754988;-0.043913987;-0.12529534;-0.030364195;0.015061351;0.06591568;-0.020839447;0.17943294;0.111393005;-0.3450214;0.11157562;0.074077316;-0.07157816;0.43776712;-2.4077647;-0.12046242;-0.022554332;0.4168469;-0.23828974;-0.22895436;0.75721467;-0.2810526;-0.6070429;-0.014600165;0.01320053;-0.0028199144;0.020801816;-0.032709565;0.12375366;0.011235495;-0.008090721;0.16605717;-0.1719934;0.0008865887;0.051238924;0.033794783;-0.66486764;-0.041377287;-0.06468228;0.025500828;0.5354107;-0.10987089;0.03663261;-0.21645369;-0.53128594;0.04960428;-0.092203826;-0.18995343;-0.075102724;-0.22275573;-0.07357024;-0.35387018;-0.029874524;-0.05657327;0.0804707;-0.09345553;0.14275843;0.026299372;-0.008435835;-0.052569196;0.08475046;0.34011635;0.35633594;-0.3525369;-0.18188258;-0.051445607;-0.27231386;0.023188958;0.020145668;-0.31052652;-0.31634864;-0.08148034;-0.259691;0.009514203;-0.65567607;-0.061495967;-0.22706538;-0.9333854;-0.0508728;-0.6385749;0.12310481;-0.094046876;-0.4764784;0.41995776;-0.055902068;-2.3161247;0.07848287;0.051332567;0.0018145317;0.024629682;-0.066414274;0.07773539;0.010428777;0.4430272;0.06536776;0.13147828;-0.2341855;0.47676423;0.047653142;0.23416416;-1.5091627;-0.02178096;-0.077991545;-0.4418133;0.21105587;0.019051153;0.5484975;0.87563723;-0.22992504;-1.7143393;-0.11665902;0.059091523;0.09464662;0.111646526;-0.058801223;0.026273925;-0.3346985;0.346887;0.048079688;0.11537582;-1.0870532;0.16767576;-0.44465467;-0.04106565;-0.012306459;-0.24020989;0.31580678;0.39017415;-0.012794276;-0.105952896;-0.026331447;0.059407018;0.0706255;-0.06904774;-0.0068590497;-0.03168617;0.02118705;0.78146136;-0.09716764;0.061375625;0.1254836;0.7392636;-1.1270764;-0.12037063;-0.043860957;-0.042412043;-0.0820535;0.017010001;0.108451486;-0.00053315464;-0.06425467;0.46618497;-0.014019921;-0.006192357;0.022170488;0.05014976;-0.09609949;-0.08668448;0.06420128;0.0022112788;-0.28652006;-1.2079386;0.02257023;0.020946957;-0.25878492;-0.0661057;-0.07476582;-0.0124471225;-0.37117767;-0.7281391;0.052668795;0.65612215;-0.3720578;-0.36939496;0.03403196;0.004446344;-0.11582207;0.047332793;-2.1293867;-0.17408672;0.532632;-0.06714961;-0.04410544;-0.83006454;0.06977991;-1.5363076;-0.18649566;-0.7152382;-0.021516476;-0.07401724;0.04817726;0.03931963;0.55762374;0.021125756;-0.07631799;-1.1945308;0.041911468;-0.019908004;1.8350285;-0.056027357;-0.3532436;-0.21432176;0.033969127;-0.0019294061;0.022161877;-0.012665943;0.6752856;-0.21122418;-0.0006061605;-0.20309262;0.046753027;-0.034034844;-0.88479435;0.20904404;-0.7774707;-0.011394466;-0.031066483;0.0023834708;0.00563376;-0.36498988;-0.039273717;0.046482235;-0.07840346;0.09832604;0.97329843;0.0031742768;0.01937032;-0.079865694;-0.4496456;-0.03466669;0.16788147;-0.07344024;0.20914873;-0.02393936;0.029378634;-0.14835654;0.008541049;0.038864423;-0.010232367;0.088406116;0.015800456;0.0007833894;0.002345111;0.016870294;0.19211194;0.02402269;-0.007135201;-0.014136401;-0.13030751;-0.06750919;-0.06313487;-0.22851323;0.06982517;-0.02113999;0.17812999;0.023998605;0.1493995;-0.29661247;-0.08295318;0.0061114943;0.13870604;-0.8287227;-0.04745938;0.09889368;-0.07900854;-0.13730061;-0.24543698;-0.5908497;0.22821005;-0.18105209;-0.097724214;0.08091309;-0.03605755;-0.0756875;-1.0041066;0.016451728;-0.08501562;0.053189777;0.031360067;-0.064047396;-0.8936117;-0.109079786;0.0038518012;-0.14268246;-0.08091811;0.28800443;0.061550193;0.05866604;-0.056825403;0.08578026;0.14928086;0.022037515;0.0339742;-0.12300179;-0.055843104;-0.23373923;-0.0035425697;0.041952703;-1.1151323;-0.24054071;-0.16170137;0.11277738;0.021686297;0.013247033;-1.0875959;-0.15632428;0.008352948;-0.12499867;0.12785213;-0.09865349;-0.44447085;0.032232057;-0.28258264;-0.045195248;-0.03827808;0.048517697;-0.015486576;-0.013583025;0.21239789;0.27348918;-0.0028739648;1.036036;-0.022121038;0.0017318211;-0.4174585;-0.06795672;-0.28361937;-0.090889014;-1.2035764;-0.3057023;-0.02549659;-0.025429174;-0.65953106;0.12753657;0.014037711;-0.066430084;0.026742578;-0.654055;1.802157;-0.054955065;-0.033780806;0.009141806
0.08336417;-0.42557722;-0.0657597;-0.20788145;-0.018801026;0.15668724;-0.07453153;-0.11043671;-0.9480912;-0.03852954;0.01743704;-0.33883166;0.08257301;-0.0074040205;0.08591046;-0.12160487;0.47078976;-0.35465744;0.13401431;-0.06434812;0.059739903;-0.2355822;0.15048826;0.23307608;-0.060110196;0.2734653;0.17094043;0.038632184;-0.3247975;-0.36015484;0.040594533;0.39217755;-0.01644007;0.095877;-0.0060115564;0.15134905;0.2682824;-0.34036264;0.055435456;0.074110165;0.14133982;-0.6222666;-0.7731597;0.012500831;-1.8575824;-0.038545154;-0.07667113;-0.5216478;-0.34243715;-0.16069072;-0.36139965;-0.4781996;0.031146817;0.10434464;-1.0134176;0.0015699366;-0.044065002;-0.020103302;0.06830578;-0.011435397;0.18909015;0.029856468;-1.558396;-0.06730341;-0.051798746;-0.2168527;-0.064391345;0.23468672;-0.12702456;0.08707088;-0.73435634;0.82097816;0.043310836;-0.5228085;-0.0569244;-0.049968876;0.068719;-0.62475806;0.22860132;0.14478897;0.09773981;0.054696083;0.91029215;-0.24222739;0.0035873277;-0.20790213;0.04518793;-0.07265407;0.18984984;0.018443527;0.20036973;-0.041657314;-0.011090509;-0.61463994;-0.061168004;-0.07271579;-0.27026597;-0.02023769;0.093959495;-0.052585773;0.06666103;0.14159839;0.0928925;0.066392735;0.08790077;-1.1061078;-0.0037433614;-0.008545406;0.03980712;-0.02960024;-1.3069056;0.08620475;0.66046643;-0.29469776;-0.07439645;0.07374602;-0.5608686;-0.036983386;-0.078475215;-0.621775;0.13716657;0.07329417;0.030616771;0.01577961;0.2383549;0.04073914;0.061919697;0.07118868;-0.23659736;0.023161545;-0.016572813;0.023551872;-0.9832991;0.22421965;0.14987281;0.024680052;0.026676983;-0.13702811;-0.98175114;0.28757542;-0.14966059;-0.12256337;0.2558815;0.02879147;0.041725088;0.7955148;-0.6707716;-0.041446466;-0.016567208;0.020520268;0.077536024;0.057438325;0.015896605;0.07032123;0.08560565;-0.40729895;-0.7244267;0.062062737;-0.047426645;-0.08640334;-0.029027423;-0.1832677;-0.011762452;-0.078362234;0.002649927;0.024691822;0.0019853548;-0.0708348;-0.58653617;0.047422703;-0.054971635;0.41972405;-0.07481891;0.033647757;0.026688375;-0.07099384;0.005005824;-0.047011472;-0.41704592;-0.053905956;0.058865875;-0.15027334;-0.0586591;0.022676105;-0.48151228;-0.09308076;-0.067377955;0.8305893;0.8520545;0.0068426463;0.010569509;0.06335216;-1.0633252;-0.14953229;-0.06650095;0.043781172;0.18169807;-0.12955107;0.9473664;-0.19169939;0.12004427;-0.088652976;0.04639323;-0.061378345;-0.095055856;-0.114603154;-0.8187823;-0.24941906;0.05592633;-0.387647;-0.14093499;0.01594867;0.14131476;-0.6593982;0.017002571;-0.033991557;0.07884212;0.010544672;0.067415066;-0.008856562;-0.026683329;0.27944303;-0.123769835;0.012842019;0.073154785;0.047402695;-0.23856539;1.2383909;-0.039085176;0.19292633;-0.033255447;0.2291487;-0.18152337;0.27222013;0.05153781;0.22825569;-0.06014334;0.04276374;-0.004758014;0.024806397;-0.011677726;0.44102135;0.18870011;-0.38999036;0.29791713;0.34791252;-0.0022474702;0.14176942;-0.45665637;-0.06432473;-0.058401532;0.20103922;-0.4753646;0.29484585;-0.25191054;0.112057544;-0.2947871;-0.06469171;0.08265377;0.05490542;0.008889152;-0.012667692;0.1130644;-0.0745022;-0.04540532;0.17999971;-0.10944046;-0.012026353;0.07054259;-0.09378754;-0.4412245;0.66920704;0.03022298;-0.032865543;0.06921054;-0.024396962;1.0356253;-0.21780707;-0.39721859;-0.034799274;-0.585854;-0.30289334;0.01939441;-0.07912224;-0.023793193;-0.34046388;-0.004763261;-0.081199974;-0.015641904;-0.04761649;-0.5215395;-0.022884605;0.016776841;-0.01508403;0.0021267622;-1.7681478;0.10298385;-0.8830596;-0.06418865;-0.025437081;-0.4146329;0.04375147;0.00940044;-0.45845282;-0.30120203;-0.08846445;-0.05878763;0.06260341;0.8622218;-0.036741514;-0.32296458;-0.92431223;-0.026541116;-0.31819293;0.44776455;-0.07171683;-0.5462748;0.35521618;-0.06913411;-0.35362744;-0.0065291356;9.115437e-06;0.008442276;0.023144245;0.011559129;-0.006262375;0.016096832;0.87047523;-0.031109963;-0.10999102;-0.64271986;0.41676873;-0.0527661;-0.37681788;-0.67295986;-0.028364005;0.06848045;-0.5521154;0.59394586;-0.21711227;0.16317052;-0.19995365;-0.37564814;0.35908678;0.06909012;0.0032736042;-0.046056308;-0.10248227;-0.08780592;-0.060641527;0.2599506;0.44792804;-0.17370813;0.032313067;-0.8681419;0.334323;-0.53645843;0.087428145;0.042077336;-0.32025078;0.24981044;-0.11926048;-0.10972116;-1.0780333;-0.029548442;-0.0047700247;-0.085538596;-0.069800645;0.07193069;-0.091462456;-0.05337562;0.8897833;0.0014220179;-0.07205774;-0.10662725;-0.4028879;-0.26639223;-0.07193441;-0.05726566;-0.06742674;-0.037813902;-0.0724032;-0.77298945;-0.01806746;0.0072562387;-0.37821046;0.052042775;0.043394018;0.06192627;-0.055529978;-1.5611202;0.046149027;0.08329645;-0.015793309;-0.20581113;-0.8300405;0.07028808;0.0095231775;-0.61030537;-0.037936967;-0.18863975;-0.07367987;-0.4397366;-0.28227377;-0.17022917;0.3860568;-0.4537444;-0.49669737;0.062211044;-0.054521203;-0.9691452;0.07435234;-1.0060731;0.23587148;0.7225684;-0.0944575;-0.04834695;-0.30354717;0.047253408;1.2135314;0.15426983;-0.46583784;0.049586803;0.045687355;-0.023086948;0.019691337;-0.96519125;-0.10031744;0.04379319;-0.15104797;-0.04607145;0.15194854;0.36536556;0.048370518;-1.4528686;-0.31924447;-0.05978831;-0.029623887;0.02009658;-0.02936228;0.5502067;-0.31346822;0.03404792;-0.44631356;-0.26462087;0.17159893;-0.021353329;-0.92495954;-1.1213157;-0.069654815;-0.05182144;0.072844714;-0.07742778;-0.04607408;0.03976927;0.008425608;0.14795351;0.18755376;-0.5834453;-0.05632104;-0.07033791;-0.020381859;-0.49667078;-0.009547292;0.33908683;-0.009999973;-0.17957091;0.023407841;-0.06451178;-0.15465719;0.012637924;-0.2734083;0.05488125;0.056831688;-0.063594304;0.011330213;-0.07775417;0.0377279;-0.36574477;-0.071874656;-0.12362856;-0.021523258;0.3891231;-0.21114449;0.06640319;-1.9023343;0.025871806;0.05799329;0.33385977;-0.063649036;0.2551875;-0.38527367;-0.03389103;0.029736646;0.37893888;-1.0569198;0.03198055;-0.03598995;-0.011278447;0.21623188;-0.5272665;-0.72435886;-0.111499034;-0.2141799;8.340119e-06;0.039501272;0.060485106;-0.124793366;-0.94171035;-0.009585087;-0.015797606;0.055975277;0.036004983;-0.021492107;0.22752698;-0.16580726;0.0021738876;-0.08282694;-0.07322474;0.75499946;-0.051229432;-0.02936752;-0.026980229;-2.148165;0.07575307;0.038526993;0.09491742;0.05914972;0.052960537;-0.09971811;-0.032800686;0.08970789;-0.18991992;-0.8929522;-0.22171073;0.31380308;0.10538667;0.0041410215;0.5808802;-0.25481015;-0.0031123117;-0.019387115;0.37729797;0.009144276;-0.53898424;0.015013489;-0.5849847;0.028073141;-0.057561092;-0.0027291358;-0.06830124;0.012066659;-0.058224905;0.0018901463;-0.013927476;0.2971171;0.044855785;0.039047703;-0.37616044;-0.17560774;0.2067976;-0.05732929;-0.20605998;-0.52332616;-0.09331686;0.0767066;-0.11802592;-0.57219374;0.1765704;0.07489619;-1.1513618;-0.65736705;-1.0407922;0.032567438;0.07267456;0.051373594
-0.055197354;-0.2023126;0.001853586;-0.99079674;-0.18724404;0.06569945;-0.7422188;0.28414246;-0.06842223;0.02499043;-0.046111856;-0.060398154;0.074258946;-0.098641254;0.0033815198;-0.16855694;-1.044566;-0.24338736;0.029622309;0.0080132475;-0.0029265892;0.19914727;-0.69170755;0.16358484;0.027747916;0.49831408;0.047532566;0.06869221;-0.51529497;-0.39570138;0.070131235;-0.37460747;-0.012661299;-2.0556448;0.14761163;0.002512983;-0.41366735;0.63896;0.03583898;0.032082286;0.07960049;0.31616056;0.50700927;0.04330114;-1.008098;0.024736868;-0.014855083;0.08282722;0.25405052;-0.09449434;-0.4505384;0.36228326;-0.07739066;-1.7390258;1.0788573;-0.06956626;0.028774342;0.06424027;0.06653873;-0.08249868;-1.577702;0.091143616;-0.19930968;0.018097594;-0.0024413047;-0.10494518;0.013855842;0.3585396;-0.06089709;0.06611693;-0.12176456;-1.3753546;0.0901477;-1.7441595;0.059002455;-0.045357652;-0.107611954;0.084737174;-1.3453443;0.040761076;0.09541343;0.020700015;1.5818039;0.831259;-0.019534584;0.49943733;0.12798944;0.060133237;0.15609469;-0.022549985;0.11913193;0.019454962;0.07149491;-0.75724936;-0.006827716;0.023427658;-0.15290102;-0.015789555;-0.04594115;-0.073349304;-0.015221222;1.3306004;-0.5707613;-0.024749277;0.029384995;-1.640564;-0.07910209;-0.042503875;0.049118463;-0.012931093;1.5132036;-0.06312057;-0.07257183;-0.8573356;-0.09141793;-0.034975775;0.8085541;0.07248745;0.057894744;-1.8481026;-0.80592936;0.058924254;0.044521995;0.06329662;0.13588782;0.052335504;0.071337454;-0.029528262;-0.18113124;0.005387181;-0.054691784;-0.008544931;-0.3208521;0.12416399;0.0058641643;-0.074492425;-0.058017876;-0.29555923;0.41378477;-0.16893673;-1.0050646;0.028468648;0.08826132;-0.0011804794;0.0922364;-0.3137402;0.4215637;0.046269733;0.03937272;0.022847416;0.06357528;-0.029710514;0.058606192;0.07046014;-0.3401958;-0.16759977;-0.46489912;-0.108513355;0.31511426;0.08252417;0.0041601444;-0.2824223;-0.31234753;0.043736685;0.011575723;0.06295039;0.03597462;0.015467342;-0.18241547;-0.077905044;-0.03738563;0.42757058;0.061853513;-0.06348543;-0.03098791;-0.052937932;0.0047853654;0.049913403;-0.29674584;-0.042926203;-0.0818774;-0.08100448;0.025079453;-0.042857453;-0.25784627;-0.07523839;-0.05373002;-1.7008493;0.122977294;-0.06918134;-1.0164297;0.040057022;0.0872314;-0.09007945;-0.053888056;0.03822808;-0.1700595;-1.3091321;-0.9903823;0.05031265;-0.043011844;0.21448585;0.08068803;0.54833686;0.0013588285;0.078312606;-1.2686447;0.24895296;0.0023927435;0.4825199;-0.0006985694;-0.0065309796;0.14186502;0.34658068;-0.15814583;-0.05968957;0.047596198;0.045213416;0.03224108;-0.5300213;0.019127458;0.15601325;-0.19753046;-0.092687115;0.039548855;-0.0033919755;-0.9295606;-1.4349397;-0.41933843;0.12198352;0.15336554;-1.9399803;-0.67442095;-0.5757978;-0.030113667;0.10638098;-0.008723356;-0.07391023;-0.06531824;-0.23741941;0.071335934;1.2046474;0.17885974;-0.32634524;0.2527189;0.24023034;0.00066743913;0.039339602;-1.6293117;0.056939993;-0.0035457108;-0.16805868;0.93578917;-1.475596;0.21160404;-0.8300647;0.6222494;0.034886464;-0.059033044;0.030003734;-0.03585842;0.042295378;-0.41278908;-0.049822498;-0.05701875;0.15036532;0.018743444;-0.043409456;-0.06710404;0.056314003;-0.8725666;-0.36071268;-0.04705831;-0.07490605;-0.94805;0.12983845;-0.8690963;-0.2508912;-0.33723998;0.022703268;0.92882633;-0.18135554;-0.051335372;-0.22955272;-0.023014061;0.16737199;0.0010382015;-0.0847771;0.00416703;-0.06953757;-0.96700144;0.088837825;-0.06082343;-0.004973083;-0.2976852;0.7016415;1.4565933;-0.9965879;-0.37240177;0.44486576;-0.22742747;0.057604864;0.033920642;-0.4095316;-0.3562477;-0.08553692;-0.3878945;0.0500843;0.08075899;-0.062388886;-0.2729421;-1.7506535;-0.059424236;-0.54873997;-0.52368575;-0.011509091;0.17140968;-1.1938703;-0.047770128;-1.0626485;0.06752201;0.056987874;-0.044506066;-0.03862808;-0.046518784;0.07117241;0.059116874;0.21426986;-0.07169319;0.07657799;-1.2095621;0.3079494;-0.029573062;-0.5707491;-0.30748466;0.067913905;0.027716927;0.14988208;-0.52037674;-0.10725867;-0.3007298;-0.84761256;-0.16019887;-0.48649848;-0.030964503;-0.049048886;-0.017215712;0.09020384;0.0022582456;0.036333427;-0.025828483;-1.293335;-0.029085802;0.08884889;1.2152469;0.29507253;-0.3462289;-0.093373425;0.05491645;-0.8327924;0.24439365;-0.48044035;0.33633664;-1.1530951;-0.051700234;0.0944357;-0.022232294;0.03631744;0.039203394;-0.03772067;0.011881547;-0.059405785;-0.08146391;-0.03106818;0.10978517;0.54331046;-1.3565971;-0.6085177;-0.016729586;0.08320898;-0.009226955;0.10801175;-0.2789313;0.07633376;-0.08701132;-1.6988487;-0.0010658893;-0.066565946;0.08000642;-0.056381013;0.49335513;0.032040972;0.051643297;-0.043075986;-0.21982117;-0.018832894;0.033273827;-0.0189481;-0.6001654;-0.06714008;-0.37822196;0.019402064;0.48387983;-1.8042884;-0.06804442;1.2176827;0.39469424;-0.9168868;0.058433734;0.03598773;0.55100435;0.07247119;-1.1965249;-0.060731594;-0.5313043;-0.69904613;-0.07082515;-1.9787815;-0.030962212;-0.036692895;-0.094994;0.1266805;0.05763349;0.04946186;-0.022604352;-0.02038361;-0.9057979;-0.005967663;-0.07924448;-0.22833194;0.052600097;0.1801096;1.4765936;0.0108421855;0.6105421;-0.2406701;0.023579989;-0.034539238;-0.024033884;-0.02534728;0.584081;-0.243217;0.0021671178;-0.35482657;-0.18429951;0.50820553;-1.1024166;-0.87906575;-0.49144197;-0.0032017669;0.05221509;-0.0731289;0.0095046405;0.64025825;0.05524941;-0.04185085;0.14422157;0.025761912;0.64794236;-0.079663604;0.053470753;-0.0069778915;-0.41787773;0.04653392;0.24931392;-0.022887364;1.2152373;0.070787996;0.030564534;-0.07576878;-0.07180638;0.12093983;-0.013555845;-0.08441468;0.062428806;-0.027689043;0.073356554;0.076124415;0.24067222;0.027351227;-0.050076045;0.029352704;0.186951;-0.2815956;-0.0013226809;0.42688918;0.08477273;-0.007275618;0.26444966;-0.038977627;0.21647574;-0.34363154;0.038272142;0.057077013;0.15970111;-0.7580221;0.06059459;0.050465774;-0.025219562;0.112946;-0.38865215;-0.054868434;-0.9060391;-0.15200247;-0.03453135;0.030785918;-0.056904823;-0.021662021;-2.0116284;-0.0023741722;-0.06602816;-0.051480297;-0.020629514;-0.049036976;-1.6680477;-0.14777566;-0.06953822;-0.054681465;-0.024924975;-1.0273907;-0.06358563;-0.03686435;0.06407222;-0.106697686;0.07374761;-0.08412207;0.03502526;-0.06775762;-0.0577737;-0.5256364;0.07522148;-0.02364706;-1.1453184;-0.022004513;-0.072097376;0.32405472;0.03999951;-0.06010914;0.48828185;1.8174393;0.06161693;0.02829877;0.21512088;-0.045535225;0.0044600004;0.020279134;0.5919261;-0.026239108;-0.022456534;-0.050629653;-0.031668834;-0.024556013;0.04792251;0.2805214;0.007261406;2.0861554;0.008909347;-0.06157005;0.0124100195;0.33034265;0.1889955;0.010013967;-1.3510106;-0.19668257;-0.06632028;0.045414854;-0.24319743;0.31621504;0.038905423;-0.042444963;-0.44754148;-0.5392041;0.33178502;0.061879933;0.06910076;-0.07703022
-0.028766671;-0.21670032;-0.029407965;-1.2716115;-0.22731176;-0.100387335;-0.30146557;0.12721202;0.003852635;0.13531029;-0.09303418;0.088056915;0.018193385;-0.029981546;-0.06353104;-0.5907139;-0.043973427;-0.38199747;-0.05773617;0.14491093;-0.016584776;0.20611073;-0.38582698;-0.11073669;0.085995376;-0.7730971;-0.0344735;0.069489405;-0.45031303;-0.33743858;0.006313225;0.35275006;0.0034539022;-0.29406145;-0.09751691;-0.13003829;-0.2006013;0.6006871;0.044893328;0.024080731;-0.16199598;0.7474603;0.5725144;0.004719496;1.300946;0.004600039;0.06691844;0.3920927;0.061106745;-0.92975235;-0.27284303;0.068290904;-0.10539049;-0.028284498;-1.328111;-0.19846597;-0.09993702;-0.111865774;0.08129298;-0.08177568;-0.8997247;0.066627674;0.99894506;-0.026475752;0.048745472;-0.18444611;0.012458708;0.24978112;0.08813729;-0.11906069;0.57372147;1.2827989;0.1046187;-0.38033;0.5780652;-0.19902112;-0.13941458;0.30782637;-0.9887334;-0.1845255;-0.18360266;-0.1305479;-0.9047693;-0.5899576;-0.06231443;0.29085752;0.0072661857;-0.011177392;0.01932849;0.053870577;-0.040315915;-0.061628576;0.11169881;-0.79411155;-0.11784177;0.20997344;-0.37351364;-0.07489197;-0.21676277;0.071919136;0.13025667;-0.7938321;-0.61390096;-0.1601342;-0.12556124;0.34280556;-0.21559614;-0.039620813;-0.05443832;-0.1612921;0.6716099;0.063364536;-0.41460174;-0.40984738;-0.01635859;0.015781527;0.76596487;0.02286587;0.0189764;-1.1071111;-0.53795326;-0.0009249347;-0.11565613;0.18060654;-0.076399915;0.0943155;0.061035957;-0.084507294;-0.19797824;-0.09764103;0.041159526;0.120712355;-0.31079718;0.008743257;0.35044393;-0.008581831;0.079767376;-0.031105349;-0.09028868;0.2899284;-0.35451767;-0.14693107;0.20626372;-0.013560554;0.09136302;-0.70734805;-1.0371058;0.07693278;0.052626695;-0.113964744;0.13779335;-0.013316802;-0.006039249;-0.11234278;-0.25329363;0.9229249;1.0585383;-0.30080634;0.25384247;0.08049804;-0.06512682;-0.23307838;0.41619864;-0.200178;0.054919437;0.02494357;0.04192292;-0.1618725;0.39030957;-0.031494197;-0.06928281;-2.0323348;-0.02884957;-0.079428054;-0.031080374;0.04741679;-0.10532734;0.070964254;-0.57394844;0.05496453;-0.14054447;-0.08243981;0.08211974;-0.105474345;-0.327023;-0.055724364;0.023282818;-1.5871148;0.09221586;-0.15602814;-1.1971016;-0.005014637;-0.36126935;-0.11062509;0.09577513;-0.0072355466;0.41645786;-0.7568627;-0.85210264;-0.1498486;-0.1660617;0.6779224;0.021917392;0.6498746;-0.039096463;0.16337834;-1.4442469;0.055383876;-0.097136535;0.11948442;0.046555307;0.06798811;-0.12944143;0.043302033;-0.17242412;-0.030952139;-0.054807786;0.054318734;-0.123826124;-0.35296646;0.12775946;0.03819442;-0.047478832;-0.33598456;-0.07488188;-0.23427723;0.03316441;-0.24691144;-0.45620066;0.25399712;-0.018350996;-0.72651553;-0.26273665;-0.88021386;-0.022759274;0.08739512;-0.07001799;0.016784946;-0.032777064;0.07899177;-0.052124258;0.545227;0.017145274;-0.26195523;0.03562707;0.027589334;-0.086352564;0.38426057;-1.5949675;-0.10659031;-0.07609205;-0.17406051;0.4616906;-0.7090472;0.466374;-0.7059797;0.39372;-0.06726549;0.05114631;-0.07910307;0.095065385;0.062161487;-0.27158043;-0.052705865;0.08343775;-0.13428444;-0.07643235;-0.042741667;-0.010732029;-0.104760095;-1.2479049;-0.38321376;0.09972941;-0.08090855;-0.34330156;0.14979075;-0.7063458;-0.054087788;-0.39807618;0.081487656;0.2576514;-0.23938699;0.0758848;-0.60373414;0.09590137;-0.32806543;0.062718906;-0.046856858;0.1502345;-0.040302884;-0.37102857;-0.006269661;0.017971853;-0.09852338;-0.23665228;-0.08539591;-0.50499064;-0.18927783;-0.48771715;-0.07949503;-0.22042613;0.109410346;-0.019571858;-0.2314919;-0.49673963;-0.13802579;-0.46318784;0.064505346;-0.043108962;0.045510754;-0.117442384;-1.5963645;0.03966182;0.18044549;0.33926508;-0.03169452;0.113425046;-0.5384845;0.06739129;0.047800075;-0.03966477;-0.01295985;-0.06116338;0.009574353;-0.08784787;0.11785631;-0.08316702;0.04407196;-0.027169134;0.18715309;-1.5357462;0.19730087;0.043550424;-0.92376;0.7797607;0.04519387;0.042152442;-0.8263192;-0.37611502;0.06665796;-0.423641;-0.24473876;0.3102574;-1.5141548;-0.23107342;-0.030254655;0.062436823;0.079979844;-0.08936199;-0.04584562;-0.22565569;-0.70234513;-0.2502911;-0.008666633;-0.49319932;0.046325933;-0.386822;-0.15438685;0.0019018117;-0.04859624;-0.039949887;-1.0104276;0.09592977;-0.8690942;0.03913259;-0.05051664;-0.06492035;-0.060262814;0.13392732;-0.054626998;0.12867217;0.59003556;-0.043368302;-0.043735392;0.092352875;0.47904927;-1.5343223;-0.33234861;-0.07720782;-0.039009564;-0.106980406;0.13231453;-0.42497048;0.0646874;-0.015467982;-0.26000446;-0.0033355241;-0.092252724;0.07362298;0.07931735;-0.23149696;-0.0942983;0.0013308569;-0.06959736;-0.17587289;-0.35477746;-0.22401898;0.13124882;-0.3533998;-0.024794359;0.08927161;0.021791033;0.45333552;-0.49925333;-0.7398919;0.3399734;0.19548514;-1.0951271;-0.00050203677;-0.034773704;-0.9062805;0.12613426;0.47105634;-0.26816472;-0.011895097;-0.48236653;-0.16969109;-0.9411198;0.093333155;-0.9369663;-0.39611965;-0.20411204;-0.03325231;-0.12861937;0.09060344;-0.02147543;-0.63510376;0.14821883;0.025182314;0.109996274;0.04168847;-0.07258134;0.83707;-0.1403491;-0.45201248;-0.17032023;0.057176426;-0.010673847;-0.03745492;-0.097072914;1.1588391;-0.095812164;0.15704641;-0.36179504;-0.1350323;1.0268003;-0.53132135;0.9688218;0.64408743;0.089869544;0.10159746;-0.04101739;0.03335352;-0.4953176;-0.36809322;0.029471798;0.08032855;0.016752392;-1.6933163;-0.02890617;0.091573395;0.057708297;-0.37442;0.037650026;0.03185646;0.00091679866;1.2067581;0.011339297;0.14784434;-0.056503378;-0.016625127;-0.13620289;0.040713415;-0.092800245;-0.16497163;-0.0328237;0.02821353;0.13647765;0.39589268;0.017960846;-0.017495656;0.008509048;-0.012622586;0.056609023;0.15793182;-0.22787069;0.09323771;0.07831908;0.0850617;-0.194432;0.011535836;-0.33275706;-0.038253117;-0.17882904;0.07560127;-0.6376992;0.122203976;0.18962185;-0.0450764;-0.22063194;-0.29803824;-0.19365087;0.29690033;-0.028230548;0.09095247;0.09865736;-0.03921152;-0.15733036;-0.97382134;0.106110215;-0.08042719;-0.10689206;0.037158355;0.0033557257;-1.1165408;-0.014049551;-0.009944992;-0.036984336;-0.045613486;-0.052994758;0.035998188;-0.008222322;0.03735803;-0.35010183;0.09675677;0.06291451;0.03756412;-0.11913301;0.04038774;-0.5618941;0.007744312;0.041151855;0.8669587;0.37890488;-0.043152306;0.069755636;-0.021693941;0.06419606;-0.9232199;-0.70266217;-0.074803784;-0.20035802;0.0858713;-0.01018729;0.002933338;0.052971315;0.17198212;0.014754848;-0.14250585;-0.017753012;-0.01581069;0.04144455;0.20581242;0.14267008;0.06730776;-0.9151564;-0.09519394;-0.20039874;0.68307585;0.21807311;0.097188726;-0.05022923;-0.8241115;-0.11349398;-0.14021629;-0.1507081;-0.37771103;0.06894781;-0.13426264;-0.106197484;0.051166106;-0.5880796;0.3402799;0.037037782;0.012307389;-0.0016977589
-0.030823112;-0.053597976;0.07895742;0.17921898;-0.14387874;0.0038993612;0.37063918;-0.13851054;0.6254886;0.055107117;-0.028123895;-0.24963357;-0.023042537;0.019070858;0.013314317;-0.04204027;1.4054421;-0.34343806;-0.12333605;0.103030995;-0.069907196;-0.13091643;0.53130007;-0.14696862;0.119340025;-1.1780249;-0.10348637;-0.056094915;-0.114631966;-0.09102725;-0.009172649;0.99763584;-0.020989241;-0.52037513;-0.110621765;-0.16194662;-1.9353429;-0.8220576;-0.012765634;-0.025456037;-0.15371983;-1.2622799;-0.6321323;0.0035876313;0.83014303;0.077615805;0.035418708;0.49089542;-0.45653212;-0.8808002;-0.21257246;-1.4457551;-0.0549092;0.82583046;-1.7726102;-0.0697848;-0.08097136;-0.034050442;-0.01983851;-0.050785206;0.27195045;0.0014820276;0.19406159;-0.02182911;0.019028556;0.02511002;-0.0661584;0.12231723;0.08713641;-0.11156932;0.54442483;0.26164758;-0.06684631;1.564348;0.052305967;-0.094844565;-0.09272129;0.10971126;-1.0954196;-0.14338718;-0.018193755;-0.042745825;-2.3638127;-1.4608322;-0.0773585;-0.7689288;0.033283453;-0.035835553;-0.09489551;0.06736567;-0.10392684;0.011566787;-0.07203246;0.13158228;-0.078729056;0.059621204;-0.22647275;0.053614154;-0.14391854;-0.03835901;-0.0038509036;-0.8843238;-0.45274746;-0.11508337;-0.059751794;0.73065656;-0.005831093;-0.017035028;0.03734137;-0.10046183;-0.35489094;0.018050095;0.5218064;-0.78702766;-0.055665907;0.055353664;-0.79694843;-0.035877932;0.049102455;0.7093323;0.07213081;-0.042637993;0.016980147;-0.041359745;-0.029549183;0.075323045;0.0021688286;-0.070265;-0.106949985;-0.02494758;-0.015729899;0.060579512;-0.22720675;-0.39284304;0.54852074;0.05353914;0.06987853;0.12041543;-1.8817022;-0.31182006;-0.05773479;0.0017489949;-0.026545525;0.068266906;-0.011601661;1.1684651;-0.9307855;0.021665344;-0.05609587;-0.00803979;-0.0096236905;0.07931013;0.068627216;-0.7744916;-0.7594943;1.6418234;-0.27580813;-0.3035772;-0.34222853;0.07145455;-0.032654963;0.37375474;-0.13729168;0.026896816;0.08870741;-0.070736155;-0.07598289;-0.101260744;0.5386493;0.031641815;-0.09138864;-2.3159544;0.033889085;0.04805229;-0.01375467;0.024751497;-0.026652113;-0.06774145;-0.41254416;-0.014603201;-0.09104349;0.0022158443;-0.011117973;-0.07746367;-0.13583623;-0.0017473772;-0.048451174;1.3007153;0.30713883;-0.07824363;-0.7567997;-0.06129998;-0.49295557;-0.100788355;-0.020175219;-0.029597636;1.0930113;-1.8545172;0.91487056;-0.30405417;-0.082638174;-0.12277244;0.022044381;-0.7036161;-0.027539553;0.13203593;-0.6660173;-0.68266374;-0.09103705;-1.1207265;-0.47739747;-0.07937967;-0.19151911;-0.06526839;0.052247312;0.05969773;-0.07787942;0.025287803;0.036492396;0.09150508;-0.08768133;-0.22471996;0.059965063;-0.070466734;0.008978845;-0.0037628922;0.28332153;1.2370068;0.1718136;-1.4298328;-0.015900914;0.56724447;0.3503892;-1.4200414;-0.029830717;-0.12659435;-0.052719615;0.049706746;0.0051955106;0.1051165;0.06486926;-0.041207924;-0.027209794;-5.7953588e-05;-0.04388038;-0.29176694;-0.01141854;1.2510121;-1.6153681;-0.008644647;-0.037364244;0.0071589584;-2.1885188;0.017234901;0.7185334;-0.030327762;0.35947716;0.0077181878;-0.059549388;-0.008427932;0.005763567;-0.011376564;0.42599493;-0.05554627;0.04498389;-0.07196882;-0.12370173;0.06341164;-0.027466124;-0.08264668;-0.57971257;0.2190972;-0.07577162;-0.06968498;1.1945517;0.004451585;0.15414;0.27487618;-0.9767013;-0.048694696;1.689548;-0.0026114713;-0.006624424;-0.12588888;0.066315055;-0.29176393;0.06353129;0.06503309;0.07412171;-0.010625354;-0.071160235;-0.021777479;-0.04453387;0.03693396;0.20757902;-1.5652934;-1.0790864;1.2624298;-0.22873645;-0.5914867;-0.09062837;-0.061142337;0.05627398;-0.2328161;-0.37798384;-0.11409658;-0.118766524;0.070394374;-0.08202184;0.066363975;0.13387209;-0.25801012;0.06607028;0.5713013;0.82319903;-0.100402094;0.25773233;0.9526113;-0.05172309;1.0432383;0.0031859518;-0.038110428;0.055545013;-0.00014540869;-0.028354999;0.11340587;-0.057246275;-0.07851477;0.049589276;0.40703425;-0.88696206;0.1720924;0.03556071;-0.8078287;1.7564708;0.057265233;0.013217633;-1.008093;-0.5109146;0.043215513;0.23019862;-0.59531105;0.21027105;-1.0741687;-0.11057916;0.022324324;0.095336325;0.1455849;-0.04810376;-0.050149105;-1.1000485;0.74738;0.63231593;-0.055179514;-0.112261415;-0.074213706;-0.2031837;-0.13387051;-0.06660225;0.40343377;-0.25902244;-0.10302825;-0.31674102;-0.1518568;0.08180373;-0.049587917;-0.013696417;-0.027335156;-0.032971434;-0.0563715;-0.041118328;0.92438257;-0.04904374;-0.012354286;-0.19899818;-1.6715884;-1.053887;0.08386282;0.0181702;-0.038239863;0.052748717;-0.014994384;-0.1572966;0.19167306;0.040139128;0.3795729;0.025941176;-0.00043058972;0.062126707;0.032373175;-0.28911936;-0.06648532;-0.07493954;0.04298537;-0.025903646;-0.62869453;-0.15011875;-0.05253745;0.071801946;-0.04014992;-0.45591605;-0.064761415;-0.22155447;-0.46367508;-1.3297513;-2.5520327;-0.652357;-0.8467978;-0.08087302;-0.034870997;-0.9246999;-0.066916466;-0.18115637;-0.01051485;0.7854235;-0.3028986;-0.022848817;-1.131905;-0.061217442;0.37058768;-0.33759385;-0.17630035;0.007234887;0.011592637;0.004602242;0.05321243;-0.70755476;0.066465475;0.025630113;1.0520015;-0.09256403;-0.3953577;-0.02178779;0.010465246;-0.4113548;0.012757987;0.059606783;-0.05377638;0.032723173;-0.071150035;1.1459504;-0.06732175;0.04142601;-0.18826339;-0.2290165;0.63088495;-1.1538415;-0.16218509;1.1478586;0.056451194;0.046092678;0.0023222826;0.026278552;-1.0326408;-0.35170582;0.02427201;-0.41129062;0.24394529;-1.8679206;0.026379138;0.078745246;-0.04131083;-0.17712201;-0.020929925;-0.07559485;-0.058315746;0.13445897;0.012587749;-0.034815222;-0.042924747;-0.04857253;0.007170979;-0.028861217;-0.07797446;0.052649125;0.039228097;0.05402997;0.08364647;0.45518756;-0.072861426;0.07046837;-0.007050616;-0.50160706;-0.39888045;0.09209174;-1.3998789;0.04624493;0.055182308;-0.09645777;0.028817007;-0.17454015;-0.083878875;0.010685398;-0.02263475;-0.0368086;-0.6424728;-0.075057395;-0.029488008;-0.02678724;-0.5641675;-0.1871122;-0.5353263;1.3998611;0.065785825;0.0520216;0.065825924;-0.07339482;-0.004837982;0.7027807;-0.042205915;0.0033440825;0.042506404;0.071161754;-0.022468729;0.72749823;-0.07872975;-0.08263026;0.0632532;-0.04309622;0.87848216;-0.04831974;0.052951157;0.056110684;-0.9857914;0.038981717;-0.0586343;-0.031737544;-0.087841526;0.0009844934;0.103376426;-0.0639372;0.03355744;1.3545887;0.7359548;-0.016338434;-0.09374618;-0.042261057;0.06748278;-0.3889471;-1.1167855;-0.00029589343;-0.032740783;-0.042512797;-0.08272542;-0.47193626;0.017523397;-1.6972965;-0.015980896;-0.04261027;0.029484838;0.028233405;-0.054365836;-0.02530012;-0.17577887;0.012435056;-2.0581815;-0.04831854;-0.10868556;0.09103478;0.028258339;-0.15429169;-0.105169125;-0.8933996;-0.17112927;0.033164036;-0.117143944;0.045769766;0.7277392;-0.13908413;-0.036259484;0.00256069;-0.29274058;-0.3439293;-0.03462672;-0.08089319;0.05591008
0.05764337;-0.03500029;-0.037631396;0.6288932;-0.17961133;-0.004583141;0.19427124;-0.064217225;1.0138992;-0.010867013;-0.022295509;0.22493641;-0.084536664;0.056326322;-0.037002426;-0.65620136;1.6807903;-0.32189608;0.033179585;0.0065402044;-0.02193634;-0.33931476;0.50728965;-0.23950322;0.064980954;-0.32162124;-0.09484688;-0.006196176;-0.20406449;-0.17289364;-0.10072082;0.9157983;0.04033704;0.075569764;-0.10484095;-0.11343194;0.61923236;1.6057198;0.020454282;-0.0079043005;-0.07551182;0.48176253;0.30124348;-0.06464576;0.8188453;-0.026541391;0.032334734;0.7594504;0.13260049;-0.19715264;-0.20535414;0.013486162;0.06495749;-0.38263816;0.70681643;-0.04945991;0.05869399;-0.07057615;-0.08603281;0.0063239667;0.13414514;-0.060991865;-0.6787956;-0.084051676;0.012308234;-0.02569447;-0.058491565;-0.022929657;-0.004362172;-0.20803271;0.8741612;1.3896971;-0.11122885;-0.44676745;1.4883553;-0.00201801;0.025923396;-0.5630827;0.22941843;-0.07482381;-0.14699718;-0.04081706;0.7285839;-0.2574777;-0.031324208;0.24964787;-0.0744473;-0.029936114;-0.20665501;0.008055261;-0.08797049;0.026426008;-0.043010056;-0.6983497;-0.04938506;-0.08556887;-0.28284773;0.023465551;-0.10670764;-0.0948832;-0.03255192;0.73335594;-0.5368037;-0.0034246268;-0.094886124;-1.3908604;0.026155371;0.026779912;-0.050114896;0.022923937;0.7439436;0.040733248;-0.21728802;-0.8426175;0.023959704;-0.013143456;1.5995657;0.033490513;-0.040067006;-0.22100958;-1.6244438;-0.056707043;0.020462148;0.022776306;-0.15876353;-0.045030165;0.03462669;-0.08162729;-0.12149892;-0.048420582;-0.07719538;0.04724886;-0.1186061;-0.22370836;-0.78156567;0.0037770974;-0.013746157;0.05635725;0.8947476;0.94798523;-0.061640784;0.040674884;-0.06403997;-0.028609388;-0.022623532;0.019853324;0.48528647;-0.054397564;-0.026563637;-0.0007472728;0.010566406;-0.08007616;-0.0729886;0.80377305;-1.2766982;1.3727709;1.0016564;0.0053237276;0.09408251;0.053433344;-0.08589566;0.22176713;0.69372207;-0.022011176;-0.0053946776;0.012382966;-0.024297921;0.031430483;-0.21060431;0.037381552;-0.015271544;0.73151994;0.05654059;-0.0067499783;0.02346034;0.072140984;0.02274992;0.007339501;-0.92842424;-0.03736523;0.029132405;0.006057092;-0.061814047;0.019517317;-0.0591493;-0.00538738;0.057795882;-1.1361269;1.2869357;-0.010077345;-1.486665;0.053633813;-0.36957335;-0.028521257;0.033028778;-0.037594426;0.6030288;0.9021915;0.7164622;-0.042623036;-0.20544621;0.2623586;-0.0036253056;0.4965299;0.03138568;-0.014627783;-0.9208919;0.10936774;-0.045375336;-0.031274;-0.29768014;-0.024713269;-0.16931784;-0.29927844;0.040314503;-0.007749532;0.041446865;-0.0048268465;0.0010082544;-0.48336494;-0.075167626;-0.31156147;0.025602467;-0.3870759;0.06074651;0.028107893;0.8238048;0.62511003;-0.49252036;-0.22927092;-0.12046456;-0.2062684;-0.10890498;-1.5486798;-0.04694783;-0.10763466;-0.008730262;-0.022956507;-0.09240014;-0.19362219;0.0066867475;0.1373099;-0.51583964;-0.07002449;-0.087744;-0.27850974;-0.04660771;1.3945532;-0.818831;-0.006002418;0.07901308;-0.18355203;0.51040554;-0.18079288;2.0355723;-0.43260163;1.163249;0.039108686;0.015484152;0.052128453;-0.037955973;0.05609391;-0.09295599;-0.06824748;-0.07551576;-0.17564388;-0.06737954;0.0003891566;-0.041098636;0.06528721;-0.61903363;-0.3017413;-0.022069057;-0.06503746;1.0824487;0.100160964;0.36803132;0.05100216;-0.18616478;-0.006358063;-1.1277112;-0.08543228;-0.022396127;-0.555459;0.041345496;-0.074273214;0.03917955;0.0055490085;-0.107801944;0.011023376;-0.78494895;0.064008795;0.036371954;-0.07639951;-0.09323326;-0.77697474;1.1854433;1.6264776;-0.27424997;-0.4816558;-0.044059698;-0.07939129;-0.001154121;-0.088135645;-0.55043477;-0.008837299;-0.21400046;0.05449199;-0.6855235;0.028159725;0.13791206;0.49684942;-0.06343399;0.117198996;0.66658354;-0.013115412;1.0070878;0.25560474;-0.07214527;0.044588294;-0.031656086;0.004321937;0.025237195;0.030746782;-0.034262773;-0.047880318;-0.034467395;-0.04737658;0.06487169;-0.2205423;-1.9094913;0.75603193;-0.05569196;-0.8082803;-0.18100047;-0.07260596;-0.044378437;-0.0038940436;-1.4070361;-0.16370319;-1.0852097;-0.7059153;0.63186586;-0.46209902;0.060147442;-0.08968874;-0.07917286;0.06613857;0.08041188;-0.034286756;-0.2915736;-0.7714934;-0.48555732;-0.080568805;-1.7120994;-0.1840406;-0.19817607;-0.015674515;0.04840837;-0.31363672;0.2748052;-0.44530812;0.18849422;-1.4693646;-0.07717097;-0.093783975;0.085666426;-0.018951355;0.0031811548;0.03172141;0.0041448832;0.19454242;0.049149573;0.017474417;0.09215708;-0.06767477;-1.7648793;-0.19378313;-0.048304237;-0.0152769005;-0.016799694;-0.08123571;-0.53191584;-0.19007237;0.05800495;-0.4797692;0.052685376;0.07211384;0.0071865893;0.03336853;0.87266123;0.069914766;-0.09473414;-0.015853386;-0.04284617;0.032106902;-0.026703635;-0.09066494;-0.027514005;-0.08308278;-0.43250623;0.07398539;0.06906121;-0.06894868;-0.35599262;-0.22444557;-0.36281744;-1.4009675;-0.044812005;-0.0873578;0.7263143;-0.06678604;-0.5670026;0.27385533;0.1849947;-0.2617246;0.06295951;0.6175701;-0.0690065;0.30414352;-0.14442497;-0.34016502;0.02070382;0.006149271;-0.054689243;0.055006288;-1.6926827;0.09764603;0.048807915;-1.4735644;0.10104635;0.3235214;1.0353484;0.07536551;0.045408975;-0.009569302;0.018145839;0.036577508;-0.039121166;0.08002153;-0.49542972;-0.02352173;0.062239304;-0.114371784;-0.36875856;-0.035210535;-1.3060418;0.9699633;-0.16347909;-0.027793195;-0.0075324513;0.026265081;0.0578548;-1.0116947;-0.0060370867;-0.07636625;0.20338817;-0.5081856;-0.41651902;-0.04590034;0.01500176;-0.009694908;-0.27320048;-0.011992104;-0.09691181;-0.01324007;0.4852859;-0.011075754;0.019176448;0.05152862;-0.024948306;-0.3483943;0.026324764;0.055159215;-0.010650991;-0.07001328;-0.043156803;-0.10678951;0.51457626;-0.06142952;0.03848029;-0.079585284;-0.30057657;0.80556667;0.033322338;0.15812087;0.027103798;-0.063342355;-0.29049268;0.025095722;-0.20546393;-0.08945198;0.0049840533;-0.018385557;-0.21993841;-1.9879298;-0.06742702;-0.07783149;0.06252787;0.17244811;-0.39410633;-0.041733272;1.8595271;0.04532239;0.029488357;0.061972238;0.030492134;0.01728587;0.9981306;-0.014702498;-0.07293415;-0.019319946;-0.082486615;-0.09304108;-0.4047187;-0.036937844;-0.07452988;0.030644959;-0.11958957;-0.1050341;0.02265278;0.020783521;-0.08415118;-0.44841933;0.069564976;-0.010733604;-0.065136425;-0.06982581;-0.052666157;-0.81556433;-0.0566936;0.04141487;-0.91332823;0.68997794;0.06189448;-0.10787885;-0.11694994;0.05350644;-0.49102408;-1.157166;0.020371396;-0.048258718;-0.13966148;-0.06589261;0.1719615;-0.04023755;0.008450065;0.07410176;-0.025839241;-0.03491307;0.03303499;0.033934228;-0.031085424;0.16875307;0.037999235;0.18893845;0.07286641;0.06406167;1.1428025;0.05243959;-0.18771918;-0.023513583;-1.4806709;-0.067512095;0.07513072;-0.008962611;0.06832164;0.2651878;-0.04256992;0.031285815;-0.23063889;-1.1343782;0.87903744;0.040686563;-0.015713705;-0.046596054
-0.088217996;-0.3365403;0.028157612;-0.43846232;-0.27820128;0.13157676;-0.44369698;0.061600104;-0.07180003;0.0686659;-0.037905805;-0.23235613;-0.007024523;0.066701435;-0.019818692;-0.5739224;0.37630966;-0.7035861;0.0005571828;-0.031315655;0.026078207;0.43690962;0.255091;0.20453306;-0.0129421335;-0.6913479;0.057679683;0.035924252;-1.1494541;-0.35463202;0.029849544;0.28766397;-0.062420648;-0.34100783;0.062489823;0.22526929;-0.24537094;-0.2514072;-0.034520272;0.0028213316;0.14213447;1.1094998;-0.23362193;0.0057487423;-0.17957248;-0.0480146;-0.07198166;0.10813444;0.2757627;0.026853459;-0.35862663;-0.5363032;-0.04942476;1.22556;-0.9295724;0.12377757;0.07732532;-0.03691065;0.033055786;-0.01724507;-0.034187827;0.021459166;-0.67886317;-0.03703439;-0.02165222;-0.06234388;-0.03289922;0.29251614;0.14233385;0.049974028;0.651969;0.19473024;-0.06828854;0.15493819;-0.11115977;0.04626171;0.030070499;0.042596854;0.13301511;0.054706983;0.063362375;-0.021456549;-0.94173944;0.052588094;-0.06515559;-0.09928122;-0.036264036;-0.08396096;0.29835284;-0.074519396;0.071923874;0.0049814126;0.008124165;-0.5910757;-0.0631497;0.030707527;-0.90856755;-0.03803647;-0.037251644;0.049001347;-0.024202451;-0.40270975;0.07470477;0.08737393;0.19456953;-0.048876833;0.0012570269;0.048551608;0.058462866;-0.05200778;1.2969702;-0.071270004;-0.28543663;0.012086006;-0.06192232;-0.03899501;0.49937105;0.01888897;-0.023210937;-0.51823354;-0.5979621;-0.04038646;0.020241763;-0.0541421;0.26648295;0.03308067;0.026893122;0.06996216;-0.318885;0.06014991;0.04652926;-0.0757826;0.04365778;0.08093746;0.534432;0.010755274;0.06511275;0.27081597;0.5577148;-0.21307135;-0.5510074;0.034277763;-0.098056935;0.070978306;0.058051854;1.5087833;-0.5472948;0.029627997;0.06389287;0.021236889;-0.046727866;0.04266145;0.09041044;-0.25832868;-0.7228163;0.18949519;-1.3881124;-0.24688922;0.4291858;-0.03893554;-0.069687694;-0.2029221;0.28787145;0.083744295;0.053472023;-0.00265269;-0.11297663;0.020428328;-0.15788764;-0.03830268;0.09386588;-0.81935453;0.045095775;-0.024060924;0.010128822;0.020350128;0.042985618;0.01645176;0.7147713;0.008184401;-0.018171594;-0.021501921;-0.043137137;-0.03663983;-0.3036528;-0.037450235;0.03155319;-0.0010307372;-0.7589822;0.014982128;-0.026076317;0.056261975;0.096895784;-0.14022996;0.033958368;0.028638145;-0.28971633;0.39070025;-0.24946669;0.0672476;0.10647068;0.7807194;0.0043091686;0.5261015;-0.06980086;0.063282415;-0.51135427;-0.2528091;0.034908015;-0.5860055;0.44841263;-0.014223934;0.21193449;0.6616488;-0.12845418;-0.000121985686;0.06756274;-0.0276762;-0.07679831;0.09941011;-0.06671288;0.24692625;-0.19922395;-0.61502504;0.01065896;0.0104597155;-0.48168528;-0.42146716;-1.0925145;-0.42277235;0.30779752;0.14743562;0.3773755;-0.39983398;-0.03916149;-0.13446754;0.08467754;-0.01706341;-0.0108511895;-0.17769778;0.03045078;-0.59318537;-0.51744556;-0.44274506;0.20807853;0.25993943;-0.0020140377;-1.3191502;-1.7265087;-0.0013696247;-0.06207618;-0.25699422;0.38064635;-0.30163744;0.4082375;-0.03189233;-0.29725215;-0.0021294;0.024853693;-0.023824623;-0.051905353;0.02011175;0.15590644;0.021610064;0.027004048;0.21320018;-0.18558833;0.07318333;0.0060759834;0.04897057;-0.08438217;-0.13382095;-0.035240673;0.0066336957;0.41834554;0.18807048;-0.009017334;0.017381702;-0.685332;-0.012378168;1.0799184;-0.21513288;-0.014289372;-0.51500213;0.054188404;-0.2610742;0.025002541;-0.10422257;-0.08078251;0.024799222;0.10876813;-0.006301557;-0.005533817;-0.0070718;0.17376897;-1.7558348;0.5452623;0.9721091;-0.51977783;0.18546692;-0.25936788;-0.0049323835;0.0779286;0.1274902;-0.02228085;0.036903426;-0.29278612;-0.014664957;-1.5473171;-0.06969652;0.09718957;0.25838006;-0.057265643;0.9568571;0.14454174;-0.02787244;-0.7300682;0.5475566;-0.034624685;-0.48566163;0.017479688;0.04029905;0.016537827;0.04850411;0.13742392;-0.02213186;-0.06398507;0.48951447;-0.03181527;0.15423839;-0.67563534;0.08342089;-0.06031053;0.3754974;2.344521;-0.0050645163;0.017660847;-1.1881889;-0.9377137;0.042846214;-0.6168975;-0.86371857;0.15390204;-0.940218;-0.06935703;-0.031357013;-0.080983184;0.01039187;0.05124371;-0.00095165503;-0.70923394;-0.3284938;0.0076517803;0.0041933185;-0.618932;0.40045953;-0.44123268;-0.035495456;-0.026030822;0.2740203;-0.4328739;0.11603597;-0.15736161;-0.75962543;0.051509626;0.03378669;0.02279998;-0.05458459;0.022838607;-0.07346959;-0.09467809;0.3520117;-0.082493216;-0.0787599;-0.13135685;1.3373512;-1.816646;0.32083756;-0.038461454;-0.029029459;0.06737931;-0.083507076;-0.32121235;-0.033032104;0.040982112;0.8086102;0.038835466;-0.050283972;0.012581949;0.017415091;-0.20386365;-0.052228205;0.03623542;-0.08261266;-0.23485607;-0.1834756;-0.0027301507;-0.00938689;-0.6820059;-0.16407146;-0.37567154;-0.060303994;0.18900253;-0.93188775;0.70447093;0.5308593;-0.7835276;-0.55455893;0.023876956;-0.0014702947;-1.1403675;-0.051404227;0.9696495;-0.17187159;0.723537;0.8376074;-0.0016136151;-2.2631967;0.033797026;-1.6349746;-0.10603406;-0.00859134;0.062134247;0.0966204;-0.038141802;0.03542636;-0.87556934;-0.047072507;0.011522344;-0.049757414;0.01444044;-0.07776312;0.29884958;-0.010823081;-0.00785732;-0.28808293;-0.07484084;-0.091728576;0.0683525;-0.05890987;-0.392376;-0.23642904;-0.041392893;-0.37653056;0.21381578;1.6593091;-1.4368755;0.4622467;0.467411;-0.042732887;-0.024785936;-0.035337754;-0.002632151;-1.2489527;-0.4295622;-0.08199665;-0.43383297;0.1467048;-0.0049146228;-0.043396417;-0.025228957;-0.07901376;-0.7276909;0.0115433745;0.19735713;-0.07702728;-0.15218946;-0.0058025913;0.008692309;-0.120993376;-0.039387736;-0.8544155;-0.076787874;-0.040523853;-0.0010175655;-0.014029244;-0.017613007;-0.058458533;0.12391515;0.04103744;-0.031870324;-0.08714352;0.054809086;0.15347762;0.043056834;-0.6039436;-0.085010625;-0.0415566;0.36683556;0.009402844;0.23276652;-0.44859806;-0.028823698;0.073177814;0.35954747;-0.49592277;0.032403193;-0.07039759;-0.0028473414;-0.67011267;-0.7795566;-0.1807631;-0.012665456;-0.03706266;0.07074572;-0.02900137;-0.06658724;-0.057968017;0.33993372;-0.06797818;-0.025115019;-0.032810304;-0.06728436;0.06755341;-0.7391171;-0.10840445;-0.11094559;0.0018234876;-0.11736492;0.3239398;0.014314049;-0.016355254;-0.018238189;-1.3889413;0.13755362;-0.11171523;-0.02770331;-0.005169551;0.013758596;0.24451666;0.02456766;-0.050754875;0.22753906;0.168021;-0.20582445;0.302217;0.15679784;0.03595268;0.23645383;-0.5733611;-0.0858208;-0.051914062;0.34729716;0.021280998;-0.28685102;0.022311304;-0.27960226;-0.04230316;-0.03743615;-0.0032808424;0.026795154;0.0063693384;0.023726823;0.046413768;0.105868876;-1.1466742;0.014950845;0.087514095;0.7476384;0.27038077;0.13543788;0.04133559;-0.88725656;-0.059732847;0.02428166;0.0979093;0.0077597457;0.8983799;0.06341268;0.05925472;-0.053575434;-0.3133293;1.0391996;0.0022892351;-0.010474576;0.021403389
-0.04091942;-0.23217967;0.031245584;0.96766186;-0.08417614;-0.09418943;2.1396039;-0.023962347;-0.27602398;0.035071716;0.023147;-0.36222225;-0.09211956;0.06833419;-0.0053800717;-0.45746908;-1.3707527;-0.38722524;-0.054179944;-0.08384319;-0.079190485;0.4396273;-0.77772385;-0.07928686;-0.047881644;-0.46904597;-0.10624886;-0.08774284;1.2484795;-0.16724233;-0.0742743;-0.52317494;-0.028774234;0.06739714;-0.026843037;-0.12762883;1.8923719;0.03916292;0.057123877;-0.003638926;-0.10419432;1.8679026;-0.8364997;0.008938439;1.2937815;0.00050019653;0.08112026;-0.5833133;0.4740041;0.69501686;-0.26385584;0.106107265;-0.028542396;1.1892893;0.019565152;0.013354139;-0.016999014;-0.0052405857;-0.03454587;0.013269563;-0.8653813;0.027489081;0.28641143;-0.009448715;0.0074836873;-0.29718667;0.060640186;0.096755095;0.21349667;-0.013765696;-0.38688666;-0.18753235;-0.011935369;0.56768364;-0.4612737;0.0051495815;0.023165189;-0.041153107;0.3285525;-0.06669413;-0.111376144;-0.038051702;0.22398469;0.1610104;0.03368866;0.4335836;-0.01569852;0.028482782;-0.041778542;-0.018634249;-0.12834537;0.0013292449;0.0136911785;-0.46124074;0.037259847;0.050034076;-0.4133529;0.013218029;0.025417456;-0.011861278;-0.061252717;-1.2039952;0.019333908;0.085486665;-0.049134076;-0.64416605;-0.036881212;-0.016899817;0.037241112;-0.10375145;1.6221148;0.0033242265;-0.9758148;0.44598588;-0.0421492;0.0017162812;1.6383203;0.035363153;0.009376999;0.4262192;-0.59319204;-0.07163135;-0.04030316;-0.039828703;-0.15020758;0.005929097;0.017661424;-0.04717847;-0.30339748;-0.059639003;0.022540817;0.072245955;-0.546287;-0.20015083;-0.24697325;-0.08135579;0.044820473;-0.07512128;0.347971;-0.22455111;-0.056077573;0.13253382;0.14623627;-0.0423538;0.035998426;0.6759831;0.092502005;-0.047895882;0.034652457;-0.013124263;0.021489894;0.034773923;-0.073287934;-0.39912838;-1.0099121;-1.9807295;-1.3986375;-0.22419158;0.37189415;-0.009074104;0.0089395335;-0.2678366;0.07791519;-0.081274785;0.030216286;-0.0730202;0.011852121;-0.13941133;-0.8453446;0.015431093;0.052858412;-1.0336685;-0.020341761;-0.09372348;0.018870598;0.059357613;0.025868766;0.16787799;-1.1084045;-0.03478379;0.03956529;-0.11467265;0.061093807;0.062314145;-0.22298695;-0.04990613;-0.0023448174;-0.18008752;-1.958056;-0.024269097;1.1661377;0.01080422;-0.1736546;-0.12884066;-0.008171471;-0.07327105;-0.61172765;1.0327684;0.5839011;0.06650804;-0.08892502;-0.08684658;0.054403365;0.73481447;-0.060782857;0.073728904;-0.107715435;0.20010126;-0.10778055;-0.388454;-0.18801484;0.08542655;-0.1592785;0.313389;-0.078176335;-0.14427127;-0.008638377;0.11830049;0.036483135;0.54749984;-0.049368784;-0.13000412;-0.30686024;-0.36038226;0.0026846286;-0.02744227;-0.6727787;-1.4319638;-1.4983418;-0.77002263;0.1343114;-0.30193183;0.49265054;-0.10472496;-0.03408892;-0.11114686;-0.031800516;-0.027374601;-0.04548522;-0.09248153;0.049078077;0.17896515;-0.6015029;-0.43116164;-0.061383557;-0.20904897;-0.01082372;-0.70987236;0.66283077;-0.06360111;-0.10347024;-0.11422384;2.0020638;-0.7865867;0.12066943;-0.3133788;-0.42776996;-0.097986154;-0.047741875;-0.052251536;-0.046247512;0.0028789628;-0.055212367;0.04930296;0.033820257;-0.13356689;-0.04647858;0.0153597435;-0.032634337;-0.03610368;0.10909644;-1.0587963;-0.020551298;0.009637196;-0.7009823;0.16523921;0.1860709;-0.15925471;0.11140272;0.048210483;-0.94994503;-0.39464074;0.013258326;-0.17043988;-0.031525016;-0.50395375;-0.067300096;-0.050872058;-0.057759773;-0.08271328;1.5643067;-0.027763698;0.06617622;0.061882377;-0.04029924;-1.2991608;-0.2461472;0.062644936;-0.36833152;0.18544261;-0.27253717;-0.0860711;0.00732785;-0.060027566;0.32978132;-0.022760704;0.026242547;0.0768813;-0.41383326;-0.028669206;0.12455717;-0.044794846;-0.0011441171;0.3302902;-0.6776549;-0.009262227;-0.6483797;-1.1298962;0.08814069;1.5306721;-0.03845817;0.0011217445;-0.03726139;-0.04460622;-0.065630406;0.06810588;-0.04373989;-0.067105785;0.04453357;0.0323501;-0.71791625;0.08986777;0.010895006;-0.18797973;0.3007587;-0.013059669;0.00019621752;-0.45598918;-1.2364174;0.21561873;-1.235089;-0.68504536;-0.13780496;-0.9775112;0.009640753;-0.07369493;-0.041653007;-0.017540678;-0.0041821674;-0.041886535;-0.8719462;-1.2936954;-0.29269388;-0.01774398;-0.34380138;-0.10325557;-0.36462635;-0.09148062;-0.035893496;0.7836122;-0.22665866;0.7816477;-0.06813898;-0.63448894;0.047869477;0.060035165;0.0011789913;-0.011867616;0.09574584;-0.05283646;-0.04969927;0.58806336;-0.030070683;0.05161694;0.014372608;0.5478868;-1.5971645;0.13408203;-0.04957584;0.044036444;-0.041131448;-0.13514332;0.3788709;0.06472147;-0.089834645;0.20252101;-0.058112606;-0.07340159;-0.026316088;-0.026529295;0.3657064;-0.08092806;0.045544364;-0.03359074;-0.353458;-0.39686847;-0.10839081;0.053169336;-0.49435666;-0.14357862;0.014471305;-0.021109996;0.23160495;0.109144196;0.99860215;1.0489509;-0.34374526;1.5394425;-0.06495602;-0.06942256;0.6741933;0.07240406;-0.12321455;-0.31943616;0.12596205;-0.17138284;-0.070511825;-0.8104698;0.019978095;-2.3030825;-0.27476507;0.20442618;0.070556544;-0.09315072;0.023581076;0.093908094;-0.6587361;-0.0002854384;0.019495206;0.7877714;0.20808554;-0.049164534;-0.60548043;0.05809151;0.70182574;-0.23013452;-0.06949138;0.0021327792;0.024728678;-0.019586405;0.21306959;-0.23662853;0.025108272;-0.15910779;0.31778896;0.33636215;-1.8408096;1.404542;0.872297;0.036998257;0.030598044;0.07377492;-0.045183662;-0.4571083;-0.44605255;-0.03725794;-0.13020498;-0.28052777;0.6879296;0.02282558;0.04694474;0.048190773;-0.56189436;-0.03796782;-0.12835367;-0.07748419;-1.1327417;-0.09433518;0.025991702;-0.1555532;0.0091164755;-0.54260445;-0.054882053;0.065917894;-0.06050237;-0.07699161;0.020806285;0.080051094;0.18775588;-0.05615457;0.09744622;-0.021520631;-0.75445265;0.1816381;0.061363034;0.50153;0.062948935;-0.0982236;-0.18466932;-0.06438076;-0.069935136;-0.27150288;-0.105081186;-0.11685445;-0.0571181;0.14337397;0.009086414;0.10112075;0.013970196;-0.49571255;-0.43300864;-0.21992533;0.65441364;-0.25826046;0.080982804;0.0014719554;-0.06353692;-0.2613967;-0.69413847;0.07396623;-0.15808724;-0.06461307;0.03133162;-0.09956385;0.26619762;-0.1981653;-0.037825093;-0.015091628;0.13451527;-1.5283777;-0.03362054;0.058157675;-0.0017465128;-0.8722805;0.1729563;0.020016246;-0.018526314;-0.04814703;0.083617486;-0.28617805;0.04291391;-0.060386367;-1.034709;-0.20707846;-0.20083182;-0.15104853;-0.15230294;-0.028251475;-1.5074358;-0.17834169;-0.00641855;-0.0021236362;-0.11158193;-0.16173723;-0.25181973;0.058579795;0.6903836;-0.09176937;-0.010920478;-0.02194408;0.061068594;0.11865487;0.10590674;-0.21457712;-0.06760486;-1.4153447;0.049539782;-0.036456816;0.43026182;0.30099893;0.14848034;-0.080008596;-0.5485831;-0.21170624;-0.045618217;-0.069856115;-0.15480101;0.399511;-0.0981679;-0.0833243;1.0650369;-0.1774753;0.32707593;-0.05021431;-0.037356872;-0.08883341
-0.08431971;-0.268521;0.021728234;0.41050276;-0.038289126;-0.032255802;-1.0819209;-0.03979691;-0.76744556;-0.10199147;-0.015326273;-0.49779177;0.049564846;-0.00086944614;0.10339647;0.32988903;2.1681814;-0.34630552;-0.015372603;-0.06393895;0.0700597;-0.80793864;-0.3749143;0.10875481;-0.07724162;0.14850028;0.09334351;-0.044762723;-1.3407837;-0.17586143;-0.14025426;2.5240307;-0.114774115;-0.68696475;0.08345009;0.09127477;-2.55703;0.10814647;-0.085075624;0.036957916;0.03742695;-0.15410233;-0.76559496;0.057344;0.23342557;-0.01727792;0.044179976;0.3819382;0.07700312;-1.2876225;0.21433777;-0.8822131;0.020849304;-1.9098976;-0.080332436;-0.004822644;0.0496409;0.11273133;0.041127935;-0.04769914;1.4080645;-0.07178091;-2.3891428;0.048763253;0.050200306;-0.14858493;-0.01205241;0.19394532;-0.13399391;0.008366287;-0.4422711;-0.53898853;0.03207077;1.5066781;-0.8350936;-0.027633635;0.064770296;0.7341988;1.1746532;-0.05606681;0.038600422;0.042763386;-1.8419422;-0.8832659;-0.0038042523;-0.67065525;-0.003832982;0.042384073;0.0346253;0.021673057;-0.0042036604;-0.07019907;0.012353867;-0.06108777;0.002151641;0.02273806;-0.4640155;0.031915605;0.08715378;-0.058346614;-0.084036246;-0.018423976;-0.11385409;0.10134756;0.07553275;0.94184923;0.1104924;0.029953588;0.054527216;0.0739047;-0.41220206;-0.09720608;0.7881428;-0.52837676;-0.026681492;-0.052115887;-0.027118322;-0.052256007;-0.108548835;-1.402064;0.6059278;0.014402421;0.06477867;-0.13754742;-0.0035111173;-0.029806377;-0.01960495;-0.049901646;-0.08855591;0.10807509;-0.06900574;-0.09131524;-0.19576158;-0.5682854;-0.0671999;-0.08131663;0.0066916896;-0.03506726;0.7977256;-1.0313901;-0.38413578;0.031169022;-0.4419743;-0.0056882217;-0.08695757;0.7400445;0.45204136;-0.05499103;-0.094428316;-0.06126189;-0.0050907694;-0.035124786;-0.0374215;-0.09967253;0.3282483;-0.17099188;-0.35444677;-0.18554057;-0.6197121;-0.081238404;-0.019927548;0.19434318;0.58855;0.113270715;-0.0450202;-0.09567659;-0.15509632;-0.030893384;-0.07721953;0.01203216;0.009083217;-1.7246656;0.13103671;-0.032367595;0.026811656;0.012400743;-0.046796147;-0.083356716;-0.3043977;-0.040259477;-0.044027284;-0.020567924;-0.022949325;0.059159506;-0.25753236;0.106237635;-0.017134506;-0.28802678;0.75993395;-0.039691705;-0.29956427;0.02666897;-0.3407159;-0.07290193;0.04138046;0.04489037;-0.19198214;-0.7028826;0.7394825;-0.19105926;0.061223492;1.3541926;-0.040358637;0.43688643;0.089563385;-0.058605634;1.0563515;-0.3452071;0.0045783636;0.33466431;-0.15097597;-0.047417816;-0.047306072;-0.056850057;0.061172176;-0.100774504;-0.06952853;-0.052547023;0.037851356;-0.14684853;-0.09681514;0.08371866;-0.1252097;0.21936671;0.08440758;0.041145295;1.3313341;-0.088594705;0.45810384;-0.92886966;0.09476176;-1.460334;-0.30147475;1.1833651;-0.0131545225;-0.14454114;0.10730894;-0.022876017;0.010865817;0.04536837;-0.0010573666;-0.68094164;-0.08924403;-0.27150437;-0.0033435812;-0.020951146;0.078750595;0.0062743877;-1.5306273;0.087522514;0.067618296;-0.07388204;-0.16697103;1.2345237;0.26238847;0.30882144;-0.068600416;0.059472293;0.035381302;0.028384192;0.06185954;-0.09328882;0.08091321;0.05952208;-0.044124626;-0.0041328664;0.05828392;0.08304476;-0.027713822;-0.0061537763;0.65022874;0.48924515;-0.099798106;-0.03100722;0.41909117;0.020063927;-0.611865;-0.31856915;-0.113259256;-0.028275494;2.8952029;-0.09483184;0.04329057;-0.23742202;-0.031411342;0.002458571;0.029824167;0.027250702;-0.12922074;-0.016629882;0.29119912;-0.0135197835;-0.040512703;-0.048002947;-0.23353425;-1.5203137;-0.41634476;0.034526985;0.30176014;0.1960557;-0.14215553;-0.08001665;-0.044047963;0.940342;-0.2944036;0.104535684;0.093966044;-0.090404645;0.0040874397;-0.08503238;-0.0005201955;-0.078707986;-0.035109222;0.21116371;-0.61299324;0.060469992;-0.38512322;1.7884604;-0.04047868;-2.0225525;0.0739352;0.0372096;-0.030903917;0.069295794;0.026174223;-0.075477004;0.005923715;0.13116401;-0.04570461;-0.28911385;0.19931303;0.10230218;0.024973031;-0.15260021;0.92169166;-0.0036710815;-0.05293262;-0.0061717653;-0.8262411;-0.17805932;-0.090886265;1.4451443;-0.2486369;-0.6186697;0.0695866;-0.0030515995;-0.0021733972;-0.07214446;0.034428626;0.09286889;-0.5693036;-0.14357735;0.3642185;0.059119295;0.39124522;0.12520199;-0.33239907;0.005500781;0.04331431;-0.66747606;-0.24103896;0.31594664;-0.23390001;0.2085265;-0.03304951;-0.059790548;-0.035471752;-0.01973057;0.03338747;0.037494697;-0.07343242;-0.1548262;-0.030041527;0.06987756;0.11007255;-1.972378;-0.37872195;-0.2690818;-0.0061095227;0.043163028;0.15936689;-0.10713338;-0.48694837;-0.00034271885;0.013057234;0.43062553;-0.10781379;0.03583478;-0.06683546;0.02604761;0.85924757;0.0075527807;-0.06917145;-0.055132024;-0.12602434;-0.23746622;-0.076575756;-0.039008796;0.13264251;0.09992456;0.27996758;0.09033288;0.03942591;-2.8777578;-0.68581486;-0.6523105;-0.16002914;-1.8396747;-0.04498698;0.021969652;1.3465601;0.024542203;0.58903635;0.27652195;1.3418108;0.33739176;0.063209675;-0.1489613;-0.099756554;1.8120865;0.24933377;0.35629243;-0.025286226;-0.022749124;0.05808761;0.039942805;0.43920556;-0.0770467;-0.06075647;0.16566697;-0.16722107;-0.2445462;1.2562072;0.09651455;0.2659225;-0.13839574;0.059334088;-0.010259031;0.010917846;-0.007224391;2.779304;-0.07460297;0.03912914;-0.31274256;0.34939286;-0.10231721;-0.83286965;-1.752043;-0.29799032;-0.07294031;-0.07781362;-0.040176496;-0.06710708;-0.15058061;0.58707607;0.04209407;0.15445207;0.20361653;-0.52623785;-0.0030050648;0.023286048;-0.01792639;-0.979389;-0.09508222;0.10967355;-0.022628637;0.1329633;0.031653564;-0.05696535;-0.13110206;0.030435424;-0.19709559;-0.05585416;0.082694925;0.022807775;-0.08946387;0.016514685;-0.08197854;-0.01774511;-0.090857334;0.023027398;-0.024354098;-0.76501507;0.22302365;-0.11389495;-0.3680221;-0.09403186;-0.041202195;-0.06345275;0.0795618;0.13108987;-0.2865432;-0.011015388;-0.009608052;0.015702713;0.38730338;-0.034245986;-0.05574584;-0.09181032;0.3087398;-0.75170386;0.6721561;-1.1009481;-0.1624762;-0.06346427;0.032625217;-0.07381041;-0.007990745;1.4152313;-0.02376234;0.019205851;0.03828322;0.06435772;0.004155413;0.18704478;-0.03370911;-0.040930863;-0.05516524;-0.14578912;1.8840392;-0.018186571;0.051435508;-0.025870781;-1.3873441;-0.09203156;-0.06089299;-0.07846063;0.079483956;-0.092072025;0.09553156;-0.11253679;-0.11336113;0.46808928;-0.09175397;-0.04450233;0.14065677;0.077399485;-0.030704396;-0.6499893;-0.6680256;0.062879756;0.095889695;0.065657504;-0.004009248;-0.3459634;-0.013439636;-0.82239443;0.09292281;0.027869508;0.04898858;-0.07146469;0.052321125;-0.15331872;-0.30692995;-0.095849186;2.5748055;-0.067742854;0.112803735;0.7673772;0.06078389;-0.06497085;0.09073077;0.26840064;-0.011670569;0.08661954;0.040927734;0.2405054;-0.7366603;0.019067263;0.083031096;-0.54449314;-0.16300836;0.3402615;0.063765004;0.03122252;0.0023455215
-0.10738336;-0.37197757;0.05668573;-0.50405735;0.06747412;0.22611687;-0.34874198;0.060384694;-1.0099378;-0.11848936;-0.023988444;-0.18911155;0.027518384;-0.07554289;0.012541667;-0.08556359;0.8995237;-0.18449536;0.17471549;-0.24273714;0.079274096;0.08422122;-0.43468425;0.32953984;-0.21179679;1.0363694;0.23270239;-0.1299343;-0.67207795;-0.4559296;-0.048392024;0.9621474;-0.0710316;-0.43966472;0.16766898;0.30487084;-1.2227962;-0.05997101;-0.07174808;-0.021349281;0.2628869;-0.5429736;0.22127756;0.021977846;0.14496493;0.053411487;-0.021548314;-0.4990411;0.44808027;-0.7719461;-0.49992847;-0.3003661;0.09452879;-1.5751426;0.34977427;0.12338985;0.05906189;0.043922864;-0.027836654;0.034880284;-0.3036455;-0.07666343;0.7481672;0.0028133767;-0.014622274;-0.21594079;0.05229759;0.21898997;0.057207;0.21342918;-0.7779698;1.167024;-0.073415466;-0.29295382;0.16339248;0.14125049;0.12475243;0.1951773;0.41634998;0.28392935;0.2057036;0.050122067;-1.232148;-0.8066256;0.057603415;-0.247403;-0.027439104;0.022829158;0.4480046;0.010290806;0.26828963;0.015088157;0.024759924;-1.4426888;-0.04997908;-0.10964789;-0.7581732;0.23747528;0.1643212;0.030824946;-0.042619042;0.09566934;0.2109092;-0.6529011;0.30873218;-0.7202489;0.103787616;-0.057486437;0.005529714;0.12746656;-0.0858183;-0.06456306;-0.439313;-0.28545502;0.13697332;-0.10200575;-0.59076214;0.10742056;-0.070149295;-0.76604474;-0.49108458;-0.08195052;-0.03957448;-0.2090337;0.41661873;-0.04094104;-0.08447704;0.11680357;-0.24962367;0.07796757;0.0049581095;-0.18030845;0.22848734;0.2138903;-0.26687896;-0.005117851;-0.027606048;0.25003263;-0.2543181;-0.78595406;-0.72421825;0.17606659;0.06802285;-0.11642226;-0.19287232;1.3048913;-0.03206444;-0.16003315;-0.08370746;0.11322872;-0.056590773;0.028510457;-0.027329778;-0.91680413;0.40119112;-1.210573;-0.5663443;-0.18005234;0.13394436;-0.04151488;0.024203671;-0.20956396;0.1829734;0.179037;-0.18800214;-0.115613624;-0.14271031;-0.003069804;-0.04453767;-0.017443577;0.08897082;-0.67478323;0.09588322;0.0009203069;-0.07357277;-0.06840666;0.1267201;-0.020982971;0.099346064;-0.06442525;0.037551764;-0.1760505;-0.13880822;0.14116491;-0.348433;0.086099274;-0.038501237;0.005317712;0.17559412;0.061517183;-0.22558759;0.083339594;0.32303107;-0.12496802;-0.06774078;0.00014349163;0.563876;-0.6026816;-0.15858817;0.19939327;0.21465375;0.52622646;-0.1066448;0.5462843;-0.038241684;-0.04042468;0.875407;-0.018181592;0.13234337;-0.27697727;0.36061123;0.021692172;0.42615005;0.3536215;0.023626275;-0.015700642;0.081499584;-0.04039225;0.03319165;0.2036043;-0.022817012;0.58965355;-0.18638147;0.09564539;0.19160973;0.06092259;0.20201752;0.26846704;-0.6840869;0.010453556;0.20875773;-1.2833227;-0.276624;-1.5197121;-0.07536202;-0.09248131;0.13968924;0.0929662;-0.007357965;-0.116576865;0.032410514;-0.2237567;0.38057083;-0.3881367;0.5944656;0.70689774;0.08423512;-0.98024917;-0.7556491;0.06237033;0.10706278;0.0012272401;-0.5866465;-0.42442632;0.28448236;-0.12023587;0.5430062;0.082809314;-0.037868943;0.11584775;-0.0003216101;-0.08091815;-0.04811053;-0.0007781308;0.02145719;0.30743504;0.07942014;0.0021885661;-0.033572294;0.0039462405;0.34011623;-0.2451905;-0.12017189;0.13256198;0.4225161;0.010555662;-0.49950013;-0.19640258;0.90217525;-0.020834837;0.9756555;-0.2786206;0.027602335;0.05202479;0.019197766;-0.03907666;0.025576163;-0.14857721;-0.09693199;0.042004555;0.075551696;-0.00803859;-0.033735465;0.063130505;-0.06023139;-1.3297737;0.0883401;0.0155640375;-0.12758131;0.2802833;-0.31397334;-0.16573924;0.014198935;0.3715398;0.2590846;0.16168441;-0.010242551;-0.07366432;-0.09111676;-0.04674932;0.09642949;-1.3143393;0.03236531;-0.06779699;-0.59931666;0.1516124;0.2570977;0.4800119;-0.07159233;-0.76440966;0.01589285;-0.029825399;-0.009714679;-0.031922642;0.26094165;-0.12655225;0.10728568;0.67141753;0.04956529;-0.16768977;-0.7730879;-0.049259998;-0.11936838;0.3471821;-0.6087561;0.02342054;-0.04212773;-0.07807147;-0.46433318;-0.03238103;-0.03816252;0.27670652;0.021922147;-2.5334682;0.064723656;-0.1255374;-0.05251066;-0.07435003;0.06587831;0.04764202;-0.33505905;0.19421491;-0.29818758;-0.048375748;-0.86796826;0.6043297;-0.43922988;0.15337358;-0.078633234;-1.0346953;-0.30177584;0.83170444;0.0025643783;0.050052732;0.030653432;0.013348828;-0.009426985;-0.058257665;-0.16662201;0.04773548;0.005427366;0.18103646;0.16327739;0.059224218;0.14089438;1.6544313;-1.0736647;-0.26565006;0.16120858;0.044560883;0.22949186;-0.22666274;-0.13685156;0.014152798;-0.012132768;0.4561454;-0.12024339;0.14948684;-0.05382286;-0.12697238;-0.7717162;0.12227172;-0.07511564;-0.04792326;-0.14282972;0.726956;0.21007231;-0.13146877;-0.63724667;0.021078272;0.07615842;0.07961031;0.055427004;0.15585957;-0.10110238;1.2748412;-0.293429;-0.78667146;-0.019440046;-0.13314515;0.98360306;-0.056376483;0.17324166;-0.24039902;0.9253378;0.46502888;0.080210224;-1.809688;0.008042534;-0.6174617;0.20823172;-0.18357581;0.06436249;0.06529448;-0.06814899;-0.032741897;-0.021426374;-0.2419038;0.027032763;0.10947922;0.0446274;0.2579081;-1.2809315;0.14771548;-1.1334977;-0.2819488;-0.014766644;-0.12767157;0.056186642;0.043930415;1.422719;-0.23093325;-0.22720902;-0.3778215;0.32012773;-0.64816296;0.85180086;-1.4895505;1.0414832;-0.11716506;-0.1313739;0.0006803932;-0.16201812;-0.5380712;0.77963775;-0.06530612;0.050742175;0.16727045;-0.104489386;0.11983752;-0.07554034;0.08468152;-0.6558969;0.0241102;0.49278867;-0.04559976;1.4051459;-0.07949319;-0.12517393;-0.13741004;-0.08452197;0.0021312102;-0.0027412556;0.035731267;0.0004702423;0.055838548;-0.01787951;-0.083997644;0.33299583;0.038959302;-0.05487553;-0.019685034;0.74446887;0.6017609;-0.037907183;-1.0107023;0.0003716811;-0.008831209;0.6811665;0.15834916;0.50986034;-0.38998428;0.06935911;0.19202298;0.49691552;1.1300576;-0.11932478;-0.11046768;-0.09912373;0.46238464;-0.9184971;-0.31687728;-0.5895534;-0.15691593;0.014086792;-0.11883944;0.051826697;-0.12338723;-0.063886754;-0.10976335;-0.20534703;-0.06766307;-0.052152324;-0.06043169;-0.9698827;-0.21883145;-0.16078848;-0.052723184;-0.20762086;0.6339552;-0.069423415;0.061429136;-0.055681277;-1.4260237;0.10012263;-0.06691469;-0.070341416;0.10236692;-0.10312969;0.38306487;-0.13714992;-0.051649537;-0.23424982;-0.20054065;-0.065530926;0.6176376;0.4383932;0.014632156;0.066178754;-0.20715392;0.040520106;0.20642039;0.55314857;-0.121289484;-0.17299235;-0.012233145;-0.30170587;-0.0060001905;0.1508268;-0.011241304;0.013590196;-0.02903912;-0.25131667;-0.29049683;0.01722646;-0.1169878;0.0056286943;0.16041301;-0.11346946;0.3294398;0.21446243;0.06571383;-0.37412763;-0.26454476;0.0732877;0.16787505;0.47487733;0.5448412;0.3140749;-0.019680329;0.10099499;0.17170803;0.49669588;-0.0826879;-0.073025286;0.10972145
0.007273106;0.18211983;0.04596281;-0.14692107;0.025829103;0.12272728;-0.2217795;0.09198831;-0.28934532;-0.18767256;-0.04893109;-0.13613178;-0.053670406;-0.083822325;-0.047778875;-0.27895638;0.400593;0.0639415;0.083185926;-0.111729145;-0.014732839;0.08348354;-0.44583014;0.1695796;-0.08334545;0.10310134;0.20181516;0.023323229;0.2531862;0.13481109;-0.006339722;0.31459764;-0.046638202;-0.9360968;0.13794248;0.12715815;0.22035126;-0.07100498;-0.0003943802;0.063712075;0.1021561;-0.5366127;0.29971954;0.112392895;0.28188384;-0.06446088;-0.04886256;-0.4422017;0.36534908;-1.7761161;-0.6955694;-0.07800801;0.0885239;-2.5294654;0.15698487;0.075271815;-0.019711738;0.051168513;-0.015242645;-0.026427643;0.29560345;-0.08316604;0.8689329;0.02821913;0.033972334;-0.0041400394;0.07407751;-0.14423303;0.03658449;0.14362289;-0.42321324;0.76848245;0.0351285;-0.2440121;-0.3818197;0.016037269;0.05784892;0.9957364;-0.06371916;0.15578052;0.18717702;0.040742844;-0.70615506;-0.3264699;0.013434876;-0.046987675;-0.15081106;-0.014589487;0.09729147;0.018308355;0.06562649;-0.0048028706;-0.0034376625;-1.3259318;-0.0022793126;-0.19184281;-0.6350473;0.13182177;0.04298462;-0.08404514;0.023809688;0.15065834;-0.013421028;-0.6637985;0.04464546;-0.2468916;0.09935957;0.014068185;0.013630999;0.09971578;-0.47970027;0.0100705465;-0.025509372;1.0354414;-0.063191675;0.03480772;-0.044037756;0.048324928;-0.12371977;-0.6605369;0.10155723;-0.008816684;0.01821581;-0.14529131;0.12273905;-0.07122915;0.025095582;0.09516049;0.013923119;0.08713537;0.043078102;-0.1553498;-0.13171646;-0.5384517;-0.067223765;-0.016507158;0.056655083;0.051874354;-0.5818621;-0.76301044;-0.20291676;-0.009569973;-0.008743461;-0.09078281;-0.00094319676;0.83548445;1.1241853;-0.098979786;-0.03545707;-0.0059046964;-0.030747969;-0.06677833;0.055213697;0.62862366;0.005722929;-0.984255;-0.7071346;-0.00017754096;0.49168226;0.007184141;-0.0545414;-0.3305589;0.19156693;0.08778476;0.030618194;-0.012975327;0.033447582;-0.09752713;-0.4208506;-0.031325087;0.026709927;-0.25226617;-0.010188708;0.09323033;-0.0042382614;-0.057819463;0.104800925;0.04930924;-0.4931744;-0.054253235;-0.05728667;0.07568563;-0.028093053;-0.05765556;0.25218576;-0.011028739;-0.048021004;-0.3201906;-0.03102005;0.11854405;-0.42024323;0.03178698;-0.13983513;0.048879493;0.021098442;-0.035338864;0.5303274;-0.3887842;-0.22836842;-0.020740144;0.068948254;-0.13054496;-0.015498797;-0.07206676;0.06936638;0.053820603;1.5577587;0.11715145;0.043233197;-0.37757483;0.12237767;0.027699137;0.073542215;-0.31253633;-0.06114793;-0.058228347;0.024593743;-0.010921636;0.111801945;0.12784478;0.040410336;0.20151651;0.111502826;-0.40671864;0.007751661;0.097313136;0.22735249;-0.028784573;-0.030383753;-1.0515171;0.20095761;0.46478072;-0.32030714;0.42006233;-0.04255347;0.12049881;0.1275586;0.040655307;-0.067836225;-0.15848576;-0.020280402;-0.3431481;-0.2261034;0.11478901;0.08853249;0.27468684;0.013818637;-1.5550954;-0.76978034;0.1304086;0.060265552;-0.08310533;-0.17881866;-0.09040422;0.64577216;-0.1284434;1.0216852;0.012494199;-0.011044019;0.14506449;0.04255445;-0.040478624;0.091838725;-0.02616351;0.053454656;0.15650062;0.004857001;-0.07960418;0.009855055;0.048498634;0.4247943;1.2024341;0.057363752;0.016747676;0.10352129;0.0039133267;0.36271238;-0.1217829;-0.31979367;-0.07280133;1.3661114;0.023406478;-0.024419704;0.11569458;0.0653182;0.111643896;0.036473606;0.051320188;-0.09583778;-0.018740082;0.21000095;-0.016823135;0.02788614;-0.030934798;-0.12186665;-1.1964952;0.103725;-0.21190244;-0.15484774;-0.05621511;0.23694575;-0.026827915;-0.0716714;-0.16292785;0.081890985;0.04741147;0.024246754;-0.0057032686;-0.67076397;-0.052016754;0.14627436;-2.0181549;-0.046328243;-0.52524096;-0.9474855;0.084456004;0.93120515;0.14596698;0.03738078;-0.052901864;-0.07868578;-0.029339308;0.043192722;0.045733657;0.112884924;-0.08373223;0.05270572;-0.11713736;0.005306226;-0.21861824;-1.1090833;-0.597306;-0.015949108;0.019074123;0.5658662;0.05911014;1.8794934e-05;-0.27175325;-0.75560766;0.035503056;-0.0688328;0.34600002;0.16117464;-1.330273;0.11306555;-0.07193864;-0.08208976;-0.13628723;0.024558982;0.09538354;-0.70887095;-0.40580884;-0.10745944;0.07529393;0.10091944;0.1732736;0.09123867;0.09506972;0.031291276;-0.5165793;-0.3397486;-0.8192929;-0.04269768;0.8104708;0.07619389;-0.07410383;0.0656298;-0.016427258;-0.08801252;0.020228753;0.06061774;-0.6395701;0.11159516;0.024363102;-0.108262695;0.7009194;-1.8575608;0.31825805;0.049117014;-0.0152280135;-0.0016582892;-0.18004012;-0.45728448;0.18887247;0.06551546;-0.06474629;0.05715491;0.10200771;0.073277526;-0.12890343;-0.34972784;-0.047439754;0.054872103;0.022256209;0.11358996;-0.088766925;0.13661325;-0.034214623;-0.9292462;0.10109914;-0.13391839;-0.01562899;0.2253938;0.48575556;-0.17018192;0.3222918;0.17639191;0.31685007;0.0429619;-0.0035173139;0.6522692;-0.130885;-0.6552225;-0.07415138;-0.42081964;0.25026786;0.02073438;0.5682446;-0.093398504;-0.3283252;-0.020585287;-0.042317834;0.007547861;0.08085282;0.005578859;0.05765465;0.40877944;-0.015521468;-0.025670901;0.4506146;-0.052874193;0.096525595;-0.8781244;0.051240623;-1.0185736;0.12897786;-0.08719298;-0.03489458;-0.009570154;-0.05633186;0.15557043;0.038737435;-0.086856276;0.092784435;-0.06418086;0.11797191;-0.6177187;-1.9168352;0.50386137;-0.04221227;-0.034444705;-0.05444786;-0.020538677;-0.09566852;0.039605893;-0.0750729;-0.39924216;0.0004794429;-0.37066576;0.09669839;0.07153658;0.06677292;-0.44870594;0.038872693;-0.0011020545;-0.020750813;1.0825893;0.040095616;-0.10069768;0.03871326;-0.09061401;0.08545267;-0.04343955;-0.030951943;-0.033999953;0.038481962;-0.02797008;-0.10720847;0.066227436;0.037188914;0.049545545;0.0055317855;0.12567955;-0.7323293;-0.022426391;-0.5625453;0.02243963;0.035457768;0.17907803;0.048219014;0.07989281;0.2207535;0.041242838;0.08592783;0.032801952;1.264746;-0.07827894;0.005834525;0.054770045;0.19275457;-0.89129287;0.7488807;-0.72177124;0.10155909;0.03848531;-0.0810267;0.029191386;0.109616734;-0.17733909;0.017714554;-0.055830155;0.03903346;0.000115076466;-0.03229484;-0.39663514;0.11037198;-0.14877783;-0.07493287;-0.11510069;0.11794096;-0.069631204;0.08081084;-0.07790431;-0.50661254;0.10161885;0.0493912;-0.07613399;0.06520704;-0.0017822222;0.36746833;0.039706066;-0.05567982;-0.20094417;-0.18826997;0.01564317;0.106905356;0.092558645;0.04773768;-0.56544995;0.41766837;-0.055459287;0.09812103;0.07482305;0.00083499163;0.05612007;-0.009979727;-0.12870458;0.03276653;0.14264803;0.062647484;0.030909706;-0.003446973;-0.12906353;-0.05187724;0.037010938;0.4613407;0.018041875;0.019402731;-0.44634134;-0.12034164;0.04375688;0.018397179;-0.0151857985;0.23347825;0.05905219;0.15965824;1.2098148;0.13283467;0.10440717;0.030853834;0.38192424;0.65171534;-0.42178854;0.049727548;0.0822361;0.06175461
-0.060978986;-0.11809653;0.015297657;-0.7186898;0.0431246;-0.02260037;0.07631487;0.15677652;-1.8125159;0.041681334;-0.01651837;-0.15741178;0.0791133;0.011878908;0.0061380602;-0.37807292;-0.33027607;-0.080185324;-0.1077596;0.1205094;-0.035597064;0.18928185;0.7955091;-0.0042995354;0.0819904;0.59304845;-0.00040275612;0.046148438;0.0064202757;-0.15780422;-0.0375496;-0.51454175;0.034490205;0.6418018;-0.15822646;-0.0636276;0.78729343;0.12790109;0.079975076;0.020008521;-0.16743958;-0.48052356;0.6052558;0.012651993;0.19674101;-0.019495012;0.056631535;-0.022654152;0.5187354;-0.8116835;-0.21228276;0.03402197;0.01161803;-0.35252374;0.7332809;-0.13349593;0.053790495;0.09393373;-0.0322519;-0.06484771;-0.5809526;0.0036628314;0.12146661;-0.021617325;0.029465254;-0.077721156;0.08047707;0.08250529;-0.07827888;-0.11659388;-0.32650894;-0.62581635;0.058992248;-0.3296483;-0.37842545;-0.070196204;-0.08791341;-0.32688177;-1.0911908;-0.026605394;-0.11174627;-0.029330231;-1.0911157;0.13554958;0.0024825798;-0.059047714;-0.20946455;0.01857503;0.05733727;-0.009767385;0.021929473;-0.018572861;0.06385828;-0.51904106;-0.095340304;-0.0037522542;-0.9412137;-0.011427145;-0.15105323;-0.013099016;0.068910725;0.59819955;0.12502657;-0.32527858;-0.034170456;0.39601016;-0.13425924;-0.029450629;0.036053844;-0.0709393;1.1375893;0.10214027;-0.26666564;-0.5951664;0.05485596;0.071760505;-0.17942621;-0.020970903;-0.025492555;-0.8626806;1.2305883;-0.05354748;0.04042237;0.13732296;0.046547826;0.03007121;0.04717741;-0.12630963;-0.13963634;-0.16100879;-0.008541929;0.15832955;-0.73196465;-1.2712598;-0.20232084;0.097485766;-0.042560045;0.108976;0.3598001;-0.30560234;1.0651665;-0.048634313;-0.11678028;-0.02280632;0.026200704;-0.8659787;2.0656464;0.062352736;-0.05641618;-0.0890905;-0.004304045;-0.06949196;0.026629213;-0.572472;-0.31802863;-1.2040695;-0.40069866;0.034899786;0.44830102;0.0006020442;0.0406859;-0.44056368;-0.41480526;-0.07248481;0.11866591;-0.03513561;0.018639231;0.07145197;-0.06985415;-0.07594744;-0.05530111;-0.64113456;-0.102981724;0.05639363;0.061467387;0.055796657;-0.05343745;-0.077729926;-2.2483385;-0.028110798;-0.07933308;-0.00013097272;0.10161179;-0.10149233;-0.096694805;-0.092056066;-0.0018765231;-0.3447722;-0.4939814;-0.12451976;0.557376;0.039471265;-0.46808857;0.044012945;0.013849641;-0.029921144;-0.07337442;0.33463967;-0.42580998;-0.28757554;-0.03978508;-1.2665468;-0.07403203;-0.3409612;-0.009785711;-0.07484827;0.6125008;0.31381252;-0.055767376;-0.4140312;-0.7426717;0.022193197;0.025849406;-0.5244584;-0.1498665;0.013227787;0.065362036;-0.020823687;-0.01077558;0.1952996;0.06451188;-0.05568707;-0.108778074;-0.5001438;-0.032004863;-0.1364508;-0.6745829;0.16256227;-0.02241146;-1.9089565;0.26807;2.4567516;0.30996695;-0.035426598;0.007578868;0.22207066;-0.101551905;-0.018167853;0.07057169;0.08089853;-0.02635978;-0.7450378;-0.18516378;-0.2945654;0.09879458;0.0007427333;0.034356203;-0.54310226;-0.43993032;-0.16397884;-0.113167;-0.18730809;-0.094431266;-0.47288495;0.43331707;-0.57105035;0.80095303;0.014513654;0.08041744;-0.026768358;-0.020197155;0.044706278;0.10236582;0.035607506;0.013637397;0.019014282;-0.035647895;0.02855092;-0.07662557;0.028989024;0.1468435;0.49919418;-0.037111137;-0.037148047;0.060321618;-0.014313439;-1.0814142;-0.11854053;-0.3357279;0.0107717905;1.2147638;-0.06710582;0.0945324;0.14315785;-0.0055696047;-0.14700599;-0.027090296;0.08858069;-0.0052599153;0.03167339;-0.11817282;-0.042907793;-0.06997325;-0.059713818;-0.033986114;0.28382424;-0.09502343;-0.31389353;-0.45809835;0.1710914;-0.15394428;0.040726136;-0.03473012;-0.31277207;-0.4480896;-0.042395502;-0.4014541;-0.036575492;-0.6039707;-0.012138117;0.32536542;-0.45291033;0.06416111;-0.69530463;0.6330683;-0.083004154;0.17910285;-0.42784494;0.06614195;-0.015486814;-0.07933382;0.05816402;0.038182084;0.050906498;-0.064471275;0.026510695;0.035014525;-0.12027899;-0.051281605;-0.25076467;-0.11554006;-0.5165593;0.009910669;-0.12271491;0.8066496;-0.069533795;0.07984299;0.28474852;-1.7216417;-0.017617526;-0.0270237;0.18193477;0.18123081;-0.77421665;-0.047856007;0.03409865;0.11154216;0.18341412;-0.030181918;0.03378664;-0.6860985;-0.73255444;-0.3194517;-0.013254306;-0.33640534;-0.05004249;-0.14988378;-0.06682775;0.046977315;0.30908725;-0.8586848;-0.64191574;0.056595396;0.6684946;0.014839609;-0.073626265;-0.027281435;0.035931163;0.12667894;0.060729083;-0.0079076085;-0.07251654;-0.1144242;-0.060039002;0.070803285;0.95264196;-0.04272969;-0.22810344;-0.018052645;0.08838597;-0.018482061;0.08676143;-0.20347846;0.030254677;0.047254607;-0.34815452;-0.010710953;-0.100486144;-0.06179963;0.1144042;-0.74850744;-0.022129482;-0.0300786;0.06433772;-0.094417915;0.096657224;-0.17818807;0.021943167;-0.44969591;0.00861823;0.23408571;-0.040762264;-0.26439434;0.4144048;0.7403146;1.193469;-0.13477036;1.0461302;-0.09013706;0.094276614;0.47701266;-0.0013390686;0.30344352;-0.12677804;-0.62161446;-0.09617788;-0.026440248;1.077639;-0.037660703;-0.4477617;-0.13112725;0.51608306;0.09113945;-0.105462894;-0.042331535;0.08017745;0.72315675;0.09986204;0.0704428;0.29196846;0.022264538;-0.037108075;-1.6298232;-0.14688276;-0.91342854;-0.15120311;0.0327633;-0.041382782;0.046616714;-0.005121671;-2.1160219;-0.053904522;0.046683896;-0.26325342;-0.4998772;1.0722736;-0.76997864;-1.0334826;0.6030173;0.07474707;-0.026027584;-0.04293138;0.008812315;0.9247612;-0.7780447;0.10467191;-0.67935735;0.0141117;0.13565835;-0.067875326;-0.058544714;-0.05406546;-0.39976045;-0.06413962;0.003634717;0.009449341;-0.44114774;0.032276783;0.060523998;-0.05838507;-0.051987518;-0.33384496;0.080394655;0.05898525;-0.04636962;-0.0021107967;0.02768168;0.13110654;-0.4467924;-0.011673797;0.053238153;-0.05439007;0.19101636;-1.3881165;0.12310211;-0.46829155;-0.05165243;-0.06384302;-0.0420376;0.00070863287;-0.042945653;-0.13118045;-0.12698613;-0.11546238;0.073711365;0.8897081;-0.02494329;0.12555371;0.07470351;-0.4282357;-0.080439515;-0.17044705;0.2440168;-0.01995504;0.02411387;0.040662143;-0.057345368;-0.06335173;-0.84040785;0.05621449;0.03987567;-0.03646909;-0.056667652;0.044249736;-0.0072480496;-0.07191498;0.030486554;-0.0016745881;0.04660089;-0.53143513;-0.034578856;-0.045126963;0.09303584;-0.37749505;0.04901568;0.08320912;0.09442939;-0.08273504;-0.03743517;-0.08402896;0.037655696;-0.022808596;1.0251759;-0.56803596;-0.021986073;0.03670117;0.041013386;0.043698665;-0.80478644;0.008736755;0.04963357;-0.11018478;0.06866923;0.062165882;-0.13195424;0.064653486;-0.13035493;-0.039703935;-0.017560726;-0.066596195;0.024508502;0.009517756;0.15518402;0.09960396;0.03363286;0.47501636;0.060293153;-0.06520704;-0.7367671;0.14734827;0.15838888;-0.13094297;1.0966514;-0.12274206;0.0048107537;-0.08030222;1.4396918;-0.11678663;-0.059891768;0.047801945;0.12881778;0.71259004;-0.4910771;0.051151775;0.066984184;-0.020652616
-0.06212283;-0.11910105;0.049408793;-0.22680618;0.040723257;0.06449978;0.57969034;-0.035469733;0.33807027;-0.082932234;-0.050344277;0.36250606;-0.0025768387;0.032088764;-0.009617923;-0.43702784;-0.6989568;0.013920518;0.14858252;0.052110266;0.080172285;0.37853608;0.4729717;-0.009274919;-0.026362073;0.67850673;-0.012692537;0.001174537;0.16969754;-0.09202689;-0.03697565;0.72129667;-0.034157135;1.4822798;0.16738535;-0.019703886;1.2652811;0.6084436;-0.06892485;0.017720705;0.02390052;-0.57838243;0.84082234;0.025122589;-0.81255186;-0.059607293;0.023880066;0.2899155;0.43815562;0.6234611;1.849307;1.2679765;0.055506885;0.72349274;0.7749018;0.0870292;-0.042487513;-0.010869511;0.038981073;-0.060857452;-1.7323139;-0.07339541;-0.6905773;-0.024394501;-0.056402102;0.01610431;-0.042341087;0.021418747;-0.035843585;0.04863784;-0.09163944;-0.21138445;-0.012421468;0.033851564;0.36409968;-0.0014140578;-0.02798779;1.7538586;0.2469521;-0.05671542;-0.09474789;0.024984967;-0.9565641;1.6390663;0.053217538;0.33646393;-0.16859524;0.051510263;-0.022838619;0.025866492;-0.06355062;0.06282966;-0.09226406;-0.42803895;0.04914034;-0.089807436;-0.63693756;0.16251944;0.05909315;-0.06963229;-0.06740896;-0.27836674;-1.1642584;-0.29405513;-0.06700334;0.42004946;0.0064286157;-0.05212868;-0.030712143;0.113855414;2.0302227;-0.06782723;-0.0077002924;-1.7863785;-0.020806298;0.058448836;-0.2912838;-0.02829558;0.07573821;0.15106812;1.213796;-0.00047936765;-0.01622877;0.078362904;-0.0891246;-0.020378068;0.0151778255;0.11375046;-0.09901429;-0.04885084;-0.087780945;-0.09741093;-0.100420184;-0.9051259;-0.6215992;-0.033220705;0.032966882;-0.27667817;0.7992478;1.1775969;-0.23471394;0.06388274;0.23222663;-0.09394381;-0.04976031;0.99107224;1.726122;-0.09140854;0.05498612;-0.03748583;0.0037176325;-0.008454645;0.046297465;0.01824539;-1.0807853;-1.6440692;-0.2731586;-0.10906009;0.12020351;0.050958615;-0.040059198;-0.38634107;0.118817456;0.01471954;-0.01794192;0.028572263;-0.021844005;0.11970567;-0.64823943;-0.01392766;0.09588541;0.6001211;0.09949088;0.07013492;-0.025605757;-0.0269916;-0.017543273;-0.14454974;-0.2305815;-0.037383564;-0.08234027;-0.009184613;-0.11906187;-0.03400003;-0.02904282;-0.06878245;-0.053778276;0.17626707;-0.014259217;0.038499337;0.52532977;-0.009877055;0.07762557;0.0046814117;-0.021741105;0.043575913;0.6709397;0.772652;-0.04583397;0.19378938;-0.052205425;-0.97138005;-0.04108536;0.32803446;0.037064858;0.0014440945;-0.2977072;0.315204;0.029384218;0.15992714;-0.55720675;-0.073041506;-0.015703516;0.084420115;-0.091410436;0.009135308;0.032951742;-0.105064884;-0.02040492;-0.0063587003;0.042853106;-0.08093696;-0.035476085;-0.18556468;-0.03446339;0.09695017;-0.524918;0.66647136;-1.4067317;-0.6874348;0.23192325;0.6321469;0.54826874;-1.3419226;-0.025973646;0.19807598;-2.9114675e-05;0.004034939;0.0377947;-0.016463645;-0.07510123;-0.81089765;-0.81022197;-0.2013169;-0.0015884279;-0.08224655;-0.039026447;0.39173126;-0.6571685;0.067899436;0.023758426;0.15452279;-0.083701305;-1.2099484;0.16953781;-0.46523434;0.13441499;0.024424756;-0.06289921;0.09629352;-0.061367925;-0.05698411;0.22242507;-0.09431875;0.004843245;-0.10731328;-0.10017476;0.029876512;0.009425222;-0.0073612137;0.14660671;-0.5786931;-0.080805965;0.055836845;0.3940052;0.04236787;-1.0094281;-0.14140864;-0.4499337;-0.02004496;0.24441127;-0.056722645;-0.059295297;-0.051094774;-0.043834902;-0.22136644;0.00449619;0.04427825;0.016488435;0.10723258;0.74884874;-0.013110174;-0.08140246;0.067530416;0.19951184;1.6689178;0.7960417;0.094460584;0.15601896;0.23743618;-0.08903578;-0.0033300098;0.009751109;-0.028503714;0.42487317;0.117448345;0.12057502;-0.021329498;-2.1726904;0.05976587;0.28776154;-0.16840719;0.010439607;-1.0286394;0.70650893;0.083935946;0.20671237;0.26945263;0.0315365;0.24016728;-0.035679363;-0.04881372;-0.042941734;0.08785838;-0.027450372;-0.027350474;0.06498719;-0.2559423;-0.07226456;-0.18188295;0.2665856;0.4414315;-0.01891307;0.23769055;-0.32710257;-0.068767905;-0.01872471;0.08702686;-2.4619691;0.02062496;-0.4915586;0.50200033;0.015085905;-0.6650224;0.1250596;0.034326483;-0.053600408;-0.037933398;0.08966673;0.05911175;-2.161106;-0.033098266;-0.3860655;-0.13899554;-0.7984949;0.0023828254;-0.14873776;-0.010186565;0.045728713;0.72552526;-0.8850017;0.40864432;0.11432436;0.4160546;-0.052981682;-0.021616552;0.029251724;0.02307309;-0.118354335;0.08191554;-0.07559427;-0.06681131;0.08800165;-0.06735776;0.13179693;0.04870286;1.104562;0.16917807;0.08471479;-0.0640526;0.15556093;-0.034008358;-0.209575;-0.28665996;0.054764755;0.17438473;0.039362993;0.0048517883;-0.026712462;-0.008412184;-1.599238;0.051052198;-0.046523962;0.072906226;-0.044865627;0.23766877;0.055470217;-0.06598767;0.17662983;-0.02289068;0.8790017;-0.050408725;-0.23572344;0.4861749;1.3165544;-0.14476953;-0.021025578;-0.007458255;0.090322405;-0.07654184;-0.9365619;-0.024621405;1.1121051;-0.02833859;-0.16800545;-0.09915281;0.087358184;0.9631937;-0.023967914;0.9575929;-0.1620775;0.12924384;0.07967969;0.1170302;-0.053444035;0.05655449;0.31688285;-0.007873809;0.04387514;0.4500306;0.25868458;0.31698936;-1.3526886;0.103360444;-0.71676356;0.040347025;0.029062716;0.04850747;-0.06039421;-0.030422485;0.85725826;0.037750326;0.020885088;-0.023482911;-0.28410855;1.0459714;-1.265416;-1.631059;-1.5358177;-0.08495719;-0.0014700858;-0.088762306;-0.12515551;-0.20917442;-0.50242954;-0.049245633;-0.95094067;-0.35164982;1.8240751;-0.0259525;0.05745102;0.04172792;-0.8452778;0.0714143;-0.010179336;-0.055983312;0.016909117;0.0243621;-0.012363218;-0.05199923;-0.101928145;-0.33645663;0.07667574;0.031131022;0.057088535;0.04579158;0.01648547;-0.016223907;0.31381583;0.03535756;0.09002984;-0.05490317;-0.20995873;0.531141;-0.0024645126;0.012711;-0.09561067;-0.043626066;-0.0208803;0.052366704;0.026644621;-0.11147441;0.012215799;-0.025560752;0.03982587;0.7733086;0.025447905;-0.06895462;-0.007169419;-0.016626999;-0.7717728;-0.7876775;-0.016183166;-0.054509345;-0.10760776;0.012322208;0.033065364;-0.052813046;-0.0857274;-0.06762173;-0.014531126;0.06919496;-0.014359247;0.009316215;0.2528324;0.0014130906;-0.109698586;-0.062864944;-0.025505224;-0.6006127;-0.013432727;0.02702359;0.03168845;1.1803741;0.08561013;0.0505682;0.014038531;-0.0077219005;0.04620118;0.36235487;-0.059941176;0.04661364;-1.4972678;-0.68494433;-0.034860644;0.064118;-0.018906832;-0.09801588;0.08808737;-0.5081602;0.079644494;-0.034158427;-0.071926795;-0.051577527;0.31853664;0.050291263;1.31071;0.04941051;-0.0013150971;0.040759362;-0.063477024;-0.09633571;0.06642303;0.19204181;0.028040608;0.8193195;0.07563155;0.07701588;-0.2494302;0.0017400511;0.35094085;0.11748061;1.5610279;-0.115913756;0.089752294;0.080351375;1.4095963;-0.11990356;-0.050690703;-0.059867814;-0.32756948;0.96225727;0.16176882;-0.06510714;0.036141973;-0.074539915
0.12186417;0.40478915;-0.06455664;-1.2603444;0.28056058;-0.46062848;0.35271493;-0.33457494;0.23921257;0.16849512;0.074059464;0.4084539;0.12651363;0.053460564;-0.06227726;-0.33446535;-0.7113936;0.3496504;0.051400024;0.31724072;-0.1178335;0.09111276;0.582483;-0.5827902;0.23829643;-0.4973892;-0.45520982;0.012945122;0.50725704;0.42975268;0.14212036;-0.3900742;0.07875271;0.90188795;-0.22895235;-0.516878;0.5995846;0.74595;0.08847696;0.076832816;-0.57749116;-0.095992595;0.688287;0.090624265;-0.5988006;0.073123746;0.062331785;0.62779665;-0.15101346;-0.24072741;-0.37791476;0.09344665;-0.07191102;0.54725397;-0.5679575;-0.2546793;-0.048743535;-0.11377472;0.08934157;-0.021747546;-0.3008723;0.0526514;-0.8539471;-0.09320504;0.10058683;0.12229422;0.041262083;-0.46912277;-0.11081615;-0.5633019;0.15660165;-1.7874653;0.05942484;-0.26616564;0.2619774;-0.16028519;-0.18833093;0.5048787;-1.3448733;-0.44514492;-0.5174161;-0.063652106;0.85470814;-0.22682238;0.039030526;-0.50758076;-0.08916663;-0.02672454;-0.6869124;0.024974514;-0.4619725;-0.081591204;-0.052653935;0.49836037;0.05120897;0.24906872;0.20164497;-0.056493655;-0.31788072;0.0058252853;0.15670234;0.62519443;-0.5237287;0.39302087;-0.51579076;0.000686112;-0.1702582;0.015569139;-0.03424003;-0.09573574;1.0595804;0.035827726;-0.26950967;-0.4620821;-0.15196984;-0.026206285;0.26655957;-0.045699265;0.22946946;0.014432786;0.72664785;0.14159535;-0.020277007;0.14569178;-0.67564064;0.12060767;0.08825953;-0.2174045;0.08476549;-0.15441963;0.008506402;0.1812358;-0.23812637;0.15483496;0.31008667;0.18904035;0.020074796;-0.13659863;0.44421798;0.09826141;0.8289569;-0.345642;-0.082486086;-0.0015034409;0.06456164;0.59160036;-1.0946664;0.121291764;0.09620243;0.028363032;0.08659533;-0.003823971;-0.11070823;0.3892744;-0.50610477;-0.39134037;0.30670673;0.33238387;-0.33806643;-0.0040974347;0.058285546;-0.03285862;-0.28861758;-0.20385385;0.061866786;-0.005977058;0.124500714;-0.0933815;0.36293775;0.08830122;-0.029759573;0.025506198;-0.14624922;-0.07933615;0.082398735;-0.026572267;-0.39454406;-0.08060687;-0.25679466;0.06486602;-0.10500611;0.24557622;0.2585796;-0.04988101;0.3780849;0.03011038;0.08819591;1.0172342;0.5050924;-0.21126902;-0.42857724;0.012522856;0.018226383;0.096365556;0.09501465;0.03522214;0.42037028;0.4724816;-0.519809;-0.6180987;-0.56049573;0.8730086;-0.011797544;-0.26887798;-0.016558338;0.1391724;-1.2266409;-0.0021396244;-0.15295275;0.14698592;-0.8818728;0.09370042;-0.5697521;-0.6864207;-0.19961955;-0.003372983;-0.07302879;0.17060995;-0.14279723;-0.19558714;0.13141383;-0.7251129;0.092049666;-0.26785806;-0.23545662;-0.2523747;1.4671385;-0.747848;-0.8313406;0.19054791;0.013910847;0.8709128;0.7311083;-0.007385569;0.035149902;0.17605148;-0.25590062;0.015523935;0.10280374;0.3704159;-0.041800193;-0.23215501;0.16862652;0.22549085;-0.7049794;-0.78922373;-0.20645554;0.41167668;-0.1838158;-0.15103006;-0.015816107;-0.3755968;0.78876275;-0.46156988;0.17648487;-0.3580968;0.07612049;-0.09388762;0.11113612;-0.1973912;0.09702148;0.071043104;-0.0624681;-0.0037637376;0.045960862;-0.56114084;-0.10072941;-0.055716477;-0.029594757;-0.122690864;-0.47622097;0.021591652;0.03477712;-0.2298312;-0.90843385;-0.14166723;1.584261;0.47438645;-0.30066913;0.013393651;0.15308268;0.29847303;0.12640026;-0.30616918;-0.04552024;-0.18186833;0.081674725;0.12142664;0.029862426;-0.04802869;-0.10983162;0.0526269;0.04595231;0.051638428;0.12214718;-0.027591355;-1.4262291;0.42594132;-0.5244552;0.08629628;0.3873508;0.2006031;-0.08215144;-0.52656156;-0.050942946;-0.15556589;-0.496103;-0.009593645;-0.7027176;-0.014896361;0.22819616;0.06506201;-0.022740833;-0.13595836;0.5685798;-0.06681325;0.0176734;-0.5086739;0.036811873;0.28614447;-0.0546692;0.09124375;-0.026179487;-0.040529177;-0.4162362;0.17986616;-0.063059814;-0.60577625;0.00024321329;0.103054434;0.5677329;-0.03701857;0.115095966;-1.167132;0.8573041;0.065425575;0.007321803;0.13025272;0.5536355;-0.020577027;-0.26580483;-0.33255735;0.20678343;-0.13962898;-0.09359387;0.13532574;0.22639593;0.24941182;-0.037764225;-0.1743565;-0.40649995;-0.4071921;-0.24418041;-0.13559042;-0.7816352;-0.7730197;0.44878232;-0.3105819;-0.0022223275;1.2311457;-0.1651854;-1.4003959;-0.007387994;0.040314045;0.0675528;-0.08909452;-0.0011295084;0.104226574;0.28449816;-0.027678518;0.13412043;0.9825784;-0.11529137;-0.039844733;0.07776594;0.06341535;-0.616162;0.89821583;-0.11273673;0.08850161;-0.10221642;0.2565063;0.39334306;-0.2035992;0.032912295;-0.12280315;0.082531646;-0.19440907;-0.03705894;0.09939848;-0.39828748;-0.049750015;0.01612451;0.043907683;0.16216111;0.09761607;-0.2954068;0.008658071;0.7064558;-0.009310305;-0.26173484;-0.025403082;0.19137853;-0.053272672;0.18400837;0.9426601;0.19106592;0.17000738;-0.029063294;0.12213032;0.91713345;0.15514103;1.0302421;-0.1627988;0.87887204;-0.3239977;-0.17131096;-0.43356115;0.03606597;-1.1866523;-0.100184225;0.16104476;-0.016659874;-0.20765398;-0.0081645185;0.060491133;0.06450504;0.101384915;0.0077240923;-0.9149227;-0.19495127;-0.10155645;-0.18968076;-0.1414538;0.5641941;0.28280386;0.0013693024;0.1444334;-0.06436893;-0.049547985;-0.21759044;0.27758712;0.14689833;0.42649862;-0.2097752;1.7118323;0.5240192;0.3456552;-0.84187675;0.058950074;0.12075512;0.039047725;0.06200315;0.47582492;-0.2324052;0.13652895;-0.4853182;-0.0633426;-0.5965274;-0.1259808;0.0796806;-0.11151436;0.10152195;0.030096672;-0.6234848;-0.06887474;-0.6436636;0.015320437;0.2667303;0.34426168;0.14413409;-0.2764558;-0.030003812;0.014762614;-0.045820966;0.028488358;0.033392563;0.1323269;-0.31944907;-0.068218775;-0.069287665;0.069237076;-0.94876033;0.3815302;0.1770697;0.7916913;0.012324909;0.07119002;-0.6884734;-0.22454605;-0.69591945;0.39188093;-0.18510392;-0.29594854;-0.77411;0.45131895;0.0592224;0.23094922;0.001206194;-0.77945286;0.21889459;-0.37562189;-0.102665305;0.28902176;0.11937898;0.010810458;0.03310829;0.122157;0.47454274;0.14630473;0.150417;0.00333521;0.027934821;0.0425063;-0.39413688;0.24527611;0.24998197;0.073442616;0.1500257;0.67675155;0.07790126;-0.055934373;0.027771898;0.62646824;-0.045482073;0.17368221;-0.0129811;-0.21725616;0.06415289;-0.4401095;0.11796088;0.038779587;1.4774647;0.20814128;0.14670135;-0.72056496;-0.5785723;0.09812347;-0.61597234;-0.6376922;-0.0051379865;-0.11245331;-0.63202536;0.06997179;0.3711028;-0.06578659;-0.24063507;-0.0105593335;-0.27780396;0.04050208;0.043653224;-0.10835739;0.2689447;0.59358853;0.1482865;-0.42487746;0.060467117;-0.19832647;-0.7066288;-0.39136085;0.04492954;-0.21302864;0.6169831;0.21534052;-0.105997294;-0.27829784;1.4326082;-0.4311953;-0.49291545;0.03406082;0.17736419;0.39276215;0.7316103;0.08256231;0.0467234;-0.03223483
-0.12557688;-0.49165994;-0.038913243;-0.535894;0.0376988;0.2574276;0.53046244;0.1810585;0.40103075;-0.11061314;0.077456735;-0.6669011;-0.030157112;-0.063770205;0.10355319;0.074319296;-0.96354747;-0.48694143;0.17605552;-0.230941;-0.028059239;0.056650348;-0.16202064;0.39113432;-0.21266186;0.2728946;0.39045078;-0.05746948;0.017867701;-0.6463204;-0.16443817;0.76253635;-0.08593077;-0.052779365;0.20210958;0.3818802;0.018088033;-0.015087053;-0.118950285;-0.026520908;0.3495027;-0.029805966;-0.8789859;-0.06875649;1.5703416;0.030849691;-0.09553455;-0.5942231;0.4887415;-0.002007085;-0.27935916;-0.63343537;0.10462411;-0.33034122;-0.8666466;0.21265946;0.066728845;0.09694794;-0.04164649;-0.007441315;-0.4133794;-0.10902373;0.031622168;0.07137806;-0.030712847;-0.185856;-0.07074244;0.47786075;0.12542069;0.34105337;-0.3856142;0.6476794;-0.040128477;-0.06922206;-0.9850731;0.103238426;0.09692858;0.48366135;0.5954447;0.31308633;0.27594316;0.009149114;-0.19763969;-1.1351185;-0.018173592;0.067285135;-0.10078351;-0.018696934;0.52856696;0.0021566506;0.3186559;0.061408877;-0.06357234;-0.17623053;0.061899465;-0.17261925;-0.80659676;0.27121544;0.14949673;0.0103066815;-0.16645351;0.2845791;-0.065143295;-0.3317016;0.33922213;-0.7771488;0.16387366;-0.04874416;-0.073548384;0.14364706;-0.02813531;-0.06181056;0.014948865;-0.15254997;0.088378035;0.027587973;-0.44215092;0.006103285;-0.10398067;-0.2217329;0.21817517;-0.087311044;0.018006427;-0.24370404;0.49391118;-0.09369412;0.0706435;0.12724;-0.39481613;0.19365737;-0.13657044;-0.18256558;1.2095467;-0.336906;-0.3215929;-0.18241876;-0.130245;0.073328964;0.41369125;-0.7496348;-0.19402742;0.11359441;0.14184938;-0.024507955;-0.15342386;0.8693716;0.22422509;-0.15805162;-0.15364999;-0.020683872;-0.056372046;-0.028177321;0.11491373;0.18702039;0.6058188;-0.14341512;-0.16430305;-0.32460055;0.25761378;-0.057642914;-0.07648367;0.24700247;-0.06202207;0.1980287;-0.16214009;-0.103855915;-0.22470853;0.15985012;-0.34914032;0.016541123;0.21750869;0.063700214;0.19712447;0.12006777;-0.013166295;0.066152535;0.16742146;-0.085492276;0.9439155;-0.06890169;0.0774779;-0.19686918;-0.19678737;0.010414413;-0.6002616;0.0074527813;-0.15900005;-0.12455262;-1.2158567;0.25117978;-1.4342628;0.13892595;0.3497796;-0.21729591;-0.08545993;-0.1247248;-0.68017817;-0.14912967;-0.09098847;0.20964636;0.23916788;-0.26156896;-0.018231718;0.29455155;0.10797518;-0.08097964;0.30319777;-0.08411396;0.17595527;-0.6012578;0.43518835;0.024763502;0.3489141;-0.08394364;0.1687461;0.0017931738;-0.026813122;-0.05322301;0.19231574;-0.2785293;-0.13629626;0.582582;-0.2157296;-0.013756736;0.15997145;0.1421062;-0.31585342;-0.4723168;0.2111192;-0.31675488;0.018447107;0.5753813;-0.31145656;-0.65448433;-0.028170299;-0.11507119;0.091777034;0.07049574;-0.021100666;-0.13218534;0.029721467;0.32785764;-0.19026195;-0.26194233;0.45712942;0.55548847;0.07608829;-0.2913785;-0.44067666;0.18362983;0.06766901;0.11590839;-0.32897016;-0.4939988;-1.2688838;0.20432973;-0.9791266;0.053237654;-0.119810514;0.1918659;-0.09732787;-0.11407458;-0.07120343;0.0022964573;-0.058245588;0.44873247;0.040352084;0.06599166;-0.04489268;0.071830176;-0.34959352;0.4888211;-0.055311263;0.12780035;-0.3912319;0.10801497;-1.0963391;-0.50365984;0.42925483;0.04321856;-0.20009005;-0.2193714;0.030650994;0.08489809;-0.08640072;0.2319929;-0.13512693;-0.16331582;-0.036866814;0.10426389;1.446355;-0.043718487;0.036016665;-0.004974808;0.07990533;-1.764582;0.15249582;-0.63757277;0.2500525;0.27392069;-0.60076517;-0.15673782;0.12961416;-0.22980022;0.73801154;0.09258768;0.22820634;-0.10284103;-0.39597994;0.02984619;0.105012774;-1.4879478;0.121297106;-0.6891397;-0.2702114;0.12820388;-1.0409302;0.24581173;-0.048693106;0.51085275;-0.049086045;-0.13016132;-0.018775946;0.066557154;0.31039545;-0.18257028;0.11168249;0.37946382;-0.05485987;-0.3070993;-0.49424547;-0.24229269;0.00022424251;0.17696793;-0.14845546;-0.016085846;-0.088580444;-0.16372585;-0.42246124;0.10923595;0.5331843;0.25100264;-0.012067494;-1.2860752;0.16928877;-0.07653126;-0.23938327;-0.120168544;0.07503387;0.052167602;1.3342706;-0.26329932;-0.019772142;-0.12023154;0.66173184;0.6102774;-0.5139157;0.23459232;-0.045586128;-0.3507327;-0.12212606;0.27157557;-0.14528461;-0.922632;-0.10301618;0.11799673;0.06275401;-0.023693524;-0.24839893;0.02777132;-0.1433008;-0.4895054;0.06502951;-0.041087642;0.08421535;0.7896207;-0.17491837;-0.11380964;0.07162156;-0.0067106555;0.19212437;-0.15119341;-0.2419699;0.02088272;0.044168454;0.19348708;-0.13533185;0.10112939;-0.030023491;-0.15973803;-0.7810403;0.0757421;-0.04039858;0.051460892;-0.3584558;-0.5433805;0.26005393;-0.18624735;-0.5722643;-0.046572756;0.0955674;0.045515753;-0.53582674;0.3892857;0.5341831;-0.19060092;-0.39682013;0.46391267;0.06404329;-0.043564837;-0.9543929;-0.18049365;0.18847965;-0.09829147;0.4439524;0.57487965;0.118956715;0.40194184;-0.0071489387;0.06971536;0.21095368;0.18166776;0.051715124;0.1201393;-0.009890387;-0.04007674;-0.17659366;-0.13673177;-0.056140114;0.46545216;0.21403316;0.4603648;-0.31957597;0.12879424;0.00046239042;-0.30805838;-0.029419117;-0.09358138;-0.040275306;0.10963289;1.2462605;-0.2912899;-0.25955775;-0.59129125;0.6104858;-0.32028243;-0.22617316;-0.30490395;1.3396666;-0.021984706;-0.13872607;-0.10611061;-0.1516829;-0.67095953;0.31699225;-0.13467434;0.5334637;0.19104102;0.6371621;0.096465506;0.017510008;0.020681959;-0.8060133;-0.035429604;0.47276458;0.043449275;1.2311404;-0.020452555;-0.104326315;-0.36483377;-0.039754674;-1.1654242;-0.046096914;-0.041152943;0.120964095;-0.035887916;-0.07666445;-0.19440459;-0.011171872;0.06675565;-0.049695756;0.031662222;-0.049048673;0.23431858;-0.14285593;-1.1453575;-0.095803745;0.059987903;0.54885817;0.16969758;0.56628036;-0.6331566;0.10922036;0.2487223;0.6050868;-0.688382;-0.0631617;-0.22443092;-0.10134676;0.17623426;-0.90243244;0.15528066;0.060116075;-0.27223712;-0.050525077;-0.07061257;-0.009147295;-0.13496949;-1.9527053;-0.16523711;-0.20788854;0.024843547;0.032042027;-0.12433881;-0.562635;-0.2103512;-0.24854521;0.04700352;-0.099081546;-0.035889205;-0.16089135;0.039770156;-0.05819461;-0.23551133;-0.034810565;-0.18502869;-0.020715564;0.12230451;0.0072338646;0.6612581;-0.0802824;-0.14197183;-1.2635094;-0.2288825;-0.15872796;0.5338891;0.47173396;-0.052891172;-1.2173146;-1.1964614;0.047756575;0.16101103;0.6307259;-0.04052692;-0.38252643;0.011849502;-0.4678711;-0.009125524;0.2646049;-0.009760911;-0.05853019;0.06773322;-0.21369076;-0.3550628;-0.0115914615;-0.46788093;0.06992232;0.11504536;-0.051454592;0.34202793;0.36246896;0.13141331;-0.29088026;-0.3698304;0.085788466;0.24416162;-0.39497194;-0.08133996;0.23420714;0.10854059;0.5312076;-0.6274095;-0.01260447;-0.038472205;0.0638193;0.09590558
0.04370601;0.05051296;-0.07778232;-2.286248;0.11184729;-0.1262521;0.2034604;-0.19458278;-0.77232176;0.07056824;-0.040104296;-0.7991089;0.13520773;0.07769309;-0.06883207;-0.101487234;-0.15823857;-0.10705708;0.06802784;0.19231221;-0.1388183;-0.22098404;0.34900874;-0.123711504;0.12023842;0.016858885;-0.10488668;0.11143393;-0.10196858;-0.011854018;0.0803832;-0.961562;0.074601986;0.039650705;0.0044689635;-0.13009717;0.29522455;0.08391169;0.052228466;-0.031433444;-0.16970815;-0.21247686;0.32021996;0.124546304;0.13681138;-0.027440907;-0.06719017;0.20096599;0.027117562;0.42381716;0.33204108;0.15228736;-0.13262708;0.4653686;0.691523;-0.053204853;-0.12078645;-0.13439567;0.10068098;-0.022727007;-0.6754746;0.12049582;-0.13248377;-0.12856764;0.09000327;0.0028867018;-0.016671343;0.05477601;-0.18006983;-0.1456367;0.34610152;0.18787543;0.17111754;-0.73174375;-0.5421607;-0.098564826;-0.15976818;-0.5427128;-0.41065645;-0.15668754;-0.050032;-0.17456992;-0.6922236;-0.19540554;0.10018185;-0.15002199;-0.0018586837;-0.037051935;-0.13302241;-0.1324389;-0.14556679;-6.3768434e-06;0.12567309;0.52796656;-0.15423389;0.12947656;-0.16810608;-0.12093832;-0.19487287;0.050063;0.20860726;0.0605782;-0.29910877;0.38949123;-0.013682399;0.1879925;-0.09535899;0.11861826;0.13579112;-0.11558535;0.37360212;0.100312226;-0.3511434;-0.576581;-0.20766348;0.056513645;0.25644645;-0.00014714895;0.13530706;-1.0694559;-0.38273156;0.1863228;-0.11280449;0.21655232;-0.15518816;0.22278091;0.044581763;-0.07616334;0.010737757;-0.17217341;0.06863731;0.18044132;-0.17942332;-0.73273534;0.6389975;0.16570754;0.082044065;-0.016551487;0.19949958;0.081044674;0.0706256;-0.1612724;0.12125751;0.15098779;0.15632552;0.7136345;-0.9046473;0.084447265;0.21953589;-0.051089387;0.18171574;0.03935637;-0.12286032;0.35798565;-0.07271184;0.84216136;-0.2817164;0.16051172;0.086069256;0.054976374;0.123416215;-0.026557265;0.35516325;-0.19934638;0.067369886;0.16405553;0.09534452;-0.1167097;0.18955094;0.09880671;-0.15403235;0.081948034;-0.1964895;-0.222743;0.16139898;-0.014952153;-0.055986058;0.029874746;-0.5051528;0.09226008;-0.16059233;-0.04020704;0.19816601;-0.14488718;0.02222589;-0.059900757;0.079472885;-0.35379523;-1.4803326;-0.19150077;-0.0063763824;-0.2204796;-0.08902704;-0.13644418;0.017080987;0.14402328;-0.80566096;-0.3982373;0.23287857;-0.276526;-0.10339434;0.26773724;0.13081504;-0.14928131;-0.11759236;-0.037166044;-0.6515951;-0.10918727;-0.15025172;-0.5277496;0.50860494;0.15778178;-0.054223947;-0.2968432;-0.20452577;0.015532223;-0.110919364;0.09506172;-0.07367946;-0.05079495;0.12224192;-0.22681202;0.019320495;-0.03937855;-0.17089875;-0.15066871;-1.0343581;0.76574415;-0.16041243;0.119738415;0.0880202;0.06601193;0.20907961;1.1329411;0.17475173;0.20750509;-0.12784927;-0.07070671;0.106253386;0.16109163;-0.13383558;0.15125115;-0.19863114;0.31954876;-0.17340077;-0.09658453;-0.13646951;-0.25297412;-0.08767733;-0.079015754;-0.18034595;-0.10264311;0.2721839;-0.6244113;-0.7493858;0.24984357;-0.92115104;-0.12996472;0.0040527117;-0.15308137;-0.055392373;0.09621742;0.075661294;0.09731685;0.011108603;-0.057357527;-0.15668514;-0.020839686;0.068250686;-0.1928626;-0.68977433;-0.25092655;0.08502201;-0.16044103;0.050550368;-0.09921791;-0.43987736;-0.17103507;0.18546818;0.04824308;-0.55759186;0.048901875;0.21396561;-0.13222432;0.015749725;0.0008344254;0.028835807;0.04446775;0.17263214;-0.18704359;0.097523704;0.1547946;-0.009796293;-0.14112477;-0.06434363;-0.3400165;0.12050376;0.1751391;-0.19995281;0.27921087;0.1034913;0.044368368;-0.11246678;-0.52888185;0.0101855695;-0.14950421;-0.26847187;0.0397805;-0.20112106;0.0791251;0.21697313;-0.5626858;-0.043158118;0.098071694;0.3977963;-0.19310811;-0.8058931;-0.33010548;0.124708;0.37786365;0.06830349;0.1318576;0.024169996;-0.08018947;-0.03141981;0.14221767;-0.19920675;-0.15319672;-0.06811452;-0.023791619;-0.93452686;-0.1457643;0.07788438;0.26947477;0.7694151;0.09237205;0.19656272;0.032297496;0.49163797;-0.10608172;0.46236685;0.6300633;0.1676114;-0.3654179;-0.077168;0.05764853;0.17705224;0.17814194;-0.17759407;-0.18640563;0.163147;0.09196681;0.0017885208;-0.12072639;0.63382626;-0.10161413;0.009424734;-0.10985676;0.13218468;0.41747186;-0.22357798;-0.12753807;0.032175392;-0.95426035;0.17317867;-0.21265769;-0.158572;0.12778021;0.050161514;-0.145802;0.08239699;0.6102221;-0.11863051;-0.02837895;0.09448391;0.090362445;-0.20054966;-0.13360202;-0.22045319;0.08566464;-0.16041464;0.20146444;-0.16660051;0.0112773925;-0.046588484;0.18955323;0.15569359;-0.08336773;-0.031567175;0.1895528;0.07067574;-0.08207897;0.21978408;-0.0400645;0.012294506;-0.6302752;-0.07300661;0.19768988;0.16994105;-0.10156284;0.12204477;-0.16442108;-0.16344738;-0.029858137;0.61846507;0.38394323;-0.03904441;0.2819908;-0.12831023;0.13119242;-0.7824366;0.19279161;0.5916777;0.008151265;0.49026355;-0.21596055;-0.15510298;-1.0275058;0.07606756;-0.1310596;0.14756648;-0.0032111467;-0.123004146;-0.2006643;-0.019516079;0.06622889;-1.044529;0.04948038;0.13612057;0.23767722;-0.016580528;0.078253165;0.58121413;-0.1508638;-0.35257244;0.15206069;0.10940712;0.08095581;-0.019467443;-0.1432593;-0.38845012;-0.03825589;0.0606443;0.098629266;0.0095770955;0.6142671;-0.07716396;0.31066656;0.1003342;0.21310699;0.07874797;0.095850885;0.116675615;0.25868472;0.4518801;0.15924853;-0.17397778;0.053229712;-0.36947453;-0.13531531;-0.010243549;-0.05503043;-0.3282059;0.06376366;-0.036000326;-0.10270368;-0.61902064;0.04544117;0.041501354;-0.07624474;0.17829117;-0.1210529;-0.07743436;-0.0025178855;-0.15964368;0.012605849;0.13814631;0.19648276;0.089488745;0.013182325;-0.14757663;0.122196235;0.07258672;-0.2649671;0.16915317;0.0041429712;0.082444504;-0.072312646;-0.09833146;-0.19882351;-0.16203098;-0.01104855;-0.14363785;-0.17747319;-0.0954108;-0.7769937;0.115473785;0.13252343;0.045127362;-0.41668054;-0.27976498;-0.10225731;0.16465676;0.049433872;0.08946189;0.16667959;-0.08565769;0.00958629;-1.3106518;0.16056606;0.011030085;0.1177092;0.058437902;0.13777146;0.039851226;0.06586808;-0.006536118;-0.016492084;0.114180095;0.3099737;0.14404412;-0.18570763;0.0684427;-0.5416046;-0.065442234;0.14044243;0.10761511;-0.14589113;0.13911782;0.032700535;0.20852083;0.11884719;0.34231773;0.5870682;-0.03958089;-0.14365573;-0.13028406;0.118716516;-0.6065788;-0.34060848;-0.105244584;-0.20554832;-0.11223092;-0.060606025;-0.18103959;-0.024617665;0.011430799;-0.0013620915;-0.051052757;0.1173626;0.10121475;0.04729622;0.16266094;0.033355437;0.055218272;-0.4183311;-0.00012028726;-0.079948135;-0.004386501;-0.078992195;0.22066195;-0.21998382;-0.7752284;0.023485411;-0.095044725;-0.064351;-0.45811898;0.22423835;-0.0427218;-0.017604437;0.20298533;-0.6950706;-0.1315302;0.12427629;0.07165033;-0.08861271
0.031634536;-0.06260561;-0.035240382;-2.6108432;0.02052199;0.20595688;1.1120728;0.16939782;-1.4785963;-0.10694022;-0.03594171;-0.4288332;0.022028076;-0.08502068;0.028813109;0.52043295;0.52375966;0.055973314;0.06757104;-0.1550293;0.035484303;-0.12759125;0.8352282;0.0715363;-0.26883715;0.7620819;0.21963158;-0.035743024;0.33853933;-0.07201841;-0.029553654;-0.92213804;-0.1134834;-0.8524902;0.20343117;0.07913592;0.3668194;-0.13804144;-0.051692493;0.083035246;0.20351171;-1.4306736;0.015760606;-0.008045793;0.52959454;-0.054786585;-0.015546698;-0.71401507;0.22891966;-0.7677655;0.39857176;0.01580715;0.057250187;0.8228027;1.0885358;0.16641976;0.12998678;0.06330424;-0.1261561;-0.0018215965;-0.21753825;-0.13944077;-0.3634628;-0.015643325;-0.00037046397;0.024747906;-0.059487887;-0.13057618;-0.080135845;0.24713166;-0.10144133;1.0809726;-0.102225006;-0.567749;-0.18503681;0.10386062;0.18587057;-0.99229175;0.7833201;0.15974432;0.2412317;0.012975839;-0.2597319;1.532434;0.048391216;-0.17873174;0.11100939;0.05229407;-0.00310816;0.07279312;0.173806;0.080226906;-0.051896304;0.6970072;-0.024430765;-0.17733972;-0.44511816;0.13534664;0.16461965;-0.11432583;-0.1443823;-0.22302672;0.19400713;0.10412796;0.1107249;0.43120444;0.2476552;-0.009163183;-0.065885596;0.087691024;-0.53353286;0.0050570117;-0.1684525;0.43682852;0.12563829;-0.0357238;0.096288644;-0.082946576;-0.15966369;-0.36441377;-0.21781382;-0.06692699;-0.0057341787;-0.07952634;-0.025443893;-0.17172752;0.0747112;0.1991743;-0.22024164;0.12106435;-0.13966183;-0.26368514;-0.27842107;0.24815673;0.08102242;-0.018462075;-0.106740125;0.06548862;-0.11878026;0.13453157;0.059459742;0.19145751;0.24681759;-0.073739916;-0.05577872;-0.05153998;0.59023815;-0.049243744;-0.013949247;0.09675754;-0.06757836;-0.043585822;-0.030482091;1.7127713;0.006556646;1.7687178;-0.011164947;0.26697496;0.08283827;-0.031257376;-0.090329014;0.6498698;-0.21141735;0.15919606;-0.09049678;0.01628149;-0.20088173;0.12556818;-0.14828931;-0.074131995;0.09869688;2.2680748;0.084701546;-0.004676927;-0.054608323;-0.0064148093;0.21698461;-0.059235316;0.14328295;-0.033855785;0.07680998;-0.11150765;-0.20373605;0.0077411295;-0.126451;0.1045086;-0.013021729;-0.046796218;-0.12004017;0.22656047;0.4800728;0.05700363;1.5817991;-0.10334718;0.006455818;-0.04450497;0.15637492;-0.055639297;0.02783117;-0.0023624012;0.14642225;-1.0506175;-0.09438978;-0.08138088;-0.007865745;-0.056795437;0.20368034;0.18275675;0.20157957;-0.2071097;0.09032999;-0.017556299;0.04313455;0.49223545;0.076108165;0.054203834;0.008528271;-0.08683061;0.12840635;-0.30856255;-0.1371791;-0.108135775;0.18393786;0.58200383;0.18203053;0.20222382;-1.2540406;1.5956634;-0.70806193;-0.34023574;-0.18467793;0.08349275;-0.23230837;-0.48279166;-0.048543114;0.011539157;0.11674369;-0.020742724;-0.01604486;-0.13876337;-0.030286944;-0.22338173;-0.4369243;0.7592343;0.103775784;-0.19898148;0.16998418;0.6672357;0.8754561;0.10890195;0.029466951;0.22504793;0.10469112;-0.5834138;0.58803344;0.31195506;0.22040342;0.0363911;-0.08811546;0.2706357;-0.05443372;0.012312916;-0.0037237282;-0.118762605;0.016690286;0.060755767;0.15733527;-0.032907113;0.007411766;0.12897292;-1.6599654;-0.2622168;-0.02647536;0.16032235;1.0980147;0.0041042366;-1.0207919;-0.1780887;-0.19537348;-0.021050965;-0.3542829;0.29969156;-0.11465365;-0.05216658;-0.025013441;0.42119998;0.03967451;-0.11008869;-0.12685399;0.102839164;-0.12379157;-0.025655061;-0.032870844;0.060196653;-0.07986483;0.046288602;2.346846;0.5490984;0.76459986;0.16159861;-0.13181624;-0.06770539;-0.027983971;0.31477383;0.52891874;0.10453162;0.43224344;-0.084111616;-0.49834433;-0.046819888;0.14354545;1.3993385;0.014920358;-0.61800545;0.5178678;0.10450871;0.25782675;0.8669659;0.014909621;1.10568;-0.0026751556;-0.008376463;-0.07255777;0.1224194;0.26779273;-0.16079965;-0.00425808;-0.09278245;0.029004198;-0.17406784;-0.6261354;-0.105300345;-0.0031306453;0.61113316;0.39484462;0.032880124;-0.07957175;1.4860876;-0.28074113;0.06663808;-0.1238235;-0.58327246;-0.5152774;-0.989999;0.1595976;-0.058685303;-0.18753977;-0.2609057;-0.028686246;0.06390126;-0.17325155;0.46354872;-0.44234705;-0.014474685;3.195385;-0.07443249;-0.091723286;0.1515283;0.027891746;0.44286662;-0.27957827;0.056634385;-0.034819476;-0.87361157;0.018662948;0.07122046;0.047231123;-0.07654904;-0.19229244;-0.022664316;-0.12901029;0.17926475;0.10019452;0.011509674;-0.0048454823;-0.7222812;1.2429602;-0.20349096;0.09726163;-0.081297986;0.18949795;-0.18692501;-0.52046317;-0.08592658;0.034957275;-0.16645;-0.042509746;0.08147488;-0.017636403;-0.17326044;0.9160591;0.057426795;-0.01350751;-0.022714714;-0.08607975;-0.32839757;0.29047662;-0.15264551;0.6792983;-0.008762247;-0.255788;-0.014043228;-0.047802266;0.19500992;0.6714062;0.45998284;0.022770252;0.46472344;-0.020256529;0.0030646543;0.007846738;-0.17659074;-0.13021027;-0.07486059;-0.082759105;0.040067144;0.097762525;0.74062246;-0.09735776;0.0791114;0.37420043;0.4950816;-0.013368661;0.20091794;-0.020804262;-0.06668458;-1.4518007;-0.15163164;0.030857883;-1.0962437;0.060582485;0.33628598;0.40762496;0.08105338;0.27235588;0.11464998;-0.042205747;-0.09401776;-0.041918058;0.071568936;-0.8561101;-0.065235645;-0.21182688;-0.099818245;0.2690783;-0.113651685;-0.45634288;-0.17025301;-0.19254602;-0.07972303;-0.10359912;0.024701923;-0.15616556;0.16296104;0.15940566;-0.17392035;-0.528685;0.046363354;1.2638718;-0.0011653205;0.056348465;0.032097094;-0.48658106;-0.10574393;0.020640846;0.0018210552;-1.7945786;-0.027964942;-0.25219515;-0.13448633;-0.1382145;-0.28387332;-0.06338269;0.027007047;0.12518544;0.03441074;-0.10824014;-0.09311548;-0.36361468;0.011564225;0.065849066;-0.09898517;1.7278726;-0.60835147;-0.18592311;0.28661054;-0.039120987;0.007878736;-0.12891404;0.1328886;-0.009122707;-0.048941743;0.1466705;0.24720761;-0.0024500634;1.0653131;0.013462609;-0.09985315;-0.04348633;0.1638961;-0.7273847;0.30285105;0.37506756;-0.052989554;-0.1583594;0.028762791;0.0214062;-0.06255103;-0.4409787;-0.030063458;-0.10973804;0.05484053;0.053177353;-0.114479214;-1.2787235;-0.045156285;-0.16047549;-0.033689383;-0.08809908;-0.5518379;-0.089446165;0.13756591;0.024422703;-0.34815797;-0.077982284;-0.12118267;-0.04458817;0.1689855;-0.016041316;0.33757326;-0.014226591;0.0033844847;-0.9074761;0.46449035;0.010499157;-0.006481916;0.16241525;-0.11403358;-0.9231917;0.65700555;0.006014503;0.19063468;-0.04188654;-0.11241434;0.051552393;-0.0067935614;-0.25397375;0.07865676;0.25676113;-0.012666093;-0.026784837;0.013612724;-0.2732924;-0.2826275;-0.06454282;1.4381953;-0.06955224;0.1556316;-0.2293311;0.11090758;0.08768016;0.23849721;-0.5431169;-0.059152424;0.22621368;0.25424087;-0.28495944;-0.068587065;0.11805998;0.05831803;-0.28599828;0.7144838;-0.9067191;0.008766681;-0.013087334;-0.026811253
-0.03386863;-0.105539754;-0.01923414;-0.7720602;0.12589556;0.027356276;1.2997663;0.11411487;-0.27572376;-0.09356508;0.077104315;-0.4275456;0.04279883;-0.06495936;-0.029274916;-0.12975553;0.65606064;0.0148269385;0.07714032;-0.027163824;0.08860571;-0.46004063;-0.16969547;-0.09175757;-0.055542022;-0.26491436;-0.062229693;-0.02708354;0.57473886;-0.1866562;-0.036558084;-0.489033;-0.08470685;-0.67816937;-0.017873159;0.03157194;0.8628404;-0.55865604;-0.09683075;-0.029524423;0.030596234;-0.66917473;0.3776436;-0.10341389;0.38270873;0.023007542;0.05761307;-0.12575476;0.16902518;-0.9343388;0.6503965;-0.036416642;0.07514489;0.12577705;-0.36599553;0.013762697;0.050099947;0.07232276;-0.04330504;-0.02779662;-0.80377483;-0.037613675;0.14182721;-0.044481818;0.0021090452;-0.08497579;0.064595304;0.16112979;-0.038285047;0.009946774;-0.75368553;0.30874297;-0.06798339;0.34835732;0.34592798;0.022369863;-0.023568101;-0.8742049;0.16323425;0.07222728;-0.017211305;-0.035860986;-0.9469752;0.25863138;0.029337496;-0.13901529;-0.08407607;-0.056006644;-0.014515056;-0.0054310355;0.0513089;0.053649932;0.03796783;0.33329087;-0.06070614;-0.020279476;-0.101913534;0.10926322;-0.0075426945;-0.09278699;-0.062934384;-0.66646636;-0.373033;-0.025244059;-0.041001566;-0.25843817;-0.012997151;0.055890962;0.054018572;0.059720416;0.29295912;-0.08466768;-0.4779628;0.97919464;-0.030530436;0.058544476;0.04815451;0.044131022;-0.049668495;0.11851484;-0.63002473;-0.0012672968;-0.050298255;0.05232976;-0.11884587;-0.017993176;0.044307794;-0.05009391;-0.061889313;0.09713987;-0.014998758;-0.0488369;-0.066938035;-0.53261006;-0.32969892;0.024282273;-0.0013550194;-0.04960024;-1.5358038;0.04599127;-0.1701648;0.058438264;-0.09923712;-0.09810474;-0.09339269;-0.50103515;1.1463385;0.0126918405;0.023275001;-0.010102371;-0.078139976;0.052757785;-0.038161833;-0.3473936;-0.13099767;-0.34307492;-0.05403125;-0.059324987;0.003668142;-0.054903947;-0.03923917;-0.067165665;-0.435014;0.11471306;-0.13066164;0.0043541286;-0.04277669;0.054263595;-0.6769576;0.06540343;0.0727468;-0.0974384;-0.037125215;0.07667786;0.0315737;0.053523287;0.037059683;-0.037131775;-1.001534;0.05419087;-0.051138114;-0.057263236;-0.039407503;-0.004597288;-0.21677834;-0.02579203;0.038383394;-0.06880353;0.050782792;0.042791773;0.76788896;0.018336391;-0.12397997;-0.025485292;0.012168128;-0.0683595;0.521853;-0.27049404;0.38749862;-0.03229669;0.08530973;-0.8095623;0.013895602;0.3162811;-0.05129294;0.003418067;-0.34532368;0.25632626;0.071642295;-0.34945878;-0.63785285;0.045103315;-0.1415887;-0.1118832;0.023840992;-0.04089685;0.049656853;-0.10145787;0.07599925;0.22053598;-0.13214295;-0.18442833;0.14828378;0.07473799;0.06330606;0.03988232;-1.1523873;0.60098314;0.46379668;-2.1205037;0.16810572;-0.05232012;0.12249616;-0.32527992;0.000746666;0.048510186;0.036653273;-0.03498775;-0.018202621;0.0023498205;0.10288114;-0.69052917;-0.7025392;0.68518907;-0.040176284;-0.1516549;0.057639606;0.5161325;0.3915553;0.068128966;0.019810427;0.087343514;0.033654176;-0.57059884;-0.47353104;-0.13924596;0.487462;-0.028831147;0.02577103;0.043713834;-0.07569634;-0.0545337;0.070668295;0.021741303;-0.038517013;-0.028929824;-0.043564953;0.017012002;0.068585016;-0.009543522;-0.34645948;-0.30353194;-0.008569844;-0.007826127;-0.010098091;0.06150953;-0.43176222;-0.080905475;-0.3566824;0.06685219;0.252281;0.2063081;0.019163633;-0.02100192;0.00013238355;-0.06550843;-0.00033050653;-7.112469e-05;0.00990893;-0.05784257;0.10782184;0.057769552;0.013965005;-0.034813523;-0.27074486;-0.3005597;1.2151182;0.4760126;-0.2668515;0.03191568;-0.17691848;-0.13058567;0.06985313;0.11957289;-0.33147556;0.0197676;0.13849412;-0.08688808;-0.46218148;-0.09614413;-0.23716617;0.05475567;-0.015572332;-0.786237;-0.16034201;0.0851319;0.24743976;0.61385506;-0.06197501;1.0205584;-0.01571309;-0.03523264;0.06049888;-0.045143414;0.0041230656;-0.07165977;0.070189185;0.05056538;-0.019953862;-0.32368794;-0.91188204;-0.49570614;-0.097092405;-0.033596072;-1.8283482;-0.06485404;-0.09200589;0.43420315;-1.0554951;0.006956815;-0.27698925;-0.91223854;-0.13512452;-1.7183542;-0.03576649;0.049093314;0.026029706;0.0072989836;0.061037745;0.07546119;-0.009014587;0.3986977;0.07298321;-0.0005704256;1.8396268;-0.08800783;-0.09209364;0.0796968;-0.027522966;0.101765126;-0.6450061;-0.4565185;-0.056193158;0.7288429;0.04612101;0.09284524;0.07811416;-0.0744531;0.00523844;0.10746594;-0.04837886;-0.3010358;0.10585438;-0.015344624;-0.13360737;-0.67472243;1.1493906;-0.6174732;0.027389597;0.062959805;0.17870267;-0.07130784;-0.1054879;-0.023040874;-0.018390382;-0.4171921;0.011122648;0.007897943;-0.068794705;-0.07966134;0.6077419;-0.05054222;-0.041325647;-0.050570067;-0.07267276;-1.1548088;0.088262215;-0.07459112;0.20247442;-0.08707187;0.014921268;-0.057068408;-0.033099286;-0.2222402;0.95344985;0.86532265;-0.058315463;1.0617115;-0.026951464;-0.047645383;0.65358514;-0.10667761;-0.3865832;-0.26748687;0.25080785;-0.5965422;0.13493049;-0.08639297;0.022400765;-0.5339715;-0.011612008;0.056973796;0.11317049;0.069419034;-0.039061468;0.047210567;-0.351155;-0.025015648;0.03944818;1.2831029;-0.004284292;-0.018920079;-0.023592062;0.036245737;0.97270304;-0.27260724;-0.10046372;-0.08179368;0.019275075;-0.012894579;-1.7279882;-0.12749115;-0.12288824;-0.057065908;0.0508342;-0.4778341;-0.62314117;-0.4485572;0.39297816;-0.066519774;0.020066762;-0.090821475;-0.09979564;-0.1097023;0.022569029;-0.08281548;-1.6460358;0.03690059;-0.13147685;0.06582962;0.047794793;0.05131301;-0.25805062;-0.008880381;-0.086929694;0.07753488;-1.5252082;-0.03207379;-0.10020917;-0.08511084;0.021944087;-0.51303923;-0.01793972;-0.027112607;0.113492735;-0.009518462;-0.07020034;-0.069415376;-0.27470508;-0.06735484;-0.022678748;0.026987718;-0.1821458;-0.41030902;-0.003914007;0.80435735;-0.09495786;-0.013656395;-0.10486971;-0.03214888;-0.12489658;-0.15038386;0.05901991;0.014437355;-0.10956506;2.011506;-0.06522461;-0.04172029;-0.05340832;-0.034799233;-0.15669073;-0.091336474;0.14292075;-0.017820686;-0.093491614;0.029949259;0.068763964;-0.10975297;0.002229234;0.035536513;-0.12545648;0.051228426;-0.029888405;-0.02289774;-2.305893;-0.06723614;-0.022657847;-0.1019386;0.16753215;-0.784648;-0.009428069;0.02891616;-0.070870504;-0.29790306;-0.017219054;-0.04552213;-0.07394678;0.08712697;0.021287376;-0.14191844;-0.051272064;0.044717506;-0.7842459;-0.32271785;-0.123693936;-0.06624084;-0.01669865;0.027938765;-1.7508937;-0.3796482;0.009939522;0.084986165;-0.1239787;-0.04112098;-0.21492355;-0.035378743;-0.23250723;0.03121427;-0.007916835;0.05616334;0.049505718;0.05056272;0.03543372;-0.1840938;-0.08477469;-0.24178274;0.014613267;0.07397246;0.035887666;0.16479626;0.003298699;0.007303119;-0.909326;-0.16910388;0.050842818;-0.021357192;-0.18527077;0.5966006;-0.021437801;0.041905865;0.18732189;0.59658086;0.2561048;-0.05222862;0.023586217;0.059146058
0.044174794;-0.34761018;-0.045900352;-0.6829346;-0.3190469;0.01317086;-1.6015271;0.17575885;-0.5163372;0.0416442;-0.013160826;-0.1246337;-0.029117635;0.04651719;-0.002678074;-0.5076388;0.60441595;-0.086454526;-0.153603;0.009049709;-0.015296727;-0.15093872;-0.39756092;0.0109135825;-0.0006852966;-0.48235637;0.07932248;0.070886806;-0.94591975;-0.35877362;0.09349518;0.06785835;0.0025401646;0.3325163;-0.24398734;0.011125555;-0.83980316;0.61919236;0.096001185;-0.019194165;0.034718517;-0.9151859;0.8304272;-0.014109636;0.033487648;-0.02828457;-0.041579045;0.019957699;-0.14880206;-0.5271199;0.17663848;-0.11655294;-0.045845777;0.14891326;-0.2087446;0.01338003;-0.027472846;-0.015378162;-0.06104575;-0.051756345;-1.4553237;-0.044158105;-0.7057424;-0.023319637;-0.03147136;-0.19373594;0.025483424;0.2915435;0.0012473789;-0.050760508;0.11149927;-0.1055337;-0.03540355;0.19861782;-0.1169325;0.00803138;-0.040909838;-0.10123578;0.086529866;-0.05133652;0.016862752;-0.050634492;-0.47861043;-0.8248941;0.046914894;-0.1457445;-0.021002179;0.035547793;0.14535019;0.04846865;0.052016348;-0.036542628;0.1034024;-1.4352921;-0.086322755;0.013381119;-0.18827534;0.00844089;-0.10707744;0.016743066;0.06176055;0.5797917;-0.16117702;-0.591647;-0.004231644;0.53656983;-0.00092962617;-0.010435025;-0.07907049;-0.078433976;0.13095696;-0.015160651;-1.0104793;0.64631754;-0.037206944;0.09915645;-0.19638687;0.055618543;-0.036111094;-0.8959417;-1.666767;0.086226285;-0.039041843;0.05237258;-0.002788143;0.04890971;-0.02511082;-0.08992739;-0.11265645;-0.06704893;0.07609714;0.1009759;0.14338855;-0.14675702;0.14107728;0.0527165;-0.11004946;0.2017209;-0.06617874;-0.057316944;0.2502361;-0.03208677;0.052814603;0.08957352;0.061791647;-0.22890969;-0.27102956;0.0954873;-0.012516232;-0.037700567;0.029058382;0.018855918;-0.017909931;-0.9474465;0.33980638;1.1465118;0.5418881;-0.17716071;0.3212308;-0.0038954576;-0.028266318;-0.34686032;-0.4429562;-0.014713849;-0.024014212;0.0783523;0.056016147;0.07626208;0.10320101;0.0768538;-0.06360847;-0.6241762;-0.12497148;-0.09349145;0.079529285;0.019923469;0.03565238;-0.028228868;-0.475913;-0.0036363038;-0.10911216;-0.10273021;0.018519744;-0.024144214;-0.3026242;-0.0033205044;0.0468827;-0.8461241;0.03173474;-0.06218876;-0.503201;-0.0009126358;-0.7306282;-0.08796906;0.024020031;0.084954575;0.65509367;-0.2768229;0.2185642;0.19314814;0.0075047766;0.026926702;-0.035097156;0.19738217;-0.09040626;0.25101393;-0.19293481;0.22465926;0.018549154;-0.41656476;-0.70600206;-0.011015384;0.045304555;-0.06439101;-0.20692737;-0.009303218;0.04208783;-0.0028958425;-0.07003543;-0.46864527;0.075896785;0.16133618;0.027982675;-0.2585796;-0.016391965;-0.038808003;-0.24548668;0.7816179;-0.07858481;-0.4323207;-0.12723778;0.5447385;0.29302403;-0.6040737;0.085224286;-0.021744946;-0.12414713;-0.028777681;0.03780789;-0.04254266;-0.12996647;-0.07286757;-0.17627507;0.5986295;0.17818682;0.13316493;-0.13049956;-0.5473256;-0.5882611;-0.059339076;-0.00077713514;0.07604344;-0.18364874;-1.097115;0.12616242;-0.2966541;0.3228341;-0.03549343;-0.024642115;0.041177977;-0.066442505;-0.015523076;0.013778029;-0.0023504044;0.053880937;-0.007343424;-0.12089209;-0.043852594;-0.041165352;-0.025273595;-1.6223506;-0.012776821;-0.03297147;0.0009997659;0.18622784;0.1582138;-0.37816057;-0.29395255;-0.28027496;-0.06964496;1.2464131;0.05928956;0.060325213;0.20920704;0.037725545;-0.31390488;0.030760862;-0.039820604;0.05843455;-0.09487617;-0.77292806;-0.05791719;0.08743179;0.055198863;0.007351515;-1.0115502;0.09181513;0.01124056;0.051457703;-0.00026447474;-0.363804;0.031148411;-0.06443648;0.3528973;-0.43504253;-0.07100924;-0.39214894;0.030805111;0.74500245;0.024003422;-0.34097385;-0.6096813;-0.02098345;-0.23552103;0.5615402;-0.013482797;-0.23274581;0.7531271;-0.0153999785;-1.6974521;-0.005644727;0.017401097;-0.0055253054;0.017483672;0.016212346;0.07024581;-0.13431624;0.22493713;0.043422114;0.030556986;-2.0921104;0.19115408;0.04786373;0.5064474;-0.53392094;-0.04530383;0.05715813;-0.21309103;-0.7639807;-0.0660157;-0.1814644;0.40745196;0.23477988;-1.9242398;-0.036026213;0.05137723;0.035610866;0.05153481;-0.017978849;-0.061287336;0.057377405;-0.3553025;-0.5533893;-0.03918167;-1.1949123;0.12538216;-0.359969;-0.053214297;0.077689335;-0.27834633;-0.1944133;0.08975395;-0.014144769;0.6161243;-0.025737477;-0.023914112;-0.054981437;0.058980558;0.08811901;-0.06069647;-0.004679192;-0.23925285;-0.04952213;0.011453218;0.057031058;0.31491184;-0.07395678;-0.8920566;-0.09703003;-0.016859796;-0.02295093;0.017928844;-0.9133455;-0.15261307;0.024658745;-0.07602644;-0.08634694;-0.11398298;-0.05931679;0.09639845;-0.17248875;-0.0135832615;-0.020726359;-0.035022102;-0.10851063;-0.7836581;-0.023316884;0.10075416;-0.29738492;0.003808834;0.749434;-0.083387636;-0.17042887;-0.43966544;0.040502913;0.37812835;-0.30505913;-0.90477556;-0.07754734;0.0516607;-1.7898543;0.011741799;1.1358695;-0.21655707;-0.09374255;-0.29736832;0.072098605;-1.0771637;0.054311845;-0.74763066;-0.2083791;0.021100672;-0.012758076;-0.034474965;-0.07918391;-0.060902093;0.41398558;-0.11116463;0.049998377;-0.14084165;0.33344513;0.2012538;-0.27270445;-0.12653749;-0.60037404;-0.21584131;-0.011873591;0.023319973;-0.057010114;0.015706595;-0.0037314682;-0.1636787;0.03707144;-0.23575202;-0.32094583;0.24546158;-0.28525922;0.18068258;0.7895606;0.0513397;-0.013715461;-0.07383399;0.13236752;0.16220544;0.2579454;0.047238085;-0.40029305;0.06838201;-0.15412071;0.027854182;0.044869248;-0.076177485;-0.12543401;-0.004459382;0.046205647;-0.10128773;0.32662466;1.5429503e-05;0.080719106;-0.13056125;-0.020277722;-0.28545597;-0.0005819047;0.06474894;-0.11032778;-0.0014051535;0.031535305;0.036915384;0.07617994;0.064866535;-0.014803832;0.022579325;-1.0239122;0.11501163;0.059172187;-1.1226778;-0.031574674;-0.056314245;0.07719298;-0.102898486;0.11986645;-0.37089851;-0.028984705;-0.10493743;0.092983745;1.4604564;0.075185016;0.029518912;-0.09213985;0.01796283;-0.08110399;0.086819775;-0.15063031;-0.14796954;0.018320624;-0.026166365;-0.05288526;-0.09476741;0.39530495;0.07364222;-0.027174996;0.0077597024;-0.009206983;0.0801124;-0.0015258889;-0.07702223;-0.102509595;-0.0023632648;-0.046341844;0.7110732;-0.058153123;-0.07219836;-0.0011413698;-0.6872052;0.19977012;-0.086826764;0.023532197;-0.02004457;-0.027637383;-0.1873845;0.09191955;0.030922921;-0.5184442;0.5785886;-0.084094696;0.19009376;0.08611078;-0.053249355;-0.40959874;0.1796284;0.006837175;-0.02606723;0.07446981;-0.10868216;-0.3450927;-0.055339187;-0.4015727;-0.112485334;-0.03910613;0.0694142;0.004446085;0.0484284;0.07767555;0.2625765;0.00037758803;-0.049229104;-0.05619075;-0.09686518;0.09718634;0.27143008;0.2316427;-0.058365777;-0.97675234;-0.3255662;-0.084228165;-0.1015725;-0.71627456;0.46141127;0.0820062;0.04725448;0.088908195;-0.03653254;0.6218197;-0.012921059;-0.07979397;-0.10278296
-0.038675677;-0.37063906;0.020634126;-0.21584511;0.045588557;0.033258203;-0.3466987;0.12172709;0.42810094;0.07932474;-0.0023085799;-0.3505047;-0.063116685;0.01027078;-0.0476681;-0.2944217;-0.14758824;-0.022061331;0.06595593;0.0012007027;-0.014433585;0.32639456;-0.26534435;0.11830971;-0.016059885;0.07950754;-0.029692657;0.06459778;-0.6000142;-0.28097928;0.083533734;-0.21745536;0.01852862;-0.3161367;-0.07717559;0.1105803;-0.041385587;0.413943;0.022577953;0.07384802;0.0048995195;-0.13383007;-0.16320755;-0.07798807;0.194813;0.035969824;-0.00070678897;-0.5664915;-0.19853759;-0.7720211;0.053975083;-0.18442267;-0.002833261;-0.19949038;-0.368525;-0.045656305;-0.07852303;-0.13377774;-0.05159763;-0.014144327;-0.5002745;0.083096616;0.14285867;-0.065187246;0.00904206;-0.22760704;-0.08033144;0.36639234;-0.067916915;-0.03661013;-0.21901913;0.34230006;0.101609856;0.06938793;-0.065280996;-0.10534064;-0.009489809;0.044190068;-0.038176533;-0.03632224;0.050679725;0.00817282;0.66627574;-0.42653483;-0.051616076;-0.21756008;-0.069912106;0.003914598;0.13906561;-0.030750563;0.014277926;0.048529685;-0.027032256;-0.30537468;0.03032377;0.09475494;-0.048019942;-0.09183183;-0.009360256;0.054734062;0.096504375;0.31108683;0.2948951;-0.10124276;0.0661943;-0.2221568;-0.09787741;-0.02551995;-0.026794687;-0.13995337;0.5002677;-0.026910454;-0.34285417;-1.5252622;-0.10373465;0.04947129;-0.25461665;-0.050479144;0.009922926;-0.2544852;0.110793345;0.044383556;-0.056994654;-0.04010094;0.13252208;0.0007634889;-0.06531323;-0.03616939;-0.07920803;-0.03766507;0.095435634;0.077756725;0.18794532;-0.23509625;-0.16016218;-0.116981514;0.009714736;0.170147;-0.053880014;0.074081674;-0.43065965;-0.00988019;0.15594146;-0.03509788;-0.02924651;-0.46920803;0.03692181;0.053822987;0.040329903;0.00825671;-0.032335564;0.023663135;0.0058655594;0.029154735;0.22892752;0.6388224;-0.11706858;0.046309996;0.29822218;0.029792698;0.06736312;-0.19011374;-0.054162048;0.0058599054;0.012321396;-0.02973144;0.06268946;-0.048356183;-0.38253942;-0.050438695;-0.105395064;0.14339831;-0.045866046;-0.032782502;-0.01393656;-0.014152943;0.07454143;-0.029229641;-0.012798197;-0.05049702;-0.09474507;-0.10291722;-0.023988092;-0.043682367;-0.390396;0.055707514;-0.041419107;-0.75186414;-0.9419447;-0.009225955;-0.48900533;0.03644896;-0.1543859;-0.11579146;0.040386323;0.039009158;0.03163625;-0.53026104;-0.057873122;0.14120458;0.08538527;0.8268166;0.009312756;0.37535688;-0.0050867414;-0.09404055;-0.034040373;-0.21927698;-0.043617286;-0.30914095;0.25552547;-0.03356247;0.13851307;0.11280111;-0.09305909;-0.016870458;0.050277013;0.09676044;-0.12993649;-0.24864118;0.0415095;0.097088985;0.18704255;-0.2502302;-0.009245969;-0.13964818;-0.29747438;-0.47434938;-0.56065005;-0.43429482;0.10696614;-0.36979598;0.13683179;-0.318281;0.058005124;-0.049637523;-0.014452308;-0.06916978;-0.017290048;0.01811319;-0.10206776;0.66637546;-0.11124397;0.43145034;0.20247975;0.074628025;-0.10669384;-0.08415384;0.65607035;-0.024497187;-0.09859349;-0.061518453;-0.2732334;-0.28465077;-0.33671945;0.0086387005;-0.41926652;-0.02240843;0.06273679;0.00018684928;0.008778458;0.10319703;-0.22727136;0.006770826;-0.089250654;0.13535573;-0.04385096;0.071335845;-0.073928386;0.0056431554;-0.89798796;-0.41589555;0.05972705;0.015960386;0.16187367;0.027887942;-0.27581844;-0.27785018;-0.13496652;-0.056988414;0.24877146;0.09152532;0.017993582;-0.040446647;0.057204884;-0.36739346;-0.05216233;-0.03293389;-0.008338249;-0.05787641;-0.5609203;0.057429183;-0.068880424;0.008443272;0.048331346;-0.4016311;0.5365501;-0.18189035;-0.0049031284;0.16534795;-0.44967878;-0.08739115;-0.07025314;-0.19016986;-0.37982452;-0.076586045;-0.020723851;0.07386893;-0.030850591;0.0756116;-0.14673851;-0.8716697;-0.0892771;-0.38183254;-0.055888873;-0.0061072656;-0.61224777;-0.48875865;0.022481205;-0.010764281;-0.061472535;0.0021407488;0.01464552;-0.04898178;0.049853586;0.088117205;0.012235952;0.04881276;0.045121726;-0.33842033;-0.2287292;0.19966719;0.04795692;-0.4135338;-0.7650311;0.00063258526;-0.01028167;-0.18572678;0.1791423;-0.1013316;0.09796161;-0.4094166;0.17349425;-1.3873448;-0.007008329;-0.026335664;0.011000444;0.076500155;-0.05720855;0.04142743;-0.374178;-0.1263151;-0.3017873;0.026456581;-0.42249307;0.04626223;-0.44660643;-0.06509329;0.047077138;-0.06857043;0.4749154;-0.42686582;-0.006379318;-0.38960215;0.0043258797;-0.09721919;-0.084314115;-0.03202716;0.012210448;-0.072857924;-0.01890184;-0.010221391;-0.11661064;-0.040793285;0.009936944;0.8059804;0.28088698;-0.4822764;-0.018463293;0.029567875;-0.09023322;-0.04549232;-0.53800154;-0.05097155;-0.06761601;0.28299472;-0.054418754;-0.12588064;0.08636402;-0.009533306;-0.15379214;-0.020204797;-0.027606139;-0.06301816;-0.2596502;0.0070584966;0.054746293;0.039361857;-0.2106023;-0.042513896;0.13389659;-0.07384577;-0.23385696;0.29687178;0.07079826;0.23819439;-0.33218083;-0.07755337;-0.08618204;0.02162166;-0.7322411;-0.033893302;0.047539536;-0.035268433;0.36337754;-0.20722649;0.030347314;-0.8721074;-0.015319535;0.37523136;-0.10022542;-0.20428479;-0.05698735;-0.09171763;-0.07200437;0.08686487;-0.12862927;0.070294715;-0.005229227;-0.7519635;0.08615483;0.27297786;0.01507873;-0.12017403;-0.513935;-0.38912;0.015339404;-0.043431945;-0.05182295;-0.060190577;0.34189934;-0.32213038;-0.05843916;-0.22337309;-0.053320296;0.10977441;-0.110407926;-0.34231058;0.63463944;0.08964756;-0.027178006;0.039764944;0.038406003;0.545008;-0.85696185;-0.01956537;0.07422091;0.06909282;-0.66524416;-0.08829937;-0.0069389422;-0.067196816;0.057188135;-0.054250546;0.18828501;-0.071694575;-0.25442713;0.014039239;-0.0421234;-0.22959045;-0.066663034;-0.17499845;-0.046930954;-0.06375188;-0.012954237;-0.012530247;-0.019691478;-0.0052834083;0.013015413;0.019593466;-0.052612253;-0.030908506;0.16559204;0.18430135;-0.020845808;-0.6693716;0.026062885;-0.008834016;0.15345284;-0.14544338;0.16111259;-0.37893888;-0.035570998;-0.0893947;0.19467643;-0.1317488;-0.0045411196;-0.027309226;-0.09291974;-0.110319845;0.2734432;0.1424041;-0.10027761;-0.16212492;-0.014511088;0.08702707;-0.09354148;-0.25969103;-0.6427704;0.03379184;-0.19518213;-0.06539086;-0.0471979;0.030932542;-0.71837085;-0.124074146;-0.09608136;-0.047942072;-0.04164468;-0.1369322;-0.04024891;0.048502654;0.019253546;-0.78785753;0.11682915;-0.016608486;0.099467285;-0.08719596;0.07853399;-0.4152175;0.07781154;-0.03481954;-0.27139112;0.2218832;-0.20866792;0.17215556;0.06556266;0.008005226;-0.4674621;0.5669369;-0.028772742;-0.11484775;0.075507306;-0.12612696;-0.3524675;-0.0073532495;-0.37799788;-0.0644513;-0.11462912;-0.061366662;0.07796598;0.09720824;-0.09278477;-0.087706275;0.098566234;0.099131845;-0.0072538634;-0.13582085;0.23268212;0.36664486;0.15740798;-0.051417436;0.008020224;-0.46033147;-0.038470358;0.035430588;-0.63238865;0.23264611;0.025856508;0.052789673;0.34888622;-0.226199;0.40200573;0.027615217;-0.0267468;-0.06502241
-0.013433602;-0.17559202;0.018800408;-1.1692107;0.06720271;-0.15014653;-0.031746022;0.16237399;-0.4641513;0.05717104;-0.11105787;0.047965165;0.124756426;0.10701322;-0.037472855;-0.27958354;-0.07300799;-0.09641645;-0.030761812;0.109445736;-0.043324508;0.24705;-0.21258664;-0.119553335;0.09717786;-0.16656749;-0.11217044;0.12864725;-0.41865325;-0.09297585;0.112824984;-0.7073526;0.08865615;0.009532034;-0.12651116;-0.13740788;0.017548103;0.88768125;0.094190836;-0.03894623;-0.20377938;-0.8259672;0.3842108;0.1362401;0.22912118;-0.017600596;0.035266172;0.40901765;-0.3464296;-0.22838597;0.226102;0.019983279;-0.15403786;0.5016567;-0.3581877;-0.13496932;-0.110872254;-0.028313717;0.0010921073;0.024208456;-0.8772483;0.08293932;-0.34641334;-0.052519534;0.034400977;-0.05392652;-0.076562054;0.5537993;-0.08855161;-0.09290044;0.4559336;0.1911089;0.12117263;0.6167884;-0.19375652;-0.05447266;-0.16683306;0.03367263;0.16821212;-0.121008866;-0.18400846;-0.10703471;0.5050152;-0.33106878;0.07728778;-0.023384575;0.13099006;-0.0999648;-0.036413677;0.036837958;-0.1649371;-0.014916602;-0.039849896;-0.12466644;-0.03236137;0.071641006;-0.21185006;-0.06833159;-0.11295053;0.10625386;0.10401431;0.41799113;0.6637725;-0.083099164;-0.050932657;0.79763985;-0.21973996;0.071442716;-0.025160035;-0.09825715;0.69674766;0.12959585;-0.96194994;0.05686053;-0.14075921;0.09590931;0.08187225;0.015625108;0.081924304;-0.09721543;-0.2333667;0.16053146;-0.082767636;0.19972144;-0.17116936;0.16741289;0.04149514;-0.21135017;-0.08058792;-0.18043734;0.07934747;0.11559116;-0.1494248;-0.73560596;-0.027802652;0.136017;0.07976785;0.094973944;0.72348475;0.07099617;0.11775502;-0.21832798;0.011025587;0.005363201;0.07282872;-0.43914607;-0.32697195;0.10693811;0.008060961;-0.04297764;-0.013904263;0.07561129;-0.12656909;-0.30782914;0.12738673;1.0998536;-0.21480432;-0.3020479;0.49400496;-0.046666298;0.07687502;-0.16080068;0.08459667;-0.18674834;0.11045311;0.11403473;0.078142144;0.013901746;0.14714661;0.071932964;-0.14489001;0.06228038;-0.0541982;-0.151048;0.070389785;-0.013182337;-0.1375229;0.058743663;-0.16410653;-0.0013334731;-0.14242293;-0.08969935;0.10799163;-0.14237997;-0.0856529;-0.028814929;0.1074875;-1.8902395;-0.7044998;-0.2007697;-0.7093282;-0.079674646;0.07629936;-0.018535262;-0.025384363;0.16295014;0.28046107;0.035843108;0.011947216;-0.033831522;-0.2162165;-0.62669086;-0.0107832225;0.4844149;-0.026685987;0.0166717;-0.56373227;-0.06642578;-0.1645343;-0.23139994;-0.54391336;0.051139023;-0.1778203;-0.18614799;-0.110562034;-0.10457602;0.028112961;0.17786568;-0.16275896;-0.31373748;0.10303861;-0.13342385;-0.26252046;-0.3517998;-0.108517386;-0.21169221;-0.27044845;-0.30190158;-0.36856425;-0.13518012;-0.035652265;-0.8166375;0.43565995;-0.3889368;0.042544138;0.0874669;-0.18068507;-0.08484808;-0.0015339148;0.25124082;-0.13083775;0.49772197;-0.13245243;-0.2680598;-0.114627264;-0.13247669;-0.05721233;-0.40991694;-0.71033895;-0.15427324;-0.05272698;-0.11931858;0.23379357;-0.42119604;0.29125616;-0.23439528;0.050942793;-0.03906925;-0.016951999;-0.15944566;0.0025267326;0.10562671;-0.0028012139;0.00036925412;0.046003792;-0.09554183;-0.21186826;0.03486303;0.06819176;-0.079311885;-1.8519337;-0.28637564;0.07505249;-0.22489603;0.09733788;0.08550325;-0.5539861;-0.17002475;-0.22885591;0.047896802;-0.51029074;-0.34507304;0.07353446;-0.1877036;0.05000107;-0.30180654;0.018394759;0.08125345;0.13760188;-0.114595376;-1.2150584;0.07619055;0.046073526;-0.055832334;0.04873186;0.19131103;-0.013140395;-0.010157803;0.009023891;0.016174743;-0.11527741;0.13405946;-0.1357514;-0.00840844;-0.46000063;-0.13055907;-0.2997445;0.07432365;0.16892152;-0.0374894;-0.19110616;-0.35564265;-0.06712397;0.34084556;0.24794795;-0.10700576;-0.03508254;-0.10116781;0.04773323;-0.0957153;0.012069293;0.035993077;0.036264356;0.003527492;-0.12773632;0.07277236;-0.14821175;0.11791873;-0.025707284;0.10773101;-0.27668554;-0.08944958;-0.024578933;-0.39219093;0.32694262;0.027114525;0.07748089;-0.07020712;-0.6200286;0.08805784;-0.14721385;0.43897054;0.37456664;-1.6147907;-0.007170132;-0.016887346;0.13845167;0.1889141;-0.019966163;-0.08095709;-0.13288583;0.3317457;-0.35872707;0.036664322;-0.6226618;-0.13251185;-0.06744486;-0.057790436;0.12782522;0.19386332;0.46060508;-0.3252707;-0.0026688813;0.2813631;0.04597558;-0.10069615;-0.12200767;0.087521754;0.14000694;-0.037503984;0.11869121;0.15132646;-0.13920994;0.011870723;-0.06099769;0.270537;-0.7106855;-0.7185373;-0.08392651;0.013322995;-0.18937425;0.17157067;0.0050135073;0.059374858;-0.06731702;0.23070422;0.11173085;-0.16795719;0.008880844;0.090590656;0.29685482;-0.14112219;0.09747969;-0.05738951;-0.029222246;-0.23162791;-0.22796455;0.124882534;0.098084226;0.0051365197;0.37266412;-0.07390158;-0.16198102;0.17829496;-0.06793877;-0.041885022;-0.27780738;0.02466864;-0.11156181;0.09410976;-0.43095624;0.04928725;0.85197526;-0.18937075;-0.29448462;-0.7241671;-0.10167978;-0.9445406;0.1450723;-0.85551924;-0.23834541;-0.22943892;-0.08753786;-0.16108552;-0.05248436;-0.026478441;1.0052762;0.03586494;0.07575655;-0.5148538;0.08145731;0.07081294;0.6358133;-0.18928389;-0.5662585;-0.13700202;0.031171296;0.12544383;0.06477008;-0.07516922;0.6134612;-0.12545952;0.12245309;0.08834736;-0.31098565;0.049329996;-0.11885015;0.3711729;0.9794;0.13869229;0.101246625;0.040313903;0.06051454;0.32038966;-0.92798823;0.04612402;0.21383372;0.12553693;-0.30789408;-0.02794469;0.060301695;-0.024002539;-0.23264629;-0.08039887;-0.1162751;-0.084200144;-0.48623252;0.06399906;0.10420036;-0.11150078;0.13830595;-0.62615955;0.061737422;-0.024396185;-0.10261265;0.05142319;0.12219611;0.06421239;-0.20092756;-0.0727477;-0.092662625;0.07050217;0.20637056;-0.56223917;0.09244352;-0.39315832;0.015574578;-0.07993776;-0.18344516;-0.17240039;-0.030715473;-0.11434185;-0.14082198;-0.07527846;-0.07478725;-0.044122644;0.00075635675;0.1566419;-0.09152609;-0.23656385;-0.012135766;-0.2947907;-0.7252825;-0.07216287;0.13840373;0.115244016;0.05059598;-0.124122806;-0.29776737;0.120960765;0.03002009;-0.03462594;-0.03703377;0.0154158315;-1.6285429;-0.057892703;0.08561453;-0.008598253;0.10470349;-0.055376634;3.2414417e-05;-0.05048491;0.14067839;-0.4506426;-0.09477348;0.030905796;0.078110754;-0.18187748;0.025831206;-0.6174748;0.017032178;0.066474944;-0.31481725;-0.21031672;-0.073194094;-0.08398798;-0.11365286;0.026084332;-1.8340778;0.95087713;0.0054312884;-0.095781885;-0.12827;0.047272626;-0.083253324;-0.043334216;-0.09211501;-0.041222915;-0.0996816;0.12143829;-0.01810579;-0.04797705;0.24947649;0.25979447;0.023205662;0.16440251;-0.057487924;-0.06315518;0.06834502;0.14027582;-0.12749209;-0.16561997;0.5265235;-0.21690245;-0.116926126;-0.07234049;-0.20769079;0.19749983;-0.11288153;-0.029705742;0.6659448;-0.040723104;0.8442539;-0.013520999;0.070062034;0.054332934
-0.08204935;-0.3202413;-0.031504605;-0.1325245;0.21334429;-0.0060739806;-0.07100751;-0.05234859;-0.11835143;-0.0038461355;-0.0483469;-0.17027889;0.026444241;-0.073654205;-0.045801766;-0.16548824;-0.3057477;-0.107356384;-0.22918643;-0.066818036;0.04221955;-0.12435848;0.028677842;0.12364377;-0.082714885;0.87806064;0.030193448;0.0324652;0.86541235;-0.2218054;-0.057147473;0.2774032;0.06665204;-0.6119402;-0.19726299;-0.019452905;-0.5390644;-0.43534365;-0.01623072;-0.047962353;-0.0141474465;0.5550828;0.30566996;-0.011394885;0.27287793;0.005634925;-0.06580349;-0.3803379;-0.19622119;-0.62094635;0.08011862;-0.2809572;-0.023532547;0.17098042;-0.8160943;0.02508813;-0.06178906;0.030534217;0.07050781;-0.076749474;-0.15449664;-0.03625744;-1.3338692;0.072643235;-0.02554781;-0.13383038;-0.011229627;0.8182488;-0.12968771;0.022363584;0.4421558;-0.48863313;-0.008988275;0.7992979;-0.34155422;-0.06431989;-0.06359288;0.22647746;-0.5952076;-0.06817147;-0.036207814;-0.061329078;0.03125409;-0.76213;0.026467992;-0.2643209;0.10949941;0.038842406;0.05102857;0.03760055;-0.06186536;0.041234422;-0.057390388;-0.12665267;0.017623723;-0.06130513;-0.37154162;-0.028897937;0.047808055;-0.007982892;0.008621932;-0.02065983;0.2628379;0.11509369;0.016612453;-0.13634017;0.062430203;0.020235106;-0.025650458;0.059085943;0.08430573;-0.05437056;-0.74986905;-0.51119775;0.015613902;-0.049564168;-0.37747166;-0.09976739;-0.09399914;-0.18873331;-0.2428831;0.007647797;-0.031690076;-0.108295076;0.022578213;0.04686392;0.06277043;-0.033718683;-0.09066102;0.0006469503;0.009652575;-0.002665938;-0.033019505;-1.0620718;0.4770814;0.017680746;0.042970635;0.035474684;0.5219163;-0.13053203;1.039189;0.048934914;-0.032317806;-0.0081325825;-0.042707883;-0.5992092;0.37888432;0.03800396;-0.045998026;-0.015609359;-0.029795641;0.0593176;0.0611231;-0.90594596;0.49780473;0.06403724;-0.38460398;-0.07791002;0.12476491;-0.021696996;-0.08488412;0.31444925;0.0905463;0.07249048;-0.06592142;-0.017484916;-0.02042246;-0.060109023;-0.08371928;0.030400505;-0.00089862227;-0.9911155;-0.0061174235;0.015880553;-0.017353747;0.07602104;-0.07915769;0.10006253;-0.5850213;-0.050576493;-0.016404796;-0.101608075;-0.032975785;0.003239503;-0.23375633;0.013938745;-0.02858784;0.13863367;-2.1005583;-0.041497592;-0.50446635;-0.044024073;0.17384474;-0.056038924;-0.06765188;-0.041416954;-0.7562201;-0.2737306;0.0730574;0.050561063;-0.05807423;-0.5080787;-0.0039962684;0.09132534;0.061145887;-0.088902265;-0.966669;-0.2730763;-0.0113312565;-0.0808284;-0.2468465;0.0026752474;0.0014315977;-0.54138464;0.14598165;-7.723946e-05;0.042514153;0.012048032;0.017648693;0.048820324;-0.0122247385;0.119738996;-0.039330706;0.07343808;-0.010671802;0.0072237416;0.6387982;0.310672;1.1138409;0.6713504;0.008696432;0.43564385;0.15027909;0.53139627;-0.0004684712;0.007082064;0.00031504585;0.08793644;-0.065617055;0.072577156;0.036732707;-0.39318153;0.21519175;-0.29389617;0.07256634;0.07061809;0.07537792;-0.9311555;-0.58143836;0.03353577;0.039856162;0.019012883;-0.20910026;-0.13241635;-0.090161145;-0.058629956;-0.12975521;0.07078878;-0.09225505;-0.0759916;0.022804992;-0.054762132;0.20450534;0.021855017;-0.06909076;-0.0042701643;-0.09645466;-0.04010275;0.055446938;-0.06460876;0.7070588;-0.40636173;0.033268567;0.0652005;-0.044691745;0.021349462;0.48844326;0.7012131;0.2147004;-0.007459318;-0.45190996;-0.15782443;0.0170918;0.48629248;-0.0445166;0.24704818;0.036008123;0.04539176;0.016184228;0.04211446;0.119276516;0.06400787;0.035781667;0.06466404;0.03951945;-1.2332283;0.12808986;0.38845968;0.2398553;-0.076892644;-0.19288212;-0.04105897;5.2194904e-05;-0.107475296;-0.059128057;-0.054042768;0.044729505;-0.059402525;0.33618447;-0.003939204;-0.21092285;0.22958045;0.028054962;0.02474226;0.3160183;0.010810297;-0.6805449;-0.21277907;0.07269055;-0.7304313;0.043405216;0.07284871;0.0136477575;-0.06462793;-0.062012173;0.06118333;0.0021942724;0.21833168;0.05129734;-0.10543003;0.4127071;0.04204562;0.04776147;0.23899454;0.5335483;0.042289957;0.075169675;0.11421819;0.46571752;-0.010254185;-0.11933201;0.16979314;-0.22280684;-1.8033358;-0.06480625;0.054124653;-0.0002722185;0.068612844;0.029497383;0.02328111;0.40449032;-0.7045839;0.29767045;0.020577498;-1.939554;0.2599864;-0.24461;-0.068509094;-0.036583476;0.5609091;0.013866538;0.67555207;0.024861526;0.6874773;-0.054959785;0.058150064;-0.03433572;-0.06953083;0.044183455;-0.058873374;0.04721442;0.8351323;-0.05305171;0.076848015;0.03129696;1.3155527;-0.04109428;-1.3342546;-0.030008277;0.05253224;-0.060344175;0.0069735684;-0.0014375633;-0.15693691;0.010441396;0.27311996;0.05717653;-0.025310514;-0.040397037;-0.05428749;-0.71319395;0.056801964;-0.04395739;0.06842761;-0.103903756;0.4885657;-0.03718643;0.032728452;-0.72739816;-0.12004336;0.4419218;0.08307826;-0.31395555;-0.20019412;0.6495355;-0.33453718;-0.23426597;0.07219666;0.06533488;-0.09287068;-0.5901902;-0.02941643;0.9976616;-0.016342806;0.2026513;-0.16388135;-0.014083645;0.63376826;0.027376441;-1.0682603;0.08422048;0.14092426;-0.064543016;0.021943633;0.00017034041;-0.0938;0.44680482;0.075048275;-0.059954632;-0.55225694;-0.07453463;-0.19483899;-0.1469186;-0.041089926;-0.08982147;-0.14368331;0.070825376;-0.022106487;-0.091253035;-0.06763602;-0.22482635;-0.16110449;0.026788829;-0.16542594;0.24506623;0.52055156;0.37979633;-1.0469902;0.3905734;-0.027783886;-0.06517057;-0.0033918275;-0.08708711;-0.33459905;0.39418876;-0.025741817;0.41140848;0.06065824;-0.34519127;0.053811815;0.07282643;0.044079173;-0.5692452;-0.072538294;0.110059306;0.04598996;-0.038881503;0.014173441;-0.008555532;-0.08379392;0.073059775;0.5506602;-0.052298155;-0.0150042875;0.027319489;-0.08016886;-0.0509907;0.04960529;0.0078212395;0.0080020465;0.01422646;0.05515746;0.23332141;-0.29951707;0.040882442;0.46853286;-0.08426598;0.049894903;0.18951875;-0.0067637763;0.072107784;-0.17434329;0.008961465;-0.049346022;0.22111166;-0.536484;-0.00033954385;-0.0899271;0.013233933;-0.031408597;-0.6829998;-0.14792922;-1.0207933;-0.10812976;0.012382728;0.053823415;-0.056887146;-0.12701298;-0.33324602;-0.012370115;-0.103026874;0.006785242;-0.016735274;0.012243415;0.62874603;-0.026630593;-0.0016053788;0.053393546;0.056987323;0.053665597;-0.09182106;-0.018032903;-0.019153222;0.062051754;0.031993896;-0.011162508;-0.05037366;-0.073811844;-0.036632102;-0.042650905;0.06771934;-0.026605187;0.37902823;-0.10830204;-0.105224244;0.24365409;-0.01597799;-0.008050397;-0.77175903;0.3845492;-0.035583798;-0.043295328;0.13773413;0.03884545;-0.38925108;-0.04039598;-0.15496856;0.059062604;0.009597246;0.052867822;0.021055948;-0.04887994;0.026892755;-0.10250193;-0.110979915;0.79116046;-0.014527095;-0.07281696;0.096061744;0.32908282;-0.1809265;0.0725217;-1.065947;-0.26850358;0.06651585;-0.115011215;-0.43271166;0.5692067;-0.028725602;-0.053760223;0.47334436;-0.27002585;0.44870698;0.039513465;-0.013051632;-0.059916925
-0.09307627;-0.20743676;0.016271628;-0.3518198;0.20027365;0.08411582;0.053709216;-0.14330673;-0.5317112;-0.024063867;-0.017783787;-0.44205433;0.009986158;-0.10496187;0.09486577;0.47395653;-0.19425131;-0.044075806;0.09532306;-0.09496588;-0.02245349;-0.37840387;0.32904655;0.10400202;-0.11849415;-0.9054365;0.06087897;-0.041004617;-0.878044;-0.2983466;-0.06976502;-0.06456829;-0.013774209;-1.1537721;0.13645723;0.15434;-0.38197866;-1.0441529;0.015832143;-0.075329944;0.13349062;-0.5265484;-0.24569213;-0.11045782;-1.0935833;-0.029674456;0.0010591422;-0.43090323;-0.020005656;0.16399014;-0.23155655;-0.3408545;-0.0030299989;-0.92304236;-0.24446438;0.14736558;0.09013702;-0.021864336;0.015999997;-0.060311522;0.07930224;-0.0047587915;0.1169352;0.04981058;-0.0037712206;-0.10438425;-0.019785687;0.060577713;-0.2288873;0.056307606;-0.4645989;-1.5456036;-0.008204616;0.33367634;0.08766351;0.1186561;0.1380526;-0.10971613;-0.53100336;0.048504964;0.16217504;-0.0077011483;0.3388221;-1.2389247;0.005823281;-0.19884475;0.164429;-0.02857742;0.19724917;-0.058326777;0.15165439;0.0024919293;-0.04543393;0.0020415878;0.10342193;-0.12636824;-0.90494674;0.11146552;0.14604673;-0.09718725;0.004254236;0.12467824;-0.010108132;-0.04322416;0.080522306;-0.73157597;0.09105619;-0.014792536;-0.039308786;0.11764095;-1.1291586;-0.016812062;-0.058888495;0.0020725583;0.09634097;-0.10050481;-0.28624344;-0.033923164;-0.1869236;0.13839488;-0.8578226;0.02606976;-0.059063952;-0.05514677;0.15564974;-0.11965817;-0.013151405;0.06762622;-0.1580586;0.06617428;-0.028371986;-0.16127115;-0.20853642;0.4729218;-0.3637165;-0.06314754;-0.02717834;-0.27669635;-0.42432633;-0.16036044;0.5534882;0.05906666;-0.035402775;0.028923158;-0.0967519;-0.07058839;0.28446248;0.008035269;-0.09626064;0.05231031;-0.11080623;0.0068102987;0.01882519;1.1728712;0.49217826;-0.3711922;-0.5532203;-0.02052775;-0.5518544;0.006869686;-0.06173875;0.28776667;0.2561443;0.13514027;-0.10606288;-0.00790797;-0.21151026;-0.020687655;0.003946112;-0.044303607;0.05838612;1.1242542;0.10660259;-0.011189467;-0.023179192;0.06381154;0.08411713;-0.03743109;0.24774724;-0.01811899;0.15386008;-0.16293572;-0.1550982;0.034575496;-0.32143193;0.11576416;-0.0471029;-0.34252173;-0.7026099;0.106044985;0.11742375;0.010836044;0.04103181;-0.12611121;-0.024420979;-0.023740415;-0.41110408;0.5028313;0.58605605;-0.08379271;0.1983561;-0.8646023;-0.026874099;-0.41735113;-0.032622837;-0.07594394;-0.8614487;-0.16893466;0.104918785;0.35197246;-0.34092098;-0.048928194;0.11546998;-0.45020676;0.029896196;-0.07001995;0.038638547;-0.018711843;0.1389828;-0.32245693;-0.123114735;0.289443;-0.027008256;0.49154177;0.02892303;0.024363324;0.5592445;0.04126612;1.0795107;1.2287441;-0.27441302;-2.1248326;-0.45668948;-0.18561865;-0.100629844;0.0050602634;0.16438368;0.019199887;0.012361569;-0.10937399;-0.005695945;0.27006134;0.24885528;-0.32163662;0.22444582;0.26133773;0.100434095;1.0694647;0.22813949;0.06800463;-0.024095211;0.41426405;-0.171756;-0.14776964;-0.9740188;-0.01078667;-0.66961473;0.045167726;-0.036177445;0.10457385;0.070115045;0.015170914;-0.018544657;0.009887496;0.05048374;0.1721804;0.038290758;0.03487998;0.02138154;0.08175034;0.31524557;-1.1544873;-0.07617607;0.04689498;-0.24384458;-0.11897915;0.5090331;-0.014518993;-0.025984073;0.0396076;-0.6408602;-0.21043341;-0.10507259;-0.1284403;0.059215713;0.49453375;-0.053367853;-0.10890021;-0.12203891;0.07775651;-1.1368433;-0.0480758;0.0054207216;0.06319827;0.013096199;-0.21251144;-0.22507772;0.116549544;0.38274485;0.042384755;-0.38024446;-0.0047365907;0.0519914;0.24503478;0.106272705;0.14546153;0.64688;-0.061206955;0.46591988;0.053166956;-0.070637025;0.71429497;0.0752351;-1.2326969;-0.6190376;-0.0134868575;-0.5703017;-0.21071503;0.008897255;-1.05178;0.04024811;-0.06483669;0.08502801;0.099009596;0.12024489;-0.011783261;0.05456088;0.6600766;-0.010400634;-0.02210182;-1.6400852;0.35956693;0.023819046;0.41986704;-1.3059688;-0.014503856;0.030409733;0.36538926;0.38717797;-0.18325707;-0.055703193;0.14640595;-0.11089094;-1.3903847;-0.020295454;-0.09030919;-0.050999478;-0.05606407;0.06440389;0.09153499;0.48159412;0.28299746;0.40727347;-0.07160065;0.9553073;0.3409941;-0.28912303;0.029984662;0.016777214;-0.26759154;0.37677535;-0.90147406;-0.03105322;-0.871884;-0.06787041;-0.00023730482;0.010668817;0.056424517;-0.089654945;-0.025966981;-0.09190234;0.9928771;0.108923785;0.07779218;-0.12806416;-1.2372098;-0.82909155;-0.7788954;-0.00332511;-0.048085894;0.069294095;-0.17101999;-0.40569186;-0.11911196;0.052774;-0.61437786;-0.019729158;0.022331024;-0.01764557;-0.0087998025;0.4502565;-0.00962723;-0.029643811;-0.036562197;-0.07530247;-0.5004764;0.16975126;-0.08344347;-0.13238852;-0.0020350055;-0.21211827;0.041303072;-0.3079992;-1.2790378;-0.356668;0.31761765;-0.17899562;-0.6284161;0.010223023;-0.009870269;0.4639781;-0.07266554;-0.50223505;0.046326272;-0.828927;-0.009135632;0.108938314;0.6508876;-0.06725364;-0.08087884;0.47345015;0.17963374;-0.013810419;0.07139762;0.03832722;-0.11633778;-0.9226858;0.07003326;-0.038046677;-0.8780009;0.04411565;-0.26200613;-0.5268594;0.06101923;0.7296393;-0.3030009;-0.09924209;-0.10900555;0.018453697;-0.00057873;0.2402644;-0.20592412;-0.15578659;-0.34197432;0.10875804;-0.3839188;0.3708294;-1.1787759;-1.1657591;-0.09316015;-0.032836672;-0.085685916;-0.15652855;-0.024446186;1.0517899;-0.013437244;0.65976626;0.21027116;0.6514873;0.017346513;-0.055844318;0.030444533;-0.8985298;-0.032933164;0.23604837;0.056240767;-1.2141117;0.06377891;-0.08266763;-0.10783206;0.0074035944;-0.65193564;0.026286563;-0.0006807392;0.123655036;-0.07954671;0.042574916;-0.092290014;-0.00038221202;-0.040421367;-0.030684918;-0.077022634;0.65974104;-0.21281728;-0.02806309;0.8273377;-0.035355624;0.07121352;0.2839642;-0.01820866;0.2741229;-0.17898478;0.1526437;0.030064479;0.26342264;-0.6898974;-0.092248574;-0.09103262;-0.08769606;0.2753401;-1.1636897;-0.1726442;-0.7095788;-0.1259989;-0.03554114;-0.020782286;-0.0037352662;-0.03290028;-0.6538024;-0.014697438;-0.120515965;0.019330358;0.0030186123;0.03760705;-2.0941718;-0.165478;-0.001143679;-0.06389035;-0.01203534;-0.68580127;-0.081314616;0.10695052;0.009501366;0.3030018;-0.0055153347;-0.056109678;-0.08153719;0.020226466;-0.053733796;-0.1141474;-0.040310107;-0.062918276;0.07390827;-0.25794291;-0.04550781;0.39940047;0.23753415;-0.06386874;0.016877204;0.793928;-0.0635521;0.04482907;0.24484545;0.028644824;-0.6494251;0.014517167;-0.35932946;0.003384678;0.088324964;-0.07202459;0.022400036;0.063245066;-0.29520616;-0.08739505;0.022382462;0.98804706;-0.041247297;0.093929924;0.51085216;0.08146324;-0.15678906;0.11273067;-0.79034007;-0.17538612;0.102308355;0.13022386;-0.28004822;-0.47055647;0.10397134;0.038952265;-0.6696202;-0.5984684;-1.1701214;-0.08524689;-0.039670926;0.08464029
-0.072298706;-0.15377988;0.052622583;-0.15887347;-0.32122305;-0.09874311;-0.5070777;-0.003998219;-0.008069714;-0.006389308;-0.026987705;0.09159267;0.042259943;0.06002427;-0.07971049;-0.27874282;0.21788979;-0.14528939;-0.11259078;0.13339518;-0.03614456;-0.22439994;-0.48899436;-0.16903846;0.059693303;0.5935818;-0.11191279;-0.04539536;-0.8934523;-0.02856284;-0.074079245;0.46460074;-0.045087714;-0.9193342;-0.14466012;-0.16695778;0.103097476;-0.8321914;-0.056377534;-0.047636826;-0.16874899;-0.21042378;0.22806367;0.1007143;0.19319816;0.040863823;0.0689267;0.5881319;0.25021687;-1.316666;0.36329713;-0.09477707;0.035297308;0.4223925;-0.7079477;-0.025125913;-0.07939049;-0.049992457;0.06497004;-0.038923938;-0.036910627;0.01937206;-0.6569032;-0.069834046;-0.061949767;-0.045998253;-0.06060956;0.4624507;-0.14719383;-0.13101847;0.15700121;-0.32829016;-0.038222335;0.027747188;0.0047018714;0.0033526393;-0.09519901;-0.027444324;0.12147475;-0.10821522;-0.05139512;0.03031838;-0.22339377;-0.38642597;-0.063416876;-0.04012557;-0.016916865;-0.07213331;-0.07219866;0.0108221;-0.1383544;-0.05412632;0.004412266;-0.6763885;-0.06540464;0.10912672;-0.58993727;-0.073053524;-0.069898404;0.0693044;0.019359572;0.27099255;0.15871397;-0.60886186;-0.020153133;0.5998093;-0.12508255;0.0019193069;0.04432051;-0.029084615;-1.3235662;0.012871422;0.13642286;-0.6490406;0.059096348;0.093824424;-0.0647574;-0.004061291;0.06979768;-1.108281;-0.069504894;-0.06244257;0.052952114;0.04875309;-0.17586586;0.07456713;-0.029419463;-0.08865506;-0.15500055;-0.10544762;0.011865061;0.14321849;0.219782;-0.19037442;0.3832156;0.06629186;0.039570536;-0.27930692;-0.12635686;0.27564886;-0.44060647;-0.08039239;-0.07452901;0.011568693;-0.012679892;-0.36208248;0.2487849;-0.03871361;0.076941684;-0.07389734;0.0021621052;0.06776272;0.026608823;0.2385838;0.04071444;1.1472104;0.6843553;-0.37154746;-0.4191492;0.061735477;0.052879717;-0.6055454;-0.7942887;0.03113135;0.0139635755;-0.010982455;-0.07892551;0.060875632;-0.35660902;-0.035906196;-0.049766116;-0.78746265;-0.03152137;-0.012588466;0.061467163;-0.03445393;-0.024051346;-0.07346887;-0.18383446;0.03157;-0.061876915;-0.055186704;0.069836125;-0.04897751;-0.19954576;-0.0015372823;0.05712049;-0.803431;0.51325035;-0.032462735;-0.95175356;0.04116495;0.2625738;-0.08439917;0.08484521;-0.0012115877;1.2363752;0.21829689;-0.83213377;0.24083343;-0.023062255;0.031901557;-0.032913715;-0.663543;0.014567001;0.21445279;1.566866;-0.09382082;-0.14611274;-0.22564352;-0.91651994;-0.042320166;-0.06592854;-0.037635762;-0.08950354;-0.04132332;-0.011529295;0.018934665;0.010963458;-0.09575674;-0.055723403;-0.11788598;-0.052303515;-0.6308025;-0.12633312;-0.03526397;-0.15612198;-0.7522388;-1.1289141;-0.1463465;-0.10290221;-0.15675846;0.0859711;-0.8347868;-0.008966469;0.2603623;-0.13986345;0.08120087;-0.009541277;0.048592813;0.0043018167;0.062490188;-0.1947431;-0.07244237;-0.1389009;-0.101829916;0.045120336;-0.425704;-0.6275065;-0.15364951;0.04843;-0.038186878;0.00072756474;0.002496281;0.78977513;-0.041696094;1.1215761;0.024391692;-0.058589168;-0.16652812;-0.076984376;0.038991056;0.00549831;-0.00986357;0.049876876;-0.13532457;-0.12236408;0.0045621023;-0.001746597;-0.014608115;0.05921933;0.09758799;-0.045862958;-0.073623195;0.0037463247;-0.021524306;-0.28742835;-0.08333179;0.25381234;0.038643874;-0.19006084;-0.0079447245;0.06982006;0.80193573;-0.021018608;0.07783747;0.024869123;0.031962663;-0.07001418;0.030088214;0.77163154;-0.009550666;-0.01075941;0.003447071;-0.4541866;-1.108329;1.164732;-0.24895185;-0.23767698;-0.15092838;-0.0735901;0.0058253766;-0.073099725;-0.19616918;-0.15587269;-0.064517364;-0.28782448;-0.015938649;-0.4257304;-0.013982803;-0.24950561;-0.27158982;-0.0287782;0.34013438;-0.2557383;-0.079478644;1.0463457;-0.5840901;-0.026190124;-0.50165474;-0.029157776;0.02742827;-0.039966863;0.058879234;-0.16993757;0.11399639;0.04208678;-0.45330256;0.033021394;-0.3690351;0.563526;-0.23646624;-0.047898747;-0.120867305;0.21576509;-0.05863556;-0.017602956;-0.20227328;-0.5594542;-0.10315259;-0.35783207;0.14019923;0.2295996;-1.1232138;-0.038623538;-0.029034713;0.11813206;0.02529559;0.042328626;-0.09620535;0.14633462;-0.181744;-0.046230856;-0.029876612;0.16948728;-0.21470252;-0.010582516;-0.1323071;-0.034824762;-0.14367177;-0.086938865;0.38918644;0.038628664;1.0283685;-0.06625838;0.019471513;-0.007793227;-0.025691932;-0.0044037523;0.041956842;-0.035273407;-2.0599532;0.02664157;0.0067641228;-0.09169267;0.29195982;0.66579133;-0.35060015;-0.03374391;-0.018627545;0.13652574;-0.017328395;-0.52830935;-0.0791156;0.02075075;-0.22467521;0.038546715;0.026273243;-0.019145317;0.04575555;0.6270007;0.03774319;0.0004606661;0.07553222;-0.01633968;0.3287241;-0.16045721;0.07417038;0.15741159;-0.079848155;-0.1371258;-0.08835815;-0.18692335;0.4307032;-0.017016325;0.14719282;-0.26759183;-0.73302543;-0.011040469;0.021737525;-1.1813824;0.10253476;1.2931288;0.08422754;-0.25954023;0.28551742;0.21014258;0.06552556;-0.05197076;0.6048368;-0.33747068;-0.32992768;0.06794835;-0.020609308;-0.0691481;-0.1309297;0.75982344;0.002205389;-0.081708804;0.45279256;0.37579268;-0.15548827;0.69486326;-0.16202594;-0.4543992;-0.07191443;0.0282498;-0.062385976;-0.07129175;-0.08037111;0.76203525;0.02945991;0.14019263;0.10735524;-0.29674676;0.06530634;-0.3780191;-1.1476028;0.0704356;0.047062106;0.040210925;0.035700977;-0.018770924;0.19980584;-0.30064282;0.19430351;-0.4086793;0.025909845;-0.46734262;0.0024956164;-0.0010719423;0.07806151;-0.45411056;0.08809553;-0.12228143;-0.0107668955;0.21909945;-0.008407939;0.1420402;-0.040487323;-0.016760403;-0.48896968;-0.035118047;0.021618951;-0.059089612;0.060453802;0.024158252;0.03530526;-0.5176328;-0.059942804;0.004629923;0.08613808;1.7517854;-0.89453727;0.03265138;-0.7387234;0.06003854;-0.032580543;-0.1860391;0.0026006815;-0.047352888;-0.07622818;-0.14705628;-0.19142926;-0.038885254;1.5782566;0.0027650935;0.021391235;-0.022881484;0.5408552;-0.54353476;0.5683313;-0.2930733;-0.06515809;0.094154686;0.0042614136;-0.050730955;0.020549428;0.17049624;0.018114693;-0.013546082;-0.012787671;-0.034015957;0.011953886;0.14121442;-0.06785672;-0.13057944;-0.116739355;-0.18965228;-0.06266223;0.030822026;-0.044056874;0.009951594;-0.42474926;0.13620521;0.077471636;-0.038059745;-0.07430576;0.022006197;-0.31238317;0.048722688;0.071153656;-0.31874838;0.01979378;0.037277788;-0.07207169;-0.1435769;-0.05843063;0.8923465;0.28109866;-0.08471226;-0.07988018;-0.05278999;-0.025391176;0.25844544;-0.06659056;-0.010384959;0.050319985;-0.0016254163;-0.049903333;-0.06810498;-0.056559063;0.07786393;0.46481407;0.031391423;0.6910376;0.040706377;-0.024567822;-0.49853295;0.036981102;-0.17013915;-0.05351807;2.0776198;-0.11086118;-0.009705616;-0.05264996;0.3596961;-0.043446746;-0.06163225;-0.051380813;0.039826203;0.83371824;-0.7591009;0.003196646;-0.0020757979;0.07950753
0.03605034;-0.34334844;-0.008429654;-0.16026781;0.22933002;0.045642804;-0.21703728;-0.09226025;0.039289813;0.032990515;0.039358873;-0.47746927;-0.011363577;0.037700072;0.04551193;0.42840993;-0.62313926;-0.25715467;-0.13036339;-0.01660418;-0.05584558;-0.018680999;0.16447759;0.15258665;0.0002072709;0.01917963;0.14265269;0.052793846;0.5986763;-0.3145683;0.031066146;-0.3611134;-0.015218159;-1.0661789;-0.02171007;0.040751103;0.7373782;0.62162995;-0.059178453;0.070616186;-0.012816539;0.22464015;-0.37742892;0.06680046;-0.08537546;0.053766023;-0.053565398;-0.43274888;0.1004533;2.6693068;-0.2779167;-0.3378444;-0.052820507;-0.08726784;0.8816026;-0.054090638;-0.050623808;-0.050340474;-0.082376175;0.04549706;0.67197824;0.03449459;-0.29588094;0.015173401;-0.02463712;-0.058196325;-0.07240929;0.23033081;-0.022233982;-0.022792842;-0.5889121;-1.4089006;0.08847726;0.44160742;-0.29834738;0.043996084;-0.054375153;-0.34917492;-0.2698124;0.0116813155;0.0043044547;-0.001477957;-0.6263943;-1.2706418;0.054397978;-0.1300647;-0.21615697;0.06898499;0.21008356;0.0634812;0.10903622;-0.034283996;-0.009298336;0.3026068;0.015305737;0.0018283337;-1.1167263;-0.13794987;-0.03836925;-0.036425214;-0.036661904;-0.84942317;0.09458469;0.22975379;0.065453745;-0.84519726;-0.13080801;0.07222186;-0.042864192;-0.070344746;-0.15436625;-0.0028464198;0.7772281;1.2116389;0.06715761;-0.0061806547;-0.53939205;-0.075644545;0.010727065;-0.00048107834;-0.7789312;0.06348082;0.026978912;0.06375387;0.2138557;-0.048663493;-0.021677196;-0.12468885;-0.20534165;-0.034221455;0.052821994;-0.02485644;0.21784997;0.15190575;-0.033380885;-0.048515093;-0.0052727824;-0.37903255;-0.41774756;0.060677733;-0.008111981;-0.046210572;-0.17698379;-0.03579626;0.027312301;0.38276634;-0.60355073;-0.04001934;-0.056283418;-0.079763204;0.06289538;0.0011696162;0.009952624;0.13565667;0.583861;-0.13146786;-1.0224193;-0.11363868;-0.56809974;0.011117023;0.010554185;0.29602233;0.12053006;-0.072953686;-0.07466965;-0.059555225;0.04687068;0.07380283;-0.27856246;0.003684897;0.012092974;-1.4963646;-0.00802779;-0.044343334;0.0051288498;-0.023148024;0.017706135;-0.040454235;-0.31537715;-0.049833346;0.07152269;-0.14164463;-0.0042514508;0.041119087;-0.31532183;0.003222587;-0.011609154;1.2061409;-0.6606441;-0.07797027;1.3071449;-0.049862124;-0.17270315;-0.105883546;-0.009975886;0.03397164;-0.7051437;0.2575365;0.34592175;-0.22873802;0.018111441;-1.2037828;-0.05944862;-0.43577397;0.010861477;-0.08916667;-0.8793668;-0.25808722;-0.1250934;-0.004192542;-0.0121457195;0.052671988;0.04495774;-0.014494418;0.09502411;-0.055951733;-0.011706093;0.035305496;0.054046486;-0.090126045;-0.024254741;0.25124794;-0.046704482;0.43542522;0.041890513;0.04338407;-0.031940985;1.102447;0.5169943;0.96656483;0.0060918434;-0.2254312;-0.123258516;1.3290467;-0.07478105;-0.040131994;-0.06800057;-0.053216573;0.07447999;0.06633819;0.05599965;-1.0210634;0.34489143;-0.33741987;0.15886684;0.07931711;-0.043408737;0.2746823;-0.46946943;-0.00018277139;-0.0041228016;0.46162605;0.1768377;0.392581;-0.40692875;0.0051465807;-1.3017473;0.026623206;0.03436424;-0.09492089;-0.068501815;0.0042830687;0.18979062;0.07589113;0.039542466;0.03370975;-9.534656e-05;-0.06208402;-0.0077639166;-0.055816013;1.2590165;0.3981097;-0.058485713;0.0072954264;-0.19232677;0.06841648;1.2454854;0.27764753;0.46396977;0.054300115;-0.117459774;-0.20000419;0.0025312845;-0.05955929;0.018259738;0.053988583;-0.018310742;-0.014976097;0.04792049;0.018735273;-0.5858271;-0.002182308;0.05403794;-0.04146614;0.40390098;0.4292193;-1.4927198;-0.61194885;0.16862561;-0.6795556;-0.3145549;0.07691824;-0.08314026;-0.28733692;0.5566677;-0.07071001;0.8183323;0.04762804;-0.44396758;-0.012496895;-0.3045018;0.261891;-0.037740026;-0.2608794;-0.18930842;-0.0048749237;-1.1987138;-1.4446775;-0.067247674;0.3312832;0.045040414;0.05781519;-0.01030248;0.06599916;-0.02133623;0.10705537;-0.04864326;-0.12554008;-0.024484884;-0.12336816;-0.63359547;0.43439427;-0.05586834;0.39161983;0.17669557;0.07947212;0.03877728;-0.45841375;1.2572463;-0.05337852;0.20457916;0.90467656;-0.31546932;-1.3916968;-0.11764408;-0.012780131;-0.031223552;0.020071395;0.06616115;0.04685449;0.4835352;0.26945347;0.26957023;-0.020334745;1.3326817;0.2043097;-0.26531315;-0.11733613;0.01960499;0.15898958;-0.028354974;-0.57232577;-0.018525114;-0.37046164;0.065333724;0.05612888;-0.04992579;-0.029324029;-0.03656637;-0.076012224;-0.03490514;1.7630678;0.002971163;-0.07555524;-0.04714347;-0.6576144;-1.1873312;0.41695747;-0.019527912;0.044975657;-0.16504076;0.096525386;-0.11757156;-0.16046359;0.03196881;-0.22172858;-0.01748756;-0.029052444;-0.07249435;-0.03015566;-0.09018771;0.0071099848;-0.0696138;0.025769865;-0.16243014;1.2362576;0.017446013;-0.017085945;-0.53566754;-0.037170094;0.033118993;0.07284115;-0.37939313;0.29787555;-0.036203805;0.17824304;0.080410264;0.23578659;-0.04824144;0.06660891;0.41258648;0.09878652;-0.35435158;0.0032699336;-0.61763054;0.8729419;0.023852702;-0.06380937;-0.07993674;0.61592066;0.27135783;0.18274334;-0.0719827;0.047852248;-0.03966428;0.061085574;-0.54194325;0.0067134784;-0.07730944;0.30433643;-0.27067357;-0.28749648;-0.23903698;-0.078151725;0.10894582;-0.24286258;0.016259305;0.068401724;-0.015516817;0.040168095;0.5063353;-0.092967324;0.07768957;-0.36103252;0.36951497;0.9699643;0.68273175;0.052408475;-0.058396727;-0.07407557;-0.033286277;-0.004741494;-0.014231355;0.27676427;0.72526926;0.020313459;0.64843184;0.18322662;0.42638958;-0.06592465;0.022566704;0.0039326847;-1.0091821;-0.07062672;0.25545132;-0.087769635;-0.28193918;-0.06616216;-0.029874982;-0.106776394;0.03329252;-0.54245377;-0.0005858013;-0.04634287;-0.01654404;0.043407034;0.051299963;0.012214847;-0.19378656;-0.03015273;0.013622053;-0.023449445;0.7218719;0.013577636;0.051454853;-0.12717438;0.073369876;0.0005347426;0.22907665;-0.02442668;0.1326507;-0.18337032;-0.025472866;-0.024893006;0.2742199;-1.28609;-0.072798625;0.015708324;-0.010788085;0.048734277;-0.6272602;0.26498234;-0.35271195;-0.15724882;-0.042944;0.037965674;0.033071272;-0.1254369;-0.7850974;-0.030290607;-0.07966927;-0.039394587;0.06678749;-0.02391435;-0.1655299;-0.04916422;0.06244033;0.066988625;0.06275027;-0.8404586;-0.056320973;0.047631726;-0.064141706;0.084688835;-0.10873419;0.0062059867;0.077112585;-0.010918498;-0.083343685;0.38168153;0.079206534;0.013959892;0.09285176;-0.9380032;-0.04302755;0.1888565;0.03230793;-0.034284852;0.1667298;0.25338647;0.0025992747;-0.045145497;0.14418419;-0.02353081;-0.12434416;-0.02645924;-0.03877485;-0.0829841;-0.01657606;0.060814023;0.009388111;-0.03147693;0.019258348;-0.36376435;-0.035103492;-0.3438061;0.07599221;-0.018323151;0.23962818;0.29176822;-0.2551997;0.006280418;-0.9438741;-0.21505445;-0.051204834;-0.07912952;-0.3095776;-0.35835335;-0.032296605;-0.084405;-0.22244313;-0.64183456;0.45186907;0.001918412;0.035450857;-0.029327283
-0.0008998509;-0.20743173;-0.06329159;-1.8983067;-0.18577345;0.24465428;0.23627447;0.026225124;-0.37353656;-0.1166038;0.015162327;-0.3694849;0.015067022;0.05186574;0.030732477;0.3060776;0.7227878;-0.3123738;0.09678218;-0.1406827;-0.042388074;-0.1662351;0.21222703;0.27453983;-0.19962202;0.21827999;0.2045685;-0.004978052;-0.23836893;-0.14084056;-0.073265456;-0.78130084;-0.06448115;-0.5964639;0.19708197;0.2872282;-0.1477695;-0.2599766;-0.08563971;0.049357228;0.21352881;-1.5604824;-0.8504332;-0.07904976;0.33764887;0.072945505;-0.026968773;-0.7173747;0.016736789;1.192522;-0.10575935;-0.72631806;-0.033456303;-1.5790162;0.030034611;0.22098938;-0.021777898;-0.027541135;0.040265094;0.09187411;0.40066153;-0.022234725;0.5485386;-0.012292399;-0.024489395;-0.07202248;-0.016872881;1.2760684;0.050968498;0.18573925;-0.0415343;0.57997817;0.0135157285;0.85556656;-0.85743624;0.004154346;0.20682912;-0.2953986;2.4300058;0.16239321;0.21115944;0.021556383;1.4507414;-1.6393247;0.070391625;-0.141882;0.24031933;0.03495209;0.34655106;-0.048751913;0.21258971;0.0814563;0.027132796;-0.29077396;0.06867693;-0.06554935;-0.449437;0.23580474;0.18445455;-0.041709688;-0.07060687;0.78624433;1.0665199;-0.24680269;0.25087956;-1.2783989;0.23510529;0.0038758807;0.044386733;0.11479787;-1.4454848;-0.10202231;0.57157534;0.12581474;-0.0401067;0.0028319466;-0.20057242;0.00068570464;-0.0703533;-0.46395758;-0.6405721;-0.071136795;-0.006641679;-0.038953483;0.38804054;0.012540677;-0.004369191;0.23690282;-0.17772835;0.14718103;0.021802638;-0.11440546;-0.09350104;-0.25601476;-0.7675222;-0.090804495;-0.03515954;0.13569225;-1.048257;-0.76167876;-0.79083943;0.12597851;0.33752418;-0.07741142;-0.021022698;-0.7527755;0.104214996;-0.027023563;-0.07552527;-0.028190965;0.06938215;0.045648552;0.036069978;0.49062306;0.42328817;1.036984;-0.018101467;-0.29093322;-0.05780735;-0.06558938;-0.052791066;0.65100896;0.18782213;0.110731766;0.039435264;0.026071865;-0.09702931;0.1435906;-0.22787447;-0.032716803;-0.0021245077;0.5662203;0.020887014;0.0061480314;-0.0052912757;0.04955924;0.2161058;-0.22495066;-0.83761525;-0.022882722;-0.052360903;-0.01551577;-0.06987091;-0.050858047;-0.22208796;-0.011619886;-0.06802569;-0.16994394;1.2644991;0.045666263;0.8164582;0.004351517;-0.023542384;-0.032209057;-0.024014859;0.01595223;-0.23886706;0.28180102;-0.009676713;-0.2424342;0.17164068;1.1987392;-0.04990644;-0.3563291;-0.02816165;-0.009273016;-1.0994861;-0.09816027;0.14010823;-0.31444252;8.160183e-05;-0.047536384;0.23922883;-0.3650818;0.24825074;-0.019314153;-0.0444088;-0.017242322;0.03473622;0.017615741;-0.06249177;0.30327192;-0.05452898;0.5802219;0.17148197;0.15674044;-0.40482944;1.7302464;1.5967193;1.0133256;-0.12912494;1.0376796;-0.7531468;1.8318034;-0.09307752;-0.081543036;0.14306748;0.022095656;-0.0007557173;-0.08224322;-0.042181358;0.970739;0.10074331;-0.30442414;0.27840078;0.18868896;0.0822903;1.2702422;0.17692009;0.09150326;0.04666558;0.34020007;-0.63663805;0.38199896;0.15451325;0.12309008;-0.12765466;0.1049141;0.014700164;0.045503568;-0.047979556;0.007777526;0.06496819;-0.08778245;-0.043915708;0.32600698;-0.016853616;0.06972196;0.03481634;0.047416717;-0.16847362;-0.117648885;-0.094701916;0.18374889;0.6288017;0.036548804;-0.14920154;-1.2275072;0.044922035;0.0005226038;-0.6574123;-0.12648104;0.051889174;1.0787374;0.0553549;0.40141046;-0.07443219;0.0022190758;-0.09769689;0.030056264;-1.1458089;-0.092417255;0.038048346;0.09440794;0.3191088;-1.7314234;-0.42419738;-0.21958101;0.8132076;-0.25413895;-0.27410394;0.025699276;-0.045650385;-0.32200402;-0.08721594;0.09998381;0.97357035;0.018448384;1.7618121;-0.009486267;0.24849449;-0.12930553;0.02600966;-0.74637866;-0.5879987;-0.023571767;0.009400838;-0.101569794;0.055100217;0.055059567;-0.0066250325;-0.04017355;0.08013158;0.018134095;0.19787346;-0.1308872;0.042342067;0.60591084;-0.047016013;-0.45484838;-0.6078872;0.5379686;-0.10033845;0.32267943;-0.6597412;-0.01569864;-0.032780886;0.35010976;-0.18347181;-0.003261337;0.04329889;0.12765361;-0.15797387;-1.4515688;0.12384177;-0.070998915;-0.13582635;-0.102704465;0.040764425;0.007858142;0.2735596;1.5883425;-0.22281979;-0.05683918;-0.4108258;0.2670753;-0.23001677;0.06200016;-0.04008921;-0.6023042;0.07283717;-1.1234248;-0.12949143;-1.0674342;0.00096965436;-0.017195633;-0.02164512;-0.017888855;-0.15613602;0.07064034;-0.11634248;1.3486047;0.124183536;0.0747819;-0.087815896;-0.43991497;-0.8381699;-1.0125972;0.048262957;-0.044266548;0.029609004;-0.044273015;-0.66674066;-0.20893125;0.04383348;-0.16112377;-0.16061012;-0.00065299514;-0.022200774;-0.10763236;-0.12765007;0.04969496;-0.102613;0.05689994;-0.05083396;0.27808616;0.19183181;-0.020303829;0.0457461;-0.11571078;-0.14740734;0.10557119;-0.4194393;-0.78018814;-0.5251738;-0.6969596;-0.23392552;0.6657058;0.07409484;-0.01152173;-0.73852164;-0.06081959;0.63897943;0.055294886;0.065735996;-0.50003403;0.2715291;0.6922627;0.046934754;1.0412581;0.26907375;0.075478904;0.057921074;0.12112297;-0.007905378;-0.02797695;-1.6551487;-0.14765957;0.034098804;-0.6778851;0.067523845;0.32054228;-1.3111048;0.17682587;-0.18731679;-0.18233383;0.022704592;0.025448207;0.027712762;-0.047754575;-0.35958037;-0.20231226;-0.13784243;-0.19678284;-0.010890547;-0.52207214;-0.010874543;-0.9601568;-0.5530218;0.038250405;-0.079656;-0.07297373;-0.085855186;-0.74254066;-0.39689213;0.005841846;0.54040426;0.17563333;0.6426144;0.09695995;0.0052603357;0.010847359;-0.5202448;0.016284138;0.4024865;0.059752762;-1.5427284;-0.021423237;-0.049866635;-0.15622702;-0.08427634;-0.93252337;0.02105536;0.057453044;-0.01828138;-0.061446823;-0.09923583;-0.08131378;0.5757686;-0.084217414;-0.009261623;-0.08123617;0.861646;-0.14309123;-0.042125456;0.277461;0.04836769;-0.03037389;0.22894831;0.116450645;0.2665938;-0.16870762;0.10576549;0.12129615;0.337409;-0.2342283;-0.102472484;-0.057910632;0.049839318;0.29032376;-0.447999;-0.08172467;0.5479785;-0.09973349;0.02190353;-0.06264629;-0.022663858;-0.04263954;-0.1466061;-0.098889895;-0.04781126;0.007965199;0.043692555;-0.063704915;-1.0088472;-0.12787679;-0.05195117;0.0616784;-0.10880679;0.10838834;-0.083041936;0.025915135;0.06264328;-1.3152945;0.0672221;-0.044267695;-0.07315933;0.18699405;0.022526482;-0.24257049;-0.10084975;-0.04245912;0.53873867;0.019207938;-0.009812512;0.36086076;0.35656258;-0.007861036;0.50027686;1.2229728;-0.036600817;-0.0120027065;0.32937917;-0.10537426;-0.29820594;0.059175685;-0.48849845;0.083791025;0.13847369;0.009031232;0.04738954;0.02676117;-0.17624062;-0.22878468;0.009980081;-0.32694232;0.024232153;0.17806283;0.17474052;0.08205625;0.22609128;0.17109674;-0.015485266;-0.17993213;0.14312851;0.24226134;-0.085288666;-0.0739537;0.20047306;-0.052179277;-0.01841474;-0.1834607;-0.6030477;0.0010634236;0.06845432;0.07227461
-0.06946315;-0.22182631;-0.018508814;-1.6000887;-0.08160228;0.0051354924;-0.42224246;-0.024795065;-1.100998;-0.049409457;0.010625057;-0.2501937;-0.03641262;0.030592298;0.046951994;-0.4576797;0.9459922;-0.25930193;0.17688498;-0.021101924;0.027644157;0.06115658;-0.020477379;0.14268993;0.016071754;1.3365649;0.092980474;0.0042754402;-0.63939023;-0.22535405;-0.047830626;-0.4662057;-0.072713315;0.7813579;0.23156701;0.07563717;1.2198671;0.6998306;-0.036666952;0.06262013;-0.0074534235;-0.30076218;-0.9870382;0.05779313;0.09062509;0.003955;0.0252049;-1.056163;0.1451497;0.33029187;-0.34063095;-0.59896016;-0.00642237;0.22001791;0.32183865;-0.06287918;0.03171492;0.022777686;-0.08680826;-0.0064759715;0.10541618;-0.07788337;0.52528787;0.026491128;0.018668974;-0.11193906;0.057831336;-0.26252645;0.055746496;-0.013690983;-0.46128705;0.736578;-0.058754258;0.110929295;0.6715601;0.0014300023;-0.038096707;-0.5326972;-0.29238743;0.09043441;-0.02090357;-0.02679451;1.055717;-1.292052;-0.022902593;-0.04048445;0.09343894;-0.016208459;0.18025734;-0.06886785;0.15394373;-0.02451489;0.0290397;-0.9340997;-0.03181814;-0.10463581;-0.5531913;0.10525547;-0.06542937;-0.088409685;-0.045892492;-0.09164809;0.6262377;-0.48369873;0.06435436;1.3659929;0.07248896;0.03342314;-0.0071628722;0.027763609;0.5785827;-0.00038831338;-0.2409368;-0.36880437;0.05806771;-0.09190149;-0.31839183;-0.05911113;-0.009095489;-1.3591127;-0.7968202;-0.091495834;-0.04746829;-0.031346552;0.14995867;-0.08606171;0.059448346;-0.07480761;-0.20660996;0.09936084;-0.10035581;-0.065781236;0.021053685;-0.35272065;0.24957536;-0.08125266;0.000722734;0.08726829;-1.3071882;-0.56865793;-0.26900497;-0.021335868;0.2585645;0.002886112;-0.082683355;-0.06316751;0.2836413;-0.036477603;-0.048772965;-0.019594671;0.05260159;0.044515472;0.07442422;-1.0576135;0.4545439;-0.42415524;-0.17203657;-0.0978309;0.6794371;-0.084540136;-0.05902991;-0.27732256;0.30874166;-0.045401864;0.02565925;-0.0678292;0.060064785;0.043869052;-0.15792431;-0.025732122;-0.04236888;0.7185673;-0.04309821;0.05474293;-0.042124055;0.013910132;0.035595268;0.16910706;-0.63610786;0.01840279;0.012881601;-0.10563858;-0.07706661;0.00067248655;-0.36975524;0.014836088;0.060526446;0.7344978;-0.81419224;-0.012789616;0.48683733;0.036241975;-1.6133093;0.0027504866;-0.0046438402;-0.063382156;0.866197;1.7369151;0.3460968;-0.2922636;0.05478034;1.5051194;-0.071901515;0.1498236;0.026740562;0.022110477;-0.8122031;-0.24191722;0.0909209;-0.5506278;-0.38352823;0.007029305;0.17482477;-0.5639235;0.17656484;-0.052039184;-0.031361293;-0.106323;0.0714155;0.56402844;-0.10181807;0.38978463;-0.011890843;-0.23846205;0.021293214;-0.04765627;-1.35145;1.4157968;-0.2447451;-0.27045184;0.1952497;1.0297251;0.37357116;0.24369182;-0.09820821;0.11967302;0.051048532;0.003988633;0.0408858;-0.04930278;-0.047385607;-0.48857713;-0.011393305;-0.05524803;0.2676975;0.2911185;0.0498864;0.85049015;0.9008441;0.02733872;-0.04862609;0.2824346;-0.16969222;-0.059532028;0.7682641;-0.1112016;0.870192;0.082307;0.0074907914;0.06558749;-0.0888356;0.026675856;0.039939035;-0.047756188;0.009408238;0.10746847;-0.029791506;0.024120629;0.02713554;0.09560066;0.31416214;0.80999583;0.04034776;-0.058410622;1.0747107;-0.0067501618;-0.15962774;-0.81022674;-0.52997327;0.05945198;-0.31729996;-0.103946395;-0.031503376;0.36571866;-0.027943218;-0.2000774;-0.097716294;0.012404093;0.00056602183;0.06014838;-0.093422405;0.039434675;-0.042545784;0.05263146;0.3718058;-2.0808597;-1.2259606;-0.21890812;-0.09380336;0.40592703;-0.30244365;-0.021839168;-0.01557358;-0.6184546;0.21141146;0.024294714;-0.16479413;-0.02737125;0.5476445;0.010509;0.5231639;0.01101579;-0.055903316;-0.37748185;1.0795665;0.110035904;0.56643766;-0.48945478;0.021352334;0.2282011;-0.042595215;-0.010858512;-0.012758974;0.022797791;-0.038320526;-0.044433985;0.08185995;0.74084586;-0.0139426375;-0.5307775;-0.8503805;0.41002774;-0.034458455;-0.81841034;-1.7173257;-0.0070829247;-0.03430162;0.20639254;0.12656459;-0.015605873;-0.07319018;-0.72408694;0.3990534;-1.1141526;0.087618254;-0.031428494;0.011087445;0.019875867;0.07090756;0.019486293;-0.032311317;1.3856541;-0.0894883;0.060586322;-0.21841152;0.3051847;-0.28366932;0.08751732;-0.088894375;0.600495;-0.4634168;-1.0345312;-0.020478263;2.0215886;-0.006964309;-0.054138534;-0.028620727;0.012611645;-0.06437778;0.09161705;-0.102791764;0.36048982;-0.039110456;-0.08882073;-0.10574654;1.0166465;-0.63149214;-0.5839002;0.089487985;-0.046964247;0.18925974;0.04117122;-0.16729003;-0.0152777005;-0.07064424;0.35251358;0.046035774;0.07599359;-0.04180408;0.041437846;-1.1861134;0.0046478524;-0.034678854;-0.010426306;-0.12767239;-0.2991695;0.0068438435;-0.055132095;-0.4555593;-0.15304549;-0.56929564;0.05541656;-0.43576416;-0.5202163;0.57473737;0.1619201;-0.30815858;1.7764189;-0.055115566;-0.105937004;0.17415622;-0.08920001;1.7452309;-0.30036804;1.4291724;-0.60379684;-0.0022545368;0.044587698;0.00026112125;-1.1951033;-0.1724211;-0.009904903;0.08215493;0.01839696;0.065473944;0.067033015;0.9574794;-0.10237025;0.034157813;0.30640787;-0.04035415;-0.028231174;-2.1605659;-0.01564399;-1.0469326;-0.106135175;-0.012864329;-0.115413874;-0.045317322;-0.056292813;-1.5802629;-0.13077591;-0.08195813;-0.3441297;-0.16670306;0.66938347;-0.26124734;-0.83131963;0.63899285;-0.015611711;0.0683522;-0.023727579;-0.046409104;-0.51618814;-1.0955194;-0.0966783;0.3087472;0.10856211;1.8781307;-0.035938837;0.033649407;0.09950287;-0.7015774;-0.05033071;0.23023467;-0.051070724;0.16475192;-0.056748137;0.03976226;-0.19880207;-0.0345928;0.114823;-0.017230626;0.019473977;0.114623606;-0.08078291;0.023368198;-0.022700101;0.1588064;0.008616052;-0.05440225;0.025952721;-0.8944774;-0.27353245;0.011022199;-0.88442844;-0.011775107;-0.024888191;0.27866843;-0.04319017;0.22368804;-0.22376062;-0.0042348593;0.03194267;0.23944783;1.550061;-0.067334175;-0.06782472;0.034300964;-0.17645784;-0.07590378;-0.10662024;-0.060024895;-0.19614093;-0.0311773;-0.0563475;0.02611106;0.012129432;-0.43138644;0.032986116;-0.038012765;0.07563112;0.07809918;-0.067953184;-0.6434568;-0.036293883;-0.19177687;-0.00559067;0.079249665;0.526953;-0.017241798;0.08066676;0.044452667;-0.48657593;0.119848244;-0.03338358;-0.09727227;0.06652002;-0.04236999;-0.16715497;-0.08070478;-0.051118556;0.043365378;-0.11587297;-0.016813936;0.41899937;0.173199;0.037329473;1.3682573;0.32022715;-0.033018373;-0.005936631;0.25886413;0.019708898;-0.6447135;-0.010839337;-0.39181754;0.08425262;0.074300416;0.046746235;-0.08286613;0.0063046515;-0.08334623;0.024851287;-0.04607153;-0.3073682;0.05707029;-0.00024075346;-0.3084209;0.22435082;0.256211;0.023610715;-0.33854464;-0.1976688;0.07637719;-0.055216875;0.49212682;1.0364046;0.06623038;-0.010116229;0.35418153;1.1755227;1.1751872;-0.070513055;-0.05917539;-0.039598692
-0.026226895;-0.36897644;0.04217738;-0.01079246;0.021819653;0.11321862;-0.25245056;-0.042894386;-0.26103222;-0.05098532;-0.047719575;-0.77987146;0.00662048;0.01599325;0.03865694;-0.103449605;0.68341976;-0.2648538;0.100877844;-0.14495166;0.06258632;-0.24087612;0.026069136;0.35032937;-0.10025553;0.12658796;0.19807266;-0.06344415;0.188464;-0.44616097;-0.066866316;-0.68597126;0.044861935;-0.4961766;0.06491435;0.23231742;-1.014683;-1.9209311;-0.07754543;0.049847968;0.19181491;-1.1957722;-1.3196417;-0.08481027;-0.6459278;0.040008966;-0.024158066;-0.9058605;-0.019407742;0.5753345;-0.13261396;-0.14368221;0.0966103;-0.68162674;-0.9315751;0.034251843;0.120712444;-0.088777676;-0.10573581;-0.01098193;0.8947276;-0.009990976;-1.716214;0.052610386;0.03269179;-0.07003594;-0.049471457;0.5893346;-0.20156042;0.21477102;-0.6723593;-0.81048906;0.01580684;-0.020148098;-0.57536125;-0.006637324;0.04235897;-0.59310716;-0.28791007;0.15630879;0.12005704;-0.006912706;0.65976375;-0.28080827;0.019736579;-0.18847574;0.15236495;0.00061488023;0.34923035;-0.034332488;0.23772311;-0.016369944;-0.05713235;-0.4320809;0.083154805;-0.04141056;-0.074022904;0.14588517;0.16842106;-0.05223931;-0.11137614;-1.2407209;0.004333686;0.049030155;0.25211132;-0.6207992;0.08084874;-0.077359945;-0.051745508;0.019999128;-1.5481905;0.0005064723;0.32503894;-0.42319947;-0.0014159224;0.037825774;-0.37021133;-0.011866667;-0.084493004;-0.40823078;-0.6075314;-0.06606189;0.02670353;-0.044743426;0.2369957;-0.06748047;-0.0300489;0.122962736;-0.21154648;0.11378679;-0.07660384;0.003520859;0.13248286;0.3259138;-0.2737127;-0.08169166;-0.044713873;-0.17927592;-1.768905;-0.39320758;0.06653932;0.011467608;0.21390411;-0.037164647;-0.11079506;-0.16394421;-0.1386737;0.025666585;-0.059555557;-0.077720016;0.0137041025;-0.015245487;0.045012448;-0.9136685;0.086330645;0.013042897;-0.25105456;-0.32443893;0.39380428;-0.06544891;0.033826746;0.15193745;-0.24286659;0.06040166;-0.018206224;-0.04886599;-0.0040564374;-0.032920152;-0.5055747;0.0102761155;0.07908872;0.40361694;0.034572307;0.015591016;-0.028698403;0.04842645;0.09347016;-0.15625879;-0.3491975;0.011643761;-0.049284335;-0.10608759;-0.14603256;0.07319011;-0.40350363;-0.013798657;-0.12588032;0.30553958;0.08901203;0.051425453;-0.028590517;0.0765047;-0.48064142;-0.12762785;-0.04153753;0.0135752205;-0.52354276;-0.25884414;0.020334557;-0.25370786;0.16854508;0.16011697;0.0084915515;-0.5740863;0.0152336955;-0.055365223;-0.7530331;-0.18189801;0.15039968;-0.28751373;-0.34970695;0.0066422382;0.34493956;0.36234796;0.04187368;-0.015544482;0.06299081;-0.040804055;0.037617724;0.5313493;-0.09580114;0.29902002;-0.07593015;0.27111953;0.031832885;0.06763716;-1.5602107;0.6947168;0.8293796;0.21206634;0.13142405;-1.1457838;-0.27195677;0.13256928;-0.032046057;-0.017327107;-0.012278361;-0.05822906;0.06496042;-0.048246466;-0.048429918;-0.40527835;0.25490478;-0.11308136;0.33026662;0.34384674;0.011431731;0.8362946;0.5786463;0.048886064;0.057921663;0.1836507;-0.48905113;0.27372757;-1.1880598;0.03432297;-0.7830023;0.009139737;-0.08680397;0.12521543;-0.06947063;-0.0010337391;0.12768754;-0.045146387;0.054438524;0.28534853;0.0070541943;0.07362164;-0.06997654;0.09720593;-0.3733805;-0.6386548;-0.00058997364;0.05567074;0.13497138;0.00992906;0.2292656;-0.8399314;0.14385271;0.026299853;0.029795717;-0.2049402;0.047906555;0.66750103;0.017082438;-0.09173499;-0.08165187;-0.011191199;-0.037142616;-0.022695094;-1.5586612;0.009270267;0.06210655;-0.02903264;0.29798055;-1.4239961;-0.66597426;0.3016172;0.06380527;0.13866423;-0.34411404;-0.07496642;0.08801951;0.034438606;0.36401996;0.08800986;0.16246602;0.0069973636;0.67685044;0.03883521;0.22858183;-0.0170621;-0.009254682;-1.0792912;-0.17697088;0.0006497177;-0.69948786;0.26067755;0.034735635;-0.030610979;0.052944403;-0.002342643;0.07874934;0.09260357;0.11078401;-0.15303624;-0.028534062;0.5164004;-0.07558103;-0.3473652;-0.64629966;0.56278753;-0.05338777;0.15049632;0.054102764;0.016952809;-0.042157378;-0.06835294;0.43477908;0.06651535;0.16859874;-2.0304701;-0.32824942;0.8700092;0.061395798;-0.046842434;-0.07053709;-0.018262003;0.0024054418;0.109265484;0.3225055;0.36433977;-0.005518463;-0.030081375;-1.9360253;0.38112408;-0.33537322;0.013682991;0.047815394;-0.41597226;-0.4462924;-1.613676;-0.17964475;-0.12686512;0.013313027;0.06395956;0.069901034;-0.086064234;-0.010121547;-0.042476602;-0.052829593;0.84105355;0.08844966;0.016469229;-0.09520486;-0.12553608;0.9868463;0.30094376;0.04691396;0.017716888;0.02202568;-0.044961724;-0.6763456;-0.07973505;-0.086828165;-0.55270386;-0.11999854;-0.0052534714;0.05267031;-0.017768135;-0.22773986;0.06423296;-0.059461985;0.06800593;-0.16019861;0.32693395;0.20395534;0.027026117;-0.16526434;-0.26096892;-0.37931526;-0.01943483;-0.31402364;-2.1014614;0.30975625;-0.26172268;-0.2812268;-0.13944392;0.032592203;-0.061507504;-1.0993342;-0.094058484;0.19671284;-0.08691421;0.01951424;-0.2953546;-0.09965665;-0.19562116;-0.10152074;0.81512487;0.017274547;0.13155831;0.02983776;0.12172893;0.0716438;0.0924284;-0.7365356;-0.17895877;-0.09281466;-0.36390302;-0.0030350946;0.12458776;-1.3401841;0.019477071;0.05382881;-0.24576719;0.034782004;-0.081980035;0.079683654;0.0012304155;-0.76260036;-0.23675844;-0.16178945;-0.40066382;-0.21472013;-0.07841742;0.0387438;-1.3475189;-1.3065659;-0.035440356;0.047695164;0.019380698;-0.0140354615;-0.63959825;-0.4063035;-0.031236272;0.5189365;0.10201973;1.0746593;0.01639832;0.029995276;0.026708726;-0.50756377;-0.06972906;0.29322332;-0.06764406;-0.7999182;-0.002936767;-0.016686749;-0.27530852;-0.087539874;0.16109864;-0.06206165;0.06227881;0.0055342703;-0.07132054;-0.11395112;-0.008721478;0.3553165;0.04806029;-0.043139532;-0.053848177;-0.1780372;-0.656151;-0.021946426;0.1954459;-0.026318496;0.013214419;0.28401664;-0.043187708;0.3472577;-0.45494965;0.07652131;0.17421871;0.32852697;-0.61358017;0.024763294;0.009288668;-0.016161436;-0.13915524;-0.9982296;0.18408805;-0.33147424;-0.1237239;-0.06603159;0.012022196;-0.0066798534;-0.14342846;0.6187122;-0.021726716;-0.19306588;-0.0114471195;0.07652281;0.0070062187;-0.6983055;-0.12114388;-0.14580245;-0.014488025;-0.15156092;0.38849932;-0.008707073;0.09461275;0.009340894;-1.1460586;0.087774426;0.017454183;-0.022642702;0.18254709;-0.060500257;0.33056396;0.03088377;0.02129986;0.39360848;0.025670517;-0.19844198;0.3533079;0.23752646;-0.056567196;1.0117663;-0.2551031;0.14096215;-0.040229525;0.33027256;0.017520215;-0.40734783;0.041123588;-0.4448852;0.0059757414;0.12752892;-0.013215152;-0.09008277;0.042398993;-0.33777463;-0.5133166;-0.055032827;0.23103763;0.059101745;0.06773803;0.20803143;0.24157774;0.08615854;0.009024555;-0.47031385;-0.2570428;0.053327683;0.030980954;-0.47736531;0.44029334;0.2363256;0.05256637;-0.20524116;-0.29552072;-0.6730745;-0.0929982;-0.019804794;0.069833234
-0.07545182;-0.2339725;0.069252215;0.22127035;0.010226096;0.06879527;0.16203591;-0.00965535;0.19846585;0.003699513;0.058078576;-0.3013626;-0.043191236;0.077445135;0.074641444;-0.3634031;1.1350311;-0.26813972;0.06645733;0.007425997;-0.07154805;-0.22694863;-0.0073797004;0.12628374;0.070152715;-0.4896295;0.0023784284;0.015859555;0.087384686;-0.30644962;0.08145025;0.08304159;0.0075106686;0.2519994;-0.1090498;0.1463415;-0.007744436;-0.46150276;0.07817063;-0.030616608;0.06249529;-0.095575504;-0.64083385;-0.023015577;0.53024405;-0.008673612;0.052840464;-0.61646914;0.08016419;0.38275126;0.0389708;0.13823597;-0.034429558;0.0013457413;-0.49275702;-0.06543916;0.011739096;0.0026177973;-0.07713856;0.019882329;-0.031902123;0.01501834;-0.20244868;0.0077690673;-0.049507767;-0.17438613;0.0047717234;0.59459734;-0.21501303;-0.03093893;0.14651868;-0.3551501;0.06530139;0.081960805;-0.20587176;0.051267937;0.032465782;0.121028386;0.026447132;-0.027653998;-0.018376745;-0.07176995;-0.52345407;-0.6440126;-0.01192497;-0.20438237;0.17669424;0.061875194;0.09100894;0.065158375;0.0989194;0.04313076;-0.043598436;-0.20048016;0.061586924;-0.07121351;-0.2173355;-0.09122336;0.016111989;-0.047961917;-0.051230043;-1.5248597;-0.7881317;0.020520952;0.10107932;0.017475283;-0.0770507;-0.036600664;0.030691981;-0.03625372;-0.08171137;-0.003668606;0.4717028;-0.72819495;0.06865316;0.002547756;-0.30892566;-0.07339659;-0.0684653;-0.1103492;-0.47737315;0.03036711;-0.053854633;-0.020028118;0.18873385;-0.028406732;-0.0015637844;-0.085252196;-0.14364502;-0.026061334;0.013653631;-0.06585678;0.08430728;-0.27007335;-0.017177157;0.049429048;0.06817976;-0.2488982;-0.8849668;-0.31034008;0.053362884;-0.06335695;-0.10198515;0.027699629;0.029356547;-0.2800297;-0.15202999;0.048053946;0.061533455;-0.06316312;0.030170934;-0.0484298;-0.010981187;-0.5007303;-0.20908442;-0.36537817;-0.39698508;-0.2105975;-0.03803668;-0.047907777;0.059928644;-0.3194677;-0.15076388;0.038274024;0.07225372;0.057842836;-0.021451727;-0.033663094;-0.7273215;0.07205983;0.0010103539;-0.91693455;0.00037294166;0.0034586666;0.050622463;-0.047154598;-0.030722253;-0.024976173;0.26033676;-0.03312917;-0.025589619;-0.049729716;0.042938348;0.0032901405;-0.32105267;0.045982186;-0.076530606;-0.88957214;-0.41946265;0.019222561;-0.4510539;0.00813421;0.13188298;0.016366884;-0.009451723;0.0029612985;-0.15504242;-0.020277692;-0.58390224;-0.37817279;-0.025402214;-0.63107204;-0.06963574;-0.656371;0.016355885;0.01028188;-0.87093735;-0.018396463;-0.044734083;-0.4852494;-0.3243198;0.03448941;0.096975885;0.29095945;-0.04928559;-0.023931805;0.03549669;0.0564074;-0.063795075;0.16349965;-0.04098717;0.12390239;-0.11941113;-0.17647249;-0.04892774;0.006560754;-0.6373375;0.13675307;-0.3360643;0.5479913;0.0030961707;-0.64679706;0.11267703;-0.113276064;-0.068047196;0.042758822;-0.07907136;0.050748773;0.040803485;0.017252518;-0.018459639;-0.22002739;-0.036719076;-0.12763259;0.15844578;0.11467999;0.03261074;0.41426653;-0.008333602;0.038926795;0.060212743;0.045939;-0.3447304;0.3392073;0.51252925;-0.15721183;-0.3273025;-0.05000847;0.008285872;0.0011969196;0.038001183;0.07059216;0.093501896;0.056418262;-0.050727177;0.052313212;-0.067108534;-0.056071505;-0.0058000796;0.07150312;0.7846567;-0.7074212;-0.059894614;-0.053511113;0.31769454;-0.061869852;-0.26392585;-0.07106318;-0.060914047;0.059631534;-0.22203745;-0.037734933;-0.04992674;0.1717082;-0.029338757;-0.38776538;0.022258237;0.06191307;-0.07073121;0.025323207;0.4493717;0.029421784;-0.07421586;0.010249658;-0.18020298;-0.4344324;0.34898907;0.36704257;-0.39752546;-0.10812724;-0.23347497;-0.03818805;-0.017173454;0.25386423;0.54909545;0.01047538;0.18727657;-0.049054027;-0.27850845;-0.047445662;-0.13451771;-0.05629824;0.06717812;-0.5488338;0.088736065;0.0110978;-0.23792078;0.11914367;-0.076202236;-0.12561718;0.05224824;0.043490194;-0.061521277;0.07646894;-0.04258707;0.032110143;-0.0061676586;-0.14661732;-0.01920271;-0.2783842;-0.7399083;0.10861403;0.055519152;-0.033327855;0.88106436;-0.011293947;0.03800229;-0.6563809;-0.05577231;0.094174646;0.07288605;-0.8254572;-0.06240248;-0.13802855;-0.00859511;0.013007695;0.022720896;0.06310492;-0.057927355;-0.021443602;-0.10924103;0.09021761;0.212962;0.03324927;-1.1415726;0.17258503;-0.3628631;-0.010570178;0.040927578;-0.19838342;-0.23755781;-0.7086895;-0.16959167;1.0084616;-0.02790092;-0.047156148;0.018199889;-0.0053522624;-0.06560672;0.011177506;-0.06672939;-0.3311949;-0.027064187;-0.053878993;-0.11073438;-0.0058921357;0.2531261;0.6831148;-0.031307798;-0.036581475;-0.0055895704;-0.072483614;-0.22984585;-0.014863024;0.0001016734;-0.27439472;-0.042245585;-0.084540844;-0.04924102;-0.029489238;0.017284239;-0.057835933;-0.017596118;0.054673478;-0.14130501;-0.33278957;0.049280424;-0.020378541;-0.106752515;-0.074317865;-0.58381426;0.08142645;-0.19802943;-0.25501242;0.32996464;-1.0619216;-0.2991751;0.16800672;0.07703357;-0.04624981;0.20347655;-0.07747735;0.8806944;-0.06388952;0.2006786;0.2776632;0.0004673153;0.5904223;-0.051576164;0.10957854;-0.34809887;0.031003062;-0.0010509208;-0.016635971;-0.043606676;0.08046816;0.3675383;-0.06400684;-0.028363515;0.45478696;0.0019382489;-0.038509194;-0.558163;0.06735098;-0.09412502;-0.108603984;-0.06259101;0.080622055;0.07619214;0.067945324;-0.0896593;-0.14531793;0.004012594;-0.19541703;-0.13698201;0.44228682;-0.1958949;-1.4409598;0.11591132;-0.019764662;0.06357892;0.011203151;-0.04247321;-0.660874;-0.7075773;-0.043808836;0.1956129;-0.035667684;-1.3442674;0.048826415;0.04954192;0.017084582;-0.41275758;-0.0878656;0.1810189;-0.0721219;-0.06353986;0.066921555;0.032810446;-0.17301169;0.038838923;0.2205311;-0.06061979;-0.05884149;-0.029490152;0.073230885;0.034458805;0.072842985;0.19109012;-0.056384966;-0.035170086;-0.014910472;0.56898344;-0.41040593;-0.06849834;-0.40898854;-0.07395844;0.015091034;0.13943093;-0.023822762;0.09563382;-0.22089356;-0.010754284;-0.026264288;0.19211131;-0.2800426;-0.018805705;0.06005666;-0.035146512;0.1495883;-0.18720579;0.03065657;-0.6771492;-0.11207137;-0.004149732;-0.059617605;0.046140846;-0.07652392;0.7659991;-0.048623413;-0.019564386;-0.058404766;0.07395918;0.052805547;-0.62197334;-0.08939213;0.0017347235;0.0632802;0.014511296;0.37364596;-0.08019617;0.027116295;0.035769235;-0.87785345;0.08215295;0.04947588;-0.05406064;0.032885905;0.07816489;0.6457276;-0.021705851;-0.0009914757;0.1477853;-0.18485227;-0.08938105;0.15625471;0.09285414;0.06844411;0.41699913;-0.20808117;0.11283241;0.041861344;0.18086599;0.059914596;-0.0914957;0.026453173;-0.33316085;0.03705946;0.0037550922;-0.0087670665;-0.06778421;0.01907228;0.06445873;-0.03939212;0.03263593;-0.15702292;0.03882743;0.047070667;0.048439085;0.20137136;0.030578202;0.047443304;-0.46238172;-0.25893685;-0.063163444;-0.011091766;-0.25752547;0.40513855;-0.039310917;0.0033877841;-0.18014048;-0.27512792;-0.2979843;-0.04886123;0.0689391;0.03114941
-0.04686043;-0.24545944;-0.07353247;0.2959721;-0.22400403;0.02818918;-0.053702444;-0.061871678;-0.3599611;-0.044096805;-0.043296598;0.05913172;-0.028679015;0.07260713;-0.060222093;-0.24493724;-0.61759716;-0.6204771;-0.05641222;0.051845852;0.04489992;-0.27629948;-0.3382389;-0.08232193;0.08717319;0.7739331;0.07271971;-0.01466261;-0.29835734;-0.24218443;0.09223117;-0.3651773;0.024839079;-0.041856438;-0.00464254;0.02496268;-0.21379133;0.0109409345;0.057252325;-0.068961166;-0.043968022;-0.37039927;0.18988429;-0.082244776;-0.54653716;0.0074979956;0.09222004;0.29387203;-0.06448613;-0.041952476;-0.38377115;-0.65224934;-0.075521976;-0.7834372;-0.66050994;-0.02056925;-0.074294694;-0.031162243;0.030305162;-0.04743171;-0.36388308;0.046995893;1.5162286;0.014509345;0.06056089;-0.078875445;0.027608886;0.6209047;-0.18615088;0.06840432;-0.33547056;-1.2959564;0.09040769;-0.17960408;0.42494428;-0.02615096;-0.13891006;0.37884897;-0.62508714;0.0297044;0.06346343;0.031462777;-0.25615975;-1.3673061;-0.072447516;-0.12847751;0.028785106;0.0251263;-0.055894963;0.05915318;0.03166377;0.055853143;-0.024466999;0.101422474;0.05322409;0.067317374;0.259278;-0.095214725;0.019173026;0.00741191;0.04669912;-0.64995813;-0.99409497;-0.05240891;0.008082299;-0.6390397;-0.040761106;-0.059324425;0.06095347;-0.15098962;0.40017545;-0.060645007;0.3070911;0.34646636;-0.05274635;0.049248513;-0.10633398;-0.018905126;-0.012303528;-0.011961294;-0.3446357;-0.0067295725;0.01302147;0.12083603;0.050699636;-0.015404908;0.07699645;-0.11911988;0.037432395;-0.05474372;0.012494733;0.09972115;0.18578675;0.027039405;-0.21672226;0.048477687;0.0045234053;-0.5182289;-0.2983937;-0.6023512;-0.095490746;0.021997215;-0.060621407;-0.014235919;0.020212732;0.14273085;-1.0903789;0.054398015;0.008441234;0.00823585;0.08066277;-0.03669475;-0.04324594;-0.11579188;0.35698232;-0.2994599;-0.62990445;-0.19209668;0.109344795;-0.04752239;-0.023037516;-0.20691037;-0.00057272945;0.02508704;-0.026209893;0.037791304;0.07341903;-0.08805329;-0.37776044;0.026117705;0.016464995;-1.6847998;-0.09108946;-0.014340691;0.03812316;-0.059262834;-0.0076026586;-0.18470259;-0.25840405;-0.04263683;-0.063964725;-0.083887875;0.078197055;-0.06072096;-0.17107454;-0.015030636;-0.016331678;-0.32752883;0.07738904;-0.015926484;-0.18211865;-0.03603267;0.43371758;-0.11083068;-0.017582132;-0.0736432;-0.17615746;-0.40214747;-0.7754162;-0.4022845;0.04782077;0.6340941;0.05091395;-0.27104378;-0.013236639;0.07645526;-0.4052612;-0.15313765;-0.057537228;-0.13089949;-0.10209368;-0.007264215;0.0604459;-0.2744704;-0.1784685;-0.0738882;0.009182678;0.048814166;-0.051294472;0.22924405;0.024650019;-0.035810914;-0.05160576;-0.075030625;-0.098587275;-0.13728505;-0.53606814;-0.41023973;-1.9202375;0.37163505;0.0204875;-1.4235432;-0.33097225;-0.29884475;0.07135546;0.04560088;-0.11787203;-1.625131e-05;-0.009490294;0.086293645;0.06522266;0.17396776;0.33170927;-0.038766414;0.07383765;-0.11731804;-0.022480795;-0.9624742;-0.7579028;-0.10490538;-0.0575266;-0.010264843;0.13455349;-0.28597823;1.0294845;-0.13817066;0.41857323;0.039229836;0.044522934;-0.10534391;0.08522024;-0.019148504;-0.14805594;0.02824722;-0.037267152;0.0054112887;-0.02989105;0.067597754;0.03083793;0.029764354;-0.5061193;0.0576332;-0.046782963;-0.10896538;-0.50705993;-0.033924703;0.20904036;-0.30990708;-0.26859772;-0.07323424;-0.06862741;-0.06392058;0.049577788;-0.17408365;-0.052587178;-0.44233865;-0.0050240546;0.06385977;-0.04523102;-0.09926405;0.7169735;-0.004576335;0.042469073;-0.025790518;-0.353326;1.1518971;-0.088534474;-0.09148439;-0.3612423;-0.04811384;-0.25122383;0.052226655;0.064719036;0.10973352;-0.24698858;0.0038013551;0.23018673;-0.07335253;-0.11987697;-0.056890313;-0.22513013;-0.41481286;-0.019105762;0.07349449;-0.37013158;0.006084775;-0.029268282;0.32490537;0.024203913;-0.56727785;-0.047589313;0.0007103504;0.055670954;0.05208358;-0.078568265;0.1151398;-0.030628564;0.045124616;0.0014817877;-0.18438113;-0.57975805;0.24215735;-0.083549835;0.10323601;0.091904804;0.053440128;0.03775746;-1.152297;0.30555752;-0.013624406;0.05819263;-1.1720544;-0.088885;-1.7884879;-0.08710216;-0.0287078;0.13521369;0.07266426;0.004908034;-0.039842576;0.58189285;-0.07559443;-0.07493576;0.03502442;-0.98771405;-0.02023356;-0.33153513;0.01688359;-0.023120621;-0.2827995;0.2430841;-0.08527542;0.019963095;0.056456037;-0.06074721;-0.0665685;-0.039582368;0.011151093;0.035914376;-0.064091414;0.015428637;-0.124257766;-0.06961018;0.026175829;-0.07153686;0.43884552;-2.1103382;0.66949373;0.014629825;0.010310702;-0.049487095;0.08858373;0.18528366;-0.15346505;-0.034044188;-0.4718783;0.03785237;-0.058711477;-0.05450782;0.11322181;0.32771754;0.022456277;-0.06784771;-0.001448663;-0.09507725;0.5422791;-0.0067106294;-0.06314433;0.11593193;-0.091390476;-0.37425163;-0.009415344;0.1592454;-0.08608815;-0.31876862;-0.7986635;-0.023294078;-0.9208434;0.033812866;-0.026267594;0.64172775;-0.023724131;0.3952608;-0.22703102;0.0016519668;-0.46292844;-0.10374005;-2.2545714;-0.058231138;-0.8042824;-0.21463977;-0.071212776;0.05848992;-0.07220748;-0.0022849168;0.123786114;-0.7267896;0.13878714;0.05217971;-0.03466015;0.029347105;0.16933638;0.999143;-0.11430612;0.15196764;-0.1893316;-0.02967995;0.06863624;-0.068412416;0.044275146;0.1714471;-0.17908163;0.03630066;-0.13738802;-0.3541528;0.20114711;-0.060019184;-0.104089126;0.70813894;0.0520207;0.073990874;0.018878842;0.017954059;-0.44400194;-1.078662;0.08958257;0.48720476;0.18529366;-2.078346;0.06932323;0.057035957;-0.00922603;-0.12351573;-0.074889556;-0.03796809;0.03320548;-0.5411798;-0.019339502;0.029164435;-0.16131218;-0.07244958;0.02401908;0.063580535;0.036860336;0.049773693;0.00086917676;0.020557964;-0.032142486;0.20970598;-0.027128099;-0.027256288;0.03282164;0.2937417;-0.54748917;0.02597062;-0.10049547;0.07039031;-0.08476235;0.025611632;-0.033602264;0.0866401;-0.31229565;-0.038597997;-0.06656078;0.025957095;-0.12582137;0.025452018;0.11155844;-0.017768495;0.047358923;0.17768337;0.03471403;-0.6108357;-0.03629637;0.09001649;-0.038620163;0.06305529;-0.0889641;-0.17207855;0.09570575;-0.08737142;0.06879167;-0.07282464;-0.04208164;0.7419301;0.011287164;-0.016520005;-0.018837562;-0.023773251;-0.0052139093;0.08195582;0.016505495;0.0018013694;-1.1197097;-0.13789651;0.062403258;-0.06763488;-0.0109357;-0.055165622;-0.065666504;-0.0053072977;-0.035053555;-0.08034613;-0.45426735;-0.08437854;-0.015913066;-0.05320082;0.025802819;0.7614753;0.42415032;0.02043205;-0.13731134;-0.03390798;-0.06449204;-0.15452622;-0.060754903;-0.38854954;-0.07180734;-0.114517316;-0.0061743767;-0.06351438;0.071535856;0.022491459;0.18227544;0.03746937;-0.7346474;-0.03421076;-0.03550955;-0.120181054;0.20327562;-0.08483987;-0.016459402;-0.26775607;-0.13635649;-0.12065914;0.014636697;-0.184935;0.5393331;0.0050404198;-0.020194957;-0.3424249;-0.19879377;0.22450693;0.0091995895;-0.009565505;-0.038781606
0.081106074;-0.120077856;0.05354786;-0.46072477;-0.27150106;-0.015634503;-0.12875445;-0.13242051;-0.61182916;-0.020830799;-0.0042198445;-0.15313369;0.0400826;-0.036860082;0.004661732;-0.28722304;-0.12622963;-0.74891853;-0.058099687;0.010965686;-0.07156678;-0.12968375;0.012095162;0.01804068;0.059161633;0.28305846;-0.02486442;0.07196249;-0.26005444;-0.2143669;0.0052664103;0.3589933;0.05458461;0.004223145;0.01522097;0.074130155;-1.1270783;0.05281096;-0.059005097;0.04581118;0.04383748;-0.96594834;-0.09089386;-0.017131776;-0.36274981;-0.08458284;0.03141812;0.021494813;0.24455404;0.8170455;-0.43207327;-0.7415735;-0.04031955;0.74535614;-1.2567335;-0.110675365;-0.037329264;-0.037974898;0.041534953;-0.004864118;-0.12814155;-0.04924701;1.6544904;-0.0019754507;0.06184406;-0.030214202;-0.056667265;0.4729015;-0.01999793;0.03142036;-0.23434885;-0.5064078;0.004446509;-0.11582401;0.073570795;-0.030188771;0.023800986;-0.43395412;1.68468;-0.098565966;-0.06992925;-0.070632406;-0.11671597;-3.4641726;-0.018880116;-0.3471693;-0.16107297;0.046672888;0.10415616;0.03117187;-0.06887218;0.0564469;0.036039762;0.029995702;-0.052977454;0.07405099;0.084606126;-0.19200993;-0.060244113;0.017769907;-0.011740625;-0.6943293;0.058313195;-0.00435508;0.019710181;-0.01439248;-0.11217769;0.030544674;0.064339735;-0.09339414;0.78261757;-0.04420835;0.0011411887;1.0117937;-0.08679142;-0.045757566;-0.4829211;0.0075742863;-0.035488583;0.0707316;-0.27862576;0.023310486;-0.005932443;0.031220408;0.055284336;0.048322275;0.03421183;-0.1433492;-0.105233155;0.0074554654;0.011306139;0.104803324;0.08612164;0.9377306;-0.027504727;-0.0521499;0.03571284;-0.1976336;-1.1582783;-0.97267973;0.16322397;-0.029625397;-0.4237818;0.08210998;-0.04844333;-0.2619779;-2.4981935;0.038407613;-0.06607057;0.06660503;0.00609055;-0.043957796;-0.028585097;-1.6574732;0.8633462;-0.12685214;-0.22583935;-0.094960034;0.20780768;-0.00371377;0.048219863;-0.083400756;0.17092052;0.029627288;0.06969594;-0.07611053;0.04233033;0.022217887;-0.5342504;-0.010509687;0.014370584;-2.9675076;-0.123160675;0.028582465;0.036891792;0.031951487;0.036908947;0.023499373;-0.1987327;-0.034401152;-0.078093655;-0.066536255;0.09384188;-0.0770155;-0.2064387;-0.10966898;0.07018092;-1.0262699;-0.23164955;-0.106365696;0.15506859;-0.054721583;0.0071344348;-0.04358769;0.027856428;-0.013250616;-0.06296736;-0.92131543;-0.26450163;-0.099742405;-0.04471076;0.8021456;-0.041009523;-0.19435221;0.055017047;0.012015906;-0.2712242;-0.32921204;-0.008463109;-0.3521613;0.034761734;0.077388085;-0.039062094;0.1699202;-0.10904234;-0.013676172;0.04125423;0.04335568;0.04972623;0.05511587;-0.04517579;0.012654765;-0.069016896;-0.5017713;-0.12973225;-0.019439798;-1.3778033;-0.015013935;-0.5065141;1.4456106;0.24361289;-0.046139605;0.29937887;-0.16237698;0.044766072;-0.027869524;0.012338879;-0.084450655;0.045258403;0.07110417;-0.007707902;0.33258662;0.51483923;0.1539889;-0.015705943;-0.07794158;-0.07167003;-0.7634529;-0.5277025;-0.039376013;0.022947779;0.054859094;-0.47770903;0.056040533;1.59008;0.22268057;0.13565628;-0.026791174;-0.014708274;-0.05106361;0.027261714;-0.003925517;0.07760273;0.0044763824;0.0353941;0.06377977;-0.09634704;0.0645861;-0.00519102;-0.063418;-0.49703416;0.10963571;-0.03786503;-0.08467764;0.17387605;0.002028103;0.43253762;-0.2995692;-0.1902418;0.028338553;1.2134284;-0.02842642;0.030525181;0.24241592;0.056278337;-0.55909276;0.086366944;-0.014594967;0.0643403;-0.01787277;1.880403;0.077080876;0.043820918;-0.019358154;0.19574341;0.22965893;-1.1926897;0.055937406;-0.3902523;-0.18748625;-0.13414867;0.017379643;0.01643421;-0.041694634;0.2531154;-0.12905702;-0.26719162;0.016527686;-0.765738;0.035467964;-0.21920176;-0.12290399;-0.08792125;0.6247412;-0.49073583;-0.050530612;-0.06671237;-0.43267423;0.051473644;-0.21809314;-0.0036930565;0.026267815;0.019429838;-0.053167377;-0.100478835;0.09594882;-0.030733531;0.19745725;-0.007148972;-0.41272485;-0.62761754;0.30570766;-0.00012627238;1.2861377;1.6917412;-0.038047813;-0.049080886;-0.7049662;0.9301428;-0.12020412;0.10945428;-0.06758692;0.018043935;-2.0405738;-0.055136953;0.022883374;0.12306783;0.036801666;0.017333733;-0.00088196184;1.1386302;-0.0405261;0.026717687;-0.05470809;-0.78580415;0.030390954;-0.22469248;-0.06378019;-0.03937052;0.29012403;0.12488868;1.622471;-0.15265906;0.37573236;-0.048529558;0.02645114;-0.03969727;0.0025645723;-0.001263585;-0.02334615;-0.05027569;0.41591853;0.009666412;-0.0620463;-0.14213465;0.82364255;-1.1766183;1.262999;0.052941903;-0.037404202;-0.09693372;0.057747066;0.09817843;-0.17308906;0.045579564;1.0442976;-0.070603274;0.000740238;7.938908e-05;-0.035166673;-0.025688997;-0.028982107;-0.042784303;-0.015507112;-0.14955373;0.17883736;-0.11808387;0.05117204;0.0006058416;-0.14251706;0.46863627;-0.04445936;0.0062372573;2.0368047;-0.1630547;-1.1241037;-0.14805052;-1.7132702;-0.051092222;-0.056692887;-0.43718743;-0.0097883195;0.1764286;-0.20715319;0.015763853;0.41819006;-0.08386754;-0.31930462;0.005464078;-2.1365573;-0.17290735;0.040518757;0.03095296;-0.0022412748;-0.012399064;0.059650954;0.07528805;0.045163102;0.07639019;0.040498156;0.16174006;-0.03487322;0.98555994;-0.019843725;-0.27374095;-0.09171232;-0.0778224;0.039630827;0.06864275;-0.063860536;0.2879978;-0.1164939;0.024193682;-0.15473431;0.10333414;1.1470565;0.846903;0.4111411;0.86815375;0.075516224;-0.06637956;-0.02321989;0.050876312;-0.45898947;-0.51578104;0.028749917;0.73885405;0.30068988;-1.102193;-0.057795253;-0.029206278;-0.07384511;-0.41873878;-0.06580877;0.012049671;0.041636024;-0.3355851;0.0056563793;0.06742004;0.004680761;0.01115557;-0.017014122;-0.06409456;-0.058920924;-0.02814847;0.043469578;0.017237183;0.061418477;-0.015309657;-0.010488247;0.006132351;-0.045155752;-0.43555743;-0.8343484;0.0960632;-0.93759626;0.06917111;-0.06724769;0.031043952;-0.052247886;-0.0073056463;-0.22697006;-0.06891989;-0.02147723;0.06024432;-0.14493404;0.039724626;0.08570431;0.027885182;-0.27852353;-0.71180457;0.08843833;-0.42036474;-0.0032509973;0.071045935;-0.04780504;-0.034525327;-0.09028952;-1.191338;0.055605013;-0.032973055;0.04438588;0.07054503;-0.021143163;1.1333624;-0.053726356;0.01802855;-0.005855041;-0.09000159;0.08419933;-0.061933868;0.0060766023;0.03055471;-1.6053435;-0.040464643;0.07168454;0.085682146;-0.0053087533;-0.0357834;0.21328855;-0.03267987;0.051296003;1.0349331;0.008716864;-0.049164154;0.12296348;0.07172529;-0.07431221;0.5862341;0.0815142;0.0062739034;0.0015581948;-0.0073142005;-0.09033805;0.01602445;-0.08150105;-0.6990015;0.059089106;-0.10502027;-0.002175328;-0.04831785;0.036034066;-0.013188938;-0.14672497;0.031978983;-1.8873249;-0.0064886594;-0.121317185;-0.20630479;0.10802599;-0.0959169;0.014157242;-0.32737413;-0.12812828;-0.052806646;-0.12322278;-0.15830788;0.47114965;-0.054366615;-0.07009762;0.31317592;-0.13141425;0.07374334;0.029401634;-0.05127313;0.04739338
0.017220756;-0.05484257;-0.0073092086;0.7485858;0.13062829;-0.32764396;-0.3427107;-0.08306154;-0.25727248;0.13493906;-0.011678017;-0.19549885;0.06408521;0.0987324;-0.061217986;-0.7629012;-0.7475218;0.5135667;-0.30624706;0.1452673;0.011077287;-0.2178205;0.0013585116;-0.21001169;0.16392544;-0.42060322;-0.27546448;-0.021411449;0.15958409;-0.06635457;0.13409957;-0.92173916;0.077474825;-0.54470795;-0.2244898;-0.2553631;2.0389817;-0.5523302;0.0020431553;-0.038387306;-0.2798099;1.6301928;-0.41287172;0.007952486;-0.5145724;0.006370573;0.08746239;-0.00716548;0.012938427;-0.7230777;-0.21312906;0.15500373;-0.093240514;0.007483321;-1.7058882;-0.19238478;-0.09909435;-0.049210563;0.04108837;0.02077481;0.5231947;0.07702052;-0.7656441;-0.05026996;0.029328352;-0.08161948;-0.027789798;0.40971005;-0.046226714;-0.2787053;-0.018361103;-0.32742286;0.062451255;-0.60690707;-0.3854054;-0.1251095;-0.13518573;-0.46743876;-1.5340548;-0.24801601;-0.2012015;-0.043718226;-1.7622308;0.4215293;0.07034281;0.3675944;-0.36372265;-0.0859994;-0.2935742;-0.052046385;-0.23058568;0.043834385;0.021000683;0.49386582;-0.03937238;0.18769413;0.19969453;-0.3190153;-0.19882096;0.035425596;0.09016156;-1.0365096;-0.9439072;0.24286558;-0.2661468;-0.48961484;-0.21437679;0.026584987;0.07400903;-0.18144388;-0.71597207;0.11491129;0.11429237;-0.5093969;-0.08933022;0.119659975;0.40639585;0.04504215;0.10930862;-0.39149648;-0.31569988;0.1396542;-0.0458868;0.08163361;-0.22133414;0.040802047;0.0073423735;-0.2789281;0.09945413;-0.12758988;0.058427393;0.24036711;-0.1765456;0.271724;-0.017420959;0.020588195;0.048699178;-0.07699564;-0.2642789;0.6633013;-0.6954997;-0.101638675;-0.44906184;0.05207647;0.1089215;-0.70439667;-0.8685595;0.10553554;0.14222172;0.023690818;0.091010034;-0.06473468;-0.054343805;-0.48390847;-0.70040494;-0.39773083;-0.081137314;-0.09727222;-0.12261721;0.039669704;0.057500172;-0.55572855;0.043094944;-0.14867947;0.07534217;-0.025776379;0.21952072;-0.10285447;-0.5290082;-0.041618533;-0.18511882;-0.49332318;-0.082625255;-0.0806004;0.08252131;0.080795586;-0.3119212;0.028114345;-0.7667848;0.06710483;-0.08446237;0.029997654;0.0989281;-0.09269954;-0.10965265;-0.012877239;0.14309667;0.919613;-0.26645467;-0.23452014;-1.5099922;-0.08768903;-0.3994146;0.06456462;0.11378906;0.012396797;-0.12144314;1.9763714;0.12195693;-0.34877875;-0.25462654;0.4555049;0.028186126;-0.21418637;0.0009956581;0.07753837;-0.08567832;0.12819545;-0.22215147;-0.50250727;-0.39319628;-0.012687989;-0.29764038;0.06132967;-0.29792693;-0.021697205;0.049831565;0.11946257;-0.06306549;0.026766483;0.17441991;-0.272712;0.09915147;-0.6762252;-0.21166575;-0.23177801;-1.3421917;0.64453655;-1.2204671;-0.7628534;0.0822969;-0.4921085;0.11079296;-0.853076;0.080119014;0.1646202;-0.20469506;-0.09969557;0.086739376;0.25359267;0.05400891;-0.2127496;-0.7352871;0.13447371;-0.2520511;-0.41060296;-0.13613623;0.43413693;0.0517554;-0.2397992;-0.095506825;0.06414019;0.83836544;0.35504475;0.035494026;-0.42371947;-0.27721763;-0.01645441;0.103153035;-0.2258137;-0.040948335;0.09520449;0.007946241;0.097324364;-0.07718328;-0.20213334;-0.04338144;0.06291613;0.026000664;-0.046155777;-0.009105607;-0.9344137;0.012055541;-0.16401163;0.15591474;0.049728766;-0.2067256;0.11365003;-0.81601363;-0.053848278;-0.5956216;0.064114794;0.05023475;-1.7345619;0.011895241;-0.3435926;0.047326915;0.11432998;-0.021649793;-0.0470391;-0.09070769;-0.024066703;0.008640165;0.017490547;-0.102573685;-0.07752538;-0.3077296;-0.15975758;-0.66716963;-0.18464969;-0.15605575;0.106548965;-0.012654719;-0.074379265;0.04084062;-0.108504616;-0.20843498;-0.002515901;-2.166837;0.10302233;-0.21931982;-0.45892575;-0.064939424;0.32713616;-0.4177179;-0.069673926;-0.32264704;-0.7390882;-0.002770374;0.21048294;0.03878509;0.09191986;-0.09195777;-0.06895216;-0.20672114;0.18845277;-0.09926252;0.511611;0.036014844;0.20583446;-0.95183194;0.24280041;-0.01808684;-1.792185;0.8780396;-0.01655054;-0.0269406;-1.12129;0.020808257;-0.05883346;-0.058294736;-0.14191808;0.059992556;-0.24534816;-0.15702124;0.12325244;0.18076041;0.30541512;-0.11976048;-0.057349343;-0.37409055;0.16998126;0.09426891;0.040524065;-1.5876908;-0.29813948;-0.057416555;-0.23472875;0.11278676;0.6020353;-0.1758551;-1.8335494;0.15105344;0.3659236;-0.038914494;0.015103954;-0.051957604;0.06923511;0.1865979;-0.11174576;0.12310723;0.12360574;-0.08777036;-0.04774706;-0.055093836;0.7162191;0.8529781;0.9693291;-0.09633304;0.10143454;-0.115325585;0.10101118;0.07547426;0.08666434;-0.03968169;-0.610065;0.10465777;-0.047840003;-0.0159901;0.17060006;0.8914794;-0.16359666;0.0039424836;-0.051383242;0.03638554;-0.25497666;-0.24257562;0.14467683;-0.18973409;-0.110060856;0.17223506;-0.015561975;-0.07296598;-1.1019292;-0.35247797;1.6155001;-0.11901632;2.331382;-0.10003979;-0.011341032;-0.3979212;0.17443623;0.07466586;-0.09335992;0.15109259;0.3216581;-0.1992633;-1.222994;0.10503691;-0.2263149;-0.13770849;-0.102150105;-0.08449126;-0.14899796;-0.024394048;-0.011923687;-0.29080915;0.29331023;-0.027290681;0.1352459;-0.15944502;-0.2833667;0.40322813;-0.19437608;0.54576635;-0.04661876;0.06581236;0.005580336;-0.051582187;0.043951705;0.4389425;-0.0954285;0.2802198;0.08925083;-0.15560253;0.7565848;-0.97493887;-0.9012666;0.21325327;0.01564768;0.03994795;0.102829374;0.2017826;0.31605235;-0.72507215;0.11464599;-0.26968494;-0.09259503;0.45401973;-0.090330735;0.079317674;-0.014634773;-0.42105192;-0.06452966;-0.17263664;-0.028770242;-0.57304025;-0.024048842;0.2562041;-0.064832605;0.06983256;-1.2915964;0.018764434;-0.08037287;-0.054894656;0.06877196;0.037027985;0.14796229;-0.24989714;0.05424285;-0.011648856;0.068974316;-0.65827334;-0.17260198;0.053300485;0.18345761;0.06324045;0.013794378;-0.26030442;-0.22912918;-0.24258724;-0.06386643;-0.24744613;-0.25224635;-0.17842318;-0.105646506;0.08201493;0.123475514;0.03821844;-0.27693716;-0.31422415;-0.48205245;-0.35645318;0.09069673;0.024527367;0.10867734;-0.045000143;-0.05042699;-1.0239673;0.107833944;0.020996531;-0.07087379;0.011614064;-0.052069068;-1.5580736;0.05223898;0.056729246;0.04940429;0.3049339;-0.16829473;0.13062634;-0.06601107;-0.018335711;-0.5420243;-0.10040723;-0.01504831;0.09975026;-0.25756875;-0.0023650916;0.36179355;0.13771145;-0.016536202;-1.4087033;-0.24182642;0.056660224;-0.23133156;-0.18831319;0.12697637;-0.8202236;-0.30704802;-0.025473423;-0.07875842;-0.27499482;-0.02190334;-0.088790864;-0.05136804;0.67538816;0.023452602;-0.13939916;0.0077124946;0.06391528;0.0030619444;0.12451772;0.12711562;-0.07928818;-0.6565862;-0.026777213;-0.1413399;0.067394465;-0.13478468;-0.24902934;-0.17342171;-0.01323423;-0.1285119;-0.21792945;-0.28262016;0.045292668;0.25428724;-0.224354;-0.024608828;-0.5260285;-0.19633509;0.25418797;0.014884791;0.049571957;-0.08538291
-0.03291261;-0.2834195;-0.066710114;0.27876925;0.020243397;-0.008351414;0.03828558;0.079424836;-0.42337066;0.015252012;-0.051031467;-0.7655339;0.043370843;-0.06123501;0.011922556;-0.38787484;-1.0101815;-0.20435429;-0.2436543;-0.07516024;-0.020269314;0.052880738;-0.2463154;0.12442027;-0.041868955;-0.010242351;0.098478384;-0.08112026;0.32354257;-0.29223466;0.053753667;-0.103464015;0.07608826;-0.14158571;-0.09850055;0.12684716;-0.37937847;0.024605868;-0.027385645;0.023927532;0.05318128;0.8320973;-0.076854676;0.044276297;-0.29498824;-0.015709445;0.077350326;-0.69669586;0.28564733;-1.26169;-0.49150997;-0.28980416;-0.055339474;-3.5709445;-1.0832673;-0.06337087;0.016144989;0.034237213;-0.058284584;-0.090832695;1.0142521;0.07266644;-1.0567093;0.033104;0.028818524;-0.17912118;-0.027452908;0.42331883;0.12046217;0.09277248;-0.15712991;-0.9350237;-0.08488515;-0.22054234;-0.66390204;0.07368407;-0.00094179553;-0.87707716;-1.2422159;-0.0036058258;0.073840626;-0.008672991;-0.24584763;-0.63942504;0.078622416;0.03432838;0.08653959;0.054643005;0.08653134;-0.017925147;0.002716508;-0.024537662;0.029683681;0.30792886;0.06581674;-0.04880301;-0.49261293;0.15041962;-0.012025803;-0.0802826;-0.018461417;0.3129531;-0.38659194;0.22028643;0.11205867;0.52846557;0.0075919237;0.07864055;0.0021252753;-0.031162241;-1.171337;-0.01437272;0.5808218;-0.10813222;-0.024298634;0.022152513;0.5221056;0.041227493;-0.016278649;-0.17899792;1.9901218;0.03349473;-0.07392105;-0.0017951466;0.05962521;0.03721911;-0.03251529;-0.03010679;-0.24891265;-0.06820277;-0.060269095;-0.068440944;0.10989195;-0.9882919;-0.23166223;0.044618122;-0.056112234;0.08756835;-0.35698643;0.5490817;0.21013354;0.07433083;-0.14292544;-0.041339952;-0.035833977;-0.16293198;0.35326672;0.0026239925;0.043482814;0.050494194;-0.02488637;0.0115825;-0.001950548;0.4799629;0.5385989;-0.69635284;-0.28906462;-0.116659984;0.4039342;-0.021097986;0.045556534;-0.11564359;-0.092249215;0.0722576;0.05147343;-0.022497341;0.03581329;-0.013185165;-0.35458416;0.06466501;-0.031660847;2.045676;-0.054730963;0.031026421;-0.058427114;-0.011814068;0.02406903;0.083645985;-1.1659211;-0.07001515;-0.11394384;0.0071691615;0.004280307;-0.007424449;-0.36584118;0.023309173;0.015977127;0.13370544;-0.19480272;-0.07819295;-0.5409246;0.030425228;-0.7057558;-0.094281115;-0.033070985;-0.0065848124;-1.1508902;-0.695272;-0.35964435;0.09938809;0.012203279;0.6760839;-0.080106154;0.2612703;0.042999078;-0.04654255;1.8065088;0.17814575;0.046916727;0.19262168;-0.44074896;0.021202307;0.027391225;0.13725802;-0.18036877;-0.0134743415;-0.016634967;0.05006942;-0.0010458329;-0.36891142;0.07176933;0.19318771;-0.12775962;-0.48577672;0.034849714;0.025481874;-1.6802565;-0.7992667;1.2584192;-1.7927855;0.032010477;0.90330815;-0.82319057;-0.111685954;-0.0075273803;0.17195223;-0.0069224904;-0.053152155;0.019992247;-0.22248344;-0.039908666;-0.83515376;-0.06533573;-0.21262641;0.15666726;0.14818701;-0.05020434;0.20958789;1.4002303;0.07391795;-0.073772416;0.010883182;1.0213915;1.0177852;-3.1196742;-0.07229311;-1.9788814;-0.021622539;0.07383674;-0.02803328;0.027566552;0.012238437;0.020511875;-0.037554372;-0.045302644;0.016254859;0.12061655;-0.026572559;0.022504369;-0.05088892;0.59735894;0.95080566;-0.045577105;-0.024079936;-0.2786089;-0.006092353;-0.19407721;-0.26615617;-0.40088326;-0.004457973;-0.076567024;-0.22980458;0.0616523;-0.045272525;-0.03254333;0.63594884;0.020599108;-0.07114042;-0.07808092;-0.08331995;-0.7714718;0.05454419;-0.014933307;-0.023780977;-0.12541421;0.29204705;0.8982876;-0.14197963;-0.100323014;0.5120098;-0.24288787;0.046000198;-0.003289269;0.079980075;-0.17789763;0.023673328;-0.5325773;-0.074726194;-1.4627804;-0.009642672;0.2353403;-0.05926538;0.006151176;-0.4205006;-0.34658208;-0.046321213;-1.386966;-0.04184561;-0.062355977;-0.09014394;-0.050166853;-0.067257516;0.044934176;-0.010877978;-0.0137800975;0.044928197;-0.045871057;0.5851398;0.01095169;-0.185466;0.517115;0.291547;0.036965143;0.05687151;-0.51236606;-0.0073519377;-0.079080485;1.3233358;0.6672252;-0.044326782;-0.21553724;0.96191794;-0.03685123;0.43144277;0.13114113;0.043323185;-0.10401722;0.059051875;-0.06536948;0.08207264;0.2067999;-0.7731486;-0.15219669;0.11348883;-0.5511287;0.10215104;-0.26731306;-0.045865037;-0.045158397;-0.782768;0.18634568;1.2708185;0.1510529;0.90754664;0.07148987;0.045237582;-0.045290563;0.05435874;-0.03363625;-0.0058555133;0.03502188;0.52109855;0.09117751;-0.064100325;0.1241328;1.3448426;0.83058804;-0.061640363;-0.02015161;0.07629423;0.011208344;-0.0069876653;-0.48378748;0.24751653;0.03226378;0.16623479;0.023007805;-0.08687057;-0.069965445;0.033350468;0.8750496;0.05477393;-0.021779085;0.028828682;-0.119590364;-0.40967727;0.047230873;0.041433208;-0.22257067;-0.070605315;-0.25644234;-0.07623809;0.03514548;-1.0737453;-0.435898;0.3143642;0.50015885;0.2942133;0.0476697;0.06873863;1.4979686;0.04677371;-0.45844284;0.1516979;0.1690942;-0.050934225;-0.07263964;1.3693186;-0.0579255;0.93240774;-0.18689407;0.19794215;0.05642924;0.03936402;-0.049732763;0.054881413;0.15392117;-0.060415618;-0.07399884;-2.2723503;0.022869196;0.1439561;-0.5556818;-0.075149395;0.65506214;-0.16386847;-0.08249821;0.0013797937;-0.07282035;0.04130895;-0.4438437;-0.113100745;0.0020924096;-0.23585042;-0.008355278;-1.6065521;0.36786652;-2.269569;0.62714446;-0.032041594;-0.014043363;-0.055024747;0.04466951;0.8335129;0.5293123;-0.046616446;-0.35262576;-0.15791185;0.5638721;-0.008209861;-0.023811726;-0.014354836;0.102361105;-0.09544047;0.21766047;-0.04763562;0.1698469;-0.08432372;-0.005525036;-0.13176593;-0.08682387;-0.47327664;-0.06974269;-0.058789227;-0.08967508;0.055503204;0.015879882;-0.052369386;-0.41849715;0.011679577;-0.0152407605;-0.034378596;-0.31077674;1.6505494;0.069596514;0.15330395;-0.053922378;0.0660631;0.2064506;0.08953355;0.20193382;-0.33632818;-0.00046887284;-0.054344468;0.1101886;-2.2708871;0.07493806;-0.09063066;0.002755184;0.30692557;-0.20325938;-0.007462451;-0.13965203;-0.1510964;-0.07022617;-0.076929964;-0.039138693;-0.17320703;-0.48077634;0.041681238;-0.08053362;-0.03592341;-0.053168245;-0.029505331;-0.99631417;-0.12792721;-0.15920362;-0.14966072;0.11269626;-0.32268745;-0.08499996;-0.07578025;-0.07814236;-0.4137612;0.19089375;-0.084556244;-0.02341913;0.057276625;-0.07751163;-0.31059054;0.026600378;0.057876013;-1.3028456;-0.32394335;-0.13503821;0.1390808;0.00785861;-0.010200475;-0.558547;0.71331793;0.14063503;0.020915404;0.17155676;-0.100539796;0.018022662;-0.014646766;0.11113518;0.051673077;-0.07407298;-0.016445942;0.047503423;0.060798217;-0.09371332;0.07264581;0.0031554603;0.9377358;-0.045843665;0.042772792;-0.22953057;0.1904188;0.25123525;0.07140087;1.6025002;-0.17103557;0.054582752;-0.00736283;-0.26075038;-0.37898055;-0.01760738;-0.09274702;0.16087812;-1.0635563;-0.7122133;0.05716374;0.040466536;-0.04527038
-0.004615587;-0.035792574;0.017157083;-0.6831279;0.17383915;-0.13821068;-1.2054552;0.0068571246;-0.60771406;0.13106868;0.0012668348;-0.467575;0.09329378;-0.013220394;-0.13359125;-0.75079274;-1.1297587;0.23614942;-0.10893868;0.19504826;-0.008866533;0.39531532;-0.12947717;-0.13483551;0.096123755;-0.7508622;-0.13343884;0.08499758;0.5533742;-0.15933344;0.14876935;-0.21190368;-0.007824279;-0.29581165;-0.048671797;-0.12970644;0.106014;1.2420471;0.124356054;0.040712543;-0.17028323;0.7625562;-0.31827015;0.058070175;-0.19587646;-0.062049102;0.08043614;-0.83761895;0.13153091;-1.8828653;0.02712332;-0.71355605;-0.17260131;-1.3311411;-0.1897135;-0.17870988;-0.11268783;-0.06444635;0.046079617;-0.026721522;-0.21292508;-0.0082543325;-0.2435392;0.033140913;0.045279823;0.009363297;0.042569444;0.024292525;-0.021170324;-0.28942862;-0.031465247;-2.361719;0.03588399;-0.5510039;-0.13618931;-0.21610391;-0.09621845;-0.7287711;-2.3854797;-0.23332685;-0.20555231;-0.07324135;0.30401933;-1.352218;-0.011328152;-0.21077144;-0.14902934;-0.0036118235;-0.17591734;-0.08140326;-0.1650859;0.057465456;0.014856434;0.25137427;0.043138087;0.16953771;-0.4273728;-0.24041012;-0.26611918;0.024554936;0.10891044;0.2598799;0.176002;0.24165222;-0.1178359;0.75801843;-0.123038806;0.07571789;-0.037257858;-0.10456399;-0.4474632;-0.0027962795;0.03006542;0.9638658;-0.09382391;0.008825133;-0.20616378;-0.03374193;0.13947801;-0.6129309;1.8182691;0.13393907;0.00036720402;0.16221233;-0.19251335;0.11522347;0.04679952;-0.2542959;-0.05759467;-0.21996546;0.025961692;0.22618376;0.10705461;-0.5889696;-0.2102345;0.013698147;0.1115486;0.23296483;0.76527786;-0.2020033;0.3418613;-0.19348918;-0.4803088;0.06688796;0.08997773;-0.1410058;0.44002998;0.15862043;0.0905124;-0.003028196;0.09944074;0.03315484;-0.049594384;0.20387743;0.0631148;-0.35016957;-0.36393777;0.10413282;0.22932908;0.05697084;0.09254283;-0.49380064;0.057653196;-0.08981828;0.20512006;0.08803493;0.10412126;-0.08001758;-0.018898595;0.05910464;-0.13250014;0.6049806;-0.1217987;-0.16856688;0.04468147;-0.011496755;-0.19551297;0.023156459;-0.41490608;-0.072323345;-0.05746693;0.003130931;0.11268574;-0.11786907;-0.07450903;-0.041278854;-0.023452343;0.5452668;-0.1519909;-0.099703826;-0.64943945;-0.12259015;0.13994204;-0.11538869;0.06615978;0.07874554;-0.2717535;-0.39864773;0.21244709;0.029579213;-0.24757095;0.3667341;-0.01955605;0.7864828;0.00016451048;-0.018651644;1.0794768;0.16293772;-0.20646167;-0.12936285;-0.417294;-0.062299844;-0.16112188;-0.23555842;-0.31408593;-0.091491245;-0.061231636;0.024078555;-0.07360143;-0.12258958;0.10435109;-0.2152699;-0.005590525;-0.59905005;-0.2186766;-0.10920393;0.12463064;0.18746613;0.51749223;-0.8661725;0.05382082;1.8024735;0.006304663;0.22302474;-0.03985571;0.24363899;-0.1913621;-0.10492352;-0.021660766;0.2165449;-0.031031037;-0.66376936;0.37855086;0.036782302;-0.13678749;-0.275848;-0.1772303;0.025181802;1.585755;-0.23376401;-0.026179295;0.05341336;0.25372347;0.4802348;-1.9058968;-0.003974359;-0.64858794;-0.17630498;0.10079405;-0.12237832;0.10384056;0.049573787;-0.06703396;-0.03785005;-0.042134922;-0.23570368;-0.032765716;-0.0047196536;-0.025589861;-0.10575499;0.9020252;-0.019712133;0.007573147;-0.16368596;-0.34398523;0.08965019;0.20390043;-0.14036752;0.04317605;-0.062522896;-1.1990229;0.010827102;0.123236366;-1.2220949;-0.06891086;0.032825068;0.022157205;0.06404897;0.1302645;-0.10002438;-0.45763788;0.028118344;0.04806065;0.010224411;0.0551558;0.77611125;1.3636296;0.091853164;-0.4107947;0.18344791;-0.05648364;0.16528861;-0.084055595;-0.11563656;-0.39048856;-0.18348007;-1.3644415;0.023590934;-0.69433105;0.0040895264;-0.1991454;-0.3441354;-0.037971158;-0.1000362;0.9096891;-0.15921217;-0.42341334;-0.10801962;0.028079765;-0.15815036;0.060535334;0.08947714;-0.009274623;0.033408426;-0.15814807;0.10232061;-0.15425615;-1.1295713;-0.040198557;0.013510171;-0.09921938;0.05642578;0.02104495;-0.6972986;-1.064561;-0.002275769;0.029648362;1.1874083;0.5691722;-0.039255146;0.0730231;2.2780552;0.06046562;-3.470298;-0.12025834;0.11842516;0.10647238;0.11734026;-0.079461396;0.027189856;0.536044;-0.16464928;-0.105468005;0.0048560747;0.7199786;-0.28739104;-0.05806546;-0.08211071;-0.011029516;0.42014736;0.297578;-0.0060798055;-0.045528058;1.1614299;0.08946638;0.021634147;-0.008394009;0.025790278;0.1097381;0.03569761;0.11148661;0.39563534;-0.054954674;0.080819406;0.21707106;0.9289736;-1.0021613;0.55630505;-0.037229396;0.05679021;-0.1068141;0.055494487;-0.20662078;0.19992;0.036516655;0.18641749;-0.023133753;-0.14201763;0.041337024;0.11492386;1.3749126;-0.16315846;0.013793373;-0.00075731723;0.0017803337;-0.38907182;-0.2372683;0.1348358;-0.090961665;-0.030025197;0.12191608;-0.07801857;-0.046965364;0.65850586;-0.008819925;2.1558096;-0.26228777;1.4062371;0.02613056;0.12416944;1.3324537;0.08867282;0.1764948;-0.22392365;0.753538;0.10482401;-0.26243505;2.4808342;0.0633816;-0.7186178;-0.10760141;-0.1076982;-0.03828218;-0.08486103;0.0366648;0.038161714;0.7102886;0.19712833;0.023047995;-0.011702042;-0.07623246;-0.15591064;-0.48347554;-0.097932726;0.78971076;-0.06661157;0.01210323;0.09174867;0.024498343;0.0117138475;-0.68545693;0.008718505;0.1401867;-0.1590943;-0.033105493;0.04073912;0.6220241;-0.62716824;1.6477518;0.017088812;0.07879178;0.012966885;0.17172313;2.0401254;1.3102726;-0.006341476;0.8153014;0.28748786;-0.12415848;-0.0691187;0.058186717;-0.092139125;-1.2578146;0.058002036;-0.19286723;0.027252212;-0.3433817;0.04623103;0.17762206;-0.06087128;0.1298465;-0.9919725;-0.01763006;-0.060619388;-0.1729071;-0.06770249;0.043651342;0.0830214;-0.12076826;-0.06004867;-0.05188509;-0.043620534;-0.4550214;-0.26936588;0.02938913;-0.06255335;0.14582463;-0.05820456;-0.32375702;-0.10023362;-0.24004802;-0.09384394;-0.08343365;-0.1974843;-0.23187117;-0.5295505;0.044391487;0.059698187;0.07852024;-0.25129706;-1.7005368;-0.13349552;0.03133548;-0.0051846774;-0.0044788765;0.10182033;0.0137240775;-0.049527917;-0.45252734;0.12359081;-0.00506564;0.030967046;-0.08561123;0.09320225;-1.1411053;-0.03062906;0.05443776;0.06231631;0.08282958;-1.2197117;0.09026526;-0.08554219;0.06865604;1.0129622;0.11700423;0.061769698;0.08685194;-0.20051855;0.00510153;-0.48359096;0.11034437;0.02536676;-1.2471994;-0.24427488;0.0037512195;-0.21479931;-0.20236656;0.030004634;-1.754798;-0.40215015;-0.018896414;-0.21100645;-0.11744552;0.0011815944;-0.33797315;-0.049391933;-0.19154395;-0.020877508;-0.16842449;0.060194023;0.028660152;0.024417982;0.076323956;0.26233077;0.07773605;0.25977486;-0.030221496;-0.2059844;-0.3155266;0.05347136;0.18413378;-0.13981742;2.0276878;-0.11728552;-0.2347276;-0.18279225;-0.21166912;0.021214979;-0.24960487;-0.050520632;0.12241999;-0.16280378;1.1916003;-0.015815703;0.019408364;-0.021542015
-0.053569604;-0.086449504;-0.042115595;-1.0003487;-0.05590441;-0.05112082;-0.9485798;-0.105355665;-0.7877747;-0.03409409;-0.022319851;-0.3177039;0.039826434;-0.03913144;-0.050403498;-0.13119793;-0.9398982;-0.24210854;0.0043641315;0.069698475;-0.09082181;0.14973898;0.09760757;0.049484085;0.016575933;-1.1221455;0.022590924;0.07987815;0.33623797;-0.14179021;-0.022055956;0.2300688;0.07086688;0.1635659;-0.051887903;0.04242146;0.48559532;1.1766024;0.04580321;-0.010420975;-0.084106594;0.38916048;0.48226768;0.012156617;-0.39098176;-0.05124815;-0.00045424758;0.18663925;-0.10671368;-0.39835352;-0.9609152;-0.29262242;-0.004590312;-0.38105184;0.74676085;-0.031946626;-0.042529523;-0.068678215;-0.02244615;-0.040671762;-0.66853;0.017768448;-0.47056276;-0.050232083;-0.020400515;-0.06558858;0.022870691;-0.136551;0.017845327;0.03220415;-0.27271196;0.026175287;-0.0042335805;0.39826104;-0.06803155;-0.049445853;-0.13243169;-0.629744;-1.101479;-0.006326165;0.029163912;0.0484642;0.34360507;-0.5050015;0.0828491;-0.36755556;0.1296674;0.0073473006;-0.01987794;0.041807227;-0.007744946;-0.035263263;-0.028272642;-0.51634365;-0.05029838;0.053952448;-0.22290187;-0.18889143;-0.027836205;0.015007711;0.059684042;0.3179869;0.07235967;0.05369499;-0.077529624;0.97865254;0.011458247;0.013886189;0.00386925;-0.100724824;1.0587679;-0.014143649;-0.67640877;0.5202919;-0.11411307;0.040260896;-0.4475169;-0.03669516;0.08396753;-1.0709795;-0.7276824;0.007597383;-0.005626478;0.0756565;-0.048144218;-0.0027136614;0.06593367;-0.06538755;-0.06031677;0.002079635;0.0074702627;0.08785986;-0.18852146;-0.09917631;0.25610244;-0.06597059;0.080076024;-0.05454311;-1.6721085;-0.45974332;0.42277077;0.004494233;0.07772124;0.027077986;0.11811078;0.6410114;-1.7564747;-0.03295923;-0.027594741;-0.04243283;0.08999669;0.07791736;0.027958367;-0.83759356;0.19706722;-0.35953465;-0.22263046;-0.14444451;-0.0452773;-0.040328983;0.08767346;0.024251211;0.013033045;0.017478444;0.04461836;0.00014510298;0.09488284;-0.031284392;0.010436252;0.07971226;-0.037461687;0.012992844;-0.009732385;-0.0012864848;0.03646292;-0.025414634;-0.047314852;0.0049320487;-0.97347665;-0.023508398;0.041038107;-0.026886255;0.12448491;0.048424676;-0.15281722;0.08184049;-0.016922249;0.76292497;-0.051513564;-0.00020241187;-0.17287864;-0.045586664;-1.2487508;-0.025005579;0.050421678;0.014986801;-0.22915252;-0.212721;0.7038293;0.06295699;0.020427506;-0.17554371;-0.024097346;-0.022446379;-0.064555556;-0.049197007;-0.6562402;-0.14359713;-0.0035019058;-0.095729694;-0.23833571;0.0061636614;0.08022618;-0.86508626;-0.16952272;-0.058472864;-0.056056455;0.057094533;0.035121474;-0.2706401;0.0442738;0.08848966;-0.10852076;-0.25323114;-0.061655547;-0.014149467;-0.46570304;0.4051495;-0.06926781;0.4167025;-0.088673644;-0.1981775;-0.04500219;0.2959977;0.021958012;-0.078715675;-0.10218585;0.0068835258;0.076181665;0.111622155;-0.013949696;-0.4172806;0.15502678;-0.007820639;0.028734341;0.07970647;-0.06275675;-1.1442605;-0.6278416;-0.10807004;-0.008776446;-0.02084999;-0.38957843;-0.52596736;-0.880293;0.21809557;-0.027507097;0.0151935015;0.07741677;-0.010963889;0.07716608;0.0040291185;0.046964735;0.033962954;0.04747224;-0.022898318;-0.039818674;-0.019429622;0.0126407035;0.040813442;0.124420375;-0.034049183;0.05651369;-0.08728699;0.17030647;-0.031727318;0.256316;-0.20223714;0.28783065;0.06223631;-0.26082376;-0.011736396;-0.04294098;-0.39363968;-0.039272558;-0.25791937;0.006466042;-0.04697413;0.056270465;0.025470896;1.0055673;0.04883724;-0.047444932;-0.034056418;0.21583068;0.5996775;-1.2624854;0.27544054;-0.1326067;-0.11570494;-0.19321479;0.02636517;-0.045968644;-0.062404778;-0.2507868;-0.026425278;-0.45785064;0.059818186;-0.630621;0.060315732;-0.22359364;0.24915907;0.030224279;0.8033932;-0.047673777;-0.099279635;-0.21114486;0.06367993;-0.0061476515;-0.00720808;-0.01595521;0.041990716;0.018308153;-0.06014902;-0.08063847;0.00041016864;-0.11658778;0.037759863;-0.02931602;0.08202611;-0.13888595;0.23216903;0.012678671;-0.59521484;-0.39606702;0.01736676;0.05606402;-0.12792294;0.24482414;0.0046022288;0.030057605;-0.6044965;-0.022558646;-1.4571911;0.0548833;0.05356058;-0.011263779;0.105802275;0.038415976;-0.01996049;0.2991071;0.3935238;0.078972146;0.05763004;-0.63369;0.05886577;-0.2577119;-0.006454573;0.013128573;0.47144997;0.62221336;0.52485734;-0.13394564;1.7055675;-0.04067528;-0.100641586;0.04301982;0.08531592;0.09708858;-0.060432322;0.0024734093;0.401625;-0.12946558;-0.058141537;0.054493796;-0.16095679;-1.3351201;-0.063852295;-0.092981294;0.017005038;-0.024238579;0.015286337;0.40300366;-0.13735478;0.060512006;0.27165407;0.023985872;0.029885085;0.035724573;0.042451285;-0.5723358;-0.09714226;0.08509436;0.018152809;-0.1368832;-0.5893805;-0.0946366;-0.011215354;-0.09099777;-0.11376911;0.1924954;-0.068735756;-0.05998229;2.001542;-0.05222422;0.4290716;-0.18850093;-0.11984317;0.0051879506;-0.052349534;0.7200299;0.028173918;0.71163344;-0.37221232;0.08400024;0.15744482;-0.07568098;-0.51158553;0.06236853;-1.698727;0.080024675;-0.00089012075;0.012733476;-0.10994779;-0.028759323;0.0070761624;0.9389692;0.021933235;-0.040280484;0.7154651;0.031385943;-0.111529835;0.63043797;0.019406196;-0.5901813;-0.15704204;-0.0410635;-0.011388504;0.07423467;-0.06579996;-1.2169957;-0.059362702;0.025224688;-0.20220721;0.28028715;0.8421565;0.7821622;0.79788584;0.6991535;0.105954766;0.051349502;0.045429412;0.035296295;0.5329214;-0.14550267;-0.058714297;0.3349192;0.046605956;0.068766415;0.011524543;-0.031992435;-0.00643255;0.35732517;0.0068404884;0.065025404;0.024282081;0.18497752;-0.050743118;0.08379641;-0.12831065;-0.04256038;0.3402965;-0.01084717;0.06739149;0.0054173227;-0.07179524;0.08121761;0.0014166937;-0.21422826;0.054505043;0.043661244;-0.071574986;-1.3394094;-0.2730539;0.018834533;-0.5940315;-0.048369683;0.051747903;0.0122902775;0.019686129;0.10258526;-0.14310586;-0.019410728;-0.13847217;0.12459407;0.42027473;-0.004687329;-0.0017503537;0.07185615;-0.07158561;0.22464526;-0.6470214;-0.6612382;-0.043239344;0.01934057;-0.06459136;0.0013937227;-0.01323314;-1.0931884;0.024882566;0.052404344;0.05440299;-0.0098427;-0.057527937;-0.038361322;0.0076775495;0.059244946;0.046652522;0.12917714;-0.4020492;0.05784343;-0.0046179295;-0.016549606;-0.94712657;-0.120758824;-0.010871555;-0.03862519;-0.11771926;-0.020191243;-0.035734795;0.0051604738;0.016572744;0.41222858;-0.20121747;-8.9089124e-05;0.13939142;0.033088192;-0.0072589368;-0.10223977;-0.6917906;-0.04529263;-0.098755345;0.0029761551;-0.012754616;-0.23048396;0.0026775599;-0.62457955;-0.046466596;0.014506666;0.016902788;-0.042973094;-0.051668677;0.019709138;-0.099305704;-0.014697951;-0.2405764;0.045696873;-0.0722415;-0.11492886;0.07305069;-0.021965617;-0.025545638;-0.1589323;-0.18883952;-0.06386818;-0.038806465;0.13682854;0.55646324;-0.06369581;-0.07770957;0.48284596;-0.10153715;0.8477383;-0.023174083;0.060987912;-0.015635647
0.05761539;-0.22398385;0.012021638;0.6161165;-0.11966582;0.019013695;-1.2634734;0.118368246;0.13560511;-0.056002766;-0.029212024;0.09445921;-0.045419425;0.044765778;0.0127487695;-0.08556082;0.08826924;-0.6367705;-0.068617836;-0.030505719;0.027752131;0.4662485;-0.05602371;0.17376497;-0.104321785;-1.3697635;0.04148615;-0.0692149;-1.2539034;-0.2922854;-0.14248088;0.63168275;0.0018503407;0.5275439;-0.10428774;0.09422777;-0.6743488;2.5748525;-0.057114642;0.041312564;0.0047535347;-0.3684765;0.26814052;0.043550916;-0.06470551;-0.03446438;0.029773818;0.51415;0.26610687;0.32889014;1.2710812;0.537621;0.041544832;-0.54948586;-0.12541392;0.031039344;0.0259078;0.06511172;0.036235698;0.017641246;-0.55626184;-0.13002378;0.8434278;0.025844717;0.01357584;-0.06270147;-0.055349525;0.25225642;0.03481216;0.095172346;-0.028914073;0.2430625;-0.05270714;-0.13839765;0.46889415;0.117487006;0.0630854;1.0763329;0.044783868;0.077789195;0.026619332;0.07310324;-0.5008278;1.5028973;-0.0012429465;0.32147864;-0.025220597;0.06110374;0.15139332;0.04776831;0.17428078;-0.013865004;-0.012576952;-0.48946857;-0.04658131;-0.0027504726;-0.15229465;0.035683174;-0.021018576;-0.017535586;-0.14504303;-0.5412987;0.16009715;-0.12569371;0.088455774;0.5317516;0.07195027;0.04531134;-0.06959489;0.058796886;1.5347718;0.00019700383;0.028341843;-2.7434008;0.09923345;0.036834948;-0.26554647;0.074906774;-0.10884486;-0.2870932;-1.0082462;-0.0446398;-0.042401053;-0.13042168;0.08064439;-0.018983822;0.022038886;0.08931162;-0.06985963;0.085921586;-0.064846836;-0.023596168;0.11937927;0.69793075;0.21096916;0.014101471;-0.036716003;0.21484444;1.4702259;0.34570694;-0.72602177;-0.023105074;0.12625487;0.014360786;-0.10022864;1.263282;-2.2661033;-0.04432988;0.0309591;0.107823595;-0.054797154;-0.05508663;-0.0067419633;-0.26671603;-0.42709133;-0.24660563;-0.018297195;-0.15227343;0.36431232;-0.093993716;0.026840663;-0.29025432;-0.091428794;0.045628387;-0.06293405;-0.08778824;-0.021588221;0.06673964;-0.22666526;-0.07670509;0.043466277;0.7157002;-0.018892316;-0.035108145;-0.10246417;0.06225953;0.12170239;-0.015790872;-0.665599;0.052777197;-0.079804376;-0.11070533;-0.12872024;0.032112714;-0.19262604;0.00029790174;-0.04041962;0.019659853;-0.17559686;0.055624392;-0.42441013;0.013571551;-0.516548;-0.04563991;-0.013722836;0.021665882;-0.49666056;-0.49740288;0.5523671;0.056978446;0.07121575;-0.09006763;0.006840496;0.23912555;-0.020959206;-0.07102493;-1.1089512;0.1530911;0.005298454;-0.0493219;0.5529236;-0.0154849505;0.17170131;0.107370876;-0.10399845;0.042789068;-0.06675054;0.0040415693;0.07514864;0.20003422;-0.091848165;0.23310606;-0.124873385;-0.38851687;0.08401356;-0.035768956;-0.97622836;0.045977347;-0.035011064;0.4128466;0.13111192;-0.2368266;-0.1406976;-1.0652897;-0.01654466;-0.026592089;0.004354923;0.025334556;0.041603666;-0.06352271;-0.0718156;-0.70908064;-0.13847177;-0.063215554;0.26506904;0.14824024;0.04303489;-1.7206135;-1.6702824;-0.010560429;-0.00039108185;0.15281376;-0.2101439;-0.821279;-0.06737741;-0.07904874;0.32994667;0.04882188;0.025968188;-0.036319286;-0.046734873;-0.10013542;-0.03785908;-0.07459744;-0.019003656;0.0660288;0.019304413;-0.07420352;0.07072516;0.11210086;0.5659624;-0.53137577;-0.02124035;0.06667642;-0.21847932;0.12186372;-1.8822608;-0.11699456;0.38191527;0.030951282;0.74924314;-0.121446736;-0.0668848;-0.08897562;0.020711081;-0.39274603;0.0012044099;-0.059551753;-0.011735757;0.042021804;1.3361877;0.025033694;0.06434571;-0.038906254;0.10841943;0.3744929;-1.7913759;0.31801498;-0.21785249;-0.1460158;-0.2321976;-0.017458394;-0.03205914;0.09202009;0.052763607;0.12928985;-0.71551806;-0.105488844;-1.2267307;-0.07494296;0.06289892;-0.48028204;0.08549428;0.20600767;-0.34268662;0.0458072;-0.14885093;-0.19439152;-0.09705654;-0.8069429;-0.02523122;0.049176365;-0.06797529;0.043347947;0.09347758;-0.05998572;0.011798559;1.0201402;0.0112807825;0.32338506;0.18583721;0.8234278;0.031818867;2.011346;0.42079526;0.004123492;-0.02430547;-0.35233054;-0.54821485;0.14252271;-0.13436049;-0.7875147;-0.059243906;-0.55779946;0.17515539;-0.04938097;-0.09858038;-0.0978028;0.027761882;-0.0019712471;-0.37176263;-0.66222095;0.27617806;-0.011512367;-0.2637567;0.27897996;-0.28829724;0.10960213;0.029418545;0.12078925;0.21071292;0.10472467;0.020556044;0.8683215;0.043753166;-0.057112295;0.042724144;-0.057378594;-0.1316473;0.0034734297;-0.1071174;-0.74528986;0.021110294;-0.017174864;0.17293225;-0.13463324;-0.57334507;0.30838573;0.06380911;-0.06799102;-0.051578414;-0.15695965;-0.27607527;0.09372689;-0.007301717;0.11408176;0.027141418;-0.0047309;-0.005707763;-0.1229858;-0.06953773;0.12297896;-0.009852265;-0.02389188;-0.08412218;-0.11657464;0.13953303;-0.12778026;-0.5972788;-0.056187835;-0.2700153;-0.011271687;-0.105790764;1.6063699;0.7270279;-0.6152007;-0.15200187;-2.4612558;0.0027349635;0.02801943;-0.8411544;-0.08328867;0.4262224;-0.030587278;-0.67015743;0.15979151;-0.099979796;-0.39338037;-0.0328499;0.57935303;-0.3531344;0.11796991;0.11006947;0.01814489;-0.05040612;0.11481873;0.6311586;-0.08184428;-0.03261908;0.5657815;0.007653846;-0.0921264;1.0491614;0.018389082;-0.5085824;-0.1271305;-0.08741749;-0.110729806;-0.020059813;-0.022939665;0.07317467;-0.082761236;-0.061760966;-0.26206145;0.022694727;1.3232021;-0.07410004;0.8921001;0.23087157;-0.1135893;-0.040932093;-0.054746468;-0.12845993;-0.59476155;0.074262306;-0.027805762;-0.35877815;-0.1054557;0.5217171;0.03992498;0.0039226916;0.049575765;-0.22430152;0.060069636;0.09853572;-0.05350736;1.4941887;-0.035232387;-0.12376897;-0.116668;-0.02106667;1.0723876;-0.049537264;-0.036168452;0.12910394;-0.06676584;0.041634027;-0.14486873;-0.034764543;0.06205912;-0.00091365573;-0.092722915;-1.5873446;-0.20461611;0.016688969;-0.2840262;-0.047293797;0.06794477;0.15434115;0.06559962;0.1448301;-0.3524682;-0.026684264;0.036802087;0.13813755;-0.27926257;0.0011436376;0.003736824;0.052805807;-0.22122547;-0.38637668;0.18609108;-1.1571333;-0.08063819;-0.08301929;-0.11039509;0.05263056;-0.016013067;-0.42093903;-0.07358276;-0.0346167;-0.05643227;0.055749312;0.018611422;-0.2039545;-0.08838637;-0.11922545;-0.030930934;-0.22641587;-0.086052075;-0.03401115;0.028001595;0.0029139812;0.60802746;0.01218131;-0.052093245;-0.11235975;-0.019894848;0.02945015;0.20293146;0.0121597815;-0.11565771;-1.7160081;-0.13111365;-0.0039480366;0.29686096;0.2076872;0.027152069;0.29223767;0.13251418;0.015008198;0.04259705;0.12906782;-0.034410294;-0.1120172;-0.048605107;1.0521858;0.08013535;0.003117351;0.030555751;-0.026900029;-0.033520307;0.022776358;-0.016697783;-0.046496052;-1.5339886;-0.05001081;0.03916723;0.0011223874;0.27574632;0.071290985;-0.00938169;0.3741636;-0.24884027;0.11527568;0.013534893;-0.1660149;0.9023027;0.1468623;0.013209571;0.5163213;-0.36317638;0.16434704;0.06208018;0.034518067;-0.027604893
-0.051047195;-0.27284878;0.041861836;-0.21599495;0.12988299;-0.06732175;0.8123371;-0.2048885;0.16110425;0.044538688;0.007859028;-0.45925447;-0.07216995;0.027895788;0.00018245583;-0.19467963;-0.4163839;0.14182486;0.031592034;0.028086718;0.012347955;0.24478693;0.17322284;-0.02081749;0.05598843;-0.42250994;-0.11363546;-0.038079422;0.77152467;-0.25060648;-0.019850051;-0.82668334;0.037303623;0.09289912;-0.09629995;-0.07258011;-0.795498;0.44425136;-0.08349258;0.05431811;-0.09270985;0.82188976;-1.3314948;-0.06786169;-1.0477047;0.040399212;0.014931019;-0.9259769;-0.59429437;-0.92895585;-1.4516628;-0.19696873;-0.06842612;0.68334687;-0.34569207;-0.14631799;-0.0198425;-0.030364748;0.03944433;0.027167298;0.7345307;0.05944669;-2.1309307;0.04605125;0.050751906;-0.057159375;0.075273715;-0.12504558;0.10028647;-0.10303669;0.21251827;-0.599378;-0.00054324715;0.03219978;0.4590878;-0.004367653;-0.06550436;-1.1697136;-0.88163716;-0.10054534;-0.082895644;-0.034102835;0.3204991;-0.2136131;-0.058247812;-0.15227634;0.079208106;0.0031403054;-0.010064543;-0.057713546;-0.0036438322;0.029517332;0.0056840936;-0.14675756;-0.047940753;0.08736514;-0.1989054;-0.16949637;-0.015365079;-0.04449656;-0.07496301;-0.59106207;0.6437027;0.07895944;-0.044259544;0.13360198;-0.011740132;-0.08699842;-0.037954696;0.0028408587;-0.41267434;-0.061672267;-0.053963244;-0.9695829;0.023431286;0.07761286;-0.25357378;-0.049987126;0.031175373;-0.44843057;-1.0149122;0.036318332;0.04545894;0.018594632;0.03605547;-0.031649366;-0.027991321;-0.14043698;-0.09554589;0.043591667;-0.05712752;0.033069804;-0.030641496;0.63502145;-0.40745252;-0.07198576;0.081928514;0.21981359;-0.82122725;-1.0136607;0.24639307;-0.035782974;0.019946428;-0.037000466;0.045809016;0.5689138;-1.5292865;-0.030720055;-0.04484571;0.056565605;0.06632129;-0.0060619614;-0.06851762;-0.8471802;0.031859968;-0.014353148;-0.419369;0.54390985;-0.32481414;0.068711326;-0.010881582;-0.029811708;-0.3004841;-0.10668562;-0.026523238;0.044783432;0.004260382;0.053814694;-0.4199349;0.038066547;0.029732896;0.26652306;-0.09570315;-0.07943527;0.0860851;-0.06458539;-0.12269732;-0.08930382;-0.17313382;-0.011392941;-0.054812483;0.012424043;0.031627983;-0.03784856;-0.19441313;-0.06268863;0.051706966;1.6554217;0.08097012;-0.019072877;-0.48324054;-0.05544434;-0.4375934;-0.0719679;0.04452134;-0.023445912;-0.060150858;-0.2959312;0.45602316;-0.32895043;-0.034138035;-0.7749181;-0.07123533;-0.42495352;0.04665609;0.08800402;0.061641514;-0.013366233;-0.08769087;-0.43380195;-0.10546995;-0.004942481;-0.008207895;-0.084596865;-0.052401256;-0.07978621;0.057760227;-0.006426675;-0.035685364;0.39323518;-0.069236405;0.12496311;-0.035274066;0.022619631;-0.030551761;-0.123575784;-0.570542;-0.041308235;-1.0343713;0.60886717;0.039116394;0.47298855;0.158121;1.2252756;-0.03599346;-0.016222123;-0.08852555;-0.06284752;-0.004417629;0.006902414;-0.007311889;-0.98600215;0.8129277;0.32925665;0.14601578;0.03851416;-0.07265327;0.82337135;1.3311584;-0.08775404;-0.06777882;-0.025403313;-0.29810014;0.41716897;0.5129452;0.26841503;0.77940536;0.07011478;0.06057094;0.012539128;-0.05269466;-0.026986403;-0.03927031;0.00057056505;0.038496684;0.057093117;0.014523265;0.05636819;0.06268253;-0.058772855;-0.08663759;-0.30071294;0.08450685;-0.038450304;-0.011424134;0.03591669;1.0331461;-0.049380425;-0.17561127;-0.046073366;-0.27669036;0.09278539;-0.02359013;-1.1375065;0.013976642;-0.27681464;-0.03798842;0.07497769;-0.036512025;-0.01013014;-2.2554471;-0.04055446;0.034345392;0.06406035;0.2416466;-1.3159279;-1.0695689;0.27029026;-0.26392478;-0.05384657;-0.28526393;0.017037824;-0.0050011426;-0.34060422;-0.008737145;-0.058837168;-0.10400099;0.075590886;-1.4267206;0.009909822;0.16494444;-0.3841471;-0.024916297;0.12755656;-0.5213154;-0.025795167;0.21968819;-0.9468692;0.047576606;1.1723953;-0.0075670998;-0.036647376;-0.07136976;-0.077739395;-0.063108094;0.02533519;-0.07957717;-0.77275366;0.005199593;0.25006604;-0.79244274;0.21020126;-0.0822381;-0.15225284;0.29398823;-0.045720782;-0.04741519;-0.244857;0.54698586;-0.21259978;0.23716342;-1.0897849;0.054134045;0.98260194;-0.050216403;-0.016327802;0.062573045;0.13728718;-0.07800509;-0.08606951;1.1563201;0.07330347;0.3369012;0.009807595;-0.45568162;0.09514631;-0.27677664;-0.09883799;-0.011377085;0.2503339;0.43831944;-1.2988179;-0.07702215;0.5635522;-0.057138573;-0.055201903;-0.058146305;-0.010663806;0.06440913;0.0012581814;-0.05107578;0.6690354;-0.021519447;0.0072927233;-0.020227982;-0.39253613;-0.48259687;0.35227352;0.0778359;0.04647533;0.017945293;-0.03220114;-0.32041547;-0.25636476;-0.037530143;-0.82793856;-0.03825344;0.043876357;0.00010853428;-0.02832253;-0.26615834;-0.04866308;0.054864738;-0.05600963;-0.114128746;-1.2069565;-0.03777689;0.00055932644;-0.078125596;0.0034993032;-0.12744223;0.008491728;-0.04554039;0.20331216;-0.36921263;0.3463347;-0.21629445;0.083528794;0.06881673;-0.030194463;0.42830533;0.038148433;0.40607834;-0.09601852;-0.19223213;-0.26787698;-0.091151975;0.07278838;0.051583;-0.2717487;-0.066219464;-0.033841554;-0.061315604;0.007500096;-0.051027797;0.108266406;-0.025515134;-0.012579087;-0.019228453;-0.28123903;-0.29123205;-0.280196;-0.5436083;-0.053530026;-0.38097692;-0.06694042;-0.021578928;0.042976823;0.043007888;0.036533643;-1.5343004;-0.11940702;-0.036958523;-0.16617769;-0.099347234;0.47884265;0.38776052;0.7181987;-0.7131101;-0.0019881616;-0.023425147;-0.08037789;-0.0597136;-0.48108986;-0.8521515;-0.056651752;0.8450784;0.1424083;-0.3020428;0.06647289;-0.06318473;-0.0140925;-0.55411655;0.038198687;0.006568756;-0.054109935;-1.7647847;0.043236345;-0.035928316;-0.15825436;0.010263613;-0.7307873;0.03339517;0.011837659;-0.015426155;0.012797923;-0.052753285;0.02009687;-0.6386294;0.019776568;0.046301067;0.06463234;-0.35569847;-0.5348407;0.079364255;0.3548848;-0.053630825;0.05602129;0.16266187;-0.04456005;0.108665094;-0.29788327;0.010024115;-0.14963529;0.041622434;0.07922904;0.0027947875;-0.01187505;-0.04979553;-0.2838057;-0.67819726;0.09765752;-0.23538685;0.0019446395;-0.033769052;-0.09109435;0.064263985;-0.0023813564;-1.2432617;-0.046227463;-0.03932123;-0.012005757;-0.02250373;-0.030730749;-1.2247068;-0.015945066;-0.02193898;-0.0639889;0.0056449566;-0.48073173;-0.07492022;-0.049440585;-0.0063982448;-1.2170122;0.0657076;0.025644444;0.039587043;-0.03161355;-0.04102118;-0.45478046;0.041456714;-0.008242986;-0.9987003;0.2040547;-0.09836697;0.07928086;0.041289825;-0.02047252;0.0024222333;0.51568115;-0.034204215;0.038051937;0.100467466;0.017651688;-0.46967855;-0.03332063;-0.781253;-0.03633588;-0.10078195;0.07033683;-0.043290604;0.041694824;-0.15906379;-0.27722183;0.02164764;-1.3114005;-0.037054677;0.012354991;-0.56823575;0.35122892;-0.032149807;-0.12334491;-0.36158794;-0.23637691;-0.10240033;-0.023967283;-0.30349073;-0.004039577;-0.101995446;-0.07309637;-0.72468597;-0.061541215;0.45438445;-0.053848177;0.04407811;0.040332846
-0.09669833;-0.20321739;0.04625694;-1.212853;0.023403801;0.09172198;-0.47729763;-0.28230715;-0.0069861235;-0.052873075;-0.012048571;-0.4951792;-0.07028598;-0.108029395;0.060608663;0.59467405;0.37225297;-0.43229455;-0.024116358;-0.114544965;0.045001753;-0.061382614;0.3707676;0.16502799;-0.16368516;-0.500177;0.21373324;0.01826404;0.29043323;-0.30332;-0.096329376;-0.48194703;-0.07524394;-0.57414293;-0.085083656;0.1297921;-1.4863538;0.16249141;-0.10061517;-0.040433377;0.2019711;-0.5545498;-0.35936493;-0.058707874;-0.7187563;0.03179803;0.036559407;-0.675681;-0.10247194;0.058859985;-0.43641722;-0.31905285;0.1207829;-0.23320597;-0.26437306;0.019606201;-0.012301859;0.076809704;-0.02642674;0.021742051;0.07182721;-0.031982314;-0.9378091;0.0069935024;-0.019783538;-0.15607938;0.015261849;0.42857072;-0.027402496;0.06524478;-0.45131472;0.38579762;-0.14479496;0.13639663;-0.5152946;0.13997176;0.01768628;-0.44918078;0.6317595;0.11270721;0.10733504;0.064791106;-1.0092585;-0.4445292;0.046193685;-0.31612393;0.03165403;0.07733894;0.2336039;-0.0027420516;0.12670603;-0.05352054;-0.073266536;-0.054319456;0.08651314;-0.05959964;-0.49789646;-0.046849083;0.05233089;-0.0044839056;-0.12987125;0.70099515;-0.32176024;-0.065850206;0.121830024;-0.6164127;0.13502926;-0.026615012;-0.1075145;-0.006559652;0.015740508;0.0024322371;0.18242785;-0.32131252;0.08379682;-0.10519175;-0.86885905;-0.008815526;-0.04807021;0.41304642;-1.7376343;0.034087557;0.085306;-0.07192921;0.28601342;-0.006333022;-0.083699636;0.02880697;-0.18737215;0.037059154;-0.10724504;-0.06697644;-0.13159843;0.99467176;-0.56660336;-0.072344884;-0.07832714;0.005549699;-0.06503898;-0.72889227;-0.4623469;0.08134106;-0.028174745;-0.09712069;-0.04739058;0.8088196;-0.8389276;-0.009219331;-0.034178875;0.06504933;-0.03925817;-0.0217764;0.07361663;-0.047007818;0.69610333;0.36937544;-1.0488139;0.11131846;-0.19142132;0.058105275;0.044838615;0.38501516;0.19786707;0.0025944314;-0.08955267;0.008122716;-0.06734324;0.16353689;-0.39326426;-0.0291026;0.05102659;-0.77077436;0.15310244;0.09039903;-0.04125753;-0.03465808;0.14591673;-0.109343685;-0.154005;-0.09206564;0.10874193;-0.14117485;-0.0141045395;0.1316799;-0.24203752;0.06311675;-0.11171729;0.014525046;-0.040771354;0.104147844;0.31604287;-0.030965287;0.08833336;-0.018878149;-0.08013162;-0.0897441;-0.55390114;-1.5316575;0.2327328;-0.2387251;0.14354116;-1.8392019;-0.07444403;-0.49035573;0.08059727;-0.016076183;-0.77501816;-0.12438277;0.05411869;0.20133041;0.13958836;0.010978273;0.2003469;-0.4735548;0.106942624;-0.06349315;0.02728345;0.0070538768;0.04266197;-0.2776473;-0.012163881;0.21983802;0.17637943;0.243487;0.11349584;0.07471894;-0.695094;0.3437058;-0.8230677;1.8356589;-0.19503458;-0.6889414;-0.35217276;0.18732096;-0.010332437;-0.01731158;0.05517652;-0.04697129;-0.03488492;-0.034555025;0.058340847;-0.23479348;0.4894635;0.7195653;0.2757748;0.17283086;0.043413553;-0.032987542;0.8391981;0.109307885;0.00792498;0.15868597;-0.32855418;0.39567634;-0.7687351;-0.004500907;-0.1920116;0.046004597;-0.037450317;0.1318788;-0.08953898;-0.08175624;-0.00078178354;-0.009980403;-0.032967508;0.25850257;-0.0034224305;-0.022233298;-0.08152327;0.11906081;0.28202525;0.2363071;-0.017206792;0.08349728;0.3467632;0.042642545;0.928961;-0.14194955;0.21607287;0.022553995;1.1399617;0.13325845;0.013992338;0.2909208;-0.01678541;0.17515145;0.023181733;-0.13097575;-0.13711315;0.0032956568;-1.5242823;0.015665568;0.03868579;0.09842278;-0.07225767;0.13120365;-0.37747237;0.31198594;0.42790624;-0.25031456;-0.37537363;-0.09429941;0.08318012;0.15207006;0.11074558;0.14410742;0.4559992;-0.010907907;-0.2790789;0.0007414014;-0.0701213;0.48871872;0.069057256;-0.57922167;-0.7573375;0.0069772745;-0.3438868;0.12558502;0.016350867;-0.09266322;-0.074299656;0.047996566;-0.07213169;-0.01709469;0.18785857;-0.0908013;0.08473373;0.15795858;0.060806755;0.0353461;-0.83396834;-0.11049597;0.03870415;-1.2303066;-0.8684601;0.055210944;0.03585659;-0.11498952;0.6294922;-0.14675741;0.24602191;-0.27548787;-0.1241383;0.44454488;-0.040770177;-0.09603358;-0.09605776;-0.061336152;0.020061236;0.11283376;1.4527857;0.6466873;0.17468685;-0.025013922;-0.124587655;0.2869452;-0.3370022;0.014850184;-0.028686544;-0.33026347;-0.07242853;0.036684636;-0.07283148;-0.30673102;-0.05111053;0.025730997;0.047168765;-0.05485415;-0.009517076;0.0724359;0.03732247;0.0021299976;0.12749758;0.022082757;-0.06827009;-0.850987;0.16172211;0.34443766;0.07500428;-0.017852671;-0.12383613;-0.077761084;-0.12141455;-0.041257758;0.068387024;-0.16839437;-0.12635908;0.1495486;0.07062596;-0.012982001;0.46858877;-0.014866208;0.0033534674;0.056049686;-0.063349195;-0.55453336;0.047778644;-0.04548489;0.020524379;-0.07994861;-0.13507901;0.057443295;-0.33079;-0.2190063;-0.16248165;-0.804136;-0.26514694;-0.44721124;0.059550643;-0.05455701;0.27835393;-0.06945202;-0.58526;0.03912247;-1.6263893;0.0632088;0.109594636;0.22027506;-0.062810905;0.13852893;0.1243788;0.059312973;0.07778966;0.11586544;0.0354704;0.10843607;-0.9939303;-0.05226038;-0.038594324;-0.4893229;-0.11305249;0.058213066;-1.5507056;0.15361893;0.18255441;-0.22876477;-0.04579156;-0.07002613;0.07602775;-0.015998388;-0.3708393;-0.24910395;-0.052227985;-0.27757487;-0.020315103;0.015565914;0.5858193;-0.8068762;-1.3237364;0.015148049;-0.042421557;-0.02495814;-0.15310551;-0.5329021;0.37778813;-0.029105958;0.5856871;0.33908325;-1.2750641;0.05960433;-0.056739658;-0.012327964;-0.5873539;-0.10192279;0.28759953;0.094743304;-0.5587293;0.03314632;-0.12241785;-0.088220485;-0.07334325;-0.020178845;-0.049010027;0.029238695;0.13734855;0.01859544;-0.12296314;-0.028259875;-0.3274729;-0.01613486;-0.080147326;-0.08762536;-0.15897349;-0.6333064;-0.030875307;0.9342535;0.028371856;-0.02070071;0.30704534;0.15414047;0.15299153;-0.35173526;0.10723864;0.08991335;0.26937848;-0.9015446;-0.072097085;-0.08723532;-0.064119995;0.4798596;-0.7825962;0.19375919;-0.08795857;-0.14963163;0.0026072215;-0.020867078;0.07202488;-0.08720514;0.58812404;-0.10986854;-0.040529735;-0.049314775;-0.06993951;-0.025213622;-0.5840818;-0.15294091;-0.101941824;-0.038561434;-0.107689574;-0.06662784;-0.06889921;0.046474293;-0.057845164;-0.38558295;-0.16932236;-0.07345118;-0.042516608;0.001989254;0.03404257;0.29804814;-0.0150837395;0.031390708;-0.29431117;0.035977956;-0.13907221;0.3079958;0.23513877;-0.07043844;0.32928935;0.74048424;-0.03534002;0.13626052;0.19448443;-0.039797526;-0.2914095;-0.0026179396;-0.37792468;-0.014410432;0.05929885;-0.06578774;0.046012677;-0.019205244;-0.29666793;-0.28401864;-0.021917522;0.38092723;0.0030811303;0.13878432;-0.009128273;0.31338334;-0.023650184;0.1161147;-0.72064644;-0.21634737;0.025254834;0.10148158;-0.18304239;-0.20032741;0.21672718;-0.044242486;-0.53529596;-0.44413432;-1.3903306;-0.089897625;0.07786224;0.05249591
0.04811556;-0.3099051;-0.032890327;-0.9321716;-0.11324272;0.14723666;1.05533;0.25866225;0.49109727;-0.019239645;0.04047135;-0.27889383;-0.033822738;0.040562447;-0.03024163;0.28384888;0.25575197;-0.5544635;0.06837435;-0.18028228;0.0021206269;-0.21872449;0.09966858;0.30666262;-0.14873375;-0.26770937;0.22942285;-0.024329018;-0.09963068;-0.46808827;-0.009035061;-0.28366444;0.042268444;0.2355214;0.086136825;0.32963088;-0.37853837;-0.015496395;0.018746626;-0.084508635;0.24090283;-0.0046207993;-0.70009655;-0.07993352;-1.4276224;0.0064473925;-0.0005528066;0.11573538;-0.24546558;-1.509849;-0.6119061;-0.585062;0.035510253;-0.48677266;0.70602626;0.11702395;0.04065794;-0.033144727;-0.011187098;-0.017456029;-0.33621523;-0.12066405;-0.61440796;0.059845127;-0.01529209;-0.21134456;0.034292366;0.1726908;-0.055751476;0.15236439;-0.657018;-1.1324388;-0.08020465;0.46195456;0.22377378;0.098251835;0.072057925;-0.5503731;-0.8196693;0.09703242;0.25472546;0.092266575;1.0252513;0.047773425;-0.065105766;-0.15358734;0.046043474;0.0036693944;0.49105072;-0.023465987;0.26589516;0.009235882;0.023291253;-0.015355322;0.05975415;-0.036794413;-0.44617632;0.063717246;0.0693448;-0.100560635;0.002083227;0.5824674;-0.018490447;-0.045803264;0.31301472;-1.5619242;0.115220845;-0.061986815;0.020152867;0.10293845;0.8002851;0.023721822;0.18296015;0.51436853;0.037996452;0.052697215;-0.6376886;0.03624658;-0.056843422;-0.501933;-1.1908455;-0.026223473;-0.060026225;-0.13624687;0.3951837;-0.0037903092;0.05716467;0.098595664;-0.030464185;0.04929694;0.017887628;-0.15767267;0.07108183;0.26661617;0.067013495;-0.1074834;0.011299096;0.08596588;-0.35137185;-0.9969727;-0.72586066;0.0612949;0.31660324;-0.03997221;-0.098254584;0.8175656;-0.15510325;-0.018681211;-0.10917495;0.055181928;-0.01368656;0.059161156;-0.039935436;-0.9603866;0.26036268;0.66094154;-0.6220371;0.016700177;0.06952005;0.021993978;0.006079785;-0.0394773;0.111315295;0.0013890218;-0.10807602;0.0559426;-0.10421567;0.07946679;-0.44630274;-0.05487191;0.06586413;1.829535;0.11562303;0.114143096;0.028669873;-0.0069804206;0.092760116;0.014233584;-0.92309296;0.054796573;-0.08626768;-0.10821238;-0.12415197;-0.035393033;-0.43931627;-0.02722292;-0.0991625;1.5433966;0.08829397;0.11721157;-0.6461772;-0.05292836;-1.0114908;-0.09540675;0.023883523;-0.022088517;-0.6910702;0.59114146;0.47079352;0.1445077;0.24512963;0.2707917;-0.09303412;0.1773764;0.04671751;0.04019882;0.10598122;0.07193979;0.16726233;-0.14037722;0.13318919;0.007695353;0.38750014;-0.6922143;0.08024233;-0.067513466;-0.07207348;-0.044168558;0.13364969;0.21109888;-0.13858671;0.58381414;-0.0060961526;-0.116376296;0.16850753;0.043711245;-1.5128956;0.53634125;-0.2277776;1.1177558;0.021916656;-1.5454886;-0.4210049;-0.18617198;-0.009797538;-0.008381868;0.14949694;0.0014090741;0.037578072;-0.03447641;-0.015649408;0.48770556;0.33505037;-0.01951169;0.5011247;0.6313238;0.029500436;-0.08406971;-0.08314698;0.11458318;0.0041064913;0.122118875;-0.71304053;-0.48317292;-0.07527285;0.06675969;-0.45999134;0.122808106;-0.08025076;0.11891592;0.04121479;-0.06384804;0.086408295;0.022915319;-0.02888693;0.31580645;0.039236307;-0.040470812;0.031476576;-0.003604952;-0.34053838;0.09163162;0.021141816;0.08601873;0.23251356;0.12106343;-0.34759456;-0.31815082;-0.07953177;0.047543876;-0.12575734;-0.13779026;-0.035334278;-1.5069621;-0.05321918;-0.047809523;-0.07639495;-0.09979;-0.0039498056;0.111224554;-0.7695767;0.05880979;0.076428786;0.044241566;-0.46286917;-0.4311037;0.7487155;0.37904558;0.10705259;0.12586689;-0.40587538;0.014772677;0.10685143;-0.43137866;-0.6152768;0.05070072;0.1873008;-0.024498394;-0.92061967;-0.09233069;0.052077148;0.24937287;0.07358576;-0.23785874;0.046606284;-0.010555138;-0.63899493;-0.61470324;0.020498488;0.2082135;0.05657666;0.0094997445;0.04948682;0.034157;0.13010563;-0.1825135;-0.021543212;-0.3467622;-0.05002998;-0.010235322;-0.4341091;-0.12118872;0.013719369;-0.5744214;0.25116247;0.069183424;0.007949094;-0.58377874;0.012228151;0.15330014;0.22798435;-3.4147415;-0.29694694;1.1883484;0.15289785;-0.09267183;-0.15321317;-0.081355296;-0.048679926;-0.007424616;0.801143;0.40867782;0.10447087;-0.036614824;-2.3300738;0.61523926;-0.410248;0.12239189;-0.10543789;-0.7589009;0.25438127;0.77813196;-0.060228582;-1.1759108;-0.057681754;0.051478002;0.07712733;0.03868136;-0.11363416;0.0591324;0.03050705;-0.88833994;0.08235867;-0.017269628;0.014893695;0.7050205;0.6130053;-0.0011057347;0.07184323;-0.05280063;0.11456689;-0.08167638;-0.42690685;0.30114678;-0.016765678;-0.7233913;-0.09681072;0.0034109056;-0.057502676;-0.105580315;-0.314905;0.013383976;0.0009158314;-0.057979677;-0.13691112;-1.0501171;0.04526526;-0.12491515;-0.5985987;-0.086505584;-0.41357407;0.051298596;-0.4488517;-0.11650439;0.23035675;-1.0009556;-0.36577323;0.43615776;-0.012188185;-0.035597738;-0.2574697;-0.06468214;-1.8318484;0.17265852;-0.94326824;-0.20175304;0.06816217;-1.2735672;0.020570865;0.17409863;-0.07127266;0.10202988;-0.042573754;0.12710737;0.064270794;0.05449483;-1.8301935;-0.18653949;-0.057363775;-1.1815046;0.06463351;0.14273183;0.35534188;0.1440426;-0.14685768;-0.24057806;0.06309518;-0.035828877;0.0648007;0.015059865;0.056028757;-0.27279305;-0.1823446;-0.2726852;-0.42097926;0.17602637;0.21626845;-0.6401695;-0.29942998;-0.058932785;0.039300837;0.027045703;-0.0046612746;-0.79705983;-1.7232652;-0.07819841;0.27469915;0.23216143;0.6675051;0.08598958;-0.054191142;-0.05085921;-0.091925025;-0.030875135;0.40767702;9.076434e-05;0.3347807;0.0034844163;-0.0884664;-0.119854145;0.006568384;0.18648246;-0.0045038774;0.0083471555;0.13162254;0.026506243;-0.03907366;-0.07890047;-0.26369777;-0.06679236;0.0050334074;-0.06825324;-1.2194105;-0.14748922;-0.040052783;-0.07079554;-0.099853754;-0.07840412;0.6042826;0.06984373;0.4139642;-0.440809;0.028181441;0.120747864;0.58298564;-0.35217202;0.03235704;-0.16720392;0.03989354;0.3536587;-0.32813564;-0.026376074;-0.8008344;-0.13176525;0.02799776;0.051527906;-0.032977384;-0.026531758;-0.5109209;-0.024055878;-0.03758897;0.044470545;-0.06888182;-0.10433941;-1.0947646;-0.13460629;-0.15575634;-0.04358822;-0.048111215;-0.123060815;0.026864529;-0.04092096;0.04900933;-0.34413752;-0.032310344;-0.090031266;0.012836262;0.15467095;-0.049143594;0.1937611;-0.020424869;-0.117965825;-0.49992844;-0.14399482;-0.1119471;0.6690738;0.3611134;-0.09683577;2.278278;1.6532125;0.10455746;0.003339864;0.4470987;0.04844891;-0.10494518;0.0256213;-0.39641237;0.051709544;0.15751824;-0.06611512;-0.08686627;-0.07094211;-0.110601395;0.034511514;-0.008482165;1.50423;-0.06463426;0.01763538;0.097004436;0.33022928;0.060823143;0.08263939;-0.9359499;-0.29035684;0.119259775;0.10561812;-0.5848218;0.51624393;0.16303195;-0.04694871;-0.47954446;-0.22659233;-0.8626413;-0.054072328;0.044084076;-0.056451265
0.075663514;-0.4038085;0.053983916;-0.40722302;-0.092742406;0.2902503;0.20488188;0.11838496;0.029528566;-0.0776438;0.033286676;-0.34562966;-0.054923482;-0.040346485;-0.0032319252;0.19931473;-0.35788152;-0.27857795;-0.09272268;-0.13735823;0.07769202;0.046265487;0.24615794;0.5047116;-0.06771436;0.8835957;0.33314815;-0.005931388;-0.32255152;-0.5884779;-0.115691796;0.750501;-0.008312888;1.2710469;-0.01830652;0.3695467;0.020237634;1.062737;-0.076957345;0.07202259;0.3909021;-0.17780748;0.13313827;-0.062225778;-0.43180674;-0.08896786;0.0017802373;-0.540453;-0.046917137;-0.612914;0.3136955;-0.13086288;-0.039672703;-2.002318;1.4570967;0.22246529;-0.050403584;-0.025806416;0.04943915;-0.016771605;-0.3894428;0.0011081841;0.523394;-0.123397;0.07308988;-0.24389039;0.010972157;0.66878563;-0.019790139;0.38800827;-0.27907276;0.15967649;-0.100054175;-0.16982113;-0.07100945;0.09682232;0.055800207;-0.39053893;0.28693163;0.31166413;0.2293797;0.001164813;0.5045225;0.3369748;-0.011896414;-0.09657922;0.16450603;-0.010535708;0.6345571;-0.06711553;0.46817783;-0.052786663;-0.015847009;-0.9424445;-0.08455215;-0.040400855;-0.41712233;0.070389375;0.24080023;0.122682564;0.031256754;1.2952673;-0.07001034;-0.70127124;0.45194647;-0.26937807;0.15886979;0.029636169;-0.10249095;-0.04783992;0.09642955;0.00067302486;0.1757179;0.23338698;0.07865224;0.039880082;0.37463996;0.051792033;-0.037583217;-1.3767728;-0.38837233;-0.016902009;-0.014766619;-0.17344816;0.5258275;0.0454387;0.036220107;0.22432272;0.043150164;0.12256903;-0.064183004;0.010731834;-0.32153177;0.42395228;-0.33255884;-0.08108336;-0.013863548;0.005987478;-0.557476;-0.16075721;0.810589;0.08545195;0.3310544;-0.06419976;-0.103895865;-0.12187734;0.05985336;-0.1004128;0.024348686;0.03228195;-0.012066761;-0.0036968135;-0.08885651;-0.033855133;-0.0067634946;0.043279294;-0.356705;-0.31643692;0.313455;-0.073961705;-0.0394612;0.10291153;-0.35454243;0.119119115;-0.086624004;-0.046114802;-0.19438523;-0.0007669884;-0.10241858;-0.0315411;0.040455554;1.8308148;0.02627169;-0.031196933;-0.029109737;-0.00014113905;0.19664234;-0.00081121596;-0.38376412;-0.062296066;-0.04787688;-0.15608929;-0.077067554;-0.0056933146;-0.40557206;-0.0036227058;0.0043848953;1.1881446;-0.06859417;0.08279109;1.2399443;-0.071417406;-0.20445837;-0.12910025;-0.0152016375;0.042393047;-0.67435694;0.74376786;0.3785432;-0.06818865;0.33498624;2.1512322;0.016236246;0.1075198;-0.020461416;-0.02894544;-1.36225;0.12290833;0.1946359;0.036985382;0.40477508;0.035071954;0.5456215;-0.22456348;0.11697851;-0.029621221;-0.023984749;-0.0079302965;-0.009782918;0.2935433;-0.037406802;0.83698475;-0.14268789;0.016756587;0.15437737;0.04466412;0.43118843;0.4693194;-0.31361803;0.36995533;0.19299836;1.3183678;-0.9672485;-0.11441401;-0.03306514;-0.086602405;0.1436265;0.0027975347;-0.037732434;-0.22783697;-0.040091198;1.2897204;-0.19306663;-0.1459849;0.5977687;0.869913;0.061834052;-1.4398597;-1.3729905;0.0392948;-0.013721547;0.11269106;-0.64742047;-0.3936844;-0.32060397;-0.062120683;-0.20117529;0.048650198;0.07798883;0.06308621;-0.060936328;-0.049129374;0.069100834;-0.017911425;-0.06001809;0.45726976;0.044092942;-0.047861382;-0.063979834;0.0047255233;-0.4411688;-0.818578;0.0450623;0.17729469;0.2540989;-0.015006807;0.4008625;-0.31508818;-0.2900615;-0.0363372;0.018845564;-0.12855801;-0.03481459;-0.74547076;-0.03160465;0.18371555;0.009794926;-0.075635;0.017746868;0.0033491969;0.039526004;0.05015461;-0.010659833;0.038656212;-0.23503388;-0.9444676;0.17753506;0.57193595;0.29533315;0.11572899;-0.50942266;-0.07159993;-0.044078767;-0.2018433;-0.014741141;0.086580515;0.06090834;0.04840418;0.9784313;0.04074288;0.06382118;0.66306555;-0.05451644;-0.33848202;0.24880974;-0.00015590199;-0.37618586;-0.30016226;-0.06766044;0.10707919;-0.033228815;0.034114134;0.0024258338;-0.07142736;0.20204195;-0.11322935;-0.059559155;0.72834384;-0.059013702;0.0018472325;-0.46406746;0.05180808;0.010177363;-0.034593504;-0.54431945;0.010709807;-0.049409606;0.3612038;-0.36359087;0.2267158;-0.026726793;-0.99048644;-0.265214;0.16494109;0.20916314;-0.044031054;0.01714827;-0.13843851;0.023976928;-0.013144171;-0.1868495;0.3468667;-0.0074200244;-0.09777483;-1.2855489;0.75545305;-0.49345508;0.17001139;0.0124388365;-1.3373843;0.32553846;1.8758521;-0.08300471;-0.78350127;0.010483413;0.016847804;-0.04989287;0.00972904;-0.06696406;-0.033484954;0.06603527;-0.664377;0.03635669;-0.03552522;0.0842548;1.3430328;-1.030626;-0.42991793;0.04048609;0.03389079;-0.060592826;-0.21173035;-0.8650585;0.3584419;0.050023474;-0.7307904;-0.095023885;0.09137747;0.013825822;-0.030581178;-2.1898172;0.07140225;-0.030816602;0.080918476;-0.21925361;0.7232423;0.2278911;0.053111997;-0.8309538;-0.0012601347;-0.28438658;-0.06382023;-0.6744257;0.68721837;0.44888586;-1.1554495;-0.34647664;-0.750947;-0.03197604;-0.054088388;-1.6381826;-0.003303156;-1.3860039;0.00082145096;0.10733686;-0.46260825;0.051986862;-1.1053872;-0.027914384;0.2294356;-0.0072455043;0.17154917;-0.048382543;0.035698842;0.072749324;-0.03128522;-0.88589835;-0.09466065;-0.0145186735;-0.64095086;-0.085932046;0.6496533;-0.5538778;0.09155727;-1.5533736;-0.2913262;0.057704292;0.043470427;-0.050585903;0.07712691;-0.100811794;-0.2612629;-0.14406675;-0.55560493;-0.5174008;-1.485133;-0.20505224;-1.8824948;0.23713091;-0.016134704;-0.091433406;0.060452983;-0.11315865;-0.7277242;-1.2594746;0.03721994;-0.29795176;-0.11365918;-0.2234783;-0.078488156;-0.05146765;-0.013309967;-0.55530304;-0.09727427;0.65888774;0.006199394;1.9332103;0.031032557;-0.050729178;-0.19510026;0.06839589;0.26898506;-0.07746642;0.023077799;0.09416454;-0.006185947;-0.056102723;0.031065743;0.3208718;0.04714717;0.0070696073;-0.03247359;0.4972421;1.0195413;-0.018012121;-1.229254;-0.012405172;-0.045725472;0.8065863;0.09629842;0.62382716;-0.5796613;0.044747654;0.24000841;0.6572847;-0.7997177;0.0027851693;0.022236628;0.112907015;0.49334702;-0.6104514;0.20406173;-0.82035935;-0.2089012;-0.03938641;-0.07110066;0.053716127;-0.22055368;-0.22132832;0.04096391;-0.17658024;-0.06296806;0.060162656;0.03168117;0.98024094;-0.21210322;-0.22570746;-0.016236259;-0.29116994;0.47672293;-0.0038866543;0.03662279;-0.042813286;-0.506667;-0.016955785;-0.09868077;-0.08312254;0.13785666;0.011720805;0.10105233;0.013748545;0.035663787;1.1248903;-0.11379826;-0.23942457;0.8181037;0.46842498;0.0058118165;2.7178085;0.4154219;0.026999936;-0.008399884;0.7019822;-0.069724545;-0.010568426;0.01001524;-0.1918646;-0.0023408066;0.09128249;-0.06373465;-0.014363473;-0.03804999;-0.032507114;-0.061700698;-0.06922227;1.452493;0.01783022;0.13424176;-0.103994;0.38097104;0.06596006;0.016816689;0.19447099;-0.2587973;0.107064135;0.23179407;-0.26596516;1.2696859;0.24596566;-0.04417259;-0.57555723;-0.26837346;0.09736707;0.006128895;0.040271383;0.040917583
0.021490294;-0.13626167;0.03703017;-0.17321698;0.13005975;-0.32035512;1.9116735;0.32102722;-0.21117467;0.17870733;-0.06115927;0.5498229;-0.026777422;0.019718653;-0.08238613;-0.7216677;-0.8608255;-0.36022502;-0.15704894;0.3116514;0.04287931;-0.033986267;-0.13666208;-0.2501886;0.35124072;-1.1315295;-0.20263927;0.03802132;0.037832495;-0.079863384;0.03661693;0.17757812;0.08454008;1.1991643;0.047321625;-0.35729828;0.4053861;-0.30387032;0.10968342;-0.02894307;-0.27270272;0.56638134;-0.91420096;0.017764354;-1.1140631;0.009921187;0.05196838;0.95165527;-0.9170009;-1.2086327;-0.22994399;0.18156824;-0.20596921;-0.09830661;0.3139729;-0.28211352;-0.025808655;-0.08839026;0.07662329;0.0068828077;0.54311126;0.011792363;0.84022325;-0.060392562;-0.04722397;-0.06478212;0.04143375;0.03214801;-0.120588765;-0.31400314;0.028485758;0.6883934;0.012509346;-0.040676225;-0.047566377;-0.16089495;-0.20895946;0.030729214;0.57133347;-0.31767562;-0.31680042;-0.15560246;0.2161343;1.7142167;0.031558707;0.059250496;-0.26530862;-0.004440767;-0.23919801;0.026595213;-0.3344906;0.039805062;0.017586248;0.6713397;-0.06098462;0.2346115;0.018131057;-0.4068978;-0.29206467;0.10176225;0.16515066;0.06814791;-0.3482295;0.2536506;-0.30971196;-0.21700992;-0.315375;0.031383406;0.062077142;-0.20823638;-0.94972414;-0.012813427;0.6533237;-1.4451058;-0.14299141;0.03284357;-0.039864447;0.010582265;0.23339576;-0.90582275;1.8243097;0.044484362;0.038132817;0.089641675;-0.22712412;0.08897039;-0.07376078;-0.31674302;0.07762878;-0.26275373;0.1371562;0.19949922;0.1301277;-0.21694607;0.342001;0.1504344;0.053660728;-0.1061879;-0.27554116;0.8304408;-0.08961779;-0.2769779;-0.094990075;0.07605766;0.15849829;0.43368015;-0.783599;0.06004795;0.13907282;0.024688756;0.10191262;0.026804503;-0.037286904;-1.4174489;-0.7599391;-0.2592671;-0.08446526;-0.36068437;0.34027112;0.07194119;0.07404875;-0.7412435;0.24809568;-0.24190806;0.18692389;-0.017438097;0.09219488;-0.28833237;-0.075688;-0.07259915;-0.07185609;-0.18909323;-0.18668878;-0.00087581103;0.024274778;-0.049217362;-0.3250837;-0.021725211;-1.3114353;-0.073638536;-0.04773074;-0.06170415;0.29007113;-0.04740843;-0.12806818;-0.066254556;0.08082713;0.013582533;1.1207471;-0.23938516;-0.2574873;0.022809576;-1.4665786;-0.048528887;0.043893583;0.11973003;-0.36579692;0.019342164;0.04033375;-0.061877687;-0.3285788;0.18428273;-0.0074714758;-0.3134245;0.01875792;-0.07345852;-0.4250707;0.044958476;-0.308841;0.09361388;0.3849134;-0.03782123;-0.27620995;-0.38843492;-0.13097806;-0.10354521;0.058728635;0.13041846;-0.11575931;-0.59455895;0.15692958;-0.32971218;-0.04495189;-0.6551685;-0.31871498;-0.15887089;0.49173537;-0.11491754;-1.1096637;0.43492624;-0.24684441;-0.10384855;-0.123038955;-1.1334096;0.021539273;0.1943539;-0.16833936;-0.035899986;-0.0022778702;0.25474462;-0.052550953;0.09739335;0.43767008;-0.014725702;-0.32978025;-0.38550022;-0.0926584;0.55030954;-0.4000077;-0.24860804;-0.08466813;-0.028309992;0.10793503;0.6244838;1.9375191;-0.5754497;-0.5650025;-0.16015354;0.030695457;-0.34437448;-0.003239261;0.0153166475;0.025392111;0.093774274;0.065824494;-0.23675156;-0.15671878;-0.009059287;-0.009500136;-0.1009676;-0.9127415;-0.7387711;0.0015747771;-0.32761386;-0.02862392;0.013966074;-0.3120348;-0.049088947;-0.6005617;0.00550976;0.35170528;-0.13760543;-0.032541838;-0.86934316;-0.0565957;-0.52526903;0.035678353;0.07448297;0.13874528;-0.060595654;-1.2854271;-0.007939338;0.0076429336;-0.048500087;-0.44175118;-0.7452029;0.60279244;0.020045904;-0.09564434;-0.4562391;-0.08707802;0.17311601;-0.08734871;-0.65195274;-0.9742996;-0.17189403;-0.42366916;0.045282595;0.6395056;0.02415018;-0.51303756;-0.09920812;-0.06788939;0.549165;0.46084478;-0.17208058;-0.50588405;0.039699733;-0.008740125;0.62799984;-0.03391029;0.031182986;-0.030868655;-0.050787445;-0.31470114;0.26746893;-0.04781898;1.2971648;0.048558433;0.037740313;0.71629345;-0.2679576;-0.011200307;0.17875372;0.7940938;-0.048077427;0.003228548;-0.8283384;-0.16888136;0.12110566;-0.24413057;-2.424885;0.07997058;2.294338;-0.1451416;0.039279427;0.24696745;0.32107797;0.017161086;-0.09263454;0.05674719;0.17008291;-0.31778625;-0.023734631;-0.93662477;-0.3224006;-0.13308752;-0.2476758;-0.015377668;-0.25233832;0.08133505;1.0160402;0.064913124;-0.3331096;-0.047566652;0.010723347;0.008751881;0.0767956;0.1747622;-0.07062759;0.08755975;-1.3095282;-0.22145534;-0.010876768;-0.02060455;0.047948524;0.9318304;-0.10886052;-0.18338627;0.101469986;-0.1616916;0.1557983;-0.059343275;0.40896225;-0.05525014;0.13456757;0.1700898;-0.120277904;-0.008451959;0.12653929;0.36897236;-0.09260211;0.15858121;0.05307309;-0.003603994;-1.1822759;-0.21032761;0.2006614;0.24686909;0.019001191;-0.23245881;-0.06272893;-0.2541266;1.2356172;-0.8981927;-0.30133846;-0.2102047;-0.27978998;-0.018654201;0.028521366;-0.11304859;0.19293351;-0.70827085;0.18195482;-0.4758147;-1.6321248;-0.0483234;-2.0016785;0.008937552;1.1741564;-0.6634201;-0.14428015;0.012532966;-0.16102576;-0.07447163;-0.08026887;-0.44201073;0.27158707;0.029151546;-2.2530391;0.12119983;0.03457398;1.884432;-0.26543915;0.6106983;-0.052109975;-0.03963925;0.11317203;-0.07954014;0.0430921;0.7098295;-0.08767731;0.360699;-0.06947043;-0.9420995;-0.1638575;-0.13145332;0.40136835;0.21849185;0.06475882;0.07916206;0.04999906;0.105543986;-0.1438072;-0.82810354;0.091210395;-0.055822104;0.017294852;0.8671206;-0.0030708255;-0.0032126564;-0.03572617;-0.6644686;0.05973709;-0.18739071;-0.119343705;1.6944089;0.08124295;0.3107324;0.049560364;0.16630144;-0.3590715;0.033942804;-0.056220666;-0.10769519;0.016475597;-0.009037466;0.14938124;0.08113884;-0.02367638;-0.01646283;0.097098835;-1.1372578;0.3172126;0.17962413;0.8999516;-0.030161988;-0.08364426;-0.4085341;-0.15347059;-0.29679185;-0.1541544;-0.23060331;-0.38710055;-0.3208481;-0.38454497;0.048720997;0.23177926;0.080041096;-0.21443641;-0.9651011;-0.14878106;0.42421427;-0.03630654;0.11509805;0.077561334;0.048620526;-0.0039227097;-1.213474;0.027814953;-0.008194797;0.023880044;0.059713352;0.1144557;-0.5975807;0.03737187;0.09801948;-0.12419272;0.11860477;0.30010515;0.07996754;-0.036873933;0.110989854;-1.0436468;-0.027248032;-0.011296636;0.036847763;-0.28856134;0.09302888;-0.25241935;0.17145759;0.024352765;-0.72766364;-0.1432095;-0.045606826;-0.2651121;-0.23487934;0.14883004;-0.5455786;0.0021983306;0.037041567;-0.19184896;-0.33755422;0.05424879;0.5825295;-0.0721558;-0.23225349;-0.0066201445;-0.26191574;0.08393381;0.023481028;-0.03447949;0.4777803;0.54948103;-0.017932586;1.3869145;0.0055746133;-0.20300323;0.39315146;0.09673139;-0.09496585;-0.14917938;0.072733;-0.13587677;-0.27207837;-0.21340735;-0.15869454;1.446973;-0.27576903;-0.081976235;-0.15269119;-0.27471712;-0.92724854;0.02301144;-0.0010194241;0.049628917
-0.09507423;-0.36786377;0.05448825;-0.6223402;0.06943046;0.11098753;1.8562313;0.24319778;-0.2608021;-0.059733365;-0.027698293;-0.45751026;-0.011623927;-0.10672201;0.06672506;-0.38689658;-0.60721886;-0.5531458;0.074929096;-0.051957153;0.07874889;0.32003835;0.12975277;0.13776974;-0.08744189;-1.4792964;0.0003799416;-0.117790446;0.153738;-0.44048274;-0.06359254;-0.5952463;-0.047358535;1.2138999;-0.004879685;0.050095376;0.7417792;0.98831916;0.01380525;-0.04080855;0.0036794527;0.01799909;-0.54123914;-0.10290468;-0.14415574;0.012962052;0.0052459133;0.015179759;-0.18544708;-0.06967658;-0.49734417;-0.20280832;0.082930915;1.2088885;1.1362774;0.016054329;0.08175183;-0.051694848;-0.034589652;0.09452397;-0.637908;-0.0037104785;1.0684217;0.0633629;-0.0938819;-0.1489264;-0.049115557;0.41789687;0.11323365;0.095454626;-0.08100268;-0.257828;0.006043429;0.18084371;0.45841682;0.047925506;0.02560936;-0.31426296;-0.22471759;0.055939164;0.03488757;0.051974084;1.0262173;-0.63829154;-0.0016059816;-0.28253657;-0.023710083;0.034426603;0.14699969;0.03978352;0.06537497;0.09047416;-0.039577935;0.26606125;-0.04096521;-0.0397056;-0.30258998;-0.034346562;-0.002031754;-0.06699027;-0.061442267;-0.04689539;-0.1221102;0.12464559;0.10549271;-0.56327623;0.025665784;-0.04480762;-0.03573483;0.020314895;1.3689735;0.028603893;-0.44443038;-0.87673205;0.027363488;0.0011507757;-0.28854412;-0.016378054;-0.08153105;-0.46884206;0.45399848;-0.046102937;0.06321547;-0.16809082;0.06452379;-0.060705572;-0.020411707;0.08588529;-0.2796734;-0.012962206;-0.048489593;-0.10025219;0.23235284;-1.1809293;0.17786787;-0.15492466;-0.02189055;-0.11106016;-0.23593412;-0.049994998;-0.9858435;0.1298221;-0.00980044;0.017938485;0.033680256;0.037383694;-0.13853188;0.013004065;-0.11215219;0.013233883;-0.021256741;0.069364004;0.10933326;-0.35541272;0.27714613;-0.94708127;-0.954583;-0.53124845;0.30180022;-0.0101268515;0.03739195;-0.2394947;0.032590576;0.070012555;0.0015980864;-0.029601462;-0.14055365;0.06704231;-0.49616086;-0.01314634;0.055450227;0.7662566;0.07972383;0.0024355773;-0.03875592;0.010862259;0.042011935;-0.014492386;-2.1603265;0.06264735;-0.024352636;-0.03631499;-0.0008173738;0.057839803;-0.3981646;-0.047191247;0.024743503;0.9231884;-0.35068384;-0.0015977902;0.63595843;0.03670522;-0.14472549;-0.144058;-0.07002754;-0.014857502;-0.2987102;0.85259044;0.12263366;0.23981191;0.0035131883;0.91465884;0.06413821;0.6521495;-0.02694397;-0.041907106;0.41593662;-0.21716805;0.017440043;-0.3314906;0.41427085;0.026849626;0.10093528;-0.35316113;0.12790817;-0.038782835;0.066287205;-0.108626276;0.10457845;0.24900146;0.010610726;0.23059472;-0.20300765;-0.3633535;0.09259668;0.021209411;-0.22002433;0.14152269;0.0640264;-0.032611605;0.009896532;0.6110426;0.504055;0.25388658;-0.08307601;-0.06564258;0.13314267;-0.06687015;-0.036568888;-0.10481158;-0.008500492;0.6651004;0.08916939;-0.39532173;0.18949099;0.14962621;0.053794254;-0.7660118;-0.5762625;0.029656064;-0.06400803;0.18013355;-0.21079619;-0.47041515;1.1019057;0.008116817;-1.3401008;0.06254799;-0.032372687;0.082565926;-0.07010107;-0.047079902;-0.006136496;-0.079907365;0.020553889;0.04142083;-0.066495374;-0.07674259;0.026187362;0.06497517;-0.5832731;0.43798947;-0.021152863;0.098717086;0.0868939;0.08596851;-0.2679332;-0.16065964;-1.0712855;-0.04526283;0.13843173;-0.25978068;-0.06965328;0.0031449338;-0.07436514;-0.05228649;-0.0034168093;0.01892885;-0.024902062;-0.042046685;-0.13736382;-0.10287508;0.013010996;0.06439605;-0.15302138;-0.47106692;-0.87376666;0.100273676;-0.112780854;0.1888486;-0.47408038;-0.07325078;0.078168124;-0.5600405;-0.09668865;0.101232864;-0.55615664;-0.02742407;-0.062127158;-0.02120321;0.06630001;0.2755614;0.043325733;-0.0013630146;0.6370687;-0.03376451;-1.1995877;0.22735319;-0.0046511437;1.0795451;0.020306991;0.033729285;0.06299997;0.011229766;0.12810947;-0.020610653;-0.011203967;0.092289776;0.030882077;-0.20080158;0.28694168;-0.075701684;-0.023532359;0.02313647;0.82344866;0.07081258;0.018936845;0.30466488;-0.25172925;0.30574507;0.012294808;-0.40644577;-0.30713567;-0.08661479;0.04965741;0.009191734;-0.06787851;-0.05179296;-0.0527977;0.021560866;-0.0678902;0.38613787;0.22827615;0.0985534;0.4822353;0.15059818;-0.45653164;0.12874457;-0.0038131585;0.6881575;0.6653824;0.52366185;-0.168816;-0.7771697;-0.06497556;-0.036509886;0.016368942;0.0061891396;-0.049453292;-0.04274503;0.02774684;0.2338311;-0.0022592093;-0.04753501;0.24925262;1.3322666;0.15122375;0.13244149;0.07210474;-0.0370133;-0.14773533;-0.038698066;0.65346724;-0.0035701606;0.007943555;0.62342364;-0.14854136;0.10465785;-0.063174;-0.04367943;-1.1131777;-0.0007941534;-0.083256185;0.056979228;-0.22320352;-0.6177285;0.0015397576;-0.12484255;-0.033159457;-0.10570316;-0.019418169;0.06497116;-0.42938933;1.2506857;0.8246674;0.06816965;-0.32065776;0.73493016;-0.027036663;-0.0202625;0.48385584;-0.071583375;-0.4267988;-0.19919273;-0.52165437;-1.3615569;-0.03989996;-1.1025965;0.0011405833;-1.2645673;-0.16182326;0.11230924;-0.05587174;0.05314134;-0.05199468;0.011203494;-0.507389;-0.11840174;0.007248564;1.7151575;0.094405934;0.20647293;0.22052382;0.08330542;-0.320201;-0.2649036;0.0070115845;-0.014085384;0.04831096;0.06791218;-0.27161014;-0.2668372;-0.1408457;-0.3781738;-0.18914501;-0.42519495;0.7200796;0.19025056;1.2484692;-0.052357495;0.037924033;0.071565576;-0.010319743;-0.31479034;0.7195739;-0.08741552;0.41567892;0.29970568;0.6486487;0.07955163;0.086950235;0.044172887;-0.8733978;-0.07281823;0.113940686;0.020840347;0.7853804;0.00021003502;-0.10435236;-0.24775395;-0.1005105;-0.4593809;0.029064065;-0.035257086;-0.014615721;-0.05903557;-0.028928753;0.012503643;0.28334713;0.06295617;0.0051606954;0.04327289;-0.84423184;1.3861096;0.026318219;-0.54089695;0.061497886;-0.05655548;0.25828376;0.017479666;0.15784723;-0.48192343;0.04853754;0.08476248;0.24472801;-1.1358337;-0.0013636942;-0.08076876;0.0075836335;-0.3029304;-1.0415386;-0.011730335;0.84990585;-0.243777;-0.16277695;-0.0078089754;-0.013075234;-0.19310738;-0.93334085;-0.101808876;-0.13838975;-0.0043349443;0.03811288;-0.01681324;-0.74529636;-0.069075674;-0.12536334;0.09077563;0.1615725;-0.16781642;-0.07067107;0.064745195;-0.08798918;-1.1852317;0.13491347;-0.0005792601;0.058821935;0.011071111;-0.024008585;0.31869578;-0.10424013;-0.011677948;0.020372273;-0.22203532;-0.16192457;0.27953687;0.052006826;-0.11767037;0.15348001;-0.377744;0.13857599;-0.030645028;0.1360634;-0.0047449376;0.04171955;0.07502145;-0.27782854;0.041733213;0.109076105;0.015960693;0.092834525;-0.108942956;0.072699994;-0.08783117;0.03776695;0.20196784;-0.023185715;0.031320807;0.927834;0.34220934;0.28887296;0.01331499;-0.7284745;-0.37419456;0.11206007;0.14684716;-0.33964851;1.3477736;0.023170738;0.046892848;0.20532826;-1.0270313;0.48397183;-0.087926485;0.054879405;-0.03463215
-0.010492726;-0.067578785;-0.021866504;1.6819369;0.012719068;-0.07073687;1.8694606;-0.13656734;-0.11016434;-0.007545802;0.02690462;0.040687565;-0.004146158;0.031370148;0.048433986;-0.46728542;1.0731612;-0.6291137;-0.12717085;-0.03928363;-0.030109804;-0.02907468;-0.4176177;-0.25646612;0.0042513995;-0.8575245;-0.1657592;-0.093720995;-1.0879588;0.059515875;-0.043625925;-0.6687141;0.012040377;1.268032;0.20998369;-0.2642349;0.37109998;-0.50169426;-0.051473774;0.010717375;-0.11205803;0.6797383;0.7741754;0.030765269;0.16962107;0.07043652;-0.006958011;0.4327044;-0.35844794;-0.7421928;-0.39457282;-0.65554816;0.0055028093;-0.44958118;0.40547955;-0.00029120137;-0.029666154;-0.032363724;0.023317084;-0.045324378;0.24844396;-0.04092571;1.0746886;0.020384634;0.04177824;0.14664891;0.057896804;-0.21902733;0.005037792;-0.22964619;0.21754655;-1.2029853;0.014555987;-0.40809843;0.15550171;-0.023226673;-0.0041871113;-0.08882898;0.61993223;0.016128095;-0.16622455;-0.038479645;0.6035523;-0.66560334;-0.023181813;-0.0009462257;0.1113602;0.017920896;-0.28439078;0.07336481;-0.15365116;0.059622116;0.049090244;0.70399606;0.05752431;0.031500198;0.071745396;-0.23616204;-0.07942521;-0.01676858;0.09316582;0.24250183;0.13478218;0.37756193;-0.16964687;-0.8053132;0.0073084957;0.005671489;-0.09007591;-0.007181149;-0.79348505;0.04526289;0.66100913;0.73604375;0.017772375;0.092160165;0.2604855;-0.105382636;-0.06703401;-0.74729383;-0.17097591;-0.0066180187;-0.08754387;0.08893246;-0.2932152;0.03996709;0.020735316;-0.06890557;0.102125674;-0.10665291;0.0374846;0.06453499;-0.2326013;0.7977121;0.74227315;-0.058655832;0.0018634665;-0.123531125;-1.0476813;0.39004046;-1.4277216;-0.067084424;-0.3309036;-0.04619062;0.053657904;-1.0156664;-0.9731585;-0.011867131;0.06217507;-0.080117844;-0.061042186;-0.024694758;-0.043231297;-0.4628249;0.144477;0.95438254;0.66370016;-0.20402329;-0.4459154;0.000114313894;0.03390622;-0.093625344;1.1119897;0.026578821;0.111338906;-0.0153616;0.027302084;-0.1445664;0.588318;0.06879452;-0.15753199;0.2662917;-0.0097053945;0.056855366;0.0059773014;-0.012564283;0.03284088;0.0745738;0.1003032;0.053057518;-0.08002755;0.1554874;0.085653834;-0.03304615;0.032809358;0.01801638;0.029255694;0.011665722;-0.8853953;-0.0007138918;1.5329841;-0.07696787;-0.66993845;-0.008459186;0.03059552;0.062972195;-1.2921529;0.06710983;-0.19972242;0.0019200532;-0.08977583;-0.976185;0.045857616;0.19817707;0.025232768;-0.123736985;-1.6656007;-0.41095203;-0.09255197;-0.35707024;1.384293;-0.062629044;-0.15958364;0.28459316;0.32239366;-0.010053238;-0.020987127;0.06727322;0.007409072;-0.7153845;0.0033305078;-0.3003302;0.044964537;-0.06017158;-0.0739534;-0.10454347;0.243003;-0.1833453;0.42280725;2.400345;0.101930074;-0.8460951;0.18863307;0.050867774;-0.032739524;0.0066027865;-0.040539328;0.034270544;-0.019666528;0.010877895;0.0066965884;0.26235682;0.79491407;0.12088343;-0.20449457;-0.31920782;-0.11898592;-0.87946993;-1.6613699;-0.019337472;0.014016067;0.016998673;0.14564773;-1.3148136;0.552313;0.43154845;-1.22698;0.0078039435;-0.01421301;0.011001615;-0.060411733;0.07647998;-0.060915787;-0.039849333;-0.031526685;-0.21653308;-0.08833667;0.07351509;-0.031680364;-0.013352504;0.4057027;-0.71951985;-0.07813426;-0.03492525;-0.28238758;0.025861243;-1.2411416;0.03142284;0.33160335;-0.083496876;-0.45285723;-0.022145817;-0.0550194;-0.35598195;0.018587809;-0.0878626;0.08050971;-0.0818288;-0.00064799323;-0.09398221;0.43782595;0.039292503;0.038754474;0.021316867;-0.12586965;-0.85474616;-0.08639938;-0.23930374;0.057494603;0.11780275;0.056433283;0.040041104;-0.08356951;0.25815627;-0.202868;0.050040368;-0.4123818;-0.08067319;1.2984375;-0.052869722;0.076707095;-0.684067;0.051025834;0.31368873;0.62523234;0.030756982;-1.121762;-1.0298594;-0.027392944;0.039733846;0.024465526;-0.047726143;-0.013278881;0.03389017;-0.027758893;0.07291352;-0.0022792246;0.805652;-0.019090269;-0.09209736;-0.113819584;-0.23586313;0.012460914;0.83159643;1.259196;0.0898578;0.08960917;0.010846475;-0.44438455;0.07323323;-0.28900504;-0.9882332;-0.15048134;1.7184616;-0.09918171;0.06533134;0.035731692;-0.04786364;-0.051234286;-0.069720566;-0.28681055;0.009029178;0.64586735;0.13612428;-0.5303735;-0.23150265;0.14499095;0.03599005;-0.0033095034;0.2653693;0.8671068;0.8107076;0.0025473463;-1.2832863;-0.05045258;-0.03322337;-0.027232317;-0.0038025426;0.064569876;-0.025730284;-0.017970927;-0.31739387;-0.0768368;0.067237526;-0.16775227;-0.7366482;-0.5780311;0.16644731;-0.095746435;0.057383973;0.022458961;-0.0070931804;0.39987886;0.12645616;-0.07150786;0.7097014;-0.062948145;-0.10897271;0.05741882;-0.04204679;-0.7226997;-0.11035276;-0.06718526;-0.03214841;0.042189054;-1.2471346;0.010825923;-0.009490965;-0.6505629;-0.024950946;-0.07938984;-0.019749185;-0.04758021;0.47389522;-1.0697438;-0.22266294;-0.040786706;1.6529653;-0.002392695;0.015158207;-1.541709;0.070581004;-0.7875838;-0.06425418;-1.1120546;-0.5353444;-0.08281586;0.4748671;-0.033235606;0.44051376;-0.27325904;-0.39420396;0.045944985;-0.035967845;-0.04761067;-0.12175817;-0.94841933;-0.11552321;-0.003728955;0.50413895;-0.04925558;-0.15402873;1.5471085;-0.001526774;-0.61971587;0.09726575;0.00039016418;-0.02519581;0.06455143;-0.03656682;1.0326779;0.12238167;-0.058880035;0.08728612;0.0039009838;1.6292886;0.38721958;0.46695426;-0.08691355;0.032402877;0.08955772;0.08237778;-0.036622237;0.053251278;0.68481773;-0.055271316;0.3051553;0.11619495;0.41602054;0.0504659;-0.030351598;-0.044235796;-0.36520827;-0.00054048415;-0.26877725;-0.039146263;0.92147595;-0.0027176752;0.008247872;0.07585483;-0.0148106385;-0.07797293;-0.06835325;-0.014769883;-0.07997315;-0.061936893;-0.04748556;-0.032799874;0.14744163;-0.045866985;0.07182743;-0.051235516;-0.0893745;2.3192136;0.06747423;0.070603445;-0.010479265;0.06797505;-0.2846037;-0.09814029;-0.27765438;0.08392118;0.020157471;-0.053298242;-0.2520338;-0.59978175;-0.030605288;0.090712436;0.01617782;0.06364361;-0.41733027;-0.15473077;-0.36480838;0.025513813;-0.010424032;0.06835316;-0.061902292;0.12294855;0.47948596;0.0778581;0.10860332;0.08182365;-0.03270885;0.023858696;1.273393;0.0015973729;0.06668069;-0.029544372;0.21469466;0.68370974;-0.0259078;-0.004503949;0.06127023;0.42921722;0.09717676;-0.06602727;-0.037754714;-0.092461206;0.025994655;0.01214442;-0.018535038;-0.058037493;-0.4137353;0.18368024;0.1987763;-0.200481;-0.2591274;-0.07981432;-1.4026362;-0.652311;-0.06057821;-0.022148628;-0.25445008;0.013433363;0.75053656;-0.06823031;0.385727;-0.023729315;-0.09823353;-0.0051938514;0.06847955;-0.069456995;0.21024111;0.33569357;0.023918802;1.0094332;0.0280392;-0.09756493;1.4822795;0.002580796;0.11331169;0.0042560836;-0.4869777;-0.012723567;0.008696357;0.017105434;-0.056695398;0.37789208;-0.12677084;-0.057202417;0.9381329;-0.4972515;-0.5131118;-0.0689325;-0.03061765;-0.043878514
0.025591977;0.063425355;-0.021724254;0.9377457;-0.14205852;-0.019427942;-0.8717591;0.09177434;0.8430258;-0.028025627;0.05793629;0.103819065;0.039855916;-0.049577676;-0.0067001423;0.058807183;0.80186033;-0.5267982;-0.085134916;-0.08296901;-0.0824625;-0.17265084;-0.18939401;-0.23114671;-0.09015158;-0.29035562;-0.06973703;0.0036854008;1.0726025;0.17153828;0.0077864444;1.0415483;0.01658288;0.516605;-0.07207735;-0.23003763;-0.22809836;-1.2330178;-0.05283766;0.053632982;-0.014757301;0.08208921;-0.39799815;0.03402463;-0.25521976;0.028537435;-0.07293664;-0.14153536;-0.5318607;-1.6713291;-0.19548091;-0.1809001;0.06697607;-0.34539574;-0.44749415;0.0061278767;0.0005785773;-0.019522576;-0.020290934;0.046170894;0.35633573;0.018482877;-0.12869349;0.05525199;-0.042467143;-0.03868988;-0.044773795;-0.26286158;-0.1522138;-0.16053241;0.1596124;-0.98901206;-0.017087223;-0.09871475;0.64648646;0.06269585;0.002099908;-0.022278994;-0.39163166;-0.06035088;-0.100573696;-0.073381014;-1.1095656;-0.11886959;-0.065846644;0.076147966;0.38486236;-0.022481136;-0.23220049;0.014439095;-0.108510494;0.049096525;-0.030826377;0.91833997;0.05516877;0.055044528;0.0021044991;-0.051639237;0.068882115;0.035718072;0.00028042044;0.08532449;-0.25641727;0.31340194;-0.21488054;-0.91635406;0.040793;0.015484498;0.061778534;0.048197873;-1.1963905;0.04778519;0.71954286;-1.1199462;-0.017945133;-0.021199308;0.13100408;0.029602595;-0.0061541465;0.5010342;0.38634875;0.023200344;0.05093106;-0.13461153;-0.24385877;0.014327951;-0.012716448;0.023086173;0.028625418;0.07438693;-0.019726919;0.050473638;-0.26018086;1.4552915;-0.14482045;0.024710998;-0.08637231;-0.0011740774;-0.33528224;-0.24375165;-1.9657614;0.023353705;0.35843372;0.044161875;-0.061494607;0.030704623;0.24576741;-0.021787306;0.01308332;0.08910532;0.0073161325;-0.08176284;-0.06077209;0.29965898;0.35445192;0.12299297;0.35895935;-0.36872017;-0.02757006;-0.07972857;-0.061542135;-0.03603508;1.453481;-0.010611999;-0.07261891;-0.057594184;-0.18080209;-0.04225763;-0.19778748;0.0016290703;0.011416332;-1.2878864;0.04867795;0.002686239;-0.102038935;-0.066365965;-0.09584272;-0.14529303;0.64404523;-0.038956825;0.07188507;0.09504417;-0.09990769;0.06744498;0.042606194;-0.010224969;-0.08223085;-0.25631303;1.8257339;0.025062453;1.0195997;0.07550691;0.91210794;-0.016771004;-0.05759518;-0.002144983;0.3240071;0.29362565;0.059332382;-0.18887234;-0.07510199;-1.5879725;0.06392508;0.51567405;-0.05836008;-0.055318695;0.62712085;-0.3106546;-0.05403077;-0.39913955;1.5775912;-0.04393185;-0.15785092;0.07692712;0.22596833;-0.017917152;0.061319727;-0.012385406;0.04145721;-0.095451005;0.037784994;-0.31813726;0.04622561;0.3199153;0.07119303;-0.04832562;0.8083405;-0.19755748;-0.43024293;1.0066497;-0.3283587;-0.3576127;-0.23702945;-0.57930756;-0.03996771;0.07051608;0.05477516;-0.042195197;-0.01670148;0.049927954;0.04369427;-0.11568938;0.6708783;-0.0003679951;-0.29909492;-0.37056926;0.051762927;-0.034623057;-0.10114915;-0.0029909955;-0.04126539;0.02645277;0.25422367;0.45365092;0.88780475;-0.04859503;-1.0611165;0.02232067;-0.06498215;0.05199288;-0.061813813;0.046099026;-0.04988541;-0.006006624;-0.0426665;-0.13887228;0.024086427;-0.050342876;-0.04405099;0.070646875;-1.4003179;0.49393675;-0.08111768;-0.034429643;-0.061810344;-0.03532043;-0.2518288;0.046081882;0.42597502;-0.07649294;-0.353705;0.004729497;-0.016805798;0.25879717;0.06771667;0.17748262;0.0287148;-0.09352321;0.044045836;-0.014794776;-0.92848575;-0.02484951;0.028460952;-0.031497844;-0.33393732;-1.0049332;-0.55819464;-0.2077014;0.14168172;0.26095718;0.068198495;0.053395588;-0.06116931;0.46548882;0.7185801;-0.025479002;0.280315;-0.08951842;1.4578959;-0.05789915;0.12264102;-0.25172028;0.010385215;0.046091933;0.3217318;0.07118516;-1.1021252;-0.026537452;-0.01615366;0.12279174;-0.016424831;-0.062405046;0.0480379;-0.024726303;-0.09015221;-0.0167181;0.076726444;0.25981632;-0.06471533;0.20624553;0.581566;-0.34896895;-0.037439615;-0.9223804;0.2873377;-0.052671798;-0.068908155;-0.52554786;-0.5268738;0.1726093;-0.23043029;-1.0204103;-0.025508352;0.5339006;0.078533985;-0.07369408;0.016999934;0.010890048;0.032595802;-0.023425782;-0.556228;-0.11814758;-0.64928895;-0.083796;-0.29831088;-0.29840568;0.14104769;0.039950997;-0.0921762;0.022049377;0.86744696;-0.17090234;-0.0040862123;-0.25385293;0.057781808;0.10331565;-0.019754184;0.075164676;-0.09854119;0.10076777;-0.0014176356;0.15399778;-0.065587156;0.03659809;-0.27969778;-1.3690871;0.74175155;0.5015933;0.008616357;-0.06509595;-0.057416055;-0.09600404;0.7284054;0.20538639;-0.05178196;0.15317313;-0.050821915;0.0563409;0.0518993;-0.11053371;0.17071612;0.051387712;-0.08811662;-0.07671606;0.07407336;0.4973711;0.014145746;-0.035711326;0.28606623;0.04284179;-0.6491047;0.022365985;0.06837721;-0.24544488;-1.0347779;0.1815601;0.142276;-0.5373892;-0.0018165583;-0.049339477;1.0366932;-0.022441765;-0.106267855;-0.04059735;-1.1005512;-0.8730546;0.20474908;-0.95871496;0.06063455;0.7750781;-0.30671608;-0.26339224;-0.05741946;0.04585142;0.028303351;0.06906557;-0.63919246;-0.07453676;-0.016856704;0.19753575;0.10428201;0.45007777;1.1058029;0.005423636;0.43814564;0.014414013;0.021274826;-0.08394199;-0.001710829;0.012584978;0.6191391;0.09305301;-0.061919805;-0.027819583;-0.40338057;-0.58124006;0.63687336;-0.080109656;-0.7227717;-0.08550978;-0.05691003;0.06561042;-0.046600323;-0.12783898;1.0984089;-0.034324642;-0.52606535;0.01087325;0.029988622;-0.051546548;-0.007785204;0.07112764;-0.7495823;-0.07294584;-0.31889284;0.09226364;0.48758316;-0.02708613;0.008455375;-0.006000383;0.013595877;-0.45183507;0.0067823976;-0.040562734;0.04423874;0.045964994;-0.05745222;-0.03944065;0.24621393;-0.023030378;0.025060091;-0.013397708;0.96162885;2.4528782;-0.025795933;1.164282;-0.07482639;-0.07873617;-0.2663896;0.06821292;-0.25840032;0.03814799;0.07277778;-0.0019562237;-0.28147918;-0.09781049;0.02332947;0.05837781;-0.033917837;0.33510727;-0.473059;1.2348447;0.45001963;-0.00090330024;-0.11004537;-0.046197947;-0.07409996;0.0024151453;0.2923627;-0.011599955;0.0630863;0.061088968;-0.034977812;0.06252125;-1.0470781;0.055080336;-0.059448943;-0.040747885;0.09261038;0.3913391;-0.009572958;0.043132525;-0.044255264;-0.21693087;0.003087337;-0.079571865;0.019848995;-0.05516909;0.0025109383;-1.0086058;-0.008892364;-0.003370894;-0.7043928;0.081079245;0.08512275;-0.24910669;-0.26023287;0.037208468;0.16517594;-0.15984471;0.14612317;-0.037947528;-0.24804145;-0.07690993;0.012997092;-0.022770239;0.09427439;-0.08632006;-0.04349957;-0.07486257;-0.0025714824;0.03065714;0.12624854;0.25134474;-0.042189516;1.4306501;0.07450241;-0.057867702;2.0003383;-0.13776207;0.16324495;-0.021093868;-0.46930948;-0.0031024874;-0.013966701;-0.08340828;-0.0017522478;-0.045983385;-0.124065444;0.015067064;-0.6233938;-0.49653336;-1.3655584;-0.042823724;-0.009816659;-0.057997536
-0.057469264;0.39200056;0.014513182;0.9662687;-0.058312356;-0.22059643;-1.7663451;-0.2599507;-1.3898902;-0.040285077;0.10739319;1.027781;0.04050006;-0.04861743;0.02889474;-0.49365705;0.3423235;-0.046886824;-0.3083599;0.17166188;-0.034542643;-0.5285955;-0.39448327;-0.66086966;0.081738725;2.7302575;-0.3346451;-0.035613894;-1.725895;0.48285025;-0.0011532429;0.07494877;0.021510659;1.1846856;-0.40637195;-0.40355924;1.5558147;-2.2753146;0.09275699;0.07946478;-0.27672657;-2.3394618;-0.03229188;0.029610299;-0.87322044;0.06688154;0.04034281;0.93287426;-0.7446982;-2.9216146;0.25512847;0.1367175;-0.048415527;0.4749408;-2.688763;-0.2216867;-0.108821616;-0.046708368;0.021277519;-0.119046755;-0.57942635;0.012698106;0.57905334;-0.07683636;-0.013882636;0.13350199;0.0504174;1.0233444;0.002053935;-0.38398454;0.24782075;-0.42561236;0.12240729;-0.14430882;1.6938554;-0.15247642;-0.0617484;0.5534289;1.684936;-0.16652931;-0.37014672;0.030809509;1.4978915;1.8824637;-0.06982589;0.12751476;0.2689;-0.028748583;-0.6240708;-0.06623382;-0.34802228;-0.07235137;0.022927256;0.31388634;0.014916005;0.0076074055;0.18985932;-0.10149649;-0.1909885;-0.060509756;0.111081325;0.6862596;-0.8450925;-0.033251878;-0.4870413;0.5465802;-0.0914677;-0.026384555;0.08079081;-0.15909764;-0.9011035;0.046489514;0.9551915;-1.2206569;-0.10127688;0.036045164;0.5491952;0.05482869;0.033282552;0.050382614;1.3578175;-0.04363632;-0.007967439;0.0040181763;-0.64976054;0.118368484;-0.06495631;-0.20763066;0.03875727;-0.03638745;0.011702567;0.10897136;-0.43160224;0.61862606;-0.5603007;0.084304795;-0.02402445;-0.10534728;1.5869678;1.2785349;-1.3592668;-0.035431143;-0.23268455;-0.031858355;0.03990084;-0.5924482;1.2999525;-0.027893504;0.0015713418;0.017237507;0.033700634;0.03653497;-0.042452972;-0.4942272;-0.61421263;-0.46511966;-0.46509764;-0.82992494;-0.28022596;0.021063877;-0.025208319;-0.40658978;-0.62618244;-0.071831256;0.071544066;-0.024355507;-0.104778595;-0.01959791;0.009562639;-0.01950548;-0.006491998;1.2517924;-0.1553035;-0.11243299;0.09854489;0.06545882;-0.25498596;-0.047598768;1.0257528;0.023968898;-0.059031162;0.22867969;0.015227881;-0.16125175;0.51878166;0.013574684;-0.03720532;-0.884689;2.2665565;-0.06653937;-0.9711177;0.041149233;0.69655097;0.12486006;0.016393766;-0.008181961;1.6794292;0.956312;-0.46024236;-0.14952919;-0.35803586;-0.4437911;-0.045134395;-0.1728271;0.030889202;0.06139197;1.8499124;-0.19371635;-0.1796517;0.08352014;-0.42225677;0.05950141;-0.5025965;0.3069707;0.03393176;-0.031377427;-0.04219239;0.105280325;0.013532764;-0.9951681;0.119310305;-0.9422132;0.062254675;-0.03834297;-0.064928636;-0.068124644;1.678972;-0.80118424;-2.5283613;-0.7982361;-0.29346642;-1.0923104;-0.009701251;-1.0104684;-0.06770285;0.24613935;-0.016735466;0.017431049;0.047898304;0.16372982;0.07467656;0.8866334;-0.2653652;0.39130425;-0.7160273;-0.9175848;-0.13964207;1.9141874;-0.5445678;-0.06826691;-0.018892162;-0.21290074;0.51480055;0.87173784;1.744811;-0.24274327;2.1923094;0.03837955;0.06508427;-0.086436175;-0.072315544;0.07281559;-0.08065242;-0.041548885;0.013082925;-0.44696462;0.00017295299;-0.053080466;-0.059120048;0.03568058;-1.0923073;0.5405798;-0.07245277;-0.112443365;-0.40954953;-0.06256716;0.06280657;0.346605;-0.991862;0.028290123;0.111689396;0.21351801;0.03469286;1.2313583;-0.027596315;0.1629121;-0.00954413;0.06385239;-0.036496244;0.02711343;-0.34406903;-0.040536873;0.035672784;0.03961227;-0.35490847;1.1722398;1.2940696;-0.6544315;-0.041280836;0.008329617;0.37624687;-0.022809338;-0.035410244;0.7935666;-0.7148021;-0.08828413;-0.50466335;-0.028706575;1.225875;0.060500234;-0.51745987;-1.0285636;0.01953394;-1.5516125;-0.2383624;-0.13689567;1.1981028;0.25594348;0.04278959;-0.5619992;0.028208757;-0.06827196;-0.09819629;-0.10575113;-0.29514438;0.019376785;-0.06901539;1.3188539;0.0699077;0.28260833;2.4684496;-0.33225256;-0.037373476;0.42344514;-1.2205366;-0.046963066;-0.081799;0.073917314;-1.5376885;-0.16149817;-0.44239205;-1.2803149;-0.31533584;2.5557106;0.07807089;0.03306644;0.115939006;0.15199904;-0.08239024;-0.043868605;-2.0754187;-0.44684604;-0.49436262;0.037743557;-0.4889611;-0.9099086;0.48254612;-0.10711616;0.015311289;0.40591273;-0.24603522;-0.086436644;-0.10688803;-0.06301808;-0.031147238;-0.04435123;-0.073134944;-0.058809508;0.1114146;0.024700152;0.09384905;-3.004611;-0.049969777;0.008278421;-0.48691466;-0.025235245;2.4133875;0.5449484;-0.11449443;-0.06809764;-0.103328824;0.12943707;0.51946414;0.17561187;0.038529065;-0.13158092;0.063945465;0.0046177194;-0.05740436;0.107651815;1.0668741;-0.03063891;0.03122123;0.0149746435;0.25420445;0.38300365;-0.13135359;-0.045106143;1.3401691;0.035446275;-0.54629;-0.050467044;0.3703093;-1.3634628;-1.1644282;2.4865847;0.32458472;-0.4483807;0.025016181;-0.015818378;0.5410581;0.0014112974;0.98119295;0.12463689;-2.1459727;-1.4578756;0.012674915;-0.954376;-0.011810273;1.5739669;-0.04490637;-0.22974463;-0.015723279;-0.13127553;0.042939015;0.062882915;0.5343064;0.20800117;-0.036232658;-1.7748797;-0.13726588;0.34405166;0.10078586;-0.07812652;1.0568329;0.32744375;0.0513538;-0.050418824;-0.034888387;0.023914305;-0.47425508;0.24112764;0.10901626;0.4995138;-0.42808264;0.31058416;-2.68323;-1.5772065;-1.5556288;0.0909671;-0.00912878;-0.06781983;-0.009082193;0.3228303;-1.8907849;0.101355515;-1.0758932;-0.18265836;-0.40438223;0.05109365;0.081686266;-0.010702159;-0.4199383;0.032063093;-0.5909098;-0.08931036;0.42421097;0.03157298;0.12038771;0.29688248;0.10719801;-1.4055045;-0.029743984;0.013467239;-0.08995342;-0.07957622;0.1107275;0.11345005;0.34910294;-0.04544509;-0.09089656;-0.028983371;1.15747;-2.0601323;0.10753867;1.931702;0.031055722;0.05024508;-0.99242425;-0.11097162;-0.65107477;0.38067266;-0.1346888;-0.20855778;-0.7850485;3.0525808;0.092683785;0.1417275;-0.009897912;0.083037995;-0.38444152;0.17761092;-0.6315868;0.22739552;0.019208744;0.10410828;-0.00361839;0.08960504;-0.403799;0.11888829;0.18000335;0.016664812;-0.031647384;-0.036922377;0.098825365;0.22417238;0.034322374;-0.07916763;0.052613493;0.42017403;-0.062381234;-0.030481858;0.007068117;1.7541288;-0.14513369;-0.030517481;0.05693948;-0.18999632;0.053429052;-0.7773302;0.083323985;-0.018411161;-1.6984042;-0.03293063;0.20294929;-0.90666497;-0.4195331;-0.035112146;1.2223469;2.8875227;0.024121659;-0.12018608;-0.7082128;0.09556567;0.0029642275;0.02558586;0.69656414;-0.09353261;-0.18416114;0.020107187;0.08743071;0.03057499;0.22236133;0.7077523;0.03614805;2.0662777;-0.045477524;-0.13914011;-0.8804764;-0.33250514;-0.06844336;-0.1030114;2.3101797;0.24480326;-0.09581553;-0.12117102;0.10768803;-0.33616045;-0.31097153;-0.04358705;-0.55086565;2.1775508;-2.6552966;0.03452232;-0.054013122;0.01238773
-0.014079736;0.04795374;0.048503533;0.7364985;0.21160199;-0.13701841;-1.1964184;0.07979997;0.6148415;0.10036847;-0.037141867;0.17906424;0.023331095;0.012439054;-0.035419464;-0.5138115;0.3524025;0.09173103;0.029876627;0.25638762;-0.045760367;-0.09719625;0.46825257;-0.37700728;0.1497489;1.2514094;-0.24212824;0.1279082;-1.0548354;0.13307899;0.00013783113;0.82146025;0.115343034;0.82994044;-0.0072704353;-0.2700859;0.82853633;-0.42717907;0.027435288;-0.06334866;-0.270724;0.02848695;-0.09636318;0.0909966;-0.8985853;-0.028236028;-0.04676056;0.66281754;0.22747613;-0.8025727;0.105301864;0.59320533;-0.16720882;0.889975;-0.28609738;-0.27049705;-0.1444719;0.014196938;0.046465073;-0.10549862;-0.5851501;0.03695728;-0.70781815;-0.052326757;0.062284783;-0.14040656;-0.021219216;0.051457785;-0.11148587;-0.27656248;-0.05357812;-0.5312796;0.00403669;-0.41674358;1.0798075;-0.09004945;-0.19356154;0.21477582;1.5793138;-0.11448356;-0.13681601;-0.056770574;-0.39430928;-0.15179998;-0.046024196;0.06712481;-0.009957686;-0.1299673;-0.34306145;0.050225984;-0.22211358;0.016985217;-0.024673484;0.25487027;0.007854406;0.2256964;-0.084337175;0.17435917;-0.13910078;0.044216562;-0.002001402;-0.66066045;-0.7449846;0.082609676;-0.28418627;0.56834847;-0.26485154;-0.07598085;0.12691882;-0.15969843;1.0253217;-0.017879479;0.36037892;0.17695595;-0.13524808;0.081963554;0.21886215;0.053397745;0.11722173;-0.45588657;1.0735582;0.099958554;-0.03568503;0.18315904;-0.30704993;0.07749018;0.03916723;-0.2576235;-0.17219634;-0.13579069;-0.05008973;0.2539819;0.47258994;-0.6676753;-0.28019494;0.03186154;0.120412156;-0.2229852;0.40216497;1.0546062;-0.63024664;-0.20943275;-0.4131465;0.115471035;0.065677784;-1.286543;2.5321815;0.029667173;0.14496362;-0.0085636405;0.0056167822;-0.081001386;-0.14674397;0.35178646;0.00059638877;-0.98768246;-0.9291662;-0.48158723;-0.04054384;0.04328352;0.014935235;-0.68142116;0.63208807;-0.15363665;0.17474274;0.02262223;-0.084601626;-0.117677055;-0.0060158693;0.030379944;0.04708266;-0.90233225;-0.1293068;-0.040854614;0.021072533;-0.009600236;-0.23601146;-0.23135234;0.7152713;0.024486717;0.022124425;-0.010737554;0.12097562;-0.03418659;0.20095252;-0.079446174;0.056606296;-0.15496579;1.4567013;-0.25245228;-0.9801588;-0.09069378;-0.6318191;-0.14794827;0.11270391;0.14324898;1.5402404;0.9333189;-0.16399659;0.0153950965;-0.18229552;0.36564213;-0.0030086045;0.67274714;-0.04006077;-0.036487706;1.1852527;0.054085825;-0.11935486;0.05046116;-0.22319981;-0.05430403;-0.18400109;-0.50404346;-0.09856552;-0.0069367816;0.036590464;0.08627665;-0.1658689;-0.56118435;0.023043932;-0.58619916;0.0094174575;-0.6104389;-0.16975932;-0.15712117;0.6987509;-0.6550434;-0.37375835;-0.14856057;-0.01477046;-0.5488216;-0.08011932;0.8924844;0.083026595;0.23929036;-0.23903278;-0.09779767;0.08879769;0.10544781;0.029392106;0.4187532;-0.21635395;0.1483792;-0.44673702;-0.54269207;-0.03911502;0.9033224;-1.5683454;-0.22851576;0.022692973;-0.079033375;0.37811127;0.8437953;1.7354445;-0.08789335;-0.447901;-0.06219923;-0.026838908;-0.17729855;-0.019235864;0.05534138;0.009404825;-0.023972929;-0.052675296;-0.20560819;-0.055388834;-0.031486142;0.051091447;-0.031509284;0.66810805;-0.33369568;-0.043505356;-0.13488995;-0.1541017;0.18645562;-0.12897147;0.074139126;-0.25955504;0.069418244;-1.1106867;0.042591397;0.03289806;-0.6969611;0.0012432663;-0.33592072;0.03217085;0.097437784;0.11679591;-0.016252305;2.2522593;-0.010438773;-0.062471274;0.03807582;0.0897339;-0.33460206;0.12345486;-0.1623372;-0.24778448;0.36078027;0.16605921;-0.007862943;-0.10257745;0.45457703;0.10819134;-0.07258357;-0.22524978;0.1059798;-0.38717756;-0.043999817;-0.21254925;1.183614;0.038289938;-0.9279895;-0.022479031;-0.057198543;-0.64088196;-0.04159069;0.07972874;-0.38114098;0.024005314;0.00811748;0.04868739;-0.11871854;-0.19142337;0.22904378;-0.020282332;-0.21254691;0.10989353;0.060815834;0.30025643;-0.13463686;0.08160718;-1.0641077;0.05900353;-0.05734192;0.07395694;0.7563046;-0.620831;-0.09295415;0.25895536;0.6039579;-0.07996334;0.23972578;-0.17126414;0.110800214;0.121433206;0.21717733;-0.006784134;-0.045241613;-0.15577582;-0.044136368;0.24862549;0.16337024;-0.40055546;-0.5602383;-0.02106995;-0.24650148;0.036501944;0.60235;-0.6097559;0.7783114;-0.0762828;0.20268302;-0.018630628;-0.05959046;0.028551817;-0.045108672;0.20835602;-0.09927195;0.09851301;0.5260285;-0.027848804;0.0653576;-0.12923108;0.077441774;0.6004249;-0.22914246;-0.042083643;-0.00060351426;0.02639493;0.044310134;0.76400346;-0.019771157;0.032779004;1.5951332;-0.0035163409;-0.15648519;-0.034978367;0.024004526;0.06508499;-0.0038580485;0.004718468;-0.010079315;0.0073911254;-0.43965185;-0.19015457;0.13899145;0.5707573;-0.042705216;0.8740705;-0.055342685;0.033219535;-0.90057474;-0.019209424;1.1426668;0.07871048;-1.2326235;-0.01204711;0.054379985;1.97365;0.14256804;0.9896441;-0.16172402;0.24650545;0.60208607;0.06574039;1.5903696;0.029753987;0.45092416;-0.18329294;-0.1007395;-0.07737385;-0.2281389;0.079330355;0.03313541;0.54751104;0.23525739;-0.0031027615;1.7093601;0.26135895;-0.26209593;1.9410033;-0.19454905;-0.010064386;-0.123911604;0.048215054;-0.003154603;0.065547734;-0.08973428;0.4387715;-0.037163407;0.2820057;-0.024154197;0.07058176;0.18528296;0.47385982;-0.5712152;0.11766579;-0.0025611564;0.015334403;-0.039675884;0.044038218;0.52190155;0.40769434;-0.010597616;0.53735334;-0.31467015;-0.49078745;-0.06402969;0.058186572;-0.050899133;-0.13650374;-0.039365936;-0.26234576;0.0075979987;0.9291955;0.035294127;0.17458278;0.035844877;0.018952813;-0.030686907;-0.08091709;0.061436012;-0.026909942;0.03533822;0.065243535;0.11832418;0.14116266;-0.015757931;-0.11808872;0.020445652;-0.40966588;0.027975818;0.09681655;0.59098595;0.031939115;-0.041908503;-0.50501037;-0.14946541;-0.38535482;0.12362488;-0.092533626;-0.21970572;-0.365648;0.33846238;0.08763084;0.21429163;0.005581619;-0.19316496;-0.19079928;-0.47740385;1.2538695;0.1155444;0.024450146;0.014621168;0.06738354;-0.08527478;-0.115121715;0.09638472;0.06732481;0.015207477;0.04205415;0.00078144367;1.1399636;0.055641316;0.1372969;-0.06177825;0.26020947;0.43974918;0.08918823;-0.1346907;-0.052253645;0.23248346;0.07848842;0.050164077;0.026659107;-0.24955049;0.0988326;0.45230702;0.13561942;0.0545864;-0.97819394;-0.32771036;-0.08018292;-0.38917965;-0.2719052;0.12422095;0.30306154;-0.112353556;-0.03450579;-0.14274392;-0.37554902;-0.07059611;-0.05108666;-0.077387154;0.56965595;-0.033119343;-0.18899745;0.041555393;-0.04714746;-0.0066533103;0.572266;0.4548576;-0.01908176;-1.3401647;-0.056727577;-0.2701702;-0.76953685;0.003909818;0.036556862;-0.19947594;-0.74435633;0.028273193;-0.18301272;-0.24763729;0.023458594;0.7733645;-0.20687605;-0.11558128;1.2490337;0.19457252;-0.2752202;0.037616387;0.013637778;-0.11771595
0.07038146;-0.259356;0.07396957;1.5657935;0.040176447;-0.0637595;0.34052134;-0.04881014;-0.5400964;0.13071072;-0.006734945;-0.021499582;0.08370009;0.14817517;-0.01588924;0.078039415;0.5863199;-0.596963;0.18920617;0.08035511;-0.028835826;-0.15834261;0.19594483;0.19376281;0.13141188;1.0005559;-0.024282478;0.1171665;0.26961958;-0.2371849;0.13482065;-0.744687;0.053296443;-0.24993679;-0.06282088;0.058435507;-0.5968782;0.26773208;0.028883167;0.00015760704;0.06812508;-0.5556302;-0.58277327;0.06134089;-0.8105324;0.042331655;0.07252331;-0.6097856;0.42424437;-0.6304698;-0.7911206;-0.085745506;-0.17657267;-1.0108817;-0.827586;-0.07927079;-0.14322798;0.03176374;0.12945168;0.002493949;-0.23484379;0.1462232;-0.5587523;-0.15165132;0.077595025;-0.1788056;0.04185637;0.37109807;-0.11257939;0.0050389934;-0.16372108;0.43863222;0.17099628;-0.06838201;-1.654799;-0.06938078;-0.07434881;-0.22535585;0.5433462;-0.0100917695;0.041807976;-0.15859209;-0.80556786;-0.8010924;0.090370655;-0.23546077;0.23027833;-0.05109532;0.14636178;-0.04501305;0.046613496;-0.090148605;0.07614314;-1.8352709;-0.06741255;0.118869945;-0.6207868;0.11672803;-0.071831085;0.008350644;0.09459909;0.9338812;-0.29402968;-0.0675463;0.08717175;0.07681461;-0.081236295;0.10196881;0.19312803;-0.20463482;-0.8409523;0.1717282;0.40944588;1.1246753;-0.078097515;0.032157224;-0.42831907;0.07817754;-0.025900695;-0.9306062;-0.40147468;0.061944615;-0.093690865;0.108890556;0.06834198;0.094922885;-0.07207483;-0.021164542;-0.26559165;-0.13618207;0.12912898;0.17373478;0.19506645;-0.9113966;-0.3234173;0.06471444;0.04519109;-0.31066635;-0.68028647;-0.21935171;0.8994682;-0.17171672;-0.17406042;0.047542885;0.1567796;-0.4424038;0.27065378;0.12913077;0.14566208;-0.11722392;0.055665646;0.12117607;-0.18581466;-0.9431915;0.19598976;-0.5525402;0.10404003;0.7130839;-0.14958802;0.062062513;0.05603243;-0.2613399;0.048181348;-0.21051782;0.08524239;0.019516962;0.21702781;0.0010495583;-0.15632865;0.03141345;0.017832406;0.044646055;-0.1747429;-0.10885032;0.05798274;0.049122866;-0.05144175;-0.18810646;0.4299425;0.05151227;-0.078222305;-0.018741494;0.06902944;-0.07576071;-0.19143674;-0.19170657;0.053778578;0.47540528;-0.79426885;-0.15749204;-0.23309901;-0.14471976;-1.1398726;-0.15554534;0.057891794;0.13610354;-0.6139897;-0.32993713;0.022052951;-0.4613943;0.091176264;0.082771465;0.07564676;-0.85015726;-0.14869165;-0.03606053;-1.2488278;-0.09449771;-0.15692249;-0.16892362;-0.30365852;0.034357857;0.11239618;0.32537627;0.022389533;-0.034978516;-0.040198952;0.12753989;-0.1816973;0.36596265;0.10128527;0.3195735;-0.21817403;-0.23538603;-0.06716665;-0.10625652;0.7927991;-0.03150894;0.03984577;-0.64182866;-0.013445376;-0.65036464;-0.17899361;-0.0042927265;0.1204371;0.21513602;-0.11714153;-0.040998954;0.011018429;0.11017878;-0.03986807;-0.6574158;-0.15485859;-0.22052395;0.23900045;0.41711727;-0.09939452;-0.5095318;0.91194266;-0.17365919;-0.09501411;-0.0529259;-0.6818109;-0.0203948;0.5195003;0.004198473;-0.26904508;-0.1211511;0.109782316;-0.1774505;-0.03991084;0.028923532;-0.052168302;0.1721489;0.051396545;0.06411765;-0.07645939;-0.008659907;0.062471904;-0.15596345;1.663262;0.2510378;0.13266999;-0.16021068;0.17511429;-0.10782784;0.023457808;-0.31781405;-0.29596862;-0.043538116;-0.44157353;-0.19791418;0.039982356;-0.3773321;0.041494686;-0.12706803;0.07103737;0.013571715;0.1687585;-0.0630843;1.3148373;0.010824202;-0.04385113;-0.04950169;0.41454926;-0.9077109;0.18901257;0.45835552;-0.1906326;0.08363097;-0.22876929;0.038528286;-0.19263072;0.23367669;-0.052702747;-0.050552465;-0.012205158;0.13282251;0.3491437;-0.0017255999;0.0009675042;0.059057985;-0.019516394;-0.7740913;0.0031887584;-0.19871457;-0.49872008;0.40471354;0.10019709;-1.3351854;0.078489855;0.0479153;-0.014880038;-0.03912138;-0.08471355;0.07265534;-0.16089569;-0.27012452;-0.0055803307;-0.030141138;-1.9277407;-0.2155325;0.07887311;-1.5571481;-1.7489265;0.050719276;0.0668634;0.7719078;-0.030434439;-0.07669931;0.32191747;-0.58266306;0.014411971;-0.2599506;0.06716969;0.012521997;0.11565453;0.13129441;-0.07197331;-0.1448233;-0.03047449;0.19842903;0.67742205;0.15125397;-1.338831;0.3759624;-0.28401673;-0.035379067;0.14008859;-0.4251214;-0.29524267;1.3075591;-0.1018553;0.38684082;0.055003043;-0.13825811;-0.07703652;0.03355127;0.043452006;-0.08565433;0.15500033;0.058688518;-0.15468821;-0.004337949;-0.042603027;-0.70804924;-1.3330283;-0.78362954;-0.06562188;0.06799637;-0.02973691;0.14915024;-0.9006483;0.045799203;0.051765263;-0.19530931;0.025421692;-0.19518247;-0.03310604;0.0501079;-0.80292207;-0.1255787;0.06332386;0.046801943;-0.10972619;-0.03458947;-0.12362337;0.120305784;-0.382185;-0.04858863;0.08952614;-0.12704617;-0.18539216;-0.7890375;-0.42377245;-0.7063052;-0.24035911;0.10754285;-0.021601338;0.07211043;-1.2328075;0.13371007;-0.10886579;0.027913583;-0.17886232;-0.04465276;-0.0016706447;0.8332675;0.17379594;0.798394;-0.22570756;0.031590078;-0.15753894;-0.026188767;0.039632116;-0.22067037;0.15522815;0.14091559;0.1038105;0.60757154;-0.26110038;-0.34997353;-0.11217597;-0.16239312;-1.2870009;-0.17739259;-0.02696822;0.035994634;0.094387405;-0.03463606;-1.4439132;-0.1715814;0.036389664;-0.2892875;-0.119000055;0.2580274;0.22942546;-1.4796242;-0.5459734;0.17117988;0.16703683;0.061144616;0.11608242;-0.40900555;-0.07396819;0.0431813;0.1462173;0.1300786;-0.6045467;-0.17250122;-0.0279669;-0.12501527;-0.8900725;-0.10017004;0.1941345;-0.12035526;0.8594755;0.079894334;0.15971164;-0.06866207;0.18602584;0.091572054;-0.03227644;-0.085482776;-0.12688795;0.030809602;0.08897982;0.07789854;0.033596944;0.06522388;-0.10283808;-0.01139212;-0.13984095;0.17407018;0.20775744;-0.23243284;0.095366456;0.006919505;0.38439074;-0.10411699;0.19686382;-0.2841369;-0.17245789;-0.028652767;0.32042903;0.04356122;0.14337298;0.067313716;-0.075364195;-0.08019742;-0.035527404;-0.33404663;-1.866591;-0.04872846;0.15487772;-0.0080054365;0.044209473;-0.07879924;0.46778366;0.11462406;-0.018789532;0.08028129;-0.022700248;0.094150886;1.1145437;-0.020392092;0.07216442;-0.0006847741;0.014364875;-0.17377888;0.19833581;-0.20194016;0.04953701;-0.813707;0.20529747;0.05851913;0.094881184;-0.07999336;0.116612986;0.47080177;0.06489592;0.12571347;-0.16039647;-0.2554844;-0.019918136;0.31290984;0.08579878;0.043771934;0.33497572;-0.07536445;-0.10081678;-0.12669648;0.260245;0.067535914;-0.08145277;-0.09429908;-0.4369205;0.018320613;-0.13632083;0.0056210114;0.145863;-0.019486729;0.028870855;-0.31890753;0.011971154;-0.26412967;-0.08368069;-0.1192162;-0.0714562;0.26309186;0.26102233;-0.034019984;-0.078841045;-0.20370355;-0.18543048;-0.12279736;-0.2685567;0.4600088;0.032278307;-0.11044729;0.60178435;-0.19243929;-0.21520853;0.039590526;0.07080967;-0.08676561
-0.10303462;-0.31747562;0.017989762;0.17270237;-0.21085651;0.122965075;1.6946347;0.16162384;-0.98674995;-0.15919952;-0.015382444;-0.31858176;0.02149078;-0.09478845;-0.021560833;-0.1394257;0.2334758;-0.084329955;0.0742481;-0.18610561;-0.055526476;0.15894279;0.073969245;0.124395855;-0.14448096;0.13766448;0.11174334;0.00736604;-0.74034286;0.22353762;-0.0013862927;0.5937444;-0.08867003;0.70225734;0.17693979;0.14072432;0.4919629;-0.06621415;-0.008971816;-0.08635865;0.12431211;-2.2051923;-0.673651;-0.019080725;-0.9185382;0.022651402;-0.05824396;-1.410639;-0.2944229;-0.46839127;0.08215659;0.61868834;0.097228974;-0.15850498;0.57653356;0.124756075;-0.00901605;0.07752686;0.002825516;0.038009036;-0.5881883;0.018189212;-0.8875646;0.036318418;-0.09883472;0.049539287;-0.033546474;1.2426014;-0.1465654;0.17439367;-0.19389097;-0.78996253;-0.1521416;-0.07012104;-0.09156632;0.069806166;0.10459925;-0.28943533;-0.20671071;0.13782509;0.17280956;-0.025966324;0.8888725;-0.20963833;-0.023676919;-0.067479596;0.14987217;-0.028354209;0.1316265;-0.037441704;0.085032105;0.055451207;-0.04983457;-1.046805;-0.014147847;-0.1565096;0.1662084;0.14598534;0.13736348;-0.092789814;-0.1467208;-0.35496026;-0.39444628;-0.28297874;0.10039953;1.1129247;0.058346946;0.0064058932;0.028218819;0.032144792;0.28924176;0.0025785426;-0.02531503;0.20769739;0.036982752;0.011832157;-0.2818081;0.09167802;-0.024122288;-0.8977016;-0.84566337;-0.1245939;-0.032974944;-0.031846706;0.19322148;-0.049012203;-0.031127116;0.049881816;-0.11618015;0.16530582;-0.07219377;-0.15369543;-0.2833697;0.5540434;-0.9622023;-0.089392975;-0.11479774;-0.34133977;-1.2459663;0.71039015;0.11829075;0.07357643;-0.37494227;-0.086301364;-0.034715828;0.24340299;1.2994422;-0.09034944;-0.047131103;0.08212877;-0.04809807;0.037634395;0.015762823;0.94101113;-0.13777688;-0.76975334;-0.2978525;-0.41747555;0.025339615;0.008330809;-0.080100186;0.32989246;-0.4839129;0.018190227;-0.035357207;0.031526826;-0.1001905;0.23230557;0.3490162;-0.07708317;0.059641346;-0.080365874;0.08807356;0.035330545;-0.03626759;-0.043176968;0.10909185;-0.15336293;-0.2308069;0.060937002;-0.025539342;-0.16648647;-0.16330631;0.11953981;-0.282893;0.07719838;-0.09882354;0.4690745;-0.7868271;0.17309277;-0.8454842;0.022094697;-0.67831945;0.020963535;0.030506553;-0.08181777;0.054714356;0.25508943;0.022774601;0.45556262;0.10866757;-0.04804291;0.03482529;0.008791497;0.08685185;-0.029048985;-0.58025914;-0.0024085795;0.07450043;0.18693371;-0.8207204;-0.05719878;0.066693746;0.9547461;0.18697912;-0.014481866;0.026060512;-0.07700654;0.15627038;-0.8105467;-0.1409828;0.22969028;-0.043128286;0.21475624;0.14893362;0.041820817;-0.6561023;-0.0278994;0.07514194;1.3019342;-0.12264286;-0.9219072;0.012770994;-1.0470613;-0.13321207;0.08397796;0.04951076;0.069619164;-0.043953203;-0.19095692;-0.039152328;1.1724356;-0.313456;0.16868733;0.19364643;0.16102277;0.015293158;0.6195515;-0.44950828;0.11995686;0.020942047;0.07220455;-0.8310356;-0.65474176;0.7268558;-0.04649346;-0.49816164;0.114037484;0.051553093;0.09393286;0.018051019;-0.10257716;0.050629903;-0.033578664;-0.017644104;0.088340685;0.0372635;0.027825778;0.010377929;0.13130596;-0.43205765;-0.0017976502;-0.025930544;0.09747595;0.5034203;0.042664815;0.69045913;-0.45426336;-0.44330606;-0.093844794;0.19605231;0.15052399;-0.11519776;-0.03737824;0.0043640155;-0.13583416;-0.0010246022;-0.046154477;-0.1307614;0.13853626;0.2047201;-0.005063749;-0.040574536;0.03312809;-0.0021132617;-1.2688202;0.7816458;0.3436365;0.4047723;-0.034002203;-0.3343926;-0.075531006;0.09923406;0.3205893;-0.23602979;0.06881212;-0.34063825;0.029032424;1.4100184;-0.02972682;-0.5930856;-0.05927882;-0.04146462;-1.0421441;0.70451283;0.002618219;-0.64094615;1.2186388;-0.026640724;-0.99880445;-0.08581623;0.01809746;-0.018437555;0.060662646;0.18831344;-0.17462726;0.117882326;-0.722201;0.034024008;-0.4230058;-2.189403;-0.13359839;-0.08492642;-0.0761857;-0.68024266;0.04264;0.010887162;-0.66218114;-0.65220296;-0.010505972;0.072081864;-0.83253044;0.004784371;0.03065259;-0.01837927;-0.005006453;-0.1462855;-0.14151436;-0.004525231;0.064649776;-0.19870575;0.27874514;0.13483179;-0.04522137;-1.2996396;0.19381703;0.21621864;0.19663419;-0.08828296;-0.040919926;0.71898866;0.09410382;-0.13223357;1.2767752;0.02471068;0.024999795;-0.028121427;0.040812425;-0.06171049;0.06462963;-0.12644364;-0.15337889;0.023978453;-0.066442825;-0.019963454;1.3078412;-0.8008846;0.2261473;0.02895026;-0.021462139;0.11392582;-0.10510881;0.0047668573;0.03924814;-0.075249396;0.9242043;-0.14799537;0.04385029;-0.057389565;-0.08416841;-1.2886373;0.11557884;0.013567221;0.013801176;0.022851404;-0.4249858;0.069628365;-0.1563804;0.097715564;-0.016364556;0.610376;-0.0066796653;-0.15002619;-0.441976;-0.124838896;-0.46877173;-0.14999394;0.52041423;-0.0044511156;0.024053242;-0.036765784;-0.039389554;1.0509573;-0.14317839;-0.5253631;-0.24922195;0.009235818;-1.5248432;-0.1048504;0.28976333;0.0060889875;0.118992835;0.046234872;0.097164914;0.056434102;-0.00028844105;1.1501021;-0.24066982;-0.05389065;-1.3595237;0.108458266;0.1060446;-1.271816;0.09114224;-1.4330478;0.07418273;-0.064519525;-0.009464156;-0.047231004;-0.046056136;1.0172677;0.04245214;-0.19720982;0.14156982;-0.0787167;1.011231;-1.0010997;-2.7819836;0.23844893;-0.021420477;0.030108767;-0.047780726;-0.15810506;-0.54502815;-0.16643795;-0.09426098;0.4770291;0.069864355;0.49942547;0.073726095;-0.047318026;0.06631521;-0.29495692;0.0702654;0.14850973;0.09490736;0.20157325;-0.08815334;-0.12900473;-0.1467009;0.003434082;-0.61951214;-0.062382422;0.01642797;0.048076376;-0.025334392;-0.08367395;-0.015535376;-0.09695173;9.577212e-05;-0.054474924;-0.08640003;1.4665915;-0.36136654;-0.07898335;-1.1821544;-0.098550834;-0.058929257;0.30664957;0.04522548;0.22801192;0.12386865;0.12126139;0.076293305;0.22550659;-0.6299048;-0.087161645;-0.06189048;-0.0419055;0.02129574;0.5098915;-0.12356101;0.2581318;-0.112702325;-0.0993682;-0.098166436;0.016064528;0.13688491;0.48738638;-0.057334576;-0.102258064;0.056943487;0.053505857;0.009684709;0.1554237;-0.070422255;-0.006701391;-0.011526331;0.057937767;0.3959216;-0.03326658;0.12166798;-0.08058674;-0.82230556;0.032775365;-0.11527429;-0.1095483;0.16171786;0.018053764;-0.61580294;-0.12052741;-0.046721693;-0.26892343;-0.23659694;0.115827166;0.22501974;0.11985686;-0.1022151;-0.7706165;-0.70416176;0.0800364;0.07530953;0.3121437;0.06760308;-0.43321455;-0.03124224;-0.033552255;0.03011125;0.11272741;-0.05756465;-0.021569094;0.067130394;-0.13465407;0.14077668;-0.06805182;1.2995344;0.06373736;0.17205808;-0.12341927;0.31665596;-0.00033384876;0.16747029;-1.2175194;-0.26280326;0.14759806;0.09230743;-0.4369694;0.27821243;0.018254401;0.07381976;-0.89036477;-0.39642403;1.2735986;0.01625573;-0.015052598;0.05647265
-0.07289782;-0.2952765;0.011789474;0.13609032;-0.034895007;0.11583618;-0.26298976;0.36987358;-0.3072621;0.020363873;-0.010660771;-0.27177516;0.07587284;0.08343879;-0.032185037;0.0047425022;-0.5059627;0.5203251;0.04768362;-0.15177543;0.03674459;0.01650754;0.103743866;0.22877763;-0.05002489;0.23869418;0.12457808;0.034762014;0.24997404;-0.27186832;0.06554819;-0.8121332;-0.02897605;-0.026642015;0.026131248;0.1407117;-0.43583792;0.8159031;0.02352297;0.015193776;0.16903184;-0.5848071;-0.26822183;0.016600812;-0.22931238;0.0072481264;-0.032405976;0.35900152;0.12186534;0.2650423;1.1695617;0.12790936;0.067805625;0.3383;0.34559563;0.100745305;-0.044870827;0.0451264;0.010729138;-0.024083069;-0.5880253;0.043777663;0.08169536;-0.005893643;0.086232185;-0.15357332;0.013731182;-0.16221818;0.01904044;0.20315316;-0.27165976;-0.29792005;0.008277683;-0.5706341;-0.05951879;-0.056771204;-0.011248409;-0.26696375;-1.0031865;0.09991013;0.12763336;0.0198551;0.067094736;0.9181016;-0.05555711;0.29061294;-0.027355252;-0.06054377;0.29433158;-0.0540454;0.08899421;-0.03751232;0.07375836;-1.7571954;0.038857915;0.001642069;-0.45422247;0.07589692;-0.02479034;0.00097635406;0.077972084;0.050667293;-0.11225838;-0.1976421;0.1644872;0.15646555;-0.033375762;-0.00029758428;0.0522794;0.02140434;0.04384513;-0.005652326;-0.40739065;-0.09716767;-0.02532755;0.0012459124;-0.2878083;0.10719539;0.026880939;-0.7295578;-0.7972829;0.029562958;-0.027680976;0.053143203;0.28398043;0.08084866;-0.032057658;-0.035472088;-0.12706459;0.046037346;0.05890972;-0.013451292;-0.5903355;-2.9440017;-0.13527879;-0.06714302;-0.062387932;-0.009333236;-0.61415064;0.22654775;0.36622828;0.031232417;0.068150565;0.087970555;-0.030562567;-0.012608431;-0.29458174;-0.056376904;0.07924798;0.028113676;-0.005109709;-0.008967605;0.016559439;-0.21304688;-1.0773824;-1.3773575;-1.1003456;-0.370881;0.3369361;0.070343435;-0.033031296;-0.5552966;-0.37147117;0.0333929;-0.032553952;0.015554789;-0.0727122;0.0053295577;-0.6872384;-0.008324405;-0.015428098;0.46750253;0.041783478;0.001931592;0.04847232;-0.08271188;0.054011665;-0.098786846;-1.3358067;0.028822493;-0.109226465;-0.038692396;-0.06756186;0.0031703983;-0.25873563;-0.042027604;0.012610521;0.1940034;-0.039285854;0.055459134;-0.13307011;0.018090172;-0.3741952;-0.09866018;-0.06542871;-0.073099956;-0.28491887;0.06526639;-0.42175025;-0.06958875;0.18464738;-2.0545402;0.050820258;0.21986452;-0.0312968;0.06664357;-1.0643445;0.2830935;-0.03452438;-0.2105312;-0.80558527;0.053744994;0.14175183;0.3883396;0.13540065;-0.04489143;-0.017379344;-0.051125146;-0.0003507864;0.07737718;0.06867875;0.3673197;-0.11802394;-0.5906356;-0.021905601;0.09285025;-0.7800267;-0.20723487;-0.5557766;-1.1140634;-0.09406162;-0.4446753;0.050461765;0.21596384;-0.026831279;0.14199027;0.09725301;0.045910407;0.11244607;-0.103332765;0.04355526;-0.43556276;-1.2581278;-0.20383117;0.22879593;0.39309916;0.060044512;-0.68829536;-1.2834466;0.037777994;0.020995263;0.09943015;-0.54380333;-0.2715791;0.04590204;-0.5909019;-0.6042504;-0.07351416;-0.038941786;0.009708097;-0.008816233;-0.03254089;-0.035731424;-0.043901805;-0.029202022;0.25234017;-0.02866132;-0.024806902;0.012065256;-0.08041022;0.18118688;-0.02349975;-0.024973515;0.06609811;0.19134249;0.07562992;-0.909525;-0.32220742;-0.68609804;0.051411256;-1.3521124;-0.038102817;-0.028726077;-0.13249768;0.068612374;0.029876355;0.012661174;-0.014067235;0.09427198;-0.010371754;0.40705204;-0.038375095;-0.030352572;-0.049982883;0.084423415;-0.6169756;0.17891414;0.6043288;-0.27027276;-0.13280162;-0.35507044;0.03602963;-0.09566356;0.37414783;0.25086948;0.04309891;0.22448593;0.0026104138;-0.43223026;-0.01671098;-0.23341061;0.12111298;0.02409083;-0.2594623;0.017479591;0.006481286;-0.49135917;0.36412373;-0.0446146;-0.9578858;-0.07905312;0.030428939;0.043489724;-0.018800613;0.028133808;-0.06948778;-0.03798745;-0.16000707;0.05110081;-0.63262403;-0.9746694;-0.091747284;0.035071567;0.44938856;-0.9828591;0.046520546;-0.022422142;0.41183212;-2.164958;0.05744814;0.03394614;-1.5830672;-0.042807322;-0.798616;-0.11339121;-0.005418724;0.03739568;-0.05582552;0.050101083;0.02541997;-1.8005083;-0.5048404;-0.16490984;-0.009979715;-0.83894354;0.31539077;-0.42344454;0.10433102;0.07642063;-0.36225006;-0.83180684;0.9912808;-0.043422386;0.49225459;0.04616543;0.019371787;0.048098125;0.024401536;-0.0071452414;-0.0045816675;-0.048377413;-0.74816626;-0.020940898;0.071837895;-0.0065680156;0.52321845;-0.40693724;0.31542614;0.054221846;0.0348268;-0.0374358;0.04869896;-0.11497623;-0.01631627;0.04456502;0.10987102;0.028690558;0.05141404;-0.027859397;0.06265648;-0.84423435;-0.073564574;-0.047878273;-0.036457926;-0.20647754;0.0947613;0.071932666;-0.04872961;-0.30173814;0.058711432;-0.112117305;-0.060756635;-0.15925643;0.9597602;0.039691187;-0.52070934;-0.32688183;-0.9535164;0.049962297;-0.050933883;-1.0006325;-2.8589172e-06;0.043108117;-0.13594571;-0.2966484;0.22156268;0.017648524;-0.27181038;-0.034901015;0.14563873;-0.336995;0.050942637;-0.06604614;-0.06562701;0.0069438447;-0.0769169;0.13351813;-0.03832646;-0.054227676;-0.58047867;0.18100797;-0.079943314;0.56720227;0.04441367;-0.9651663;-0.20003301;-0.06916514;-0.021602167;-0.019805105;-0.029208899;-0.17606993;-0.21081541;-0.12624507;-0.35632125;-0.3959935;-0.23867811;-1.2204175;-1.0819362;1.0088798;-0.033465985;0.08693823;0.09275724;-0.10421698;-0.69232345;-0.82337725;-0.122949235;-0.9185715;-0.3331035;1.1881918;-0.010865559;0.035754696;-0.058778018;0.57291764;0.043996472;0.3073732;0.02649704;1.3197448;-0.01571441;0.019244513;-0.11161534;0.040899117;-0.78210944;-0.07647361;0.07563092;-0.06428711;-0.06224465;0.06537342;-0.07518775;-0.21673203;0.062395494;0.09448121;0.058436554;-0.3289615;-0.45006084;-0.060050014;-2.1545303;-0.050078887;0.053244777;0.2871858;0.041447744;0.24651979;-0.25270003;0.072718084;0.03491974;0.40809113;-0.29972747;0.07812004;-0.04491321;0.057924896;0.22925298;0.6881206;-0.37667534;-1.133163;-0.034177013;0.12223605;0.05986605;-0.0035708107;-0.080514096;0.5659344;-0.025514064;-0.08222106;-0.046501182;0.023859296;0.07110312;0.28383854;-0.10866317;-0.042072788;0.086261295;0.02978679;-0.14479208;-0.03645986;0.018594386;0.096464075;-0.5325693;-0.021235771;0.024729764;0.036976416;-0.012580969;0.025116585;0.3531499;-0.017126774;-0.027811883;-0.41293663;-0.17925628;-0.16508922;0.37201703;0.10343797;0.0861906;0.3707376;-0.38725266;0.06645566;-0.06670993;0.3380945;0.0028735718;-0.15771922;-0.08671736;0.059353597;-0.068551265;0.07215985;-0.023000607;-0.023585707;0.04981229;0.07387884;-0.10002432;0.045980066;0.29105338;0.04227018;0.04680142;-0.1406824;0.25646868;-0.015429996;-0.05276609;-0.7378246;-0.18741344;-0.05075676;0.07491909;-0.3655936;0.51992923;0.044537913;0.03705123;0.54554814;-0.24493077;-0.004084355;-0.0425227;-0.005678944;-0.038502496
0.12136783;-0.08957799;0.03400676;1.1398512;-0.11774096;-0.1798517;0.0026473326;0.3451944;0.28259924;0.1232471;-0.116588846;-0.22273582;0.05547496;0.025245553;-0.067663245;-0.46141756;0.46900856;-0.43550524;-0.08966986;0.10850599;-0.023027083;0.08511662;0.009242665;-0.09939931;0.14669801;-0.41154778;-0.14042555;0.095586926;0.7653958;-0.026797399;0.073812895;-0.79540193;0.06730283;0.407301;-0.11852521;-0.11646672;0.62396157;0.28790998;-0.0011179517;0.049352545;-0.14598079;0.22400545;-0.188218;0.03796814;-0.3886563;0.025597773;0.0096978005;0.6693975;-0.009755025;-1.8518122;0.091553256;-0.46929225;-0.17094827;2.267427;-1.0405548;-0.16412915;-0.1633269;-0.00238808;0.1081603;0.049668852;0.11642912;0.046293788;0.84280336;-0.046563406;0.083377555;0.0061231875;-0.06445825;0.11124712;0.01258802;-0.060914245;0.0038924017;0.010733553;0.13372438;0.07240308;-0.08110285;-0.06834672;-0.13183007;-0.12615177;-0.5270799;-0.12174053;-0.17117918;-0.10144186;-0.16998118;0.90474594;0.055975802;-0.059686225;-0.18458368;-0.009782472;-0.21322806;-0.08611335;-0.102184124;-0.02054533;0.05118809;-0.7734203;-0.056947216;0.030208819;-0.15574872;-0.113796525;-0.099802084;0.07227075;0.096556924;-0.024442172;0.247212;-0.18112513;-0.12178936;1.3251283;-0.0423919;-0.033531565;0.13386406;-0.20368154;0.8838502;0.05822267;-0.5084418;0.12718165;-0.175029;0.027103763;-0.16562112;-0.021125613;0.023798993;-0.7606212;1.423016;0.048174683;-0.1260985;0.079480246;-0.16069995;0.100889355;0.08740158;-0.14772733;-0.16718058;-0.18587439;0.048112974;0.038741898;-0.37277752;-1.6447595;-0.017937293;0.019026872;0.063325755;0.23211429;-1.0789796;0.45117965;1.7003379;-0.17727189;-0.26671666;0.17559272;0.16120514;0.52499896;0.35049984;0.13783573;0.08618269;-0.059895188;0.059692882;0.038594436;-0.106277645;-2.3584828;-0.5304284;-0.23321801;-0.7184838;0.09028669;0.5350904;0.08147512;0.024133664;-0.5827631;-1.1285499;-0.1606921;0.10618816;0.076526195;0.17590551;-0.0473157;-0.7651214;0.03627588;-0.12894015;0.632513;-0.23025624;-0.110508665;-0.020235771;-0.049466483;-0.16089626;0.0013579681;0.01272113;-0.015021529;-0.12927462;0.054961495;0.18304494;-0.03740769;-0.07509034;-0.24054457;0.003996071;-0.05377828;-0.207383;-0.14051363;-0.0958569;-0.08715334;0.051222935;-0.13301788;-0.03798592;0.021390898;1.0568763;0.5159616;-0.18042457;-0.19038285;-0.07631956;0.9996242;0.031524736;0.16717066;-0.099036016;0.028688636;-0.92419904;-0.20201121;-0.09383226;-0.85900086;-1.9091685;0.08840256;-0.13756308;0.11729093;0.034089807;0.0066515706;-0.023448547;0.20240457;-0.06023439;-0.06768914;0.07156175;-0.17337212;-0.042315833;-1.0480503;-0.09445839;-0.08843599;-0.33405086;-0.26032636;-0.5268096;-2.5936174;0.23283306;-0.088654354;0.7038596;0.13561791;0.05017724;0.09221568;-0.19174808;0.0013712951;0.1272345;0.14579657;-0.08258765;-0.5528267;-0.8283979;-0.1006977;-0.08087739;-0.1408575;-0.20061019;-0.8438093;-0.44932464;-0.105629474;-0.102557346;-0.0043421853;0.048597604;0.6309498;1.5807617;-0.29194382;1.6212574;-0.19793375;0.08707941;-0.18319719;0.08030341;0.07484563;0.0019233329;-0.005956228;0.021523649;-0.20336549;-0.032854386;-0.10115109;0.037503365;-0.070108734;0.32688656;0.3819399;0.03710077;-0.18544735;0.010196032;0.16343589;0.23117371;0.12630875;-0.67560846;-0.033096243;-0.43973282;-0.07892244;0.029403966;-0.5445638;-0.061468843;-0.014292108;0.10840459;0.10389515;0.028982682;-0.03787884;1.1486372;0.011386647;0.036207132;0.027352838;-0.019276436;-0.9979654;-0.760119;-0.15735365;-0.4781172;0.23011802;-0.14778222;0.17375784;-0.09031737;-0.24214947;0.29822198;-0.10235157;-1.1101099;0.012756358;0.124089286;0.03546482;-0.0736751;-0.26247415;-0.055343114;-0.032576427;1.0150001;-0.08058148;1.0829846;-0.36852488;0.13475087;-0.062431347;0.02968352;0.07339002;-0.041745942;-0.12919012;-0.15122618;0.091156945;-0.055969793;0.23656729;0.02738676;-0.09351988;0.47248405;-0.33570415;0.08847082;-0.46562132;0.16176821;-0.006808867;0.008539862;-0.75888914;-1.0313957;0.027055101;-0.16524577;-0.7743884;-0.04696806;-2.4467845;-0.06202421;0.03287365;0.20022866;0.13220444;-0.11989215;-0.031895358;-0.6828744;-0.24867235;0.004844733;0.060163394;-0.38855407;-0.1926208;-0.030146701;-0.12933987;0.096247494;0.57792234;-1.0298047;1.1700248;-0.03523258;2.0513096;0.111437835;-0.0765885;-0.13991812;0.059597872;0.060815703;-0.018556139;0.07570154;-0.86639786;-0.13099937;0.0047225426;-0.064310744;0.38844886;-0.16278349;-0.22407334;-0.05532007;0.029935801;-0.122380316;0.1780891;-0.41615903;0.068548605;-0.055489007;0.14897017;0.13844153;-0.13851047;0.04186674;0.16200234;-2.188781;-0.19367352;0.14548491;0.055482592;-0.13085222;-0.6232615;-0.11390241;0.041917965;0.28235766;-0.019611077;-0.3462461;-0.06965314;-0.06300093;0.07593899;0.4524759;-1.1309913;-0.069336794;0.20180614;0.0037938016;0.1670623;-0.677321;0.15233603;1.9160179;-0.2644482;0.80658865;-0.95192885;-0.21056089;-0.41631156;0.14321548;-1.5005252;-0.36090997;-0.06386255;-0.06990335;-0.17059296;0.03449307;0.0022845634;1.6712465;0.1784514;-0.0016736684;0.8334035;0.069970846;0.029947342;-0.452086;-0.11106468;-1.8249204;-0.05357959;-0.024190625;0.16189751;0.043936137;0.022823367;-0.29282975;-0.10035529;0.14861119;-0.034218535;-0.75106764;0.22623126;-1.3331114;-0.55282503;0.9636197;0.07099676;0.020602021;0.06530989;0.18097058;-0.84105843;-1.1091273;0.18204921;-0.317458;0.018769009;0.58840084;-0.02571172;0.058395628;-0.025428295;-0.29557833;-0.07072288;-0.15748993;-0.08775397;1.0850064;0.0753158;0.18704824;-0.07885648;0.14184342;-0.15277788;-0.015034221;0.049604584;-0.17615809;0.05585512;0.105877236;0.050866395;0.27621108;0.060207095;-0.011694275;0.104441606;-0.65156627;-1.5778818;0.13490525;-3.2427733;0.030223176;0.05122871;-0.097764835;-0.104427405;-0.070254005;0.07636856;-0.10987084;-0.12299049;-0.21714768;1.1918057;0.006143819;0.19652216;0.052451033;-0.5130872;1.0855765;-0.39411783;-0.678988;0.059263457;0.059832085;0.0819266;-0.008623829;0.0062612873;0.2000013;0.12863594;0.04788314;0.032114316;0.042271666;0.0692812;0.90025467;0.03385939;-0.009006594;-0.08160762;-0.12384473;0.8502415;0.08263867;-0.15983531;0.102469005;-0.42616108;0.056789592;0.049677562;0.0693649;-0.11085053;0.11635609;-0.21043888;0.1135;0.08550293;-0.18007252;0.099568635;-0.026237667;-0.20784211;-0.21894082;0.050025303;-0.15973136;0.37840733;-0.014224311;-0.0840861;-0.06445822;-0.028969215;0.092885286;-0.07618544;0.0083975615;-0.07339008;-0.18347646;0.017491167;0.059966087;0.058739863;0.16746706;0.23967916;0.111061506;0.0410303;0.012447293;-0.1396515;-1.211443;0.036418576;-0.09577915;-0.13275257;1.5532551;-0.14147891;-0.082328856;-0.07774962;-0.27323616;0.81575006;-0.18281701;-0.027469272;0.8904539;1.038323;1.191495;-0.036223695;-0.045626022;-0.049680173
0.028344247;-0.392546;-0.08362915;0.4588395;-0.17552973;0.13417272;0.33655223;0.16105582;0.16535649;-0.06730748;-0.06449802;-0.14984994;0.05268251;-0.065450735;0.041305788;0.09603673;0.5343724;-0.8138748;0.0014522487;-0.11689912;-0.07758261;-0.2371902;0.01742585;0.38769108;-0.1134103;0.40725684;0.26637203;-0.0009365093;-0.72913074;-0.32890227;-0.0052292068;-0.11745212;0.0731948;-0.24841201;0.15250918;0.27649844;-0.5121603;-0.06736984;-0.06742444;-0.038382985;0.2030536;-1.0912899;-0.83211184;-0.069855414;-2.278731;-0.072774135;0.03215642;0.07921959;-0.11234106;0.33689034;0.2795625;-0.9894875;-0.047084324;-0.33067682;0.23252836;0.15419346;0.09130741;-0.011770038;-0.081691615;-0.0073445477;-0.18282515;0.010403812;-1.2311064;0.0115419375;0.062890664;0.023092153;-0.07025808;0.6956311;-0.058487833;0.15692891;-0.118471295;-0.8304543;-0.042811647;-0.04075955;0.15929846;0.08976027;0.01663417;0.25341004;-0.3354055;0.19024238;0.113982856;-0.029259512;0.4687937;-1.4067664;-0.024223514;-0.13220417;0.12199426;0.05432686;0.33976236;0.02937438;0.20268863;-0.06715832;-0.053663377;-0.58022434;-0.008731977;-0.0449488;-0.7289007;-0.102955386;0.04348767;-0.08838528;-0.078578964;0.63300484;0.21547735;-0.032326847;0.30986995;0.28294268;0.03067839;0.07455798;-0.03842346;0.039010644;-0.44041255;0.030379174;0.089531854;1.0228598;0.02369353;0.039218348;-0.555466;0.0036027734;-0.11800669;-0.28336397;0.12547536;0.062787436;0.07012358;-0.019448372;0.2842997;-0.070174515;0.023099018;0.088813424;-0.27608818;0.00015518398;-0.027517106;-0.13109761;0.15527835;-0.74772877;-0.19307084;-0.04821952;-0.08607778;-0.034028906;0.25070387;-1.1191866;0.24635398;0.07313254;-0.04868294;-0.029033596;0.05426022;0.9524767;0.73908186;-0.0533434;-0.06767573;0.036505967;-0.07273932;-0.013563907;-0.06395993;-1.2899637;0.28004742;-0.12403571;-0.5413864;-0.17423522;0.12642716;-0.031489294;-0.05614109;0.094075516;-0.87080127;-0.027440375;0.0454224;-0.04371488;-0.11398085;0.08411165;0.14444278;-0.047060743;-0.023752851;-0.65691805;-0.024975205;0.073083654;-0.03050016;0.02188272;0.15931848;-0.09889636;-1.4516221;0.038147092;-0.06553017;-0.036960274;-0.12490146;0.037437905;-0.39604434;0.042604435;-0.070471644;0.37334755;-0.18824229;0.020512007;-0.3423531;-0.040964153;-0.64889425;0.021263639;-0.051595926;-0.07197475;-0.6176723;-1.3174664;-0.28381068;-0.0040104575;0.16773306;-0.25563195;-0.010896031;0.1621742;-0.06925407;-0.0053801085;-0.41574803;-0.27545795;0.009235219;-0.33002886;-0.9059481;-0.032428015;0.22805269;-0.40182462;0.08479326;0.0060155904;0.0055241818;0.017144147;-0.044641376;-0.45455158;-0.03466264;0.5567157;-0.20020877;-0.1616902;0.045423236;-0.01326316;1.8516439;0.21016902;0.2569009;1.1236984;-0.045520514;-2.6208386;-0.20175366;0.8540002;-0.06664614;-0.24175623;0.14807808;0.074621074;0.05122037;-0.10302097;0.030843856;0.5688699;-0.16960724;-0.24216715;0.45370176;0.5619422;-0.026216099;-0.016179498;-0.8289816;0.090699546;-0.05627773;0.017249186;-0.6379559;-0.12003045;-0.018396229;-0.099793844;-0.48744205;0.066325635;-0.0062069874;0.02146376;0.03802059;0.0035844508;-0.120015375;-0.06757091;-0.0450952;0.28470096;-0.09284103;-0.044052776;0.022635527;-0.012913601;-0.2946981;-0.16332027;0.013627784;0.13723762;-0.20728543;-0.04775875;1.0242472;-0.25973532;-0.7117269;-0.0059837676;-1.0236738;-0.25060928;-0.080197245;-0.016864652;-0.020017846;-0.11095638;-0.0725335;-0.018319394;-0.0038988027;0.03694334;-0.059113007;0.032807834;-0.041768674;-0.03450862;-0.08821477;-0.16388188;1.2073905;-0.6281263;0.29187557;-0.17879534;-0.3357956;-0.11169915;0.020358283;-0.17706011;-0.18018459;0.12219644;0.3678988;0.057445005;1.0434343;-0.056145225;-0.18438601;-1.4766976;-0.020395461;-0.043772236;-0.24796104;-0.024036312;-0.38832605;-1.2011597;-0.031209955;-0.12157771;-0.016151104;0.0682882;0.0030810598;0.013989382;0.17884685;-0.08647798;-0.072595686;0.5912533;0.03532551;0.29920968;-0.8122562;-0.4002744;-0.0065878914;-0.030984541;-0.6873965;-0.0769246;0.060910787;-0.09382071;-0.47246513;0.015406722;0.85149103;0.487551;-0.14120466;-3.1693015;0.035216928;-0.10394659;-0.0964516;-0.14778714;-0.009424363;-0.03030679;-0.2799757;-0.10552272;-0.100878;-0.005864249;-1.597133;0.5527307;-0.1309571;0.06856875;-0.0052916096;-0.34787047;0.2371719;1.3741565;-0.053014304;-0.2934764;0.034723714;0.03132188;0.023346454;-0.032767594;-0.03511026;0.008349912;-0.05459239;0.22446552;-0.046877727;0.026162824;-0.15251598;0.23920515;-1.4572042;-0.9528464;0.07699885;-0.050420742;0.048303016;-0.08485701;-0.07080724;-0.052956328;0.022130454;-0.10085771;0.00046122892;0.010518243;0.07503977;-0.053582527;-0.56997144;-0.050078705;-0.10336965;0.02481888;-0.20840272;0.23777522;0.21224666;-0.10999829;-0.14021379;0.060041305;0.35674688;0.051527116;-0.13763061;-1.2697939;-0.15763834;-1.1536374;-0.2298087;-0.4714911;0.07216991;0.03165591;0.36925882;0.019834613;0.43426514;-0.24346472;0.10908045;-0.3399382;-0.0119673945;-1.2261397;-0.0058188373;-1.985594;0.18479186;0.02324535;0.028705338;0.011040674;0.0692837;-0.09825145;-0.62374973;0.01144718;0.06625208;-1.6129702;-0.06755568;0.12558393;0.32865363;0.13990836;-0.8003913;-0.1147534;-0.09493642;0.0064591193;0.07631019;-0.06396248;0.81216276;-0.08931716;-0.07075269;-0.43485236;0.059018448;-1.0086541;1.1437997;-0.0015174648;-0.18315028;-0.059694894;-0.0104046445;-0.013291228;-0.122760706;-0.7885299;0.20818721;0.0034098802;0.29791436;0.08871153;-0.01633686;-0.041471064;0.02240687;-0.060596183;-1.2805107;0.06452382;0.45955035;0.0889415;1.0003297;0.051744312;-0.0033380426;-0.12522934;0.030897742;0.9835534;-0.037861146;0.045719054;-0.0042583314;-0.004874612;0.04259924;-0.059088387;-0.074220896;-0.039106697;-0.059157155;-0.010886323;-0.68988496;-1.4262062;-0.03874843;-0.6146142;-0.013610963;0.0036618395;0.6168683;0.09538842;0.35668707;-0.19257367;0.09765011;0.1321406;0.4941546;-0.15175897;-0.08725764;-0.051449258;-0.030943183;0.09058895;-1.3877552;-1.1185411;0.03052086;-0.08336416;0.008427642;-0.006848912;0.049530797;-0.17997266;-0.21896958;0.012552468;-0.09247731;-0.069297;0.0264899;0.033493333;-1.0626779;-0.0883579;-0.05144047;0.036115967;-0.08030187;0.032786403;-0.0029026296;0.043227073;-0.017890071;0.97315854;-0.013666834;-0.08382425;0.050355628;0.04845621;-0.00063565356;-0.21062814;-0.027422;0.0060912124;-0.13655779;0.66962934;-0.049744785;0.52346313;0.2073588;-0.08221886;-1.0677752;1.0563433;0.04481584;0.03884704;0.52322173;-0.080799684;-0.21746962;0.0035538801;0.19940339;0.008077897;0.041699953;-0.02693979;0.04844668;-0.016161354;-0.188476;-0.29679918;0.0026680662;1.0765277;-0.06740864;0.0764571;-0.3014941;0.25682575;-0.07269132;0.13283396;-0.3598429;-0.30295023;0.00451511;0.095845215;-0.40247586;0.27594468;0.22336403;-0.020963283;0.0055619874;-0.26632655;1.2569282;0.02959573;-0.046396688;0.043768205
-0.04045156;-0.24067725;-0.063722774;1.8661137;-0.36022303;0.08987005;-0.44653365;0.010599414;1.243183;-0.047479447;-0.027535463;-0.18911004;-0.10670896;0.0061923214;-0.003130054;0.13411945;1.1522074;-1.5120887;0.13991456;-0.19715199;0.0055048224;-0.42222044;-0.15862341;0.35468194;-0.16045171;0.6455487;0.21034077;-0.053641997;-0.71777457;-0.3500091;0.013700773;0.62033796;-0.08401288;-0.28466478;0.14123078;0.23380204;-1.4548227;0.66344875;0.024988685;-0.039193;0.2324624;-0.77635276;-0.74195945;-0.12674038;-1.7914932;-0.07552929;-0.0850528;-0.08930524;-0.32403725;-0.38035285;0.006412052;-0.9839365;-0.0001868459;-1.4051429;0.17268549;0.0630457;0.1279994;-0.03233754;-0.008644917;-0.02593063;0.13029207;-0.05610088;-0.43284485;0.09420562;0.011138347;-0.08132019;0.03987819;0.6748596;-0.16629204;0.17582595;-0.17216127;-0.11821979;0.03184366;0.2530754;0.29697168;0.08571257;0.17830504;0.2211777;1.5546985;0.184521;0.2134232;-0.019295588;0.1181492;-1.3975837;-0.04800904;-0.09326791;0.22688761;0.09042935;0.2910035;0.0068318844;0.21226017;0.062234804;-0.05250858;-0.36665744;0.045998797;-0.06913676;-0.99456567;0.14699401;0.12005464;0.014233655;0.0005844585;-0.41476956;0.4036501;-0.3003379;0.28219718;-0.41777354;0.11185396;-0.040476102;-0.06970178;0.046825133;-2.0723476;-0.02186576;0.9563253;-0.12556894;0.0016884513;-0.07610032;-0.50782734;-0.005704535;-0.057143506;0.15912463;-0.10699644;-0.052448157;-0.036813598;-0.063598394;0.26433715;-0.11724254;0.021753255;0.17041023;-0.23628324;0.14672358;-0.0073596854;-0.14440522;0.4012676;-0.98963386;-0.270127;-0.0769275;-0.024580766;-0.35132113;0.9980374;-0.8484834;-0.6226581;0.093122855;-0.20145531;-0.03775227;-0.0049497345;-0.81207997;0.22022787;-0.03970632;0.0185895;0.063002646;-0.1104546;-0.06947852;-0.05432176;-0.97619694;0.08808548;-0.50237036;-0.76689464;-0.71837866;-0.39995423;-0.03309083;-0.009345203;0.15989195;-0.31517732;0.15266156;-0.117961645;-0.052796904;-0.09886188;0.11129546;0.09762168;0.037436504;0.028684683;-0.59656864;0.0041119014;0.013354127;-0.04026516;0.06215687;0.22137891;-0.07240087;-0.11003233;0.022290628;0.013144104;-0.06797707;-0.024963534;0.10258121;-0.37386036;-0.0015782372;-0.07411278;-1.2036675;0.9892117;0.039221797;-0.8363342;0.10542768;-0.16092606;-0.06560061;-0.100884706;-0.018122135;0.15458472;-0.927877;-0.179618;0.24447569;0.20487879;0.12966685;-0.07305382;0.12460899;-0.040558346;-0.008437369;0.089966066;-0.18641326;0.12451786;-0.010542989;-1.0119891;-0.041343052;0.21804447;0.8791416;0.15268704;0.038059145;-0.025965828;-0.08946922;0.020854957;-0.8375454;-0.11623675;0.34619555;-0.059978962;0.09745597;0.029437881;0.13731013;3.3347988;0.2223465;0.16241455;1.0666499;-0.18651639;-1.3448167;-0.40673855;-0.24646391;-0.080768794;-0.11627426;0.061527483;-0.06591493;0.042131785;-0.11122098;0.0050282627;0.9779446;-0.5886839;-0.20288716;0.28675362;0.4621114;0.02045502;0.35906053;-1.0254993;0.05932423;0.049449753;0.12756908;-0.7354872;0.17349866;0.036714718;-0.058124095;0.5028162;0.033837322;0.056360982;0.18115431;-0.062117424;-0.014460596;-0.029473757;0.017391618;0.041341953;0.21159971;-0.04988416;0.06876671;-0.046530664;0.016269395;-0.12929624;0.82103544;-0.0045013824;0.1670649;-0.15883882;0.047258988;-0.6646196;-0.20749764;0.9104727;0.06539755;0.28809965;-0.14761665;-0.01749433;0.07494011;-0.08227907;0.2563664;0.039286036;-0.081275545;-0.119093426;0.09818846;-0.8938554;-0.07151976;0.07676232;0.06579857;-0.40691048;0.0020450857;0.1431395;-0.04221077;0.39782646;0.053281356;-0.38538343;-0.116954975;0.048523884;0.13820554;-0.003757811;0.09068499;0.5942448;-0.08469921;0.7115221;-0.010255491;-0.46119282;-0.8755396;-0.028867709;-0.38395554;-0.59696835;0.04451508;-0.23288792;-0.29258725;-0.074558996;0.32959557;-0.035546023;0.05105871;-0.022308074;0.10705611;0.09210168;-0.022108817;0.05624627;0.8315412;-0.028533146;0.37462384;-0.661663;-0.18637502;0.03207134;1.8755546;-0.4481715;0.0038807322;-0.09277755;-0.44767165;-1.3575507;0.07527546;0.2079408;0.9837463;-0.047886644;-1.9002708;-0.08753364;0.027819902;-0.08510627;-0.083129354;-0.038322642;0.12724741;-0.7668548;0.038009983;-0.14853159;-0.042867415;0.22166887;0.4335329;-0.078843966;0.033134103;0.05230754;-0.93164754;-0.15048447;-0.1945645;-0.12790693;0.07844243;-0.004791106;0.07739667;-0.05384615;-0.086662345;-0.0931927;0.08814973;-0.03058302;-0.19400452;0.05041573;0.05930855;0.033964437;-1.1538668;-1.2458094;-0.9553391;0.037112463;-0.084843144;0.13964356;-0.11654057;-0.41645202;-0.12708667;-0.023822602;-0.4108537;-0.0068952837;0.01663103;-0.03775242;-0.014832333;0.5681188;-0.030522658;-0.06865648;0.039535835;-0.15518454;0.3948459;0.11568153;-0.10532147;0.056609523;0.07873804;0.32042667;-0.038617644;-0.20749906;-0.36165982;-0.95223516;-2.3042428;-0.18889746;-3.4928095;0.035030857;-0.013525191;1.0124564;-0.15572335;-0.09158477;0.14637943;0.38582805;-0.5890817;0.11745369;-1.4764359;-0.10038174;0.093310654;-0.016986726;0.07834154;0.10246039;0.15935807;0.05090148;-0.03523204;-0.21063608;-0.12404036;0.0056921826;-0.83758223;0.071056075;0.16942014;1.1125675;0.09143983;0.74166435;0.052022304;-0.10134891;-0.01785411;-0.081542365;0.01806384;1.1274233;-0.14650677;-0.15490824;-0.4667899;-0.040830597;-0.8161749;-0.056575343;-1.3233902;-0.08418311;0.015830006;0.024422282;0.0486801;-0.0114058;-1.9676049;0.4039662;-0.032096066;0.05797596;0.09653602;-1.5448906;0.03764822;0.060738314;-0.0060032695;-1.068132;0.011152111;0.39219373;0.010736805;0.40579215;0.048585452;-0.17660497;-0.18923336;-0.038275056;0.3135566;-0.056965075;0.07186554;0.11925397;-0.041700304;0.028977238;-0.15123884;0.11211602;-0.072109446;-0.007466702;0.05574488;0.5408642;-2.0504117;-0.059866894;0.68290514;0.042830948;0.034717172;0.4197482;0.011490906;0.3459619;-0.13845272;0.043270677;0.16536896;0.44806597;0.6399492;-0.038356945;-0.0793997;-0.018955724;0.55135274;-1.4987057;-0.5221644;-1.0193352;-0.17265774;-0.018137805;-0.076807395;0.03864482;-0.16082676;0.07828863;-0.12952475;-0.12579304;0.048613828;0.040200274;-0.078906305;-1.0180237;-0.09116953;-0.014028754;0.0063537117;-0.24662532;0.3004311;-0.08173533;0.046677496;0.054570924;0.18350863;0.066815004;0.008417729;-0.08154234;0.054054946;-0.091077045;-0.32753456;-0.061653312;-0.09680433;-0.25080416;0.32776445;0.066084124;0.44817576;0.24385394;-0.06774086;-0.8933981;0.32760483;0.096528485;0.024657829;0.35869315;-0.07319548;-0.050550006;-0.011172516;-0.069917284;0.07099562;0.176525;0.05830247;-0.05465805;0.09024388;-0.029265048;-0.27865365;0.007923382;-0.11707791;-0.054764103;0.13592842;-0.26404098;0.28953373;0.06723577;0.1765861;-0.33590296;-0.27578285;0.05020645;0.19367494;-0.25263348;-0.5161662;0.14542681;-0.0152880745;-0.8651342;0.18740019;-0.7378568;0.0047980687;0.064343065;0.041383483
-0.08027116;-0.30025595;0.036076352;1.7077824;0.04242492;0.31280112;0.06367465;0.07601154;0.5434236;-0.16841295;0.14771387;-0.2256486;-0.089795075;-0.059929103;0.01844288;-0.12299756;0.5854395;0.3858611;0.3724812;-0.27112135;0.055092555;0.6673319;0.1119865;0.501328;-0.23250723;0.30763888;0.37024567;-0.02918924;0.09357414;-0.46704617;-0.08047271;-0.59599006;-0.0803536;0.37260708;0.24511598;0.39061433;1.4685313;1.1617789;-0.120258845;-0.072478905;0.33993647;0.33522552;-0.44507992;-0.0631206;1.3959081;-0.012053428;-0.021942627;-1.222329;0.5182901;0.372945;-0.40217784;-0.27483228;0.10282793;0.25833797;1.4250762;0.2039241;0.16040494;0.02375759;-0.0504628;0.0853251;-0.7942522;-0.061856385;0.83867663;-0.029097117;-0.046600357;-0.15733846;-0.047314685;0.08280711;-0.014027478;0.3165419;-0.15447262;0.27479374;-0.18518977;0.9712633;0.32949743;0.18058658;0.18452223;-0.449995;0.5284394;0.35205805;0.3854912;0.16190377;0.0512128;0.100751154;0.049005408;-0.28092825;-0.2280254;0.11851299;0.47682577;-0.05826422;0.44453454;0.018675156;-0.033383418;-1.2658077;0.07801087;-0.22420296;-0.743063;0.36345503;0.26562512;-0.09277938;-0.2261045;-0.7976304;0.32409495;-0.45089206;0.3001119;0.7846086;0.32980323;-0.09073167;-0.06607913;0.1992775;1.0726439;-0.096810885;-0.42425403;0.9063475;0.048039217;-0.021042993;-0.4666473;0.0656536;-0.24577329;-1.016836;0.712974;-0.1447032;0.108265445;-0.13833478;0.40220472;-0.21257833;0.061653554;0.24137817;-0.29491374;0.25712514;-0.027833333;-0.25553203;-0.17329748;-2.433039;0.04071033;-0.11511063;-0.06503223;-0.042017836;-3.402321;-0.25582787;0.14229415;0.22277711;0.059723664;-0.087101676;-0.08248857;-1.4073262;0.9765817;-0.07389436;-0.009493006;-0.0074625;0.01190571;0.033072278;0.08659473;-1.9063014;-0.6751558;-2.8065567;-2.3242943;-0.6257416;0.5753302;0.008231224;-0.04572809;0.118503086;-0.6734843;0.18890361;-0.15441345;-0.11969177;-0.2589417;0.06624454;-0.4930423;-0.019125514;0.17390211;-0.044489387;0.10276536;0.064749725;-0.024696924;0.048205607;0.31788895;0.023834128;-0.36961973;-0.015881995;0.0886247;-0.14935966;-0.31914315;0.09010495;-0.25584376;0.0042670006;-0.034111943;0.68425065;-0.5810884;0.16667356;0.8087863;0.008925675;-1.992691;-0.17970496;-0.11682572;-0.07668669;0.3612932;2.0803359;0.1823154;0.14189474;0.39530995;0.23848082;-0.10061849;0.10098283;0.11624423;-0.03865971;0.93418884;0.25631154;0.23977378;-1.198908;-2.180346;0.031184588;0.41391188;0.415097;0.04624428;0.044651017;0.058764815;-0.05777457;0.17271116;0.619364;-0.07176614;0.7205261;-0.18631917;-0.10589977;0.2614651;0.21405447;-1.1290445;0.31605107;0.13434464;1.2460394;0.24517463;1.4964535;-0.08211732;1.5210162;-0.12492341;-0.14801282;0.1994874;0.01278011;-0.04106608;-0.34689072;-0.03932181;0.53846705;-1.2773385;-0.25053093;0.59127194;0.72408515;0.17180325;-0.15055296;-0.28594807;0.18223384;0.086497255;0.06202179;-1.0567772;-0.42428133;0.33788005;-0.24019687;1.4096153;0.10573346;-0.037852976;0.27705613;0.0070650023;-0.05691465;0.061837774;-0.123123676;0.04279303;0.43019915;0.05058913;-0.03050731;0.06327121;0.067972645;1.1396172;0.3263402;-0.025989706;0.30032614;0.3201681;0.09253914;-0.3000347;-0.21341068;1.1726892;0.0046193;-0.93896276;-0.17948295;-0.114633024;-1.016008;-0.048072327;0.1709512;-0.11914741;-0.11324913;-0.16093187;0.11400499;2.9252582;-0.057837363;-0.036281876;0.10676817;0.21897958;-1.9673884;0.44711033;-0.3402349;0.018624721;0.15405607;-0.3741274;-0.21602093;0.13978885;0.08720764;0.6279625;0.22669582;0.102419324;-0.057857227;0.20671184;0.011865135;0.072320946;-0.5763022;-0.0285274;-0.12907256;-0.28350893;0.0971525;1.0828351;-0.9541617;-0.027184457;1.6036012;0.024207264;-0.09949737;-0.032486465;0.13723913;0.27981076;-0.29507494;0.12033724;0.39438662;-0.090388656;0.05376542;0.31260797;0.15235071;-0.012777599;0.2569882;-0.9521875;-0.022717232;0.013294569;-0.40313464;-2.223499;0.026149346;-0.7690926;0.12577544;-0.15260535;-2.529838;0.100485794;-0.06262656;-0.13151991;-0.35554805;0.05404354;0.1671604;-1.9494941;0.3527702;0.09316829;-0.045703698;-0.07734233;0.721883;-0.41509622;0.20981339;-0.093343325;-0.14669721;-0.46946883;1.3242127;-0.1941239;2.0697513;-0.059826687;-0.017067572;0.06934657;-0.08363057;-0.32404685;0.11860186;-0.07838155;0.82415205;0.1604818;-0.076964535;0.015639268;0.9025423;-0.15782653;-0.4773731;0.070521355;0.034457818;0.19201855;-0.1396025;-0.4737742;-0.12799475;0.063611165;0.9158046;-0.17635962;0.14833827;0.030312281;-0.22515593;-0.48301038;0.12920876;-0.07994935;-0.018617522;-0.11013812;-0.4190298;0.35493225;-0.106740095;-0.63540214;-0.076898485;-0.38915387;0.106760636;-0.14373934;1.9650173;0.6774846;-1.9978803;-0.2508416;-0.47995195;0.09973444;-0.09320258;-1.6761205;-0.2670777;0.99119014;0.13860624;0.02779548;0.65631086;0.12318396;1.0004504;-0.08128003;-0.8335565;0.13729076;0.09325079;0.100781485;0.2639612;0.01284536;-0.08261618;0.8931469;-0.241518;-0.07281294;0.65503854;0.28254676;0.12516272;-1.1218553;0.22390522;-0.6538741;-0.35008788;0.023026949;-0.10285897;0.024497772;-0.05547349;0.90630645;-0.24995095;-0.37155166;-0.41425228;0.52281755;0.7167915;-0.2550266;-0.7584068;1.910201;-0.07468383;-0.065895945;0.026137803;-0.1432437;-1.5647082;0.3081085;-0.114567116;-0.19353165;0.0014631018;1.9935775;0.115050584;0.037290994;-0.006402891;-1.1236016;0.036124207;0.45110962;0.020207148;1.7759169;0.0142482165;-0.26785338;-0.1556544;-0.15676668;-1.1706668;-0.05375579;-0.018809093;0.20514856;-0.096859366;-0.025380904;-0.23607844;0.41499233;-0.015511504;-0.042417206;-0.11564743;-0.11226261;-2.5099487;-0.15910263;-2.2253513;-0.056469936;0.006138783;0.6194863;0.17220022;0.49747673;-0.4326933;0.12459268;0.3652537;0.5734786;1.3955803;-0.07856413;-0.23465684;0.0044530598;0.11356194;-2.0771923;-1.4474735;-1.1737523;-0.19051924;-0.14604276;-0.10050792;-0.04139066;-0.011583629;-0.2335849;-0.17384598;-0.13228942;0.0037808146;0.049194083;-0.055784643;1.9242501;-0.09397596;-0.2764213;-0.018993279;-0.101699844;-0.052154396;-0.085048795;0.15055467;-0.106246434;-1.6387571;0.106443234;-0.11549023;-0.12804727;0.22853121;-0.08074476;0.85728496;-0.037995655;-0.093543254;-0.19261913;-0.17845115;-0.09485563;0.624567;0.45807207;-0.09767359;-0.19422385;0.44772092;0.05460382;0.16302055;0.57793605;0.024797326;-0.13966608;0.012108919;-0.6333773;0.12422763;0.18421485;0.0075097843;-0.025275894;-0.040363044;-0.3321674;-0.44914007;0.007909977;0.39157397;-0.06640232;0.20412846;-0.86065245;0.18760663;0.11497645;0.15004627;0.7847722;-0.2554563;0.15165313;0.33596587;-0.15817295;1.3159156;0.24419428;0.015235345;1.500706;0.6894749;1.1512619;0.028962664;0.031154975;-0.0009211858
-0.074973226;0.09721021;-0.007328854;0.20733431;0.1944274;-0.051067363;-0.023345867;0.10594937;1.1480081;-0.11616283;0.107592285;-0.2636129;-0.061283737;-0.017712738;0.097332895;0.16690797;-0.17629421;0.24884704;-0.03254463;-0.1727985;-0.01955431;0.4719866;-0.12386718;-0.18715432;-0.03284783;-0.593615;-0.21899527;-0.09360345;0.14534129;0.17480987;-0.1489302;0.0022828416;-0.092563145;-0.3556405;0.12966006;-0.11128804;-0.1762197;0.32257295;-0.0043652407;0.05054923;-0.04458472;0.010223179;-0.38785198;-0.02121656;-0.58618855;0.018449659;-0.097971596;-0.49056232;-0.18534742;-1.5338397;-0.15948555;0.7654304;0.044471197;-0.27695736;0.47394302;0.084031865;0.09257286;0.00894667;0.04844585;-0.014980985;0.92877066;-0.08045269;0.2211347;0.062151592;-0.060663357;0.087921105;-0.041779116;0.030752704;-0.075068794;-0.21313451;0.2240267;-1.3009933;-0.099149495;0.06324501;0.10329419;0.045979634;0.15104103;-0.02547761;-0.09688807;-0.15513773;-0.1515348;0.015285588;-0.20770516;-0.094401486;-0.03998642;-0.14693974;-0.29834202;0.0305948;-0.20844959;0.01703603;-0.08422587;0.014711666;-0.010217551;0.37495974;0.051980235;-0.13333957;0.11174651;-0.18700546;0.07929906;-0.036218636;-0.0990294;-2.0621119;-0.25877613;0.1314234;-0.19476578;1.3568925;0.013818142;-0.046781093;-0.013857404;0.14768831;-0.3217513;-0.13424017;1.2638141;-0.34780815;0.012373844;-0.09459607;-0.18268146;-0.0041017476;-0.05905989;-0.38773945;1.0408487;-0.039640643;0.08739804;-0.03260954;-0.19292724;-0.013430394;0.05956592;0.038299147;-0.025955316;0.09154962;-0.12638266;-0.10696432;-0.41779143;-1.1516576;0.085349776;-0.020185629;-0.04715725;-0.06851134;-0.013458875;-0.58322626;-0.74994624;0.044243984;-0.092764996;-0.025584368;-0.023086587;0.11506281;2.5307178;-0.017815024;-0.06415794;0.014781896;-0.020729234;0.035536904;0.02325334;-0.24238488;-0.94915533;-0.9651923;-1.4958194;-0.48631188;0.1787424;-0.03666302;0.022044966;-0.3665926;0.1267185;0.13295463;-0.038327586;-0.025105499;-0.10365453;0.21533927;-0.21005608;0.03762151;0.078515805;-1.0900327;0.042332996;-0.015126176;0.024117282;-0.07292779;0.0117954165;-0.03927994;0.9770319;0.03357985;0.10777236;0.028429786;-0.13759097;0.018725058;0.1578254;-0.013421466;-0.029095303;-0.36542538;0.6367879;0.15216517;0.5922792;0.04968402;-0.09820025;0.029852215;0.027372597;-0.06607409;-0.15160821;0.98213094;-0.1389053;-0.56738013;-0.051373918;-0.8421793;-0.069059975;-0.2479504;0.0858928;0.067590535;1.2579038;-0.012185135;0.11172823;-0.11942642;-0.7874076;0.028612405;-0.22216344;0.05487484;0.17450722;-0.029119533;-0.034621492;-0.099026956;0.059236035;-0.22428511;-0.031671617;-0.460655;-0.0053267223;0.14920007;0.073870055;0.16422057;-0.0062168017;-0.36051732;0.4856516;0.9620176;0.027666045;1.6163936;-0.32261947;0.3101252;-0.052341193;-0.029767318;0.17242944;0.031902447;-0.04696581;0.010005048;0.0292332;0.0119213;-0.6708476;0.20849808;-0.32742348;-0.5027426;0.06609153;1.1939542;1.5848459;0.005352089;0.021338232;-0.03333661;-0.43130696;0.81895655;-0.40780857;-0.22015384;-0.02067843;-0.00894291;0.012275969;0.16193536;-0.060577646;0.021535762;-0.14242803;0.012711624;-0.07310557;-0.15736581;0.10960745;0.018546779;-0.030202169;0.071523234;0.8550648;-0.6591192;-0.107712366;0.0045524687;0.23321003;-0.119090825;-0.65333056;0.07970077;0.09868282;-0.06523387;0.7629309;0.13420975;0.0020104374;-0.9077806;0.032740284;0.0981247;-0.07486773;-0.02755395;-0.103267625;-0.02066201;1.4637003;-0.035475947;-0.031348884;0.048872784;-0.50147796;0.06525596;0.19908331;-0.0052929497;-0.05425887;-1.0353256;0.089748055;-0.01929805;0.030047184;-0.15339798;0.29157448;0.11214496;0.23413369;-0.024937479;-0.51863587;0.047757313;-0.5045746;-0.5236187;0.09725814;0.18317814;-0.7785082;0.13343449;-0.16506152;-0.78394926;0.016036918;1.8013927;-0.03575205;-0.099648125;0.024886502;-0.005564653;-0.02659661;-0.11102171;0.09584094;-0.07679848;0.025661625;0.046889048;0.4126223;-0.1363692;-0.041909035;-0.09496497;0.32457125;-0.058104843;-0.1225028;-0.48173693;-0.60080034;-0.165579;-0.58053607;-0.4607668;0.023942137;-0.048903994;0.083168216;0.059536718;-0.13961822;-0.054714054;-0.030074775;0.03422833;-1.0744971;0.045892306;0.0757653;0.063509196;0.7886768;-0.4470664;0.17646383;0.09165338;-0.08180381;0.04274747;-0.43407217;-0.49124095;-0.12046113;2.0285811;-0.10360334;0.07162811;-0.045424342;-0.026586616;-0.14252627;0.07796964;-0.10384723;0.23306844;0.059567913;-0.028411552;-0.0934147;-0.55241513;0.07555301;0.73639244;0.10383032;-0.07028614;0.0978706;-0.12979037;-0.03224607;0.33734694;0.017317178;0.86591464;-0.020619571;0.112438455;0.06592142;-0.04785034;1.3245264;0.04529319;-0.066396475;-0.05042996;0.032622095;-0.36976224;-0.07258799;-0.018160133;0.21256593;-0.09420827;-0.51171774;0.09935686;0.23074108;0.18882257;-0.444659;0.42188713;0.0023135669;0.14409357;-0.04212024;-0.030846355;1.8309288;-0.049119197;-0.12020222;0.4957666;-0.51463586;0.30118874;0.16672176;-0.41382274;-0.11082131;1.6668665;-0.16343929;-0.1940761;0.07658963;0.0051042787;0.028952587;-0.0019032587;1.4120291;-0.047308885;-0.036514863;1.9273099;-0.011430161;0.012751713;-0.23155484;0.13345022;1.0779998;0.08630954;-0.05368694;-0.008235796;-0.046152033;-0.010245655;0.22503665;0.10952779;-0.166094;0.22425392;-0.03187406;0.42760512;-0.889645;0.39609498;-0.07757416;-0.14904536;-0.0055657784;-0.00968927;-0.13248402;-0.7132395;0.14214431;-0.0762779;-0.72891015;-0.17299908;0.9738221;-0.024094634;-0.0050309636;0.099195324;0.56695837;-0.023460846;-0.15839094;0.073395796;0.2294678;-0.017819198;-0.1194415;0.11793688;0.008830125;0.601244;-0.042137437;0.035565466;0.14625122;0.014136814;0.03555241;-0.11809233;0.20713373;0.013768812;-0.037629023;-0.050932255;-0.32776085;-0.8722828;-0.00088700396;-0.31430614;-0.074754275;-0.012450391;-0.41395995;0.024105335;-0.2926139;0.17355493;0.06599644;0.07857534;-0.31880328;0.16358435;0.010695926;-0.06826394;0.06081633;0.43543923;0.30640957;0.68709934;-1.2095946;0.100403495;0.0064334893;0.011335053;0.01117909;0.09233559;-1.396206;-0.055741176;0.03322906;0.06087935;-0.034848254;-0.081115514;2.1445036;-0.006159741;-0.10848756;-0.047015563;-0.29568508;-0.02897045;0.02537999;-0.0062515144;-0.021457154;-0.8622936;-0.09165145;0.08056081;-0.05623375;0.08002774;0.013914639;1.0902991;-0.09648344;-0.09668175;-0.6272074;0.042899795;0.021296589;-0.29190487;-0.24467523;-0.060479496;0.8858763;-0.67439395;0.078378834;0.07911313;-0.29783297;0.011906683;0.3676745;-0.05639803;-0.19201376;0.09903761;0.0761013;-0.03736501;0.004012741;-0.017036362;-0.14497739;0.1332037;0.036812358;-0.95131195;0.060234353;0.07214616;-0.36757556;-0.09435974;-0.37850544;0.059249185;1.7928678;0.07706202;0.16422673;0.056057915;0.020832522;0.6898482;-0.102001905;-0.000745982;-0.43989992;-0.09101697;0.041231804;0.0577919;0.057543125;0.030336613
0.02584773;-0.08813583;0.06361078;1.0846409;0.03170322;-0.065837875;1.1075207;0.15279818;1.1575028;-0.08722938;0.14404054;-0.2078328;-0.060749065;-0.023642562;0.052063696;-0.30983222;-0.27243719;-0.30195627;-0.0430538;0.023094459;0.061479207;0.32347426;-0.037966896;-0.0011696503;0.04536616;-0.19672734;-0.016614823;-0.02867528;0.050870858;-0.1027462;-0.085206084;0.11336088;0.002273697;0.58677155;-0.022865212;0.08142458;-0.58437943;-1.2540041;-0.032808978;-0.0440686;0.04528987;0.9365021;-0.81817883;-0.053846247;-0.32062003;-0.056625493;-0.06996501;-0.13956682;-0.15705703;-1.4548452;-0.2570076;-0.6132623;0.00947987;-0.47722462;-0.11748076;0.04575603;-0.04227836;0.04475361;0.0060822214;-0.055628885;0.44511804;-0.023260191;-1.7460253;0.025025452;-0.039506447;-0.018999165;0.03077505;0.20135224;-0.10815695;0.09154213;0.022521028;-0.9769524;-0.08296833;0.6689642;-0.31858712;0.015948277;-0.07305832;-0.489586;-0.059613533;-0.074016854;-0.00980898;-0.039569125;-0.34371758;-0.54514384;0.060369484;-0.32167184;-0.044007674;-0.043782454;0.106184594;0.037661884;0.08302657;-0.06268232;-0.034578405;0.18881811;-0.02737809;-0.075150795;-0.14443974;-0.08035333;-0.083465606;0.059041213;-0.07328703;-0.71148413;-0.006529954;0.1119278;0.08788894;0.62882334;0.031756997;-0.08686098;0.04794095;-0.06768074;0.03209575;-0.10992441;0.7195161;-0.74582475;0.011767145;-0.07740469;-0.4447184;-0.062616065;-0.0022407675;-0.53360873;0.92144406;-0.08086798;0.07249728;0.04688606;0.007714492;0.0044515594;-0.07946575;0.029439721;-0.050510358;-0.03877978;0.015994962;0.07128939;-1.5935119;-0.4523343;0.11729984;-0.03355476;0.036213983;0.03033356;-0.49991068;0.13125956;-0.32189155;-0.05298932;-0.5235852;0.024099888;-0.05781676;0.75639653;0.8873141;-0.030870808;0.03308846;-0.09623933;-0.0948071;-0.049580485;0.07139881;0.0629997;-0.1038208;0.6692744;-0.18109141;-0.055976156;-0.16509321;0.065019734;0.0576389;0.35461897;-0.56750995;-0.0061757797;-0.053941756;-0.06196782;0.050465878;0.15766092;-0.23111637;-0.016033864;0.03658729;0.40096998;-0.05976371;-0.055001218;0.022894412;-0.034347832;0.022851989;-0.06822004;0.19558227;0.03536482;-0.0057983818;-0.062329713;-0.02117669;0.070392385;-0.20747493;-0.020686071;-0.04126162;0.72897464;1.1533865;-0.07001664;0.017582247;-0.054428846;0.0820715;-0.041953284;0.052270327;-0.08218889;-0.5407585;0.66600966;0.08665306;-0.11592554;0.08273538;-1.2224437;0.06597864;-0.36834294;-0.049357284;-0.014775549;1.075095;-0.10220663;0.0585596;-0.4440779;-0.043325737;-0.07867414;0.023334842;0.55113316;-0.06239356;0.026519667;0.018175412;-0.07018858;-0.038173135;-0.5794635;0.07158092;0.08274727;-0.1097984;0.12138538;-0.0016542318;0.0722042;-0.98037297;0.23410106;1.2738796;1.5710686;-0.07890053;-0.12892136;-0.18806702;-0.24669214;0.028885674;0.11689636;0.04079414;0.05489854;0.0623261;0.0139179705;0.035181195;-0.100802004;0.5434806;-0.2124296;0.109271444;0.06239057;-0.05878195;0.09047357;0.4604922;-0.002549246;-0.058065742;0.101550184;-0.60144746;0.8486397;0.03435145;0.24499963;-0.77392095;-0.031176677;0.025652803;-0.0064474614;0.00310166;0.02948154;0.04419652;0.0635516;0.0737573;0.08474953;0.06804621;-0.046350446;-0.07214311;-0.05245549;0.22011998;-0.29374853;-0.065529004;0.02397484;0.24308021;-0.06800125;0.73581576;-0.10605824;-0.80994445;-0.025881678;0.6080266;-0.16063349;-0.068354554;-0.5684274;-0.06475522;-0.20572168;-0.011187134;0.06304878;0.05130899;0.0011161475;-0.29272732;-0.08375281;-0.048447616;0.08300074;0.14427087;-1.9771177;-0.11805833;0.30867583;0.44599724;-0.5441873;-0.20680833;0.0032341385;0.022473263;-0.005260971;-0.20308168;-0.0441162;-0.11663731;-0.07277083;-0.66196316;-0.07841962;-0.28863686;-0.91749644;-0.083208874;-0.09957435;0.27862346;-0.060548626;-0.6326761;-0.22917694;-0.051238317;-0.079380535;-0.027781239;0.0037480812;-0.04795522;-0.044763833;-0.0003997551;0.050257877;-0.026115973;-0.021962786;-0.007930558;-0.14596523;0.20394966;-0.05532797;0.042457134;-0.42213103;0.16620347;-0.08960842;0.0041900985;0.26421082;-0.0024181604;-0.032302976;0.14700611;0.14958367;-0.012349523;0.109846;-0.01551769;-0.035603553;0.035664577;0.046769336;0.018418107;-0.03059017;0.4375624;0.65766144;0.21330202;-0.074170895;-1.8242862;0.1468239;-0.2959027;0.057009283;-0.0622721;-0.635918;-0.28201666;0.50760114;-0.20981665;1.345434;-0.00965611;0.08411207;-0.07177768;0.012626888;0.061748408;-0.044263497;0.06519241;0.027148347;0.0072780163;0.04632277;-0.122885555;-0.36406973;0.7905332;0.44645637;-0.013622123;0.059001222;0.0039171097;-0.035520308;-0.259258;0.03385138;0.045107614;0.29128978;0.06357904;0.03572022;-0.020719022;0.002932006;-0.2996601;0.0343372;0.033908952;0.023801653;-0.07875537;-0.03906637;-0.06658478;-0.07036815;-0.04322375;0.034525696;0.15880832;-0.061292566;-0.11571736;-0.4638295;-0.36012623;-2.4640887;-0.1689556;-1.8503264;0.083621114;0.06931143;0.8516602;-0.025080755;0.5606431;0.11922279;-0.58963317;-0.067592904;0.11645424;0.7889312;0.03141792;1.0427041;-0.061766304;-0.034658093;0.03622581;-0.032749217;-0.0765819;0.060750626;1.3514724;-0.041792918;-0.08289106;-0.7306241;-0.24182135;-0.030654116;-1.5550158;-0.019792812;-0.33590433;-0.023869753;-0.0804592;0.05989824;0.060674354;0.0046606446;0.19199573;-0.017113015;-0.007073678;-0.27923462;-0.22999714;1.4095186;-0.39594135;-0.36239746;0.3903312;0.0334297;-0.04426094;0.06399974;-0.048937354;-0.6378685;0.093077056;0.078719;-0.66421545;0.13185365;1.5462986;0.065217145;-0.036148172;0.07375032;-0.22712925;0.0012114883;0.14838275;0.053967018;0.22352554;-0.04833179;0.063566156;-0.09866936;-0.042183302;2.770781;0.077348776;0.019431906;0.07058548;-0.014091828;-0.037442096;-0.0862139;-0.023362257;-0.08486543;0.07704356;0.05426743;-0.22027221;-0.1320964;0.020893289;-2.016202;0.06072841;0.06252703;0.06866506;0.015108364;0.059675407;-0.19484977;0.06622304;-0.012604553;0.19388257;-0.49423042;0.050359707;-0.04259763;-0.07405887;-0.04542349;-0.40097794;1.0634938;0.8310484;-0.13338766;-0.026978193;-0.067732796;0.008567993;-0.08611984;-0.769516;0.05684504;-0.06850109;0.0010170405;0.041620158;-0.05656185;0.34386638;-0.003670964;-0.09987981;0.020583302;0.03706713;-0.0898086;0.023692805;0.034234732;-0.049110446;-0.5014512;-0.07773858;0.06563227;0.002866703;-0.023914728;-0.06516282;0.34437436;-0.066054866;-0.050386675;-0.41520247;-0.14583632;0.025838437;0.15188816;0.014427908;-0.047486965;-0.038538363;-0.72239286;-0.012587906;-0.027801227;0.15506954;0.023896446;-0.0635888;-0.045108244;-0.6452264;0.04998828;0.08037252;0.059460156;-0.058996417;0.04953961;-0.19807942;-0.40080526;0.077898614;0.5430231;-0.02539595;-0.079359144;-0.48144948;0.1018639;-0.107061185;-0.056317;0.27523285;-0.18873684;0.046221007;-0.075500466;0.21145359;0.56757295;-0.0022969788;0.08706042;-0.5716167;-0.2982022;-0.972994;-0.05797924;0.028142868;-0.05108992
0.05490905;-0.18432856;-0.08266485;-0.7118536;-0.21403918;0.13595165;-0.6141997;0.13718387;-0.20072229;0.14093362;0.01114314;-0.038646363;0.014218389;0.042816535;0.03364225;-0.29292625;-0.31540233;-0.7416238;0.07041113;0.033344503;0.057957508;0.17508988;-0.43418455;0.05526672;-0.051907517;0.22760598;0.17982265;0.016532691;-1.0505738;-0.2607667;-0.01438126;0.61228275;-0.06373398;-0.44645077;-0.0044957134;0.11344016;-0.3992478;-1.2408578;-0.031126544;0.036265742;0.012188467;-0.73073757;0.084202334;-0.018309234;-0.14230093;-0.069722965;-0.052208167;-0.2684522;-0.06495464;-1.5808337;-0.50810903;-0.67446935;0.010959692;-1.5666212;-0.20921384;0.011840694;0.009890114;-0.06782875;0.072131455;-0.008268401;-1.1355752;0.068357415;-1.2095152;-0.0761978;-0.0072699944;-0.0808144;0.034523275;0.2479008;-0.07228501;0.11414039;-0.25839204;-0.052507304;-0.035978008;0.077947654;0.30719963;0.013562132;-0.04342708;-0.3198517;1.3547982;0.15508334;0.06020941;-0.030131165;-1.3180876;-0.56843776;0.053941164;-0.48688543;0.28420183;0.060858432;0.10923712;0.045005545;0.11882764;-0.0332913;-0.04004031;-0.3612216;0.033285804;0.044466;-0.4441567;0.033447266;-0.011281237;-0.07613377;0.013051093;-0.35293213;0.11671533;-0.2330001;0.1491769;-0.8163646;0.036269423;0.012392523;-0.10372276;-0.011071833;-1.3483322;0.018074831;-0.33484468;0.12614681;0.025423495;0.0515777;-0.4899085;-0.07672134;-0.0010682913;-0.68119204;-0.31939065;-0.014423904;-0.08794357;0.07489429;0.15610085;0.04912345;-0.0126210265;0.041971464;-0.21766545;-0.12312036;-0.0035215572;0.086746834;-0.22119097;-0.90572304;0.06396989;-0.09404634;0.025225641;0.12705298;0.44300002;-0.0341894;0.5846224;0.0058604004;-0.03500184;0.06790621;0.02116478;-0.14609422;0.19667079;0.08478128;-0.065404445;-0.075068966;0.03018387;0.052436035;0.044767864;-0.29551312;0.8446222;-0.014053468;0.53196406;-0.58747864;0.13098119;0.0005153355;-0.07021597;0.01276064;0.3686777;-0.12214129;0.06032134;-0.008643015;0.0053044767;-0.16104065;0.2765185;0.06079975;-0.10692626;-0.40133873;-0.058755312;-0.095936;-0.048711784;0.040308625;-0.005904964;-0.12650433;-0.020081861;-0.07005726;0.05329867;-0.0056887553;-0.02610811;-0.119340874;-0.23992401;-0.014263265;-0.08491075;-0.22021434;0.39785066;-0.09102055;-0.22315826;-0.08041888;-0.7643345;-0.1201322;-0.054047734;-0.07682131;-0.22017437;-0.22926296;-0.15552922;-0.044012457;0.028391754;-0.44554037;-0.013374877;0.25196353;0.052692812;0.0008867402;-1.1947577;0.36411136;-0.02427572;-0.1168379;-1.4768496;0.030285532;0.12885478;1.0400909;0.11502028;0.033055943;0.019870283;0.09078816;-0.07035316;-0.37380832;0.023947205;0.14972317;-0.10228319;0.002695786;-0.034290556;-0.0629291;0.25704995;0.09239109;0.69465107;1.0986166;-0.2689469;0.16447267;-0.13910235;-0.46688068;-0.08281268;-0.059817526;0.019412154;0.013232942;-0.00860351;-0.029919347;-0.08856566;0.49658474;-0.74582475;-0.2607439;0.19447155;0.034619913;-0.078444995;-0.41983074;-0.8732688;0.072298296;-0.10590793;0.12745146;-0.5673114;-0.32588026;-0.5315403;-0.24060825;0.3990323;-0.020327114;0.032703396;0.040610272;0.008755799;-0.04304468;0.14263968;-0.07074959;0.022792922;0.14206856;-0.07831589;-0.057203505;0.035765305;0.043131173;-0.44769883;0.05842038;0.05132389;-0.054627426;0.21258168;0.06300792;0.57398367;-0.12819935;-0.13795453;0.048014298;0.0075220005;-0.10599411;-0.014846635;-0.07182063;-0.050013397;0.13417625;0.01470077;-0.0069725825;0.07669695;0.030200906;-0.44242796;-0.053992637;0.051303025;0.057201125;-0.2758697;-2.325875;0.660908;0.4058504;-0.08210977;0.49126434;-0.19091599;0.009375421;-0.10965981;0.002045623;0.28260818;-0.11213514;-0.5774561;-0.06579205;0.997137;0.017901141;0.10001269;-0.92767173;0.02423881;-0.13576815;0.25431007;-0.036133792;0.5453794;-0.058681123;0.028080184;-0.18348922;0.085561946;-0.019306513;0.058875065;-0.06709058;0.03640663;0.06359405;-0.0140207065;0.6772978;0.034344144;0.03230366;-0.320356;-0.35631907;-0.006062475;0.024059268;-0.51023746;-0.039338745;-0.05733233;0.17997387;-0.7024739;0.0618582;-0.6456834;0.33510202;-0.13157839;-0.42122906;0.016551824;0.033225033;0.031995505;0.012089397;-0.027188774;0.05361415;-0.2076144;0.34094694;-0.5836932;-0.032720786;-1.7679867;0.14515647;-0.28658515;0.049276385;0.06661716;-0.37438375;-0.5754237;-0.2296003;-0.24374263;-0.35328698;0.08950686;-0.002211069;-0.10679695;0.013159109;-0.070192754;0.06686984;-0.030711753;0.4584858;-0.075065866;0.07139026;-0.07842585;-0.38665757;-1.3246616;0.09828921;-0.078574575;0.023966352;-0.03553164;0.13091335;-0.15427226;-0.10693845;-0.058556963;-0.09656915;-0.038072687;-0.10683632;-0.080569945;-0.015078035;-1.8908693;-0.07815794;0.022079585;-0.07285522;-0.12768024;0.2342096;0.047656056;0.015186466;-0.20783004;-0.003825479;-0.054567564;0.07311291;-0.13622063;-1.4820024;-0.28312126;-0.40321332;-0.16737626;-1.0339458;-0.06915823;-0.019811574;-1.4135673;-0.025635384;-1.4664112;-0.46222183;-0.28162295;-0.4386915;-0.024532774;0.57307327;-0.06172627;-1.5160323;0.08242936;-0.099745534;-0.05000432;-0.03920596;0.0049812663;0.044787366;-0.5142695;0.043249357;-0.05906107;-1.3826402;0.027525708;0.36520222;-1.0617025;0.028099507;-0.24314758;-0.22153687;-0.023676418;-0.0024988174;0.00029409226;-0.052637663;0.18512152;-0.091056705;-0.04403666;-0.31509036;-0.11930899;-0.4725132;0.32934183;-0.21689846;0.4607031;-0.041611873;0.008745585;0.04551926;0.074509844;0.3200339;0.590419;0.01611812;-0.64046186;0.28590003;0.0036607317;-0.03868071;-0.021802854;0.0675669;-0.96365076;-0.016998498;0.18038382;0.011125532;-0.26784155;0.07884751;-0.03801038;-0.18072806;0.042452328;-0.32599866;0.04745836;-0.052094147;-0.077100985;0.04994218;-0.04394713;-0.032727335;0.011197449;-0.07660226;-0.0069862395;-0.06704637;-0.08842477;-0.8640092;0.020903133;-1.5931023;0.032455202;0.049999934;0.102108136;-0.05137669;0.17090982;-0.26978722;0.07028403;0.057210233;0.12107704;0.5508971;-0.009874151;-0.044430118;-0.043542746;-0.007887605;-1.2592733;0.035022043;0.01919565;-0.18543138;0.056111798;0.012545522;0.078426845;-0.046778075;-1.0761478;0.0027389647;-0.017891956;0.047894992;0.050679956;0.029954908;-0.77308404;-0.15640439;-0.06453407;0.040237263;-0.23064342;0.08856493;-0.012478392;-0.01657359;0.006641151;-0.117381334;0.0086669475;0.044397213;-0.02919591;0.060384586;0.037376527;0.1660651;-0.067251034;0.042346414;-0.32441953;0.12545508;-0.09217449;0.11104465;0.095264986;-0.06453415;-0.8190232;-0.34273586;0.077162884;-0.099118434;0.058278747;-0.04706464;-0.21764736;-0.08502096;-0.9235706;0.04939785;-0.06311662;-0.0061354875;0.01690298;-0.01436626;0.14796135;-0.05878885;-0.10815258;-0.6992925;0.06837602;-0.03248542;-0.9283579;0.30510965;0.17713842;0.01934888;0.18495455;-0.12911968;-0.101967365;0.013466325;-0.66385984;0.02351952;0.096114434;-0.08659121;-0.25301704;0.09159516;-0.8211634;0.057438128;-0.05460318;-0.055294894
0.006235296;-0.070232056;-0.0069270013;-0.7924996;-0.29304263;0.05001637;-0.14542066;0.18630932;0.72866225;0.0645261;0.06479975;0.066190206;-0.042304248;-0.03561961;0.027147058;-0.25493532;-0.30074182;-0.443646;0.037421994;-0.072952166;0.0022351842;0.109791815;0.3220426;-0.035905406;-0.03386615;0.25712052;-0.058209043;0.08675511;0.7336538;-0.05919046;-0.050862115;-0.1282802;0.009500791;-0.23364775;0.07181559;-0.034416325;-1.2174621;-0.26265433;0.035670318;0.04899014;0.05572012;0.031344723;0.61449754;-0.07162111;0.4592419;0.06600532;-0.014030866;0.8687535;-0.21022558;-0.5503474;-0.07461182;-0.8624041;0.091725424;0.14250885;0.18113686;0.06422838;0.064009555;-0.047035385;-0.061812;0.02597781;-0.8625964;0.052230988;0.47413293;0.07339923;-0.029328588;0.03662362;0.012674958;-0.24206416;0.11716685;0.0554931;0.022380969;-0.471788;0.021560017;-0.20561136;-0.16272499;-0.054639317;0.0785437;-0.07616952;-1.2384465;0.018503075;0.03388869;-0.010792386;-1.394318;-0.6270031;-0.018053915;-0.23138751;0.10552015;-0.064220786;0.06821995;0.078532815;0.06985019;0.06772884;-0.06466794;0.59091;0.05781175;0.01969847;-0.29516783;-0.05879224;0.032036994;-0.063991316;0.026576253;-1.2751247;-0.5599972;0.09495796;-0.043053053;-0.8153094;-0.028863255;-0.06300833;-0.09792743;-0.06093512;0.5474677;0.009249903;-0.17790426;-1.7769585;-0.04878172;-0.008278319;-0.3077045;-0.07610122;-0.023379339;-0.17707118;-1.0978273;-0.06286687;-0.057401817;-0.11773651;0.061056104;0.013923723;0.0031831241;-0.023335354;-0.04725172;0.027490877;0.059172273;-0.015458212;-0.7448037;-0.31512097;0.17561145;-0.03233222;0.016451877;0.001874688;0.6580161;-0.12756997;0.2849518;-0.062776126;0.023998536;0.061575208;-0.054174207;0.44789535;0.7780572;0.02237504;0.07977356;0.016479932;-0.020186678;0.056130454;-0.0886151;1.8551822;-0.66854644;0.5560901;0.6266375;-0.635872;0.06496312;0.046636138;-0.047231756;0.016996961;1.3072062;0.060521558;-0.06111443;-0.05878965;-0.08427714;0.12194059;0.5722855;-0.012946404;0.0051444634;0.042847678;0.028929919;-0.005499058;0.07274483;-0.0069697155;0.009078;-0.023853822;0.5957982;0.025827471;0.07178629;-0.04708352;-0.11306544;0.09377525;-0.08100421;0.0008479719;0.029232604;-0.55031896;-0.34038746;0.022092002;-0.67545897;-0.041879516;1.0261948;-0.031999696;-0.054662686;-0.070051424;-0.9168043;-0.17081863;0.006192263;-0.06273371;0.027986225;-0.8057404;0.07612301;0.29101446;-0.03469806;-0.061114013;-0.89799726;0.22659314;-0.008130265;0.16054778;1.101995;-0.037888654;0.02557943;0.109168;0.22276926;0.057102576;0.034905747;0.00901995;-0.0048163356;0.016203646;-0.06269253;-0.013765358;-0.011484737;0.09088411;0.051078852;-0.016390659;-0.8905103;-0.16435449;-0.12028603;0.65646386;-0.12146769;0.18641302;-0.10927986;-1.7438183;0.034678407;0.10355534;-0.0065588085;-0.011730929;-0.07945222;0.05096978;0.02707317;0.6502924;-0.16571224;-0.0853743;-0.027150482;-0.13004014;-0.054275956;-0.75922716;-0.9148061;0.048384666;-0.020682653;-0.03605329;-0.70102346;-0.25926146;-1.1402664;0.07105956;-1.6850054;0.049221445;-0.055165175;0.0860445;-0.027725779;0.028660964;0.07734644;-0.05405348;0.05088084;0.084019996;0.08210881;0.07173382;-0.018828992;-0.045801353;-0.43761232;0.13290934;-0.07934281;0.05965182;-0.1849586;0.10754132;-0.17793712;0.12410152;-1.3596758;-0.0307256;0.347844;0.060790934;0.0029422455;-0.9536645;0.060899645;-0.12849188;0.020269407;0.011094112;-0.004879055;0.059921645;-0.7322245;0.068802044;-0.046152614;0.031827737;-0.055228706;-1.6304294;-0.5922758;0.31631282;0.1469709;-0.04914324;-0.061629813;-0.086327106;-0.037742518;-0.17168479;0.27016756;-0.016611664;-0.2039564;-0.06412242;-0.92386;-0.023130884;0.10955012;0.20855431;-0.08101817;0.061456785;0.3788449;-0.06018925;-1.2434795;-0.25580174;0.050634433;0.17136803;-0.042588428;0.03268738;-0.072653286;-0.050025474;-0.0075687957;0.0092761265;0.08113586;0.04120172;0.06986969;0.04485812;-1.5647868;0.009199853;0.07458011;-0.22457394;0.23630545;0.036045443;0.03441709;-0.27142817;0.36149696;0.23616461;-0.6091176;0.44648054;-0.014788938;-1.67865;-0.12109843;0.008800266;-0.06792569;-0.042199448;0.011767254;-0.07337115;-0.16351227;0.1427211;0.09762093;-0.05481854;1.3491932;-0.025694367;-0.01661347;-0.06076585;0.06697671;0.063018836;-0.06462311;-0.2647382;-0.15364122;0.13224803;-0.02423216;-0.027622355;-0.03533253;-0.043336816;-0.008716597;0.03792606;-0.04579526;0.23935567;0.072369106;-0.010929681;-0.028682197;1.2152389;-2.056201;0.0763401;0.034574263;-0.09057809;0.026081156;0.0076868157;-0.14868304;0.036228362;0.07586704;-0.0069020763;0.08261961;0.081098065;-0.07757513;-0.045623887;-1.057162;0.024477433;-0.055053852;0.06376083;-0.04647982;-0.2534896;0.026978588;0.04196521;0.10236343;0.007907089;0.1938299;0.011772366;-0.018682057;0.06157532;0.13228658;-0.09375903;-0.19902682;0.21249278;-0.003217135;-0.04694985;0.5088874;-0.057086743;-0.38269803;-0.25586045;-0.14668797;-0.4684778;0.0029293853;-0.36672735;0.05318599;-0.42202404;-0.11014845;-0.04194291;-0.075495906;-0.0057169735;0.010519558;-0.02766263;-0.50590646;0.049017232;-0.018065384;0.580063;0.0064834678;0.042316943;-1.5975481;0.04540489;0.47793388;-0.04755513;0.053982046;-0.10400838;0.05092726;0.033553652;0.6105672;0.059150413;-0.06332822;-0.12202397;0.028840099;0.40353876;-2.1267524;0.021632934;1.0447942;0.009986331;-0.073561765;-0.027150176;-0.0015527504;0.65554416;0.66968036;-0.11213603;-1.0381358;-0.13112465;0.23923296;0.05722138;0.019948887;0.03451904;-0.5434537;0.06608568;-0.029425794;0.0026648168;0.13237306;0.06428061;-0.070310816;0.08846575;0.05618628;0.85915285;-0.037611533;-0.015752321;-0.03618144;-0.006359863;0.07650243;-0.007943685;0.31128517;-0.03649306;0.067570865;-0.028430033;-0.61212546;1.250473;0.04211084;-1.8817531;-0.019226594;0.053257603;-0.054377303;0.050559364;0.023669878;-0.09978229;-0.0038663198;0.06610873;0.05118832;-1.460755;-0.0012822272;-0.07275965;0.05190466;-0.09606775;-0.45505768;1.2275276;-0.90574497;0.07358956;-0.035345014;0.057301395;-0.08172129;0.000101598605;-1.012127;-0.056929532;-0.017833874;-0.03066028;-0.026768472;0.04483323;0.08034098;0.053844932;-0.10900489;-0.0650731;-0.23919897;-0.07214253;0.002290926;-0.01606662;0.030217044;-0.05973058;-0.074904874;0.018419193;0.0069116023;-0.03386015;-0.053393792;0.3165326;-0.0028694202;-0.05175701;-1.3785567;-0.27358007;-0.038632438;-0.08996895;-0.0056549376;0.0052830735;0.6986486;-1.1720574;0.08581338;0.0747354;-0.039869502;0.045171782;-0.1661043;0.04470532;-0.45464087;0.07222609;0.010484623;0.03529778;0.0041771494;0.042353913;0.308576;0.20438205;-0.009026301;-0.9637733;-0.040911224;0.044816904;0.93739784;-0.012876827;-0.0028270697;0.06938697;-0.9792991;-0.099885546;0.074183315;0.056134712;0.029050423;0.2956161;-0.058148686;-0.028585762;0.26509908;-0.980693;-0.2261281;0.0019352671;0.048275206;-0.005651611
Bias from input to hidden layer.
0.10901615;-0.20758995;0.2254564;0.17391635;0.09247841;0.24456446;-0.12517062;0.249839;0.14694457;0.14982754;0.31076124;-0.056909356;0.14135323;0.05740918;0.25466266;0.19085272;0.18211575;-0.100631475;0.24902019;0.08147944;0.23396955;0.19133335;0.21070446;0.203024;0.10206795;0.019521711;0.2277612;0.10415652;-0.09270482;-0.12133008;0.14186688;0.07924141;0.13473757;-0.13547397;0.24363485;0.2202713;-0.1206871;0.081373215;0.13173681;0.20338224;0.2354114;-0.10003172;-0.17034388;0.12251373;0.21127313;0.19651297;0.08693873;-0.033173654;0.17427053;0.13173845;-0.14269072;-0.028123993;0.25552374;-0.066808574;0.076229155;0.23314972;0.275749;0.27972984;0.13149403;0.19418985;-0.20633738;0.102687545;0.15915269;0.19123127;0.09718701;0.020357393;0.23978093;0.2158971;0.20396598;0.21023248;0.08560607;0.1095172;0.11251769;0.19494386;-0.08465356;0.28453434;0.24658324;-0.19264667;0.16836976;0.22317983;0.2281215;0.23055616;0.13684508;-0.19734727;0.1756787;0.021456681;0.1869578;0.2572207;0.19267218;0.2276162;0.22309646;0.25195953;0.12571168;-0.13509756;0.2667251;0.08774203;0.008317921;0.26615795;0.2595861;0.11739421;0.15369527;0.12201314;0.19869743;0.11622282;0.23333967;-0.13729098;0.2470662;0.15339702;0.1479207;0.29219937;0.123829246;0.1481126;-0.010712607;0.18010648;0.2449484;0.09995764;-0.15948787;0.20034139;0.07591676;0.05296964;-0.28517717;0.109391294;0.31667864;0.11693877;0.19764544;0.09873078;0.148217;0.2550364;0.11249047;0.31031913;0.16148911;0.13647392;0.1926841;0.0868782;-0.12995265;0.084141605;0.10502123;0.24441138;-0.26368365;-0.09348594;-0.08947882;0.23225644;0.19674523;0.13579601;0.14689036;0.18731077;0.07589534;0.09145108;0.09555436;0.19995302;0.11502886;0.086138844;0.27514893;0.015258553;0.076475486;-0.14194268;-0.122022316;0.025307713;0.22603281;0.15712646;0.15603888;0.22389184;0.057910718;0.2767088;0.122196674;0.09693564;0.12573576;0.24964793;-0.07279404;0.13882607;0.27801538;0.052072655;0.23363598;0.25222084;0.080681756;0.16243698;0.22752482;0.16309819;0.09269603;0.15301017;0.35864818;-0.019807998;0.054967027;0.21625985;-0.21552183;0.1970025;0.04662105;0.23067974;-0.20842025;0.24676381;0.12396878;0.22241357;0.09437842;0.058734156;0.12043532;0.09492498;-0.081925265;-0.1212455;0.24346115;0.30827582;0.25629815;0.099297866;0.07713401;0.22455826;0.33542818;0.11710849;-0.25871083;0.08561937;0.24775521;-0.12195442;0.076882936;0.1313288;0.20955765;0.199633;0.22035728;0.10822453;0.28293726;0.08170803;0.2637424;0.14578041;0.08449379;0.20628905;0.0051785843;0.20410018;0.26282933;0.25429466;-0.16603447;0.2556224;0.19929889;0.13792801;0.23041697;0.20635647;0.08729442;0.1496004;0.09828187;0.08342935;0.26178718;0.2806203;0.121992946;0.12034596;0.19997421;0.09857263;0.19483133;-0.10844944;0.18802343;0.22127774;0.3117645;-0.23813537;-0.15371358;0.2563984;0.23835318;0.2570984;-0.24699795;-0.17611013;-0.13326907;0.23261611;-0.05146752;0.248223;0.15451384;0.3099617;0.09368537;0.13929144;0.2545978;0.0757107;0.23342481;0.21990168;0.22485101;0.24769023;0.1753358;0.23875001;0.1785563;0.11342696;0.06900332;0.26471692;0.21481663;0.24738955;0.18102382;-0.0161007;0.11930296;0.17725375;0.12264248;-0.03597171;0.09903271;0.051891834;0.10706273;0.22981969;0.12212092;0.13779646;0.14400189;0.2190431;0.18535171;0.092512935;0.14934304;0.2577461;0.2584088;-0.24806175;0.13160707;0.19741528;0.2395903;0.1889667;-0.21389319;0.1116233;0.2175141;0.21199901;0.19280563;0.26096293;0.21129717;0.1298875;0.09603309;0.1433622;0.17943005;0.18916738;0.22761822;0.023993583;0.020578101;0.24387765;-0.04520866;0.1764242;0.069651626;-0.19481894;0.13082746;0.13737917;0.2442153;0.25590998;0.2273774;0.06684901;0.24660161;0.1683017;0.1558024;0.10569509;-0.26202407;0.16983943;0.101152316;0.17736043;-0.13152401;0.12760898;0.05048401;0.19027215;0.15970734;0.22708394;0.20292117;0.17308614;0.11146674;-0.11591897;0.23211682;0.120128736;0.14929643;0.07948089;0.28244513;0.26821417;0.12098486;0.1906524;0.23674566;0.16751419;0.122541435;0.19128329;-0.11492391;0.24430913;0.10221304;-0.0027890797;0.112644315;0.09539853;0.07735096;-0.110132664;0.14251204;0.256483;0.31104612;0.087025866;0.1095206;0.24022293;0.13342264;0.22760652;0.27201828;0.12827505;0.22944146;0.18631735;-0.19596122;-0.008542297;0.25566155;0.10713999;0.28272727;0.14096658;-0.077313155;0.092116386;0.18231;0.17840177;0.074948594;0.24799079;0.10303243;0.10674587;-0.21885096;0.28006542;0.086304985;0.2791324;-0.03980367;0.1035875;0.24629599;0.12806323;-0.04046367;0.013781182;0.13246317;0.30193865;0.020855365;0.17541215;0.18445367;-0.22679146;-0.16745383;-0.16831134;0.24447007;0.12567979;-0.26295993;0.10449916;-0.17420429;0.034744922;0.093958534;0.2097739;0.24701972;0.24992163;0.12888767;-0.20499045;0.22894816;0.20852065;0.30741125;0.26389933;0.12589945;0.15444532;-0.1149125;0.12313772;0.15643582;0.123676606;0.20577005;0.19209221;-0.24740294;0.279974;-0.21784572;-0.034336492;0.10525793;0.11721794;0.1417854;0.26479816;0.15272276;-0.061063174;0.070793405;-0.09651892;0.1791794;-0.06044114;0.11488701;-0.13874952;0.14577788;0.10535778;0.17133959;0.109602116;0.105225205;-0.2798547;0.14819558;0.08776405;0.17012833;0.21422596;0.18523511;0.33260706;0.12069228;0.24936381;0.024907516;0.10859003;0.18995768;0.26607218;0.19223124;0.04736959;0.122752264;-0.059448052;0.10393997;0.11476785;0.32723323;0.21968639;0.2523876;0.17145644;0.051343225;0.08396116;0.1455521;0.09695632;0.26086733;0.13300218;0.07132428;0.118783414;0.106331564;-0.24704024;0.07143587;0.13084245;0.20425163;0.2356443;0.19454305;-0.11714173;0.24259555;0.23302369;0.17224257;-0.14754847;0.08750783;0.12859735;0.115818314;0.20689593;-0.010478863;0.079021305;-0.050875776;-0.016674785;0.10856878;0.10029813;0.2628815;-0.0058684577;0.15973549;0.101446755;0.060511652;0.19000015;0.22511803;0.15634862;0.12842673;0.034390673;-0.055298984;0.24652487;0.064988725;0.13593815;0.10311869;0.29451218;0.09723953;-0.20854773;0.25957724;0.09197517;0.10145773;0.30066687;0.12733316;0.20571055;0.08107748;0.122105345;0.12967083;0.09041559;0.006743422;0.15816341;0.21105672;0.12634966;0.15681748;0.035347685;0.23558006;0.2837993;0.17342108;0.084383346;0.019129682;0.26297727;-0.13918278;0.22812967;0.24602908;0.08353956;0.05938866;0.11831584;0.08916148;0.056855507;0.12260289;0.048954777;0.29441962;0.26952082;0.117543556;0.2013623;0.23931943;0.250757;-0.16513604;-0.10458409;0.23501596;0.28368962;0.011757144;0.19786729;0.23843813;0.2634367;0.2622294;-0.08459741;0.15063822;0.15927285;0.089813605;0.2165114
Weights from hidden to output layer.
-0.00015109226
0.07736539
-0.00014188522
-0.3012213
-0.00016550731
3.239657e-05
0.95965034
-0.00040679993
-0.52689916
-1.1279757e-05
-0.00025994703
0.0004607822
2.1041138e-05
-0.00016040982
-0.00032072526
-0.0002796088
-0.20352574
0.00037922812
4.7793e-05
-0.00029883915
-6.917631e-05
-0.00039608916
-0.00032207117
-0.00018766618
-0.00014471247
-0.7279292
-0.00023806834
-5.9346203e-05
0.27301311
0.08622003
-0.00016135968
-0.00017700277
-0.00017988836
0.33075336
-0.00032472785
-0.00020523206
0.077958465
-0.12348567
3.2371652e-05
-4.8743335e-05
-0.00025217712
0.23615946
0.09218491
-9.599872e-05
-0.55886424
-8.186615e-05
-0.0002662748
-5.3891243e-05
-0.0005386976
-0.36811718
0.18475017
0.00024617426
8.893564e-05
0.1396736
-0.22705306
-3.4508175e-06
-0.00021694154
-0.00011609891
-0.00014412138
